{
  "version": "1.0",
  "truncation": null,
  "padding": null,
  "added_tokens": [],
  "normalizer": null,
  "pre_tokenizer": {
    "type": "Whitespace"
  },
  "post_processor": null,
  "decoder": null,
  "model": {
    "type": "BPE",
    "dropout": null,
    "unk_token": null,
    "continuing_subword_prefix": null,
    "end_of_word_suffix": "</w>",
    "fuse_unk": false,
    "byte_fallback": false,
    "ignore_merges": false,
    "vocab": {
      "\u001c": 0,
      "\u001d": 1,
      "\u001e": 2,
      "!": 3,
      "\"": 4,
      "'": 5,
      "(": 6,
      ")": 7,
      ",": 8,
      "-": 9,
      ".": 10,
      "/": 11,
      "0": 12,
      "1": 13,
      "2": 14,
      "3": 15,
      "4": 16,
      "5": 17,
      "6": 18,
      "7": 19,
      "8": 20,
      "9": 21,
      ":": 22,
      "?": 23,
      "@": 24,
      "A": 25,
      "B": 26,
      "C": 27,
      "D": 28,
      "E": 29,
      "F": 30,
      "G": 31,
      "H": 32,
      "I": 33,
      "J": 34,
      "K": 35,
      "L": 36,
      "M": 37,
      "N": 38,
      "O": 39,
      "P": 40,
      "Q": 41,
      "R": 42,
      "S": 43,
      "T": 44,
      "U": 45,
      "V": 46,
      "W": 47,
      "X": 48,
      "Y": 49,
      "Z": 50,
      "[": 51,
      "\\": 52,
      "]": 53,
      "a": 54,
      "b": 55,
      "c": 56,
      "d": 57,
      "e": 58,
      "f": 59,
      "g": 60,
      "h": 61,
      "i": 62,
      "j": 63,
      "k": 64,
      "l": 65,
      "m": 66,
      "n": 67,
      "o": 68,
      "p": 69,
      "q": 70,
      "r": 71,
      "s": 72,
      "t": 73,
      "u": 74,
      "v": 75,
      "w": 76,
      "x": 77,
      "y": 78,
      "z": 79,
      "{": 80,
      "}": 81,
      "ㄱ": 82,
      "ㄲ": 83,
      "ㄳ": 84,
      "ㄴ": 85,
      "ㄵ": 86,
      "ㄶ": 87,
      "ㄷ": 88,
      "ㄸ": 89,
      "ㄹ": 90,
      "ㄺ": 91,
      "ㄻ": 92,
      "ㄼ": 93,
      "ㄽ": 94,
      "ㄾ": 95,
      "ㄿ": 96,
      "ㅀ": 97,
      "ㅁ": 98,
      "ㅂ": 99,
      "ㅃ": 100,
      "ㅄ": 101,
      "ㅅ": 102,
      "ㅆ": 103,
      "ㅇ": 104,
      "ㅈ": 105,
      "ㅉ": 106,
      "ㅊ": 107,
      "ㅋ": 108,
      "ㅌ": 109,
      "ㅍ": 110,
      "ㅎ": 111,
      "ㅏ": 112,
      "ㅐ": 113,
      "ㅑ": 114,
      "ㅒ": 115,
      "ㅓ": 116,
      "ㅔ": 117,
      "ㅕ": 118,
      "ㅖ": 119,
      "ㅗ": 120,
      "ㅘ": 121,
      "ㅙ": 122,
      "ㅚ": 123,
      "ㅛ": 124,
      "ㅜ": 125,
      "ㅝ": 126,
      "ㅞ": 127,
      "ㅟ": 128,
      "ㅠ": 129,
      "ㅡ": 130,
      "ㅢ": 131,
      "ㅣ": 132,
      "ㅣ</w>": 133,
      "a</w>": 134,
      "ㅁ</w>": 135,
      "ㅂ</w>": 136,
      "ㅕ</w>": 137,
      "ㅛ</w>": 138,
      "b</w>": 139,
      "ㅔ</w>": 140,
      "ㅢ</w>": 141,
      "ㅇ</w>": 142,
      "ㅏ</w>": 143,
      "ㅗ</w>": 144,
      "ㄴ</w>": 145,
      "ㅜ</w>": 146,
      "ㅝ</w>": 147,
      "ㄹ</w>": 148,
      "ㄱ</w>": 149,
      "0</w>": 150,
      "T</w>": 151,
      "e</w>": 152,
      "ㅐ</w>": 153,
      "R</w>": 154,
      "ㅡ</w>": 155,
      "u</w>": 156,
      "ㅓ</w>": 157,
      "ㅑ</w>": 158,
      "c</w>": 159,
      "A</w>": 160,
      "ㅘ</w>": 161,
      "ㅅ</w>": 162,
      "9</w>": 163,
      "ㅚ</w>": 164,
      "y</w>": 165,
      "2</w>": 166,
      "ㅟ</w>": 167,
      "7</w>": 168,
      "n</w>": 169,
      "O</w>": 170,
      "1</w>": 171,
      "S</w>": 172,
      "p</w>": 173,
      "r</w>": 174,
      "P</w>": 175,
      "l</w>": 176,
      "i</w>": 177,
      "d</w>": 178,
      "3</w>": 179,
      "k</w>": 180,
      "o</w>": 181,
      "m</w>": 182,
      "C</w>": 183,
      "5</w>": 184,
      "6</w>": 185,
      "ㅖ</w>": 186,
      "G</w>": 187,
      "g</w>": 188,
      "t</w>": 189,
      "s</w>": 190,
      "H</w>": 191,
      "8</w>": 192,
      "ㅠ</w>": 193,
      "h</w>": 194,
      "E</w>": 195,
      "x</w>": 196,
      "X</w>": 197,
      "M</w>": 198,
      "4</w>": 199,
      "j</w>": 200,
      "D</w>": 201,
      "q</w>": 202,
      "F</w>": 203,
      "f</w>": 204,
      "K</w>": 205,
      "B</w>": 206,
      "v</w>": 207,
      "I</w>": 208,
      "N</w>": 209,
      "Y</w>": 210,
      "U</w>": 211,
      "ㅊ</w>": 212,
      "ㅆ</w>": 213,
      "ㅙ</w>": 214,
      "Z</w>": 215,
      "w</w>": 216,
      "z</w>": 217,
      "ㄻ</w>": 218,
      "L</w>": 219,
      "ㅍ</w>": 220,
      "ㅋ</w>": 221,
      "ㅌ</w>": 222,
      "/</w>": 223,
      "ㅒ</w>": 224,
      "ㄺ</w>": 225,
      "W</w>": 226,
      "Q</w>": 227,
      "ㅄ</w>": 228,
      "V</w>": 229,
      ".</w>": 230,
      "\\</w>": 231,
      "ㅈ</w>": 232,
      "ㅞ</w>": 233,
      "\"</w>": 234,
      "ㄷ</w>": 235,
      "(</w>": 236,
      "'</w>": 237,
      "ㅀ</w>": 238,
      "ㄶ</w>": 239,
      "J</w>": 240,
      ")</w>": 241,
      "{</w>": 242,
      "}</w>": 243,
      "@</w>": 244,
      ",</w>": 245,
      "!</w>": 246,
      "ㄼ</w>": 247,
      ":</w>": 248,
      "]</w>": 249,
      "-</w>": 250,
      "ㄲ</w>": 251,
      "[</w>": 252,
      "ㅎ</w>": 253,
      "ㄳ</w>": 254,
      "?</w>": 255,
      "ㄽ</w>": 256,
      "ㄵ</w>": 257,
      "ㄾ</w>": 258,
      "\u001c</w>": 259,
      "\u001d</w>": 260,
      "\u001e</w>": 261,
      "ㄿ</w>": 262,
      "ㅇㅣ": 263,
      "ㅎㅏ": 264,
      "ㅇㅡ": 265,
      "ㄴㅡ": 266,
      "ㅏㅇ": 267,
      "ㅈㅓ": 268,
      "ㄷㅏ</w>": 269,
      "ㄴㅡㄴ</w>": 270,
      "ㅅㅣ": 271,
      "ㅡㄹ": 272,
      "ㅏㄹ": 273,
      "ㅈㅣ": 274,
      "ㅇㅓ": 275,
      "ㅇㅡㄹ</w>": 276,
      "ㅏㄴ": 277,
      "ㅗㅇ": 278,
      "ㅅㅓ": 279,
      "ㅇㅣ</w>": 280,
      "ㄱㅏ": 281,
      "ㅇㅢ</w>": 282,
      "ㅅㅡ": 283,
      "ㄴㅣ": 284,
      "ㅇㅕ": 285,
      "ㄱㅗ</w>": 286,
      "ㄱㅣ": 287,
      "ㅡㄹ</w>": 288,
      "ㅇㅔ</w>": 289,
      "ㅜㄴ": 290,
      "ㄱㅓ": 291,
      "ㅇㅡㄴ</w>": 292,
      "ㅎㅐ": 293,
      "ㅇㅣㅆ": 294,
      "ㅜㄹ": 295,
      "ㅂㅗ": 296,
      "ㅂㄴㅣ": 297,
      "ㅈㅏ": 298,
      "ㅇㅏ": 299,
      "ㅂㄴㅣㄷㅏ</w>": 300,
      "ㅎㅏㄴ</w>": 301,
      "ㅁㅏ": 302,
      "ㅈㅜ": 303,
      "ㅕㅇ": 304,
      "ㅅㅏ": 305,
      "ㄱㅏ</w>": 306,
      "ㅇㅔ": 307,
      "ㄹㅗ</w>": 308,
      "ㅅㅓ</w>": 309,
      "ㄷㅏ": 310,
      "ㄱㅜ": 311,
      "ㄷㅐ": 312,
      "ㅇㅣㄹ": 313,
      "ㅕㄴ": 314,
      "ㅇㅣㄴ": 315,
      "ㅗㄱ": 316,
      "ㄷㅡㄹ": 317,
      "ㄷㅚ": 318,
      "ㄹㅣ": 319,
      "ㅈㅓㅇ": 320,
      "ㅁㅣ": 321,
      "ㅅㅏㅇ": 322,
      "ㄹㅡㄹ</w>": 323,
      "ㅇㅝ": 324,
      "ㅈㅣ</w>": 325,
      "ㅕㄴ</w>": 326,
      "ㄱㅡ": 327,
      "ㄷㅡ": 328,
      "ㄷㅗ</w>": 329,
      "ㅎㅘ": 330,
      "ㄱㅘ": 331,
      "ㅈㅔ": 332,
      "ㅂㅜ": 333,
      "ㅇㅛ": 334,
      "ㅎㅏㄴ": 335,
      "ㅗㄹ": 336,
      "ㅂㅓ": 337,
      "ㄴㅏ": 338,
      "ㅈㅓㄴ": 339,
      "ㅅㅜ": 340,
      "ㅂㅏ": 341,
      "ㄱㅔ</w>": 342,
      "ㅈㅏㅇ": 343,
      "ㅅㅜ</w>": 344,
      "ㅅㅐ": 345,
      "ㅂㅣ": 346,
      "ㅈㅗ": 347,
      "ㅊㅓ": 348,
      "ㄱㅡㄹ": 349,
      "ㅅㅡㅂㄴㅣㄷㅏ</w>": 350,
      "ㄱㅣ</w>": 351,
      "ㅇㅡㄹㅗ</w>": 352,
      "ㄱㅗㅇ": 353,
      "ㅁㅗ": 354,
      "ㅅㅓㅇ": 355,
      "ㄱㅓㅅ": 356,
      "ㅆㄷㅏ</w>": 357,
      "ㄷㅗㅇ": 358,
      "ㅅㅗ": 359,
      "ㅅㅔ": 360,
      "ㅁㅜㄴ": 361,
      "ㅇㅠ": 362,
      "ㅊㅣ": 363,
      "ㅇㅔㅅㅓ</w>": 364,
      "ㅔㅇㅣ": 365,
      "ㄱㅕㅇ": 366,
      "ㄱㅗ": 367,
      "ㄱㅘ</w>": 368,
      "ㅈㅓㄱ": 369,
      "ㄷㅗ": 370,
      "ㅇㅏㄴ": 371,
      "ㅇㅟ": 372,
      "ㅁㅕㄴ</w>": 373,
      "ㄱㅕ": 374,
      "ㅇㅑ": 375,
      "ㅅㅣㄴ": 376,
      "ㅁㅜ": 377,
      "ㅎㅐ</w>": 378,
      "ㅎㅏㄴㅡㄴ</w>": 379,
      "ㅇㅣㄴ</w>": 380,
      "ㅌㅡ": 381,
      "ㅐㄱ": 382,
      "ㄹㅗ": 383,
      "ㅇㅝㄴ": 384,
      "ㅎㅚ": 385,
      "ㅅㅏㄹ": 386,
      "ㅎㅏㄹ</w>": 387,
      "ㄹㅏ": 388,
      "..</w>": 389,
      "ㄱㅜㄱ": 390,
      "ㄱㅘㄴ": 391,
      "ㅅㅐㅇ": 392,
      "ㅇㅗ": 393,
      "ㅂㅏㄹ": 394,
      "ㅊㅏ": 395,
      "ㅁㅏㄴ": 396,
      "ㅇㅢ": 397,
      "ㄴㅐ": 398,
      "ㅁㅏㄴ</w>": 399,
      "ㅎㅐㅇ": 400,
      "ㄱㅐ": 401,
      "ㅊㅜ": 402,
      "ㅍㅣ": 403,
      "ㄷㅓ": 404,
      "ㅂㅜㄴ": 405,
      "ㅈㅜㅇ": 406,
      "ㄹㅕ": 407,
      "ㅇㅓ</w>": 408,
      "ㅇㅕㅇ": 409,
      "ㅎㅏㄱ": 410,
      "ㄴㅡㄴ": 411,
      "ㅅㅡ</w>": 412,
      "ㅇㅜ": 413,
      "ㅂㅏㅇ": 414,
      "ㅇㅓㅄ": 415,
      "ㅎㅏㄱㅗ</w>": 416,
      "ㄷㅏㅇ": 417,
      "ㅇㅡㅁ": 418,
      "ㅇㅛㅇ": 419,
      "ㅇㅛ</w>": 420,
      "ㅈㅣㄴ": 421,
      "ㅅㅡㅌ": 422,
      "ㅎㅗ": 423,
      "ㅅㅓㄴ": 424,
      "ㅅㅣㄱ": 425,
      "ㅅㅣㄹ": 426,
      "ㄱㅛ": 427,
      "ㅁㅜㄹ": 428,
      "ㅅㅣ</w>": 429,
      "ㅈㅐ": 430,
      "ㅇㅕㄴ": 431,
      "ㄷㅏㄹ": 432,
      "ㄱㅖ": 433,
      "ㅇㅣㄹ</w>": 434,
      "ㅍㅡㄹ": 435,
      "ㅓㄴ": 436,
      "ㅇㅏㄶ": 437,
      "ㅈㅏㄱ": 438,
      "ㅍㅗ": 439,
      "ㅈㅏ</w>": 440,
      "ㅌㅗㅇ": 441,
      "ㅍㅜ": 442,
      "ㅇㅣㅆㄴㅡㄴ</w>": 443,
      "ㅁㅇㅡㄹ</w>": 444,
      "ㅎㅏㅇ": 445,
      "...</w>": 446,
      "ㅇㅣㅆㅅㅡㅂㄴㅣㄷㅏ</w>": 447,
      "ㅈㅡ": 448,
      "ㄱㅏㅇ": 449,
      "ㄷㅏㄴ": 450,
      "ㅁㅐ": 451,
      "ㅎㅏㅁ": 452,
      "ㅁㅏㄹ": 453,
      "ㅁㅕㅇ": 454,
      "ㅁㅣㅊ</w>": 455,
      "ㅇㅘ</w>": 456,
      "ㅇㅓㅂ": 457,
      "ㄷㅣ": 458,
      "ㅇㅣㅂ": 459,
      "ㄷㅔ</w>": 460,
      "ㅡㄴ</w>": 461,
      "ㄹㅓ": 462,
      "ㅎㅏㅂㄴㅣㄷㅏ</w>": 463,
      "ㅈㅏㅇ</w>": 464,
      "ㄷㅡㅇ": 465,
      "ㅇㅣㄷㅏ</w>": 466,
      "ㅌㅣ": 467,
      "ㅓㅁ": 468,
      "ㄴㅗ": 469,
      "ㅇㅖ": 470,
      "ㅌㅔ": 471,
      "ㅌㅡ</w>": 472,
      "20": 473,
      "ㄱㅕㄹ": 474,
      "ㅇㅓㅆ": 475,
      "ㅇㅏㄹ": 476,
      "ㅇㅣㅆㄷㅏ</w>": 477,
      "ㅂㅐ": 478,
      "ㄱㅓㄴ": 479,
      "ㅏㅁ": 480,
      "ㅈㅏㄹ": 481,
      "ㅑㅇ": 482,
      "ㅇㅣㅂㄴㅣㄷㅏ</w>": 483,
      "ㅅㅓㄹ": 484,
      "ㄱㅔ": 485,
      "ㅅㅏㄴ": 486,
      "ㅌㅓ": 487,
      "ㄴㅕㄴ</w>": 488,
      "ㅊㅔ": 489,
      "ㅂㅜㄹ": 490,
      "ㅈㅔ</w>": 491,
      "ㅇㅜㄹ": 492,
      "ㄱㅏㅌ": 493,
      "ㅎㅐㅆ": 494,
      "ㄱㅏㄱ": 495,
      "ㅅㅏ</w>": 496,
      "ㄷㅡ</w>": 497,
      "ㅌㅓ</w>": 498,
      "ㅎㅕㄴ": 499,
      "ㄷㅚㄴ</w>": 500,
      "ㄱㅡ</w>": 501,
      "ㅇㅣㅁ": 502,
      "ㅈㅣㅁㅏㄴ</w>": 503,
      "ㅊㅚ": 504,
      "ㅋㅣ": 505,
      "ㅂㅏㄴ": 506,
      "ㅎㅕ": 507,
      "ㄱㅏㄴ": 508,
      "ㅇㅕㄱ": 509,
      "ㅁㅏㄶ": 510,
      "ㄱㅏㅁ": 511,
      "ㅁㅣㄴ": 512,
      "ㄴㅏㅁ": 513,
      "ㅍㅏ": 514,
      "ㅌㅏ": 515,
      "ㅈㅓㄴ</w>": 516,
      "ㅅㅗㄱ": 517,
      "ㄸㅐ": 518,
      "ㅎㅣ</w>": 519,
      "ㄹㅣ</w>": 520,
      "ㅈㅗㅎ": 521,
      "ㄱㅡㅁ": 522,
      "ㅅㅏㅇ</w>": 523,
      "ㅊㅜㄹ": 524,
      "ㅂㅓㅂ": 525,
      "ㅈㅣㄱ": 526,
      "ㅇㅝㄴ</w>": 527,
      "ㅅㅏㅇㅛ": 528,
      "ㅅㅣㅁ": 529,
      "ㅇㅏㄴㅣ": 530,
      "ㅁㅓ": 531,
      "ㅎㅏㄴㄷㅏ</w>": 532,
      "ㅋㅗ": 533,
      "ㅇㅘ": 534,
      "ㅎㅐㅆㄷㅏ</w>": 535,
      "ㅂㅏㄷ": 536,
      "ㄲㅏ": 537,
      "ㅂㅡㄹ": 538,
      "ㅂㅗㄴ": 539,
      "ㅇㅗㄹ": 540,
      "ㄱㅏㄴ</w>": 541,
      "ㅂㅕ": 542,
      "ㅈㅓㄱ</w>": 543,
      "ㅅㅜㄹ": 544,
      "ㅝㄴ": 545,
      "ㄴㅡㅇ": 546,
      "ㅇㅏ</w>": 547,
      "ㄷㅡㄹㅇㅣ</w>": 548,
      "ㅋㅡㄹ": 549,
      "ㄸㅓ": 550,
      "ㅅㅡㄹ": 551,
      "ㅎㅏㅇㅕ</w>": 552,
      "ㄷㅐ</w>": 553,
      "ㅍㅛ": 554,
      "ㅅㅏㅇㅛㅇ": 555,
      "ㅈㅗㅇ": 556,
      "ㅌㅗ": 557,
      "ㅌㅐ": 558,
      "ㄹㅔ": 559,
      "ㅇㅐ": 560,
      "ㄱㅇㅡㄹ</w>": 561,
      "ㅈㅓㄱㅇㅣㄴ</w>": 562,
      "ㅍㅔㅇㅣ": 563,
      "ㄷㅏㄴㅡㄴ</w>": 564,
      "ㅎㅏㄱㅔ</w>": 565,
      "ㅌㅡㄹ": 566,
      "ㅈㅓㅇ</w>": 567,
      "ㄱㅡㄴ": 568,
      "ㄷㅓ</w>": 569,
      "ㄷㅔ": 570,
      "ㅜㄴ</w>": 571,
      "ㅅㅏㄹㅏㅁ": 572,
      "ㄷㅗㄹ": 573,
      "ㄷㅓㄴ</w>": 574,
      "ㅇㅝㄹ</w>": 575,
      "ㅇㅓㄴ": 576,
      "ㅊㅓㅇ": 577,
      "ㅋㅡ": 578,
      "ㅂㅗㅇ": 579,
      "ㅎㅘㄱ": 580,
      "ㄱㅜㄱ</w>": 581,
      "ㅈㅣㄴ</w>": 582,
      "ㅌㅡㄱ": 583,
      "ㅇㅜ</w>": 584,
      "ㅇㅡㄴ": 585,
      "ㅂㅕㄴ": 586,
      "ㅁㅕ": 587,
      "ㅁㅗㄱ": 588,
      "ㄴㅕㄴ": 589,
      "ㅇㅔㄴㅡㄴ</w>": 590,
      "ㅇㅏㅇ": 591,
      "ㅇㅣㄹㅏ": 592,
      "ㅅㅓㅇ</w>": 593,
      "ㅈㅜ</w>": 594,
      "ㅇㅕㄹ": 595,
      "ㅎㅏㄹ": 596,
      "ㅂㅗㄱ": 597,
      "ㅈㅓㅁ": 598,
      "ㄴㅡㄴㄷㅔ</w>": 599,
      "ㄷㅡㅇ</w>": 600,
      "ㄷㅐㅎㅏㄴ</w>": 601,
      "ㄴㅏㅇ": 602,
      "ㅋㅏ": 603,
      "ㄷㅡㄴ</w>": 604,
      "ㅁㅕㄴ": 605,
      "ㄷㅏㄱㅗ</w>": 606,
      "ㄱㅡㄹㅣ": 607,
      "in": 608,
      "ㅂㅓㄴ": 609,
      "ㅇㅓㅆㄷㅏ</w>": 610,
      "ㄴㅏㄹ": 611,
      "ㅍㅣㄹ": 612,
      "ㄸㅏㄹ": 613,
      "ㄸㅗ": 614,
      "201": 615,
      "ㅍㅕㅇ": 616,
      "ㅍㅜㅁ": 617,
      "ㅈㅣㅂ": 618,
      "ㄱㅡㄹㅓ": 619,
      "ㅅㅗㅇ": 620,
      "ㅎㅜ</w>": 621,
      "ㅎㅘ</w>": 622,
      "ㅎㅘㄹ": 623,
      "ㄹㅗㄱ": 624,
      "ㄴㅓ": 625,
      "ㅇㅜㄴ": 626,
      "ㅍㅕㄴ": 627,
      "ㅇㅑㅇ": 628,
      "ㅈㅓㄱㅇㅡㄹㅗ</w>": 629,
      "ㅎㅚ</w>": 630,
      "ㅈㅜㄴ": 631,
      "ㅊㅡ": 632,
      "ㅇㅔㅅㅓ": 633,
      "ㅎㅜ": 634,
      "ㅋㅓ": 635,
      "ㅇㅛㅇ</w>": 636,
      "ㅅㅣㄹ</w>": 637,
      "ㅆㅅㅡㅂㄴㅣㄷㅏ</w>": 638,
      "ㄹㅏ</w>": 639,
      "10": 640,
      "ㅎㅣ": 641,
      "ㅗㄱ</w>": 642,
      "ㄷㅜ": 643,
      "ㅎㅘㄴ": 644,
      "ㅁㅔ": 645,
      "ㄲㅏㅈㅣ</w>": 646,
      "ㄹㅐ": 647,
      "ㅇㅣㄹㅓ": 648,
      "ㄱㅝㄴ": 649,
      "ㅅㅐㅇㄱㅏㄱ": 650,
      "ㅇㅑㄱ": 651,
      "ㄴㅐ</w>": 652,
      "ㅍㅏㄴ": 653,
      "ㄱㅓㅅ</w>": 654,
      "ㅈㅣㄹ": 655,
      "ㅎㅏㅈㅣ</w>": 656,
      "ㅊㅓㄴ": 657,
      "ㄷㅗㄱ": 658,
      "ㄴㄷㅏ</w>": 659,
      "ㅂㅗ</w>": 660,
      "ㅇㅜㄹㅣ": 661,
      "ㅡㅁ": 662,
      "ㅇㅏㄴ</w>": 663,
      "ㅊㅐㄱ": 664,
      "ㅂㅜ</w>": 665,
      "ㅅㅏㅇㅣ": 666,
      "ㄷㅡㄹㅇㅡㄴ</w>": 667,
      "ㅇㅚ": 668,
      "ㅂㅗㄴ</w>": 669,
      "ㅇㅔㄱㅔ</w>": 670,
      "ㅍㅡ": 671,
      "ㅅㅓㅂㅣ": 672,
      "ㅈㅡㅇ": 673,
      "ㅅㅗ</w>": 674,
      "ㅊㅗ": 675,
      "ㅇㅓㄸㅓ": 676,
      "ㅎㅓ": 677,
      "ㄴㅔ": 678,
      "ㅂㅔ": 679,
      "ㄱㅣㅁ": 680,
      "ㅎㅐㅅㅓ</w>": 681,
      "ㄲㅏ</w>": 682,
      "ㅂㅏㄱ": 683,
      "ㅎㅏㅂ": 684,
      "ㄱㅘㅇ": 685,
      "ㅍㅐ": 686,
      "ㅈㅗㄱ": 687,
      "ㅎㅕㅇ": 688,
      "ㄷㅜ</w>": 689,
      "ㄱㅏㄹ": 690,
      "ㄹㅕㄱ": 691,
      "ㅌㅜ": 692,
      "ㅊㅣ</w>": 693,
      "ㄱㅡㄹㅐ": 694,
      "ㅊㅏㅁ": 695,
      "ㅊㅐ": 696,
      "ㄱㅠ": 697,
      "ㄷㅡㄹ</w>": 698,
      "ㄱㅜ</w>": 699,
      "ㅍㅔㅇㅣㅈㅣ</w>": 700,
      "ㄸㅐㅁㅜㄴ": 701,
      "ㅂㅜㅌㅓ</w>": 702,
      "ㄷㅏㄹㅡㄴ</w>": 703,
      "ㅇㅡㄹ": 704,
      "ㅊㅏㅇ": 705,
      "ㄷㅚㄴㅡㄴ</w>": 706,
      "ㄱㅓㅁ": 707,
      "ㄸㅐ</w>": 708,
      "ㄴㅏ</w>": 709,
      "ㅇㅣㅇㅛㅇ": 710,
      "ㅇㅡㅁ</w>": 711,
      "er": 712,
      "ㅈㅜㅇ</w>": 713,
      "ㅈㅓㄹ": 714,
      "ㅎㄱㅔ</w>": 715,
      "ㅅㅣㄴ</w>": 716,
      "ㅇㅏㅇㅣ": 717,
      "ㅁㅗㅅ": 718,
      "or": 719,
      "ㅅㅕ": 720,
      "ㄱㅓㅅㅇㅣ</w>": 721,
      "ㅁㅇㅣ</w>": 722,
      "ㅈㅓㅇㅂㅗ": 723,
      "an": 724,
      "ㄷㅚㅂㄴㅣㄷㅏ</w>": 725,
      "ㅎㅏㄱㅣ</w>": 726,
      "ㄱㅕㅇㅇㅜ</w>": 727,
      "ㄱㅗㄱ": 728,
      "ㄷㅚㄹ</w>": 729,
      "ㅇㅓㄹ": 730,
      "ㅇㅡㅁㅕ</w>": 731,
      "ㅁㅕㅇ</w>": 732,
      "ㄱㅓㅅㅇㅡㄴ</w>": 733,
      "ㅅㅗㄴ": 734,
      "ㅅㅔㅇㅛ</w>": 735,
      "ㅅㅡㅇ": 736,
      "ㄷㅏㅇ</w>": 737,
      "ㅇㅝㄹ": 738,
      "ㅁㅗㄷㅡㄴ</w>": 739,
      "ㄲㅔ</w>": 740,
      "ㄱㅜㄴ": 741,
      "ㄱㅕㄱ": 742,
      "ㄱㅏㄴㅡㅇ": 743,
      "ㅂㅕㄹ": 744,
      "ㅇㅑ</w>": 745,
      "ㄹㅠ": 746,
      "ㄴㅏㄴ</w>": 747,
      "ㅅㅣㄱㅏㄴ": 748,
      "ㅎㅑㅇ": 749,
      "ㅁㅜㄴ</w>": 750,
      "ㄱㅔㅇㅣ": 751,
      "ㄷㅗㅇ</w>": 752,
      "ㄷㅏㄴ</w>": 753,
      "ㅎㅏㄴㄱㅜㄱ": 754,
      "ㄷㅡㄹㅇㅢ</w>": 755,
      "ㅁㅏㄶㅇㅡㄴ</w>": 756,
      "ㅈㅔㄱㅗㅇ": 757,
      "00": 758,
      "ㄷㅏㅁ": 759,
      "ㄱㅏㅌㅇㅡㄴ</w>": 760,
      "ㅌㅐㄱ": 761,
      "ㅂㅓㅂ</w>": 762,
      "ㄱㅖ</w>": 763,
      "ㅅㅣㄱ</w>": 764,
      "ㅅㅜㄴ": 765,
      "ㅆㅣ": 766,
      "ㅎㅏㅁㅕㄴ</w>": 767,
      "ㄱㅣㄹㅡㄹ</w>": 768,
      "ㅎㅗㅌㅔ": 769,
      "ㅁㅏㅇ": 770,
      "ㅋㅐ": 771,
      "ㄱㅡㄹㅣㄱㅗ</w>": 772,
      "ㄱㅡㅂ": 773,
      "ㅇㅠㄱ": 774,
      "ㅊㅏ</w>": 775,
      "ㅎㅓㅁ": 776,
      "ㄷㅡㄹㅇㅡㄹ</w>": 777,
      "ㅍㅜㅁ</w>": 778,
      "ㅂㅓㄴ</w>": 779,
      "ㄷㅡㄹㅣ": 780,
      "ㄱㅏㅈㅏㅇ</w>": 781,
      "ㅁㅗㄹ": 782,
      "ar": 783,
      "ㅁㅜㄴㅈㅔ": 784,
      "ㄹㅛ": 785,
      "ㄱㅓㅅㅇㅡㄹ</w>": 786,
      "ㄹㅗㅇ": 787,
      "ㄱㅓㅅㅇㅣㄷㅏ</w>": 788,
      "ㄴㅗㄹ": 789,
      "on": 790,
      "ㅊㅏㅈ": 791,
      "at": 792,
      "ㄷㅚㅇㅓ</w>": 793,
      "ㅈㅓㅇㅂㅗ</w>": 794,
      "ㅂㅜㄱ": 795,
      "ㅅㅓㄱ": 796,
      "ㄲㅡ": 797,
      "er</w>": 798,
      "ㅍㅣㄹㅇㅛ": 799,
      "ㅂㅐㄱ": 800,
      "ㅊㅜㄱ": 801,
      "ㅑㅇ</w>": 802,
      "ㄴㅓㅁ": 803,
      "ㅊㅏㄹ": 804,
      "ㄱㅐ</w>": 805,
      "ㅇㅟㅎㅐ</w>": 806,
      "ㅅㅣㅍ": 807,
      "ㅇㅓㅄㄴㅡㄴ</w>": 808,
      "ㅋㅡㄴ</w>": 809,
      "ㅇㅞ": 810,
      "en": 811,
      "ㄹㄹㅣ": 812,
      "ㄱㅓㄴ</w>": 813,
      "ㅎㅡ": 814,
      "ㅎㅏㅁㄲㅔ</w>": 815,
      "ㅍㅔ": 816,
      "ㅊㅟ": 817,
      "ㅁㅏㅈ": 818,
      "ㅅㅓㄴ</w>": 819,
      "ㄱㅡㄹㅓㄴ": 820,
      "ㄷㅡㄹㅇㅓ": 821,
      "ㄱㅡㅁ</w>": 822,
      "ㅈㅏㄹ</w>": 823,
      "ㄴㅏㄴ": 824,
      "ㅅㅟ": 825,
      "ㅁㅕ</w>": 826,
      "ㄱㅏㅈㅣ": 827,
      "ㅊㅔ</w>": 828,
      "ㅎㅐㅇ</w>": 829,
      "ㅈㅐ</w>": 830,
      "ㄷㅏㅁㅕㄴ</w>": 831,
      "19": 832,
      "ㅎㅏㅁㅕ</w>": 833,
      "ㄱㅘㄴㄹ": 834,
      "ㅁㅜㄹ</w>": 835,
      "ㅇㅣㄴㅏ</w>": 836,
      "ㅎㅏㅅㅣ": 837,
      "ㅇㅓㅂ</w>": 838,
      "ㅆㅡ": 839,
      "ㄸㅗㄴㅡㄴ</w>": 840,
      "ㅅㅡㅂ": 841,
      "ㅇㅡㄹㅗ": 842,
      "ㅎㅏㅈㅣㅁㅏㄴ</w>": 843,
      "ㅈㅓㅂ": 844,
      "st": 845,
      "ㄷㅔㅇㅣ": 846,
      "ㅈㅗㅎㅇㅡㄴ</w>": 847,
      "ㅈㅣㄴㅡㄴ</w>": 848,
      "ㅎㅗ</w>": 849,
      "ㅎㅏㄱ</w>": 850,
      "ㄱㅗㅅ": 851,
      "ㅈㅏㅅㅣㄴ": 852,
      "ㅈㅓㅁ</w>": 853,
      "ㅊㅣㄴ": 854,
      "ㅋㅡ</w>": 855,
      "ㅂㅗㄷㅏ</w>": 856,
      "ㅂㅜㄴ</w>": 857,
      "ㅇㅏㅍ": 858,
      "ㄱㅡㄹ</w>": 859,
      "ㅔㅅㅓ</w>": 860,
      "ㅂㅕㅇ": 861,
      "ㄱㅛ</w>": 862,
      "ㄸㅐㅁㅜㄴㅇㅔ</w>": 863,
      "ㅎㅘㅇ": 864,
      "ㅇㅘㄴ": 865,
      "ㅇㅟ</w>": 866,
      "ㅇㅟㅎㅏㄴ</w>": 867,
      "ㄱㅗㄹ": 868,
      "ㅁㅏㄹ</w>": 869,
      "ㅎㅐㅇㅑ</w>": 870,
      "ㅅㅏㅎㅚ": 871,
      "ㅅㅏㄴ</w>": 872,
      "ㅈㅕ": 873,
      "ㅈㅜㄹ": 874,
      "ㅋㅔ": 875,
      "ㄷㅚㄴㄷㅏ</w>": 876,
      "ㅊㅣㅁ": 877,
      "ㅊㅜㅇ": 878,
      "ㅌㅗㅇㅎㅐ</w>": 879,
      "ㄱㅣㄹ": 880,
      "ㄹㅜ": 881,
      "ㄱㅓㄴㅏ</w>": 882,
      "ㅂㅣ</w>": 883,
      "ㅇㅗ</w>": 884,
      "ㅅㅡㅌㅏ": 885,
      "ㄷㅗㄹㅗㄱ</w>": 886,
      "ㄴㅣㅁ": 887,
      "ㅇㅔㅅㅓㄴㅡㄴ</w>": 888,
      "ㅓㅂ": 889,
      "ㄲㅣ": 890,
      "ㄷㅐㄹㅗ</w>": 891,
      "ㅅㅔㄴ": 892,
      "ㅌㅏㄴ": 893,
      "ㅅㅗㄱ</w>": 894,
      "ㅌㅓㄴ": 895,
      "ㅁㅓㄱ": 896,
      "ㅡㅁ</w>": 897,
      "ㅈㅗㄴ": 898,
      "ㅇㅗㄴ": 899,
      "co": 900,
      "ㅇㅑㄱ</w>": 901,
      "ㄱㅕㄴ": 902,
      "ㅅㅣㄱㅏㄴ</w>": 903,
      "ㄷㅚㅇㅓㅆ": 904,
      "ㅁㅏㄶㅇㅣ</w>": 905,
      "ㄴㅠ": 906,
      "ㄹㅣㅂ": 907,
      "th": 908,
      "ㅅㅓㅂㅣㅅㅡ</w>": 909,
      "ㅅㅐㄱ": 910,
      "on</w>": 911,
      "ㄴㅐㅇㅛㅇ": 912,
      "ㅂㅏㄲ": 913,
      "ㅎㅏㄷㅏ</w>": 914,
      "ㄸㅏㄹㅏ</w>": 915,
      "ㄱㅘㄴ</w>": 916,
      "ㄱㅐㅇㅣㄴ": 917,
      "ㅈㅓ</w>": 918,
      "ㅇㅏㅆ": 919,
      "re": 920,
      "ㄱㅓㄹ": 921,
      "ㄴㅏㄴㅡㄴ</w>": 922,
      "ㅅㅓㄴㅡㄴ</w>": 923,
      "ㅎㅏㅇㅕ": 924,
      "ㄱㅓ</w>": 925,
      "ㅇㅣㅇㅑ": 926,
      "ㅅㅣㅈㅏㄱ": 927,
      "ㅎㅕㅂ": 928,
      "ㅇㅕㄱ</w>": 929,
      "ㅂㅗㄱㅣ</w>": 930,
      "ㅍㅓ": 931,
      "ㅇㅓㅄㅇㅣ</w>": 932,
      "ㅈㅗ</w>": 933,
      "ㄹㅕㅇ": 934,
      "ㅅㅓㄱ</w>": 935,
      "ㅈㅏㅂ": 936,
      "ㄷㅏㅇㅑㅇ": 937,
      "ㄱㅣㄷㅗ</w>": 938,
      "ㅌㅏㄹ": 939,
      "ㅅㅏㄹㅏ": 940,
      "ㅇㅓㅇㅛ</w>": 941,
      "ㅂㅏㄹ</w>": 942,
      "ㅈㅣㄹ</w>": 943,
      "ㅈㅣㅂ</w>": 944,
      "ㅅㅐㄱ</w>": 945,
      "ㅅㅏㅁ": 946,
      "ㄷㅏㅅㅣ</w>": 947,
      "ㄱㅔㅆ": 948,
      "ㄴㅗㅍ": 949,
      "ㅎㅕㅇ</w>": 950,
      "ic": 951,
      "ㄱㅣㅇㅔ</w>": 952,
      "ㅎㅛ": 953,
      "ㄸㅗㅎㅏㄴ</w>": 954,
      "ㅇㅣㄴㅡㄴ</w>": 955,
      "ㄷㅐㅎㅐ</w>": 956,
      "ㅅㅡㅌㅔ": 957,
      "ㅇㅣㅆㅇㅓㅆ": 958,
      "ㅇㅓㄸㅓㄴ</w>": 959,
      "ㅎㅗㅇ": 960,
      "ㅇㅔㄷㅗ</w>": 961,
      "ㅊㅗㅇ": 962,
      "ㅈㅏㄱㅏ</w>": 963,
      "ㄷㅙ": 964,
      "ㅇㅡㅁㅕㄴ</w>": 965,
      "ㅁㅣㄹ": 966,
      "ㅎㅐㅈㅜ": 967,
      "ㅅㅕㄴ": 968,
      "ㅎㅢ": 969,
      "12": 970,
      "ㄸㅗ</w>": 971,
      "ㅡㄹㅐ": 972,
      "ㅌㅏ</w>": 973,
      "ㄴㅜ": 974,
      "ㅈㅏㄹㅛ": 975,
      "ㄱㅏㄱ</w>": 976,
      "ㅈㅓㅈㅏㄱ": 977,
      "ㅇㅜㄴ</w>": 978,
      "ro": 979,
      "it": 980,
      "ㅝㄴ</w>": 981,
      "ㅍㅡㄹㅗ": 982,
      "ㄹㅓㅁ</w>": 983,
      "ㅂㅗㄹ</w>": 984,
      "ㅕㄴㅅㅓ</w>": 985,
      "ㅋㅓㅁ": 986,
      "ㄹㅏㄱㅗ</w>": 987,
      "ㄹㅗㄴ</w>": 988,
      "ㄱㅜㄹ": 989,
      "ㄴㅜㄴ": 990,
      "ㅈㅛ</w>": 991,
      "ㄱㅛㅇㅠㄱ": 992,
      "ㅇㅣㅆㅇㅡㅁㅕ</w>": 993,
      "al": 994,
      "ㄱㅕㅇ</w>": 995,
      "ㅇㅣㄹㅏㄱㅗ</w>": 996,
      "ㅈㅡ</w>": 997,
      "ㅍㅡㄹㅗㄱ": 998,
      "ㅂㅏㄹㅏ": 999,
      "ㅎㅗㅌㅔㄹ</w>": 1000,
      "ㄱㅡㄴ</w>": 1001,
      "ㅁㅓㄴ": 1002,
      "ㅂㅜㅂㅜㄴ": 1003,
      "ㅈㅡㄹ": 1004,
      "ㅇㅣㄴㅌㅓㄴ": 1005,
      "ㅂㄱㅔ</w>": 1006,
      "200": 1007,
      "ㄱㅅㅡ</w>": 1008,
      "ㅇㅣㄹㅓㄴ</w>": 1009,
      "ㅡㄴ": 1010,
      "ㅈㅏㅇㅢ</w>": 1011,
      "ㄱㅕㅇㅇㅜ": 1012,
      "ㅃㅏㄹ": 1013,
      "ㄹㅗㅇㅜㄴ</w>": 1014,
      "ㅇㅕㅇ</w>": 1015,
      "ㅍㅡㄹㅗㄱㅡㄹㅐ": 1016,
      "ㄱㅏㅈㅣ</w>": 1017,
      "ㄷㅏㅇㅑㅇㅎㅏㄴ</w>": 1018,
      "ㅇㅣㄴㅌㅓㄴㅔ": 1019,
      "ㅇㅓㅅㅓ</w>": 1020,
      "ㅇㅜㄹㅣ</w>": 1021,
      "ㄱㅏㅈ": 1022,
      "ㄹㅏㅇ": 1023,
      "ㄷㅚㄱㅗ</w>": 1024,
      "ㅅㅜㄱ": 1025,
      "ㄴㅡㄹ": 1026,
      "ㅁㅏ</w>": 1027,
      "ㅇㅡㅇ": 1028,
      "ㅍㅡ</w>": 1029,
      "ㅎㅘㄱㅇㅣㄴ": 1030,
      "ㅂㅗㄱㅗ</w>": 1031,
      "ㅁㅗㄷㅜ</w>": 1032,
      "ㄷㅗㅇㅇㅏㄴ</w>": 1033,
      "ㅎㅗㄴ": 1034,
      "ㄱㅏㄴㅡㄴ</w>": 1035,
      "ㅈㅐㅇ": 1036,
      "ㅅㅡㄹㅡㄹ</w>": 1037,
      "ㄱㅟ": 1038,
      "ㄴㅕ": 1039,
      "ㅅㅐㅇ</w>": 1040,
      "ㅅㅔ</w>": 1041,
      "ㅁㅏㄴㄷㅡㄹ": 1042,
      "ㅊㅓㄹㅓㅁ</w>": 1043,
      "ㄹㅕㄱ</w>": 1044,
      "ㄸㅡ": 1045,
      "ㄷㅐㅎㅏㄱ": 1046,
      "11": 1047,
      "ㅅㅕㄴ</w>": 1048,
      "ㄴㅏㄹ</w>": 1049,
      "),</w>": 1050,
      "ㄲㅏㅇ": 1051,
      "ㅍㅗㄱ": 1052,
      "ㅂㅏㅇㅂㅓㅂ": 1053,
      "ㅁㅗㅇ": 1054,
      "ㅈㅣㄹㅡㄹ</w>": 1055,
      "ㅇㅏㄱ": 1056,
      "ㄱㅣㄹ</w>": 1057,
      "ㅅㅓㄹ</w>": 1058,
      "ㄷㅏㅂ": 1059,
      "ㅁㅏㅇㅡㅁ": 1060,
      "ㄹㅣㄴ</w>": 1061,
      "ㅇㅣㄱㅗ</w>": 1062,
      "ㄷㅚㅈㅣ</w>": 1063,
      "ㄴㅗㅇ": 1064,
      "ㄹㅔㅇㅣ": 1065,
      "ing</w>": 1066,
      "ㅁㅇㅢ</w>": 1067,
      "ㅅㅏㄹㅏㅇ": 1068,
      "ㅎㅔ": 1069,
      "ㄲㅗ": 1070,
      "ㄴㅏㅇㅗ": 1071,
      "ㅎㅠ": 1072,
      "ㅊㅡㄱ": 1073,
      "ㄱㅓㅅㅇㅡㄹㅗ</w>": 1074,
      "ㄴㅡㅇ</w>": 1075,
      "ㄱㅐㄱ": 1076,
      "ㄱㅣㅇㅓㅂ": 1077,
      "ㄱㅏㅅㅡ": 1078,
      "ㅊㅓㄹ": 1079,
      "ㄱㅣㄱㅏ</w>": 1080,
      "ㅊㅓㄴ</w>": 1081,
      "ㅍㅗㄹ": 1082,
      "ㅐㄴ": 1083,
      "ㅈㅣㅇㅝㄴ": 1084,
      "ㅁㅏㄱ": 1085,
      "ㅅㅏㄱ": 1086,
      "ㄹㅏㄴㅡㄴ</w>": 1087,
      "ㄱㅡㄱ": 1088,
      "ㅂㅏㄹㅗ</w>": 1089,
      "ㅇㅏㄴㅣㄹㅏ</w>": 1090,
      "ㅅㅏㄹㅡㄹ</w>": 1091,
      "ㅈㅣㄱ</w>": 1092,
      "ㄱㅘㄴㄹㅣ": 1093,
      "ㄲㅜ": 1094,
      "ㅇㅏㅆㄷㅏ</w>": 1095,
      "ㅇㅓㅁ": 1096,
      "ㅈㅏㄴㅡㄴ</w>": 1097,
      "ㅍㅏㄹ": 1098,
      "ㅂㅓㅁ": 1099,
      "ㅂㅓㄹ": 1100,
      "..": 1101,
      "ㅎㅏㄴㅡㄴ": 1102,
      "ㄴㅐㄱㅏ</w>": 1103,
      "ㄷㅡㅇㅇㅡㄹ</w>": 1104,
      "ㅇㅣㅅㅏㅇ": 1105,
      "30": 1106,
      "ㄸㅏ": 1107,
      "ac": 1108,
      "ㅇㅓㄱ": 1109,
      "ㅈㅜㅇㅇㅛ": 1110,
      "ㅁㅕㄴㅅㅓ</w>": 1111,
      "ㅇㅣㄹㅡㄹ</w>": 1112,
      "ㅇㅓㄸㅓㅎㄱㅔ</w>": 1113,
      "ㅅㅏㅇㅍㅜㅁ": 1114,
      "ㅊㅏㄱ": 1115,
      "ㅈㅣㅇㅕㄱ": 1116,
      "ㅌㅣㅇ</w>": 1117,
      "ㄹㅓ</w>": 1118,
      "ㄱㅗㅇ</w>": 1119,
      "ㅎㅚㅇㅝㄴ": 1120,
      "ㅋㅗㄴ": 1121,
      "ㄴㅡㄲㅣ": 1122,
      "ㅇㅣㅂ</w>": 1123,
      "ㅋㅡㄹㅣ": 1124,
      "ㅉㅐ</w>": 1125,
      "ㅎㅗㅁ": 1126,
      "ㄱㅓㅅㅇㅣㅂㄴㅣㄷㅏ</w>": 1127,
      "ㅜㄹ</w>": 1128,
      "le": 1129,
      "ㅅㅣㅋㅣ": 1130,
      "ㅈㅣㄴㅏㄴ</w>": 1131,
      "ㅅㅏㄴㅡㄴ</w>": 1132,
      "ㅂㅏㅇ</w>": 1133,
      "ㅅㅐㄹㅗㅇㅜㄴ</w>": 1134,
      "ㅈㅔㄱㅏ</w>": 1135,
      "ㅇㅕ</w>": 1136,
      "ㅅㅓㄴㅌㅐㄱ": 1137,
      "ㄱㅔㅇㅣㅁ</w>": 1138,
      "ㅇㅣㅁㅕ</w>": 1139,
      "ㄹㅛ</w>": 1140,
      "ㅈㅓㄴㅇㅔ</w>": 1141,
      "ㅇㅓㅄㅅㅡㅂㄴㅣㄷㅏ</w>": 1142,
      "ㅉㅣ": 1143,
      "ㅎㅐㅆㅅㅡㅂㄴㅣㄷㅏ</w>": 1144,
      "ㄷㅐㅅ": 1145,
      "ㅊㅡ</w>": 1146,
      "ㅅㅗㄹ": 1147,
      "am": 1148,
      "ㅂㅏㄴ</w>": 1149,
      "ㄱㅣㅅㅜㄹ": 1150,
      "ㅈㅗㅇ</w>": 1151,
      "ㅎㅏㄱㄱㅛ": 1152,
      "ㅔㄴ": 1153,
      "ㄱㅣㄴㅡㄴ</w>": 1154,
      "ㅇㅣㄹㅏㄴㅡㄴ</w>": 1155,
      "ㄱㅏㅁㅅㅏ": 1156,
      "ㅋㅏㄹ": 1157,
      "ㅋㅔㅇㅣ": 1158,
      "ㄲㅡㅌ": 1159,
      "ㅅㅏㅇㅓㅂ": 1160,
      "ㅅㅓㅇㅜㄹ": 1161,
      "ㅍㅜㅇ": 1162,
      "ㄱㅡㄹㅓㄴㅏ</w>": 1163,
      "ㅅㅣㅅㅡㅌㅔ": 1164,
      "ㄷㅜㄹ": 1165,
      "ㅇㅕㅎㅐㅇ": 1166,
      "ㄱㅏㅈㅣㄱㅗ</w>": 1167,
      "ㄷㅏㅇㅡㅁ": 1168,
      "ㅇㅣㅆㅇㅡㄹ</w>": 1169,
      "ㅁㅜㄴㅎㅘ": 1170,
      "ㅔㄱㅔ</w>": 1171,
      "ㅇㅓㅄㄷㅏ</w>": 1172,
      "ㅌㅔㄴ": 1173,
      "ㅈㅓㅇㅇㅡㄹ</w>": 1174,
      "ㄴㅗㄴ": 1175,
      "ㅈㅓㅇㅁㅏㄹ</w>": 1176,
      "ㅏㄴㅣ": 1177,
      "ㅅㅔㄱㅖ": 1178,
      "ㄱㅘㄴㄹㅕㄴ</w>": 1179,
      "ㅅㅓㅇㅇㅡㄹ</w>": 1180,
      "ㅈㅣㄴㅎㅐㅇ": 1181,
      "ㄱㅏㅌㅇㅣ</w>": 1182,
      "15": 1183,
      "ㅎㅗㄱ": 1184,
      "ㄹㅣㄴㅡㄴ</w>": 1185,
      "ㅉㅏ": 1186,
      "ㅁㅏㅅ": 1187,
      "ㄹㅣㄴ": 1188,
      "ㄴㅓㅁㅜ</w>": 1189,
      "ㅈㅗㅁ</w>": 1190,
      "ㄹㅕ</w>": 1191,
      "ㅋㅓㄴ": 1192,
      "ㅇㅣㅆㄱㅗ</w>": 1193,
      "ㅂㅘ": 1194,
      "ㅂㅗㅁㅕㄴ</w>": 1195,
      "ㅍㅛ</w>": 1196,
      "ㅇㅣㄺ": 1197,
      "ㄹㅗㄴ": 1198,
      "ㅍㅏㅇ": 1199,
      "ㅅㅏㅇㅣㅌㅡ</w>": 1200,
      "ㅅㅡㅍㅗ": 1201,
      "ㅎㅓㅁ</w>": 1202,
      "ㅈㅓㅂ</w>": 1203,
      "ㅇㅐㄱ": 1204,
      "ㄱㅔㅅㅣ": 1205,
      "ㄹㅏㄴ": 1206,
      "ㄱㅗㄱㅐㄱ": 1207,
      "ㅇㅕㄴㄱㅜ": 1208,
      "ㄷㅡㄴ": 1209,
      "ㅇㅟㅊㅣ": 1210,
      "ㄹㅏㅇㅣ": 1211,
      "ㅇㅣㄹㅇㅡㄹ</w>": 1212,
      "ㄱㅘㄴㄱㅖ": 1213,
      "ㄱㅜㅁㅐ": 1214,
      "ㅅㅡㅌㅡ</w>": 1215,
      "ㄷㅏㅇㅅㅣㄴ": 1216,
      "ㅈㅏㄷㅗㅇ": 1217,
      "ㄹㅗㄱ</w>": 1218,
      "ㅎㅏㄱㅔ": 1219,
      "ㅎㅏ</w>": 1220,
      "10</w>": 1221,
      "ㅇㅏㄶㄴㅡㄴ</w>": 1222,
      "ㅅㅡㅌㅡㄹ": 1223,
      "as": 1224,
      "ㅎㅚㄱ": 1225,
      "ㅅㅜㄹ</w>": 1226,
      "ion</w>": 1227,
      "ㅎㅕㄴㅈㅐ</w>": 1228,
      "ㅋㅗㅇ": 1229,
      "ㅁㅣ</w>": 1230,
      "ㅇㅛㄱ": 1231,
      "ㅇㅣㄱ": 1232,
      "ㅇㅣㅅㅏㅇ</w>": 1233,
      "ㄷㅟ": 1234,
      "ㄷㅗㅇㅜ": 1235,
      "ㄴㅗㅎ": 1236,
      "ㅇㅣㄹㅂㅗㄴ": 1237,
      "ㅌㅗ</w>": 1238,
      "ㄷㅡㄹㅇㅔㄱㅔ</w>": 1239,
      "ㅇㅣㅇㅠ": 1240,
      "il": 1241,
      "ㄹㅣㄹㅡㄹ</w>": 1242,
      "ㅂㅕㄹ</w>": 1243,
      "ㄱㅡㅂ</w>": 1244,
      "ㄷㅓㄴ": 1245,
      "ㄱㅡㄹㅓㄴ</w>": 1246,
      "ou": 1247,
      "ㅊㅜㄹ</w>": 1248,
      "ㅅㅡㅌㅣ": 1249,
      "ㄱㅣㄴㅡㅇ": 1250,
      "ㅌㅣ</w>": 1251,
      "al</w>": 1252,
      "ㅂㅗㄹ": 1253,
      "ㅇㅓㅅ": 1254,
      "ㄴㅡㄹ</w>": 1255,
      "ㅍㅣㅇ": 1256,
      "ㅁㅇㅡㄴ</w>": 1257,
      "ㅈㅏㅇㅇㅡㄹ</w>": 1258,
      "ㅎㅗㅌㅔㄹ": 1259,
      "ㅎㅏㅅㅔㅇㅛ</w>": 1260,
      "ㅁㅐ</w>": 1261,
      "ㅈㅜㄴ</w>": 1262,
      "ㅅㅏㅇㅇㅡㄹ</w>": 1263,
      "ㅇㅕㄴ</w>": 1264,
      "ㅂㅗㄴㅐ": 1265,
      "ㅕㄱ": 1266,
      "is": 1267,
      "ㄷㅏㄹ</w>": 1268,
      "ㅇㅏㅁ": 1269,
      "ㄱㅝㄴ</w>": 1270,
      "ㄱㅓㅅㄷㅗ</w>": 1271,
      "ㅇㅠ</w>": 1272,
      "ㄷㅡㄱ": 1273,
      "ㄷㅏㄱㅏ</w>": 1274,
      "the</w>": 1275,
      "ㅇㅜㄴㅇㅕㅇ": 1276,
      "ㅈㅕ</w>": 1277,
      "ㅅㅜㄷㅗ</w>": 1278,
      "ㄱㅘㄴㄹㅕㄴ": 1279,
      "ㅌㅏㅇ": 1280,
      "ㅊㅚㄱㅡㄴ</w>": 1281,
      "ㅂㅗㅇㅕ": 1282,
      "ㄱㅡㄹㅐㅅㅓ</w>": 1283,
      "ㅎㅏㅁ</w>": 1284,
      "ㄴㅇㅡㄹ</w>": 1285,
      "ㅅㅏㅇㅎㅘㅇ": 1286,
      "ㅇㅣㅇㅓㅆ": 1287,
      "ㄷㅐㅍㅛ": 1288,
      "ㄱㅕㄱ</w>": 1289,
      "ㅇㅏㄶㅅㅡㅂㄴㅣㄷㅏ</w>": 1290,
      "ㅈㅣㄷㅗ</w>": 1291,
      "ㄱㅐㅂㅏㄹ": 1292,
      "ㅁㅗㄹㅡ": 1293,
      "es": 1294,
      "ㅅㅗㅇ</w>": 1295,
      "ㅎㅏㅁㅕㄴㅅㅓ</w>": 1296,
      "ㅈㅓㄴㅁㅜㄴ": 1297,
      "ㅊㅓㅇ</w>": 1298,
      "ㅈㅓㅈㅏㄱㄱㅝㄴ": 1299,
      "ㅇㅣㅇㅓ": 1300,
      "ㅍㅕㄴ</w>": 1301,
      "ㅎㅐㅆㄷㅓㄴ</w>": 1302,
      "ㄹㅑ": 1303,
      "ㅌㅡㄹㅡㄹ</w>": 1304,
      "ㅎㅘㄹㅡㄹ</w>": 1305,
      "ㅉㅗㄱ": 1306,
      "ㅈㅏㄱ</w>": 1307,
      "ㅅㅏㅈㅣㄴ": 1308,
      "oo": 1309,
      "ㅁㅜㅇㅓㅅ": 1310,
      "ㅍㅗㅎㅏㅁ": 1311,
      "ㄱㅣㄴ</w>": 1312,
      "ㅆㅏ": 1313,
      "ㅁㅣㄱㅜㄱ</w>": 1314,
      "ㅎㅐㄷㅏㅇ</w>": 1315,
      "ㅈㅓㅁㅇㅡㄹ</w>": 1316,
      "ㄴㅣㅁ</w>": 1317,
      "ㅁㅇㅔ</w>": 1318,
      "ㄴㅔㅇㅛ</w>": 1319,
      "ㅇㅣㄹㅓㅎㄱㅔ</w>": 1320,
      "ㅈㅏㄴ": 1321,
      "ㅈㅣㄱㅈㅓㅂ</w>": 1322,
      "ㅂㅏㄺ": 1323,
      "ㄹㅡ": 1324,
      "ㅈㅜㄴㅡㄴ</w>": 1325,
      "ㄴㅡㄴㄷㅏ</w>": 1326,
      "ㅅㅜㄱㅏ</w>": 1327,
      "ㅆㄷㅓㄴ</w>": 1328,
      "ㅇㅣㅆㅇㅓㅆㄷㅏ</w>": 1329,
      "ㅁㅗㄷㅔ": 1330,
      "ㅋㅜ": 1331,
      "ㅃㅏ": 1332,
      "ㄷㅣㅈㅏ": 1333,
      "ㅂㅡㄹㄹㅗㄱ": 1334,
      "ㅎㅣㅁ": 1335,
      "ㅈㅏㄹㅣ": 1336,
      "ㄱㅛㅇㅠ": 1337,
      "ㄱㅏㅅㅡㅁ</w>": 1338,
      "ㅇㅔㄴ": 1339,
      "ㅍㅜㄹ": 1340,
      "ㅇㅜㄹㅣㄴㅡㄴ</w>": 1341,
      "ㅁㅗㅅㅡㅂ": 1342,
      "ㄷㅡㅇㅇㅢ</w>": 1343,
      "ㅍㅡㄹㅣ": 1344,
      "ㅅㅏㅇㅢ</w>": 1345,
      "ㅌㅡㄱㅎㅣ</w>": 1346,
      "ㅊㅕ": 1347,
      "ㅅㅓㄹㅁㅕㅇ": 1348,
      "ㅁㅣㄱㅜㄱ": 1349,
      "ㅂㅏㄹㅏㅂㄴㅣㄷㅏ</w>": 1350,
      "ㅂㅏㅇㅂㅓㅂ</w>": 1351,
      "ㅎㅏㄴㅏㄴㅣ": 1352,
      "ㅈㅜㄱ": 1353,
      "ㅅㅔㄱㅅㅡ</w>": 1354,
      "ㄷㅐㅌㅗㅇ": 1355,
      "ㅂㅅㅣ": 1356,
      "ㅂㅏㄹㅅㅐㅇ": 1357,
      "ㅈㅗㅎㅇㅏ": 1358,
      "ㅇㅇㅣ</w>": 1359,
      "ㅅㅠ": 1360,
      "ㄷㅏㅇㅡㅁ</w>": 1361,
      "ㄷㅡㄴㅡㄴ</w>": 1362,
      "ㅈㅏㅅㅣㄴㅇㅢ</w>": 1363,
      "ㅇㅏㄶㅇㅡㄴ</w>": 1364,
      "ㅈㅏㄹㅡㄹ</w>": 1365,
      "ㅊㅐㄱ</w>": 1366,
      "ag": 1367,
      "ㅈㅣㄱㅡㅁ": 1368,
      "18": 1369,
      "ㅗㄴ</w>": 1370,
      "ㅂㅜㄴㅅㅓㄱ</w>": 1371,
      "ㅇㅓㄷ": 1372,
      "ㅡㄹㅗ</w>": 1373,
      "16": 1374,
      "ㅍㅕ": 1375,
      "ㅂㄴㅣㄲㅏ</w>": 1376,
      "ㅈㅏㅁ": 1377,
      "ㅇㅣㅆㅇㅓ</w>": 1378,
      "ㅅㅛ": 1379,
      "lo": 1380,
      "ㅅㅏㅅㅣㄹ": 1381,
      "ㄱㅡㄹㅐㅍㅡ": 1382,
      "ㅎㅏㅇ</w>": 1383,
      "ㅇㅣㄴㅌㅓㄴㅔㅅ</w>": 1384,
      "ㅎㅏㅅㅣㄹ</w>": 1385,
      "ㅊㅗㄱ": 1386,
      "ㅁㅜㄹㅇㅡㄹ</w>": 1387,
      "ㅈㅜㄴㅂㅣ": 1388,
      "ㅇㅣㅂㅓㄴ</w>": 1389,
      "ㅈㅜㅅㅣ": 1390,
      "ㄷㅏㅇㅜㄴ": 1391,
      "ㄷㅡㄹㅣㅂㄴㅣㄷㅏ</w>": 1392,
      "ㅂㅏㄱ</w>": 1393,
      "ㄹㅑㅇ": 1394,
      "ㄱㅜㅅㅓㅇ": 1395,
      "ㄱㅔㅆㅅㅡㅂㄴㅣㄷㅏ</w>": 1396,
      "ㅇㅣㅆㄴㅡㄴ": 1397,
      "ㅇㅟㅇㅝㄴ": 1398,
      "in</w>": 1399,
      "ㅌㅗㅇ</w>": 1400,
      "ㅎㅘㄴㄱㅕㅇ": 1401,
      "ㄱㅡㄹㅓㅎ": 1402,
      "ed</w>": 1403,
      "ㅃㅜㄴ": 1404,
      "ㅇㅏㄶㄱㅗ</w>": 1405,
      "ㄷㅡㄹㄱㅘ</w>": 1406,
      "ㅅㅐㅇㅎㅘㄹ": 1407,
      "ㅈㅔㅍㅜㅁ": 1408,
      "ㅎㅏㄴㄱㅜㄱ</w>": 1409,
      "ㅊㅏㄴ": 1410,
      "ㅊㅓㄹㅣ": 1411,
      "ㄱㅓㄹ</w>": 1412,
      "ㄱㅏㅇ</w>": 1413,
      "ㅅㅏㅇㅣㅌㅡ": 1414,
      "ㅎㅏㄱㅅㅐㅇ": 1415,
      "ㅇㅓㅇㅑ</w>": 1416,
      "ㅎㅘㄹㄷㅗㅇ": 1417,
      "ㄱㅜㅇ": 1418,
      "ㄱㅕㅇㅈㅔ": 1419,
      "ㄱㅘㄴㅎㅏㄴ</w>": 1420,
      "ㅇㅕㄹㅓ</w>": 1421,
      "ㅅㅓㅂㅣㅅㅡ": 1422,
      "ㄷㅗㄹㅗ</w>": 1423,
      ").</w>": 1424,
      "ㅁㅐㅇㅜ</w>": 1425,
      "ㅎㅏㄴㅏ": 1426,
      "ㅇㅙ</w>": 1427,
      "ㅅㅔㄴㅌㅓ</w>": 1428,
      "ㅇㅣㄹㅇㅣ</w>": 1429,
      "ㅈㅜㅇㅢ": 1430,
      "ㅇㅣㄹㅓㅎㅏㄴ</w>": 1431,
      "ㄱㅓㅁㅅㅐㄱ</w>": 1432,
      "ㅌㅡㄱㅂㅕㄹ": 1433,
      "ㅅㅏㄱㅏ</w>": 1434,
      "ㅂㅗㄴㅡㄴ</w>": 1435,
      "ㅍㅕㅇㄱㅠ": 1436,
      "ㄱㅕㄹㄱㅘ": 1437,
      "ㅈㅣㄱㅡㅁ</w>": 1438,
      "ㅍㅠ": 1439,
      "ㄲㅏㅇㅛ</w>": 1440,
      "ㅈㅜㅅㅗ</w>": 1441,
      "ㅁㅏㄴㅋㅡ": 1442,
      "ㅂㅏ</w>": 1443,
      "ㅅㅣㅈㅏㅇ": 1444,
      "et": 1445,
      "ㅁㅜㄹㄹㅗㄴ</w>": 1446,
      "ㄹㅕㄱㅇㅡㄹ</w>": 1447,
      "ㅅㅓㅇㅇㅣ</w>": 1448,
      "ㄹㅏㄱ": 1449,
      "ㅇㅕㅇㅅㅏㅇ</w>": 1450,
      "ㅅㅣㄱㅇㅡㄹ</w>": 1451,
      "ㅅㅡㅁㅏ": 1452,
      "ㄱㅓㄴㄱㅏㅇ": 1453,
      "ㅈㅓㅇㅂㅗㄹㅡㄹ</w>": 1454,
      "ㅁㅜㄹㅛ</w>": 1455,
      "ㅁㅣㄴ</w>": 1456,
      "ㅇㅗㄴ</w>": 1457,
      "ㄷㅚㅇㅓㅆㄷㅏ</w>": 1458,
      "ㄹㄹㅓ": 1459,
      "ㅎㅏㄱㅓㄴㅏ</w>": 1460,
      "ㅈㅓㄴㅡㄴ</w>": 1461,
      "ㅁㅔㅇㅣ": 1462,
      "ㅈㅜㄹ</w>": 1463,
      "ㅗㄴ": 1464,
      "ri": 1465,
      "ㅂㅕㄴ</w>": 1466,
      "ㅊㅓㅅ</w>": 1467,
      "ㅅㅇㅡㄹ</w>": 1468,
      "ㅍㅏㄴ</w>": 1469,
      "el": 1470,
      "ㅎㅖ": 1471,
      "ㄷㅐㅎㅏㄴ": 1472,
      "ㅅㅎㅏㄴ</w>": 1473,
      "ㄷㅔㅇㅛ</w>": 1474,
      "ㅈㅜㅇㅇㅔ</w>": 1475,
      "ㄷㅡㅇㄹㅗㄱ": 1476,
      "ㅂㅓㄴㅉㅐ</w>": 1477,
      "ㅇㅣㅎㅜ</w>": 1478,
      "ㄱㅓㄹㅣ": 1479,
      "le</w>": 1480,
      "ㅇㅔㅅㅓㄷㅗ</w>": 1481,
      "ㄱㅐㅇㅢ</w>": 1482,
      "ㄱㅣㄹㅗㄱ": 1483,
      "14": 1484,
      "ㅇㅏㅇㅛ</w>": 1485,
      "ㅈㅡㅇ</w>": 1486,
      "ㅅㅣㅁ</w>": 1487,
      "ㅅㅑ": 1488,
      "ㄴㅏㅌㅏㄴ": 1489,
      "ㅇㅕㄹㅓ": 1490,
      "ㅈㅏㅇㅠ": 1491,
      "ㅇㅣㅆㄷㅏㄴㅡㄴ</w>": 1492,
      "ㄱㅏㄹ</w>": 1493,
      "ㅅㅏㅈㅣㄴ</w>": 1494,
      "ㄱㅘㄴㄹㅣ</w>": 1495,
      "es</w>": 1496,
      "ㅇㅣㅇㅓㅆㄷㅏ</w>": 1497,
      "ㅇㅞㅂ": 1498,
      "ㅈㅣㅇ": 1499,
      "ㅆㄱㅗ</w>": 1500,
      "ㄲㅐ": 1501,
      "ㄷㅗㅇㅢ</w>": 1502,
      "com</w>": 1503,
      "ㅇㅢㅁㅣ": 1504,
      "ㄷㅚㄴ": 1505,
      "ㅅㅏㄴㅇㅓㅂ": 1506,
      "ㄹㅏㄷㅗ</w>": 1507,
      "an</w>": 1508,
      "ㅁㅗㄱ</w>": 1509,
      "ㅂㅜㄱ</w>": 1510,
      "ㅅㅏㄹㅏㅁ</w>": 1511,
      "ㅍㅣㄹㅇㅛㅎㅏㄴ</w>": 1512,
      "ㅇㅣㅎㅐ": 1513,
      "ㅅㅏㅎㅏㅇ": 1514,
      "ㅇㅔㅇㅣ": 1515,
      "ㅅㅣㅈㅡ": 1516,
      "ㄱㅏㅁ</w>": 1517,
      "13": 1518,
      "ec": 1519,
      "ㄱㅣㄹㅗ</w>": 1520,
      "ㅋㅏㅇ": 1521,
      "ㅎㅕㄴ</w>": 1522,
      "ㅇㅣㄴㅇㅣ</w>": 1523,
      "ㅇㅏㄴㅈㅓㄴ": 1524,
      "ㄹㅐㄴ": 1525,
      "ㄱㅏㅁㅅㅏㅎㅏㅂㄴㅣㄷㅏ</w>": 1526,
      "ㄱㅡㄹㅜ": 1527,
      "ㄱㅣㅌㅏ</w>": 1528,
      "ㅅㅡㅌㅡ": 1529,
      "ㅇㅣㄹㅏ</w>": 1530,
      "ㄷㅡㅇㅇㅣ</w>": 1531,
      "ㄱㅛㅇㅠㄱ</w>": 1532,
      "ㅇㅕㄱㅅㅣ</w>": 1533,
      "ㅁㅜ</w>": 1534,
      "ㅅㅏㅇㅌㅐ": 1535,
      "ㅂㅅㅣㅇㅗ</w>": 1536,
      "ㅎㅕㄱ": 1537,
      "ㅇㅣㄴㄱㅏㄴ": 1538,
      "ㅈㅓㅇㅂㅜ": 1539,
      "ㅌㅏㄱ": 1540,
      "ㅈㅏㄱㅇㅡㄴ</w>": 1541,
      "ㄱㅓㅇㅢ</w>": 1542,
      "ㅅㅏㄻ": 1543,
      "ㅅㅏㄹㅏㅁㅇㅣ</w>": 1544,
      "ㅎㅏㄴㅡㄴㄷㅔ</w>": 1545,
      "ㅈㅜㅇㅢ</w>": 1546,
      "ㅇㅣㄴㅇㅢ</w>": 1547,
      "ㅁㅏㅋㅔ": 1548,
      "ㅎㅏㄱㄱㅛ</w>": 1549,
      "ㅈㅏㄹㅛ</w>": 1550,
      "ㅇㅣㅈㅔ</w>": 1551,
      "ㅇㅏㅅㅣ": 1552,
      "ㅋㅏ</w>": 1553,
      "ur": 1554,
      "ㅎㅏㄹㅕ": 1555,
      "ㅁㅣㄷ": 1556,
      "50": 1557,
      "ㅂㅡ</w>": 1558,
      "ㅂㅏㄷㅇㅡㄴ</w>": 1559,
      "ㅍㅏㄴㅁㅐ": 1560,
      "ㅁㅕㅊ</w>": 1561,
      "ㅁㅗ</w>": 1562,
      "ㄷㅔㅇㅣㅌㅓ": 1563,
      "un": 1564,
      "ㄷㅙㅆㄷㅏ</w>": 1565,
      "ㄴㅔ</w>": 1566,
      "ㅎㅘㄴ</w>": 1567,
      "ㄷㅗㄹㅡㄹ</w>": 1568,
      "ㅊㅐㄱㅇㅣㅁ": 1569,
      "ㅅㅗㅍㅡ": 1570,
      "ㅊㅜㅊㅓㄴ</w>": 1571,
      "ㄹㅣㅁ": 1572,
      "ㅈㅓㄱㅇㅛㅇ": 1573,
      "ㅍㅗㄴ</w>": 1574,
      "ㅌㅣㅇ": 1575,
      "ㅅㅔㄱㅖ</w>": 1576,
      "ㅇㅣㅁㅣ": 1577,
      "ㅇㅠㄴ": 1578,
      "ㄸㅏㄹㅏ": 1579,
      "ㄲㅗㄱ</w>": 1580,
      "ㅇㅕㅎㅐㅇ</w>": 1581,
      "ㅈㅏㅇㅔㄱㅔ</w>": 1582,
      "ㅂㅔㅇㅣ": 1583,
      "ㅎㅐㄷㅗ</w>": 1584,
      "ㅇㅜㄹㅣㄱㅏ</w>": 1585,
      "ㅇㅣㅁ</w>": 1586,
      "ㅂㅗㄱㅗ": 1587,
      "ㄱㅜㄱㅁㅣㄴ": 1588,
      "ㄱㅡㄴㅡㄴ</w>": 1589,
      "ㅈㅏㅅㅔ": 1590,
      "ㅇㅏㄹㄹㅕ": 1591,
      "ㄱㅔㅇㅣㅁ": 1592,
      "ㅈㅣㄱㅗ</w>": 1593,
      "ㅋㅡㄹㄹㅣ": 1594,
      "ㅎㅡㅇ": 1595,
      "ㅂㅣㄹ": 1596,
      "ㄱㅐㅇㅝㄹ</w>": 1597,
      "ㄷㅐㅅㄱㅡㄹ": 1598,
      "ㅇㅓㄹㅕㅇ": 1599,
      "ㅇㅣㄹㅂㅏㄴ": 1600,
      "ㅋㅓㅁㅍㅠ": 1601,
      "ㅅㅟㅂㄱㅔ</w>": 1602,
      "ㄷㅡㅅ</w>": 1603,
      "ㅅㅕㄹ": 1604,
      "or</w>": 1605,
      "ㅈㅚ": 1606,
      "ㅇㅜㄱ</w>": 1607,
      "ㅎㅏㄴㅏ</w>": 1608,
      "ㅈㅓㅇㄷㅗ</w>": 1609,
      "ㄹㅇㅓ": 1610,
      "ㄱㅡㄹㅓㄴㄷㅔ</w>": 1611,
      "ㄷㅓㄱ": 1612,
      "ㅅㅗㄱㅐ": 1613,
      "ㅂㅓ</w>": 1614,
      "ㄱㅏㅈㅗㄱ": 1615,
      "!!</w>": 1616,
      "ㅍㅖ": 1617,
      "ㅋㅣ</w>": 1618,
      "ㄷㅣ</w>": 1619,
      "ㄷㅏㄹㅣ": 1620,
      "ㅇㅗㄴㄹㅏ": 1621,
      "ㅁㅏㄴㅋㅡㅁ</w>": 1622,
      "ㅍㅗㄴ": 1623,
      "ㅇㅣㅇㅛㅇ</w>": 1624,
      "17": 1625,
      "ㅏㅇㅢ</w>": 1626,
      "ㅍㅕㅇㄱㅠㄴ</w>": 1627,
      "ㅅㅡㄴㅡㄴ</w>": 1628,
      "ㅅㅜㄴㅡㄴ</w>": 1629,
      "ㅈㅣㅇㅕㄱ</w>": 1630,
      "ㅇㅔㄱㅔ": 1631,
      "ㅇㅣㅆㄷㅗㄹㅗㄱ</w>": 1632,
      "ㅇㅣㄹㅂㅗㄴ</w>": 1633,
      "ㅋㅏㅈㅣㄴ": 1634,
      "24": 1635,
      "ㅇㅣㅁㅣ</w>": 1636,
      "ㅈㅜㅇㄱㅜㄱ": 1637,
      "ㅆㅓ</w>": 1638,
      "ㅇㅣㅂㅔㄴ": 1639,
      "ㄴㅜㄹ": 1640,
      "ㅂㅜㅌ": 1641,
      "ㅆㅓ": 1642,
      "ㄴㅔㅇㅣ": 1643,
      "ㅊㅓ</w>": 1644,
      "ㄱㅕㅇㄱㅣ": 1645,
      "ㅋㅗ</w>": 1646,
      "ㅂㅗㅎㅗ": 1647,
      "ㅅㅏㅇㅛㅇ</w>": 1648,
      "ㅋㅗㄹ": 1649,
      "ㅎㅏㅂ</w>": 1650,
      "ㅂㅗㄴㅣ</w>": 1651,
      "ㄱㅘㅈㅓㅇ": 1652,
      "ㅇㅏㄴㅣㄴ</w>": 1653,
      "ㄴㅏㅁ</w>": 1654,
      "ㅌㅐㄱ</w>": 1655,
      "ㅇㅣㅆㄱㅔ</w>": 1656,
      "ㄱㅏㅌㅅㅡㅂㄴㅣㄷㅏ</w>": 1657,
      "ㄲㅡㄹ": 1658,
      "ㅇㅕㅇㅎㅘ": 1659,
      "ㅆㄴㅡㄴㄷㅔ</w>": 1660,
      "ㄱㅡㄹㅓㅎㄱㅔ</w>": 1661,
      "ㅎㅗㄹ": 1662,
      "ㅈㅘ": 1663,
      "ㄹㅣㅇ": 1664,
      "ㅇㅕㅇㅎㅘ</w>": 1665,
      "ㅇㅡㄴㅣ</w>": 1666,
      "ㅁㅜㄴㅇㅢ": 1667,
      "ㅇㅕㅅㅓㅇ": 1668,
      "ㅌㅗㄹ": 1669,
      "ㅁㅗㅂㅏ": 1670,
      "ㅅㅏㄹㅏㅁㄷㅡㄹㅇㅣ</w>": 1671,
      "ㄷㅡㄹㅡㄹ</w>": 1672,
      "ㄱㅡㄴㅑㅇ</w>": 1673,
      "ㅁㅐㄱ": 1674,
      ".\"</w>": 1675,
      "ㅋㅐㅁ": 1676,
      "ㅂㅡㄹㅐㄴ": 1677,
      "ㅈㅗㄹ": 1678,
      "ㅇㅏㅈㅜ</w>": 1679,
      "ㄱㅗㅅ</w>": 1680,
      "ㅂㅕㄴㄱㅕㅇ": 1681,
      "ㅊㅓㅇㅅㅗ": 1682,
      "ㅅㅏㄱㅈㅔ</w>": 1683,
      "ㄱㅜㄴ</w>": 1684,
      "ㄷㅚㅁㅕㄴ</w>": 1685,
      "ㅅㅣㅇㅔ</w>": 1686,
      "ㅅㅣㅁㅕㄴ</w>": 1687,
      "ㅌㅡㄹㅣ": 1688,
      "ㅈㅓㄹ</w>": 1689,
      "ㅅㅣㅅㅓㄹ": 1690,
      "ㄷㅚㅇㅓㅆㅅㅡㅂㄴㅣㄷㅏ</w>": 1691,
      "ㄱㅡㅇㅢ</w>": 1692,
      "ㅂㅏㄲㅇㅔ</w>": 1693,
      "ㅇㅓㄴㅡ</w>": 1694,
      "ㅁㅏㄱ</w>": 1695,
      "ㅇㅣㅇㅑㄱㅣ</w>": 1696,
      "ㅎㅡㄹ": 1697,
      "ㅇㅑㅇ</w>": 1698,
      "ㅎㅏㅇㅕㅆㄷㅏ</w>": 1699,
      "ㅈㅔㅍㅜㅁ</w>": 1700,
      "ㅇㅜㄴㄷㅗㅇ": 1701,
      "ㅇㅣㄴㅈㅣ</w>": 1702,
      "ㅂㅕㄴㅎㅘ": 1703,
      "ㅅㅏㅇㅛㅇㅎㅏㄹ</w>": 1704,
      "ㅇㅠㄹ": 1705,
      "ㅇㅗㄴㅡㄹ": 1706,
      "ㅇㅗㄴㅡㄹ</w>": 1707,
      "ㅊㅣㄴㄱㅜ": 1708,
      "ㅈㅜㅅㅔㅇㅛ</w>": 1709,
      "ㅇㅡㄹㄲㅏ</w>": 1710,
      "ㅈㅣㄱㅏ</w>": 1711,
      "ㅁㅕㅇㅇㅢ</w>": 1712,
      "ㅊㅏㅁㅇㅕ": 1713,
      "ㅇㅘㅇ": 1714,
      "ㅎㅐㄱ": 1715,
      "ㅎㅜㄴ": 1716,
      "ㅁㅏㅈㅣ": 1717,
      "ㅍㅜㅁㅇㅡㄹ</w>": 1718,
      "ㅈㅜㅇㅇㅛㅎㅏㄴ</w>": 1719,
      "ㅈㅣㅇㅢ</w>": 1720,
      "ㅅㅓㄹㅊㅣ": 1721,
      "ㅁㅓㄴㅈㅓ</w>": 1722,
      "ㅅㅗㅍㅡㅌㅡ": 1723,
      "ㅂㅗㅎㅓㅁ": 1724,
      "om": 1725,
      "ㅈㅏㄱㅇㅓㅂ": 1726,
      "ㅂㅏㄹㄱㅕㄴ": 1727,
      "ㅇㅏㅁㅏ": 1728,
      "ㅎㅐㅅㅓㄴㅡㄴ</w>": 1729,
      "ㅇㅓㄴㅈㅔ": 1730,
      "ㅂㅏㅇㅣ": 1731,
      "ㅇㅣㄴㄷㅔ</w>": 1732,
      "ㅇㅏㅂ": 1733,
      "ig": 1734,
      "ㅎㅑㅇ</w>": 1735,
      "ㄱㅚ": 1736,
      "ㅎㅢ</w>": 1737,
      "ㄱㅜㄱㅈㅔ": 1738,
      "ㄱㅣㅎㅚ": 1739,
      "ㅅㅗㅅㅕㄹ": 1740,
      "ㅏㄴ</w>": 1741,
      "ㄱㅏㄴㅡㅇㅎㅏㄴ</w>": 1742,
      "ㅅㅓㅇㅜㄹ</w>": 1743,
      "ㅋㅕ": 1744,
      "ㅅㅐ</w>": 1745,
      "ㅇㅏㄹㅐ": 1746,
      "ㅎㅘㄹㅇㅛㅇ": 1747,
      "8ㄴㅕㄴ</w>": 1748,
      "de": 1749,
      "ㅇㅣㅆㄷㅏㄱㅗ</w>": 1750,
      "ㅎㅐㄷㅏㅇ": 1751,
      "ㅅㅣㄴㅊㅓㅇ": 1752,
      "ㅇㅣㅆㄴㅡㄴㄷㅔ</w>": 1753,
      "ㅈㅔㄱㅗㅇㄷㅚㅂㄴㅣㄷㅏ</w>": 1754,
      "ㅅㅏㅇㅍㅜㅁ</w>": 1755,
      "ㅂㅕㄱ": 1756,
      "ㅇㅏㅅㅓ</w>": 1757,
      "ㅈㅓㅇㅊㅐㄱ": 1758,
      "ㄹㅓㄴ": 1759,
      "ㅅㅜㄹㅡㄹ</w>": 1760,
      "ㅎㅛㄱㅘ": 1761,
      "ㄷㅏㅁ</w>": 1762,
      "ㄷㅐㅌㅗㅇㄹㅕㅇ": 1763,
      "ㅊㅜㄱㅏ": 1764,
      "ㅇㅔㄴ</w>": 1765,
      "ㅊㅡㅇ</w>": 1766,
      "ㅇㅏㄹ</w>": 1767,
      "ㅈㅏㅇㅕㄴ": 1768,
      "ㅅㅓㅇㄱㅗㅇ": 1769,
      "ㅇㅏㄹㅡㅁ": 1770,
      "100": 1771,
      "ㅎㅏㄴㄷㅏㄴㅡㄴ</w>": 1772,
      "ㄸㅐㅁㅜㄴㅇㅣㄷㅏ</w>": 1773,
      "ㅇㅣㄹㅜ": 1774,
      "ㅇㅣㄴㅌㅓ": 1775,
      "ㅈㅓㅇㅊㅣ": 1776,
      "ㅈㅣㅇㅝㄴ</w>": 1777,
      "ㅈㅗㄱ</w>": 1778,
      "ㄲㅓ": 1779,
      "ㅅㅡㅇㅢ</w>": 1780,
      "ㄷㅐㅅㅏㅇ": 1781,
      "ㅈㅏㅇㅇㅣ</w>": 1782,
      "ㄷㅓㅇㅜㄱ</w>": 1783,
      "ㄸㅓㄹㅇㅓ": 1784,
      "ㅈㅜㅇㅅㅣㅁ": 1785,
      "ㅎㅐㄱㅕㄹ": 1786,
      "ㄱㅣㅂㅗㄴ": 1787,
      "ㅍㅏ</w>": 1788,
      "ch": 1789,
      "ㅊㅗ</w>": 1790,
      "ㄱㅖㅅㅗㄱ</w>": 1791,
      "ㅈㅓㄴㄹㅑ": 1792,
      "ㅏㄴㅡㄴ</w>": 1793,
      "ㅈㅔㄹㅗ</w>": 1794,
      "ㅂㅏㅇㅁㅜㄴ": 1795,
      "ㄴㅗㅍㅇㅡㄴ</w>": 1796,
      "ㅊㅗㅇ</w>": 1797,
      "ㄷㅗㄱㅏ</w>": 1798,
      "ㅇㅣㄴㄱㅏ</w>": 1799,
      "ㄱㅜㄱㄴㅐ</w>": 1800,
      "ㅇㅣㄴㅇㅡㄹ</w>": 1801,
      "ㅇㅕㄱㅣ": 1802,
      "ㄷㅡㄹㄷㅗ</w>": 1803,
      "ㅍㅗ</w>": 1804,
      "ㅇㅣㄱㅏ</w>": 1805,
      "ㄱㅅㅣ": 1806,
      "ㅍㅛㅅㅣ": 1807,
      "ㅇㅓㄴㅏ": 1808,
      "ㅁㅏㄷㅏ</w>": 1809,
      "ㅇㅟㅇㅔ</w>": 1810,
      "ㄱㅏㅌㄷㅏ</w>": 1811,
      "ㅈㅣㅇㅛ</w>": 1812,
      "ㄹㅠ</w>": 1813,
      "ol": 1814,
      "ㅇㅏㄹㄱㅗ</w>": 1815,
      "ㅂㅓㄴㅎㅗ</w>": 1816,
      "ㄱㅏㄱㅕㄱ": 1817,
      "of</w>": 1818,
      "ㅇㅣㄹㅇㅔ</w>": 1819,
      "ㄱㅣㄷㅐ": 1820,
      "ㅈㅏㄱㅣ</w>": 1821,
      "ㅇㅚ</w>": 1822,
      "ㅅㅓㄷㅗ</w>": 1823,
      "ㅇㅓㄷㅣ": 1824,
      "ㅁㅏㄹㅕㄴ": 1825,
      ".)</w>": 1826,
      "ㅊㅜㄱㅏ</w>": 1827,
      "ti": 1828,
      "ㅇㅏㄴㄴㅐ</w>": 1829,
      "ㄱㅅㅣ</w>": 1830,
      "ㅡㄱㅔ</w>": 1831,
      "ㄱㅕㄹㅈㅓㅇ": 1832,
      "ad": 1833,
      "ㅎㅏㄱㅗ": 1834,
      "ㅇㅓㄹㅣㄴ": 1835,
      "ㅅㅓㅂㅣㅅㅡㄹㅡㄹ</w>": 1836,
      "ㅈㅗㄱㅓㄴ": 1837,
      "ㅈㅕㅆㄷㅏ</w>": 1838,
      "ㄷㅏㅇㅜㄴㄹㅗ": 1839,
      "ㅂㅇㅡㄹ</w>": 1840,
      "ㅆㅣ</w>": 1841,
      "ㄱㅕㄹㄱㅘ</w>": 1842,
      "ㅅㅏㅅㅣㄹ</w>": 1843,
      "ㄴㅏㅇㅛ</w>": 1844,
      "ㅇㅕㅈㅏ</w>": 1845,
      "ㅁㅏㄴㄷㅡㄹㅇㅓ": 1846,
      "1ㅇㅣㄹ</w>": 1847,
      "ㅎㅏㅇㄱㅗㅇ": 1848,
      "ㅈㅗㄴㅈㅐ": 1849,
      "ㄴㅣㄲㅏ</w>": 1850,
      "ㅈㅓㄴㅊㅔ</w>": 1851,
      "ㄴㅡㄴㅈㅣ</w>": 1852,
      "ㄹㅗㄱㅡ": 1853,
      "ㄱㅏㅇㅣㅂ": 1854,
      "ㅁㅜㄹㅛ": 1855,
      "ㅇㅕㄴㄱㅕㄹ": 1856,
      "ㄹㅕㄴ": 1857,
      "ㅋㅗㅇㅓ</w>": 1858,
      "ㅊㅜㅊㅓㄴ": 1859,
      "ㅁㅜㄴㅅㅓ": 1860,
      "ㅁㅕㅇㅇㅣ</w>": 1861,
      "ㅂㅏㅇㅅㅗㅇ": 1862,
      "ㄹㅕㅇ</w>": 1863,
      "ㄱㅕㅇㅎㅓㅁ": 1864,
      "ㄹㅣㄱㅏ</w>": 1865,
      "ㅎㅐㅇㅂㅗㄱ": 1866,
      "ㅂㅐ</w>": 1867,
      "ㅊㅣㄴㅡㄴ</w>": 1868,
      "ㅇㅗㄱ": 1869,
      "ㅎㅕㄴㄷㅐ": 1870,
      "ㅌㅣㅁ</w>": 1871,
      "ㅈㅜㅇㄱㅜㄱ</w>": 1872,
      "ㅁㅐㄴ": 1873,
      "ㅂㅏㄹㅈㅓㄴ": 1874,
      "ㅅㅇㅣ</w>": 1875,
      "ㅇㅣㅆㅇㅓㅅㅓ</w>": 1876,
      "ht": 1877,
      "ㅇㅣㅇㅔ</w>": 1878,
      "ㅍㅣ</w>": 1879,
      "St": 1880,
      "ㅇㅢㅎㅐ</w>": 1881,
      "ㅂㅏㄺㅎㅕ": 1882,
      "ㅇㅣㅆㅈㅣㅁㅏㄴ</w>": 1883,
      "ㅈㅓㅁㅇㅣ</w>": 1884,
      "ㅁㅜㄴㅈㅔㄱㅏ</w>": 1885,
      "ㄲㅔ": 1886,
      "ㅇㅕㅇㅎㅑㅇ": 1887,
      "ㅁㅣㄷㅣ": 1888,
      "ㅅㅜㅈㅣㅂ": 1889,
      "ㄱㅏㄴㅡㅇ</w>": 1890,
      "ow": 1891,
      "us": 1892,
      "ㅈㅓㅇㅅㅏㅇ": 1893,
      "ㅇㅏㄶㅇㅏㅆ": 1894,
      "ㄱㅕㅇㄱㅣ</w>": 1895,
      "ㅂㅗㅇㅣ": 1896,
      "Th": 1897,
      "ㅅㅗㅂㅣ": 1898,
      "ㅁㅜㄴㅈㅔ</w>": 1899,
      "ㄱㅖㅎㅚㄱ": 1900,
      "ㅅㅡㄴ</w>": 1901,
      "ㅊㅣㅁ</w>": 1902,
      "ㅈㅏㅇㅇㅐ": 1903,
      "ㅍㅐㄴ": 1904,
      "ㅈㅗㄴ</w>": 1905,
      "ㅇㅜㅅ": 1906,
      "ㅇㅕㅆㄷㅏ</w>": 1907,
      "ap": 1908,
      "ㄴㅓㅎ": 1909,
      "ㅁㅣㅌㅓ": 1910,
      "ㅏㄱ": 1911,
      "ㅈㅔㄱ": 1912,
      "ㅅㅣㄱㅏㄴㅇㅣ</w>": 1913,
      "ㄴㅣㅁㅇㅢ</w>": 1914,
      "ㅂㅐㅇㅜ": 1915,
      "ab": 1916,
      "ㅇㅝㄴㅇㅡㄹ</w>": 1917,
      "ㅂㅏㄷㄱㅗ</w>": 1918,
      "ㅈㅏㅇㅇㅡㄴ</w>": 1919,
      "ㄱㅗㅇㅢ</w>": 1920,
      "ㅊㅣㄹㅡㄹ</w>": 1921,
      "ㅏㅇㅣ": 1922,
      "ㅏㅇㅜ": 1923,
      "ㄱㅣㅇㅓㅂ</w>": 1924,
      "ㅙㄴ": 1925,
      "ㅅㅕㅆ": 1926,
      "ㄷㅡㄹㅇㅓ</w>": 1927,
      "ㅊㅓㅇㅡㅁ": 1928,
      "ㄴㅐㅇㅛㅇ</w>": 1929,
      "ㅂㅗㄱㅈㅣ": 1930,
      "12</w>": 1931,
      "25": 1932,
      "ㄱㅏㅂ": 1933,
      "ㅇㅓㄴ</w>": 1934,
      "ㅅㅣㅅㅡㅌㅔㅁ</w>": 1935,
      "11</w>": 1936,
      "ㅉㅣㄱ": 1937,
      "ot": 1938,
      "ㅎㅐㅇㅚ": 1939,
      "ㅈㅓㅇㅎㅏㄴ</w>": 1940,
      "ㅍㅡㄹㅗㄱㅡㄹㅐㅁ</w>": 1941,
      "ㄷㅐㅎㅏㄴㅁㅣㄴ": 1942,
      "ㄴㅠㅅㅡ</w>": 1943,
      "ㅇㅡㅁㅇㅡㄹ</w>": 1944,
      "ㄷㅏㅇㅜㄴ</w>": 1945,
      "ㅌㅚ": 1946,
      "ㅂㅜㄴㅅㅓㄱ": 1947,
      "ㅂㅜㄹㅡㄹ</w>": 1948,
      "ㅕㅇㅑ</w>": 1949,
      "ㅅㅣㄷㅐ": 1950,
      "ㄱㅕㄹ</w>": 1951,
      "ㄷㅔㅇㅣㅌㅓ</w>": 1952,
      "ㄷㅡㄷ": 1953,
      "ㅇㅠㅇ": 1954,
      "ㅈㅓㄴㅎㅣ</w>": 1955,
      "ㅊㅣㄹㅛ": 1956,
      "ㅁㅏㄴㅇㅔ</w>": 1957,
      "ir": 1958,
      "em": 1959,
      "ㅎㅕ</w>": 1960,
      "ㅎㅏㄴㄷㅏㄱㅗ</w>": 1961,
      "ㄱㅣㅍ": 1962,
      "ㄱㅏㄴㅡㅇㅎㅏㅂㄴㅣㄷㅏ</w>": 1963,
      "ㄹㅣㄱㅗ</w>": 1964,
      "ㅋㅗㄴㅌㅔㄴ": 1965,
      "ㄴㅕㅁ": 1966,
      "ㄱㅗㅇㄱㅏㄴ": 1967,
      "ㅇㅡㄴㅏ</w>": 1968,
      "ㄴㅗㄷㅗㅇ": 1969,
      "ㅁㅜㄴㅇㅢ</w>": 1970,
      "ㄹㅏㄴ</w>": 1971,
      "ㅅㅔㅅㅏㅇ": 1972,
      "ㅈㅗㄱㅡㅁ</w>": 1973,
      "ㅈㅣㄴㅏㄴ": 1974,
      "ㄸㅏㄹㅏㅅㅓ</w>": 1975,
      "ㄹㅕㄱㅇㅣ</w>": 1976,
      "ㅇㅕㅅㅓㅇ</w>": 1977,
      "ㄷㅏㅁㅏㄴ</w>": 1978,
      "ㅅㅣㅇ": 1979,
      "ㄸㅟ": 1980,
      "ㅈㅏㄱㅅㅓㅇ": 1981,
      "ㅎㅐㅆㄱㅗ</w>": 1982,
      "ㅈㅓㅇㅎㅘㄱ": 1983,
      "ㅈㅡㄱ</w>": 1984,
      "et</w>": 1985,
      "ㅅㅣㅅㅓㄹ</w>": 1986,
      "ㄷㅏㄷ": 1987,
      "ㄱㅣㅈㅏ</w>": 1988,
      "ㅌㅔㅇㅣ": 1989,
      "ㅅㅣㄹㅣ": 1990,
      "ㅎㅕㄹ": 1991,
      "ㅅㅣㅈㅏㅇ</w>": 1992,
      "ㅅㅣㄴㅡㄴ</w>": 1993,
      "ㅈㅓㄱㅇㅣ</w>": 1994,
      "ㅂㅏㄷㅇㅡㄹ</w>": 1995,
      "ㅈㅐㅁㅣ": 1996,
      "ㅉㅏ</w>": 1997,
      "ㅈㅏㅊㅔ": 1998,
      "000": 1999,
      "ㅛㅇ": 2000,
      "ㅎㅓㄴ": 2001,
      "ㅅㅡㄹㅓ": 2002,
      "ㅎㅜㄹ": 2003,
      "ㅂㅣㄱㅛ": 2004,
      "ㅅㅡㄹㅗ</w>": 2005,
      "ㄱㅘㄴㄱㅘㅇ": 2006,
      "ㅈㅏㄱㅣ": 2007,
      "ㅇㅟㄹㅡㄹ</w>": 2008,
      "ㅎㅐㅂㅗ": 2009,
      "ㅅㅏㄱㅈㅔ": 2010,
      "ㅇㅓㄹㅡㄹ</w>": 2011,
      "ㄱㅣㄱㅏㄴ</w>": 2012,
      "ㅅㅏㅎㅚ</w>": 2013,
      "ㅈㅣㅇㅔ</w>": 2014,
      "ㅔㅇㅛ</w>": 2015,
      "ㅊㅣㄴ</w>": 2016,
      "ㅇㅓㄱ</w>": 2017,
      "ㄴㅣ</w>": 2018,
      "ㅍㅡㄹㅗㅈㅔㄱ": 2019,
      "ㅇㅏㄶㅇㅡㄹ</w>": 2020,
      "ㄱㅡㄴㅕ": 2021,
      "ㄷㅣㅇ</w>": 2022,
      "ㅇㅜㄴㅇㅕㅇ</w>": 2023,
      "ㅁㅏㄹㅇㅡㄹ</w>": 2024,
      "ㅇㅏㄴㅣㄷㅏ</w>": 2025,
      "ㅅㅟㅂ": 2026,
      "ㄱㅘㅎㅏㄱ": 2027,
      "ㅎㅏㄷㅡ</w>": 2028,
      "ㄴㅏㅇㅢ</w>": 2029,
      "and</w>": 2030,
      "ㅇㅏㅈㅣㄱ</w>": 2031,
      "ㅎㅐㅆㄴㅡㄴㄷㅔ</w>": 2032,
      "ㅇㅗㅇ": 2033,
      "ㄷㅗㄴ": 2034,
      "ㅇㅗㄴㅡㄴ</w>": 2035,
      "ㅅㅡㅁㅏㅌㅡ": 2036,
      "ㅅㅣㄱㅏㄴㅇㅡㄹ</w>": 2037,
      "ㅁㅗㅅ</w>": 2038,
      "ㅆㅇㅡㄹ</w>": 2039,
      "ㅁㅜㄴㅇㅡㄹ</w>": 2040,
      "ㄷㅏㄴㅣ": 2041,
      "ㅇㅡㅁㅅㅣㄱ": 2042,
      "ㅅㅡㅌㅓ": 2043,
      "ㅇㅖㅈㅓㅇ": 2044,
      "ㄹㄹㅗ": 2045,
      "ㄹㅔㄴ": 2046,
      "ㅊㅏㅁㄱㅗ": 2047,
      "ㅅㅡㅂ</w>": 2048,
      "ㅇㅣㄹㅏㄴ</w>": 2049,
      "ㄱㅐㅂㅏㄹ</w>": 2050,
      "ㅇㅏㅂㅓ": 2051,
      "ㅅㅗㄴ</w>": 2052,
      "ㅊㅕ</w>": 2053,
      "ㅎㅟ": 2054,
      "ㅇㅣㅇㅓ</w>": 2055,
      "7ㄴㅕㄴ</w>": 2056,
      "ㅆㅡㄹ": 2057,
      "av": 2058,
      "ㅎㅐㅇㅑ": 2059,
      "ㅇㅏㄴㅇㅔ</w>": 2060,
      "ㅂㅜㅅㅡㅌㅏ": 2061,
      "ㄱㅣㄱㅏㄴ": 2062,
      "ㅅㅏㅇㅔ</w>": 2063,
      "ㅅㅡㄱㅏ</w>": 2064,
      "ㅂㅣㄴ": 2065,
      "ㅅㅕㅅㅓ</w>": 2066,
      "ㅋㅡㄴ": 2067,
      "ation</w>": 2068,
      "ㅅㅡㅌㅗㄹ": 2069,
      "ㅈㅜㅂㅕㄴ</w>": 2070,
      "ㄱㅔㅅㅣㅁㅜㄹ</w>": 2071,
      "ㅂㅜㅅㅡㅌㅏㅂㅣ": 2072,
      "ㅁㅏㄹㅎㅐㅆㄷㅏ</w>": 2073,
      "ㅈㅡㅁ</w>": 2074,
      "ㅇㅣㅁㅇㅡㄹ</w>": 2075,
      "ㄱㅏㄹㅡㄹ</w>": 2076,
      "ㅅㅏㅇㄷㅐ": 2077,
      "ㄱㅣㄱㅘㄴ": 2078,
      "ㅉㅗㄱ</w>": 2079,
      "ㄴㅏㅈ": 2080,
      "ㅇㅗㅂ": 2081,
      "ㅅㅓㅇㅇㅔ</w>": 2082,
      "ㅇㅣㄹㅡㅁ": 2083,
      "ub": 2084,
      "ㅅㅣㄴㄱㅗ": 2085,
      "ㅎㅚㅇㅝㄴ</w>": 2086,
      "ㅂㅗㄱ</w>": 2087,
      "ㅓㅂ</w>": 2088,
      "40": 2089,
      "ㅅㅏㄹ</w>": 2090,
      "ㅂㅡㄹ</w>": 2091,
      "ㄱㅣㅅㅜㄹ</w>": 2092,
      "ㅇㅏㄹㅇㅏ": 2093,
      "ㅆㅈㅣㅁㅏㄴ</w>": 2094,
      "ㅌㅐ</w>": 2095,
      "ㅇㅜㅁ": 2096,
      "ㅂㅏㄹㅍㅛ": 2097,
      "ㅘㄹ": 2098,
      "ㅅㅣㅁㅇㅡㄹ</w>": 2099,
      "ㅂㅏㅇㅅㅣㄱ": 2100,
      "ㅇㅢㄹㅡㄹ</w>": 2101,
      "ㄷㅐㅎㅏㅇㅕ</w>": 2102,
      "ㅁㅏㄴㄴㅏ": 2103,
      "ㄱㅗㅇㄱㅐ": 2104,
      "ㅆㅣㄱ</w>": 2105,
      "ㅇㅣㄷㅗㅇ": 2106,
      "....</w>": 2107,
      "ㅍㅛㅎㅕㄴ": 2108,
      "ㅁㅗㄷㅜ": 2109,
      "ㅇㅓㄷㅗ</w>": 2110,
      "ㅂㅔㄹ": 2111,
      "ㄸㅐㄴㅡㄴ</w>": 2112,
      "ㅂㅓㄹ</w>": 2113,
      "ㅍㅗㅇㅣㄴ": 2114,
      "ㄱㅜㅇㄱㅡㅁ": 2115,
      "ㅎㅘㅇ</w>": 2116,
      "ㄴㅗㄹㅕㄱ": 2117,
      "ㅂㅜㄴㅇㅑ": 2118,
      "ㅎㅗㄱㅇㅡㄴ</w>": 2119,
      "ㄱㅕㄹㄱㅜㄱ</w>": 2120,
      "ㅈㅓㅇㅅㅣㄴ": 2121,
      "ㅇㅕㅁ": 2122,
      "ㅇㅟㅎㅏㅇㅕ</w>": 2123,
      "ㅎㅏㅅㅣㄴ</w>": 2124,
      "ㄱㅕㅇㅇㅕㅇ": 2125,
      "ㅇㅓㅂㄷㅔㅇㅣ": 2126,
      "ㅇㅓㅇ": 2127,
      "ㅊㅚㄷㅐ</w>": 2128,
      "//</w>": 2129,
      "ㄱㅓㅁㅅㅐㄱ": 2130,
      "5ㄴㅕㄴ</w>": 2131,
      "ㅎㅘㄱㅇㅣㄴ</w>": 2132,
      "ㅊㅏㅁ</w>": 2133,
      "ㅁㅏㅇ</w>": 2134,
      "ㅉㅐ": 2135,
      "ㄷㅗㄹㅇㅏ": 2136,
      "ㅁㅏㄴㅏ</w>": 2137,
      "ㄱㅏㅇㅜㄴ": 2138,
      "ㅇㅠㄹㅓ": 2139,
      "ㅅㅓㄹㅈㅓㅇ": 2140,
      "ㅁㅕㅇㅇㅡㄹ</w>": 2141,
      "ㄷㅗㅅㅣ": 2142,
      "ㄱㅣㅈㅜㄴ": 2143,
      "ㅂㅜㄴㅇㅣ</w>": 2144,
      "ㄴㅏㄴㅜ": 2145,
      "ㅈㅣㄴㅏ": 2146,
      "ㅇㅠㅈㅣ": 2147,
      "TV</w>": 2148,
      "ㄴㅐㅇㅛㅇㅇㅡㄹ</w>": 2149,
      "ㄱㅜㄴㅇㅛ</w>": 2150,
      "ㄱㅛㅎㅚ": 2151,
      "ㅍㅡㄹ</w>": 2152,
      "ㄱㅗㅇㅇㅠ": 2153,
      "ㅇㅓㅆㅅㅡㅂㄴㅣㄷㅏ</w>": 2154,
      "ㄷㅗㄱ</w>": 2155,
      "ㅁㅏㅇㅣ": 2156,
      "22": 2157,
      "ㅁㅗㅂㅏㅇㅣㄹ</w>": 2158,
      "ㅈㅔㄷㅐㄹㅗ</w>": 2159,
      "ㅇㅔㅅㅓㅇㅢ</w>": 2160,
      "ㅊㅓㅇㅡㅁ</w>": 2161,
      "ㅁㅗㄷㅔㄹ": 2162,
      "ㅇㅏㅍㅏ": 2163,
      "1ㄴㅕㄴ</w>": 2164,
      "ㅊㅜㅇㅂㅜㄴ": 2165,
      "ㅈㅔㄱㅗㅇ</w>": 2166,
      "ㅎㅏㄴㅂㅓㄴ</w>": 2167,
      "ㅇㅡㄹㅗㄴㅡㄴ</w>": 2168,
      "ㅈㅓㅇㅂㅗㄴㅡㄴ</w>": 2169,
      "ent": 2170,
      "ㅂㅣㅊ": 2171,
      "In": 2172,
      "ㅎㅏㅇㅅㅏㅇ</w>": 2173,
      "ㄱㅣㅅㅏ</w>": 2174,
      "ㄲㅗㅊ": 2175,
      "ㅎㅏㄹㅜ": 2176,
      "ㅍㅡㄹㄹㅐ": 2177,
      "ㅋㅏㅁ": 2178,
      "ㄹㅠㄹ": 2179,
      "ㅇㅗㄹㅐ": 2180,
      "ㄷㅐㅎㅏㄱㄱㅛ</w>": 2181,
      "ㅇㅜㄹㅣㄴㅏㄹ": 2182,
      "ㅈㅣㅈㅣ</w>": 2183,
      "ㅌㅣㅁ": 2184,
      "ㅡㄴㅡㄴ</w>": 2185,
      "ㅇㅣㅂㅔㄴㅌㅡ</w>": 2186,
      "ㅅㅡㅍㅗㅊㅡ": 2187,
      "ㅁㅏㄴㅇㅝㄴ</w>": 2188,
      "ㅋㅡㄱㅔ</w>": 2189,
      "ㅇㅓㄹㅁㅏㄴㅏ</w>": 2190,
      "ㅁㅕㅊ": 2191,
      "ㄱㅕㅇㅈㅐㅇ": 2192,
      "ㅇㅣㄹㅂㅜ</w>": 2193,
      "ㄴㅗㄱ": 2194,
      "ㄷㅡㄱㅏ</w>": 2195,
      "di": 2196,
      "ㅏㄹㅡㄹ</w>": 2197,
      "ㅋㅏㅈㅣㄴㅗ</w>": 2198,
      "ㅁㅣㄴㅈㅜ": 2199,
      "ㅎㅞ": 2200,
      "ㅅㅐㅇㅅㅏㄴ": 2201,
      "ㄷㅜㄱㅗ</w>": 2202,
      "ㄱㅜㅇㅛ</w>": 2203,
      "ㅊㅓㅅ": 2204,
      "ㅁㅝ": 2205,
      "199": 2206,
      "ㄱㅘㅇㅢ</w>": 2207,
      "ㅅㅣㅂ": 2208,
      "2018</w>": 2209,
      "ㄱㅏㄱㅗ</w>": 2210,
      "ㅅㅓㄹㅗ</w>": 2211,
      "ㅆㅡㅁ": 2212,
      "ㅇㅛㄱㅜ": 2213,
      "li": 2214,
      "ㅋㅏㄷㅡ</w>": 2215,
      "km</w>": 2216,
      "ㅂㅜㅂㅜㄴ</w>": 2217,
      "ㅋㅣㅇ</w>": 2218,
      "ㅇㅣㅂㅓㄴ": 2219,
      "ㄱㅕㄹㅈㅔ</w>": 2220,
      "ㅎㅏㅅㅣㅂㅅㅣㅇㅗ</w>": 2221,
      "ㅈㅜㄱㅗ</w>": 2222,
      "ㅊㅓㅁ": 2223,
      "ㅇㅒ": 2224,
      "ㅅㅗㄹㅡㄹ</w>": 2225,
      "ㄴㅏㅇㅘ": 2226,
      "ㅆㄷㅏㄱㅗ</w>": 2227,
      "ㅡㅁㅕㄴ</w>": 2228,
      "ㅈㅣㅂㅏㅇ": 2229,
      "ㅁㅓㄹ": 2230,
      "ㄱㅏㅇㅛ</w>": 2231,
      "ㅇㅕㄱㅎㅏㄹ": 2232,
      "ㅇㅜㄹㅣㅇㅢ</w>": 2233,
      "ㅂㅐㄴ": 2234,
      "ㄱㅣㅇㅓㄱ": 2235,
      "ㅅㅏㅇㅓㅂ</w>": 2236,
      "ㄱㅓㄹㅐ": 2237,
      "ㅇㅇㅡㄹ</w>": 2238,
      "ㅇㅝㄴㅇㅣ</w>": 2239,
      "ㅅㅏㄹㅏㅁㅇㅡㄴ</w>": 2240,
      "ㄸㅏㅇ": 2241,
      "ㅌㅡㅇㅝ": 2242,
      "ㅅㅜㅈㅜㄴ": 2243,
      "ㅌㅗㅇㅅㅣㄴ": 2244,
      "ent</w>": 2245,
      "ㄱㅡㄹㅇㅡㄹ</w>": 2246,
      "ㅍㅡㄹㄹㅔㅇㅣ": 2247,
      "ㄸㅜ": 2248,
      "ㄹㅗㅅ": 2249,
      "ㄱㅜㄱㄱㅏ": 2250,
      "kr</w>": 2251,
      "ㄷㅗㅇㅜㅁㅇㅣ</w>": 2252,
      "2ㄴㅕㄴ</w>": 2253,
      "ㄱㅏㅈㅣㄴ</w>": 2254,
      "ㄱㅣㅇㅢ</w>": 2255,
      "ㅎㅕㅇㅌㅐ": 2256,
      "ㅇㅢㄹㅛ": 2257,
      "ㅈㅡㄹㄱㅓ": 2258,
      "3ㄴㅕㄴ</w>": 2259,
      "ㅅㅏㅁㅜ": 2260,
      "ㅅㅣㅍㅇㅡㄴ</w>": 2261,
      "ㄸㅏㄹㅡㄴ</w>": 2262,
      "ㅂㅜㄱㅎㅏㄴ": 2263,
      "ㄷㅐㅅㄱㅡㄹ</w>": 2264,
      "ㄴㅣㅅㅡ</w>": 2265,
      "ㅇㅣㅆㄱㅣ</w>": 2266,
      "ㅇㅐㄱ</w>": 2267,
      "ㅎㅚㅅㅏ</w>": 2268,
      "6ㄴㅕㄴ</w>": 2269,
      "ㅇㅏㄶㄴㅡㄴㄷㅏ</w>": 2270,
      "uc": 2271,
      "to</w>": 2272,
      "ㅂㅏㄹㅏㅁ": 2273,
      "ㅎㅐㅇㄷㅗㅇ": 2274,
      "ㅇㅗㄹㄹㅏ": 2275,
      "ㅈㅡㄱㅅㅣ</w>": 2276,
      "ㄷㅏㅇㅡㅁㄱㅘ</w>": 2277,
      "ㅅㅣㅁㅣㄴ": 2278,
      "ㅂㅏㄷㄴㅡㄴ</w>": 2279,
      "ㅊㅘㄹ": 2280,
      "ㅁㅣㄹㅐ": 2281,
      "ㅇㅗㄴㄹㅏㅇㅣㄴ</w>": 2282,
      "ㄱㅗㅁㅣㄴ": 2283,
      "ㅈㅏㄷㅡㄹㅇㅣ</w>": 2284,
      "ㄹㅐ</w>": 2285,
      "ㄱㅘㄴㅅㅣㅁ": 2286,
      "ㅁㅏㄹㅆㅡㅁ": 2287,
      "ㅅㅜㅇㅢ</w>": 2288,
      "ㅇㅏㅇㅑ</w>": 2289,
      "ㅇㅣㄹㅇㅡㄴ</w>": 2290,
      "is</w>": 2291,
      "ㅁㅜㄴㅎㅘ</w>": 2292,
      "ㄷㅏㅇㅅㅣ</w>": 2293,
      "ㅅㅡㅇ</w>": 2294,
      "ㅌㅜㅈㅏ": 2295,
      "ㅇㅕㄴㄱㅜ</w>": 2296,
      "ㅇㅓㄹㅕ": 2297,
      "ㅇㅝㄴㅇㅢ</w>": 2298,
      "vi": 2299,
      "ㅇㅗㅎㅜ</w>": 2300,
      "ㅅㅔㄹ": 2301,
      "ㅂㅜㄹㅂㅓㅂ": 2302,
      "ㅈㅜㅁㅜㄴ": 2303,
      "ㅂㅜㄹㅍㅕㄴ": 2304,
      "ㅈㅓㄴㅊㅔ": 2305,
      "ㅈㅓㅇㅂㅗㅇ": 2306,
      "ㄷㅓㄹㅏㄷㅗ</w>": 2307,
      "ㅇㅣㄴㄷㅏ</w>": 2308,
      "ㅊㅚㄱㅗㅇㅢ</w>": 2309,
      "ㅅㅡㅂㄴㅣㄲㅏ</w>": 2310,
      "ㅈㅓㅇㅇㅢ</w>": 2311,
      "ㅎㅡㄴ": 2312,
      "ㄷㅐㅎㅏㄱ</w>": 2313,
      "ㄷㅗㄴㅡㄴ</w>": 2314,
      "ㅇㅣㅆㅈㅣ</w>": 2315,
      "Por": 2316,
      "ㅎㅐㅆㅈㅣㅁㅏㄴ</w>": 2317,
      "ㅍㅡㄹㅏㅇ": 2318,
      "ㅅㅏㅇㅇㅢ</w>": 2319,
      "ㄷㅡㅇㅇㅔ</w>": 2320,
      "ㅇㅟㄴ": 2321,
      "ㅈㅏㅇㅇㅔㅅㅓ</w>": 2322,
      "ㅏㄹ</w>": 2323,
      "ㅅㅡㅌㅗ": 2324,
      "ㅁㅏㄴㄷㅡㄹㅇㅓ</w>": 2325,
      "ㅅㅏㅇㄷㅏㅇ": 2326,
      "ㅇㅏㅁㅜㄹ": 2327,
      "ㅊㅐㄱㅇㅡㄹ</w>": 2328,
      "ㄱㅏㅄ": 2329,
      "ㅂㅣㅁㅣㄹ": 2330,
      "ㅈㅏㅇㅘ</w>": 2331,
      "ㅈㅗㅈㅣㄱ": 2332,
      "ㄴㅔㅌㅡㅇㅝ": 2333,
      "ㅡㅁㅇㅡㄹ</w>": 2334,
      "ㅇㅚㄱㅜㄱ": 2335,
      "ㅁㅏㄴㅎㅏㄴ</w>": 2336,
      "ㄱㅡㄹㅜㅂ</w>": 2337,
      "ㄴㅜㄱㅜㄴ": 2338,
      "ㅅㅏㅇㅍㅜㅁㅁㅕㅇ</w>": 2339,
      "ㅁㅕㅇㅇㅖ": 2340,
      "ㅁㅓㅅ": 2341,
      "ㄷㅡㄹㅣㄱㅔㅆㅅㅡㅂㄴㅣㄷㅏ</w>": 2342,
      "ㅈㅔㄹㅡㄹ</w>": 2343,
      "ㅎㅜㅇㅔ</w>": 2344,
      "60": 2345,
      "ut": 2346,
      "ㅂㅗㄷㅏㄴㅡㄴ</w>": 2347,
      "ㅅㅏㅇㅛㅇㅎㅏㄴㅡㄴ</w>": 2348,
      "ㅇㅏㄴㅐ": 2349,
      "ㄹㅣㅇㅏ</w>": 2350,
      "ㅇㅝㄴㅎㅏㄴㅡㄴ</w>": 2351,
      "ㅅㅣㅈㅡㄴ</w>": 2352,
      "ㅅㅓㄴㅇㅡㄹ</w>": 2353,
      "ㅇㅣㅇㅑㄱㅣ": 2354,
      "ㅋㅡㄹㅗ": 2355,
      "ㅇㅣㅈㅔ": 2356,
      "ㄹㅗㄹ": 2357,
      "ㅅㅡㅋㅣ": 2358,
      "80": 2359,
      "ㅇㅏㅍㅇㅡㄹㅗ</w>": 2360,
      "ㄱㅗㅇㅛ</w>": 2361,
      "ㅅㅏㅁㅅㅓㅇ": 2362,
      "ㅇㅏㄶㅇㅏㅆㄷㅏ</w>": 2363,
      "ㄱㅕㅇㅇㅜㅇㅔㄴㅡㄴ</w>": 2364,
      "com": 2365,
      "ㅎㅏㄷㅗㄹㅗㄱ</w>": 2366,
      "ㅂㅗㅇㅏ": 2367,
      "ㅈㅏㅅㅔㅎㅏㄴ</w>": 2368,
      "ㅇㅣㅈㅣㅁㅏㄴ</w>": 2369,
      "ㄴㅓㄹ</w>": 2370,
      "htt": 2371,
      "ㄱㅣㄴ": 2372,
      "ㅅㅏㅎㅏㅇ</w>": 2373,
      "ㅂㅐㄱ</w>": 2374,
      "ㅋㅓㄹ": 2375,
      "ㅈㅔㅈㅏㄱ": 2376,
      "ㅇㅣㄱㅣ</w>": 2377,
      "ㅈㅓㄴㅈㅏ": 2378,
      "ㄱㅕㅇㅈㅔ</w>": 2379,
      "se": 2380,
      "ㄲㅔㅅㅓ</w>": 2381,
      "ㄷㅟ</w>": 2382,
      "ㅇㅏㅇㅣㄷㅣ": 2383,
      "ㄷㅣㅇㅗ</w>": 2384,
      "ㅂㅡㄹㄹㅗㄱㅡ</w>": 2385,
      "ㅍㅏㅇㅣㄹ</w>": 2386,
      "ㄱㅏㄴㅇㅢ</w>": 2387,
      "ㅎㅕㄴㅅㅣㄹ": 2388,
      "ㅕㄱ</w>": 2389,
      "ㅎㅓㅁㅇㅡㄹ</w>": 2390,
      "ㅈㅣㅅㅗㄱ": 2391,
      "ㅈㅜㅇㅇㅏㅇ": 2392,
      "ㅁㅔㄴ": 2393,
      "ㅊㅓㄹ</w>": 2394,
      "ㅈㅣㄴㄷㅏ</w>": 2395,
      "ㅅㅏㅈㅓㄴ</w>": 2396,
      "ㄷㅚㅇㅓ": 2397,
      "ㅁㅏㄴㄷㅡㄴ</w>": 2398,
      "ㄷㅙ</w>": 2399,
      "ㅂㅔㄴ": 2400,
      "ㅍㅡㄹㄹㅓ": 2401,
      "ㅂㅏㄺㅎㅕㅆㄷㅏ</w>": 2402,
      "ㄱㅏㄲㅏㅇ": 2403,
      "ㅌㅏㅁ": 2404,
      "ㅅㅡㅍㅗㅊㅡ</w>": 2405,
      "ㅈㅓㅇㅇㅣ</w>": 2406,
      "ㄱㅖㅎㅚ": 2407,
      "ㄱㅜㄱㄴㅐ": 2408,
      "ㅇㅖㅇㅑㄱ": 2409,
      "ㅁㅓㄴㅣ": 2410,
      "ㄱㅏㅁㅇㅡㄹ</w>": 2411,
      "ㄹㅣㄱ": 2412,
      "ㅎㅗㅁㅍㅔㅇㅣㅈㅣ</w>": 2413,
      "ㄼㅇㅡㄴ</w>": 2414,
      "ㄹㅗㄴㅡㄴ</w>": 2415,
      "ㅇㅗㄹ</w>": 2416,
      "ㅇㅏㄹㅐ</w>": 2417,
      "ㅇㅣㄴㅌㅓㄴㅔㅅ": 2418,
      "ㄴㅐㅇㅛㅇㅇㅡㄴ</w>": 2419,
      "ㅅㅓㄹㅡㄹ</w>": 2420,
      "ㅇㅣㄴㅇㅡㄴ</w>": 2421,
      "ㄱㅗㅇㄷㅗㅇ": 2422,
      "ㄷㅚㅁㅕ</w>": 2423,
      "ㅏㄱㅗ</w>": 2424,
      "ㅎㅏㄱㅔㅆㅅㅡㅂㄴㅣㄷㅏ</w>": 2425,
      "ㅅㅣㄱㅣ</w>": 2426,
      "ㄴㅓㄹ": 2427,
      "ㅅㅓㄴㅅㅜ": 2428,
      "ㅉㅓ": 2429,
      "ㄱㅔㅆㄷㅏ</w>": 2430,
      "ㅍㅣㄱ": 2431,
      "ㅊㅡㅇ": 2432,
      "ㅈㅓㄻ": 2433,
      "ㄴㅕㄴㅇㅔ</w>": 2434,
      "ㄱㅓㅂㄴㅣㄷㅏ</w>": 2435,
      "20</w>": 2436,
      "ㄸㅡㅅ": 2437,
      "ㄱㅐㄹㄹㅓ": 2438,
      "ㅃㅜㄴㅁㅏㄴ</w>": 2439,
      "ㅇㅕㅇㅅㅏㅇ": 2440,
      "ㅈㅝ": 2441,
      "ㅂㅏㄷㅇㅏ": 2442,
      "://</w>": 2443,
      "ㅇㅐ</w>": 2444,
      "ㅁㅗㅅㅡㅂㅇㅡㄹ</w>": 2445,
      "en</w>": 2446,
      "ㅍㅕㅇㄱㅏ": 2447,
      "ㄱㅣㄴㅡㅇ</w>": 2448,
      "ㅁㅏㅋㅔㅌㅣㅇ</w>": 2449,
      "ㄱㅏㅇㅜㄴㄷㅔ</w>": 2450,
      "ㅇㅣㅆㅇㅓㅇㅛ</w>": 2451,
      "ㄷㅣㅈㅏㅇㅣㄴ</w>": 2452,
      "ㄹㅣㅇㅢ</w>": 2453,
      "ㅇㅣㄴㅈㅓㅇ": 2454,
      "ㄱㅏㅁㄷㅗㄱ": 2455,
      "ㄹㅣㄹ</w>": 2456,
      "ㅂㅣㅅㅡ": 2457,
      "ㄱㅐㅇㅣㄴ</w>": 2458,
      "ster</w>": 2459,
      "at</w>": 2460,
      "Ch": 2461,
      "ㅇㅏㄴㅣㄴ": 2462,
      "ㅇㅏㅇㅜ": 2463,
      "ㅇㅓㅇㄷㅓ": 2464,
      "ㅅㅐㅇㄱㅏㄱㅇㅣ</w>": 2465,
      "ㅎㅏㄹㅜ</w>": 2466,
      "ㅅㅔㄴㅌㅓ": 2467,
      "ㅅㅜㅈㅓㅇ</w>": 2468,
      "ㄷㅗㅇㅇㅕㅇㅅㅏㅇ</w>": 2469,
      "ㅅㅓㅇㅈㅏㅇ": 2470,
      "ㄱㅏㄴㄷㅏㄴ": 2471,
      "ㅅㅓㄴㅅㅐㅇ": 2472,
      "ㅎㅚㅇㅢ": 2473,
      "ㅇㅣㄴㅐ": 2474,
      "ㅂㅡ": 2475,
      "ㅅㅏㄱㅓㄴ": 2476,
      "ㄱㅡㄹㄹㅗ": 2477,
      "ㄱㅏㅅㅓ</w>": 2478,
      "ㄱㅡㄹㅐㄷㅗ</w>": 2479,
      "ㅅㅓㅇㅢ</w>": 2480,
      "ㅁㅗㄹ</w>": 2481,
      "ㄴㅏㅇㅣ": 2482,
      "ㅈㅓㄴㅇㅡㄹ</w>": 2483,
      "ㄷㅚㄹ": 2484,
      "ㄷㅗㅇㅇㅣㄹ": 2485,
      "ㅊㅏㅈㅇㅏ": 2486,
      "ㅌㅓㄹ": 2487,
      "4ㄴㅕㄴ</w>": 2488,
      "ㄱㅜㄹㅡㄹ</w>": 2489,
      "ㅂㅜㄴㅈㅐㅇ": 2490,
      "ㅍㅡㄹㄹㅔ": 2491,
      "ㄱㅘㅇ</w>": 2492,
      "ㅊㅏㄶ": 2493,
      "ㅇㅣㅆㄷㅏㅁㅕㄴ</w>": 2494,
      "ul": 2495,
      "ㅂㅗㅇㅣㄴㅡㄴ</w>": 2496,
      "ㅎㅏㄴㄷㅏㅁㅕㄴ</w>": 2497,
      "ㅈㅓㅇㅊㅐㄱ</w>": 2498,
      "ㅇㅔㄴㅓ": 2499,
      "ㄷㅣㅈㅣ": 2500,
      "ㅎㅘㄹ</w>": 2501,
      "ㅇㅓㅂㅊㅔ": 2502,
      "ㄱㅏㄱㅕㄱ</w>": 2503,
      "ㄱㅣㄴㅡㅇㅇㅡㄹ</w>": 2504,
      "ㅝㄹ": 2505,
      "ㅈㅣㅅ": 2506,
      "ㅈㅓㄷㅗ</w>": 2507,
      "18</w>": 2508,
      "ㅁㅏㄴㄷㅡㄴㅡㄴ</w>": 2509,
      "ㅂㅕㄹㄹㅗ</w>": 2510,
      "ㅇㅣㅂㄹㅕㄱ": 2511,
      "ay</w>": 2512,
      "ㅈㅓㅁㅇㅡㄴ</w>": 2513,
      "ㄱㅜㄱㅇㅢ</w>": 2514,
      "ㅌㅗㅌㅗ": 2515,
      "ㅎㅡㄱ": 2516,
      "ㅋㅏㅁㅔ": 2517,
      "ㅎㅐㅇㅛ</w>": 2518,
      "23": 2519,
      "ㅁㅗㅁ": 2520,
      "ㅂㅏㄴㄷㅡ": 2521,
      "ㅇㅣㄴㅎㅐ</w>": 2522,
      "ㅈㅜㅇㅛ</w>": 2523,
      "ㄷㅠ": 2524,
      "ㄷㅡㄹㅓ": 2525,
      "os": 2526,
      "::</w>": 2527,
      "ㅅㅡㄹㅓㅂ": 2528,
      "ㅆㄷㅏㄴㅡㄴ</w>": 2529,
      "ㄱㅏㅂㄴㅣㄷㅏ</w>": 2530,
      "ㅈㅐㄱㅏ</w>": 2531,
      "TA": 2532,
      "ㅃㅐ": 2533,
      "ㅇㅣㅅㅏㅇㅇㅢ</w>": 2534,
      "ㄹㅏㄱ</w>": 2535,
      "ㅁㅏㅈㅣㅁㅏㄱ</w>": 2536,
      "ㅋㅡㄹㄹㅓ": 2537,
      "ㄷㅡㅇㅢ</w>": 2538,
      "ㅈㅓㄴㅎㅘ": 2539,
      "ㄱㅣㅂㅗㄴ</w>": 2540,
      "28": 2541,
      "ㅎㅐㅇㅈㅓㅇ": 2542,
      "ㅇㅣㅆㅇㅡㄹ": 2543,
      "ㅅㅗㄱㅇㅔ</w>": 2544,
      "ㅂㅜㅈㅗㄱ": 2545,
      "Re": 2546,
      "An": 2547,
      "ㄱㅜㅈㅗ": 2548,
      "ㅎㅏㅇㅣ": 2549,
      "ㅇㅖ</w>": 2550,
      "ㄱㅗㄹㅕ": 2551,
      "ㅁㅜㄹㅇㅣ</w>": 2552,
      "ㅇㅡㄹㅗㅆㅓ</w>": 2553,
      "27": 2554,
      "ㄱㅡㅁㅇㅠㅇ": 2555,
      "ㅌㅡㄴ": 2556,
      "ㅇㅈㅏㅇ": 2557,
      "ㅅㅣㄹㅈㅔ</w>": 2558,
      "15</w>": 2559,
      "ㅈㅓㅇㄷㅗㄹㅗ</w>": 2560,
      "ㅍㅣㄱ</w>": 2561,
      "ㄱㅕㅇㅊㅏㄹ": 2562,
      "ㅎㅏㅅㅣㄴㅡㄴ</w>": 2563,
      "ㅁㅗㄱㅍㅛ": 2564,
      "ㅈㅏㄷㅗㅇㅊㅏ</w>": 2565,
      "ㅔㅇㅣㄹ</w>": 2566,
      "ㅈㅏㅅㅣㄴㅇㅣ</w>": 2567,
      "2018ㄴㅕㄴ</w>": 2568,
      "00</w>": 2569,
      "ㄱㅡㄷㅐㄹㅗ</w>": 2570,
      "ㄷㅣㅈㅏㅇㅣㄴ": 2571,
      "ㄹㅑㅇ</w>": 2572,
      "ㅍㅣㅎㅐ": 2573,
      "ㅅㅣㅇㅔㄴㅡㄴ</w>": 2574,
      "ㅇㅡㄹㅗㄷㅗ</w>": 2575,
      "ww": 2576,
      "ㅁㅗㅅㅎㅏㄴ</w>": 2577,
      "ㅅㅜㅎㅐㅇ": 2578,
      "ㅂㅏㄴㄷㅡㅅㅣ</w>": 2579,
      "ㅗㄴㅡㄴ</w>": 2580,
      "ㅂㅜㅌㅓ": 2581,
      "ㅇㅏㄹㅡㅁㄷㅏㅇㅜㄴ</w>": 2582,
      "ㅇㅓㄹㄱㅜㄹ": 2583,
      "ㅇㅓㅆㄷㅓㄴ</w>": 2584,
      "ㅋㅓ</w>": 2585,
      "ㄹㅕㅆㄷㅏ</w>": 2586,
      "ㅆㅡㄱㅣ</w>": 2587,
      "26": 2588,
      "ㅇㅛㅊㅓㅇ": 2589,
      "ㅁㅗㄱㅈㅓㄱ": 2590,
      "ㄴㅕㅇ": 2591,
      "ㅁㅣㄹㄹㅣ": 2592,
      "ㄱㅓㄹㅣ</w>": 2593,
      "ㅅㅜㅁ": 2594,
      "ㅅㅣㄹㅈㅔㄹㅗ</w>": 2595,
      "ㄴㅣㅇ</w>": 2596,
      "ㅈㅏㅇㅇㅢ</w>": 2597,
      "ㅇㅡㅁㅇㅏㄱ": 2598,
      "ㅌㅡㄱㅈㅓㅇ</w>": 2599,
      "ㅊㅐ</w>": 2600,
      "ㄴㅏㄹㅡㄹ</w>": 2601,
      "ㅅㅡㅍㅣ": 2602,
      "ㅁㅏㄴㅇㅢ</w>": 2603,
      "ㅈㅣㄱㅇㅝㄴ": 2604,
      "ㅂㅣㅇㅛㅇ": 2605,
      "ㅇㅣㅇㅑㄱㅣㄹㅡㄹ</w>": 2606,
      "ㄱㅘㅈㅓㅇ</w>": 2607,
      "ㅌㅡㄴ</w>": 2608,
      "ter": 2609,
      "ㅅㅜㅅㅜㄹ": 2610,
      "ㅅㅡㅍㅔ": 2611,
      "ㅌㅡㄱㅏ</w>": 2612,
      "ㄷㅡㄹㅏ": 2613,
      "ㅇㅛㅅㅗ</w>": 2614,
      "ㄷㅐㅎㅐㅅㅓ</w>": 2615,
      "ㄲㅕ": 2616,
      "ㄱㅖㅇㅑㄱ": 2617,
      "ㅈㅏㄹㅗ</w>": 2618,
      "ㄷㅡㄹㅇㅔ</w>": 2619,
      "ㅁㅗㄷㅔㄹ</w>": 2620,
      "ㅇㅖㅇㅑㄱ</w>": 2621,
      "ㅇㅣㄹㅜㅇㅓ": 2622,
      "ㄱㅗㅅㅇㅔ</w>": 2623,
      "ㅊㅜㅇㅓ</w>": 2624,
      "ㄱㅘㅇㄱㅗ": 2625,
      "ㄹㅣㅁ</w>": 2626,
      "ㅈㅓㄴㅎㅕ</w>": 2627,
      "ㅇㅟㅊㅣㅎㅏㄴ</w>": 2628,
      "ㅈㅓㅈㅏㅇ": 2629,
      "ㅇㅞㅂ</w>": 2630,
      "ㄹㅣㅇ</w>": 2631,
      "ㄱㅗㅇㅂㅜ": 2632,
      "ㅡㄴㅗ</w>": 2633,
      "ㅇㅗㄹㅎㅐ</w>": 2634,
      "ㄷㅐㅂㅜㅂㅜㄴ": 2635,
      "ㅇㅣㄹㅂㅏㄴ</w>": 2636,
      "ㅈㅏㄱㅍㅜㅁ": 2637,
      "ㅅㅓㅇㄱㅘ</w>": 2638,
      "ㄷㅣㅅㅡ": 2639,
      "ㅎㅕㄴㅈㅐ": 2640,
      "The</w>": 2641,
      "ㅇㅕㄴㄹㅏㄱ": 2642,
      "ㅍㅏㄴㄷㅏㄴ": 2643,
      "ㅇㅣㄴㅌㅓㅂ": 2644,
      "ve</w>": 2645,
      "ㅇㅕㅇㅎㅑㅇㅇㅡㄹ</w>": 2646,
      "ㅐㄱ</w>": 2647,
      "ㄷㅡㄹㅗ</w>": 2648,
      "13</w>": 2649,
      "ㅊㅣㄱㅗ</w>": 2650,
      "ㅎㅐㅆㄷㅏㄱㅗ</w>": 2651,
      "ㅅㅛㅍㅣㅇ": 2652,
      "ㅁㅏㅌ": 2653,
      "ㄱㅓㅅㅇㅔ</w>": 2654,
      "ㅇㅣㄹㅡㅁ</w>": 2655,
      "ㅎㅏㄱㅅㅡㅂ": 2656,
      "ㅅㅗㅅㅕㄹㄱㅡㄹㅐㅍㅡ": 2657,
      "PC": 2658,
      "ㅌㅗㅌㅗ</w>": 2659,
      "ㄷㅏㄴㄱㅖ": 2660,
      "ㄱㅙㄴ": 2661,
      "ㅂㅣㅈㅡ": 2662,
      "ㅎㅘㅈㅏㅇ": 2663,
      "ㅂㅜㄴㅇㅟ": 2664,
      "ㅃㅡㄴ</w>": 2665,
      "ㅇㅕㅇㅇㅓ</w>": 2666,
      "um": 2667,
      "ㄷㅐㅍㅛ</w>": 2668,
      "ㅁㅐㅇㅣㄹ</w>": 2669,
      "ㅇㅣㄹㅇㅢ</w>": 2670,
      "ㅈㅣㄹㅁㅜㄴ": 2671,
      "ㅂㅡㄹㄹ": 2672,
      ".(</w>": 2673,
      "ㄴㅡㅈ": 2674,
      "ㅇㅓㅄㄱㅗ</w>": 2675,
      "ㅇㅖㅅㅜㄹ": 2676,
      "ㄱㅓㄱ": 2677,
      "ㅅㅏㄹㅏㅁㄷㅡㄹㅇㅡㄴ</w>": 2678,
      "ㅁㅔㅅㅣ": 2679,
      "ㄱㅣㄹㅇㅡㄹ</w>": 2680,
      "ㅊㅣㄹ": 2681,
      "ㅈㅓㅇㅊㅣ</w>": 2682,
      "ㅇㅏㄴㅡㄴ</w>": 2683,
      "ㅌㅠ": 2684,
      "www</w>": 2685,
      "ㅅㅡㅇㅟ": 2686,
      "ㅂㅏㅇㅎㅑㅇ": 2687,
      "ㄱㅏㅊㅣ": 2688,
      "ㅇㅣㄹㄷㅏㄴ</w>": 2689,
      "ㅂㅗㅇㅣㄴㄷㅏ</w>": 2690,
      "ㅇㅑㄱㅇㅡㄹ</w>": 2691,
      "ㄱㅏㄱㅈㅗㅇ</w>": 2692,
      "ㅅㅡㅌㅓ</w>": 2693,
      "ㄱㅡㄱㅓㅅㅇㅡㄴ</w>": 2694,
      "ㄱㅕㄱㅇㅡㄹ</w>": 2695,
      "ㅇㅢㄱㅕㄴ": 2696,
      "ㅅㅐㅇㄱㅏㄱㅇㅡㄹ</w>": 2697,
      "14</w>": 2698,
      "por": 2699,
      "ㄱㅘㄴㅇㅡㄹ</w>": 2700,
      "ㅈㅔㅎㅏㄴ": 2701,
      "ㅁㅏㄴㅈㅗㄱ": 2702,
      "ㄹㅣㄱㅡ</w>": 2703,
      "ㄱㅘㄴㄹㅕㄴㄷㅚㄴ</w>": 2704,
      "ㅍㅗㄹㅡㄴㅗ</w>": 2705,
      "ㄱㅐㅇㅣㄴㅈㅓㅇㅂㅗ</w>": 2706,
      "ㅎㅘㄱㅅㅣㄹ": 2707,
      "ㅂㅓㅅ": 2708,
      "ㅊㅏㄹㅡㄹ</w>": 2709,
      "ㄱㅡㄹㅓㅁ": 2710,
      "ㅊㅣㄱ": 2711,
      "ㄱㅏㅌㅇㅏㅇㅛ</w>": 2712,
      "ㅅㅏㅇㅘ</w>": 2713,
      "ㅇㅕㄹㅓㅂㅜㄴ": 2714,
      "ㅅㅓㄴㅌㅐㄱ</w>": 2715,
      "ㅊㅜㄱ</w>": 2716,
      "ㅁㅏㅇㅡㅁㅇㅡㄹ</w>": 2717,
      "ㄱㅏㅈㅗㄱ</w>": 2718,
      "ㄴㅏㅂ": 2719,
      "ㅂㅗㅎㅓㅁ</w>": 2720,
      "ㄱㅏㅈㄱㅗ</w>": 2721,
      "ㅇㅏㅁㅜ": 2722,
      "ㅈㅓㄴㅈㅏ</w>": 2723,
      "ㅇㅢㅎㅐㅅㅓ</w>": 2724,
      "ㄷㅗㅇㅅㅣㅇㅔ</w>": 2725,
      "ㄴㅔㅅ": 2726,
      "ㅅㅡㅋㅡㄹㅣ": 2727,
      "ㅂㅜㅁㅗ": 2728,
      "ㄷㅡㄹㅗ": 2729,
      "ㅈㅏㅇㅇㅔ</w>": 2730,
      "ㅇㅕㅈㅏ": 2731,
      "ㅎㅚㅇㅢ</w>": 2732,
      "ㅎㅏㄱㅅㅐㅇ</w>": 2733,
      "ㅂㅗㅅㅔㅇㅛ</w>": 2734,
      "ㅇㅕㄹ</w>": 2735,
      "ㄹㅣㅂ</w>": 2736,
      "ㄲㅏㄹ": 2737,
      "ㅎㅐㅈㅣㄹ</w>": 2738,
      "ㅈㅜㅁㅣㄴ": 2739,
      "ㅁㄱㅘ</w>": 2740,
      "ㅇㅣㅁㅔㅇㅣㄹ</w>": 2741,
      "el</w>": 2742,
      "im": 2743,
      "ㅈㅜㄹㅗ</w>": 2744,
      "ㄷㅏㄴㅊㅔ": 2745,
      "ㅈㅏㅈㅜ</w>": 2746,
      "ㅌㅓㄹ</w>": 2747,
      "ㅂㅕㅇ</w>": 2748,
      "ㅁㅜㄴㅈㅔㄹㅡㄹ</w>": 2749,
      "ㄱㅕㄹㅎㅗㄴ": 2750,
      "12ㅇㅝㄹ</w>": 2751,
      "ㄷㅐㄹㅡㄹ</w>": 2752,
      "ㄱㅏㄱㅣ</w>": 2753,
      "ㄷㅐㅎㅏㄴㅁㅣㄴㄱㅜㄱ</w>": 2754,
      "ㅆㅇㅓㅇㅛ</w>": 2755,
      "ㅎㅡㅂ": 2756,
      "ㄷㅡㄹㅇㅣㅂㄴㅣㄷㅏ</w>": 2757,
      "ㄱㅣㅈㅜㄴ</w>": 2758,
      "ㅌㅔㄱ": 2759,
      "ㅂㅏㅇㅅㅗㅇ</w>": 2760,
      "ㅎㅘㅁㅕㄴ": 2761,
      "ay": 2762,
      "ㅇㅣㅆㅇㅓㅆㅅㅡㅂㄴㅣㄷㅏ</w>": 2763,
      "ㄹㅓㄴ</w>": 2764,
      "ㅇㅡㄴㄷㅔ</w>": 2765,
      "ㄱㅘㅇㄱㅗ</w>": 2766,
      "21": 2767,
      "ㅈㅣㄴㅉㅏ</w>": 2768,
      "ㅋㅓㅁㅍㅠㅌㅓ</w>": 2769,
      "ㅁㅗㄴ": 2770,
      "ㅇㅣㄷㅡ</w>": 2771,
      "ㅈㅓㅇㅂㅗㄱㅏ</w>": 2772,
      "ㅈㅗㄱㅡㅁ": 2773,
      "ㅇㅐㄴ": 2774,
      "co</w>": 2775,
      "ㅇㅏㄴㄴㅕㅇ": 2776,
      "LE": 2777,
      "ㄷㅐㅎㅚ</w>": 2778,
      "ㅅㅜㄹㅗㄱ</w>": 2779,
      "ㅈㅔㅈㅜ": 2780,
      "ㄱㅡㅁㅇㅡㄹ</w>": 2781,
      "ex": 2782,
      "ㅊㅣㅁㅎㅐ</w>": 2783,
      "ㅁㅓㄴㅣ</w>": 2784,
      "ㄹㅚ": 2785,
      "ㅇㅡㅁㅇㅏ": 2786,
      "ㄱㅗㄴ": 2787,
      "ㅏㅇ</w>": 2788,
      "ㅇㅏㅇㅢ</w>": 2789,
      "ㄱㅛㅂㅗ": 2790,
      "ㅂㅗㅇㅠ": 2791,
      "ㅃㅜㄴ</w>": 2792,
      "ㅈㅓㅇㅂㅜ</w>": 2793,
      "ㅎㅘㄴㄱㅕㅇ</w>": 2794,
      "ㅎㅐㅆㅇㅡㄹ</w>": 2795,
      "ㄱㅣㅁ</w>": 2796,
      "ㅅㅕㄴㅇㅡㄹ</w>": 2797,
      "ㅂㅐㅅㅗㅇ": 2798,
      "ㅇㅣㄹㅂㅜㅌㅓ</w>": 2799,
      "ㅇㅖㅅㅏㅇ": 2800,
      "ㄹㅏㅇㅣㅂ": 2801,
      "ㅂㅗㅈㅡㅇ": 2802,
      "ㅇㅏㅅㅣㅇㅏ</w>": 2803,
      "ㅅㅣㄴㅇㅛㅇ": 2804,
      "ㅂㅜㅌㅏㄱ": 2805,
      "ㅇㅜㅁㅈㅣㄱ": 2806,
      "ㄱㅐㄴㅕ": 2807,
      "ㅎㅏㅅㅣㅁㅕㄴ</w>": 2808,
      "ㅌㅡㄴㅡㄴ</w>": 2809,
      "ㄷㅏㅇㅜㄴㄹㅗㄷㅡ</w>": 2810,
      "ㅇㅓㅄㅇㅓㅆㄷㅏ</w>": 2811,
      "ㅋㅓㅁㅍㅠㅌㅓ": 2812,
      "ㄷㅏㄴㅈㅣ</w>": 2813,
      "ㅈㅓㄴㅁㅜㄴ</w>": 2814,
      "29": 2815,
      "ㅇㅔㅇㅛ</w>": 2816,
      "ㅇㅟㅎㅐㅅㅓ</w>": 2817,
      "ma": 2818,
      "ㅅㅓㄹㅊㅣ</w>": 2819,
      "ㅂㅏㄷㅏ": 2820,
      "ㅅㅣㅇㅏ</w>": 2821,
      "ㅊㅣㄴㄱㅜ</w>": 2822,
      "ㅅㅏㄹㅍㅕ": 2823,
      "ㅁㅕㅇㅎㅏㄴ</w>": 2824,
      "ㅡㄱㅗ</w>": 2825,
      ".[</w>": 2826,
      "ㄱㅕㅇㅇㅜㄱㅏ</w>": 2827,
      "ㄱㅛㅎㅚ</w>": 2828,
      "ㅈㅔㅇㅚ": 2829,
      "ㄴㅏㅁㅈㅏ</w>": 2830,
      "ㅁㅇㅡㄹㅗ</w>": 2831,
      "ㅂㅏㅇㅂㅓㅂㅇㅡㄹ</w>": 2832,
      "ㅂㅜㅅㅏㄴ": 2833,
      "ㅍㅣㄹㅇㅛㄱㅏ</w>": 2834,
      "ㄷㅐㅇㅢ</w>": 2835,
      "ㅎㅏㄷㅏㄱㅗ</w>": 2836,
      "ㅇㅝㄴㅇㅡㄴ</w>": 2837,
      "ㅍㅔㅇㅣㅈㅣ": 2838,
      "ㅅㅣㄹㅎㅐㅇ": 2839,
      "ㅍㅓ</w>": 2840,
      "ㅁㅓㄹㅣ</w>": 2841,
      "ㅇㅛㅈㅡㅁ</w>": 2842,
      "ㄴㅡㄲㅕ": 2843,
      "ㅡㄹㅡㄹ</w>": 2844,
      "ㅇㅣㅇㅠㄴㅡㄴ</w>": 2845,
      "ㄱㅐㄱㅅㅣㄹ</w>": 2846,
      "ㅁㅜㅅㅡㄴ</w>": 2847,
      "ㅎㅜㄱㅣ</w>": 2848,
      "http</w>": 2849,
      "ing": 2850,
      "ㅎㅏㄷㅓㄴ</w>": 2851,
      "ㅇㅓㅇㄷㅓㅇㅇㅣ</w>": 2852,
      "ㄴㅏㄱ": 2853,
      "4ㅇㅝㄹ</w>": 2854,
      "ㄴㅣㅁㅇㅣ</w>": 2855,
      "ㄱㅗㅇㅑㅇ": 2856,
      "ㅇㅏㄵ": 2857,
      "ㅇㅗㅈㅓㄴ</w>": 2858,
      "ㅇㅓㄹㅕㅂ": 2859,
      "ㄷㅡㄱ</w>": 2860,
      "ㅎㅏㄱㅣㄷㅗ</w>": 2861,
      "ㅎㅘㄹㄷㅗㅇ</w>": 2862,
      "ㅁㅝㄴ": 2863,
      "ㅇㅗㄹㄹㅣㅁ": 2864,
      "ㅁㅓㄱㅇㅡㄹ</w>": 2865,
      "ㅃㅗ": 2866,
      "ㄱㅜㅇㅣㅂ": 2867,
      "ㅅㅏㄹㅇㅏ": 2868,
      "ㅍㅕㄴㅈㅣㅂ</w>": 2869,
      "pl": 2870,
      "ㅇㅓㄴㅏㄴ</w>": 2871,
      "ㅇㅣㅇㅠ</w>": 2872,
      "16</w>": 2873,
      "ㅎㅐㅈㅜㅅㅣㅁㅕㄴ</w>": 2874,
      "ㅊㅣㅇ": 2875,
      "ㅈㅓㅁㅇㅔㅅㅓ</w>": 2876,
      "US": 2877,
      "ㅂㅕㄴㄱㅕㅇ</w>": 2878,
      "ㅇㅔㅇㅣㅈㅓㄴ": 2879,
      "ㄱㅏㅇㅢ</w>": 2880,
      "ㅈㅓㅇㅇㅢ": 2881,
      "ㅁㅏㄴㄷㅡㄹㄱㅣ</w>": 2882,
      "ind": 2883,
      "ㅇㅏㅊㅣㅁ</w>": 2884,
      "ㅌㅡㄱㅂㅕㄹㅎㅏㄴ</w>": 2885,
      "ㄷㅏㄴㅅㅜㄴ": 2886,
      "ㅈㅣㅂㅈㅜㅇ": 2887,
      "ㄱㅜㅁㅐㅎㅏㄴ</w>": 2888,
      "ㅇㅣㅁㅕㄴ</w>": 2889,
      "de</w>": 2890,
      "ㅅㅓㅂ": 2891,
      "ㄹㅗㅂㄱㅔ</w>": 2892,
      "25</w>": 2893,
      "ㅅㅗㄱㅇㅔㅅㅓ</w>": 2894,
      "ㅎㅐㄴ": 2895,
      "1ㅇㅝㄹ</w>": 2896,
      "ㅅㅐㅇㅎㅘㄹ</w>": 2897,
      "ㅍㅗㅎㅏㅁ</w>": 2898,
      "ㅅㅏㅇㅇㅣ</w>": 2899,
      "ㅇㅣㄹㅏㅁㅕㄴ</w>": 2900,
      "ㅋㅠ": 2901,
      "ㅈㅐㅇ</w>": 2902,
      "ㅁㅏㄴㅇㅣ</w>": 2903,
      "ㄱㅓㄹㄹㅣ": 2904,
      "ㅎㅏㄴㅏㅇㅢ</w>": 2905,
      "ㅍㅡㄹㄹㅣ": 2906,
      "ㄸㅏㄹㅡㅁㅕㄴ</w>": 2907,
      "ㅇㅕㅇㅑ</w>": 2908,
      "res": 2909,
      "ㅎㅏㅁㅇㅡㄹ</w>": 2910,
      "ㄹㅔㅅㅡㅌㅗㄹ": 2911,
      "ㅊㅜㄴ": 2912,
      "ㅅㅗㄱㅐ</w>": 2913,
      "ㅎㅠㄷㅐ": 2914,
      "ㅇㅏㄷㅗㅇ": 2915,
      "ㄱㅠㄴ": 2916,
      "ㅈㅏㅇㅔ</w>": 2917,
      "ㅈㅏㅇㅝㄴ": 2918,
      "ㅂㅐㅇㅜ</w>": 2919,
      "ㅇㅣㅆㄷㅓㄴ</w>": 2920,
      "ㅇㅣㅈㅣ</w>": 2921,
      "ㄹㄹㅔ": 2922,
      "ㄷㅏㅂㅂㅕㄴ": 2923,
      "ㅊㅏㄹ</w>": 2924,
      "ㄷㅓㄹㅏ": 2925,
      "ㅇㅕㄱㅅㅏ": 2926,
      "ㅌㅗㅇㅎㅏㄴ</w>": 2927,
      "ㄴㅡㄴㄷㅔㅇㅛ</w>": 2928,
      "ㄱㅐㅅㅓㄴ": 2929,
      "',</w>": 2930,
      "ㅇㅏㅈㅣㄱ": 2931,
      "ㅅㅏㄹㅖ": 2932,
      "ㅠㄴㅣ": 2933,
      "ㄷㅏㄹㄹㅏ": 2934,
      "ㄷㅗㄹㅇㅏㅇ": 2935,
      "ㅅㅡㅇㅔ</w>": 2936,
      "ㄹㅕㄱㅗ</w>": 2937,
      "ㅊㅓㅇㅅㅗㄴㅕㄴ": 2938,
      "ㅅㅗㅍㅡㅌㅡㅇㅞ": 2939,
      "ㅁㅏㅈㅊㅜ": 2940,
      "ㅎㅞㅅㅗㄴ</w>": 2941,
      "ㅇㅣㅈㅛ</w>": 2942,
      "05</w>": 2943,
      "ㅎㅘㄱㅇㅣㄴㅎㅏㄹ</w>": 2944,
      "ㄱㅝㄴㅇㅡㄹ</w>": 2945,
      "ㅊㅏㄱ</w>": 2946,
      "amster</w>": 2947,
      "ㅜㄹㅡㄹ</w>": 2948,
      "ㅊㅜㄱㄱㅜ": 2949,
      "ㅋㅗㄷㅡ</w>": 2950,
      "ㅇㅗㅎㅣ": 2951,
      "ㅆㅏㅇ": 2952,
      "ㅅㅓㅁ": 2953,
      "oc": 2954,
      "ㅈㅔㄱㅗㅇㅎㅏㄴㅡㄴ</w>": 2955,
      "ㅍㅕㄹ": 2956,
      "ㅂㅗㅂㄴㅣㄷㅏ</w>": 2957,
      "ㄱㅠ</w>": 2958,
      "ㅅㅣㅁㅎㅣ</w>": 2959,
      "ㅇㅣㅆㅇㅡ": 2960,
      "ㅋㅡㄹㄹㅣㄱ": 2961,
      "ㄷㅡㅇㅇㅡㄴ</w>": 2962,
      "ㅇㅗㅎㅣㄹㅕ</w>": 2963,
      "ㄱㅣㄷㅏㄹㅣ": 2964,
      "ㄹㅗㅂㅜㅌㅓ</w>": 2965,
      "ㅇㅣㄴㅅㅐㅇ": 2966,
      "Sh": 2967,
      "ㅈㅣㄴㅎㅐㅇ</w>": 2968,
      "ㅇㅣㄴㄱㅗㅇ": 2969,
      "ㅗㅇㅢ</w>": 2970,
      "ㅇㅓㄴㅈㅔㄴㅏ</w>": 2971,
      "ㄹㅏㅇㅜㄴ": 2972,
      "ㅅㅣㅈㅏㄱ</w>": 2973,
      "ㅋㅣㅇ": 2974,
      "ㅂㅜㄹ</w>": 2975,
      "ㅈㅣㄴㅣ": 2976,
      "ion": 2977,
      "ㅈㅓㅂㄱㅡㄴ": 2978,
      "TV": 2979,
      "ㅌㅏㄴ</w>": 2980,
      "ㅇㅢㅎㅏㄴ</w>": 2981,
      "ㅂㅜㄷㅗㅇ": 2982,
      "ㅂㅓㅂㅈㅓㄱㅇㅣㄴ</w>": 2983,
      "ㅁㅏㄹㅇㅣ</w>": 2984,
      "ㅇㅣㅈㅓㄴ</w>": 2985,
      "ㅇㅝㄹㄷㅡ": 2986,
      "ㄱㅔㅆㅈㅣㅁㅏㄴ</w>": 2987,
      "ㅂㅓㄴㅎㅗ": 2988,
      "ㅅㅓㅍㅣㅇ": 2989,
      "ㄱㅛㅂㅗㅁㅜㄴ": 2990,
      "ㄱㅙㄴㅊㅏㄶ": 2991,
      "ㄷㅏㅇㅅㅣㄴㅇㅢ</w>": 2992,
      "ㅈㅜㅂㅕㄴ": 2993,
      "ㅋㅓㅁㅠㄴㅣ": 2994,
      "ㅋㅐㄹㅣㄱ": 2995,
      "ㅇㅟㅎㅓㅁ": 2996,
      "ㅎㅏㄱㄱㅘ</w>": 2997,
      "ㄹㅏㅁ": 2998,
      "ㅁㅏㄹㄹㅗ</w>": 2999,
      "ㅈㅗㅇㅎㅏㅂ": 3000,
      "ㅈㅗㅅㅓㄴ": 3001,
      "ㅅㅏㄹㅏㅁㅇㅡㄹ</w>": 3002,
      "ㅌㅏㅂ": 3003,
      "ㅇㅖㅅㅜ": 3004,
      "ㅅㅣㄴㅊㅓㅇ</w>": 3005,
      "ㅎㅏㄴㅍㅕㄴ</w>": 3006,
      "ㅈㅐㄱ": 3007,
      "ㄴㅜㄴㅇㅔ</w>": 3008,
      "ㅇㅓㄴㄹㅗㄴ": 3009,
      "ER": 3010,
      "ㅎㅏㄴㅏㄴㅣㅁㅇㅢ</w>": 3011,
      "ㅇㅣㅆㅇㅡㅁㅕㄴ</w>": 3012,
      "ㅈㅗㅇㄹㅠ": 3013,
      "ㅃㅏㄹㅡㄴ</w>": 3014,
      "ㅈㅏㄹㅁㅗㅅ": 3015,
      "ㅈㅓㅇㅇㅡㄴ</w>": 3016,
      "ㄷㅗㄴㅇㅡㄹ</w>": 3017,
      "ㄱㅐㄱㅅㅣㄹ": 3018,
      "ㄱㅗㅇㅔㅅㅓ</w>": 3019,
      "ㅇㅡㄴㅎㅐㅇ": 3020,
      "ㅈㅓㅇㄹㅣ": 3021,
      "ㅎㅏㅇㅜ": 3022,
      "3ㅇㅝㄹ</w>": 3023,
      "ㅈㅗㅎㅅㅡㅂㄴㅣㄷㅏ</w>": 3024,
      "ㅇㅏㄴㄴㅕㅇㅎㅏㅅㅔㅇㅛ</w>": 3025,
      "ㅈㅗㅅㅏ</w>": 3026,
      "ㄱㅜㅁㅐ</w>": 3027,
      "ㅇㅕㅇㅇㅓ": 3028,
      "ㅎㅘㄹㅅㅓㅇ": 3029,
      "ㄷㅗㅅㅓ": 3030,
      "ㄱㅗㅇㅅㅣㄱ</w>": 3031,
      "][</w>": 3032,
      "ㅈㅜㅈㅏㅇ": 3033,
      "ㅈㅓㅇㅇㅔ</w>": 3034,
      "ㅊㅏㅇ</w>": 3035,
      "ㄴㅜㄱㅜ": 3036,
      "ㅍㅡㄹㅔ": 3037,
      "ㄷㅏㅁㄷㅏㅇ": 3038,
      "ㅁㅠ": 3039,
      "ㅇㅣㅁㅣㅈㅣ</w>": 3040,
      "ㅂㅜㄴㅡㄴ</w>": 3041,
      "ㅅㅜㅈㅣㅂㄷㅚㄴ</w>": 3042,
      "ㅇㅏㄴㅣㅂㄴㅣㄷㅏ</w>": 3043,
      "ㅊㅓㄱ": 3044,
      "ㅊㅏㅁㄱㅏ": 3045,
      "ㅈㅣㄴㅅㅣㄹ": 3046,
      "ㄹㅕㅁ": 3047,
      "ㅋㅏㅌㅔ": 3048,
      "ㄱㅡㄱㅏ</w>": 3049,
      "ㅂㅏㄲㅟ": 3050,
      "ㄷㅡㄹㄱㅗ</w>": 3051,
      "ㅍㅔㄴ": 3052,
      "ㄱㅗㅅㅇㅔㅅㅓ</w>": 3053,
      "ㄱㅏㅈㅊㅜ": 3054,
      "31</w>": 3055,
      "ㅁㅕㅇㅇㅖㅎㅞㅅㅗㄴ</w>": 3056,
      "ㄷㅣㅇ": 3057,
      "ak": 3058,
      "ㅈㅏㄷㅡㄹㅇㅡㄴ</w>": 3059,
      "KB": 3060,
      "?)</w>": 3061,
      "ㄹㅔㄱ": 3062,
      "ㄸㅗㄱ": 3063,
      "ㄷㅐㅂㅜㅂㅜㄴ</w>": 3064,
      "ㅁㅓㄱㄱㅗ</w>": 3065,
      "ㅊㅣㄹ</w>": 3066,
      "ㅇㅟㄹㅗ</w>": 3067,
      "10ㅇㅝㄹ</w>": 3068,
      "ㅇㅝㄴㅇㅔ</w>": 3069,
      "ㅌㅡㅇㅢ</w>": 3070,
      "ㅂㅓㅂㅈㅓㄱ</w>": 3071,
      "ㅇㅟㅇㅢ</w>": 3072,
      "ㅈㅡㅇㄱㅏ": 3073,
      "ㅂㅏㄷㅇㅏ</w>": 3074,
      "ㅍㅗㅌㅡ</w>": 3075,
      "ㄹㅣㅂㅠ</w>": 3076,
      "ㄸㅡㄱㅓ": 3077,
      "ㅇㅣㅀ": 3078,
      "ㅅㅣㅎㅓㅁ": 3079,
      "ㅆㅣㄴ</w>": 3080,
      "ㅇㅣㄴㅏㄹ</w>": 3081,
      "ㅈㅜㄴㄷㅏ</w>": 3082,
      "ㅎㅢㅁㅏㅇ": 3083,
      "ㅇㅛㅇㅣㄹ</w>": 3084,
      "ㅈㅔㄱㅗㅇㅎㅏㅂㄴㅣㄷㅏ</w>": 3085,
      "ㅈㅓㄴㄷㅏㄹ": 3086,
      "ㅊㅓㄹㅣㅎㅐ</w>": 3087,
      "ㅁㅐㄴ</w>": 3088,
      "ㄷㅗㅇㅔ</w>": 3089,
      "ㅂㅡㄹㅐㄴㄷㅡ</w>": 3090,
      "ar</w>": 3091,
      "ㅇㅓㄹㅕㅇㅜㄴ</w>": 3092,
      "ㄱㅗㄷ</w>": 3093,
      "ㄱㅗㄷㅡㅇ": 3094,
      "ㅁㅏㄴㅇㅑㄱ</w>": 3095,
      "ㅅㅗㄴㅕ</w>": 3096,
      "ㅇㅏㅁㅏㅊㅜㅇㅓ</w>": 3097,
      "70": 3098,
      "ㅁㅜㄹㅡㄹ</w>": 3099,
      "ㅇㅓㅄㅇㅡㄹ</w>": 3100,
      "ㄱㅘㄴㄱㅖ</w>": 3101,
      "ㅈㅏㄷㅡㄹㅇㅢ</w>": 3102,
      "ㅍㅔ</w>": 3103,
      "ㄷㅏㅇㅇㅕㄴ": 3104,
      "ㅈㅐㅅㅐㅇ": 3105,
      "ㄷㅏㄹㅡ": 3106,
      "ㅅㅏㄹㅏㅁㅇㅢ</w>": 3107,
      "Hamster</w>": 3108,
      "ㅇㅓㅈㅣㄴ</w>": 3109,
      "ㅎㅘㅇㅣ": 3110,
      "ㄱㅗㅇㄱㅕㄱ": 3111,
      "ㄱㅡㄷㅡㄹㅇㅡㄴ</w>": 3112,
      "ㅈㅔㅅㅣ": 3113,
      "ㅈㅜㅇㅇㅣㄴ</w>": 3114,
      "ㅋㅣㄹㄹㅗ": 3115,
      "ㅇㅣㅇㅘ</w>": 3116,
      "ㅎㅏㅇㅕㅆㅅㅡㅂㄴㅣㄷㅏ</w>": 3117,
      "ㄱㅣㅈㅗㄴ</w>": 3118,
      "op": 3119,
      "ㄷㅐㅅㅏㅇ</w>": 3120,
      "ㅃㅏㄹㄹㅣ</w>": 3121,
      "ㅎㅚㄹㅡㄹ</w>": 3122,
      "6ㅇㅝㄹ</w>": 3123,
      "ㅂㅣㄹㅡㄹ</w>": 3124,
      "ㅎㅏㅈㅏ</w>": 3125,
      "ㅍㅔㅇㅣㅅㅡ": 3126,
      "ㅅㅏㄹㅖ</w>": 3127,
      "ㅅㅡㅌㅡㄹㅣ": 3128,
      "erv": 3129,
      "sh": 3130,
      "ㄱㅣㅂㅏㄴ": 3131,
      "ㅅㅓㄴㄱㅓ": 3132,
      "ㅁㅜㄴㅈㅔㄴㅡㄴ</w>": 3133,
      "ㅍㅓㄴ": 3134,
      "ㅋㅏㄴ": 3135,
      "ㅅㅣㄱㅇㅣ</w>": 3136,
      "ㄷㅡㅇㅈㅏㅇ": 3137,
      "ㄷㅐㅌㅗㅇㄹㅕㅇ</w>": 3138,
      "ㅈㅓㄻㅇㅡㄴ</w>": 3139,
      "30</w>": 3140,
      "ㅇㅠㄹ</w>": 3141,
      "ㅅㅏㄴㅇㅓㅂ</w>": 3142,
      "ㅁㅣㄹㅣ</w>": 3143,
      "ㅈㅔㅈㅐㄱㅏ</w>": 3144,
      "ㅈㅏㄹㅛㄷㅡㄹㅇㅡㄴ</w>": 3145,
      "7ㅇㅝㄹ</w>": 3146,
      "ㅋㅡㄹㄹㅐ": 3147,
      "ㅇㅏㅍㅇㅔ</w>": 3148,
      "ㅇㅏㄴㅈㅓㅇ": 3149,
      "ㅁㅏㄴㅇㅡㄹ</w>": 3150,
      "17</w>": 3151,
      "ㅇㅏㄶㄷㅏ</w>": 3152,
      "ㄷㅡㄴㅈㅣ</w>": 3153,
      "ㅇㅕㅍ": 3154,
      "ㅅㅣㄱㅗ</w>": 3155,
      "ㅅㅡㅅㅡㄹㅗ</w>": 3156,
      "ㅁㅗㄴㅣ": 3157,
      "ㅅㅓㅇㅇㅢ</w>": 3158,
      "ㅎㅏㄴㅣ</w>": 3159,
      "ㅈㅓㄴㅌㅗㅇ": 3160,
      "ㅂㅏㄹㄱㅕㄴㅅㅣ</w>": 3161,
      "5ㅇㅝㄹ</w>": 3162,
      "ㅅㅜㅇㅕㅇ": 3163,
      "ㄱㅖㅅㅗㄱ": 3164,
      "ㅁㅏㅈㄴㅡㄴ</w>": 3165,
      "ㅇㅟㅋㅣ": 3166,
      "ㅅㅗㄹㅣ": 3167,
      "01</w>": 3168,
      "ㅈㅓㅈㅏㄱㄱㅝㄴㅊㅣㅁㅎㅐ</w>": 3169,
      "ㄱㅗㅇㄱㅐ</w>": 3170,
      "ㅅㅓㅍㅣㅇㅇㅔ</w>": 3171,
      "ㅊㅚ</w>": 3172,
      "ㅅㅏㄱㅗ": 3173,
      "ㅇㅣㅈ": 3174,
      "ㄲㅜㅁ": 3175,
      "ㅍㅡㄴ</w>": 3176,
      "ㅇㅣㄹㄹㅗ</w>": 3177,
      "ㄴㅕㄴㄱㅏㄴ</w>": 3178,
      "ㅈㅏㄹㅛㄷㅡㄹㅇㅣㅂㄴㅣㄷㅏ</w>": 3179,
      "ㅇㅟㅎㅐㅅㅓㄴㅡㄴ</w>": 3180,
      "ㄱㅏㅆㄷㅏ</w>": 3181,
      "ㅅㅣㄴㄱㅗㅎㅐㅈㅜㅅㅣㅁㅕㄴ</w>": 3182,
      "ㅊㅔㅎㅓㅁ": 3183,
      "ㅂㅜㄴㅈㅐㅇㅇㅛㅅㅗ</w>": 3184,
      "ㅂㅐㅅㅗㅇ</w>": 3185,
      "ㅇㅣㄴㅎㅏㄴ</w>": 3186,
      "ㅊㅓㄹㅣ</w>": 3187,
      "ㄱㅘㄴㅡㄴ</w>": 3188,
      "ㅇㅓㅂㅁㅜ": 3189,
      "ㄱㅏㅇㅣㅂ</w>": 3190,
      "ㄷㅏㅇㅣ": 3191,
      "ㅂㅜㅅㅡㅌㅏㅂㅣㅅ": 3192,
      "ㅈㅓㄴㄹㅑㄱ</w>": 3193,
      "ㅋㅐㅁㅍㅓ": 3194,
      "ㅅㅣㅁㄹㅣ": 3195,
      "ㅁㅣㅌㅓ</w>": 3196,
      "ew": 3197,
      "ㅅㅡㄹㅓㅇㅜㄴ</w>": 3198,
      "ㄴㅓㅁㅇㅓ": 3199,
      "ㅅㅣㄱㅇㅡㄹㅗ</w>": 3200,
      "ㅎㅏㄹㅏ</w>": 3201,
      "ㅇㅕㄹㅅㅣㅁㅎㅣ</w>": 3202,
      "ㅇㅕㄱㅎㅏㄹㅇㅡㄹ</w>": 3203,
      "ㅇㅓㅁㅁㅏ</w>": 3204,
      "ㅅㅜㄴ</w>": 3205,
      "ㅇㅜㅅㅓㄴ</w>": 3206,
      "ㅇㅓㅂㅇㅡㄹ</w>": 3207,
      "ㅈㅓㅈㅏㄱㄱㅝㄴㅇㅡㄹ</w>": 3208,
      "ㅊㅜㅇㅂㅜㄴㅎㅣ</w>": 3209,
      "9ㅇㅝㄹ</w>": 3210,
      "ㅉㅏㄱ</w>": 3211,
      "ㅇㅣㄹㄲㅏㅈㅣ</w>": 3212,
      "ㄱㅗㄱㅡ": 3213,
      "ㄱㅏㄹㅡ": 3214,
      "ce</w>": 3215,
      "ㅁㅜㄷ": 3216,
      "ㅈㅗㅎㅇㅏㅎㅏㄴㅡㄴ</w>": 3217,
      "ㅇㅔㅇㅣㅈㅓㄴㅌㅡ": 3218,
      "ㅇㅖㄹㅡㄹ</w>": 3219,
      "ㅓㄹ</w>": 3220,
      "ㅎㅐㅇㅚ</w>": 3221,
      "ㄱㅗㅇㅇㅕㄴ": 3222,
      "ㄷㅚㄱㅣ</w>": 3223,
      "ㄴㅐㅇㅔ</w>": 3224,
      "ㅅㅣㅎㅐㅇ": 3225,
      "ㄹㅔ</w>": 3226,
      "ㅇㅜㄹ</w>": 3227,
      "ㅅㅏㄹㅏㅇ</w>": 3228,
      "ㅅㅏㅇㅔㅅㅓ</w>": 3229,
      "ㅊㅏㅈㄱㅣ</w>": 3230,
      "ㅅㅡㅌㅏ</w>": 3231,
      "ㅅㅗㄱㅏ</w>": 3232,
      "500": 3233,
      "ㅇㅔㄱㅔㄴㅡㄴ</w>": 3234,
      "ㄱㅕ</w>": 3235,
      "11ㅇㅝㄹ</w>": 3236,
      "ㅈㅣㅇ</w>": 3237,
      "ㅅㅣㄷㅐ</w>": 3238,
      "ㅎㅏㄱㅗㅈㅏ</w>": 3239,
      "ㅎㅏㅇㅕㅆ": 3240,
      "ㄷㅗㅅㅣ</w>": 3241,
      "ㄹㅐㄱ</w>": 3242,
      "ㅇㅕㅈㅓㄴㅎㅣ</w>": 3243,
      "ㅇㅕㄹㄹㅣㄴ</w>": 3244,
      "ㅌㅐㅇㅑㅇ": 3245,
      "ㅈㅓㅈㅏㄱㅁㅜㄹㅇㅡㄹ</w>": 3246,
      "ㅍㅏㄴㅁㅐ</w>": 3247,
      "ㅇㅔㄹ": 3248,
      "ㅇㅣㅆㄴㅡㄴㅈㅣ</w>": 3249,
      "ic</w>": 3250,
      "ㅁㅗㄱㄹㅗㄱ</w>": 3251,
      "ㄷㅐㅈㅜㅇ": 3252,
      "ra": 3253,
      "ㅇㅣㄹㅈㅓㅇ</w>": 3254,
      "hd</w>": 3255,
      "ㅅㅓㄴㅅㅜ</w>": 3256,
      "ㅇㅕㄱㅣㅅㅓ</w>": 3257,
      "ㅅㅗㅍㅡㅌㅡㄱㅏ</w>": 3258,
      "2017ㄴㅕㄴ</w>": 3259,
      "ㄷㅡㅇㅇㅡㄹㅗ</w>": 3260,
      "ㅈㅓㄴㄹㅑㄱ": 3261,
      "ㅈㅓㄹㅕㅁ": 3262,
      "ㅎㅝㄹ": 3263,
      "ㄱㅓㄹㅣㅇㅔ</w>": 3264,
      "ㅋㅓㅂ</w>": 3265,
      "ㅈㅜㅇㅅㅣㅁㅇㅡㄹㅗ</w>": 3266,
      "ㅅㅏㅇㅛㅇㅈㅏ</w>": 3267,
      "ㄷㅏㅇㅅㅣㄴㅇㅣ</w>": 3268,
      "ㅅㅣㄹㅅㅣ": 3269,
      "ㅂㅜㄹㅂㅓㅂㅈㅓㄱㅇㅡㄹㅗ</w>": 3270,
      "8ㅇㅝㄹ</w>": 3271,
      "ㅅㅜㅇㅘ</w>": 3272,
      "ㅊㅘㄹㅇㅕㅇ": 3273,
      "ㅌㅗㅇㅎㅏㅂ": 3274,
      "ㅅㅏㅈㅣㄴㅇㅡㄹ</w>": 3275,
      "ㄱㅡㄹㅣㅅㅡ": 3276,
      "ㅂㅡㄹㅏㅇㅜ": 3277,
      "ㅇㅓㅄㅇㅓㅆ": 3278,
      "ㅇㅣㄱㅔ</w>": 3279,
      "ㅍㅐㄱ": 3280,
      "ㄱㅛㅌㅗㅇ": 3281,
      "ㅈㅓㅎㅢ": 3282,
      "ㄲㅡㄶ": 3283,
      "9ㄴㅕㄴ</w>": 3284,
      "ㄱㅓㄴㅊㅜㄱ": 3285,
      "ㅇㅡㅁㅡㄹㅗ</w>": 3286,
      "ㅊㅣㅁㅇㅔ</w>": 3287,
      "ㄴㅗㄹㅐ": 3288,
      "ㅂㅜㅇㅢ</w>": 3289,
      "ㅇㅣㅆㅇㅡㄴㅣ</w>": 3290,
      "ㄱㅏㅎㅐㅈㅣㄹ</w>": 3291,
      "ㅊㅜㅈㅣㄴ": 3292,
      "ㄲㅡㅌㄴㅏ": 3293,
      "ㅇㅓㅉㅓ": 3294,
      "ㄱㅛㅂㅗㅁㅜㄴㄱㅗㅇㅔㅅㅓ</w>": 3295,
      "ㅇㅓㄹ</w>": 3296,
      "ㄱㅓㅅㅊㅓㄹㅓㅁ</w>": 3297,
      "ㅅㅔㄱㅅㅣ": 3298,
      "ㅎㅘㄹㄷㅗㅇㅇㅡㄹ</w>": 3299,
      "ㅈㅔㅊㅜㄹ": 3300,
      "ㄹㅠㄹ</w>": 3301,
      "ㅁㅔㄴㅠ": 3302,
      "ㅋㅡㄹㅡㄹ</w>": 3303,
      "ㄱㅕㄹㅈㅔ": 3304,
      "1ㅇㅟ</w>": 3305,
      "06</w>": 3306,
      "ㅂㅗㄱㅗㅅㅓ</w>": 3307,
      "ㅎㅏㄱㅣ": 3308,
      "ㄱㅡㄹㅜㅂ": 3309,
      "ㅇㅣㅇㅛㅇㅅㅣㅇㅔㄴㅡㄴ</w>": 3310,
      "ㅍㅕㅇㄱㅏ</w>": 3311,
      "ㅈㅗㄱㅓㄴ</w>": 3312,
      "ㅇㅟㅇㅝㄴㅎㅚ</w>": 3313,
      "ㅅㅏㅎㅏㅇㅇㅡㄴ</w>": 3314,
      "ㅇㅏㄶㅇㅏ": 3315,
      "ㅅㅍㅗ": 3316,
      "ㅂㅓㅈㅓㄴ": 3317,
      "it</w>": 3318,
      "ity</w>": 3319,
      "ㅁㅜㄴㅅㅓㄱㅓㅁㅅㅐㄱ</w>": 3320,
      "ㄴㅐㄹㅕ": 3321,
      "ㅇㅔㅇㅣㅈㅓㄴㅌㅡㅅㅗㅍㅡㅌㅡㄱㅏ</w>": 3322,
      "ㄱㅏㅁㅕㄴ</w>": 3323,
      "ㅎㅝㄹㅆㅣㄴ</w>": 3324,
      "ㅅㅏㅇㄷㅏㅁ": 3325,
      "ㅂㅜㄱㅏ</w>": 3326,
      "08</w>": 3327,
      "ㅊㅚㄱㅗ</w>": 3328,
      "ㅇㅣㅆㅇㅓㅆㄷㅓㄴ</w>": 3329,
      "ㅈㅗㅎㄷㅏ</w>": 3330,
      "ㅂㄱㅗ</w>": 3331,
      "ㅌㅏㅇㅣ": 3332,
      "ㄴㅏㅇㅘ</w>": 3333,
      "ㄴㅏㅇㅗㄴㅡㄴ</w>": 3334,
      "ㅁㅜㄹㅣ": 3335,
      "ㄱㅅㅡ": 3336,
      "ㅈㅔ3": 3337,
      "ㅁㅗㅅㅎㅏㄱㅗ</w>": 3338,
      "ㄱㅗㅇㄱㅡㅂ": 3339,
      "ㅂㅗㅈㅏㅇ": 3340,
      "ㅅㅣㅋㅣㄴㅡㄴ</w>": 3341,
      "ㄱㅡㄷㅡㄹㅇㅢ</w>": 3342,
      "ㅂㅏㄴㅇㅡㅇ": 3343,
      "ㅇㅡㄹㅗㅅㅓ</w>": 3344,
      "ㅋㅟ": 3345,
      "ㅌㅔ</w>": 3346,
      "IN": 3347,
      "ㄱㅖㅎㅚㄱ</w>": 3348,
      "ㅍㅡㄹㅗㅈㅔㄱㅌㅡ</w>": 3349,
      "ㄹㅐㄴㄷㅡ</w>": 3350,
      "ㅁㅏㄹㅕㄴㄷㅚㅇㅓ</w>": 3351,
      "ㅇㅣㄹㅇㅓㄴㅏ": 3352,
      "ㅇㅗㄹㄹㅣ": 3353,
      "ㄱㅏㅈㅓㅇ": 3354,
      "ㅎㅣㅁㄷㅡㄹ": 3355,
      "24</w>": 3356,
      "con": 3357,
      "ㅎㅏㄹㅕㅁㅕㄴ</w>": 3358,
      "ㄷㅗㄴ</w>": 3359,
      "ㅈㅓㄱㅈㅓㄹ": 3360,
      "ㄱㅣㅇㅘ</w>": 3361,
      "ㅂㅏㄷㅇㅏㅆ": 3362,
      "ㄱㅓㅅㄱㅘ</w>": 3363,
      "ㅂㅣㄱㅏ</w>": 3364,
      "ㅈㅣㅋㅣ": 3365,
      "ㅂㅕㅇㅇㅝㄴ</w>": 3366,
      "ㅂㅡㄹㄹㅐㄱ</w>": 3367,
      "ㅇㅣㄹㅏㄷㅗ</w>": 3368,
      "19</w>": 3369,
      "ㄱㅏㄱㅏ</w>": 3370,
      "ㅇㅣㅅ": 3371,
      "ㅇㅕㄱㅅㅏ</w>": 3372,
      "ㅈㅓㄴㅅㅣ": 3373,
      "ㄴㅡㄴㄱㅏ</w>": 3374,
      "ㄱㅏㅁㅇㅣ</w>": 3375,
      "ㅈㅣㅈㅓㅇ": 3376,
      "ㄱㅡㄹㄹㅗㅂㅓㄹ</w>": 3377,
      "ㅇㅏㄴㅇㅡㄹ</w>": 3378,
      "ㅁㅝ</w>": 3379,
      "ㅇㅣㄷㅗㅇ</w>": 3380,
      "ㅁㅣㄷㅣㅇㅓ</w>": 3381,
      "ㅁㅏㄹㅆㅡ": 3382,
      "ㅁㅏㄹㅣ": 3383,
      "ㅇㅣㄱㅓㅅㅇㅡㄴ</w>": 3384,
      "ㄱㅕㄴ</w>": 3385,
      "ㅂㅗㅎㅗ</w>": 3386,
      "ㅇㅠㄴㅣ": 3387,
      "ㄱㅣㅈㅗㄴ": 3388,
      "ㅅㅔㅌㅡ</w>": 3389,
      "ㅊㅚㅈㅓㄱ": 3390,
      "ㅅㅡㅋㅗ": 3391,
      "ㄷㅐㅅㅣㄴ</w>": 3392,
      "ㅇㅘㄴㅂㅕㄱ": 3393,
      "ang": 3394,
      "ㅇㅠㄹㅓㅂ": 3395,
      "ㅅㅏㄱㅗ</w>": 3396,
      "ㅍㅕㄴㅈㅣㅂ": 3397,
      "ㄹㅏㄹ": 3398,
      "ㅎㅘㄱㅏ</w>": 3399,
      "ㅁㅜㄹㅇㅢ</w>": 3400,
      "ㅂㅏㅁ</w>": 3401,
      "by</w>": 3402,
      "ㅎㅏㄷㅏㄴㅡㄴ</w>": 3403,
      "ㅂㅗㅇㅕㅈㅜ": 3404,
      "ice</w>": 3405,
      "ㄱㅡㅁㅇㅐㄱ": 3406,
      "ㄷㅡㅇㄹㅗㄱ</w>": 3407,
      "ㅇㅓㅂㄷㅔㅇㅣㅌㅡ</w>": 3408,
      "ㄴㅡㄴㄱㅔ</w>": 3409,
      "ㅅㅣㄴㄹㅚ": 3410,
      "IS": 3411,
      "ㄴㅏㅁㅜ": 3412,
      "ㄴㅏㅌㅏㄴㅏ": 3413,
      "ㅇㅏㄴㅣㅁㅕㄴ</w>": 3414,
      "ㅇㅣㄴㄱㅣ</w>": 3415,
      "ㅇㅘㄴㄹㅛ</w>": 3416,
      "ㅌㅗㅇㅎㅐㅅㅓ</w>": 3417,
      "ㄱㅖㅅㅏㄴ": 3418,
      "ㄱㅗㄷㅗ</w>": 3419,
      "ㅅㅓㄹㅁㅕㅇ</w>": 3420,
      "ㄱㅣㄴㅕㅁ": 3421,
      "ㅅㅏㅅㅣㄹㅇㅡㄹ</w>": 3422,
      "ㅅㅣㅂ</w>": 3423,
      "ㅊㅜㄹㅅㅣ": 3424,
      "ㅂㅓㅂㅇㅡㄹ</w>": 3425,
      "ㄴㅏㅇㅗㄴ</w>": 3426,
      "ㅈㅏㄱㅕㄱ": 3427,
      "ver": 3428,
      "ㄴㅐㄴㅡㄴ</w>": 3429,
      "ㅂㅓㅁ</w>": 3430,
      "ㅎㅏㄴㅡㄹ": 3431,
      "ㅇㅜㄴㄷㅗㅇ</w>": 3432,
      "ㅅㅡㅌㅡㄹㅔ": 3433,
      "ㅆㅡㄴㅡㄴ</w>": 3434,
      "ㅂㅣㄱㅛ</w>": 3435,
      "ㅅㅣㄱㅅㅏ</w>": 3436,
      "ㄹㅗㄱㅡ</w>": 3437,
      "ㅂㅜㄴㅇㅔ</w>": 3438,
      "2017</w>": 3439,
      "ㅈㅏㄹㅣ</w>": 3440,
      "ㅌㅡㅇㅟ": 3441,
      "ff": 3442,
      "ㄱㅏㄴㅇㅔ</w>": 3443,
      "ㄱㅗㄴㅡㄴ</w>": 3444,
      "1ㄱㅐ</w>": 3445,
      "ㅁㅗㅇㅑㅇ": 3446,
      "ㄴㅗㅎㄱㅗ</w>": 3447,
      "ㅁㅏㄶㄷㅏ</w>": 3448,
      "ㅈㅓㄴㄱㅣ": 3449,
      "ㅅㅏㅇㅛㅇㅎㅏㅇㅕ</w>": 3450,
      "ㄱㅣㅃ": 3451,
      "ㅅㅏㅇㅇㅓㅂ": 3452,
      "ㅏㅇㅛ</w>": 3453,
      "ㄷㅐㄱㅏ</w>": 3454,
      "ㅅㅡㅌㅏㅇㅣㄹ</w>": 3455,
      "ㅅㅣㅈㅡㄴ": 3456,
      "ㅈㅕㅆ": 3457,
      "ㄱㅡㄹㅓㅁ</w>": 3458,
      "ㅍㅣㅇ</w>": 3459,
      "ob": 3460,
      "pro": 3461,
      "ㅅㅓㄹㅈㅓㅇ</w>": 3462,
      "ㅍㅕㄴㅇㅏㄴ": 3463,
      "ㅍㅐ</w>": 3464,
      "ㄱㅡㄱ</w>": 3465,
      "ㅇㅓㅂㅊㅔ</w>": 3466,
      "ㅋㅕ</w>": 3467,
      "ㅇㅣㅈㅓㄴ": 3468,
      "ㄱㅡㄴㄱㅓ": 3469,
      "ㅈㅣㄹㅗ</w>": 3470,
      "ㅂㅓㄴㅇㅕㄱ": 3471,
      "ㅅㅣㅋㅕ": 3472,
      "ㅈㅔㄷㅗ</w>": 3473,
      "ㄱㅡㄱㅓㅅㅇㅡㄹ</w>": 3474,
      "ㅈㅜㄱㅏㄴ</w>": 3475,
      "ㅇㅐㅂ</w>": 3476,
      "SN": 3477,
      "ㄷㅗㅊㅏㄱ": 3478,
      "ㅈㅣㄷㅗ": 3479,
      "ㅊㅓㅇㅅㅗㄴㅕㄴ</w>": 3480,
      "ㅇㅣㅆㅇㅓㅇㅑ</w>": 3481,
      "ㅅㅏㅈㅓㅇ</w>": 3482,
      "ㄹㅗㄱㅡㅇㅣㄴ</w>": 3483,
      "ㄱㅣㅎㅚㄱ": 3484,
      "ㄹㅣㅇㅔ</w>": 3485,
      "qu": 3486,
      "ㅎㅛㅇㅠㄹ": 3487,
      "ㄱㅕㄹㄱㅘㄹㅡㄹ</w>": 3488,
      "ㅈㅣㄱㅇㅝㄴ</w>": 3489,
      "ㅃㅜㄹ": 3490,
      "ㅅㅣㅍㄷㅏ</w>": 3491,
      "ㅁㅏㅇㅡㄹ": 3492,
      "ㅌㅣㄴ</w>": 3493,
      "ㄷㅐㅊㅜㄹ": 3494,
      "ㅇㅣㅈㅏ</w>": 3495,
      "ㅁㅏㅈㅣㅁㅏㄱ": 3496,
      "ㅁㅏㅊㅏㄴ": 3497,
      "50</w>": 3498,
      "ㅊㅏㄴ</w>": 3499,
      "ㅎㅗㄴㅈㅏ</w>": 3500,
      "ㅁㅜㄹㅇㅔ</w>": 3501,
      "ㅁㅓㅅㅈㅣㄴ</w>": 3502,
      "ㅁㅣㄷㅣㅇㅓ": 3503,
      "36": 3504,
      "ㄱㅣㄷㅗㄱ": 3505,
      "ㅍㅡㄹㅏ": 3506,
      "ㅆㅣㄴㅡㄴ</w>": 3507,
      "ㅇㅣㄹㅗㄴ": 3508,
      "age</w>": 3509,
      "ㅈㅓㄴㅈㅐㅇ": 3510,
      "ㅇㅟㅊㅣ</w>": 3511,
      "ㅎㅏㅅ": 3512,
      "ㄷㅐㅇㅔ</w>": 3513,
      "ㅈㅜㅅㅣㄱㅣ</w>": 3514,
      "ㅈㅏㅈㅓㄴ": 3515,
      "ㅍㅡㄹㄹㅐㅅㅍㅗ": 3516,
      "ㄷㅏㅁㅇㅡㄹ</w>": 3517,
      "ㅇㅗㄴㄹㅏㅇㅣㄴ": 3518,
      "ㅇㅐㅂ": 3519,
      "ㅁㅣㅅㅜㄹ": 3520,
      "ㅇㅔㅁㅏㄴ</w>": 3521,
      "ㅂㅜㅇㅔ</w>": 3522,
      "ㅍㅗㅇㅣㄴㅌㅡ</w>": 3523,
      "2016ㄴㅕㄴ</w>": 3524,
      "ㅇㅎㅏㄴ</w>": 3525,
      "ㅈㅓㄱㅇㅡㄴ</w>": 3526,
      "ㅂㅜㄱㅎㅏㄴ</w>": 3527,
      "ㅇㅏㄶㅇㅡㅁㅕㄴ</w>": 3528,
      "ㅇㅣㄴㅈㅡㅇ": 3529,
      "ㅈㅓㄱㅇㅡㄹ</w>": 3530,
      "ㅇㅓㅄㅇㅓ</w>": 3531,
      "ㅅㅏㄹㅗ</w>": 3532,
      "ㄴㅜㄱㅏ</w>": 3533,
      "ㅋㅜㄹ": 3534,
      "ㅇㅕㅆ": 3535,
      "ㅋㅗㄴㅌㅔㄴㅊㅡ</w>": 3536,
      "ㅌㅗㄱ": 3537,
      "ㄱㅏㅇㅈㅗ": 3538,
      "ㅅㅣㄹㅍㅐ": 3539,
      "ㄱㅓㄷ": 3540,
      "ㄱㅣㄱㅘㄴ</w>": 3541,
      "ㅇㅣㅎㅏ</w>": 3542,
      "ㄷㅓㄴㅣ</w>": 3543,
      "ㄱㅕㅇㅇㅡㄹ</w>": 3544,
      "ㅏㅁㅏ</w>": 3545,
      "ㄱㅖㄹㅡㄹ</w>": 3546,
      "ㅇㅔㅇㅓ": 3547,
      "ㅁㅗㅅㅎㅏㄴㅡㄴ</w>": 3548,
      "ㅘㅆㄷㅏ</w>": 3549,
      "ES": 3550,
      "ㄱㅗㅇㄱㅗㅇ": 3551,
      "ㅇㅡㄹㅗㅂㅜㅌㅓ</w>": 3552,
      "ㅂㅗㄴㄷㅏ</w>": 3553,
      "ㄴㅚ": 3554,
      "ㅌㅏㄱㅗ</w>": 3555,
      "ㅇㅓㄴㅇㅓ": 3556,
      "ㄱㅏㅈㅕㅇ": 3557,
      "ㅂㅣㄱ": 3558,
      "ed": 3559,
      "ㄱㅗㅇㅁㅜ": 3560,
      "ㅎㅚㅅㅏㄴㅡㄴ</w>": 3561,
      "ㅂㅣㄴ</w>": 3562,
      "ㅇㅗㄹㅡ": 3563,
      "ㅈㅣㅎㅏ": 3564,
      "id": 3565,
      "ㅅㅡㅌㅐㄴ": 3566,
      "ㅅㅣㅍㅅㅡㅂㄴㅣㄷㅏ</w>": 3567,
      "ㅅㅏㄻㅇㅡㄹ</w>": 3568,
      "ㄷㅡㅅㅇㅣ</w>": 3569,
      "ㄱㅗㄱㅐㄱ</w>": 3570,
      "ㅋㅙ": 3571,
      "ㄴㅕㄴㄷㅗ</w>": 3572,
      "ㅁㅣㄴㅣ": 3573,
      "ㄱㅕㄲ": 3574,
      "ㅇㅏㅁ</w>": 3575,
      "ㅁㅏㅅㅏ": 3576,
      "ㅎㅐㅈㅜㅅㅔㅇㅛ</w>": 3577,
      "ㅈㅏㅇㄴㅏㄴ": 3578,
      "ㅂㅕㄱ</w>": 3579,
      "ㅁㅏㄴㄷㅡㄹ</w>": 3580,
      "for": 3581,
      "ㅂㅡㄹㅣ": 3582,
      "ㅅㅓㅂㅓ": 3583,
      "ㅅㅏㄹㅏㅁㄷㅡㄹ</w>": 3584,
      "ㅇㅏㄶㅇㅏ</w>": 3585,
      "ㅇㅗㅍㅡ": 3586,
      "ㅊㅗㄴ": 3587,
      "iz": 3588,
      "ㅇㅣㅌㅏㄹ": 3589,
      "ㅎㅏㄹㅕㄱㅗ</w>": 3590,
      "ㅁㅣㅌ": 3591,
      "ㅅㅣㅊㅓㅇ": 3592,
      "07</w>": 3593,
      "ㅇㅡㄴㅎㅐㅇ</w>": 3594,
      "ㅈㅓㄱㅇㅣㄱㅗ</w>": 3595,
      "ㅃㅏㄹㅡㄱㅔ</w>": 3596,
      "ㄷㅣㅈㅣㅌㅓㄹ</w>": 3597,
      "ㅅㅜㅈㅓㅇ": 3598,
      "ㅎㅏㅁㄲㅔ": 3599,
      "ㅌㅡㄹ</w>": 3600,
      "02</w>": 3601,
      "ㅂㅣㅎㅐ</w>": 3602,
      "ㅎㅚㅈㅏㅇ</w>": 3603,
      "ㅂㅣㅈㅡㄴㅣㅅㅡ</w>": 3604,
      "ㅈㅏㅇㄱㅣ": 3605,
      "ㄸㅓㄴ": 3606,
      "ㅇㅓㄴㄱㅡㅂ": 3607,
      "ㅊㅚㄱㅡㄴ": 3608,
      "ine</w>": 3609,
      "ㄷㅚㅇㅓㅇㅑ</w>": 3610,
      "ㅅㅓㅇㅇㅡㄴ</w>": 3611,
      "ㅇㅏㅇㅣㅌㅔ": 3612,
      "ㅌㅡㄱㅈㅣㅇ": 3613,
      "ㅌㅡㅇㅔ</w>": 3614,
      "ㅎㅖ</w>": 3615,
      "ㅈㅏㄱㅇㅛㅇ": 3616,
      "ㅇㅗㄹㅐ</w>": 3617,
      "ㅎㅏㄱㅣㄹㅡㄹ</w>": 3618,
      "ㅈㅜㅊㅏ": 3619,
      "ㅁㅣㄹㄹㅣㅁㅣㅌㅓ": 3620,
      "ㅂㅜㄷㅏㅁ": 3621,
      "ㅇㅕㅇㅇㅕㄱ": 3622,
      "ㅂㅓㄹㅣ": 3623,
      "ㅈㅜㅌㅐㄱ": 3624,
      "ㅇㅡㅁㅇㅏㄱ</w>": 3625,
      "ㅊㅏㄹㅑㅇ": 3626,
      "up": 3627,
      "21</w>": 3628,
      "AS": 3629,
      "ㅇㅡㅁㅅㅣㄱ</w>": 3630,
      "ㅈㅓㅁㅇㅔ</w>": 3631,
      "ㅈㅣㄴㅏㄴㅎㅐ</w>": 3632,
      "ㅅㅣㅀ": 3633,
      "ㅇㅏㄴㄴㅐ": 3634,
      "ㅂㅏㄲㅜ": 3635,
      "ㅅㅣㄹㅣㅈㅡ</w>": 3636,
      "ㅂㅏㅂ": 3637,
      "ㅂㅜㄴㄷㅡㄹㅇㅣ</w>": 3638,
      "ㅈㅓㄴㅁㅏㅇ": 3639,
      "ㅈㅗㅅㅏ": 3640,
      "ㄷㅜㄹㄹㅓ": 3641,
      "ㅇㅣㅂㅈㅏㅇ": 3642,
      "ㅎㅏㄴㄱㅜㄱㅇㅢ</w>": 3643,
      "ㅇㅣㄱㅣㄷㅗ</w>": 3644,
      "ㅈㅏㄶ": 3645,
      "ㅍㅗㅇ": 3646,
      "ㅇㅔㅁ": 3647,
      "198": 3648,
      "ㅎㅜㄹㄹㅠ": 3649,
      "ㄹㅖ": 3650,
      "ㅇㅓㅄㄷㅏㄴㅡㄴ</w>": 3651,
      "?\"</w>": 3652,
      "ㅈㅔㅇㅣㄹ</w>": 3653,
      "eb": 3654,
      "ㅅㅏㅎㅚㅂㅗㄱㅈㅣ": 3655,
      "ㅇㅣㅎㅏ": 3656,
      "ㅂㅗㅌㅗㅇ</w>": 3657,
      "2ㅇㅝㄹ</w>": 3658,
      "ㅅㅐㅇㅁㅕㅇ": 3659,
      "ㅈㅣㄱㅡㅁㅇㅡㄴ</w>": 3660,
      "ㅇㅣㄴㅅㅣㄱ": 3661,
      "ㄷㅐㅎㅚ": 3662,
      "ㄱㅗㄱ</w>": 3663,
      "ㄱㅐㅊㅚ": 3664,
      "ㅇㅛㄱㅡㅁ": 3665,
      "ㅈㅗㅎㅏㅂ": 3666,
      "ㅎㅏㅅㅣㄱㅣ</w>": 3667,
      "ㅈㅓㄴㅎㅘ</w>": 3668,
      "ㄱㅜㅎㅏㄱㅗ</w>": 3669,
      "ㄱㅘㄴㅅㅣㅁㅇㅡㄹ</w>": 3670,
      "ㅂㅏㄹㅗ": 3671,
      "ㅈㅓㅇㄷㅗ": 3672,
      "cm</w>": 3673,
      "ㄴㅏㄹㅏ": 3674,
      "ㅇㅗㅂㅓ": 3675,
      "Pro": 3676,
      "ㅅㅣㄱㅏㄴㅇㅔ</w>": 3677,
      "ㄱㅜㄹ</w>": 3678,
      "ㅅㅣㄴㅁㅜㄴ</w>": 3679,
      "ㅇㅐㄹ": 3680,
      "ㄷㅏㅇㅎㅏㄴ</w>": 3681,
      "ㅅㅟㅇㅜㄴ</w>": 3682,
      "ㄱㅜㅊㅔ": 3683,
      "ㄷㅗㅇㅜㅁㅇㅡㄹ</w>": 3684,
      "us</w>": 3685,
      "ㅇㅜㅅㅜ": 3686,
      "ㅍㅛㅅㅣ</w>": 3687,
      "MB": 3688,
      "ㅎㅗㄴ</w>": 3689,
      "ㄱㅏㅁㅅㅏㅇ": 3690,
      "and": 3691,
      "ㅅㅜㅁㅏㄶㅇㅡㄴ</w>": 3692,
      "ㅎㅐㅈㅣ": 3693,
      "ㅈㅣㅂㅇㅔ</w>": 3694,
      "ㅈㅣㄹㅇㅡㄹ</w>": 3695,
      "ㅁㅜㄹㅛㄹㅗ</w>": 3696,
      "ㅁㅏㄹㄱㅗ</w>": 3697,
      "ㄸㅏㄱ</w>": 3698,
      "ㅈㅔㅈㅏㄱ</w>": 3699,
      "ㅎㅜㄴㄹㅕㄴ": 3700,
      "ㅆㅏㅎ": 3701,
      "ㄷㅏㄴㄱㅖ</w>": 3702,
      "ㄱㅏㄱㄱㅏㄱ</w>": 3703,
      "ㅇㅕㄱㅣㅇㅔ</w>": 3704,
      "ㄷㅓㄱㅜㄴㅇㅛ</w>": 3705,
      "ㄹㅏㅇㅜ": 3706,
      "ㅂㅗㅈㅏ</w>": 3707,
      "ㅁㅏㅇㅡㅁㅇㅔ</w>": 3708,
      "ㅅㅏㄲㅏ": 3709,
      "ㅇㅣㅆㅇㅡㅁ</w>": 3710,
      "ㄱㅏㄲㅏㅇㅜㄴ</w>": 3711,
      "32</w>": 3712,
      "ㄱㅣㄱㅗ</w>": 3713,
      "ㄷㅏㄹㄹㅓ</w>": 3714,
      "ㅅㅣㅎㅓㅁ</w>": 3715,
      "ㄷㅗㅇㅇㅢ": 3716,
      "ㅅㅏㅎㅚㅈㅓㄱ</w>": 3717,
      "ㄱㅓㄴㅅㅓㄹ": 3718,
      "ㄱㅏㄹㅗ</w>": 3719,
      "ㄱㅜㅅㅓㅇ</w>": 3720,
      "ㄷㅏㅇㅅㅣㄴㅇㅡㄴ</w>": 3721,
      "ㅊㅗㄷㅡㅇ": 3722,
      "ㅁㅐㅇ": 3723,
      "IT": 3724,
      "ㄱㅏㅇㅎㅘ": 3725,
      "ㄷㅐㅎㅐㅅㅓㄴㅡㄴ</w>": 3726,
      "indow": 3727,
      "ㅎㅐㅍㅣ": 3728,
      "ㅈㅜㅅㅕㅅㅓ</w>": 3729,
      "ㅈㅏㄱㅇㅓㅂㅇㅡㄹ</w>": 3730,
      "ㅍㅡㄹㅗㄱㅡㄹㅐㅁㅇㅡㄹ</w>": 3731,
      "ㅁㅓㄱㄴㅡㄴ</w>": 3732,
      "ㅊㅝ": 3733,
      "ㄱㅛㅅㅜ</w>": 3734,
      "ㄴㅡㅇㄹㅕㄱ": 3735,
      "ㅇㅣㄹㅡㅁㅇㅡㄹ</w>": 3736,
      "ㅆㅣㄱㅏ</w>": 3737,
      "ㄹㅕㅁㅕㄴ</w>": 3738,
      "ㅇㅣㅅㅡㄹ": 3739,
      "ㅈㅔㅍㅜㅁㅇㅡㄹ</w>": 3740,
      "ㄱㅏㄴㅎㅗ": 3741,
      "SK": 3742,
      "ㅁㅜㄴㅈㅐ": 3743,
      "ㄴㅏㅇㅏ": 3744,
      "ㄷㅏㄹㄹㅣ</w>": 3745,
      "ㅊㅏㅈㅇㅡㄹ</w>": 3746,
      "ㅇㅝ</w>": 3747,
      "ㅅㅗㅇㅔ</w>": 3748,
      "ㅍㅏㅇㅣㄹㅇㅡㄹ</w>": 3749,
      "ㅇㅏㄱㅣ</w>": 3750,
      "ㅅㅏㄴㅇㅡㄹ</w>": 3751,
      "ㅅㅡㅇㅘ</w>": 3752,
      "ㄴㅐㅇ": 3753,
      "OS": 3754,
      "ㅁㅏㅇㅡㅁㅇㅣ</w>": 3755,
      "ㅊㅐㄱㅇㅣㅁㅇㅡㄹ</w>": 3756,
      "ㄷㅗㅈㅓㄴ": 3757,
      "ㅎㅐㅆㄷㅏㄴㅡㄴ</w>": 3758,
      "ㄷㅗㅇㅘ</w>": 3759,
      "ㅈㅏㅈㅣ</w>": 3760,
      "ㅇㅣㄴㄱㅘ</w>": 3761,
      "ㅍㅕㄴㅇㅢ</w>": 3762,
      "ㅁㅛ": 3763,
      "ㅌㅓㄴ</w>": 3764,
      "ㅅㅐㅇㄱㅏㄱ</w>": 3765,
      "ㅋㅏㅌㅔㄱㅗ": 3766,
      "ㅈㅣㄱㅡㅁㄲㅏㅈㅣ</w>": 3767,
      "ㄱㅐㄹㅡㄹ</w>": 3768,
      "??</w>": 3769,
      "ㄱㅐㅇㅣㄴㅈㅓㅇㅂㅗ": 3770,
      "ㅇㅣㅆㄴㅏㅇㅛ</w>": 3771,
      "ㅂㅏㄹㅍㅛ</w>": 3772,
      "ㅁㅣㄱㅜㄱㅇㅢ</w>": 3773,
      "ㄷㅓㅂㅜㄹ": 3774,
      "ㅂㅏㄷㅇㅡ": 3775,
      "ㅇㅓㅆㄴㅡㄴㄷㅔ</w>": 3776,
      "ㅁㅗㅈㅣㅂ</w>": 3777,
      "ㅈㅣㅅㅣㄱ": 3778,
      "ㅈㅏㅅㅣㄴㅇㅡㄹ</w>": 3779,
      "ㅂㅜㅌㅓㄴㅡㄴ</w>": 3780,
      "ㅋㅓㅍㅣ": 3781,
      "ㅋㅓㄴㅌㅔㄴ": 3782,
      "ㄱㅘㅈㅓㅇㅇㅔㅅㅓ</w>": 3783,
      "ㄷㅗㄱㅇㅣㄹ</w>": 3784,
      "ㅎㅏㅇㅕㅇㅑ</w>": 3785,
      "ate</w>": 3786,
      "ㄱㅜㄱㄱㅏ</w>": 3787,
      "ㅇㅓㄸㅓㅎㅏㄴ</w>": 3788,
      "ㅇㅗㄻ": 3789,
      "ㅈㅏㄹㅣㄹㅡㄹ</w>": 3790,
      "ㅇㅏㄴㅣㄱㅗ</w>": 3791,
      "ㅅㅐㅇㄱㅏㄱㅎㅏㅂㄴㅣㄷㅏ</w>": 3792,
      "ㅇㅣㅇㅓㅆㅅㅡㅂㄴㅣㄷㅏ</w>": 3793,
      "ㅂㅡㄹㅐㄴㄷㅡ": 3794,
      "ㅂㅏㄱㅁㅜㄹ": 3795,
      "ㅇㅕㅇㄱㅜㄱ</w>": 3796,
      "ㅊㅣㄱ</w>": 3797,
      "ㅇㅓㄹㅣㄴㅇㅣ": 3798,
      "ㅅㅗㅇㅠ": 3799,
      "ㄴㅜㄹㅣ": 3800,
      "ad</w>": 3801,
      "ㄴㅐㅇㅛㅇㅇㅢ</w>": 3802,
      "od": 3803,
      "AP": 3804,
      "ㅂㅓㅅㅡ</w>": 3805,
      "ㅍㅡㄹㄹㅔㅇㅣ</w>": 3806,
      "ㅈㅜㅇㅇㅔㅅㅓ</w>": 3807,
      "ㅎㅔㄹ": 3808,
      "AR": 3809,
      "ㅈㅔㅇㅢ</w>": 3810,
      "ㅇㅓㅂㅁㅜ</w>": 3811,
      "ㅁㅜㄱ": 3812,
      "ㅏㅇㅔ": 3813,
      "ㄹㄲㅏ</w>": 3814,
      "ㅌㅡㄹㅗ</w>": 3815,
      "ㅅㅏㅇㄷㅏㅁ</w>": 3816,
      "ㅋㅏㄷㅡ": 3817,
      "ㅇㅕㄱㅣ</w>": 3818,
      "ㄲㅡㅁ": 3819,
      "ㅅㅜㄱㅂㅏㄱ</w>": 3820,
      "(?)</w>": 3821,
      "ㄴㅏㄹㅏ</w>": 3822,
      "22</w>": 3823,
      "ㅊㅚㅅㅗ": 3824,
      "ㄱㅗㅇㅎㅏㅇ</w>": 3825,
      "ㅌㅡㄹㅓㅁ": 3826,
      "ㄱㅡㄱㅓㅅㅇㅣ</w>": 3827,
      "ㅎㅐㅇㅅㅏ</w>": 3828,
      "ia</w>": 3829,
      "ㅎㅏㅁㅇㅡㄹㅗㅆㅓ</w>": 3830,
      "ㅎㅕㄴㅎㅘㅇ</w>": 3831,
      "ㅂㅡㄹㄹㅗㄱㅡ": 3832,
      "ㅇㅣㄱㅓㄴ</w>": 3833,
      "ㅇㅣㄴㅊㅓㄴ": 3834,
      "ㅌㅏㄱ</w>": 3835,
      "ㅅㅡㅌㅔㅇㅣ": 3836,
      "ㅇㅣㅇㅛㅇㅎㅏㄹ</w>": 3837,
      "ㅎㅣㅁㅇㅡㄹ</w>": 3838,
      "ㅈㅓㅎㅢ</w>": 3839,
      "ㅅㅏㅇㅠ": 3840,
      "Ap": 3841,
      "ㄱㅣㄹㅗㄱ</w>": 3842,
      "ㅈㅓㄴㅎㅘㄴ": 3843,
      "ㄷㅔㅇㅣㅌㅓㄹㅡㄹ</w>": 3844,
      "ㄱㅘㅈㅓㅇㅇㅡㄹ</w>": 3845,
      "ㅂㅜㄹㅡ": 3846,
      "ㄷㅐㄴㅡㄴ</w>": 3847,
      "ㄱㅜㄱㅈㅔ</w>": 3848,
      "ㅁㅏㅊㅣ</w>": 3849,
      "ㅂㅏㄷㅈㅣ</w>": 3850,
      "ㅂㅜㅅㅡㅌㅏㅂㅣㅅ</w>": 3851,
      "ㅆㅗ": 3852,
      "ㅈㅣㅁ": 3853,
      "ㅂㅗㄱㅓㄴ": 3854,
      "IC": 3855,
      "ㅁㅏㅊㅏㄴㄱㅏㅈㅣ": 3856,
      "ㅇㅘㄴㅈㅓㄴ": 3857,
      "ㅅㅓㄴㅈㅓㅇ": 3858,
      "ㅂㅣㅇ": 3859,
      "ㅈㅣㅈㅓㄱ": 3860,
      "ㅂㅜㄴㅇㅡㄹ</w>": 3861,
      "ㅜㅁ</w>": 3862,
      "ㅈㅡㄹㄱㅣㄹ</w>": 3863,
      "ㅈㅣㄹㅁㅜㄴ</w>": 3864,
      "ㅅㅏㅎㅏㅇㅇㅡㄹ</w>": 3865,
      "ㅂㅗㅇㅠ</w>": 3866,
      "ㅎㅣㄴ</w>": 3867,
      "ㅂㅡㄹㄹㅐㄱ": 3868,
      "ㅏㄴㄷㅏ</w>": 3869,
      "il</w>": 3870,
      "ㅂㅗㅈㅣ</w>": 3871,
      "ㅅㅗㅈㅐ</w>": 3872,
      "IT</w>": 3873,
      "ㅊㅐㄱㅇㅣㅁㅇㅡㄴ</w>": 3874,
      "ep": 3875,
      "ㄴㅐㄴ</w>": 3876,
      "ㄴㅔㅌㅡㅇㅝㅋㅡ</w>": 3877,
      "Pl": 3878,
      "ㅋㅔㅅ</w>": 3879,
      "ㄱㅡㄴㅕㅇㅢ</w>": 3880,
      "ㄱㅡㄹㅐㅍㅡ</w>": 3881,
      "OS</w>": 3882,
      "ㅊㅏㅁㅅㅓㄱ": 3883,
      "ㅊㅔㄹㅡㄹ</w>": 3884,
      "ㄹㅏㅇ</w>": 3885,
      "ㅊㅣㄹㅛ</w>": 3886,
      "ㅊㅏㅈㅇㅏ</w>": 3887,
      "ㅂㅏㄷㅇㅏㅆㄷㅏ</w>": 3888,
      "ㅈㅏㄱㅅㅓㅇ</w>": 3889,
      "ㅅㅣㄱㅔ": 3890,
      "ㅁㅗㄱㅇㅡㄹ</w>": 3891,
      "ㅇㅕㄴㅅㅗㄱ</w>": 3892,
      "ㄱㅚㅇㅈㅏㅇ": 3893,
      "ㅅㅜㅅㅏㅇ": 3894,
      "ㅇㅣㄴㅌㅓㅂㅠ</w>": 3895,
      "ㄱㅕㅇㅜㄹ": 3896,
      "ㅌㅜㄹ": 3897,
      "as</w>": 3898,
      "ㅇㅣㄹㄲㅏ</w>": 3899,
      "ㅎㅘㄷㅚㄴ</w>": 3900,
      "ㄱㅡㄱㅔ</w>": 3901,
      "ㅇㅕㄹㅡㅁ": 3902,
      "ㅇㅜㅅㅡㅇ": 3903,
      "ㅇㅏㄶㄴㅡㄴ": 3904,
      "ㅇㅣㅆㅇㅡㄹㄲㅏ</w>": 3905,
      "ㅊㅏㅈㅣ": 3906,
      "ㅎㅏㅅㅕ": 3907,
      "ㅌㅏㄹㅗ</w>": 3908,
      "ㄷㅐㅅㅏㅇㅇㅡㄹㅗ</w>": 3909,
      "ㅇㅘㄴㅈㅓㄴㅎㅣ</w>": 3910,
      "ew</w>": 3911,
      "ㄱㅗㅇㄱㅏㄴ</w>": 3912,
      "Window": 3913,
      "Ad": 3914,
      "of": 3915,
      "ㅅㅐㄴ": 3916,
      "ㄹㅑㄱ": 3917,
      "PC</w>": 3918,
      "ㅈㅣㅇㅘ</w>": 3919,
      "ㅇㅘㅇㅢ</w>": 3920,
      "ㅈㅗㅇㄱㅛ": 3921,
      "ㅊㅡㄱㅈㅓㅇ": 3922,
      "ㅊㅔㅇㅢ</w>": 3923,
      "ㅅㅏㄲㅏㅅㅣ</w>": 3924,
      "ㅂㅓㅂㅇㅢ</w>": 3925,
      "ㄱㅘㄴㅇㅣ</w>": 3926,
      "ㅈㅣㅂㅇㅔㅅㅓ</w>": 3927,
      "ㄱㅏㄴㅡㅇㅅㅓㅇㅇㅣ</w>": 3928,
      "ㄱㅘㅇㅕㄴ</w>": 3929,
      "ㄴㅓ</w>": 3930,
      "ㅇㅓㄱㅏ</w>": 3931,
      "ㅍㅏㅇㅏㄱ": 3932,
      "ㅊㅔㅇㅣ": 3933,
      "ㅁㅜㄴㅎㅏㄱ": 3934,
      "ㅅㅓㄹㄱㅖ": 3935,
      "ㅊㅡㄱ</w>": 3936,
      "ㅂㅠ": 3937,
      "ㅇㅣㄴㅅㅏ": 3938,
      "ㄱㅓㅅㅇㅣㄹㅏㄱㅗ</w>": 3939,
      "ㅅㅣㅋㅣㄹ</w>": 3940,
      "ㅌㅗㅇㅎㅏㅇㅕ</w>": 3941,
      "ㅉㅏㄹ": 3942,
      "ㅇㅖㅇㅛ</w>": 3943,
      "ㅇㅕㅎㅐㅇㅇㅡㄹ</w>": 3944,
      "ㄷㅐㅂㅜㅂㅜㄴㅇㅢ</w>": 3945,
      "ㅍㅣㄹ</w>": 3946,
      "ㅂㅔㅌㅡ": 3947,
      "ㄱㅏㄴㄷㅏ</w>": 3948,
      "ㄷㅜㄴ</w>": 3949,
      "ㅁㅜㄴㅎㅏㄱ</w>": 3950,
      "ㅈㅡㅂㅣ": 3951,
      "ㅈㅣㄱㅜ": 3952,
      "ㄷㅏㄴㅊㅔ</w>": 3953,
      "ㄱㅏㅇㅎㅏㄴ</w>": 3954,
      "ㅇㅣㅂㅇㅡㄹ</w>": 3955,
      "um</w>": 3956,
      "ㄹㅣㅂㅠ": 3957,
      "ㄱㅡㄹㅣㅁ</w>": 3958,
      "ㄴㅏㄷㅗ</w>": 3959,
      "ㅌㅣㅂㅡ</w>": 3960,
      "ㅈㅓㅇㅅㅏㅇㅎㅚ": 3961,
      "ㄱㅗㄱㅐㄱㅅㅔㄴㅌㅓ</w>": 3962,
      "ㅇㅏㄴㅣ</w>": 3963,
      "ㅇㅓㄹㅣㄴㅇㅣ</w>": 3964,
      "ㅁㅓㄹㅣ": 3965,
      "Con": 3966,
      "ㅇㅏㄴㄷㅡㄹㅗ": 3967,
      "ㄱㅏㅇㄹㅕㄱ": 3968,
      "ㅂㅜㅈㅓㅇ": 3969,
      "ㅅㅐㄹㅗ</w>": 3970,
      "TAG</w>": 3971,
      "ㄸㅏㄹㅗ</w>": 3972,
      "ㄸㅡㄱㅓㅇㅜㄴ</w>": 3973,
      "ㄹㅣㄷㅓ": 3974,
      "sp": 3975,
      "ㄱㅡㄷㅗㅇㅇㅏㄴ</w>": 3976,
      "ㅎㅕㄱㅅㅣㄴ": 3977,
      "ㄱㅣㄱㅣ</w>": 3978,
      "ㄱㅓㄴㄱㅏㅇ</w>": 3979,
      "ㅊㅔㅇㅠㄱ": 3980,
      "ㄴㅗㄹㅇㅣ": 3981,
      "ㅅㅏㅇㅇㅔ</w>": 3982,
      "ㅉㅗㄱㅇㅡㄹㅗ</w>": 3983,
      "ㄹㅏㅁㅕㄴ</w>": 3984,
      "ㅂㅜㄴㅁㅕㅇ": 3985,
      "2ㅊㅏ</w>": 3986,
      "ㅅㅙ": 3987,
      "ㅊㅏㅇㅣ": 3988,
      "ㄱㅏㅇㅔ</w>": 3989,
      "ㅌㅜㅇㅓ</w>": 3990,
      "ㅆㅏㅇㅜ": 3991,
      "ㄱㅐㅇㅝㄹ": 3992,
      "ㅌㅐㄱㅡ</w>": 3993,
      "ㅅㅟ</w>": 3994,
      "tr": 3995,
      "ㅇㅕㄴㅎㅏㅂ": 3996,
      "ㅇㅘㅇㅣ": 3997,
      "ㅅㅗㄴㅡㄴ</w>": 3998,
      "ㄷㅐㅊㅜㄹ</w>": 3999,
      "xHamster</w>": 4000,
      "ㅈㅓㅁㅈㅓㅁ</w>": 4001,
      "ㅍㅏㅇㅣㄹ": 4002,
      "ㄱㅡㄴㄷㅔ</w>": 4003,
      "ㄴㅜㄱㅜㄴㅏ</w>": 4004,
      "Tub": 4005,
      "ㄴㅏㅅㅓ</w>": 4006,
      "ㅊㅣㄴㅈㅓㄹ": 4007,
      "03</w>": 4008,
      "ㅅㅓㅇㅈㅏㅇ</w>": 4009,
      "ㅇㅣㄴㅈㅣ": 4010,
      "ㅂㅕㄴㅎㅘㄱㅏ</w>": 4011,
      "ㅊㅐㅁ": 4012,
      "ㅇㅠㄹㅓㅂ</w>": 4013,
      "Porn": 4014,
      "ㅅㅗㄹㅣ</w>": 4015,
      "ㄷㅏㅂㄴㅣㄷㅏ</w>": 4016,
      "ㄱㅣㄱㅖ</w>": 4017,
      "ㅅㅏㄹㅏㅇㅇㅡㄹ</w>": 4018,
      "ㅇㅏㄹㄱㅔ</w>": 4019,
      "ㅅㅔㄷㅐ</w>": 4020,
      "ㅅㅜㄹㅗ</w>": 4021,
      "tion</w>": 4022,
      "ㅌㅗㄹㅗㄴ": 4023,
      "ㄴㅏㅁㅜ</w>": 4024,
      "ㄱㅏㅈㅕ": 4025,
      "ㄱㅣㅍㅇㅡㄴ</w>": 4026,
      "ㅍㅡㄹㅗㄱㅡㄹㅐㅁ": 4027,
      "ㄱㅓㄷㅡㄴ": 4028,
      "ㅇㅣㅇㅛㅇㅎㅏㅅㅣㄹ</w>": 4029,
      ")'</w>": 4030,
      "for</w>": 4031,
      "ㅃㅗㅂ": 4032,
      "ㅁㅜㄹㅇㅡㄴ</w>": 4033,
      "ㅈㅣㄱㅡㅂ": 4034,
      "ㄷㅐㄹㅣ": 4035,
      "ㄸㅐㅁㅏㄷㅏ</w>": 4036,
      "ㄱㅣㅇㅓㅂㅇㅢ</w>": 4037,
      "ㅇㅏㅇㅣ</w>": 4038,
      "ㄷㅗㅇㅘ": 4039,
      "ㅅㅣㄹㅎㅓㅁ": 4040,
      "ㅎㅜㄴ</w>": 4041,
      "ㅈㅓㅂㅅㅗㄱ": 4042,
      "ㅍㅡㄹㄹㅣㅋㅔㅇㅣ": 4043,
      "ㄷㅐㅅㄱㅡㄹㅇㅡㄹ</w>": 4044,
      "ㅗㄹ</w>": 4045,
      "ㅂㅣㅅㅡㅅㅎㅏㄴ</w>": 4046,
      "23</w>": 4047,
      "ㄱㅓㄷㅡㄴㅇㅛ</w>": 4048,
      "ㄱㅗㅇㅎㅏㅇ": 4049,
      "ㄹㅔㅈㅡㅂㅣ": 4050,
      "ㅆㅡㄱㅗ</w>": 4051,
      "ㅂㅏㅌㅏㅇ": 4052,
      "ㅍㅡㄹㄹㅓㅅㅡ</w>": 4053,
      "ㅇㅣㄴㅌㅔ": 4054,
      "ㅈㅜㅇㅎㅏㄴ</w>": 4055,
      "ㅇㅖㄱㅗ</w>": 4056,
      "ㅇㅣㄹㅇㅡ": 4057,
      "ㅍㅕㄴㄹㅣ": 4058,
      "ㅎㅕㅂㅎㅚ</w>": 4059,
      "ㅇㅡㅇ</w>": 4060,
      "ㅇㅘㅆㄷㅏ</w>": 4061,
      "ㄷㅟㅅ": 4062,
      "ㅂㅕㄴㅎㅘ</w>": 4063,
      "ㅎㅐㄷㅏㅇㄷㅚㄴㅡㄴ</w>": 4064,
      "ㄲㅙ</w>": 4065,
      "Vi": 4066,
      "ㅂㅜㅅㅏㄴ</w>": 4067,
      "ㅇㅏㄴㅇㅔㅅㅓ</w>": 4068,
      "ㄲㅏㅈㅣㄴㅡㄴ</w>": 4069,
      "ㅁㅔㅁ": 4070,
      "ㄷㅏㄴㅇㅡㄹ</w>": 4071,
      "ㅈㅏㅁㅅㅣ</w>": 4072,
      "ㅇㅏㅍㅏㅌㅡ</w>": 4073,
      "ㅎㅏㄹㅅㅜ</w>": 4074,
      "ㅈㅏㅊㅣ": 4075,
      "ㅍㅕㅇㅎㅘ": 4076,
      "ㄹㅗㅅㅓ</w>": 4077,
      "AN": 4078,
      "ㄱㅏㄹㅣ": 4079,
      "ㅇㅓㅈㅣ": 4080,
      "ㅅㅡㄴ": 4081,
      "ㄱㅡㄹㅔㅇㅣ": 4082,
      "ㅂㅏㄹㄷㅏㄹ": 4083,
      "ㅌㅣㅂ</w>": 4084,
      "ㅎㅐㄱㅏ</w>": 4085,
      "ㄱㅐㄱㅏ</w>": 4086,
      "ㅉㅏㄼㅇㅡㄴ</w>": 4087,
      "ㅍㅡㄹㅏㅇㅅㅡ</w>": 4088,
      "ㅅㅗㄷㅡㄱ": 4089,
      "ㅇㅢㅅㅏ": 4090,
      "ㄱㅡㄹㅓㅁㅕㄴ</w>": 4091,
      "ㅌㅏㄹ</w>": 4092,
      "ㅇㅣㄹㅂㅗㄴㅇㅢ</w>": 4093,
      "ㅊㅜㄱㄱㅜ</w>": 4094,
      "ㅏㄱ</w>": 4095,
      "ㅊㅣㅁㄷㅐ</w>": 4096,
      "ㅋㅏㅋㅏㅇ": 4097,
      "ㅓㄹ": 4098,
      "ㅂㅏㄴㅇㅕㅇ": 4099,
      "ㅇㅜㄹㅣㄴㅏㄹㅏ</w>": 4100,
      "ㄷㅡㄷㄱㅗ</w>": 4101,
      "ㅕㅇ</w>": 4102,
      "ㅈㅓㄴㄱㅜㄱ": 4103,
      "ㅇㅒㄱㅣ": 4104,
      "ㅇㅣㄺㄱㅗ</w>": 4105,
      "300": 4106,
      "ㅕㅆㄷㅏ</w>": 4107,
      "ㅈㅓㄴㄱㅜㄱ</w>": 4108,
      "ㅌㅜ</w>": 4109,
      "ㄷㅏㅇㅣㅇㅓ": 4110,
      "ㅇㅜㄴㅡㄴ</w>": 4111,
      "ㅎㅐㄷㅏㅇㅎㅏㄴㅡㄴ</w>": 4112,
      "ㅅㅜㅅ": 4113,
      "ㄱㅗㅅㅇㅣ</w>": 4114,
      "ㅅㅜㄹㅣ": 4115,
      "ㅇㅘㄴㅅㅓㅇ": 4116,
      "ㄹㅣㅈㅗ": 4117,
      "Sp": 4118,
      "ㅎㅚㄴㅡㄴ</w>": 4119,
      "ㅁㅏㄴㅇㅝㄴ": 4120,
      "ㅍㅕㅇ</w>": 4121,
      "ㅅㅡㄹㄹㅏㅇㅣ": 4122,
      "ㅌㅓㄹㅡㄹ</w>": 4123,
      "ㄱㅗㅈㅏ</w>": 4124,
      "ㅎㅕㄴㄷㅐ</w>": 4125,
      "ㅂㅗㄷㅗ": 4126,
      "ㅊㅏㅇㅣㄱㅏ</w>": 4127,
      "ㄴㅐㄱㅗ</w>": 4128,
      "ㄷㅚㄴㄷㅏㄴㅡㄴ</w>": 4129,
      "04</w>": 4130,
      "ㅂㅏㅇㅂㅓㅂㅇㅡㄴ</w>": 4131,
      "ㅂㅣㅎㅐㅇ": 4132,
      "one</w>": 4133,
      "ㅅㅏㅇㅣㅌㅡㅇㅔ</w>": 4134,
      "ot</w>": 4135,
      "ㅇㅡㅁㅕㄴㅅㅓ</w>": 4136,
      "ㅇㅓㄷㅡ": 4137,
      "ㄴㅜㄴ</w>": 4138,
      "ㄱㅜㅇㄱㅡㅁㅎㅏㄴ</w>": 4139,
      "ㄴㅕ</w>": 4140,
      "ㅈㅏㄱㅇㅓㅂ</w>": 4141,
      "ㅅㅏㅇㄷㅏㅇㅎㅣ</w>": 4142,
      "ㅁㅏㅇㅡㄹ</w>": 4143,
      "ㅂㅡㄹㄹㅜ": 4144,
      "ㅈㅏㅂㅗㄴ": 4145,
      "ㅅㅏㄻㅇㅢ</w>": 4146,
      "ㅍㅡㄹㅣㄴ": 4147,
      "ㅇㅝㄹㄷㅡ</w>": 4148,
      "ㅋㅏㅍㅔ</w>": 4149,
      "ㄱㅜㄷ": 4150,
      "5ㅍㅔㅇㅣㅈㅣ</w>": 4151,
      "ㅂㅗㅇ</w>": 4152,
      "ㅎㅏㄴㅂㅓㄴ": 4153,
      "ㄷㅏㄴㅇㅢ</w>": 4154,
      "ㄴㅏㄲ": 4155,
      "ㅈㅣㄱㅇㅓㅂ": 4156,
      "ㅅㅐㅇㅅㅓㅇ": 4157,
      "ㅈㅔ1": 4158,
      "Ex": 4159,
      "ㅂㅕㄴㅎㅘㄹㅡㄹ</w>": 4160,
      "ㅂㅡㄹㅏ": 4161,
      "ㅍㅣㄹㅇㅛ</w>": 4162,
      "ㅂㅏㅇㅎㅑㅇ</w>": 4163,
      "ㅈㅓㄴㅕㄱ</w>": 4164,
      "ㅇㅓㄴㅡㄴ</w>": 4165,
      "ㅇㅓㄹㅣㄴ</w>": 4166,
      "ㄴㅔㅇㅣㅁ": 4167,
      "ㄷㅏㄹㄹㅓ": 4168,
      "ㅅㅔㅅㅏㅇ</w>": 4169,
      "4ㅍㅔㅇㅣㅈㅣ</w>": 4170,
      "ㅁㅕㄴㅇㅡㄹ</w>": 4171,
      "CO": 4172,
      "ㄲㅐㄲㅡ": 4173,
      "ㅈㅜㅁㅜㄴ</w>": 4174,
      "ㅈㅔㅎㅏㄴ</w>": 4175,
      "ㄴㅏㅁㅈㅏ": 4176,
      "ㅇㅣㅇㅢ</w>": 4177,
      "ㅅㅓㅇㄴㅡㅇ": 4178,
      "ass": 4179,
      "ㄱㅐㅊㅚ</w>": 4180,
      "ㅅㅓㄱㅇㅡㄹ</w>": 4181,
      "ㅁㅏㅇㅡㅁ</w>": 4182,
      "ㅍㅐㅋㅣ": 4183,
      "ㄴㅓㄼ": 4184,
      "ㅂㅜㄹㄱㅜㅎㅏㄱㅗ</w>": 4185,
      "ㅗㅎ": 4186,
      "ㅇㅏㅍㅇㅔㅅㅓ</w>": 4187,
      "3ㅍㅔㅇㅣㅈㅣ</w>": 4188,
      "ㄱㅏㅇㄴㅏㅁ": 4189,
      "ㅎㅚㅅㅏ": 4190,
      "ore": 4191,
      "ㅇㅙㄴ": 4192,
      "ㅇㅓㅁㅊㅓㅇ": 4193,
      "ㅈㅣㅋㅕ": 4194,
      "ㄴㅏㅁㄱㅕ": 4195,
      "ㅈㅓㅇㅂㅗㅇㅢ</w>": 4196,
      "ㅁㅗㄱㅈㅓㄱ</w>": 4197,
      "ㅈㅔㄱㅓ": 4198,
      "ㅅㅔㅅ": 4199,
      "ㄱㅣㄷㅗ": 4200,
      "ㅇㅣㅎㅐ</w>": 4201,
      "ㅇㅠㅇㅛㅇ": 4202,
      "Al": 4203,
      "ㄱㅘㄴㅅㅣㅁㅇㅣ</w>": 4204,
      "ㅆㅡㄹ</w>": 4205,
      "ㅊㅔㅋㅡ": 4206,
      "ㅇㅣㅇ": 4207,
      "2015ㄴㅕㄴ</w>": 4208,
      "ㅅㅣㄱㅏㄱ": 4209,
      "ㅗㅅㅓ</w>": 4210,
      "ㅇㅓㅁㅁㅏ": 4211,
      "ㅅㅏㄱㅈㅔㄷㅚㄹ</w>": 4212,
      "ㄴㅏㅁㅂㅜㄱ": 4213,
      "ch</w>": 4214,
      "ㅇㅣㄹㅝ": 4215,
      "ㅇㅓㅁㅓㄴㅣ": 4216,
      "ㅂㅕㅇㅇㅝㄴ": 4217,
      "ㄹㅔㅈㅡㅂㅣㅇㅓㄴ</w>": 4218,
      "ㄱㅏㅆ": 4219,
      "ㅈㅓㄱㅎㅏㅂ": 4220,
      "ㅁㅣㄴㅈㅗㄱ": 4221,
      "ㅇㅘㅅㅓ</w>": 4222,
      "ㅂㅗㅇㅏㄴ</w>": 4223,
      "ㅍㅡㄹㄹㅏ": 4224,
      "ㅁㅣㅇ</w>": 4225,
      "ㄴㅔㅇㅣㅂㅓ</w>": 4226,
      "ㄴㅐㄹ</w>": 4227,
      "ㅂㅜㄴㅇㅑ</w>": 4228,
      "ㅇㅣㄹㅗㄴ</w>": 4229,
      "ㅇㅣㄴㅣ</w>": 4230,
      "ㄹㅣㅈㅣ</w>": 4231,
      "ㄷㅔㅇㅣ</w>": 4232,
      "ㅇㅚㄴ": 4233,
      "ㅍㅡㄹㅗㅅㅔ": 4234,
      "ㄷㅜㄹ</w>": 4235,
      "Windows</w>": 4236,
      "ㅅㅏㄹㄱㅗ</w>": 4237,
      "ㅂㅏㄱㄱㅡㄴ": 4238,
      "ㅂㅐㄱㄱㅘ": 4239,
      "ㅂㅜㅂㅜㄴㅇㅣ</w>": 4240,
      "ㄴㅕㄴㅇㅣ</w>": 4241,
      "ㄱㅕㅇㅇㅕㅇ</w>": 4242,
      "ㅁㅏㄹㅎㅏㄴㅡㄴ</w>": 4243,
      "ID": 4244,
      "ㄷㅗㄱㄹㅣㅂ": 4245,
      "ㅕㄹ": 4246,
      "ㅊㅣㄱㅏ</w>": 4247,
      "AT": 4248,
      "ㅎㅏㄴㅔㅇㅛ</w>": 4249,
      "ㅋㅏㅍㅔ": 4250,
      "HD</w>": 4251,
      "ㅈㅓㅇㄱㅠ": 4252,
      "En": 4253,
      "ㄱㅜㅊㅜㄱ": 4254,
      "ㅈㅏㅊㅔㄱㅏ</w>": 4255,
      "ㅊㅐㅇㅛㅇ": 4256,
      "ㅈㅜㄹㅡㄹ</w>": 4257,
      "Wi": 4258,
      "ㅅㅣㄱㅍㅜㅁ": 4259,
      "ㅌㅜㅈㅏ</w>": 4260,
      "ㅅㅏㄱㅓㄴ</w>": 4261,
      "ㄷㅚㅁㅕㄴㅅㅓ</w>": 4262,
      "ㄱㅗㅇㅈㅣ</w>": 4263,
      "ㅎㅗㅁ</w>": 4264,
      "ㅁㅕㅇㄹㅕㅇ": 4265,
      "ㄴㅓㅁㅜㄴ": 4266,
      "ㅕㄱㅇㅡㄹ</w>": 4267,
      "ㅔㄴㅡㄴ</w>": 4268,
      "ㅁㅏㅋㅔㅌㅣㅇ": 4269,
      "ㅅㅣㄷㅗ": 4270,
      "ㅎㅜㅂㅗ": 4271,
      "ㅋㅡㄹㅣㅇㅔㅇㅣ": 4272,
      "og": 4273,
      "ㄱㅏㅂㅈㅏㄱㅣ</w>": 4274,
      "ㅇㅏㅁㅜㄹㅣ</w>": 4275,
      "ㅂㅐㅍㅗ</w>": 4276,
      "ㄱㅣㄱㅖ": 4277,
      "ㅈㅏㄹㅏㅇ": 4278,
      "ure</w>": 4279,
      "ㄱㅡㄹㅡㄹ</w>": 4280,
      "ㅇㅓㅄㄷㅏㄱㅗ</w>": 4281,
      "ㅍㅏㅇㅝ": 4282,
      "ㄱㅚㅇㅈㅏㅇㅎㅣ</w>": 4283,
      "ㅅㅗㅅㅓㄹ": 4284,
      "ㅈㅏㅇㅅㅗ</w>": 4285,
      "ID</w>": 4286,
      "ㅈㅔㅈㅗ": 4287,
      "ㅇㅣㄴㄷㅗ</w>": 4288,
      "ㅇㅝㄴㄹㅐ</w>": 4289,
      "ㅅㅜㅂㅏㄲㅇㅔ</w>": 4290,
      "ㅂㅐㄱㄱㅘ</w>": 4291,
      "ㄱㅓㄱㅈㅓㅇ": 4292,
      "ㅎㅐㄴㄷㅡ": 4293,
      "ㄺㅇㅡㄴ</w>": 4294,
      "ㅂㅗㅇㅅㅏ": 4295,
      "ㅋㅝ": 4296,
      "ㅇㅓㄹㅕㅇㅜ": 4297,
      "ㅂㅏㄴㅂㅗㄱ": 4298,
      "ㅎㅏㄴㅡㄴㅈㅣ</w>": 4299,
      "ㄷㅡㄹㅏㅁㅏ</w>": 4300,
      "ㅋㅓㅍㅣ</w>": 4301,
      "ㅅㅗㄹㄹㅜ": 4302,
      "ㄱㅓㅂㅜ": 4303,
      "ㅁㅜㅇㅓㅅㅇㅡㄹ</w>": 4304,
      "ㄱㅝㄴㅎㅏㄴ": 4305,
      "ㅎㅖㅌㅐㄱ": 4306,
      "ㅇㅣㅎㅜ": 4307,
      "ㄷㅏㄹㅡㄴ": 4308,
      "ㅇㅔㅅㅓㄴ</w>": 4309,
      "ㅋㅏㅁㅔㄹㅏ</w>": 4310,
      "ㅅㅏㅇㅣㅇㅔ</w>": 4311,
      "ㄱㅓㅁㅅㅏ</w>": 4312,
      "ㄴㅣㅁㅇㅡㄴ</w>": 4313,
      "ㅅㅏㄹㅏㅁㄷㅡㄹㅇㅢ</w>": 4314,
      "ㅊㅚㅈㅓ": 4315,
      "ㅈㅓㄹㄷㅐ</w>": 4316,
      "ㄲㅜㄹ": 4317,
      "ㅅㅡㄹㅓㅂㄱㅔ</w>": 4318,
      "ㅌㅔㅅㅡㅌㅡ</w>": 4319,
      "ㅊㅜㄹㅂㅏㄹ": 4320,
      "str": 4321,
      "ㅅㅗㄹㅣㄹㅡㄹ</w>": 4322,
      "ㅋㅏㅈㅣㄴㅗ": 4323,
      "ㄷㅗㅇㅇㅢ</w>": 4324,
      "ㅅㅗㅌㅗㅇ": 4325,
      "ㄱㅕㅇㅇㅜㄴㅡㄴ</w>": 4326,
      "ㄱㅜㄱㅏ</w>": 4327,
      "!!!</w>": 4328,
      "ㅎㅏㄱㅣㄹㅗ</w>": 4329,
      "ㄱㅣㅊㅗ": 4330,
      "ㄷㅐㅇㅡㅇ": 4331,
      "ㅂㅗㅇㅏㄴ": 4332,
      "ㅇㅚㅇㅔ</w>": 4333,
      "ㅂㅣㄹㅗ": 4334,
      "ㅇㅣㅇㅛㅇㅎㅏㅇㅕ</w>": 4335,
      "ㅂㅜㄴㄹㅠ": 4336,
      "ㅈㅓㄹㅡㄹ</w>": 4337,
      "ㅇㅗㄹㅡㄴ": 4338,
      "ㅎㅏㄴㅏㄴㅣㅁ": 4339,
      "ㅂㅏㄴㅁㅕㄴ</w>": 4340,
      "ㅎㅕㅂㄹㅕㄱ": 4341,
      "ㄴㅏㅌㅏㄴㅐ": 4342,
      "ㅅㅓㅇㄱㅘ": 4343,
      "Par": 4344,
      "ㅁㅕㄹ": 4345,
      "ㅇㅕㅇㅇㅓㅂ": 4346,
      "ㅂㅗㄱㅘㄴ": 4347,
      "ㅇㅗㅍㅡㄴ</w>": 4348,
      "ㅁㅏㄴㄷㅡ": 4349,
      "lu": 4350,
      "ㄷㅙㅆ": 4351,
      "ㅁㅗㄹㅡㄴㅡㄴ</w>": 4352,
      "ㅅㅡㄹㅣ": 4353,
      "ㅌㅡㄹㅣㅂ": 4354,
      "ㅂㅏㅇㅇㅏㄴ</w>": 4355,
      "90": 4356,
      "ㄷㅡㄹㄹㅗ</w>": 4357,
      "ㅂㅣㄷㅣㅇㅗ</w>": 4358,
      "ㅁㅗㄷㅜㅇㅢ</w>": 4359,
      "ㄷㅐㅎㅘ": 4360,
      "ㅂㅣㅍㅏㄴ": 4361,
      "ㅅㅐㅇㄱㅏㄱㅎㅏㄴㅡㄴ</w>": 4362,
      "ㄱㅜㄴㅏ</w>": 4363,
      "ㄱㅡㅇ": 4364,
      "ㄱㅣㄹㅇㅣ</w>": 4365,
      "ㅅㅣㄹㅊㅓㄴ": 4366,
      "ㅇㅓㅇㅜㄹ": 4367,
      "ㄷㅗㄹ</w>": 4368,
      "ㅎㅗㄱㅅㅣ</w>": 4369,
      "ㄱㅡㄴㄹㅗ": 4370,
      "ㅁㅔㄹㅣ": 4371,
      "ㅅㅜㄴㄱㅏㄴ": 4372,
      "net</w>": 4373,
      "LG": 4374,
      "ㅇㅏㄶㄱㅔ</w>": 4375,
      "ㄱㅗㅇㅇㅝㄴ</w>": 4376,
      "ㄴㅔㅅㅇㅢ</w>": 4377,
      "ㅇㅘㄴㄹㅛ": 4378,
      "ㄷㅗㅇㅁㅜㄹ": 4379,
      "ㄱㅘㄴㄱㅖㄹㅡㄹ</w>": 4380,
      "ㄱㅓㅅㅇㅣ": 4381,
      "ㅂㅜㅌㅏㄱㄷㅡㄹㅣㅂㄴㅣㄷㅏ</w>": 4382,
      "ㄱㅜㅈㅗ</w>": 4383,
      "ㅎㅐㅈㅜㄴㅡㄴ</w>": 4384,
      "ㅊㅏㅂㅕㄹ": 4385,
      "ㅎㅏㄴㅌㅔ</w>": 4386,
      "ㅈㅏㅇㅇㅡㄹㅗ</w>": 4387,
      "ㅇㅛㄹㅣ</w>": 4388,
      "ㅊㅏㅇㅇㅓㅂ": 4389,
      "ㅂㅗㅎㅗㄹㅡㄹ</w>": 4390,
      "ㅍㅛㅅㅣㄷㅚㅂㄴㅣㄷㅏ</w>": 4391,
      "ㅇㅗㄴㅡㄹㅇㅡㄴ</w>": 4392,
      "ㄴㅕㄴㅂㅜㅌㅓ</w>": 4393,
      "ㅎㅐㅆㅇㅓㅇㅛ</w>": 4394,
      "ㄱㅣㅈㅏ": 4395,
      "ㅅㅜㅇㅓㅂ": 4396,
      "ㅛㅇ</w>": 4397,
      "ㅍㅗㅌㅡ": 4398,
      "ㅇㅣㅇㅛㅇㅎㅐ</w>": 4399,
      "ㄱㅟㅎㅏ": 4400,
      "ㅇㅢㅇㅝㄴ</w>": 4401,
      "ㅅㅜㄴㄱㅏㄴ</w>": 4402,
      "ㄱㅛㅅㅜ": 4403,
      "ㅂㅏㄷㅇㅏㄷㅡㄹ": 4404,
      "ㅅㅣㄴㄱㅕㅇ": 4405,
      "ㅈㅗㄹㅇㅓㅂ": 4406,
      "ㅎㅚㄱㅏ</w>": 4407,
      "ㄱㅓㄹㅐ</w>": 4408,
      "SS": 4409,
      "ㄸㅡㄹ": 4410,
      "ㄷㅐㄱㅜ": 4411,
      "ㅈㅏㄹㅂㅗㄱㅗ</w>": 4412,
      "ㅇㅏㅁㅏ</w>": 4413,
      "ation": 4414,
      "ㅈㅣㅇㅕㄱㅇㅢ</w>": 4415,
      "ㅂㅡㄹㄹㅣ": 4416,
      "35": 4417,
      "ㅁㅏㅅㅏㅈㅣ</w>": 4418,
      "ㄷㅚ</w>": 4419,
      "ㅈㅏㄹㅛㅇㅔ</w>": 4420,
      "1ㅁㅜㄴㅇㅢ": 4421,
      "jp": 4422,
      "ㅁㅜㄴㅈㅐㅇㅣㄴ</w>": 4423,
      "ㅎㅐㄹㅡㄹ</w>": 4424,
      "ㅂㅓㄴㅉㅐ": 4425,
      "ㅈㅗㅎㅇㅡㄴ": 4426,
      "ㅈㅏㅂㄱㅗ</w>": 4427,
      "ㄲㅜㅈㅜㄴ": 4428,
      "ㅂㅓㅁㅈㅚ": 4429,
      "ㅅㅣㄹㅡㄹ</w>": 4430,
      "ㅅㅐㅇㄱㅏㄱㅎㅏㄴㄷㅏ</w>": 4431,
      "24ㅅㅣㄱㅏㄴ</w>": 4432,
      "32": 4433,
      "ㅕㄴㅅㅓㄷㅗ</w>": 4434,
      "ㅅㅔㄱㅣ</w>": 4435,
      "ㅈㅣㅂㄴㅣㄷㅏ</w>": 4436,
      "ㅈㅔㄴ": 4437,
      "ㅇㅟㅇㅔㅅㅓ</w>": 4438,
      "ㅅㅓㅇㅇㅣㄴ": 4439,
      "ㅂㅜㄹㄹㅓ": 4440,
      "ㅁㅕㄴㅇㅔㅅㅓ</w>": 4441,
      "ㅇㅏㄶㅇㅡㄹㄲㅏ</w>": 4442,
      "LED</w>": 4443,
      "ㅋㅐㄴㅏ": 4444,
      "ㅎㅐㅇㅂㅗㄱㅎㅏㄴ</w>": 4445,
      "ㄸㅐㄲㅏㅈㅣ</w>": 4446,
      "ㅇㅣㄴㄱㅏㄴㅇㅢ</w>": 4447,
      "ㄸㅓㄴㅏ": 4448,
      "ㄱㅗㅇㅛㅇ": 4449,
      "ㅅㅣㅁㄱㅏㄱ": 4450,
      "OR": 4451,
      "ㅈㅜㅇㄴㅕㄴ": 4452,
      "est</w>": 4453,
      "ㄸㅐㅁㅜㄴㅇㅣㅂㄴㅣㄷㅏ</w>": 4454,
      "ㄷㅗㅇㅣㅂ": 4455,
      "ㄴㅏㅁㅇㅡㄴ</w>": 4456,
      "ㅆㅏㄴ</w>": 4457,
      "ㅇㅖㅂㅏㅇ": 4458,
      "ㅂㅡㄹㅜ</w>": 4459,
      "ㅇㅏㅍㅅㅓ</w>": 4460,
      "ㅇㅣㄹㅈㅓㅇ": 4461,
      "ㅅㅣㄱㅏㄴㅇㅡㄴ</w>": 4462,
      "ㅇㅓㅆㄱㅗ</w>": 4463,
      "ㄱㅗㄹ</w>": 4464,
      "ㄱㅗㄴ</w>": 4465,
      "ㄹㅗㄹㅡㄹ</w>": 4466,
      "ㄱㅡㄹㅣㅁ": 4467,
      "ㄷㅡㅇㅔㅅㅓ</w>": 4468,
      "ㄱㅏㅅㅏㅇ": 4469,
      "ㄱㅕㅇㅎㅓㅁㅇㅡㄹ</w>": 4470,
      "if": 4471,
      "ㅂㅏㅁ": 4472,
      "ㅈㅔㄴㅡㄴ</w>": 4473,
      "ㅊㅓㅇㅡㅁㅇㅡㄹㅗ</w>": 4474,
      "ㅇㅏㄹㅣ": 4475,
      "ㄱㅘㅎㅏㄱ</w>": 4476,
      "ㅈㅣㅂㅇㅡㄹ</w>": 4477,
      "ㄷㅡㅇㅔ</w>": 4478,
      "ㅎㅏㄹㄲㅏ</w>": 4479,
      "ㄱㅇㅣ</w>": 4480,
      "ㅊㅓㄱ</w>": 4481,
      "ㄱㅟㅇㅕㅇ": 4482,
      "ㅃㅏ</w>": 4483,
      "ㄸㅐㄱㅏ</w>": 4484,
      "ㄱㅣㅇㅕ": 4485,
      "ㅂㅏㅇㅁㅜㄴ</w>": 4486,
      "ㄹㅏㅇㅣㄴ": 4487,
      "ㅇㅏㅇㅣㄷㅣ</w>": 4488,
      "ㄱㅐㄴㅕㅁ</w>": 4489,
      "ㅇㅣㄱㅓㅅㅇㅣ</w>": 4490,
      "ㅎㅏㄱㅔㅆㄷㅏ</w>": 4491,
      "ㅎㅐㅇㅇㅟ</w>": 4492,
      "ㅎㅕㄴㅈㅣ": 4493,
      "ㅎㅘㄱㅈㅏㅇ": 4494,
      "ㅓㄴ</w>": 4495,
      "ㄹㅗㅂㅗ": 4496,
      "ㅈㅔㅁㅗㄱ</w>": 4497,
      "ㅅㅣㄴㅁㅜㄴ": 4498,
      "ㅋㅗㄴ</w>": 4499,
      "ㄱㅏㅇㅑ</w>": 4500,
      "ㄷㅚㅇㅓㅆㄱㅗ</w>": 4501,
      "ㅅㅏㅇㅅㅔ": 4502,
      "ㅊㅏㄱㅏ</w>": 4503,
      "ㄱㅣㅅㅜㄹㅇㅡㄹ</w>": 4504,
      "ㅈㅓㄴㅂㅏㄴ": 4505,
      "ㄴㅗㅇㅣㄴ": 4506,
      "ㅊㅠ": 4507,
      "ㅇㅛㄱㅅㅓㄹ</w>": 4508,
      "ㅋㅣㄹㄹㅗㅁㅣㅌㅓ": 4509,
      "26</w>": 4510,
      "ㅅㅜㄱㅎㅏㄴ</w>": 4511,
      "ㅇㅣㄴㄷㅗ": 4512,
      "ㅇㅢㅈㅗㄴ": 4513,
      "ph": 4514,
      "ㅎㅐㅍㅣㅋㅐㅁㅍㅓ": 4515,
      "ㅇㅓㅁ</w>": 4516,
      "ㅈㅡㅇㅁㅕㅇ": 4517,
      "ㅅㅏㅁㅅㅓㅇ</w>": 4518,
      "5ㅇㅣㄹ</w>": 4519,
      "ㄱㅏㄱㅔ</w>": 4520,
      "ㅎㅘㄱㅂㅗ": 4521,
      "ㅎㅏㄹㅇㅣㄴ</w>": 4522,
      "ㄷㅔㄷㅗ</w>": 4523,
      "ㅊㅓㅇㄴㅕㄴ": 4524,
      "ㅅㅕㄹ</w>": 4525,
      "ㅂㅜㅂㅜㄴㅇㅡㄹ</w>": 4526,
      "ㅂㅗㄱㅈㅏㅂ": 4527,
      "ㅁㅜㅅㅓㄴ</w>": 4528,
      "ㅍㅡㄹㅣㅁㅣ": 4529,
      "ㅇㅓㄷㅇㅡㄹ</w>": 4530,
      "7ㅇㅣㄹ</w>": 4531,
      "ㅅㅜㅈㅣㅂ</w>": 4532,
      "ㅇㅣㄴㅈㅡㅇ</w>": 4533,
      "ㅈㅣㄱㅔ</w>": 4534,
      "ㅇㅗㅍㅡㄴ": 4535,
      "ㅁㅝㄴㄱㅏ</w>": 4536,
      "ㅍㅣㄹㅇㅛㅎㅏㄷㅏ</w>": 4537,
      "2ㄱㅐ</w>": 4538,
      "AM": 4539,
      "ㅇㅏㅈㅜ": 4540,
      "ㅈㅓㄱㄱㅡㄱ": 4541,
      "ㅅㅗㅍㅡㅌㅡㅇㅞㅇㅓ</w>": 4542,
      "ㅇㅟㄱㅏ</w>": 4543,
      "ㄴㅗㅌㅡ": 4544,
      "ㅈㅏㄷㅗㅇㅇㅡㄹㅗ</w>": 4545,
      "ㅅㅓㄴㅁㅜㄹ": 4546,
      "AC": 4547,
      "ㅇㅘㅆ": 4548,
      "ㅈㅣㄴㅊㅜㄹ": 4549,
      "ㄷㅐㅈㅓㄴ</w>": 4550,
      "ㅈㅣㄱㅈㅏㅇ": 4551,
      "ps</w>": 4552,
      "ㅂㅣㅇㅛㅇ</w>": 4553,
      "ㅇㅏㅈㅣㄱㄷㅗ</w>": 4554,
      "ㅅㅡㅌㅓㄴ": 4555,
      "te": 4556,
      "ㅆㅡㄴ</w>": 4557,
      "ㅇㅓㄴㅡ": 4558,
      "ㅈㅏㄱㄷㅗㅇ": 4559,
      "ㅇㅛㄱ</w>": 4560,
      "NE": 4561,
      "ㅅㅣㄱㅇㅢ</w>": 4562,
      "ㄴㅐㅇㅔㅅㅓ</w>": 4563,
      "ㅅㅡㅇㅔㅅㅓ</w>": 4564,
      "ㅇㅓㄴㅈㅔ</w>": 4565,
      "ㅈㅣㅇㅓ</w>": 4566,
      "ㅅㅏㅁㅏㅇ": 4567,
      "ㄱㅔㅇㅣㅁㅇㅡㄹ</w>": 4568,
      "ㄷㅐㅊㅔ": 4569,
      "ㅈㅐㄹㅡㄹ</w>": 4570,
      "ㅇㅑㅇㅚ</w>": 4571,
      "ㅍㅣㄴ": 4572,
      "ㅋㅗㄴㅌㅔㄴㅊㅡ": 4573,
      "ㅇㅝㄹㅇㅔ</w>": 4574,
      "Porn</w>": 4575,
      "ㅘㄴ": 4576,
      "ㄱㅘㄴㄹㅣㅈㅏ</w>": 4577,
      "ㅅㅗㅇㅢ</w>": 4578,
      "ㅁㅕㄴㅇㅔ</w>": 4579,
      "ㄷㅡㅅ": 4580,
      "ㅎㅏㄱㅈㅓㄱ</w>": 4581,
      "ㅎㅛㄱㅘ</w>": 4582,
      "ㅍㅏㅇㅣ": 4583,
      "ㄴㅗㄹㄹㅏ": 4584,
      "ㄱㅘㄱㅓ</w>": 4585,
      "ㅈㅔㅇㅏㄴ": 4586,
      "ㅅㅏㅇㅛㅇㅎㅏㄱㅗ</w>": 4587,
      "ㄷㅏㅅ": 4588,
      "ㄱㅡㄷㅡㄹㅇㅣ</w>": 4589,
      "ㅇㅣㅁㅔ": 4590,
      "ㅊㅟㅇㅓㅂ": 4591,
      "ㅇㅕㄹㅡㅁ</w>": 4592,
      "ㅁㅏㄴㄷㅡㄹㄱㅗ</w>": 4593,
      "ㄱㅗㅇㅑㅇㅇㅣ</w>": 4594,
      "ㅂㅓㅂㅇㅔ</w>": 4595,
      "ㅂㅣㅁㅣㄹㅂㅓㄴㅎㅗ</w>": 4596,
      "ㄷㅗㅅㅓ</w>": 4597,
      "27</w>": 4598,
      "ㅅㅠㅍㅓ": 4599,
      "ㅇㅣㅈㅔㄴㅡㄴ</w>": 4600,
      "ㄷㅚㄴㄷㅏㄱㅗ</w>": 4601,
      "ㅇㅏㄴㅌㅏ</w>": 4602,
      "ㅇㅠㅎㅕㅇ": 4603,
      "ㅈㅐㄹㅛ": 4604,
      "ㅎㅏㅅㅕㅆ": 4605,
      "ㄷㅐㄷㅏㄴ": 4606,
      "ㄱㅓㅇㅑ</w>": 4607,
      "ㅎㅕㅁ": 4608,
      "ㅇㅣㄱ</w>": 4609,
      "ㅍㅔㅇㅣㄴ</w>": 4610,
      "ㅈㅡㄹㄱㅓㅇㅜㄴ</w>": 4611,
      "ㅇㅠㅁㅕㅇㅎㅏㄴ</w>": 4612,
      "ㅇㅗㄹㄹㅏㅇ": 4613,
      "rip": 4614,
      "ㅅㅏㄷㅏㄹㅣ": 4615,
      "jpg</w>": 4616,
      "ㄱㅗㅅㅇㅡㄹ</w>": 4617,
      "ㅅㅣㅂㅅㅣㅇㅗ</w>": 4618,
      "ㅎㅏㄴㄷㅔ</w>": 4619,
      "ㅊㅐㅇ": 4620,
      "ㄱㅣㅎㅚㄹㅡㄹ</w>": 4621,
      "ㅈㅓㅇㅇㅐㄱ</w>": 4622,
      "ㅂㅕㄴㅎㅗ": 4623,
      "ter</w>": 4624,
      "ㅂㅏㅂ</w>": 4625,
      "ㅈㅜㅅㅣㄴ</w>": 4626,
      "ㅉㅡㅁ</w>": 4627,
      "ㅂㅜㄴㅇㅢ</w>": 4628,
      "ㄷㅗㅊㅏㄱ</w>": 4629,
      "yst": 4630,
      "ㅂㅜㄹㅇㅏㄴ": 4631,
      "ㄱㅏㅇㅇㅢ</w>": 4632,
      "ㅂㅗㄱㅈㅣ</w>": 4633,
      "ㅂㅜㄹㅂㅓㅂ</w>": 4634,
      "ㄱㅏㅁㅅㅗ": 4635,
      "ㅎㅣㅁㄷㅡㄴ</w>": 4636,
      "ㅎㅐㅆㅇㅡㅁㅕ</w>": 4637,
      "ㄲㅗㅁ": 4638,
      "ㅏㅇㅔ</w>": 4639,
      "ㅅㅡㅌㅗㄹㅣ</w>": 4640,
      "ㅎㅘㄹㅇㅛㅇ</w>": 4641,
      "ㅅㅗㅇㅔㅅㅓ</w>": 4642,
      "ㅊㅡㄹㅡㄹ</w>": 4643,
      "ㅅㅓㅇㅜㄹㅅㅣ</w>": 4644,
      "ㅂㅗㅇㅣㅈㅣ</w>": 4645,
      "ㄹㅓㅅㅣㅇㅏ</w>": 4646,
      "ㅇㅣㄹㅂㅏㄴㅈㅓㄱㅇㅡㄹㅗ</w>": 4647,
      "ㅁㅗㅁㅇㅡㄹ</w>": 4648,
      "ㅊㅐㅁㅍㅣ": 4649,
      "ㅅㅣㄴㄱㅗ</w>": 4650,
      "ㅋㅗㄹㅣ": 4651,
      "ㅎㅕㅇㅅㅓㅇ": 4652,
      "ㅌㅟ": 4653,
      "ook</w>": 4654,
      "ㅇㅣㄴㅐ</w>": 4655,
      "ㅅㅔㅂ": 4656,
      "ㅎㅡㅇㅁㅣ": 4657,
      "ㅈㅔ2": 4658,
      "ㅎㅛㄱㅘㄹㅡㄹ</w>": 4659,
      "ㅁㅏㅅㅈㅣㅂ</w>": 4660,
      "ㄱㅡㄹㅇㅡㄴ</w>": 4661,
      "ㅇㅏㄴㅐ</w>": 4662,
      "are</w>": 4663,
      "ㅁㅗㅇㅢ</w>": 4664,
      "ㅎㅏㄷㅓㄹㅏㄷㅗ</w>": 4665,
      "ㄴㅡㄲㅣㄹ</w>": 4666,
      "ㅇㅣㅇㅠㄱㅏ</w>": 4667,
      "ㅅㅣㅋㅕ</w>": 4668,
      "ㅎㅏㅅㅣㄴ": 4669,
      "ㅎㅗㅁㄹㅓㄴ</w>": 4670,
      "ㅁㅜㄹㄹㅣ": 4671,
      "ㅂㅏㅇㅂㅓㅂㅇㅡㄹㅗ</w>": 4672,
      "ㅋㅗㄹㅣㅇㅏ</w>": 4673,
      "Com": 4674,
      "ㅍㅜㄹ</w>": 4675,
      "ㄱㅕㅇㄱㅣㄷㅗ</w>": 4676,
      "ㅅㅏㄹㅏㅇㅎㅏㄴㅡㄴ</w>": 4677,
      "id</w>": 4678,
      "ㅅㅔㄹㅡㄹ</w>": 4679,
      "ㅎㅐㄱㅅㅣㅁ": 4680,
      "ㅇㅜㄴㅈㅓㄴ": 4681,
      "ㄴㅐㅇㅛㅇㅇㅣ</w>": 4682,
      "ㅍㅗㄹㅡ": 4683,
      "ㄹㅣㅇㅋㅡ</w>": 4684,
      "ㅅㅏㅇㅓㅂㅇㅡㄹ</w>": 4685,
      "ㄱㅛㅇㅠㄱㅇㅡㄹ</w>": 4686,
      "ㅈㅜㅅㅣ</w>": 4687,
      "ㅈㅏㅁㅕㄴ</w>": 4688,
      "ㅇㅣㄲㅡㄹ": 4689,
      "ㅈㅓㄱㅇㅛㅇ</w>": 4690,
      "ㄹㅣㄱㅡ": 4691,
      "ㅂㅜㅇㅕ": 4692,
      "ㅇㅓㄷㅜ": 4693,
      "ㄷㅏㄹㄹㅕ": 4694,
      "ㅃㅡ": 4695,
      "ㅈㅓㅇㄹㅣ</w>": 4696,
      "ㅋㅡㄹㄹㅓㅂ</w>": 4697,
      "ㅌㅐㅇㅑㅇ</w>": 4698,
      "ㄴㅏㅈㅜㅇㅇㅔ</w>": 4699,
      "ㄱㅓㅅㅇㅣㄴㄱㅏ</w>": 4700,
      "3ㅎㅚ": 4701,
      "ㄱㅏㄴㅡㅇㅎㅏㄷㅏ</w>": 4702,
      "ㅇㅑㄱㄱㅏㄴ</w>": 4703,
      "ㅅㅐㅇㅎㅘㄹㅇㅡㄹ</w>": 4704,
      "ㄹㅗㅅㄷㅔ": 4705,
      "ㅁㅏㄹㅇㅣㄷㅏ</w>": 4706,
      "ㅎㅏㄹㅕㄴㅡㄴ</w>": 4707,
      "Serv": 4708,
      "king</w>": 4709,
      "ㅅㅏㅎㅚㅇㅢ</w>": 4710,
      "ory</w>": 4711,
      "ㅅㅗㅅㅕㄹㄱㅡㄹㅐㅍㅡ</w>": 4712,
      "SM": 4713,
      "3D</w>": 4714,
      "ㅅㅐㅇㄱㅣ": 4715,
      "me": 4716,
      "ㅇㅏㅁㅜ</w>": 4717,
      "ㅊㅔㄱㅖ": 4718,
      "ㅊㅟㅅㅗ</w>": 4719,
      "ㅂㅣㅂㅏㅇ": 4720,
      "ㅂㅏㄴㄷㅐ": 4721,
      "ㄱㅔㅆㄷㅏㄴㅡㄴ</w>": 4722,
      "ics</w>": 4723,
      "ㅈㅓㄴㄱㅣ</w>": 4724,
      "ㅇㅣㄱㅇㅡㄹ</w>": 4725,
      "ㅅㅡㅋㅡ": 4726,
      "ㄱㅜㅂㅜㄴ": 4727,
      "am</w>": 4728,
      "ㅂㅜㄷㅗㅇㅅㅏㄴ</w>": 4729,
      "ㅇㅗㄹㄹㅕ": 4730,
      "ㅁㅕㅇㅇㅡㄴ</w>": 4731,
      "ㅍㅣㅅㅡ</w>": 4732,
      "ㅋㅓㅂ": 4733,
      "ㅂㄴㅣㄷㅏㅁㅏㄴ</w>": 4734,
      "th</w>": 4735,
      "ㅈㅡㅇㅇㅡㄹ</w>": 4736,
      "Un": 4737,
      "IP": 4738,
      "ㅅㅔㅅㅏㅇㅇㅡㄹ</w>": 4739,
      "ㄱㅡㄴㅁㅜ": 4740,
      "31": 4741,
      "ㅍㅛㅈㅜㄴ": 4742,
      "ㅊㅚㅅㅣㄴ</w>": 4743,
      "ㅁㅏㄹㅎㅏㄴㄷㅏ</w>": 4744,
      "ㄷㅡㄹㅇㅓㅆㄷㅏ</w>": 4745,
      "ㅇㅟㅋㅣㅂㅐㄱㄱㅘ</w>": 4746,
      "ㅎㅏㄱㄴㅕㄴ</w>": 4747,
      "ㅅㅡㅋㅔ": 4748,
      "ㄷㅚㄴㅡㄴㄷㅔ</w>": 4749,
      "ㅈㅜㅁㅗㄱ": 4750,
      "ㅈㅗㅁ": 4751,
      "ㅇㅓㄴㅇㅓ</w>": 4752,
      "ㅊㅐㅇㅛㅇ</w>": 4753,
      "oun": 4754,
      "ㅌㅡㄴㅓ": 4755,
      "ㅅㅏㅇㅌㅐ</w>": 4756,
      "ㄸㅢ": 4757,
      "ㅎㅗㅇㅂㅗ": 4758,
      "ㄱㅕㅇㄱㅣㄹㅡㄹ</w>": 4759,
      "ㅅㅗㄴㅇㅡㄹ</w>": 4760,
      "ㅋㅏㅌㅔㄱㅗㄹㅣㅇㅢ</w>": 4761,
      "ㅅㅡㅁㅏㅌㅡㅍㅗㄴ</w>": 4762,
      "ㄱㅜㄱㅡㄹ</w>": 4763,
      "ㅇㅔㄴㅓㅈㅣ</w>": 4764,
      "ㅊㅜㄹㅍㅏㄴ": 4765,
      "ㄴㅏㅁㅓ": 4766,
      "ㅇㅣㅇㅠㄹㅗ</w>": 4767,
      "ㅇㅕㄴㅅㅡㅂ": 4768,
      "ㄸㅐㄷㅗ</w>": 4769,
      "Goo": 4770,
      "ㄷㅐㅊㅔ</w>": 4771,
      "ㄷㅓㄹ": 4772,
      "ㄱㅗㅌㅗㅇ": 4773,
      "ㅂㅓㅂㄹㅠㄹ": 4774,
      "ㄲㅏㅁ": 4775,
      "ㅅㅓㄹㄹㅣㅂ": 4776,
      "ㅎㅚㅅㅏㅇㅢ</w>": 4777,
      "ㅍㅔㅇㅣㅅㅡㅂㅜㄱ</w>": 4778,
      "ㅇㅗㄹㅠ": 4779,
      "ㅁㅐㅈ": 4780,
      "ㅁㅜㅇㅕㄱ": 4781,
      "ㅇㅗㅅ": 4782,
      "ㅇㅠㄹㅣ": 4783,
      "ㄷㅔㄴ": 4784,
      "ㄱㅡㄹㅓㅁㅡㄹㅗ</w>": 4785,
      "ㅅㅐㅁ": 4786,
      "ㅇㅛㅇㅑㄱ": 4787,
      "ㅂㅏㅇㅊㅣㅁㅇㅔ</w>": 4788,
      "ㅅㅜㄴㅇㅟ</w>": 4789,
      "ㄲㅗㅊ</w>": 4790,
      "ㅇㅏㅇㅣㅍㅗㄴ</w>": 4791,
      "ㄱㅏㅁㄷㅗㄱ</w>": 4792,
      "ㅇㅏㅍㅡ": 4793,
      "ㅇㅠㅇㅣㄹ": 4794,
      "ㅅㅏㅇㅣㅌㅡㄹㅡㄹ</w>": 4795,
      "ㄲㅔㅅㅓㄴㅡㄴ</w>": 4796,
      "2014ㄴㅕㄴ</w>": 4797,
      "ㅁㅗㅅㅡㅂㅇㅣ</w>": 4798,
      "ㅎㅑㅇㅇㅣ</w>": 4799,
      "ㅅㅣㄹㅅㅣㄱㅏㄴ</w>": 4800,
      "ㅈㅓㄹㅕㅁㅎㅏㄴ</w>": 4801,
      "ㄱㅗㅅㅇㅡㄴ</w>": 4802,
      "ㅇㅣㅇㅑ</w>": 4803,
      "ㄱㅐㄴㅕㅁ": 4804,
      "ㅅㅓㄴㅇㅡㄴ</w>": 4805,
      "ㅅㅏㅇㅣㅌㅡㅇㅢ</w>": 4806,
      "ㅍㅡㄹㅔㅇㅣ": 4807,
      "ㅎㅗㅁㄹㅓㄴ": 4808,
      "ㅎㅐㅅㅓㄱ": 4809,
      "ㅈㅓㅁㅇㅡㄹㅗ</w>": 4810,
      "ㅈㅗㄱㅓㄴㅇㅣ</w>": 4811,
      "Ar": 4812,
      "ㄷㅡㄹㅏㅇㅣㅂ": 4813,
      "ㅇㅣㅂㅓㄴㅇㅔ</w>": 4814,
      "ㄱㅏㅇㅇㅝㄴ": 4815,
      "ㅅㅓㅅ</w>": 4816,
      "ㄷㅓㅂㅜㄹㅇㅓ</w>": 4817,
      "ㄱㅖㅇㅑㄱ</w>": 4818,
      "ㄱㅛㅎㅘㄴ</w>": 4819,
      "ㄱㅠㅁㅗ": 4820,
      "ㅊㅏㅈㄴㅡㄴ</w>": 4821,
      "TE": 4822,
      "ㄷㅐㅌㅗㅇㄹㅕㅇㅇㅣ</w>": 4823,
      "ㅁㅗㄱㅈㅓㄱㅇㅡㄹㅗ</w>": 4824,
      "ㅂㅔㄹ</w>": 4825,
      "ㄷㅔㅇㅣㅌㅓㅂㅔㅇㅣ": 4826,
      "ㅎㅏㄷㅏㄱㅏ</w>": 4827,
      "28</w>": 4828,
      "ㅇㅓㄴㅏ</w>": 4829,
      "ㅇㅓㄹㅁㅏ</w>": 4830,
      "ㅂㅘㅇㅑ</w>": 4831,
      "ㄷㅏㄹㅜ": 4832,
      "ㅇㅣㄷㅡㄹ</w>": 4833,
      "ㄸㅏㄱ": 4834,
      "ㅁㅓㅁ": 4835,
      "ㅅㅏㅇㅇㅡㄴ</w>": 4836,
      "ㅈㅗㅎㅇㅏㅇㅛ</w>": 4837,
      "ㅈㅏㄴㅕ": 4838,
      "ㅂㅐㄱㄱㅘㅅㅏㅈㅓㄴ</w>": 4839,
      "ㅈㅓㅇㅂㅜㅇㅢ</w>": 4840,
      "6ㅍㅔㅇㅣㅈㅣ</w>": 4841,
      "ㅍㅡㄹㅗ</w>": 4842,
      "ㅁㅗㄷㅜㄱㅏ</w>": 4843,
      "ㄴㅐㅂㅜ</w>": 4844,
      "ㄹㅕㄹ": 4845,
      "ㅅㅓㅇㄱㅕㅇ": 4846,
      "ㅌㅡㄹㅐㄱ": 4847,
      "ㅇㅖㅈㅓㅇㅇㅣㄷㅏ</w>": 4848,
      "mm</w>": 4849,
      "2ㅇㅣㄹ</w>": 4850,
      "se</w>": 4851,
      "ㅌㅏㅇㅣㅁ": 4852,
      "ㅎㅜㄹㄹㅠㅇㅎㅏㄴ</w>": 4853,
      "ㅍㅕㄴㅎㅏㄱㅔ</w>": 4854,
      "ㅂㅅㅡㅂㄴㅣㄷㅏ</w>": 4855,
      "ㅇㅜㄹㅕ": 4856,
      "ㅋㅓㄹㄹㅓ</w>": 4857,
      "ㅅㅓㅇㄱㅕㄱ": 4858,
      "ㅈㅏㄹㅛㄹㅡㄹ</w>": 4859,
      "BS</w>": 4860,
      "ㄴㅏㅁㅍㅕㄴ": 4861,
      "ㄴㅏㅁㅅㅓㅇ</w>": 4862,
      "ㅊㅐㄴㅓㄹ</w>": 4863,
      "ㅍㅗㅎㅏㅁㄷㅚㅇㅓ</w>": 4864,
      "ㅂㅐㅌㅓ": 4865,
      "Fi</w>": 4866,
      "bo": 4867,
      "ㄷㅏㄹㅡㄹ</w>": 4868,
      "ㅇㅣㅇㅛㅇㅎㅏㄴ</w>": 4869,
      "ㅈㅐㅍㅏㄴ": 4870,
      "ㄱㅣㅂㅏㄴ</w>": 4871,
      "ㅊㅏㅇㅝㄴ": 4872,
      "ㅇㅓㅇㅢ</w>": 4873,
      "ㅇㅡㅁㅇㅣ</w>": 4874,
      "ㅅㅣㅇ</w>": 4875,
      "ㅇㅏㄹㅐㅇㅘ</w>": 4876,
      "2010": 4877,
      "ㅅㅜㅇㅣㅂ": 4878,
      "ㅏㄷㅗ</w>": 4879,
      "ㄷㅓㄱㅂㅜㄴㅇㅔ</w>": 4880,
      "ㅍㅗㅎㅏㅁㅎㅏㄴ</w>": 4881,
      "ㅋㅡㄴㄱㅏㅅㅡㅁ</w>": 4882,
      "Ma": 4883,
      "ㅌㅗㅇㅅㅣㄴ</w>": 4884,
      "ㄴㅏㅁㅇㅏ</w>": 4885,
      "ㅇㅕㅇㅠ": 4886,
      "ㄱㅗㄱㅡㅂ</w>": 4887,
      "2ㅍㅔㅇㅣㅈㅣ</w>": 4888,
      "ㅇㅑㄱㅅㅗㄱ": 4889,
      "ㅁㅕㄴㅈㅓㅂ": 4890,
      "ㅊㅏㅁㄱㅗ</w>": 4891,
      "ㄱㅗㅇㅅㅏ</w>": 4892,
      "ㅇㅗㄹㄹㅣㅁㅍㅣㄱ</w>": 4893,
      "ㄱㅘㅇㄱㅗㄱ": 4894,
      "ㅃㅏㅇ": 4895,
      "ㅈㅣㅈㅣ": 4896,
      "ㅌㅣㄴ": 4897,
      "ㅅㅜㄱ</w>": 4898,
      "ㄱㅘㄱㅓ": 4899,
      "ㅂㅗㅁㅕㄴㅅㅓ</w>": 4900,
      "ㄱㅐㅈㅓㅇ": 4901,
      "ㅈㅓㄴㅇㅛㅇ</w>": 4902,
      "ㅊㅏㅁㅇㅕ</w>": 4903,
      "ㅈㅜㄴㅂㅣ</w>": 4904,
      "ㅈㅏㅇㄱㅘ</w>": 4905,
      "ㅇㅕㅇㅅㅏㅇㅇㅡㄹ</w>": 4906,
      "ㄱㅘㄴㅇㅡㄴ</w>": 4907,
      "ㄹㅑㅇㅇㅡㄹ</w>": 4908,
      "ㅊㅜㄹㅇㅕㄴ": 4909,
      "ㅇㅠㅌㅠ": 4910,
      "ㄹㅔㅅㅡㅌㅗㄹㅏㅇ</w>": 4911,
      "ㄷㅐㅈㅓㄴ": 4912,
      "ㅇㅠㅌㅗㅇ": 4913,
      "ㅂㅏㅇㅅㅣㄱㅇㅡㄹㅗ</w>": 4914,
      "ㄴㅏㅈㅇㅡㄴ</w>": 4915,
      "ㄹㅕㄴ</w>": 4916,
      "ㅎㅕㄴㅈㅏㅇ</w>": 4917,
      "ㄱㅡㄹㅓㅎㅈㅣ</w>": 4918,
      "--</w>": 4919,
      "ㄱㅗㅇㅅㅣㄱ": 4920,
      "ㅍㅜㅁㅈㅣㄹ": 4921,
      "ㅇㅕㅇㄱㅜㄱ": 4922,
      "ly</w>": 4923,
      "ㅌㅗㅇㅇㅣㄹ": 4924,
      "ㅇㅏㄶㄷㅗㄹㅗㄱ</w>": 4925,
      "ㄴㅣㅁㅇㅡㄹ</w>": 4926,
      "ㅂㅗㄷㅡ</w>": 4927,
      "ㅁㅜㄹㄱㅓㄴ": 4928,
      "ㄷㅏㄹㅣ</w>": 4929,
      "ㄹㅣㄹ": 4930,
      "ㅇㅟㄴㅡㄴ</w>": 4931,
      "ㅏㄹㅗ</w>": 4932,
      "ㅇㅣㅇㅔㅇㅛ</w>": 4933,
      "ㄲㅡㅁ</w>": 4934,
      "ㅅㅣㅇㅢ</w>": 4935,
      "ㅅㅓㄱㅏ</w>": 4936,
      "ㅊㅚㅈㅗㅇ</w>": 4937,
      "3ㅇㅣㄹ</w>": 4938,
      "ㅈㅡㄹㄱㅣ": 4939,
      "ear": 4940,
      "ㅇㅘㅇ</w>": 4941,
      "ㅈㅗㅈㅓㅇ": 4942,
      "ㅇㅓㄹㅗ</w>": 4943,
      "ㅂㅗㄱㅅㅏ</w>": 4944,
      "ㅇㅏㅇㅣㅍㅗㄴ": 4945,
      "ㅅㅣㅅㅡㅌㅔㅁㅇㅡㄹ</w>": 4946,
      "09</w>": 4947,
      "ㅉㅗㄱㅇㅔ</w>": 4948,
      "ㄱㅓㅅㅇㅣㄱㅗ</w>": 4949,
      "ㅊㅣㅇ</w>": 4950,
      "ㅅㅗㄱㄷㅗ</w>": 4951,
      "ㄷㅚㅁ</w>": 4952,
      "ㅁㅜㅎㅏㄴ": 4953,
      "ㄷㅜㄴ": 4954,
      "ㄸㅡㅅㅎㅏㄴ</w>": 4955,
      "29</w>": 4956,
      "ㄱㅣㄷㅏㄹ": 4957,
      "ㄱㅜㅎㅕㄴ": 4958,
      "2018": 4959,
      "ㅈㅏㅇㅊㅣ</w>": 4960,
      "ㅇㅠㅊㅣ": 4961,
      "ㄴㅜㄴㅇㅡㄹ</w>": 4962,
      "ㄴㅣㅇ": 4963,
      "ㅊㅔㄱㅏ</w>": 4964,
      "ㄱㅗㅇㄷㅗㅇ</w>": 4965,
      "ㄹㅕㄱㅇㅡㄴ</w>": 4966,
      "ㅆㅅㅡㅂㄴㅣㄲㅏ</w>": 4967,
      "ㅁㅜㄹㅈㅣㄹ": 4968,
      "ㅇㅏㅁㅎㅗ": 4969,
      "ㅅㅗㄹㅣㄱㅏ</w>": 4970,
      "ㅂㅏㄹㅡㄴ</w>": 4971,
      "ㅁㅜㄴㅇㅢㅎㅏㅅㅣㄹ</w>": 4972,
      "ㅅㅏㅇㅎㅘㅇㅇㅔㅅㅓ</w>": 4973,
      "ros": 4974,
      "ㅁㅏㄴㄴㅏㄴ</w>": 4975,
      "ㅅㅏㄹㅏㅁㄷㅡㄹㅇㅡㄹ</w>": 4976,
      "ㅆㅣㅂㅏㄹ</w>": 4977,
      "ㅈㅚㅅㅗㅇ": 4978,
      "ㅈㅏㅇㄴㅏㄴㄱㅏㅁ</w>": 4979,
      "ㅌㅡㄴㅇㅡㄹ</w>": 4980,
      "ㅈㅓㄴㅁㅏㅇ</w>": 4981,
      "ㅇㅔㄹㄹㅣ": 4982,
      "ㅇㅣㄹㅇㅡㅋㅣ": 4983,
      "ㄴㅏㅅㅓ": 4984,
      "ㅈㅓㅈ": 4985,
      "ㅊㅗㄹ": 4986,
      "ㄴㅕㄴㄷㅐ</w>": 4987,
      "ㅊㅏㄹㅗ</w>": 4988,
      "ㅇㅣㄴㅐㅇㅔ</w>": 4989,
      "ㅁㅗㅂㅏㅇㅣㄹ": 4990,
      "ㅈㅓㅇㅎㅘㄱㅎㅏㄴ</w>": 4991,
      "ㅇㅕㅁ</w>": 4992,
      "ㅇㅗㄹㅣ": 4993,
      "os</w>": 4994,
      "ㅎㅐㅈㅣㄴ</w>": 4995,
      "ㅇㅗㄹㅎㅐ": 4996,
      "IP</w>": 4997,
      "Ph": 4998,
      "ㄱㅗㅇㅇㅠ</w>": 4999,
      "Ac": 5000,
      "ㄱㅘㄴㅇㅢ</w>": 5001,
      "ㅅㅔㄱ": 5002,
      "ㅂㅐㅇ": 5003,
      "ㅍㅗㄱㅣ": 5004,
      "ㅅㅡㅋㅡㄹㅣㅂ": 5005,
      "ㅇㅜㅇ": 5006,
      "ㅎㅏㅅㅣㄱㅗ</w>": 5007,
      "ㅇㅣㅂㄱㅗ</w>": 5008,
      "ㅋㅔㅇㅣㅅㅡ</w>": 5009,
      "ㄴㅕㄴㅇㅡㄹ</w>": 5010,
      "ㅇㅚㅂㅜ</w>": 5011,
      "ㅅㅡㅌㅣㅇ</w>": 5012,
      "ㅂㅗㄷㅏ": 5013,
      "ㄱㅘㄴㅊㅡㄱ": 5014,
      "ㄱㅔㅆㅈㅛ</w>": 5015,
      "ㄴㅡㄲㅣㅁㅇㅣ</w>": 5016,
      "ㅇㅓㅈㅔ</w>": 5017,
      "ㅇㅣㄴㄷㅡㄹㅇㅣ</w>": 5018,
      "ㅅㅜㅇㅛ": 5019,
      "ㅊㅗㄱㅘ": 5020,
      "ㅅㅗㄹㅈㅣㄱ": 5021,
      "2ㅈㅜㄱㅏㄴ</w>": 5022,
      "ㅇㅏㄴㅣㄴㄱㅏ</w>": 5023,
      "ㄷㅏㅇㅜㄴㄹㅗㄷㅡㄱㅏ</w>": 5024,
      "2016</w>": 5025,
      "ㄱㅏㄷㅡㄱ": 5026,
      "ㅂㅣㄴㅡㄴ</w>": 5027,
      "ㄹㅐㅇ": 5028,
      "ㅇㅣㄹㅓㄴ": 5029,
      "ㅇㅣㅆㅇㅓ": 5030,
      "ㅇㅣㄹㅂㅗ</w>": 5031,
      "ㅅㅏㄴㅣ": 5032,
      "ㅂㅓㄹㅕ": 5033,
      "ㅎㅏㅇㅜㅅㅡ</w>": 5034,
      "ㄷㅏㄴㅇㅣ</w>": 5035,
      "Mic": 5036,
      "ㅊㅘㄹㅇㅕㅇ</w>": 5037,
      "ㅂㅐㄹㅡㄹ</w>": 5038,
      "Tr": 5039,
      "ㅅㅏㅇㅅㅡㅇ": 5040,
      "PD": 5041,
      "ㅊㅕㅆㄷㅏ</w>": 5042,
      "ㅍㅏㄴㅁㅐㅈㅏㅇㅔㄱㅔ</w>": 5043,
      "ㅈㅜㅅㅣㄱ": 5044,
      "ㅅㅟㅂㅈㅣ</w>": 5045,
      "ㅅㅏㅇㅎㅘㅇ</w>": 5046,
      "ㅈㅜㅇㄱㅖ</w>": 5047,
      "ㅎㅚㅇㅔ</w>": 5048,
      "ㅂㅓㄹㅣㄴ</w>": 5049,
      "ㄷㅏㄴㅇㅡㄴ</w>": 5050,
      "ㄷㅚㄴㅡㄴ": 5051,
      "ㅇㅣㄴㄱㅝㄴ": 5052,
      "ㄱㅏㄴㄷㅏㄴㅎㅏㄴ</w>": 5053,
      "ㄴㅐㅁ": 5054,
      "ㄱㅗㅇㅈㅓㅇ": 5055,
      "ㅈㅜㅇㅅㅗ": 5056,
      "ㄷㅏㅇㅇㅕㄴㅎㅣ</w>": 5057,
      "ㄷㅓㅅ": 5058,
      "ㅁㅏㄹㅇㅡㄴ</w>": 5059,
      "ㅇㅓㄹㄱㅜㄹ</w>": 5060,
      "ㅍㅕㄴㅇㅢ": 5061,
      "ㅎㅏㅂㄱㅕㄱ": 5062,
      "ㅇㅚㅇㅔㄷㅗ</w>": 5063,
      "ㅂㅜㄴㄷㅡㄹ": 5064,
      "ㅈㅡㄹㅡㄹ</w>": 5065,
      "ㅅㅓㄴㅁㅜㄹ</w>": 5066,
      "ㅋㅗㅁ": 5067,
      "ㅈㅟ": 5068,
      "ㄱㅏㄱㅇㅢ</w>": 5069,
      "ㅊㅜㄹㅅㅣ</w>": 5070,
      "ㄱㅗㅇㅇㅕㄴ</w>": 5071,
      "ㅅㅐㅇㄱㅕ": 5072,
      "ㅂㅜㄴㅇㅡㄴ</w>": 5073,
      "45": 5074,
      "ㄴㅔㅅ</w>": 5075,
      "ㄱㅜㅁㅐㅈㅏㅇㅢ</w>": 5076,
      "ㅇㅑㄱㅜ": 5077,
      "ㄱㅡㅇㅔ</w>": 5078,
      "ㅂㅏㅇㅇㅡㄹ</w>": 5079,
      "ㄱㅠㅁㅗ</w>": 5080,
      "ㅂㅏㅇㅂㅓㅂㅇㅣ</w>": 5081,
      "ㄱㅟㅇㅕㅇㅜㄴ</w>": 5082,
      "ㅋㅡㄹㄹㅣㄱ</w>": 5083,
      "ㄱㅜㄱㄹㅣㅂ": 5084,
      "fuc": 5085,
      "ㅂㅗㅈㅡㅇㅎㅏㅈㅣ</w>": 5086,
      "ㄱㅘㄴㄱㅘㅇ</w>": 5087,
      "ㅇㅣㄴㅇㅔ</w>": 5088,
      "ㅈㅏㄹㅣㅇㅔ</w>": 5089,
      "ㅈㅏㅇㅕㄴ</w>": 5090,
      "ㅇㅏㄴㅣㅎㅏㅁㅕ</w>": 5091,
      "ㅊㅏㅁㅈㅗ": 5092,
      "ㄷㅜㄹㅕㅇ": 5093,
      "ㅁㅜㄷㅏㄴ</w>": 5094,
      "ㅇㅝㄴㅊㅣㄱ": 5095,
      "ore</w>": 5096,
      "ㄱㅘㄴㄱㅖㅈㅏㄴㅡㄴ</w>": 5097,
      "ㅊㅣㅈㅣ</w>": 5098,
      "ㅈㅗㅇㅇㅢ</w>": 5099,
      "ㄷㅏㅇㅜㄴㅂㅏㄷㅇㅡㄴ</w>": 5100,
      "ㅇㅝㄴㅇㅡㄹㅗ</w>": 5101,
      "ㅍㅗㄹㄹㅣ": 5102,
      "ㅇㅣㅆㅇㅡㅁㅡㄹㅗ</w>": 5103,
      "ㄱㅗㅁㅏ": 5104,
      "ㅂㅜㅂㅜㄴㅇㅡㄴ</w>": 5105,
      "ㅋㅐㄴ": 5106,
      "Mar": 5107,
      "wit": 5108,
      "40</w>": 5109,
      "ㅈㅏㄷㅗㅇ</w>": 5110,
      "2000": 5111,
      "ㅅㅡㅁㅏㅌㅡㅍㅗㄴ": 5112,
      "ㅅㅣㅈㅓㄹ": 5113,
      "ㄹㅏㅁ</w>": 5114,
      "ㄷㅗㅇㅈㅏㄱ": 5115,
      "ㄱㅣㅈㅜㄴㅇㅡㄹㅗ</w>": 5116,
      "ㅈㅗㅈㅓㄹ": 5117,
      "ㅅㅣㄹㅎㅓㅁ</w>": 5118,
      "7ㅍㅔㅇㅣㅈㅣ</w>": 5119,
      "ㅎㅕㄴㅅㅣㄹ</w>": 5120,
      "ㅅㅔㄱㅅㅣㅎㅏㄴ": 5121,
      "ㄲㅗㄹ": 5122,
      "ㅎㅘㄱㅅㅣㄹㅎㅣ</w>": 5123,
      "ㅎㅏㅁㅇㅔ</w>": 5124,
      "ㅅㅏㅇㅍㅜㅁㅇㅡㄹ</w>": 5125,
      "ㅎㅘㄱㄷㅐ": 5126,
      "ㅇㅣㅆㅇㅓㅆㄴㅡㄴㄷㅔ</w>": 5127,
      ":)</w>": 5128,
      "ㄸㅏㄸㅡㅅㅎㅏㄴ</w>": 5129,
      "Ge": 5130,
      "ㄷㅔㅂ": 5131,
      "ㅁㅗㄹㄹㅏ": 5132,
      "ㅇㅣㄹㅏㅁ": 5133,
      "ㅁㅣㄹ</w>": 5134,
      "vs</w>": 5135,
      "ㄱㅗㄹㅍㅡ": 5136,
      "ㅁㅜㄴㅅㅓㄴㅡㄴ</w>": 5137,
      "ㅍㅗㅌㅗ</w>": 5138,
      "ㄴㅗㅍㅇㅏ": 5139,
      "ㄷㅜㅇ": 5140,
      "ㅈㅔㅇㅔ</w>": 5141,
      "ㅎㅓㅇㅛㅇ": 5142,
      "ㄱㅐㅅㅓㄴ</w>": 5143,
      "ㄱㅡㅈㅓ</w>": 5144,
      "ㅇㅣㄷㅡㄹㅇㅡㄴ</w>": 5145,
      "ist": 5146,
      "ㅍㅣㄹㅅㅜ</w>": 5147,
      "ㅈㅓㅇㅢ</w>": 5148,
      "ㄴㅏㅁㅇㅏ": 5149,
      "ㅁㅜㄹㅡ": 5150,
      "ㅂㅗㄱㅇㅡㄹ</w>": 5151,
      "ㄱㅣㅎㅚㄱ</w>": 5152,
      "ㅅㅜㅇㅣㄱ": 5153,
      "ㅅㅏㅇㅇㅡㄹㅗ</w>": 5154,
      "ㅈㅜㄱㅏ</w>": 5155,
      "ㅇㅜㅅㅓㄴ": 5156,
      "33": 5157,
      "ㅊㅏㄹㅑㅇ</w>": 5158,
      "ㅅㅏㅇㅇㅓㅂㅅㅓㅇ</w>": 5159,
      "ㅊㅐㄴㅓㄹ": 5160,
      "ㅂㅣㄹㅗㅅ": 5161,
      "ㅅㅏㄹㅏㅁㄷㅡㄹ": 5162,
      "ㅈㅓㅇㅂㅗㅇㅣㅁㅕ</w>": 5163,
      "ㅂㅗㅁ": 5164,
      "ㅋㅡㄹㄹㅏㅇㅜ": 5165,
      "ㅈㅗㅊㅏ</w>": 5166,
      "ㄹㅔㅅㅡㅌㅗㄹㅏㅇ": 5167,
      "ㅈㅓㄴㅅㅗㅇ": 5168,
      "ㅇㅏㄶㅇㅡㅁㅕ</w>": 5169,
      "ㄱㅣㅌㅏㄹㅗ</w>": 5170,
      "ㄴㅔㅇㅣㅁㄷㅡ": 5171,
      "ㅋㅓㄹㄹㅓ": 5172,
      "ㅇㅣㅂㄹㅕㄱ</w>": 5173,
      "ㅈㅓㄴㄱㅗㅇ": 5174,
      "ㅅㅣㅅㅡㅌㅔㅁ": 5175,
      "ㅈㅏㄹㅛㅇㅘ</w>": 5176,
      "ㅁㅗㄱㄹㅗㄱ": 5177,
      "ㄹㅣㄴㄷㅏ</w>": 5178,
      "ㅈㅓㅈㅏㄱㄱㅝㄴㄱㅘ</w>": 5179,
      "ㅋㅓㄹ</w>": 5180,
      "ㅃㅓ": 5181,
      "ㄱㅓㅁ</w>": 5182,
      "ㅇㅔㄱ": 5183,
      "ㅊㅜㄱㅈㅔ</w>": 5184,
      "ㅋㅐㅁ</w>": 5185,
      "ㄹㅓㅅㅣ": 5186,
      "ㄴㅜㄴㅇㅣ</w>": 5187,
      "ㅇㅢㅎㅏㅇㅕ</w>": 5188,
      "ㅎㅑㅇㅎㅜ</w>": 5189,
      "ㅅㅔㄱㅅㅣㅎㅏㄴㅈㅜㅇㄴㅕㄴ": 5190,
      "ev": 5191,
      "ㅇㅏㄴㅇㅢ</w>": 5192,
      "ㅍㅣㄴ</w>": 5193,
      "ㄱㅔㅅㅣㅍㅏㄴ</w>": 5194,
      "ㄱㅘㅇㄱㅗㄱㅡㄹ</w>": 5195,
      "ㄴㅗㅊㅜㄹ": 5196,
      "ㅋㅓㅁ</w>": 5197,
      "ㅈㅗㅇㄹㅠ</w>": 5198,
      "ㄴㅡㅇㄹㅕㄱㅇㅡㄹ</w>": 5199,
      "ㅊㅔㅇㅣㄴ</w>": 5200,
      "ㅋㅓㄴㅌㅡㄹ": 5201,
      "1ㅁㅜㄴㅇㅢㅎㅏㄱㅣㄹㅡㄹ</w>": 5202,
      "ers</w>": 5203,
      "ml</w>": 5204,
      "ㅂㅣㄹㅇㅓ</w>": 5205,
      "ㅇㅏㄴㄷㅡㄹㅗㅇㅣㄷㅡ</w>": 5206,
      "ㅎㅏㄱㅅㅡㅂ</w>": 5207,
      "16ㅇㅣㄹ</w>": 5208,
      "ㅂㅣㅂㅏㅇㄱㅡㄹ</w>": 5209,
      "ㅇㅏㅇㅣㄷㅣㄷㅏㅇ</w>": 5210,
      "ㄱㅜㄱㅇㅡㄴ</w>": 5211,
      "ack</w>": 5212,
      "ㄱㅡㄸㅐ</w>": 5213,
      "ㅎㅏㄱㄱㅛㅈㅓㅇㅂㅗ</w>": 5214,
      "ㅂㅜㄹㅍㅕㄴㅅㅏㅎㅏㅇㅇㅡㄴ</w>": 5215,
      "ㅅㅏㅇㅣㅈㅡ": 5216,
      "ㅁㅣㅂㅗㅇㅠ</w>": 5217,
      "ㅅㅏㅇㄱㅣ</w>": 5218,
      "3ㅎㅚㅁㅏㄴ</w>": 5219,
      "ㄱㅏㅇㅡㄹ": 5220,
      "ㅎㅚㅇㅝㄴㅅㅜㅇㅘ</w>": 5221,
      "ㅎㅏㄱㄱㅛㅈㅓㅇㅂㅗㄱㅏ</w>": 5222,
      "ㅎㅏㄱㄱㅛㅈㅓㅇㅂㅗㅇㅣㅁㅕ</w>": 5223,
      "ㅈㅓㅇㄷㅗㅇㅢ</w>": 5224,
      "ㅈㅓㅇㅇㅡㄹㅗ</w>": 5225,
      "ㅅㅏㅇㅎㅘㅇㅇㅡㄹ</w>": 5226,
      "ㅅㅏㅇㅎㅘㅇㅇㅔ</w>": 5227,
      "ㄱㅡㄹㅣ</w>": 5228,
      "ㅅㅐㅇㅅㅏㄴ</w>": 5229,
      "ㅈㅐㅅㅏㄴ": 5230,
      "ㅅㅣㅈㅏㄱㅎㅐㅆㄷㅏ</w>": 5231,
      "ㅌㅡㄹㅓㅁㅍㅡ</w>": 5232,
      "ㅈㅜㄴㅕㄴ</w>": 5233,
      "90</w>": 5234,
      "TO": 5235,
      "ㅈㅓㅇㄱㅣ": 5236,
      "ㅎㅏㅁㅇㅣ</w>": 5237,
      "ㅂㅓㅌㅡㄴㅇㅡㄹ</w>": 5238,
      "ㅁㅏㄹㅇㅔ</w>": 5239,
      "ㅂㅘㅆ": 5240,
      "ㅇㅓㅄㅇㅡㅁ</w>": 5241,
      "ㅈㅓㄴㅎㅕㅇ": 5242,
      "ㅈㅓㄴㅈㅐㅇ</w>": 5243,
      "ㄱㅡㄹㅇㅣ</w>": 5244,
      "ㄱㅕㅇㅇㅜㄷㅗ</w>": 5245,
      "ㅂㅏㄱㅅㅡ</w>": 5246,
      "ㅎㅐㅅㅓ": 5247,
      "ㅈㅣㄴㅅㅣㄹㅅㅓㅇㅇㅔ</w>": 5248,
      "10ㄴㅕㄴ</w>": 5249,
      "ㄷㅡㅇㄹㅗㄱㅈㅏㅇㅔㄱㅔ</w>": 5250,
      "Po": 5251,
      "ㅈㅏㄱㅍㅜㅁ</w>": 5252,
      "ㄷㅏㄴㅇㅔ</w>": 5253,
      "ㄷㅏㄹㅅㅓㅇ": 5254,
      "ㅁㅗㅅㅡㅂ</w>": 5255,
      "ㅇㅣㄴㅇㅡㄹㅗ</w>": 5256,
      "ㅂㅐㄱㅕㅇ": 5257,
      "ㄷㅟㅇㅔ</w>": 5258,
      "ㅎㅏㅂㄹㅣ": 5259,
      "ㅎㅣㄴㅡㄴ</w>": 5260,
      "ㅇㅣㄴㄱㅏㄴ</w>": 5261,
      "ㅎㅐㅍㅣㅋㅐㅁㅍㅓㅅㅡㄴㅡㄴ</w>": 5262,
      "ㅇㅠㅈㅣ</w>": 5263,
      "ㅈㅗㅎㅇㅡㄹ</w>": 5264,
      "ㅁㅏㅈㅣㅁㅏㄱㅇㅡㄹㅗ</w>": 5265,
      "ㅈㅜㅊㅏ</w>": 5266,
      "ㅈㅗㅇㅛㅇ": 5267,
      "ㅅㅏㅇㅅㅏㅇ": 5268,
      "ㅋㅐㄹㅣㄱㅌㅓ": 5269,
      "ㅌㅣㅁㅇㅣ</w>": 5270,
      "ㅇㅖㅊㅡㄱ": 5271,
      "ㄴㅕㅁ</w>": 5272,
      "ㅇㅛㅊㅓㅇ</w>": 5273,
      "ㅁㅐㄴㅕㄴ</w>": 5274,
      "ㅔㄱㅔ": 5275,
      "ㄱㅐㅇㅣㄴㅈㅓㅇㅂㅗㄹㅡㄹ</w>": 5276,
      "ㄱㅏㅌㅇㅡㄴㄷㅔ</w>": 5277,
      "ㅂㅗㅁㅕ</w>": 5278,
      "ㅌㅡㄱㅅㅜ": 5279,
      "ㅅㅜㅇㅕㅇㅈㅏㅇ</w>": 5280,
      "ㅇㅣㄹㅇㅓ": 5281,
      "ㅅㅓㅂㅓ</w>": 5282,
      "ㅊㅜㄹㅊㅓ</w>": 5283,
      "ㄷㅣㅇㅗ": 5284,
      "ㅈㅏㅇㅇㅐ</w>": 5285,
      "ㄷㅏㄱㅏㅇ": 5286,
      "ㄴㅠㅅㅡ": 5287,
      "ㅅㅏㅇㅛㅇㅈㅏㄱㅏ</w>": 5288,
      "ㅇㅛㅈㅡ": 5289,
      "ㅅㅕㅊㅡ</w>": 5290,
      "ㄸㅜㅇ": 5291,
      "ub</w>": 5292,
      "ㅇㅣㄷㅡㄴ</w>": 5293,
      "ㅇㅣㅇㅓㅆㄷㅓㄴ</w>": 5294,
      "ㅅㅣㅇㅝㄴ": 5295,
      "ㅂㅏㅋㅏㄹ": 5296,
      "ㅅㅐㄹㅗㅂㄱㅔ</w>": 5297,
      "ㅇㅐㄱㅅㅔ": 5298,
      "ㅇㅕㅆㅅㅡㅂㄴㅣㄷㅏ</w>": 5299,
      "ㅂㅐㄱㅕㅇ</w>": 5300,
      "ㅏㅇㅘ</w>": 5301,
      "ㅇㅕㄴㅇㅖ": 5302,
      "ㅎㅐㄱㅕㄹ</w>": 5303,
      "ㅌㅔㅇㅣㄴ": 5304,
      "ㅈㅚ</w>": 5305,
      "ㄱㅡㄹㅓㅎㄷㅏㅁㅕㄴ</w>": 5306,
      "ㅂㅜㄴㄷㅡㄹㅇㅡㄴ</w>": 5307,
      "ㅎㅘㅁㅕㄴ</w>": 5308,
      "ㅈㅗㅎㅈㅣ</w>": 5309,
      "USB</w>": 5310,
      "ㅋㅐㅂ": 5311,
      "197": 5312,
      "ㄱㅕㅇㅇㅜㅇㅔ</w>": 5313,
      "ㄷㅏㄱ": 5314,
      "ㅇㅕㄴㄱㅕㄹ</w>": 5315,
      "ㅅㅏㅇㅜㄴ": 5316,
      "ㅇㅣㅆㅇㅓㅆㄱㅗ</w>": 5317,
      "ㅊㅝ</w>": 5318,
      "ㅎㅏㅇㅁㅗㄱ": 5319,
      "ㅅㅜㅇㅛㅇ": 5320,
      "ㅜㄱ": 5321,
      "ㄱㅕㄹㅋㅗ</w>": 5322,
      "ㅊㅓㅇㅇㅘ": 5323,
      "ㅈㅓㄴㅇㅔㅅㅓ</w>": 5324,
      "ㅎㅐㅅ": 5325,
      "ㅇㅓㅄㅈㅣㅁㅏㄴ</w>": 5326,
      "ㄱㅡㄹㅓㅎㅏㄴ</w>": 5327,
      "ㅅㅔㅇㅝㄹ": 5328,
      "CD</w>": 5329,
      "ㅎㅕㅂㅇㅢ": 5330,
      "ㄴㅣㅁㅔㅇㅣ": 5331,
      "ㄹㅡ</w>": 5332,
      "ㅊㅟㄱㅡㅂ": 5333,
      "ㅂㅗㅇㅕㅆㄷㅏ</w>": 5334,
      "ㅅㅣㄱㅅㅏㄹㅡㄹ</w>": 5335,
      "ㅂㅏㄹㅈㅓㄴ</w>": 5336,
      "per": 5337,
      "ㅁㅕㅇㅅㅣ": 5338,
      "ㅊㅐㄱㅇㅡㄴ</w>": 5339,
      "ㅈㅓㄴㅇㅢ</w>": 5340,
      "ㅁㅏㄹㅎㅏㄹ</w>": 5341,
      "ㅅㅏㅎㅏㄴ</w>": 5342,
      "ㅎㅠ</w>": 5343,
      "ㅇㅠㄱ</w>": 5344,
      "ㅅㅏㄹㅏㅁㄷㅡㄹㅇㅔㄱㅔ</w>": 5345,
      "ㄷㅏㅂㅂㅕㄴ</w>": 5346,
      "ㅂㅣㅅㅡㅅ": 5347,
      "ㅈㅣㄴㅏ</w>": 5348,
      "ㄱㅡㄴㅊㅓ": 5349,
      "ㅅㅣㄴㅇㅡㄹ</w>": 5350,
      "ㅎㅚㅇㅔㅅㅓ</w>": 5351,
      "ㅁㅐㄴㅣ": 5352,
      "ㅎㅣㄹ</w>": 5353,
      "ㅇㅓㅄㅇㅡㅁㅕ</w>": 5354,
      "ㅎㅣㅁㅇㅣ</w>": 5355,
      "ㄱㅗㄹㅡㄹ</w>": 5356,
      "wor": 5357,
      "ㅇㅣㄹㅅㅏㅇ": 5358,
      "ㅇㅏㅇㅜㅅ</w>": 5359,
      "ㅂㅣㅌㅡ": 5360,
      "FA": 5361,
      "ㅅㅔㅇㅝ": 5362,
      "ㅌㅡㄹㅗ": 5363,
      "ㅌㅡㄱㅈㅣㅇ</w>": 5364,
      "ㅎㅛㄱㅘㄱㅏ</w>": 5365,
      "ㅇㅏㄹㅡ": 5366,
      "end": 5367,
      "ㄱㅗㅇㅈㅣ": 5368,
      "ㅁㅔㅁㅂㅓ": 5369,
      "ㅂㅗㅇㅣㄱㅗ</w>": 5370,
      "ㅇㅏㅂㅓㅈㅣ</w>": 5371,
      "ㅁㅏㅅㅇㅣㅆㄴㅡㄴ</w>": 5372,
      "ㄷㅐㄱㅜ</w>": 5373,
      "ㄱㅖㅇㅢ</w>": 5374,
      "ㄴㅣㅁㄲㅔㅅㅓ</w>": 5375,
      "ㅁㅓㄹㅌㅣ": 5376,
      "ㅎㅕㄱ</w>": 5377,
      "ㄱㅣㄴㅡㅇㅇㅣ</w>": 5378,
      "lor</w>": 5379,
      "ㄴㅏㅃㅡㄴ</w>": 5380,
      "ㅍㅔㅇㅣㅈㅣㅇㅢ</w>": 5381,
      "ㅋㅏㅋㅏㅇㅗ": 5382,
      "ㅇㅏㅆㄷㅓㄴ</w>": 5383,
      "ㅎㅐㅇㅇㅡㄹ</w>": 5384,
      "ㅅㅓㄴㄱㅛ": 5385,
      "ㄷㅗㄱㅇㅣㄹ": 5386,
      "ㅎㅚㅂㅗㄱ": 5387,
      "ㅁㅣㄹㅐ</w>": 5388,
      "ㅂㅏㅌㅏㅇㅇㅡㄹㅗ</w>": 5389,
      "ㅅㅣㅁㅎㅏㄴ</w>": 5390,
      "our": 5391,
      "ㅁㅐㄹㅕㄱ": 5392,
      "ago</w>": 5393,
      "ㅁㅔㅇㅣㄹ</w>": 5394,
      "ㅁㅜㄴㅅㅓ</w>": 5395,
      "ㅇㅟㄴㄷㅗㅇ": 5396,
      "HD": 5397,
      "ht</w>": 5398,
      "ㅋㅡㄹ</w>": 5399,
      "ㅇㅕㅇㅇㅑㅇ": 5400,
      "ㅅㅓㄴㅇㅣ</w>": 5401,
      "ㅇㅛㄱㅡㅁ</w>": 5402,
      "ㅅㅣㄹㅣㅈㅡ": 5403,
      "ㄱㅖㅎㅚㄱㅇㅡㄹ</w>": 5404,
      "ov": 5405,
      "30ㅇㅣㄹ</w>": 5406,
      "ㄷㅓㄹㅏㄱㅜㅇㅛ</w>": 5407,
      "ㅏㅇㅜㄴ": 5408,
      "Be": 5409,
      "ㅈㅓㅇㅂㅜㄱㅏ</w>": 5410,
      "ㅎㅏㄴㅂㅏㄴ": 5411,
      "ㄱㅏㅇㅇㅢ": 5412,
      "ㄷㅏㅁㅇㅣ</w>": 5413,
      "ㄱㅕㄹㅎㅏㅂ": 5414,
      "ㅅㅛㅍㅣㅇㅁㅗㄹ</w>": 5415,
      "ㅈㅏㄹㅁㅗㅅㄷㅚㄴ</w>": 5416,
      "ㅈㅜㅅㅣㅁㅕㄴ</w>": 5417,
      "ㅈㅣㅇㅔㅅㅓ</w>": 5418,
      "ㄱㅡㄴㅕㄴㅡㄴ</w>": 5419,
      "ㄱㅘㄴㅇㅔ</w>": 5420,
      "ㅊㅜㄱㅏㅈㅓㄱㅇㅣㄴ</w>": 5421,
      "ㅇㅓㅁㅓㄴㅣ</w>": 5422,
      "ㅇㅛㄹㅣ": 5423,
      "ㅂㅗㅁ</w>": 5424,
      "ㅂㅓㄴㅇㅔ</w>": 5425,
      "ㅎㅗㅌㅔㄹㅇㅡㄴ</w>": 5426,
      "ㄱㅛㅎㅘㄴ": 5427,
      "ㅈㅣㅂㅐ": 5428,
      "ㅎㅗㅇㅢ</w>": 5429,
      "CP": 5430,
      "ㄴㅏㅇㅔㄱㅔ</w>": 5431,
      "ㅍㅏㅇㅣ</w>": 5432,
      "ip": 5433,
      "ㅌㅔㄹㄹㅔ": 5434,
      "ㅁㅗㅅㅎㅐㅆㄷㅏ</w>": 5435,
      "UR": 5436,
      "ㅇㅣㄹㅇㅣㄷㅏ</w>": 5437,
      "ㅌㅗㅇㅛ": 5438,
      "ㅇㅖㅅ": 5439,
      "ㅅㅣㅋㅣㄱㅗ</w>": 5440,
      "ㄴㅗㄴㅇㅢ": 5441,
      "ㅅㅏㅂ": 5442,
      "ess": 5443,
      "ㄹㅏㅇㅣㅂㅡ": 5444,
      "ㅅㅜㅇㅣㅆㄴㅡㄴ</w>": 5445,
      "ㅅㅕㄴㅇㅡㄴ</w>": 5446,
      "ㄷㅡㅅㅎㅏㄴ</w>": 5447,
      "ㅅㅏㅈㅏㅇ</w>": 5448,
      "ㅇㅏㅇㅣㄷㅡㄹㅇㅣ</w>": 5449,
      "ㅇㅖㅅㅏㄴ": 5450,
      "ㅎㅏㄴㄱㅡㄹ": 5451,
      "ㅅㅗㅈㅐ": 5452,
      "ㅎㅏㄱㅇㅡㄹ</w>": 5453,
      "ㄱㅏㅇㄹㅕㄱㅎㅏㄴ</w>": 5454,
      "ㅎㅏㅇㅁㅜㄴ</w>": 5455,
      "ㅂㅓㅂㄹㅠㄹ</w>": 5456,
      "ㅇㅣㄴㅊㅣ</w>": 5457,
      "Cl": 5458,
      "ill": 5459,
      "ㅌㅔㅇㅣㅂㅡㄹ</w>": 5460,
      "ㅁㅏㅇㅣㄴ": 5461,
      "ㅂㅇㅡㄴ</w>": 5462,
      "ㅅㅣㅌㅣ</w>": 5463,
      "ㄹㅜㅁ</w>": 5464,
      "Tube</w>": 5465,
      "ㅇㅕㅇㅇㅝㄴ": 5466,
      "ㄹㅏㅇㅣㄴ</w>": 5467,
      "ㅇㅝㄴㅇㅔㅅㅓ</w>": 5468,
      "ㅅㅓㄹㄱㅖ</w>": 5469,
      "ㅇㅝㄹㄷㅡㅋㅓㅂ</w>": 5470,
      "ㅋㅣㅇㅝ": 5471,
      "ㄱㅛㅇㅠㄱㅇㅢ</w>": 5472,
      "ㅅㅡㅌㅡㄹㅡㄹ</w>": 5473,
      "ㄱㅣㅁㅈㅓㅇ": 5474,
      "ase</w>": 5475,
      "ㅍㅏㅌㅡㄴㅓ": 5476,
      "ㅂㅓㄴㅎㅗㄹㅡㄹ</w>": 5477,
      "ㅉㅏㄱ": 5478,
      "Goog": 5479,
      "10ㅇㅣㄹ</w>": 5480,
      "ㄷㅐㅂㅣ</w>": 5481,
      "ㅇㅏㄹㄱㅗ": 5482,
      "ㄹㅓㄱ": 5483,
      "ㅍㅛㄹㅡㄹ</w>": 5484,
      "ㄱㅏㅇㅎㅘ</w>": 5485,
      "ㅇㅣㄴㄷㅔㅇㅛ</w>": 5486,
      "ㅅㅣㄴㅇㅢ</w>": 5487,
      "ㅈㅏㄱㅗ</w>": 5488,
      "ㅇㅣㄴㅌㅓㅂㅠ": 5489,
      "ㅈㅣㄴㅈㅓㅇㅎㅏㄴ</w>": 5490,
      "ㅈㅔㄱㅣ": 5491,
      "ㅊㅐㅁㅍㅣㅇㅓㄴ": 5492,
      "ㅇㅣㄷㅡㄹㅇㅣ</w>": 5493,
      "ㅈㅓㄴㅎㅐㅆㄷㅏ</w>": 5494,
      "ㅍㅏㅌㅣ": 5495,
      "ㅌㅐㄱㅡㅇㅢ</w>": 5496,
      "ㅌㅗㄱ</w>": 5497,
      "ㅇㅣㄹㅉㅣ": 5498,
      "ㅇㅑㄱㄱㅘㄴㅇㅡㄹ</w>": 5499,
      "ㅇㅗㅇㅕ": 5500,
      "ㅇㅗㄹㅐㄴ</w>": 5501,
      "ㄷㅗㅇㅔㅅㅓ</w>": 5502,
      "ㅁㅓㄴ</w>": 5503,
      "ㅁㅔㅇㅣㅈㅓ": 5504,
      "Fi": 5505,
      "ㅁㅕㅇㅎㅘㄱ": 5506,
      "ㅈㅏㅅㅔㅎㅣ</w>": 5507,
      "CE": 5508,
      "ㅍㅕㅇㄱㅠㄴ": 5509,
      "ㅁㅏㄹㅡ": 5510,
      "ㅅㅗㄱㅇㅢ</w>": 5511,
      "ㅅㅓㅇㅜㄹㅌㅡㄱㅂㅕㄹ": 5512,
      "ㄴㅗㄴㄹㅏㄴ": 5513,
      "ㅇㅓㅄㅇㅓㅅㅓ</w>": 5514,
      "ㅋㅔ</w>": 5515,
      "48": 5516,
      "ㅈㅘ</w>": 5517,
      "RE": 5518,
      "ㅊㅏㅈㅇㅏㅇ": 5519,
      "ㅁㅜㄴㅇㅣ</w>": 5520,
      "ㅋㅡㄹㅣㅇㅔㅇㅣㅌㅣㅂㅡ</w>": 5521,
      "ㅇㅣㅅㅏ</w>": 5522,
      "ㅇㅠㅁㅕㅇ": 5523,
      "ㅎㅏㄱㅇㅢ</w>": 5524,
      "ㅇㅢㅁㅣ</w>": 5525,
      "ㅅㅡㅇㅞ": 5526,
      "ㅎㅔㄴ": 5527,
      "ㅇㅏㄶㅇㅏㄷㅗ</w>": 5528,
      "ㄷㅏㅂㅗㄴㅣ</w>": 5529,
      "ㄱㅜㅇㅢ</w>": 5530,
      "2013ㄴㅕㄴ</w>": 5531,
      "ㅅㅏㅇㅎㅘㅇㅇㅣ</w>": 5532,
      "ㅅㅓㄴㅂㅏㄹ": 5533,
      "ㄴㅏㄱㅏ": 5534,
      "ㅈㅣㄹㅎㅘㄴ": 5535,
      "ㄹㅗㅇㅜ": 5536,
      "ㄷㅡㄹㅏㅇㅣ": 5537,
      "ㅈㅓㅇㄷㅏㅇ": 5538,
      "LG</w>": 5539,
      "mon": 5540,
      "ㅇㅐㄴㅣㅁㅔㅇㅣ": 5541,
      "ㄷㅏㄴㅕㅇ": 5542,
      "ㅂㅏㄱㅁㅜㄹㄱㅘㄴ</w>": 5543,
      "ard</w>": 5544,
      "ㄷㅗㅇㅇㅣㄹㅎㅏㄴ</w>": 5545,
      "ㅌㅡㄹㅓ": 5546,
      "est": 5547,
      "ㄱㅓㅇㅠ</w>": 5548,
      "ㄱㅛㄱㅘ": 5549,
      "ㅈㅓㄱㅇㅛㅇㄷㅚㄹ</w>": 5550,
      "eg": 5551,
      "ㅈㅣㄴㅇㅣ</w>": 5552,
      "ㅅㅚ": 5553,
      "ㅠㄹ": 5554,
      "ㅎㅕㄴㅈㅣ</w>": 5555,
      "ㅅㅡㅌㅏㅌㅡ": 5556,
      "ㅍㅣㄹㅅㅜ": 5557,
      "ㄷㅗㅂㅏㄱ</w>": 5558,
      "ㅂㅗㄴㄱㅕㄱ": 5559,
      "ㅁㅜㅅㅣ": 5560,
      "ㅇㅢㄱㅕㄴㅇㅡㄹ</w>": 5561,
      "all</w>": 5562,
      "ㅅㅣㄹㅇㅡㄹ</w>": 5563,
      "ㅅㅔㅅㅏㅇㅇㅔ</w>": 5564,
      "ㅅㅞ": 5565,
      "ㅌㅔㄴㄷㅔ</w>": 5566,
      "ical</w>": 5567,
      "ㅂㅓㅈㅓㄴ</w>": 5568,
      "ㅈㅓㄴㅂㅜㅌㅓ</w>": 5569,
      "ㅇㅣㅅㅠ": 5570,
      "ㅃㅜㄴㅇㅣㄷㅏ</w>": 5571,
      "ㄱㅣㅅㅏㅇ</w>": 5572,
      "ㅈㅣㄴㅇㅡㄹ</w>": 5573,
      "ㅈㅓㄴㅁㅜㄴㄱㅏ</w>": 5574,
      "ㄱㅏㅊㅣㄹㅡㄹ</w>": 5575,
      "ㅅㅣㄹㅅㅣㄱㅏㄴ": 5576,
      "ㄹㅗㅂ": 5577,
      "ㅊㅚㄷㅐㅎㅏㄴ</w>": 5578,
      "ㅎㅚㅅㅏㄱㅏ</w>": 5579,
      "ㅂㅕㄹㄷㅗㅇㅢ</w>": 5580,
      "ㄱㅠㅈㅓㅇ": 5581,
      "ㄱㅗㅅㅇㅢ</w>": 5582,
      "ㅁㅣㄴㄷㅡㄹ": 5583,
      "ㅆㅗㄷ": 5584,
      "ㅇㅏㅍ</w>": 5585,
      "ㄹㅛㄹㅡㄹ</w>": 5586,
      "ㅅㅏㄹㅏㅁㅇㅔㄱㅔ</w>": 5587,
      "ㅎㅕㅇㅇㅡㄹ</w>": 5588,
      "ㅅㅔㄱㅅㅣㅎㅏㄴㅈㅜㅇㄴㅕㄴㅇㅕㅅㅓㅇ</w>": 5589,
      "ㅅㅣㄱㅔㅆㅅㅡㅂㄴㅣㄲㅏ</w>": 5590,
      "ㅅㅗㄴㅕ": 5591,
      "ㅂㅣㅊ</w>": 5592,
      "ㅅㅓㄴㅈㅓㅇ</w>": 5593,
      "ㅅㅓㄴㅇㅓㄴ": 5594,
      "RA</w>": 5595,
      "ㅅㅡㅇㄹㅣ": 5596,
      "ㄱㅣㅈㅗㄴㅇㅢ</w>": 5597,
      "ㄴㅓㅁㅜㄴㅏ</w>": 5598,
      "ㅇㅓㅁㅊㅓㅇㄴㅏㄴ</w>": 5599,
      "ㅋㅔㅅ": 5600,
      "ㅈㅣㄱㅈㅓㅂ": 5601,
      "ㅕㅆ": 5602,
      "ㅇㅏㄴㅈㅓㄴ</w>": 5603,
      "ㅍㅏㄴㅇㅡㄹ</w>": 5604,
      "ㅡㅁㅇㅣ</w>": 5605,
      "ㄴㅏㄴㅝ": 5606,
      "Hot": 5607,
      "ㄱㅡㅁㅂㅏㄹ</w>": 5608,
      "ㄱㅣㅁㅏㄴ</w>": 5609,
      "ㅈㅕㅅㅓ</w>": 5610,
      "ㄱㅕㄹㅎㅗㄴ</w>": 5611,
      "ㅈㅏㅇㅟ</w>": 5612,
      "ㄴㅏㅁㄱㅣ": 5613,
      "ㄱㅜㅁㅓ": 5614,
      "ㅂㅏㄱㄱㅡㄴㅎㅖ</w>": 5615,
      "ㄱㅡㄱㅓㅅ": 5616,
      "ㄷㅐㅎㅏㄱㄱㅛ": 5617,
      "ㄸㅏㄹ</w>": 5618,
      "ㄱㅡㅁㅈㅣ": 5619,
      "ㄸㅔ": 5620,
      "ㅇㅣㄴㄱㅏㅇㅛ</w>": 5621,
      "iv": 5622,
      "ㅅㅡㅋㅡ</w>": 5623,
      "ㅋㅡㄹㅗ</w>": 5624,
      "ㅇㅙ": 5625,
      "ㅂㅏㄹㅎㅐㅇ": 5626,
      "ㅇㅜㅁ</w>": 5627,
      "ㅅㅜㄱㅂㅏㄱ": 5628,
      "ㅇㅐㅍㅡㄹ": 5629,
      "ㅈㅔㅈㅜ</w>": 5630,
      "ㅈㅓㄱㄹㅣㅂ": 5631,
      "ㅈㅓㄱㅈㅓㄹㅎㅏㄴ</w>": 5632,
      "ㄱㅡㅇㅈㅓㅇ": 5633,
      "ㅇㅔㅅㅓㅁㅏㄴ</w>": 5634,
      "ㅈㅏㄷㅡㄹㅇㅡㄹ</w>": 5635,
      "ㅋㅓㅁㅓㄴ": 5636,
      "ㅂㅘㄷㅗ</w>": 5637,
      "ㅅㅐㅇㄱㅏㄱㅎㅐ</w>": 5638,
      "ㅊㅓㅅㅂㅓㄴㅉㅐ</w>": 5639,
      "ㅇㅓㅎㅏㄱ": 5640,
      "ㅈㅣㄹㅂㅕㅇ": 5641,
      "ㄱㅣㅇㅔㄴㅡㄴ</w>": 5642,
      "ㅇㅜㄱㅗ</w>": 5643,
      "ㄷㅐㅎㅕㅇ</w>": 5644,
      "ㄸㅟㅇㅓㄴㅏㄴ</w>": 5645,
      "ㅅㅏㅇㄱㅘㄴ": 5646,
      "ㅇㅣㄹㅗ": 5647,
      "ㅊㅜ</w>": 5648,
      "ㄴㅏㄹㅇㅡㄴ</w>": 5649,
      "ㅅㅗㅅㅣㄱ</w>": 5650,
      "ㄹㅑㅇㅇㅣ</w>": 5651,
      "ㄲㅜㅁㅇㅡㄹ</w>": 5652,
      "ㅅㅓㅇㄱㅡㅂ</w>": 5653,
      "ㅅㅖ": 5654,
      "ㅇㅣㄷㅡ": 5655,
      "ㅇㅠㅇㅏ": 5656,
      "ell": 5657,
      "ㅊㅜㄹㅂㅏㄹ</w>": 5658,
      "ㅍㅏㅌㅣ</w>": 5659,
      "ㅅㅡㅌㅠ": 5660,
      "ㅅㅣㅈㅓㄹ</w>": 5661,
      "ㅈㅏㅈㅓㄴㄱㅓ</w>": 5662,
      "ㅈㅓㄴㅂㅜ</w>": 5663,
      "8ㅍㅔㅇㅣㅈㅣ</w>": 5664,
      "ㅁㅏㄴㄴㅏ</w>": 5665,
      "1ㅎㅚ</w>": 5666,
      "ㅈㅜㅈㅣ</w>": 5667,
      "ㅊㅏㄹㅖ</w>": 5668,
      "ㄴㅡㄲㅣㅁ": 5669,
      "ㅎㅏㄱㄱㅣ</w>": 5670,
      "ㅆㅡㄴ": 5671,
      "ㅅㅕㄴㅇㅣ</w>": 5672,
      "ㅅㅏㅇㅣㅈㅡ</w>": 5673,
      "ㅇㅣㄴㅊㅓㄴ</w>": 5674,
      "ㅋㅡㄹㅐ": 5675,
      "ㅎㅐㄱㅅㅣㅁ</w>": 5676,
      "ㅅㅜㄱㅏㅇ": 5677,
      "ㄹㅜ</w>": 5678,
      "ㄱㅣㅁㅇㅕㅇ": 5679,
      "ㅎㅏㄴㅏㄴㅣㅁ</w>": 5680,
      "ㅈㅏㄹㅛㄴㅡㄴ</w>": 5681,
      "ㅈㅏㅇㅇㅐㅇㅣㄴ</w>": 5682,
      "ㅁㅗㄹㅡㄹ</w>": 5683,
      "ㅈㅜㅂㄴㅣㄷㅏ</w>": 5684,
      "ㅁㅏㅇㅜ": 5685,
      "ㅈㅣㄱㅜ</w>": 5686,
      "2012ㄴㅕㄴ</w>": 5687,
      "ㄱㅐㅇ": 5688,
      "ㄱㅓㅁㅇㅡㄴ</w>": 5689,
      "14ㅇㅣㄹ</w>": 5690,
      "ㅈㅗㅈㅣㄱ</w>": 5691,
      "ㄴㅓㄼㅇㅡㄴ</w>": 5692,
      "ㄴㅐㄴㅐ</w>": 5693,
      "ㅇㅏㅇ</w>": 5694,
      "ㅅㅓㅂㅣㅅㅡㅇㅢ</w>": 5695,
      "ㅎㅘㅇㅢ</w>": 5696,
      "55": 5697,
      "ㅈㅗㅇㅢ</w>": 5698,
      "ㅁㅔㅇㅣㄴ</w>": 5699,
      "ㅈㅏㄷㅗㅇㅊㅏ": 5700,
      "ㄷㅏㅅㅣ": 5701,
      "ㅅㅓㅇㅔ</w>": 5702,
      "ㅂㅔㅌㅣㅇ</w>": 5703,
      "ㄱㅣㅎㅜ</w>": 5704,
      "ㄷㅏㅎㅐㅇ": 5705,
      "ㅋㅗㅅㅡ</w>": 5706,
      "ㅈㅣㅁ</w>": 5707,
      "9ㅇㅣㄹ</w>": 5708,
      "ㅈㅜㅌㅐㄱ</w>": 5709,
      "ㅅㅜㅅㅏㅇ</w>": 5710,
      "ㄷㅏㄴㅅㅜㄴㅎㅣ</w>": 5711,
      "ㄷㅡㄹㅔ": 5712,
      "ㄷㅏㅇㅡㅁㅇㅔ</w>": 5713,
      "ㅇㅏㅇㅣㄱㅏ</w>": 5714,
      "ㄱㅐㄱ</w>": 5715,
      "ㄱㅓㅇㅖㅇㅛ</w>": 5716,
      "LA": 5717,
      "ㅊㅓㄹㅡㄹ</w>": 5718,
      "ㄱㅣㄷㅗㄱㄱㅛ": 5719,
      "ㅌㅡㄹㅔㄴ": 5720,
      "ㅈㅜㅇㄱㅗ": 5721,
      "ㄴㅗㅎㅇㅡㄴ</w>": 5722,
      "ㄱㅣㅎㅚㄱㅏ</w>": 5723,
      "ㄱㅏㅄㅇㅡㄹ</w>": 5724,
      "ㅂㅗㅇㅏㅆㄷㅏ</w>": 5725,
      "ㄴㅐㄱㅔ</w>": 5726,
      "ㅁㅓ</w>": 5727,
      "37": 5728,
      "PS": 5729,
      "me</w>": 5730,
      "ㅇㅣㅆㅇㅡㅁㅇㅡㄹ</w>": 5731,
      "ard": 5732,
      "ㅍㅖ</w>": 5733,
      "ㄱㅡㅁㅂㅏㄹ": 5734,
      "ㅅㅗㄹㅗ</w>": 5735,
      "ㅂㅜㄹㅗ</w>": 5736,
      "ㅕㅇㅛ</w>": 5737,
      "ㅅㅗㄱㅇㅡㄹㅗ</w>": 5738,
      "ㅅㅐㅇㄱㅏㄱㅎㅏㄱㅗ</w>": 5739,
      "ㅂㅏㄹㅅㅐㅇㅎㅏㄴ</w>": 5740,
      "ㅇㅔㄴㅌㅓ": 5741,
      "12ㅇㅣㄹ</w>": 5742,
      "ㅎㅕㅇㅌㅐㅇㅢ</w>": 5743,
      "ㄴㅡㅇㄹㅕㄱ</w>": 5744,
      "ㅃㅜㄹㅣ": 5745,
      "ㅎㅘㄹㅕ": 5746,
      "ㄹㅔㅍㅗㅌㅡ</w>": 5747,
      "ㅈㅣㄴㅎㅡㅇ": 5748,
      "ㅁㅗㅈㅣㅂ": 5749,
      "HO": 5750,
      "ㅇㅣㄴㅇㅔㄱㅔ</w>": 5751,
      "ㅁㅗㄴㅣㅌㅓ": 5752,
      "ㅅㅓㄹㅠ": 5753,
      "ㅂㅏㄹㅅㅐㅇ</w>": 5754,
      "ㅁㅏㄹㅆㅡㅁㅇㅡㄹ</w>": 5755,
      "ㅈㅓㅎㅣ</w>": 5756,
      "ㅅㅣㄴㄱㅠ</w>": 5757,
      "ㅌㅡㄹㅔㅇㅣ": 5758,
      "af": 5759,
      ",,</w>": 5760,
      "ㄹㅣㅇㅓ</w>": 5761,
      "ㅇㅓㄹㅁㅏ": 5762,
      "ㅇㅣㄴㅅㅏ</w>": 5763,
      "ㅎㅕㄴㅈㅏㅇ": 5764,
      "ㄲㅜㅈㅜㄴㅎㅣ</w>": 5765,
      "1ㄴㅕㄴ": 5766,
      "ㅈㅣㅁㅏㄴ": 5767,
      "ㅎㅓㄹㅏㄱ</w>": 5768,
      "ㅇㅣㄹㅈㅜ": 5769,
      "ㅎㅏㄹㅈㅣ</w>": 5770,
      "ㄷㅗㄹㅗ": 5771,
      "ㅂㅓㄹㅇㅓ": 5772,
      "ㄱㅐㄹㄹㅓㄹㅣ</w>": 5773,
      "ㄱㅓㄷㅐㅎㅏㄴ</w>": 5774,
      "ㅇㅏㄷㅡㄹ</w>": 5775,
      "1ㅊㅏ</w>": 5776,
      "ㅅㅣㅁㅈㅣㅇㅓ</w>": 5777,
      "ㄴㅏㅇㅗㄹ</w>": 5778,
      "ㅅㅡㅁㅏㅌㅡ</w>": 5779,
      "ㅍㅔㅇㅣㅈㅣㄹㅡㄹ</w>": 5780,
      "DV": 5781,
      "ㅈㅜㅇㅛ": 5782,
      "ㄷㅐㄷㅏㅂ": 5783,
      "ㅊㅜㄹㅈㅏㅇ": 5784,
      "ㅇㅕㅂㅜ</w>": 5785,
      "ㅂㅏㄷㄱㅣ</w>": 5786,
      "ㅅㅗㅅㅓ</w>": 5787,
      "ㅎㅗㄹ</w>": 5788,
      "ㄱㅏㅊㅣㄱㅏ</w>": 5789,
      "HT": 5790,
      "ㅅㅣㅁㅇㅣ</w>": 5791,
      "ㄷㅏㅁㅕ</w>": 5792,
      "ts</w>": 5793,
      "ess</w>": 5794,
      "ㄴㅗㄹㄹㅏㅇ": 5795,
      "ㅇㅟㅂㅏㄴ": 5796,
      "ㅅㅓㄴㄱㅓ</w>": 5797,
      "ㅋㅡㄹㅣㅅㅡㅁㅏ": 5798,
      "ㅎㅏㄴㅡ": 5799,
      "ㄱㅕㅇㅇㅜㄹ": 5800,
      "ㅇㅣㄹㅂㅏㄴㅈㅓㄱㅇㅣㄴ</w>": 5801,
      "ㅍㅕㄹㅊㅕ": 5802,
      "ㄷㅣㅇㅓ</w>": 5803,
      "ㄴㅏㅁㅓㅈㅣ</w>": 5804,
      "ㅎㅑㅇㅎㅐ</w>": 5805,
      "ㅆㅣㅇㅢ</w>": 5806,
      "ㅌㅗㄴ</w>": 5807,
      "ㅅㅣㄱㄷㅏㅇ": 5808,
      "ㅈㅐㄱㅜㅅㅓㅇ": 5809,
      "ㅇㅜㄹㅣㄹㅡㄹ</w>": 5810,
      "ㄷㅓㅍ": 5811,
      "ㅂㅜㅂㅜㄴㅇㅔ</w>": 5812,
      "ㄴㅓㅎㅢ": 5813,
      "ㅇㅓㄱㅇㅝㄴ</w>": 5814,
      "ㅈㅓㄴㅁㅜㄴㄱㅏ": 5815,
      "ㅊㅚㅅㅗ</w>": 5816,
      "ㅂㅏㄴㄱㅣ</w>": 5817,
      "ㄷㅡㅇㅞ": 5818,
      "ㅇㅣㄹㄹㅣ": 5819,
      "ㅈㅜㅇㅇㅣㅂㄴㅣㄷㅏ</w>": 5820,
      "ㄱㅏㄱㄱㅏㄱㅇㅢ</w>": 5821,
      "LO": 5822,
      "ㅇㅏㄴㅣㄹㄲㅏ</w>": 5823,
      "ㅈㅓㄴㅇㅣ</w>": 5824,
      "ㅅㅗㅅㅡ</w>": 5825,
      "ㅌㅏㅇ</w>": 5826,
      "ㄲㅣ</w>": 5827,
      "ㅇㅟㄴㄷㅗㅇㅜ</w>": 5828,
      "ㄱㅜㅎㅏㄹ</w>": 5829,
      "ㄷㅔㄹ": 5830,
      "ㅇㅣㄺㅇㅓ": 5831,
      "ㅇㅏㅇㅜㅅ": 5832,
      "ㅊㅜㅇ</w>": 5833,
      "18ㅇㅣㄹ</w>": 5834,
      "ㅔㅅㅓㄴㅡㄴ</w>": 5835,
      "ㅍㅣㅂㅜ": 5836,
      "ㅇㅏㅁㅏㅊㅠ": 5837,
      "ㅇㅏㄹㅡㅁㄷㅏㅇ": 5838,
      "ㅋㅏㅇㅜㄴ": 5839,
      "Mo": 5840,
      "ㅇㅢㅅㅏ</w>": 5841,
      "ㄹㅑㄱ</w>": 5842,
      "ㅌㅗㅇㄱㅘ": 5843,
      "15ㅇㅣㄹ</w>": 5844,
      "ㄱㅏㅌㅇㅏ</w>": 5845,
      "On": 5846,
      "ㅂㅏㄹㅇㅡㄹ</w>": 5847,
      "ㅊㅏㅇㅈㅗ": 5848,
      "ㅅㅏㅇㅍㅜㅁㅇㅢ</w>": 5849,
      "ㅈㅏㄶㅇㅏㅇㅛ</w>": 5850,
      "ment</w>": 5851,
      "34": 5852,
      "ㅈㅏㅍㅛㅅㅣ</w>": 5853,
      "ㄴㅐㅇㅈㅏㅇ": 5854,
      "ㅅㅏㅅㅏㅇ</w>": 5855,
      "ㅎㅘㅇㅣㅌㅡ</w>": 5856,
      "ㄹㅣㅇㅘ</w>": 5857,
      "ㄷㅗㄴㅇㅣ</w>": 5858,
      "ㅈㅏㅅㅏㄴ": 5859,
      "ㄷㅐㅍㅛㅈㅓㄱㅇㅣㄴ</w>": 5860,
      "ㅇㅏㅇㅣㄹ": 5861,
      "ㄷㅗㄱㅌㅡㄱ": 5862,
      "ㅈㅔㄱㅗㅇㅎㅏㄱㅗ</w>": 5863,
      "ㅘㅆ": 5864,
      "ㅎㅑㅇㅅㅏㅇ": 5865,
      "ㅇㅢㅁㅣㄹㅡㄹ</w>": 5866,
      "ㅇㅕㅇㅎㅘㄹㅡㄹ</w>": 5867,
      "ㅈㅓㅈㅏㄱㅈㅏㅍㅛㅅㅣ</w>": 5868,
      "yp": 5869,
      "1000": 5870,
      "ㅇㅓㄷㅡㅂㅏㅇㅣ": 5871,
      "ㅅㅛ</w>": 5872,
      "ㅎㅐㅇㅅㅏ": 5873,
      "Se": 5874,
      "ㄱㅜㄱㅁㅣㄴ</w>": 5875,
      "ㄱㅕㅇㅜㄹ</w>": 5876,
      "ㄷㅐㅅㄱㅡㄹㅆㅡㄱㅣ</w>": 5877,
      "ㅂㅏㄹㅡ": 5878,
      "ㅅㅓㅇㅜㄹㅌㅡㄱㅂㅕㄹㅅㅣ</w>": 5879,
      "ㅈㅏㄷㅡㄹㅇㅔㄱㅔ</w>": 5880,
      "ㅈㅜㅇㅣㄴㄱㅗㅇ": 5881,
      "ㄴㅏㄱㅔ</w>": 5882,
      "ㄴㅏㅁㅅㅓㅇ": 5883,
      "ite</w>": 5884,
      "ㄱㅡㅁㅈㅣ</w>": 5885,
      "ㅂㅏㄷㅏ</w>": 5886,
      "ㅅㅗㅇㅛ": 5887,
      "Wh": 5888,
      "ㅍㅣㄹㄹㅣ": 5889,
      "ㅘㅇㅢ</w>": 5890,
      "PG": 5891,
      "ㅇㅜㄹㅣㅇㅔㄱㅔ</w>": 5892,
      "ㅇㅣㅈㅐ": 5893,
      "ㅎㅕㅇㅌㅐㄹㅗ</w>": 5894,
      "ㅁㅗㅅㅎㅏㄹ</w>": 5895,
      "ㅁㅗㄹㅣ</w>": 5896,
      "ㅈㅣㅂㅜㄹ": 5897,
      "ㅋㅓㄴㅅㅓㄹ": 5898,
      "ㅈㅏㄱㅣㅅㅗㄱㅐ": 5899,
      "ㄷㅡㄹㅇㅓㅆ": 5900,
      "ㅁㅠㅈㅣ": 5901,
      "ㄱㅡㄱㅓㄴ</w>": 5902,
      "ㅁㅏㄹㅆㅡㅁ</w>": 5903,
      "ib": 5904,
      "ㄱㅏㅇㅘ</w>": 5905,
      "ata</w>": 5906,
      "As": 5907,
      "ㄱㅏㄲㅏ": 5908,
      "ㅇㅣㅂㅇㅡㄴ</w>": 5909,
      "ㄲㅜㅁ</w>": 5910,
      "ㄷㅏㅅㅗ</w>": 5911,
      "ㅂㅔㅅㅡㅌㅡ</w>": 5912,
      "ㅌㅡㄹㅔ": 5913,
      "ㅇㅔㄱㅔㄷㅗ</w>": 5914,
      "ㅎㅐㄱ</w>": 5915,
      "ile</w>": 5916,
      "ㅅㅔㄱㅏ</w>": 5917,
      "ㅇㅣㄱㅓ</w>": 5918,
      "ㅅㅜㄹㅇㅡㄹ</w>": 5919,
      "ack": 5920,
      "ㅋㅓㅁㅓㄴㅈㅡ</w>": 5921,
      "'(</w>": 5922,
      "ㅔㅅ</w>": 5923,
      "ㅋㅗㅇ</w>": 5924,
      "ㅇㅣㄴㅅㅏㅇ": 5925,
      "ㄱㅓㅈㅣㅅ": 5926,
      "ㅇㅣㄹㅏㅁㅕ</w>": 5927,
      "ㅂㅓㅂㄹㅕㅇ": 5928,
      "ㅂㅏㄹㅅㅐㅇㅎㅏㄴㅡㄴ</w>": 5929,
      "ㅎㅏㅇㄱㅗㅇㄱㅝㄴ</w>": 5930,
      "ㅎㅗㅌㅔㄹㅇㅡㄹ</w>": 5931,
      "ㅂㅗㄱㅔ</w>": 5932,
      "ㅅㅔㄱㅖㅇㅢ</w>": 5933,
      "ㅎㅏㄴㅏㄴㅡㄴ</w>": 5934,
      "ㅂㅏㅇㅣㄹㅓ": 5935,
      "SQ": 5936,
      "ㅂㅜㄹㄱㅏ": 5937,
      "ㄷㅏㅇㅊㅓㅁ": 5938,
      "ㅅㅡㅋㅏ": 5939,
      "ㅇㅣㄹㅉㅣㄱ</w>": 5940,
      "ㄹㄹㅣㅇ</w>": 5941,
      "ㄹㅏㅇㅣㅇㅓㄴ": 5942,
      "ㄱㅣㄲㅏㅈㅣ</w>": 5943,
      "ㅂㅐㅌㅣㅇ</w>": 5944,
      "ㅈㅏㅇㅊㅣ": 5945,
      "ㅅㅣㅁㅇㅡㄹㅗ</w>": 5946,
      "ㅈㅜㅇㄱㅜㄱㅇㅢ</w>": 5947,
      "2ㄴㅕㄴ": 5948,
      "ㅇㅣㄹㅡ": 5949,
      "11ㅇㅣㄹ</w>": 5950,
      "ㅍㅐㅅㅕㄴ</w>": 5951,
      "ㅁㅕㅇㅇㅡㄹㅗ</w>": 5952,
      "ㅇㅡㄹㄲㅏㅇㅛ</w>": 5953,
      "ㅁㅔㄴㅠ</w>": 5954,
      "un</w>": 5955,
      "ㅈㅡㄱ": 5956,
      "ㅋㅔㅇㅣㅂㅡㄹ</w>": 5957,
      "ㅎㅏㅈㅛ</w>": 5958,
      "ㅗㅂㅜㅌㅓ</w>": 5959,
      "ㄴㅔㄱ": 5960,
      "ㅎㅏㄱㅣㅇㅔ</w>": 5961,
      "ㄲㅗㅂ": 5962,
      "Wor": 5963,
      "ㄲㅡㄴ": 5964,
      "ㅌㅡㄹㅐ": 5965,
      "ㅍㅗㄱㄹㅕㄱ": 5966,
      "13ㅇㅣㄹ</w>": 5967,
      "ㄱㅘㄴㅅㅣㅁ</w>": 5968,
      "ㅈㅐㄷㅏㄴ</w>": 5969,
      "ㄱㅏㅇㅡㄹ</w>": 5970,
      "ㅂㅐㄹ": 5971,
      "ㄷㅐㅌㅗㅇㄹㅕㅇㅇㅡㄴ</w>": 5972,
      "ㅈㅗㅎㄱㅗ</w>": 5973,
      "ㅎㅏㅇㅕㅆㄱㅗ</w>": 5974,
      "ㅈㅣㅁㅕㄴ</w>": 5975,
      "ㅇㅡㅇㅇㅛㅇ</w>": 5976,
      "XX": 5977,
      "ㅇㅏㅃㅏ</w>": 5978,
      "ㅇㅣㅆㄱㅔㅆ": 5979,
      "ㅇㅏㄷㅡㄹ": 5980,
      "ㅅㅣㄱㅏ</w>": 5981,
      "ㅇㅚㅇㅢ</w>": 5982,
      "ace</w>": 5983,
      "ㅅㅡㄹㄹㅏㅇㅣㄷㅣㅇ</w>": 5984,
      "ㄷㅏㄹㅡㄱㅔ</w>": 5985,
      "ㅅㅗㅈㅜㅇㅎㅏㄴ</w>": 5986,
      "ㅅㅐㅇㅇㅡㄹ</w>": 5987,
      "ㄷㅚㄱㅔ</w>": 5988,
      "ㄸㅐㅂㅜㅌㅓ</w>": 5989,
      "35</w>": 5990,
      "ㅅㅣㅈㅏㄱㅎㅏㄴ</w>": 5991,
      "ㄱㅓㅈㅛ</w>": 5992,
      "ㅇㅏㅆㅅㅡㅂㄴㅣㄷㅏ</w>": 5993,
      "ㅍㅗㄴㅇㅡㄹ</w>": 5994,
      "ㄸㅐㅇㅔㄴㅡㄴ</w>": 5995,
      "ㅅㅐㄱㅇㅡㄹ</w>": 5996,
      "ㅈㅜㅅㅣㅂㅅㅣㅇㅗ</w>": 5997,
      "ㅅㅣㄱㅏㄴㄷㅏㅇ</w>": 5998,
      "ㅇㅣㅅㅡㄹㅏㅇㅔ": 5999,
      "ㅇㅣㄴㄹㅠ": 6000,
      "ㅌㅏㄹㅡㄹ</w>": 6001,
      "ㄱㅜㄱㅡㄹ": 6002,
      "mo": 6003,
      "ㄹㅗㄷㅡ</w>": 6004,
      "ㅈㅓㅈㅏㅇ</w>": 6005,
      "ㄹㅡㄹ": 6006,
      "ㅈㅓㄱㅇㅡㄹㅗㄴㅡㄴ</w>": 6007,
      "ㅎㅜㅇㅢ</w>": 6008,
      "ect</w>": 6009,
      "ㅇㅣㅁㅡㄹㅗ</w>": 6010,
      "ㅑㅇㅇㅡㄹ</w>": 6011,
      "ㅁㅓㄴㅌㅡ</w>": 6012,
      "ㄱㅖㅈㅓㄹ": 6013,
      "3ㄴㅕㄴ": 6014,
      "ㅉㅏㄼ": 6015,
      "ㅅㅏㅇㅣ</w>": 6016,
      "ㄱㅐㅇㅣㄴㅈㅓㄱㅇㅡㄹㅗ</w>": 6017,
      "ㄷㅚㄴㄷㅏㅁㅕㄴ</w>": 6018,
      "CA": 6019,
      "ㅂㅗㄷㅏㄷㅗ</w>": 6020,
      "ㅂㅣㄹㄷㅣㅇ</w>": 6021,
      "ㅂㅗㅇㅣㅂㄴㅣㄷㅏ</w>": 6022,
      "SNS</w>": 6023,
      "ㅇㅢㅁㅜ": 6024,
      "ㅜㄱ</w>": 6025,
      "ㅅㅡㅌㅏㅋㅣㅇ</w>": 6026,
      "ㄲㅐㄲㅡㅅ": 6027,
      "ㅇㅢㅇㅝㄴ": 6028,
      "ㅅㅣㄷㅐㅇㅢ</w>": 6029,
      "ㄲㅡㅌㅇㅔ</w>": 6030,
      "ㄴㅐㅆㄷㅏ</w>": 6031,
      "ㄷㅏㄹㅇㅣ</w>": 6032,
      "ㅇㅡㅁㅅㅣㄱㅇㅡㄹ</w>": 6033,
      "ㅅㅣㄹㅅㅣ</w>": 6034,
      "ㅋㅗㄴㅅㅓ": 6035,
      "ㄱㅕㄹㅈㅓㅇ</w>": 6036,
      "ㅇㅣㅁㅕㅇ": 6037,
      "196": 6038,
      "ㅍㅓㅅㅔㄴ": 6039,
      "ㅍㅡㄹㅗㅌㅗ": 6040,
      "ㅇㅏㄱㅏ": 6041,
      "ㅈㅜㅇㅔ</w>": 6042,
      ".....</w>": 6043,
      "ㅅㅓㅂㅣㅅㅡㄴㅡㄴ</w>": 6044,
      "ㅈㅣㄱㅣ</w>": 6045,
      "ㄷㅚㅇㅓㅆㅇㅡㅁㅕ</w>": 6046,
      "ㄹㅣㄹㅏ</w>": 6047,
      "ㄱㅘㅈㅔ</w>": 6048,
      "ㅁㅏㅈㅊㅜㅁ": 6049,
      "ㄷㅗㅋ": 6050,
      "ㅉㅗ": 6051,
      "ㄱㅡㅁㅇㅣ</w>": 6052,
      "IM": 6053,
      "color</w>": 6054,
      "form": 6055,
      "ㅂㅏㅇㅇㅔ</w>": 6056,
      "ㅈㅔㅇㅚ</w>": 6057,
      "ㅇㅕㄴㄹㅏㄱㅊㅓ</w>": 6058,
      "ㄱㅏㅄ</w>": 6059,
      "ㅅㅏㄹㅇㅣ</w>": 6060,
      "ㅇㅣㄴㅣㅇ</w>": 6061,
      "ㅊㅚㄱㅗ": 6062,
      "ㅈㅏㅊㅔ</w>": 6063,
      "ㅎㅏㄴㅈㅓㅇ": 6064,
      "ㅁㅏㄴㅇㅡㄹㅗ</w>": 6065,
      "ㅂㅏㅇㅅㅣㄱ</w>": 6066,
      "ㅅㅔㅁ": 6067,
      "ㅈㅜㅇㅓㅈㅣㄴ</w>": 6068,
      "ㅇㅗㅈㅣㄱ</w>": 6069,
      "38": 6070,
      "ㅌㅡㅇㅔㅅㅓ</w>": 6071,
      "ㅎㅐㅆㄱㅣ</w>": 6072,
      "mp": 6073,
      "ㄱㅡㄹㅣㄴ</w>": 6074,
      "ㅇㅣㄹㄹㅓ": 6075,
      "9ㅍㅔㅇㅣㅈㅣ</w>": 6076,
      "art": 6077,
      "ㅎㅗㅇㅔ</w>": 6078,
      "ㅂㅘ</w>": 6079,
      "ㄱㅕㄹㄱㅘㄱㅏ</w>": 6080,
      "ㄹㅣㅇㅋㅡ": 6081,
      "ㅂㅏㄹㅗㄱㅏㄱㅣ</w>": 6082,
      "ㅁㅣㄷㄱㅗ</w>": 6083,
      "ㄱㅓㄹㅇㅓㅅㅓ</w>": 6084,
      "ㅇㅚㄱㅜㄱㅇㅣㄴ</w>": 6085,
      "ㅅㅐㅇㅁㅜㄹ": 6086,
      "ㅂㅐㅊㅣ": 6087,
      "4ㅇㅣㄹ</w>": 6088,
      "ㅈㅣㄴㄷㅏㄴ": 6089,
      "ㅌㅔㅋㅡ": 6090,
      "ㅇㅏㅅㅟ": 6091,
      "ㅅㅣㅈㅏㅇㅇㅢ</w>": 6092,
      "ㄹㅏㅁㅕ</w>": 6093,
      "ㅇㅝㅋㅡ": 6094,
      "ㅅㅗㄴㅕㄴ": 6095,
      "ㅇㅘㄴㅡㄴ</w>": 6096,
      "ㅁㅏㄹㅡㄹ</w>": 6097,
      "ㅅㅣㄹㅇㅔㅅㅓ</w>": 6098,
      "ㅇㅣㅆㅇㅡㄹㄲㅏㅇㅛ</w>": 6099,
      "ㅅㅗㅇㅘ</w>": 6100,
      "ple</w>": 6101,
      "ㅈㅜㅇㅇㅢ</w>": 6102,
      "ㅇㅠㅎㅕㅇ</w>": 6103,
      "ㄱㅏㅁㅅㅏ</w>": 6104,
      "ㅁㅔㄱㅅㅣ": 6105,
      "ㅇㅕㄹㅓㅂㅜㄴ</w>": 6106,
      "ㅅㅜㅅㅜㄹ</w>": 6107,
      "ㄱㅓㅁㅊㅏㄹ": 6108,
      "ㄱㅣㅇㅜㄹ": 6109,
      "ㄷㅏㄺ": 6110,
      "ㅇㅣㄴㅎㅏㅇㅕ</w>": 6111,
      "ㅇㅕㄴㄱㅜㅅㅗ</w>": 6112,
      "ㅍㅜㅇ</w>": 6113,
      "ㅌㅏㅂ</w>": 6114,
      "ㅎㅗㅌㅔㄹㅇㅔㅅㅓ</w>": 6115,
      "ㄱㅜㄴㅡㄴ</w>": 6116,
      "ㄱㅔㅆㄷㅏㄱㅗ</w>": 6117,
      "ㅅㅗㄴㄱㅏㄹ": 6118,
      "ㅂㅣㄹㅗㅅㅎㅏㄴ</w>": 6119,
      "ㅁㅏㄱㅇㅡㄹ</w>": 6120,
      "ㅋㅣㄴ": 6121,
      "ㄱㅗㅇㅇㅛㅇ</w>": 6122,
      "ㅌㅡㄹㅣㅂㅇㅓㄷㅡㅂㅏㅇㅣ": 6123,
      "ㄴㅐㅂㅜ": 6124,
      "ㄱㅏㅊㅣ</w>": 6125,
      "ㄷㅡㅇㄱㅡㅂ": 6126,
      "ㅍㅐㅅㅕㄴ": 6127,
      "ㅇㅏㄵㅇㅏ</w>": 6128,
      "ㄱㅏㅁㅅㅏㄷㅡㄹㅣㅂㄴㅣㄷㅏ</w>": 6129,
      "ㅅㅓㅁ</w>": 6130,
      "ㅇㅜㄴㄷㅗㅇㅇㅡㄹ</w>": 6131,
      "8ㅇㅣㄹ</w>": 6132,
      "ㅎㅏㅇㄱㅗㅇ</w>": 6133,
      "ㅁㅓㄹㄹㅣ</w>": 6134,
      "ㄷㅚㄷㅗㄹㅗㄱ</w>": 6135,
      "ㅂㅏㄷㅏㄱ": 6136,
      "100</w>": 6137,
      "CC": 6138,
      "ㅎㅚㅇㅝㄴㅇㅢ</w>": 6139,
      "ㄲㅏㄴ</w>": 6140,
      "ㅇㅘㄴㅂㅕㄱㅎㅏㄴ</w>": 6141,
      "ㅇㅓㅂㄱㅡㄹㅔㅇㅣ": 6142,
      "ㅇㅏㄴㅌㅏ": 6143,
      "ㅇㅣㄴㅁㅜㄹ": 6144,
      "all": 6145,
      "ㅎㅏㄴㅏㄱㅏ</w>": 6146,
      "ㅇㅘㄴㅈㅓㄴㅎㅏㄴ</w>": 6147,
      "ㅅㅓㅂㅣㅅㅡㄱㅏ</w>": 6148,
      "ㅅㅜㅇㅔ</w>": 6149,
      "ㅇㅣㄴㅐㅇㅢ</w>": 6150,
      "ㄷㅡㄹㅐ": 6151,
      "ㅇㅗㅂㅅㅕㄴ</w>": 6152,
      "ㅁㅏㅈㄱㅔ</w>": 6153,
      "74</w>": 6154,
      "ㅂㅜㄴㄷㅡㄹ</w>": 6155,
      "ㅎㅏㄴㅁㅏ": 6156,
      "ㄱㅓㅅㅇㅣㅁㅕ</w>": 6157,
      "ㅅㅣㄴㅇㅣ</w>": 6158,
      "ㅌㅗㅇㄱㅖ": 6159,
      "ㅁㅕㄴㅇㅣ</w>": 6160,
      "ㅇㅛㅇㅍㅜㅁ</w>": 6161,
      "ㅅㅏㅇㄷㅏㅇㅎㅏㄴ</w>": 6162,
      "ㅎㅘㄹㅅㅓㅇㅎㅘ": 6163,
      "ㅈㅜㅇㄱㅏㄴ</w>": 6164,
      "2017": 6165,
      "ㅊㅏㅇㅔ</w>": 6166,
      "ㄱㅗㅅㅗㄱ": 6167,
      "ㅇㅕㅍㅇㅔ</w>": 6168,
      "ㄷㅐㅇㅔㅅㅓ</w>": 6169,
      "ㅅㅏㅇㅣㅇㅢ</w>": 6170,
      "ㅇㅣㄹㅗ</w>": 6171,
      "ㄴㅏㄹㅇㅣ</w>": 6172,
      "20ㅇㅣㄹ</w>": 6173,
      "ㅋㅐㄴㅏㄷㅏ</w>": 6174,
      "ㅈㅡㄹㄱㅕ": 6175,
      "ㅅㅜㅇㅡㅁ</w>": 6176,
      "ㅈㅡㅇㄱㅓ": 6177,
      "ㄱㅡㄱㅓㄹ</w>": 6178,
      "ㄱㅎㅏㄴ</w>": 6179,
      "ㄷㅡㅇㄱㅘ</w>": 6180,
      "ㅈㅔㅁㅗㄱ": 6181,
      "ach": 6182,
      "ㅍㅏㄴㅌㅏ": 6183,
      "ㄷㅗㅇㅁㅜㄹ</w>": 6184,
      "ㄸㅓㄹㅇㅓㅈㅕ</w>": 6185,
      "ㅇㅏㄹㅏ": 6186,
      "ㅂㅜㄴㄹㅣ": 6187,
      "ㅋㅞ": 6188,
      "ㅈㅓㄴㅕㄱ": 6189,
      "ㄴㅣㄲㅏㅇㅛ</w>": 6190,
      "ㄱㅛㅅㅏ</w>": 6191,
      "ㄴㅓㅁㄴㅡㄴ</w>": 6192,
      "ㅁㅜㅇㅓㅅㅇㅣㄴㄱㅏ</w>": 6193,
      "ㄷㅗㅇㅇㅣㄹㅈㅗㄱㅓㄴ": 6194,
      "ㄱㅣㄹㅗㄱㅇㅡㄹ</w>": 6195,
      "ㄴㅐㄴㅕㄴ</w>": 6196,
      "ㅊㅔㅎㅓㅁ</w>": 6197,
      "ㄷㅗㅇㅜㅁ": 6198,
      "ㅍㅏㅋㅡ</w>": 6199,
      "ㄱㅝㄴㅇㅢ</w>": 6200,
      "ge</w>": 6201,
      "ㄷㅗㅇㅇㅣㄹㅈㅗㄱㅓㄴㅂㅕㄴㄱㅕㅇ": 6202,
      "ㄷㅡㄹㅣㄱㅗ</w>": 6203,
      "ㄱㅐㅎㅕㄱ": 6204,
      "ㅈㅣㅇㅝㄴㅇㅡㄹ</w>": 6205,
      "ㅇㅣㄹㄱㅘ</w>": 6206,
      "ud": 6207,
      "oft</w>": 6208,
      "ㄱㅕㅇㄹㅕㄱ": 6209,
      "ial</w>": 6210,
      "ㄱㅗㄱㅣ</w>": 6211,
      "ㅇㅐㅍㅡㄹㄹㅣㅋㅔㅇㅣ": 6212,
      "ㄱㅓㄱㅣ": 6213,
      "ㅈㅓㄱㅇㅣㄷㅏ</w>": 6214,
      "ㅊㅏㅁㄱㅗㅎㅏㅅㅣㅂㅅㅣㅇㅗ</w>": 6215,
      "ㅇㅏㄹㄹㅣ": 6216,
      "ㅅㅣㄴㅇㅏㅇ": 6217,
      "ㅅㅣㄱㅍㅜㅁ</w>": 6218,
      "ㅊㅚㅈㅗㅇ": 6219,
      "ㅈㅏㄱㅡㄱ": 6220,
      "em</w>": 6221,
      "SE": 6222,
      "ㅆㅏㄹ": 6223,
      "ㄷㅗㅇㅇㅣㄹㅈㅗㄱㅓㄴㅂㅕㄴㄱㅕㅇㅎㅓㄹㅏㄱ</w>": 6224,
      "ㅊㅣㅁㅎㅐ": 6225,
      "ㅉㅣ</w>": 6226,
      "ㄱㅗㄷㅡㅇㅎㅏㄱㄱㅛ</w>": 6227,
      "ㄲㅓㅅ</w>": 6228,
      "ㅊㅏㅁㄱㅗㄹㅗ</w>": 6229,
      "ㄸㅐㅇㅔ</w>": 6230,
      "ㅊㅜㄱㅎㅏ": 6231,
      "ㄱㅡㄹㅓㄹ</w>": 6232,
      "ㅈㅏㄱㄱㅏ</w>": 6233,
      "ㅊㅏㅁㅈㅗ</w>": 6234,
      "les</w>": 6235,
      "ㅂㅏㄷㄱㅔ</w>": 6236,
      "ㅁㅏㅅㅇㅣ</w>": 6237,
      "ㅇㅟㅊㅣㅇㅔ</w>": 6238,
      "ㅍㅐㅇ": 6239,
      "ㅎㅞㅅㅗㄴ": 6240,
      "ㅇㅘㄴㅈㅓㄴ</w>": 6241,
      "ㄱㅡㅁㅇㅐㄱ</w>": 6242,
      "0ㅇㅔ</w>": 6243,
      "ㄹㄹㅣㅇ": 6244,
      "sex</w>": 6245,
      "ㅁㅗㅁㅇㅔ</w>": 6246,
      "MER": 6247,
      "ㅇㅖㅈㅓㅇ</w>": 6248,
      "Man": 6249,
      "RO": 6250,
      "ㅈㅓㅇㅎㅘㄱㅎㅣ</w>": 6251,
      "ㄱㅘㄴㅇㅔㅅㅓ</w>": 6252,
      "ㄱㅓㅅㅇㅣㄴ": 6253,
      "ㄷㅗㅇㅇㅡㄹ</w>": 6254,
      "ㅈㅓㄱㅇㅡㅇ": 6255,
      "ㅈㅕㅆㅅㅡㅂㄴㅣㄷㅏ</w>": 6256,
      "ㄱㅔㅅㅣㅍㅏㄴ": 6257,
      "ㅁㅗㅇㅏ": 6258,
      "ㅈㅓㅁㄱㅘ</w>": 6259,
      "ㄷㅣㅈㅣㅌㅓㄹ": 6260,
      "ㅊㅜㄱㅈㅓㄱ": 6261,
      "ㅅㅜㅊㅜㄹ": 6262,
      "ㅈㅜㄱㅣ</w>": 6263,
      "ㅊㅐㄱㅇㅣㅁㅈㅏ</w>": 6264,
      "ㄱㅡㅁㅏㄴㅋㅡㅁ</w>": 6265,
      "ㅊㅜㅇㅂㅜㄱ</w>": 6266,
      "ㄲㅏㄹㄲㅡㅁ": 6267,
      "ㅁㅔㅁㅗ": 6268,
      "ㅁㅏㅊㅏㄴㄱㅏㅈㅣㄹㅗ</w>": 6269,
      "ㅇㅟㅇㅘ</w>": 6270,
      "ㅂㅗㅇㅕ</w>": 6271,
      "ㅎㅐㅅㅓㄷㅗ</w>": 6272,
      "ㄱㅜㄱㅈㅓㅇ": 6273,
      "ㅇㅟㅎㅕㅂ": 6274,
      "ㄷㅏㄹㄹㅣ": 6275,
      "ㅡㄹㅓ": 6276,
      "ㅇㅕㄱㄷㅐ</w>": 6277,
      "ㄱㅓㅅㅇㅣㄴㅈㅣ</w>": 6278,
      "ㅆㅡㄹㅔ": 6279,
      "17ㅇㅣㄹ</w>": 6280,
      "ㅏㅁㅕㄴ</w>": 6281,
      "ㄱㅓㅁㅌㅗ": 6282,
      "ㅇㅣㅁㅣㅈㅣㄹㅡㄹ</w>": 6283,
      "ㅇㅗㅅ</w>": 6284,
      "op</w>": 6285,
      "ㅂㅏㅇㅈㅣ": 6286,
      "ㅎㅏㄹㅜㅇㅢ</w>": 6287,
      "ㅈㅏㄷㅡㄹ": 6288,
      "ㄷㅗㅅㅓㄱㅘㄴ</w>": 6289,
      "ㅈㅣㅇㅕㄱㅇㅔ</w>": 6290,
      "ㅈㅔㅍㅜㅁㅇㅡㄴ</w>": 6291,
      "ㄱㅏㄲㅡㅁ</w>": 6292,
      "ㄱㅔㄷㅏㄱㅏ</w>": 6293,
      "ㅎㅏㄱㅅㅜㄹ": 6294,
      "ong": 6295,
      "ㅌㅡㅇㅘ</w>": 6296,
      "ㅇㅏㄶㅈㅣㅁㅏㄴ</w>": 6297,
      "ㅇㅣㅂㄴㅣㄲㅏ</w>": 6298,
      "6ㅇㅣㄹ</w>": 6299,
      "ㅇㅕㅂㅐㅇㅜ</w>": 6300,
      "ㅊㅟㅅㅗ": 6301,
      "ㄱㅏㅂ</w>": 6302,
      "ㅇㅏㄴㅣㅈㅣㅁㅏㄴ</w>": 6303,
      "ㄱㅏㅌㅇㅡㄴ": 6304,
      "ㄱㅏㄱㅕㄱㅇㅣ</w>": 6305,
      "ㅇㅗㄹㄹㅣㅁㅍㅣㄱ": 6306,
      "ㅌㅡㄱㅅㅓㅇ</w>": 6307,
      "ㅂㅓㄹㅆㅓ</w>": 6308,
      "ㅈㅏㅇㅇㅐㅇㅣㄴ": 6309,
      "ㅕㄱㅗ</w>": 6310,
      "ㅂㅣㅇㅢ</w>": 6311,
      "ㅁㅜㄴㅈㅔㅇㅔ</w>": 6312,
      "Inter": 6313,
      "ㅇㅣㄷㅗ</w>": 6314,
      "ㅅㅗㅅㅗㅇ": 6315,
      "ㅅㅣㅌㅣ": 6316,
      "ㅇㅔㄹ</w>": 6317,
      "ㅅㅓㅇㄱㅗㅇ</w>": 6318,
      "ㅁㅗㄹㅡㄱㅔㅆ": 6319,
      "ㄹㅗㅇㅢ</w>": 6320,
      "ㅁㅏㅈㅇㅏ</w>": 6321,
      "ㄹㅜㄹ": 6322,
      "ㅁㅜㅇㅓㅅㅂㅗㄷㅏ</w>": 6323,
      "ㄷㅓㄱ</w>": 6324,
      "ㅇㅣㄹㅁㅗㄹ</w>": 6325,
      "ㅂㅜㅇ": 6326,
      "ㅎㅣㅁ</w>": 6327,
      "ㅇㅣㄸㅐ</w>": 6328,
      "ㅅㅗㅅㅗㄱ": 6329,
      "ㄱㅣㅂㅗㄴㅈㅓㄱㅇㅡㄹㅗ</w>": 6330,
      "ㄱㅖㅇㅑㄱㅇㅡㄹ</w>": 6331,
      "ㄷㅡㄷㅣㅇㅓ</w>": 6332,
      "ㅈㅓㅇㅊㅣㅈㅓㄱ</w>": 6333,
      "ㅊㅣㅁㅇㅡㄹ</w>": 6334,
      "ree</w>": 6335,
      "ㄱㅏㄷㅡㄱ</w>": 6336,
      "ㅅㅏㅈㅓㄴ": 6337,
      "ㄱㅡㄹㅔ": 6338,
      "ㄷㅓㅅㅂㅜㅌ": 6339,
      "ㅇㅏㅋㅏ": 6340,
      "ㅎㅕㅂ</w>": 6341,
      "ㅅㅡㅅㅡㄹ": 6342,
      "ㅋㅓㅁㅠㄴㅣㅋㅔㅇㅣ": 6343,
      "ㅇㅡㄹㅕ</w>": 6344,
      "ㄷㅡㅇㅘ</w>": 6345,
      "ㄴㅏㅇㅗㄴㄷㅏ</w>": 6346,
      "ㅈㅜㅇㄷㅏㄴ": 6347,
      "ㅇㅑㅇㅇㅢ</w>": 6348,
      "ㅌㅡㄱㅂㅕㄹㅎㅣ</w>": 6349,
      "ㅍㅡㄹㅏㅇㅣ": 6350,
      "ㅎㅘㅎㅏㄱ": 6351,
      "ㅇㅣㄴㅔㅇㅛ</w>": 6352,
      "ㄷㅡㄹㅇㅓㄱㅏ": 6353,
      "ㅅㅑㅂ</w>": 6354,
      "ㅇㅏㅊㅣㅁ": 6355,
      "ㅊㅏㅇㅇㅢ": 6356,
      "ㅈㅔㅍㅜㅁㅇㅢ</w>": 6357,
      "ㅁㅗㅁ</w>": 6358,
      "ㄷㅏㅂ</w>": 6359,
      "min": 6360,
      "ㅅㅜㄱㅅㅗ</w>": 6361,
      "ㅇㅣㅆㄴㅡㄴㄷㅔㅇㅛ</w>": 6362,
      "ㅎㅜㅂㅗ</w>": 6363,
      "ㄴㅗㄹㅕㄱㅇㅡㄹ</w>": 6364,
      "ㄱㅜㄷㅇㅣ</w>": 6365,
      "ㄷㅡㅇㄷㅡㅇ</w>": 6366,
      "ㅈㅏㅇㅂㅣ</w>": 6367,
      "ㅈㅓㅇㅂㅜㄴㅡㄴ</w>": 6368,
      "ㄴㅣㅁㄱㅘ</w>": 6369,
      "ㅇㅣㄴㅌㅓㄴㅔㅅㅇㅡㄹ</w>": 6370,
      "ㄱㅕㄹㄹㅗㄴ": 6371,
      "ㅕㄴㅇㅡㄹ</w>": 6372,
      "GB</w>": 6373,
      "ㅅㅏㅅㅓㄹ": 6374,
      "ㄷㅐㄴ": 6375,
      "ks</w>": 6376,
      "ou</w>": 6377,
      "2011ㄴㅕㄴ</w>": 6378,
      "Micros": 6379,
      "ㄱㅗㄹㅍㅡ</w>": 6380,
      "ㅁㅗㄹㅡㄴㄷㅏ</w>": 6381,
      "ㅈㅓㄱㅇㅓㄷㅗ</w>": 6382,
      "ㅅㅣㄴㅅㅗㄱ": 6383,
      "ㅇㅏㅁㅏㅊㅠㅇㅓ</w>": 6384,
      "!\"</w>": 6385,
      "ㅊㅗㄹㅗ</w>": 6386,
      "ㅅㅛㅍㅣㅇ</w>": 6387,
      "ㅈㅜㅇㅢㄹㅡㄹ</w>": 6388,
      "3ㄱㅐ</w>": 6389,
      "ㅇㅣㄹㄱㅏㄴ</w>": 6390,
      "ㄱㅗㅇㅁㅜㅇㅝㄴ</w>": 6391,
      "ㅁㅏㅇㅡㅁㅇㅡㄹㅗ</w>": 6392,
      "ㄱㅗㅇㅈㅏㅇ</w>": 6393,
      "ㅅㅗㅂㅏㅇ": 6394,
      "ㄴㅐㅇㅢ</w>": 6395,
      "ㅅㅣㄱㅇㅡㄴ</w>": 6396,
      "ㄱㅓㅅㅇㅣㄹㅏㄴㅡㄴ</w>": 6397,
      "ㅇㅕㄴㄱㅘㄴ": 6398,
      "ㅎㅏㄴㅡㄴㄱㅗㅅ</w>": 6399,
      "ㅈㅗㄱㅡㅁㅆㅣㄱ</w>": 6400,
      "bi": 6401,
      "ㅅㅗㅎㅘ": 6402,
      "ㄴㅔㅌㅡㅇㅝㅋㅡ": 6403,
      "ㄱㅜㄱㅇㅣ</w>": 6404,
      "ㅂㅏㄹㅅㅗㅇ": 6405,
      "ㄷㅗㅇㅅㅓㅇ": 6406,
      "ㄱㅡㅁㅎㅏㅂㄴㅣㄷㅏ</w>": 6407,
      "ㅈㅣㅅㅗㄱㅈㅓㄱㅇㅡㄹㅗ</w>": 6408,
      "ㅊㅗㅇㅢ</w>": 6409,
      "ㅌㅗㅇㅎㅏㅂ</w>": 6410,
      "ㅇㅣㄹㅏㅇ</w>": 6411,
      "ans": 6412,
      "ㅇㅗㅅㅇㅡㄹ</w>": 6413,
      "ㅅㅡㅌㅣㄱ</w>": 6414,
      "ㅇㅕㄴㅊㅜㄹ": 6415,
      "ㅈㅏㅇㅣㄴ</w>": 6416,
      "ㅈㅡㅇㅇㅣ</w>": 6417,
      "ㅂㅜㅁㅜㄴ</w>": 6418,
      "ㅊㅜㅊㅜㄹ": 6419,
      "ㅇㅏㄹㅇㅏㅆ": 6420,
      "ㅈㅣㄱㅡㅁㄷㅗ</w>": 6421,
      "ㅎㅚㅇㅝㄴㅇㅣ</w>": 6422,
      "ㅁㅏㅅ</w>": 6423,
      "ㅌㅔㄹㅏ": 6424,
      "ㄱㅡㄹㅐㅍㅡㄱㅔㅇㅣㅁ</w>": 6425,
      "ㅌㅣㅁㅇㅡㄴ</w>": 6426,
      "ㄸㅐㄴ</w>": 6427,
      "ㄷㅗㅂㅏㄱ": 6428,
      "ㅑㄱㅗ</w>": 6429,
      "lec": 6430,
      "ㄱㅏㅇㅅㅜㄹ": 6431,
      "rec": 6432,
      "ㅁㅜㅈㅗㄱㅓㄴ</w>": 6433,
      "ㄱㅕㅇㅎㅓㅁ</w>": 6434,
      "ai": 6435,
      "ㅇㅓㄸㅓㄴ": 6436,
      "ㅅㅓㅇㅇㅣㄴ</w>": 6437,
      "ㅎㅏㄴㅡㄴㄱㅏ</w>": 6438,
      "ㅎㅏㄴㅏㅇㅛ</w>": 6439,
      "ㅎㅔㅇㅓ": 6440,
      "ㄲㅡㅌㄲㅏㅈㅣ</w>": 6441,
      "ㅂㅣㅌㅏ": 6442,
      "ㄱㅔㅈㅐ": 6443,
      "ㄱㅣㅈㅐ": 6444,
      "ㄱㅘㅇㅈㅜ": 6445,
      "able</w>": 6446,
      "wh": 6447,
      "ㅅㅓㄴㅅㅐㅇㄴㅣㅁ</w>": 6448,
      "ㅇㅣㄹㄷㅗ</w>": 6449,
      "ㅈㅗㅇㅇㅣ</w>": 6450,
      "ㄷㅐㄱㅣ</w>": 6451,
      "ㅎㅏㄱㅔㅆ": 6452,
      "ㅎㅏㅈㅣㄴㅡㄴ</w>": 6453,
      "ㅊㅗㄷㅡㅇㅎㅏㄱㄱㅛ</w>": 6454,
      "ㅁㅔㅅㅣㅈㅣㄹㅡㄹ</w>": 6455,
      "ㅂㅏㄲㅝ": 6456,
      "ㅇㅏㅍㅡㄹㅣ": 6457,
      "ㅇㅞㅇㅣ": 6458,
      "ㄹㅜㅁ": 6459,
      "ㅅㅣㄹㅈㅔ": 6460,
      "ㅍㅜㅇㅂㅜ": 6461,
      "ㅎㅏㄹㅇㅣㄴ": 6462,
      "ㅇㅠㅈㅓ": 6463,
      "ㅁㅜㄹㅇㅓ": 6464,
      "ㅍㅓㅁ": 6465,
      "ㅁㅔㅁㅗㄹㅣ</w>": 6466,
      "ㅅㅡㅌㅣㅇ": 6467,
      "ㅂㅜㄴㅁㅕㅇㅎㅣ</w>": 6468,
      "ㅌㅗㄴ": 6469,
      "ㅏㅇㅔㅅㅓ</w>": 6470,
      "ive</w>": 6471,
      "ㅁㅜㄲ": 6472,
      "ㄱㅣㄴㅕㅁ</w>": 6473,
      "ㅋㅗㅅㅡ": 6474,
      "ㄱㅜㄱㅎㅚㅇㅢ": 6475,
      "ㅂㅜㅈㅗㄱㅎㅏㄴ</w>": 6476,
      "ㅂㅇㅣ</w>": 6477,
      "ㅈㅓㄹㅓㄴ</w>": 6478,
      "ㅈㅣㅂㅏㅇ</w>": 6479,
      "ㅎㅏㄴㅈㅣ</w>": 6480,
      "ㅊㅣㄱㅔ</w>": 6481,
      "ㄱㅔㄷㅗ</w>": 6482,
      "ㄴㅏㅁㅍㅕㄴ</w>": 6483,
      "ㄱㅗㅇㅎㅘ": 6484,
      "ㅇㅏㅍㅇㅡㄹㅗㄷㅗ</w>": 6485,
      "ㅅㅓㄴㅇㅢ</w>": 6486,
      "400": 6487,
      "ㄱㅗㅇㅇㅡㄹ</w>": 6488,
      "ㅁㅗㄱㅅㅏ</w>": 6489,
      "ey</w>": 6490,
      "ㅇㅢㄹㅗ</w>": 6491,
      "ㅂㅐㄱㅏ</w>": 6492,
      "ㅂㅏㄹㅅㅐㅇㅎㅏㄹ</w>": 6493,
      "ㅈㅗㅅㅓㅇ": 6494,
      "ㅁㅜㄴㅈㅏ</w>": 6495,
      "ㅂㅓㅂㅇㅣ</w>": 6496,
      "Co": 6497,
      "ㅈㅓㅂㅅㅜ</w>": 6498,
      "ㅇㅣㄴㄱㅣ": 6499,
      "ㄱㅜㄴㅇㅢ</w>": 6500,
      "ㄱㅣㅂㅗㄴㅈㅓㄱㅇㅣㄴ</w>": 6501,
      "ㄴㅏㅎ": 6502,
      "ㅎㅗㅇㅂㅗ</w>": 6503,
      "ㅁㅏㅇㅢ</w>": 6504,
      "ㅍㅣㅌㅡ": 6505,
      "ㅊㅣㄴㄱㅜㄱㅏ</w>": 6506,
      "ㄷㅐㅎㅘ</w>": 6507,
      "ㅇㅔㅅㅡ": 6508,
      "ㅊㅔㄱㅕㄹ": 6509,
      "ㅅㅣㅍㅇㅓ</w>": 6510,
      "ㅎㅘㄴㄱㅕㅇㅇㅡㄹ</w>": 6511,
      "ㅇㅗㅍㅣ": 6512,
      "ㅂㅐㅍㅗ": 6513,
      "ㅉㅏㅇ": 6514,
      "ㅂㅓㄴㅇㅕㄱ</w>": 6515,
      "ㅇㅣㅇㅣㄱ": 6516,
      "ㅈㅜㅇㄱㅏㄴ": 6517,
      "ㅇㅏㄶㅇㅏㅆㅅㅡㅂㄴㅣㄷㅏ</w>": 6518,
      "int</w>": 6519,
      "ㅊㅜㅇㄱㅕㄱ": 6520,
      "ㄱㅗㅇㄱㅏㅁ": 6521,
      "ㅅㅓㅇㄴㅡㅇ</w>": 6522,
      "ㅍㅏㄹㅣ": 6523,
      "ㅇㅕㄱㅎㅏㄹ</w>": 6524,
      "ug": 6525,
      "ㅊㅗㄴ</w>": 6526,
      "ㄱㅡㄱㅂㅗㄱ": 6527,
      "ㅎㅏㄴㄱㅖ": 6528,
      "ㅅㅓㅇㅅㅜㄱㅎㅏㄴ</w>": 6529,
      "33</w>": 6530,
      "ㅎㅏㄱㅎㅚ</w>": 6531,
      "ㄱㅘㄴㄹㅕㄴㅎㅏㅇㅕ</w>": 6532,
      "ㅈㅗㅇㄹㅠㅇㅢ</w>": 6533,
      "ㄱㅓㅊㅕ</w>": 6534,
      "ㄲㅡㅌ</w>": 6535,
      "39": 6536,
      "ㅇㅐㅍㅡㄹ</w>": 6537,
      "ㄱㅏㅈㅊㅜㄴ</w>": 6538,
      "ㅈㅣㅂㄷㅏㄴ": 6539,
      "ㅇㅣㅈㅓㄴㅇㅔ</w>": 6540,
      "2010ㄴㅕㄴ</w>": 6541,
      "ㄱㅗㅇㄱㅗ</w>": 6542,
      "ㄱㅗㄱㅡㅂ": 6543,
      "ㅅㅐㅇㄱㅣㄴ</w>": 6544,
      "ㅈㅗㅇㄹㅛ": 6545,
      "ㅑㄱ": 6546,
      "II</w>": 6547,
      "ㄸㅣ": 6548,
      "ㄴㅡㅈㄱㅔ</w>": 6549,
      "ㅊㅚㅅㅓㄴㅇㅡㄹ</w>": 6550,
      "ㅂㅕㄹㄷㅗ</w>": 6551,
      "ㅎㅗㅌㅔㄹㅇㅢ</w>": 6552,
      "ㅂㅏㅇㅂㅓㅂㅇㅔ</w>": 6553,
      "ㅂㅓㅂㅇㅣㄴ</w>": 6554,
      "ㅌㅔㅇㅣㅂㅡㄹ": 6555,
      "ㅂㅐㄴㄷㅡ</w>": 6556,
      "ㅍㅜㅁㅈㅣㄹ</w>": 6557,
      "ㅍㅡㅌㅡ</w>": 6558,
      "ㅂㄷㅏ</w>": 6559,
      "ㅂㅜㄴㅁㅕㅇ</w>": 6560,
      "34</w>": 6561,
      "ㅇㅐㄴㅓㄹ</w>": 6562,
      "MS": 6563,
      "ㄴㅓㄹㅡㄹ</w>": 6564,
      "ㅈㅓㄴㅎㅘㄴ</w>": 6565,
      "ㅈㅚㅅㅗㅇㅎㅏㅂㄴㅣㄷㅏ</w>": 6566,
      "ㅎㅏㅇㅣ</w>": 6567,
      "ㄹㅕㄴㅡㄴ</w>": 6568,
      "ㄴㅗㅁㅜ": 6569,
      "ㄴㅣㅁㄲㅔ</w>": 6570,
      "ㅈㅗㅎㅇㅏㅆ": 6571,
      "up</w>": 6572,
      "ㅇㅏㅁㅏㄷㅗ</w>": 6573,
      "ㄱㅗㅈㅓㅇ": 6574,
      "ㅈㅣㄴㅡㅇ": 6575,
      "ㅍㅡㄹㅡㄹ</w>": 6576,
      "ㅁㅣㅅㅔ": 6577,
      "ㅎㅏㄴㅏㄹㅗ</w>": 6578,
      "ㄷㅏㄷㅡㄹ</w>": 6579,
      "MA": 6580,
      "ㄷㅗㅇㅎㅑㅇ</w>": 6581,
      "ㄱㅡㄹㅆㅡㄱㅣ</w>": 6582,
      "ㄷㅓㅇ": 6583,
      "yr": 6584,
      "ㅅㅣㄱㅏㄴㅇㅢ</w>": 6585,
      "ㅅㅣㄴㅊㅔ": 6586,
      "ㅇㅢㅁㅣㄱㅏ</w>": 6587,
      "ㄱㅕㅇㄱㅣㅇㅔㅅㅓ</w>": 6588,
      "ㅅㅗㄴㅇㅡㄹㅗ</w>": 6589,
      "ㅏㄹㅣ": 6590,
      "ㄱㅏㅁㅕ</w>": 6591,
      "ㄱㅏㄲㅏㅇㅣ</w>": 6592,
      "ㅌㅜㅍㅛ": 6593,
      "ㄱㅓㄴㅁㅜㄹ</w>": 6594,
      "ㅅㅙ</w>": 6595,
      "ㅈㅏㄷㅡㄹ</w>": 6596,
      "ㅁㅣㅇ": 6597,
      "ast": 6598,
      "ㄱㅟㅎㅏㅇㅢ</w>": 6599,
      "ㄷㅗㅈㅓㄴ</w>": 6600,
      "ㅅㅓㄲ": 6601,
      "ㅁㅗㄷㅠ": 6602,
      "ㄴㅏㅁㅏ</w>": 6603,
      "ㅎㅏㄾ": 6604,
      "ㅇㅏㅇㅜㄹ": 6605,
      "ㅅㅓㄴㅎㅗ": 6606,
      "ㅇㅜㅈㅜ": 6607,
      "ㅇㅑㄱㄱㅘㄴ</w>": 6608,
      "ㅇㅣㄱㅣ": 6609,
      "ㅌㅣㅁㅇㅢ</w>": 6610,
      "ㅈㅣㅂㅇㅣ</w>": 6611,
      "ㄷㅡㄹㅣㄹ</w>": 6612,
      "ys": 6613,
      "ㅇㅕㄱㅅㅏㄹㅡㄹ</w>": 6614,
      "ㄹㅇㅡㄹ</w>": 6615,
      "ㅊㅜㅇㅈㅓㄴ": 6616,
      "150": 6617,
      "ㄲㅜ</w>": 6618,
      "ㅁㅏㄴㄴㅏㄹ</w>": 6619,
      "ㅇㅏㄹㅐㅇㅢ</w>": 6620,
      "ㅊㅣㄹㅛㄹㅡㄹ</w>": 6621,
      "ㅅㅣㄱㅣㄹ</w>": 6622,
      "ㅅㅗㅅㅓㄹ</w>": 6623,
      "ㅊㅕㅅㅓ</w>": 6624,
      "ㅁㅏㅁ": 6625,
      "ㅌㅏㄴㅅㅐㅇ": 6626,
      "ML": 6627,
      "ㅇㅕㄴㄱㅜㅇㅝㄴ</w>": 6628,
      "ㅈㅓㅇㅊㅐㄱㅇㅡㄹ</w>": 6629,
      "ㅁㅜㄴㅈㅔㅇㅢ</w>": 6630,
      "ㅇㅏㅇㅖ</w>": 6631,
      "ㅁㅜㄴㅎㅘㄹㅡㄹ</w>": 6632,
      "ㄴㅠㅇㅛㄱ": 6633,
      "ㅍㅐㄱ</w>": 6634,
      "ㅎㅓㄴ</w>": 6635,
      "ㅅㅣㄱㅇㅔ</w>": 6636,
      "ㄷㅏㅇㅇㅣ</w>": 6637,
      "ㅋㅐㄹㄹㅣ": 6638,
      "ow</w>": 6639,
      "ㅅㅜㅇㅓㅂ</w>": 6640,
      "ㅁㅓㅁㅜㄹ": 6641,
      "ㅂㅓㄴㅇㅢ</w>": 6642,
      "ong</w>": 6643,
      "ㄱㅕㅁ": 6644,
      "ㅅㅔㄹ</w>": 6645,
      "ㅇㅝㄴㅇㅣㄴ</w>": 6646,
      "ㅈㅓㅂㅅㅜ": 6647,
      "ㅈㅜㅇㅅㅣㅁ</w>": 6648,
      "ㅋㅐㄹㅣㄱㅌㅓ</w>": 6649,
      "ㄱㅓㄴㅅㅓㄹ</w>": 6650,
      "ㅎㅜㄴㄹㅕㄴ</w>": 6651,
      "ㅎㅏㅇㅁㅗㄱ</w>": 6652,
      "ㅇㅏㅍㅏㅌㅡ": 6653,
      "ㅎㅘㅈㅏㅇㅍㅜㅁ</w>": 6654,
      ".'</w>": 6655,
      "ㅎㅐㅅㅓㄱ</w>": 6656,
      "ㅇㅓㅄㅇㅓ": 6657,
      "ㅇㅣㄱㅓㅅㅇㅡㄹ</w>": 6658,
      "ㅋㅣㄹㅡㄹ</w>": 6659,
      "ㄱㅡㄹㅓㅎㄷㅏㄱㅗ</w>": 6660,
      "ㅅㅏㄹㅉㅏㄱ</w>": 6661,
      "2015</w>": 6662,
      "ㄱㅜㅇㅕㄱ": 6663,
      "ㅁㅣㄴㅈㅜㄷㅏㅇ</w>": 6664,
      "ㅈㅗㅈㅏㄱ": 6665,
      "ㅅㅏㅇㅛㅇㅎㅏㅁㅕㄴ</w>": 6666,
      "ㅇㅙㄴㅑ": 6667,
      "ㄷㅡㅁ": 6668,
      "MERRA</w>": 6669,
      "SC": 6670,
      "ㄱㅏㄹㅗ": 6671,
      "mail</w>": 6672,
      "KBS</w>": 6673,
      "ㅇㅏㅁㅜㄷㅗ</w>": 6674,
      "ㅂㅣㅈ": 6675,
      "ㅁㅜㄹㅣ</w>": 6676,
      "ㅍㅣㅂㅜ</w>": 6677,
      "ㄷㅓㄹㅏ</w>": 6678,
      "ㄲㅏㅈㅣㅇㅢ</w>": 6679,
      "ㅇㅣㅂㅇㅡㄹㅗ</w>": 6680,
      "ㅅㅗㄴㅇㅔ</w>": 6681,
      "ㅇㅏㅁㅜㄱㅓㅅㄷㅗ</w>": 6682,
      "ㄴㅗ</w>": 6683,
      "ㄷㅏㅇㅈㅏㅇ</w>": 6684,
      "ㅎㅏㄱㅇㅝㄴ</w>": 6685,
      "ㄱㅣㅂㅜ": 6686,
      "ㅎㅗㄱ</w>": 6687,
      "ㄱㅓㅅㄷㅡㄹㅇㅣ</w>": 6688,
      "ㅎㅏㄴㄷㅏㄹ</w>": 6689,
      "ㅍㅡㄹㅏㄴ": 6690,
      "ㅂㅜㄱㅎㅏㄴㅇㅢ</w>": 6691,
      "ㅈㅓㅁㅇㅣㄷㅏ</w>": 6692,
      "ㄹㅣㅅㅡ</w>": 6693,
      "ㅅㅏㄹㅇㅏㄴ": 6694,
      "ㅅㅜㅈㅜㄴ</w>": 6695,
      "ㅋㅡㄹㄹㅏㅇㅜㄷㅡ</w>": 6696,
      "ㅈㅗㅇㅎㅏㅂ</w>": 6697,
      "ㄴㅏㄹㅉㅏ</w>": 6698,
      "ㄴㅐㄹㅣ": 6699,
      "ㅅㅇㅡㄴ</w>": 6700,
      "ㅇㅏㄶㅇㅡ": 6701,
      "ㅅㅡㅋㅗㅇㅓ</w>": 6702,
      "ㄱㅓㅅㅣㄱㅣ</w>": 6703,
      "ㄱㅖㅈㅓㅇ</w>": 6704,
      "ㅅㅣㄹㅎㅕㄴ": 6705,
      "ㅇㅣㄱㅓㄴㅏ</w>": 6706,
      "ㅊㅏㅈㄱㅗ</w>": 6707,
      "ㅁㅣㅊㅣㄴㅡㄴ</w>": 6708,
      "Br": 6709,
      "ㄹㅖ</w>": 6710,
      "ㅇㅣㅇㅑㄱㅣㄱㅏ</w>": 6711,
      "ㅋㅏㄹㄹㅓㅁ</w>": 6712,
      "ㅈㅜㄱㅇㅡㅁ": 6713,
      "ㄱㅓㄱㅣㅇㅔ</w>": 6714,
      "49": 6715,
      "cont": 6716,
      "ㄱㅗㅇㅂㅜㄹㅡㄹ</w>": 6717,
      "ㄷㅐㅎㅏㄱㅇㅝㄴ</w>": 6718,
      "ㅈㅜㅇㅣㄴ": 6719,
      "ㅂㅣㅇㅘ</w>": 6720,
      "Le": 6721,
      "ant": 6722,
      "ㅅㅜㅅㅜㄹㅛ": 6723,
      "ㅁㅏㅈㅊㅝ</w>": 6724,
      "ㄱㅗㅇㅁㅗ": 6725,
      "Kore": 6726,
      "ㅈㅓㅇㅂㅗㅌㅗㅇㅅㅣㄴ": 6727,
      "ㄷㅓㅁ": 6728,
      "ㅅㅣㄹㅇㅣ</w>": 6729,
      "ㅊㅓㅂㅓㄹ": 6730,
      "ㅇㅣㅁㅣㄴ": 6731,
      "ㅁㅏㅈㅇㅣ": 6732,
      "ㅁㅜㄹㄹㅗ</w>": 6733,
      "ㅁㅏㄶㅅㅡㅂㄴㅣㄷㅏ</w>": 6734,
      "ㅎㅏㅂㅇㅢ": 6735,
      "ㅈㅔㅈㅗ</w>": 6736,
      "ㅂㅡㄹㄹㅗ": 6737,
      "ㅇㅗㅂㅓㅇㅝ": 6738,
      "ㅅㅔㅈㅗㅇ": 6739,
      "ㅅㅣㄴㅅㅓㄴ": 6740,
      "ㄴㅣㄷㅏ</w>": 6741,
      "ㅇㅓㅂㄱㅖ": 6742,
      "ㅅㅡㅋㅗ</w>": 6743,
      "MO": 6744,
      "ㄹㅣㅅㅡㅌㅡ</w>": 6745,
      "ㅅㅣㄹㅎㅐㅇ</w>": 6746,
      "ㅎㅐㅈㅣㄴㅡㄴ</w>": 6747,
      "ㅁㅣㄴㅣ</w>": 6748,
      "ue</w>": 6749,
      "ㅅㅏㄹㅏㅁㄷㅗ</w>": 6750,
      "ㄴㅏㅇㅡㄴ</w>": 6751,
      "ㅍㅗㄱ</w>": 6752,
      "ㅈㅓㄴㅎㅘㄹㅡㄹ</w>": 6753,
      "ㅂㅓㅂㅇㅡㄴ</w>": 6754,
      "ㅍㅕㄴㅇㅏㄴㅎㅏㄴ</w>": 6755,
      "WiFi</w>": 6756,
      "ㅂㅐㅇㅝ": 6757,
      "ㅎㅜㅇㅝㄴ": 6758,
      "ㅈㅏㅇㅊㅏㄱ": 6759,
      "5ㅊㅡㅇ</w>": 6760,
      "ㅅㅏㅇㅇㅔㅅㅓ</w>": 6761,
      "19ㅇㅣㄹ</w>": 6762,
      "ㅁㅕㅇㅇㅔ</w>": 6763,
      "ㅂㅣㅌㅡㅋㅗ": 6764,
      "MS</w>": 6765,
      "ㅇㅏㅁㅜㄹㅓㄴ</w>": 6766,
      "ㅎㅘㄹㅅㅓㅇㅎㅘ</w>": 6767,
      "ㅇㅓㅂㅁㅜㄹㅡㄹ</w>": 6768,
      "ㄱㅣㅍㅇㅣ</w>": 6769,
      "ㅊㅏㄱㅇㅛㅇ": 6770,
      "ㄱㅣㄱㅜ</w>": 6771,
      "ㅁㅏㅁㅜㄹㅣ": 6772,
      "ㅎㅐㅇㅇㅟㄹㅡㄹ</w>": 6773,
      "ㅈㅏㅇㅠㄹ": 6774,
      "ㅁㅗㄱㅍㅛ</w>": 6775,
      "ㅎㅏㅅㅕㅇㅑ</w>": 6776,
      "ㄴㅓㄴㅡㄴ</w>": 6777,
      "ㅈㅜㄹㅇㅓ": 6778,
      "UN": 6779,
      "ㅅㅑㅇ": 6780,
      "ㄷㅗㅇㅇㅕㅇㅅㅏㅇ": 6781,
      "ㄷㅏㄹㄹㅏㄱㅗ</w>": 6782,
      "ㅂㅣㅊㅣ</w>": 6783,
      "ㅍㅏㄹ</w>": 6784,
      "ㅈㅗㅎㅚ</w>": 6785,
      "ㅁㅕㄴㄷㅗ</w>": 6786,
      "ㄱㅜㄱㅇㅡㄹ</w>": 6787,
      "ㅅㅏㅇㅌㅐㄹㅗ</w>": 6788,
      "ㄱㅓㄹㅇㅓ": 6789,
      "ㅁㅕㅊㅁㅕㅊ</w>": 6790,
      "ㅁㅗㅁㅇㅣ</w>": 6791,
      "ㅂㅏㄹㅇㅓㄴ": 6792,
      "):</w>": 6793,
      "ㅇㅑㅇㅋㅣ": 6794,
      "ㅎㅏㅁㅡㄹㅗ</w>": 6795,
      "ㅈㅗㅎㅚ": 6796,
      "ㅇㅏㅂ</w>": 6797,
      "ㄱㅜㄱㅎㅚ</w>": 6798,
      "ㅇㅠㅇ</w>": 6799,
      "FA</w>": 6800,
      "ㅎㅏㄹㅁㅓㄴㅣ</w>": 6801,
      "ㅅㅓㄴㅌㅐㄱㅎㅏㄹ</w>": 6802,
      "ㅅㅏㅇㅌㅐㅇㅔㅅㅓ</w>": 6803,
      "ㄴㅗㄹㄹㅏㅇㅜㄴ</w>": 6804,
      "ㅊㅏㅇㅇㅡㄹ</w>": 6805,
      "ㅅㅣㄱㅖ</w>": 6806,
      "ㅅㅏㄹㅏㅁㄱㅘ</w>": 6807,
      "ㅎㅏㄹㅕ</w>": 6808,
      "ㅂㅗㅅㅣㄹ</w>": 6809,
      "ㅈㅔㅇㅘ</w>": 6810,
      "ㅇㅖㅅㅜㄹ</w>": 6811,
      "ㅊㅜㄹㄹㅕㄱ": 6812,
      "ㅇㅠㄱㅣ": 6813,
      "ㅎㅏㅁㅕㄴㅅㅓㄷㅗ</w>": 6814,
      "ㄱㅗㅁㅏㅂㅅㅡㅂㄴㅣㄷㅏ</w>": 6815,
      "ㅇㅓㅄㄱㅣ</w>": 6816,
      "ㅌㅗㄹㅗㄴ</w>": 6817,
      "ㅇㅏㄴㅇㅣ</w>": 6818,
      "ㅇㅣㅇㅛㅇㅈㅏㅇㅢ</w>": 6819,
      "be</w>": 6820,
      "ㅈㅣㄴㅐ": 6821,
      "ㄴㅏㄹㅆㅣ</w>": 6822,
      "ㄴㅏㅇㅘㅆㄷㅏ</w>": 6823,
      "ㅈㅗㅅㅣㅁ": 6824,
      "64": 6825,
      "ㅅㅣㄹㅗ</w>": 6826,
      "28ㅇㅣㄹ</w>": 6827,
      "ㅎㅏㄴㅏㄹㅡㄹ</w>": 6828,
      "ㅈㅓㅈㅏㄱㄱㅝㄴ</w>": 6829,
      "ㅇㅗㄹㅐㄷㅚㄴ</w>": 6830,
      "ㄹㅣㅊㅣ": 6831,
      "ㅇㅜㅅㅡㅇ</w>": 6832,
      "ㅈㅐㅁㅜ": 6833,
      "ㄴㅏㅁㅇㅢ</w>": 6834,
      "ㅂㅏㄹㅏㅁ</w>": 6835,
      "ㅅㅏㄹㅏㅇㅇㅢ</w>": 6836,
      "ㄱㅕㅇㅎㅓㅁㅇㅣ</w>": 6837,
      "ㅋㅓㅁㅠㄴㅣㅌㅣ</w>": 6838,
      ")-</w>": 6839,
      "ㅈㅕㅇㅑ</w>": 6840,
      "ㅍㅏㄱㅚ": 6841,
      "ㅈㅣㄹㅇㅣ</w>": 6842,
      "12ㅇㅝㄹ": 6843,
      "ㅂㅏㅇㅣ</w>": 6844,
      "ㅁㅏㅋㅡ</w>": 6845,
      "MBC</w>": 6846,
      "ㄱㅗㅇㅎㅏㄱ</w>": 6847,
      "ㅊㅚㅊㅗ</w>": 6848,
      "ㅅㅓㄴㅅㅜㄱㅏ</w>": 6849,
      "ㅊㅗㄱㅣ</w>": 6850,
      "pres": 6851,
      "ㄹㅏㄱㅇㅡㄹ</w>": 6852,
      "ㄱㅗㅇㅔ</w>": 6853,
      "ㄷㅡㅇㄹㅗㄱㄷㅚㄴ</w>": 6854,
      "ㅂㅗㄱㅎㅏㅂ": 6855,
      "ㅅㅐㄱㅅㅏㅇ</w>": 6856,
      "ㅇㅣㄹㅂㅜ": 6857,
      "ㅅㅔㅁㅣㄴ": 6858,
      "ㅂㅐㄱㅎㅘ": 6859,
      "ㅇㅗㄹㄹㅣㄴ</w>": 6860,
      "ㅈㅗㅅㅓㄴ</w>": 6861,
      "ㅂㅔㄹㅡ": 6862,
      "ㅎㅏㄴㅏㄴㅣㅁㅇㅣ</w>": 6863,
      "ㅁㅜㄴㅅㅓㄹㅡㄹ</w>": 6864,
      "ㅈㅜㅇㄷㅗㄱ": 6865,
      "ㅂㅣㅇㅛㅇㅇㅡㄹ</w>": 6866,
      "ㅍㅛㅈㅜㄴ</w>": 6867,
      "ㅇㅗㄹㅐㄴ": 6868,
      "ㅇㅗㄴㄷㅗ</w>": 6869,
      "ame</w>": 6870,
      "with</w>": 6871,
      "ㅇㅣㄷㅡㄹㅇㅢ</w>": 6872,
      "ㄷㅐㅂㅣ": 6873,
      "ㅐㄷㅗ</w>": 6874,
      "ㅈㅗㅎㅇㅏ</w>": 6875,
      "2008ㄴㅕㄴ</w>": 6876,
      "ㅍㅗㅅㅡㅌㅡ": 6877,
      "ㅇㅕㄴㄱㅣ": 6878,
      "ㅌㅡㄹㅐㄴ": 6879,
      "ㄷㅗㅂ": 6880,
      "ㄲㅏㅈㅣㄷㅗ</w>": 6881,
      "ㅅㅐㅇㄱㅏㄱㅂㅗㄷㅏ</w>": 6882,
      "ㅈㅜㅇㅇㅛㅎㅏㄷㅏ</w>": 6883,
      "ㅅㅡㅌㅓㄴ</w>": 6884,
      "ㄷㅏㅇㅅㅣㄴ</w>": 6885,
      "ㅇㅣㅎㅐㅇ": 6886,
      "ㅇㅏㄱㅏ</w>": 6887,
      "ㄲㅡㄹㅇㅓ": 6888,
      "21ㅇㅣㄹ</w>": 6889,
      "ㅈㅗㅊㅣ": 6890,
      "ㅇㅣㄴㄷㅡㄹㅇㅢ</w>": 6891,
      "ㅇㅖㅅㅜ</w>": 6892,
      "ann": 6893,
      "ㄱㅓㅈㅜ": 6894,
      "ㅎㅏㅇㅁㅜㄴㅇㅢ</w>": 6895,
      "ㄷㅏㅂㅂㅕㄴㅇㅡㄹ</w>": 6896,
      "ㄱㅏㅁㅕㄴㅅㅓ</w>": 6897,
      "ㅇㅗㄱ</w>": 6898,
      "22ㅇㅣㄹ</w>": 6899,
      "ㄱㅏㄴㅏㄴ": 6900,
      "BC</w>": 6901,
      "ㅂㅔㅌㅡㄴㅏㅁ</w>": 6902,
      "PS</w>": 6903,
      "log": 6904,
      "ㅅㅜㅈㅜㄴㅇㅢ</w>": 6905,
      "ㅇㅓㅉㅐ": 6906,
      "ㄱㅛㅊㅔ": 6907,
      "ㅁㅜㄴㅈㅔㅈㅓㅁ</w>": 6908,
      "ㄱㅏㅇㅑ": 6909,
      "ㄴㅐㅇㅛㅇㅇㅔ</w>": 6910,
      "ㅂㅏㄱㅇㅡㄹ</w>": 6911,
      "ㅅㅣㅇㄱㅏ": 6912,
      "ㅇㅣㄹㄲㅏㅇㅛ</w>": 6913,
      "ㅅㅓㅇㅍㅗㄱ": 6914,
      "ㄴㅡㄲㅣㅁㅇㅡㄹ</w>": 6915,
      "ㅋㅗㄷㅡㄹㅡㄹ</w>": 6916,
      "ㅁㅏㄹㄷㅗ</w>": 6917,
      "ㅇㅣㅌㅏㄹㄹㅣ": 6918,
      "ㅇㅣㄺㄱㅣ</w>": 6919,
      "37</w>": 6920,
      "ㄱㅓㅅㄷㅡㄹㅇㅡㄹ</w>": 6921,
      "ㄱㅡㄹㅐㄴ": 6922,
      "ㄱㅓㄹㄹㅗ</w>": 6923,
      "ㄴㅏㅇㅣ</w>": 6924,
      "Sc": 6925,
      "ㅇㅏㅁㅔㄹㅣ": 6926,
      "ㅅㅓㄴㅏ</w>": 6927,
      "ㅏㅇㅑ</w>": 6928,
      "Qu": 6929,
      "ㅁㅗㅇㅕ</w>": 6930,
      "ㅅㅗㅅㅕㄹㄱㅡㄹㅐㅍㅡㄱㅔㅇㅣㅁ</w>": 6931,
      "No</w>": 6932,
      "ㅂㅣㄹㅗㄱ</w>": 6933,
      "ㅅㅣㄹㅁㅜ": 6934,
      "ST": 6935,
      "ㄱㅘㄴㄱㅖㄱㅏ</w>": 6936,
      "ㅇㅢㅅㅣㅁ": 6937,
      "ㅈㅏㄹㅁㅗㅅ</w>": 6938,
      "ㄱㅐㅇㅣㄴㅇㅢ</w>": 6939,
      "ㅎㅚㄱㄷㅡㄱ": 6940,
      "ㅇㅕㄹㅓㄱㅏㅈㅣ</w>": 6941,
      "ews</w>": 6942,
      "ㅁㅗㄴ</w>": 6943,
      "ㅇㅖㅃㅡㄴ</w>": 6944,
      "vis": 6945,
      "ㄷㅐㄱㅣ": 6946,
      "ㄸㅏㄸㅡㅅ": 6947,
      "ㅇㅣㅇㅓㅅㅓ</w>": 6948,
      "ㄱㅡㄹㅓㄴㅣㄲㅏ</w>": 6949,
      "ㅅㅡㅌㅡㄹㅏㅇㅣ": 6950,
      "ㄱㅟ</w>": 6951,
      "ㅇㅣㅈㅔㄴ</w>": 6952,
      "port</w>": 6953,
      "ㅇㅝㄴㄱㅘ</w>": 6954,
      "ㅇㅗㄱㅗ</w>": 6955,
      "ㅑㄴㅡㄴ</w>": 6956,
      "SA": 6957,
      "ㅇㅓㅄㅇㅓㅇㅛ</w>": 6958,
      "ome</w>": 6959,
      "ㅇㅖㅂㅣ": 6960,
      "ㅎㅘㅇㅔ</w>": 6961,
      "ㅈㅔㄱㅗㅇㄷㅚㄴㅡㄴ</w>": 6962,
      "ㅎㅖㅌㅐㄱㅇㅡㄹ</w>": 6963,
      "ㄱㅓㄹㅣㄹㅡㄹ</w>": 6964,
      "ㅌㅡㄱㅅㅓㅇ": 6965,
      "ㄷㅏㅎ": 6966,
      "ㅎㅚㄱㅖ": 6967,
      "ㅍㅣㅎㅐ</w>": 6968,
      "ㅋㅓㄴㅌㅔㄴㅊㅡ": 6969,
      "ㅈㅏㄴ</w>": 6970,
      "Me": 6971,
      "ㅅㅣㄹㅈㅓㅁ</w>": 6972,
      "ㅇㅣㄹㅡㅁㅇㅣ</w>": 6973,
      "ㅎㅏㄷㅡㅇㅞ": 6974,
      "ㅅㅡㄹ</w>": 6975,
      "ㅇㅣㅅㅡㅇ": 6976,
      "ㅈㅔㄹ": 6977,
      "ㄴㅐㅈㅣ</w>": 6978,
      "ㅅㅜㅍ": 6979,
      "ㅊㅏㄹㅖ": 6980,
      "ㄷㅐㅅㅣㄴ": 6981,
      "ㅁㅗㅇㅣㅁ": 6982,
      "ㅁㅣㄹㅐㄹㅡㄹ</w>": 6983,
      "ㅇㅠㅇㅣㄹㅎㅏㄴ</w>": 6984,
      "ㅈㅏㄲㅜ</w>": 6985,
      "ㄹㅏㅇㅣㅂㅡ</w>": 6986,
      "ㅊㅟㄷㅡㄱ": 6987,
      "ㅊㅚㅈㅓㄱㅇㅢ</w>": 6988,
      "ㄹㅣㅈㅗㅌㅡ</w>": 6989,
      "ㅈㅣㄱㅎㅏㄴ</w>": 6990,
      "ㄱㅕㅇㅈㅔㅈㅓㄱ</w>": 6991,
      "ㅎㅣㄹ": 6992,
      "ㅈㅣㄴㅇㅡㄴ</w>": 6993,
      "ㅁㅔㄹ": 6994,
      "ㄱㅘㄴㅊㅏㄹ": 6995,
      "ㅌㅏㅅ": 6996,
      "ㅇㅘㅆㅅㅡㅂㄴㅣㄷㅏ</w>": 6997,
      "cl": 6998,
      "ㄷㅗㄷ": 6999,
      "ㅈㅜㄱ</w>": 7000,
      "ㄴㅐㄹㅕㅇ": 7001,
      "ㅇㅟㄴㄷㅗㅇㅜ": 7002,
      "ㅎㅠㄷㅐㅍㅗㄴ</w>": 7003,
      "ㄱㅕㅌ": 7004,
      "000ㅇㅝㄴ</w>": 7005,
      "EN": 7006,
      "ㄴㅏㅁㅕㄴ</w>": 7007,
      "ㄱㅗㅅㅇㅡㄹㅗ</w>": 7008,
      "ㄹㅔㅍㅗㅌㅡ": 7009,
      "ㅍㅣㄹㅇㅛㅎㅏㅂㄴㅣㄷㅏ</w>": 7010,
      "ㄴㅣㅇㅏ</w>": 7011,
      "ㅅㅏㅅㅣㄹㅅㅏㅇ</w>": 7012,
      "ㅇㅣㅆ</w>": 7013,
      "ㅇㅔㄱㅔㅅㅓ</w>": 7014,
      "ㅂㅡㄹㄹㅜ</w>": 7015,
      "ㄱㅕㄹㅈㅓㅇㅇㅡㄹ</w>": 7016,
      "ㅁㅏㄶㄱㅗ</w>": 7017,
      "ㅅㅣㄴㅐ": 7018,
      "ㅈㅣㄴㅂㅗ": 7019,
      "ㅅㅓㄹㅁㅕㅇㅎㅐㅆㄷㅏ</w>": 7020,
      "Microsoft</w>": 7021,
      "ㄱㅗㅇㅌㅗㅇ": 7022,
      "ㅊㅐㄱㅇㅣ</w>": 7023,
      "10ㅍㅔㅇㅣㅈㅣ</w>": 7024,
      "ㅇㅗㅀ": 7025,
      "ㅅㅏㄱㅘ": 7026,
      "yn": 7027,
      "ㄷㅏㄴㅡㄴ": 7028,
      "ON</w>": 7029,
      "ㄱㅏㅂㅏㅇ</w>": 7030,
      "ㄸㅡㄹㅣ": 7031,
      "ㄷㅡㄹㅇㅓㄱㅏ</w>": 7032,
      "ㅈㅓㅈㅏㄱㄱㅝㄴㅂㅓㅂㅇㅢ</w>": 7033,
      "ㄷㅏㄴㅣㄴㅡㄴ</w>": 7034,
      "ㅂㅕㄴㄷㅗㅇ": 7035,
      "ㄷㅗㄱㅌㅡㄱㅎㅏㄴ</w>": 7036,
      "ㅈㅓㄴㅎㅘㅂㅓㄴㅎㅗ</w>": 7037,
      "mil": 7038,
      "ㅎㅗㄴㅈㅏ": 7039,
      "ㄱㅏㅇㅇㅜㄹ": 7040,
      "ㅎㅜㅇㅔㄴㅡㄴ</w>": 7041,
      "ㅈㅏㅇㅠ</w>": 7042,
      "MP": 7043,
      "tion": 7044,
      "ㄱㅓㄹㅊㅕ</w>": 7045,
      "ㄴㅡㄹㅇㅓ": 7046,
      "ㅇㅣㅅㅏ": 7047,
      "ㅅㅜㅎㅏㄴ</w>": 7048,
      "ㅇㅏㄶㄱㅣ</w>": 7049,
      "ㅂㅏㄹㅏㅁㅇㅣ</w>": 7050,
      "ㅈㅜㅇㅇㅣㄷㅏ</w>": 7051,
      "ㅋㅣㄹㄹㅗㅁㅣㅌㅓ</w>": 7052,
      "ㅅㅜㅇㅝㄴ": 7053,
      "ㅇㅕㄴㄱㅡㅁ": 7054,
      "ㅇㅓㅆㅈㅣㅁㅏㄴ</w>": 7055,
      "ㅇㅓㄹㅡㄴ": 7056,
      "We": 7057,
      "ㄱㅓㅅㅂㅗㄷㅏ</w>": 7058,
      "ㅁㅐㅊㅜㄹ": 7059,
      "ㄴㅕㄴㅇㅢ</w>": 7060,
      "ㅎㅡㄴㄷㅡㄹ": 7061,
      "ㅎㅘㅇㅘ</w>": 7062,
      "ㄷㅏㅅㅋㅓㅁ</w>": 7063,
      "ㅇㅝㄷㅡ</w>": 7064,
      "ㅎㅡㄴㅎㅣ</w>": 7065,
      "ㅅㅡㅍㅔㅇㅣㄴ</w>": 7066,
      "ㅇㅏㄴㅇㅡㄹㅗ</w>": 7067,
      "pr": 7068,
      "ㅅㅣㅈㅏㅇㅇㅔ</w>": 7069,
      "ㅇㅕㅅㅓ</w>": 7070,
      "Di": 7071,
      "ㅇㅣㅆㅇㅡㄴㅏ</w>": 7072,
      "ㅈㅗㅇㅈㅗㅇ</w>": 7073,
      "ㅅㅣㄴㅎㅗ": 7074,
      "RA": 7075,
      "ㅎㅏㅇㅑ": 7076,
      "ㄷㅏㅇㅡㅁㅇㅢ</w>": 7077,
      "ㄴㅏㄹㅏㅇㅢ</w>": 7078,
      "ㅗㄱㅣ</w>": 7079,
      "ㅓㅎ": 7080,
      "ㅁㅐㅇ</w>": 7081,
      "3ㅇㅝㄹ": 7082,
      "ㅋㅡㄹㅣㅅㅡㅁㅏㅅㅡ</w>": 7083,
      "kg</w>": 7084,
      "ㅅㅓㅇㅘ</w>": 7085,
      "ㅎㅏㄷㅡ": 7086,
      "ㅅㅏㅇㅛㅇㅎㅏㅈㅣ</w>": 7087,
      "ㄷㅏㅁㅇㅏ</w>": 7088,
      "ㄱㅐㅇㅣㄴㅈㅓㅇㅂㅗㅇㅢ</w>": 7089,
      "ㄷㅏㅇㅅㅣㄴㅇㅡㄹ</w>": 7090,
      "ㅌㅏㄺ</w>": 7091,
      "ㄴㅣㄱㅏ</w>": 7092,
      "ㅊㅚㅊㅗㄹㅗ</w>": 7093,
      "ㅇㅣㅌㅏㄹㄹㅣㅇㅏ</w>": 7094,
      "ㅇㅏㅍㄷㅜㄱㅗ</w>": 7095,
      "ㅇㅣㅇㅛㅇㅎㅏㄴㅡㄴ</w>": 7096,
      "ㅈㅜㄴㅂㅣㄹㅡㄹ</w>": 7097,
      "ㅅㅗㄹㅈㅣㄱㅎㅣ</w>": 7098,
      "ㄴㅐㄹㅣㄴ</w>": 7099,
      "ㅈㅗㅇㅔ</w>": 7100,
      "ㅇㅣㅍ": 7101,
      "ㅊㅔㄴㅡㄴ</w>": 7102,
      "2014</w>": 7103,
      "ㅅㅓㅇㅑㅇ": 7104,
      "ㄷㅔㅇㅣㅌㅓㅂㅔㅇㅣㅅㅡ</w>": 7105,
      "ㅇㅕㅆㄷㅓㄴ</w>": 7106,
      "ㅈㅓㄹㄷㅐ": 7107,
      "ㅇㅜㅇㅜㄹ": 7108,
      "ㅍㅏㅂ": 7109,
      "ㅅㅔㄱㅡㅁ": 7110,
      "ㄷㅏㅇㅇㅢ</w>": 7111,
      "ㄱㅏㄱㅜ</w>": 7112,
      "ㅊㅜㄱㅜ": 7113,
      "ㅇㅐㄹㅂㅓㅁ</w>": 7114,
      "\"(</w>": 7115,
      "ㅂㅣㅇㅏ</w>": 7116,
      "ㅅㅡㅇㅇㅡㄹ</w>": 7117,
      "ㅍㅜㅇㅅㅗㄱ": 7118,
      "ㅅㅜㅅㅣㄴ": 7119,
      "ㅈㅗㅊㅣㄹㅡㄹ</w>": 7120,
      "ㅇㅗㄹㄹㅏㅆㄷㅏ</w>": 7121,
      "ㄸㅓㄹㅇㅓㅈㅣㄴ</w>": 7122,
      "ㅊㅐㄱㅇㅣㅁ</w>": 7123,
      "ㄴㅏㄹㅇㅔ</w>": 7124,
      "ㅂㅜㅁㅗ</w>": 7125,
      "ㅅㅣㄹㅇㅔ</w>": 7126,
      "ㅅㅓㅇㅈㅓㄱ</w>": 7127,
      "ㅂㅣㅇ</w>": 7128,
      "ㄷㅓㄹ</w>": 7129,
      "ㅂㅅㅣㄷㅏ</w>": 7130,
      "ㅌㅓㄹㅇㅣ</w>": 7131,
      "ㅋㅔㅇㅣㅂㅡㄹ": 7132,
      "ㄱㅗㅇㄱㅏㄴㅇㅡㄹ</w>": 7133,
      "ㄷㅏㄴㅣ</w>": 7134,
      "ㅇㅟㅊㅣㄹㅡㄹ</w>": 7135,
      "ㅌㅗㅇㄱㅖ</w>": 7136,
      "ㅊㅏㄷㅏㄴ": 7137,
      "ㅋㅗㄹ</w>": 7138,
      "ath": 7139,
      "ence</w>": 7140,
      "ight</w>": 7141,
      "ㄱㅡㅁㅇㅠㅇ</w>": 7142,
      "ㅇㅗㄹㅐㅅ": 7143,
      "ㅍㅗㅌㅗ": 7144,
      "ㅍㅐㅌㅓㄴ": 7145,
      "CD": 7146,
      "ㅊㅔㅋㅡ</w>": 7147,
      "ㅅㅏㅇㄱㅘ</w>": 7148,
      "ㅊㅏㄴㅡㄴ</w>": 7149,
      "ㄷㅡㄴㄷㅏ</w>": 7150,
      "ㄱㅡㄴㅂㅗㄴ": 7151,
      "ㄴㅏㄹㅇㅡㄹ</w>": 7152,
      "ㅋㅡㄱㅣ</w>": 7153,
      "ㅋㅡㄹㄹㅏㅇㅣㅇㅓㄴ": 7154,
      "ㄲㅡㄹㅓ": 7155,
      "ㅌㅚ</w>": 7156,
      "ㄸㅓㄱ": 7157,
      "ㅎㅘㄴㅇㅕㅇ": 7158,
      "ㄷㅓㄹㅓ": 7159,
      "ㄸㅗㅇ": 7160,
      "ㅈㅜㅁㅕㄴ</w>": 7161,
      "ㅎㅏㄱㅅㅐㅇㄷㅡㄹㅇㅣ</w>": 7162,
      "ㅅㅣㅋㅣㄴ</w>": 7163,
      "ㄱㅕㅇㅊㅏㄹ</w>": 7164,
      "ㅂㅗㅈㅗㄴ": 7165,
      "ㄷㅜㄹㅉㅐ</w>": 7166,
      "ㅂㅡㄹㅐㄴㄷㅡㅁㅕㅇ</w>": 7167,
      "ㅎㅘㄱㅈㅓㅇ": 7168,
      "ㅂㅜㅅㅡㅌㅏㅂㅣㅅㅂㅜㅅㅡㅌㅏㅂㅣㅅ": 7169,
      "ML</w>": 7170,
      "ord": 7171,
      "ㅎㅜㅈㅏㅇ</w>": 7172,
      "ㄸㅡㅅㅇㅡㄹ</w>": 7173,
      "ㄷㅐㅇㅘ</w>": 7174,
      "ㅇㅣㄴㄱㅣㄹㅡㄹ</w>": 7175,
      "ㅂㅜㄷㅗㅇㅅㅏㄴ": 7176,
      "ㅇㅣㄹㅊㅣ": 7177,
      "ㅈㅔㅇㅓ</w>": 7178,
      "ㅎㅕㄱㅁㅕㅇ</w>": 7179,
      "ㅁㅔㅅㅣㅈㅣ</w>": 7180,
      "st</w>": 7181,
      "ㄴㅗㄹㅇㅣ</w>": 7182,
      "ㅎㅕㄴㅈㅐㅇㅢ</w>": 7183,
      "ㅇㅞㅇㅣ</w>": 7184,
      "ㅈㅜㄷㅗ": 7185,
      "ㄴㅓㅇㅢ</w>": 7186,
      "ㅇㅣㅎㅐㄱㅏ</w>": 7187,
      "4ㄱㅐ</w>": 7188,
      "ㅂㅜㅇㅘ</w>": 7189,
      "ㄱㅛㄹㅠ": 7190,
      "ㄱㅗㅇㅇㅣㄴ": 7191,
      "46": 7192,
      "ㅅㅡㅇㅁㅜ": 7193,
      "ㄴㅏㄱㅏㄹ</w>": 7194,
      "ㅅㅣㄱㄷㅏㅇ</w>": 7195,
      "ㅇㅣㅆㄴㅡㄴㄱㅏ</w>": 7196,
      "ㄱㅏㅅㅡㅁ": 7197,
      "ㅇㅗㄹㄹㅏ</w>": 7198,
      "ㄴㅑ</w>": 7199,
      "ㅂㅓㅁㅇㅟ</w>": 7200,
      "ㄷㅐㅍㅛㅈㅏ</w>": 7201,
      "ㄴㅗㅇㅇㅓㅂ": 7202,
      "ㅂㅠ</w>": 7203,
      "ㅁㅏㄶㅇㅏ": 7204,
      "ㅇㅓㅉㅓㅁㅕㄴ</w>": 7205,
      "ㅈㅔㅇㅏㄴ</w>": 7206,
      "ㄷㅐㅌㅗㅇㄹㅕㅇㅇㅢ</w>": 7207,
      "porn</w>": 7208,
      "36</w>": 7209,
      "ㅇㅡㅁㅇㅔㄷㅗ</w>": 7210,
      "ㅇㅓㄹㅣ": 7211,
      "ㄱㅝㄴㅇㅣ</w>": 7212,
      "ㅂㅡㄹㅏㅇㅜㅈㅓ": 7213,
      "ㅅㅏㄴㅇㅓㅂㅇㅢ</w>": 7214,
      "ㄱㅏㅈㅓㅇ</w>": 7215,
      "ㅓㄴㅌㅡ</w>": 7216,
      "ㅇㅣㅂㅇㅔ</w>": 7217,
      "ㅅㅡㅍㅏ": 7218,
      "ㄷㅚㅈㅣㅁㅏㄴ</w>": 7219,
      "ㅇㅏㄹㄹㅕㅈㅕ</w>": 7220,
      "ㅅㅔㄹㅍㅡ</w>": 7221,
      "ㅁㅜㄴㅓ": 7222,
      "ㅂㅜㄴㄹㅠ</w>": 7223,
      "ㅇㅐㅇ": 7224,
      "ㅅㅡㅇㅟㅌㅡ</w>": 7225,
      "ㅁㅜㅇㅓㅅㅇㅣ</w>": 7226,
      "ㅈㅗㅎㅇㅏㅆㅅㅡㅂㄴㅣㄷㅏ</w>": 7227,
      "ㅇㅕㄴㅇㅐ": 7228,
      "mar": 7229,
      "ㄱㅓㄴㄱㅏㅇㅎㅏㄴ</w>": 7230,
      "PO": 7231,
      "ㅎㅐㅇㄷㅗㅇ</w>": 7232,
      "ㅅㅣㅈㅏㅇㅇㅔㅅㅓ</w>": 7233,
      "ㅋㅡㄹㅜ": 7234,
      "ㄱㅜㄱㅁㅣㄴㅇㅢ</w>": 7235,
      "ㅅㅏㅇㅎㅗ</w>": 7236,
      "ㅂㅗㄴㅇㅣㄴㅇㅣ</w>": 7237,
      "ㄷㅏㅇㅅㅏ": 7238,
      "ㄱㅐㅇㅛ</w>": 7239,
      "ick</w>": 7240,
      "ㄱㅣㅂㅏㄴㅇㅡㄹㅗ</w>": 7241,
      "ㄷㅣㄹ": 7242,
      "ㅍㅡㄹㄹㅐㅅㅍㅗㅁ</w>": 7243,
      "ㅇㅏㅇㅣㅌㅔㅁ</w>": 7244,
      "ㅊㅜㅇㅂㅜㄴㅎㅏㄴ</w>": 7245,
      "NB": 7246,
      "ㄱㅡㄹㅣㄴ": 7247,
      "ㅎㅏㄴㄱㅜㄱㅇㅔㅅㅓ</w>": 7248,
      "ㅇㅕㄹㄹㅣㄴㅡㄴ</w>": 7249,
      "ㄱㅓㅅㅇㅣㄹㅏ</w>": 7250,
      "ㅇㅣㅆㄴㅔㅇㅛ</w>": 7251,
      "ㅇㅢㄱㅕㄴ</w>": 7252,
      "ㅈㅗㅅㅏㄹㅡㄹ</w>": 7253,
      "ㅅㅗㄴㅕㄴ</w>": 7254,
      "ㄹㅕㄱㄱㅘ</w>": 7255,
      "ㅈㅏㄷㅗ</w>": 7256,
      "ok": 7257,
      "ㅅㅗㅅㅣㄱㅇㅡㄹ</w>": 7258,
      "ㅇㅕㄱㅇㅡㄹ</w>": 7259,
      "ㄷㅚㄱㅓㄴㅏ</w>": 7260,
      "ㅇㅓㅁㅊㅓㅇ</w>": 7261,
      "ㅇㅜㅇㅕㄴ": 7262,
      "ㅎㅐㅆㅇㅡㄴㅏ</w>": 7263,
      "ㅅㅟㅂㄱㅗ</w>": 7264,
      "30ㅂㅜㄴ</w>": 7265,
      "ㅁㅏㅇㅣㅋㅡㄹㅗ": 7266,
      "Bl": 7267,
      "ㅂㅗㄲ": 7268,
      "ㅈㅗㅇㄹㅛ</w>": 7269,
      "ㅂㅏㅇㅇㅣ</w>": 7270,
      "ㅂㅏㄷㄴㅡㄴㄷㅏ</w>": 7271,
      "ㄷㅡㅇㄱㅡㅂ</w>": 7272,
      "25ㅇㅣㄹ</w>": 7273,
      "ㅌㅏㅇㅣㄴㅇㅢ</w>": 7274,
      "ㄴㅗㄹㅐ</w>": 7275,
      "ㅅㅏㅈㅓㄴㅇㅔ</w>": 7276,
      "ㅇㅠㄴㄹㅣ": 7277,
      "ㄷㅗㅅㅣㅁ": 7278,
      "ㄱㅏㄱㅕㄱㅇㅡㄴ</w>": 7279,
      "ㅍㅏㄹㅏ": 7280,
      "ㅇㅣㄴㅈㅗㅇ": 7281,
      "ㄴㅏㄱㅏㄴㅡㄴ</w>": 7282,
      "ㅅㅗㅎㅏㄴ</w>": 7283,
      "ㄱㅏㄴㅡㅇㅎㅏㅁㅕ</w>": 7284,
      "ㄴㅏㅌㅏㄴㅏㄴㅡㄴ</w>": 7285,
      "ㅌㅏㅂㅈㅐ": 7286,
      "ㄱㅗㄱㅐㄱㅇㅢ</w>": 7287,
      "udi": 7288,
      "ㅎㅏㅅㅣㄱㅔㅆㅅㅡㅂㄴㅣㄲㅏ</w>": 7289,
      "ㅎㅓ</w>": 7290,
      "ㅊㅜㅈㅣㄴ</w>": 7291,
      "ang</w>": 7292,
      "ㅇㅢㅅㅣㄱ": 7293,
      "1ㅍㅔㅇㅣㅈㅣ</w>": 7294,
      "ㅈㅓㅁㅇㅢ</w>": 7295,
      "ㅇㅣㅇㅜㅅ": 7296,
      "ㅎㅘㄴㅈㅏ</w>": 7297,
      "ㄱㅣㅂㅜㄴㅇㅣ</w>": 7298,
      "ㅎㅏㄴㅡㄴㅂㅓㅂ</w>": 7299,
      "ㅈㅣㅂㅎㅐㅇ": 7300,
      "ㅅㅗㄴㅎㅐ": 7301,
      "ㅇㅣㄴㅅㅣㄱ</w>": 7302,
      "ㅈㅏㄱㄴㅕㄴ</w>": 7303,
      "ㅅㅐㅇㄱㅏㄱㅎㅐ": 7304,
      "ㄴㅏㅇㅣㄷㅡㄴ": 7305,
      "ㅍㅡㄹㅣㅁㅣㅇㅓㅁ</w>": 7306,
      "ㅇㅓㅇㅘ</w>": 7307,
      "ㅎㅐㅅㅏㅇ": 7308,
      "CS": 7309,
      "1ㅇㅣㄴ": 7310,
      "DS": 7311,
      "ㅎㅗㅌㅔㄹㅇㅔㄴㅡㄴ</w>": 7312,
      "ㅈㅏㄱㅣㅅㅗㄱㅐㅅㅓ</w>": 7313,
      "ㅈㅕㄴ": 7314,
      "ㅅㅣㄴㄱㅏㅇㅛ</w>": 7315,
      "ㅎㅘㄴㅡㄴ</w>": 7316,
      "ㄷㅓㅂㅡㄹ": 7317,
      "ㅂㅗㄱㅇㅡㅁ": 7318,
      "27ㅇㅣㄹ</w>": 7319,
      "ㄱㅓㅁㅈㅡㅇ": 7320,
      "ㅅㅣㅍㅇㅓㅇㅛ</w>": 7321,
      "ㄴㅓㅎㄱㅗ</w>": 7322,
      "ㅈㅔㄱㅓ</w>": 7323,
      "ㅍㅕㅇㅂㅓㅁ": 7324,
      "65": 7325,
      "ㅇㅠㅇㅛㅇㅎㅏㄴ</w>": 7326,
      "ㅅㅏㅇㅈㅣㅇ": 7327,
      "ㄸㅏㄹㅡ": 7328,
      "ㅊㅏㅇㅢ</w>": 7329,
      "ㅁㅜㄴㅇㅡㄴ</w>": 7330,
      "we": 7331,
      "ㅎㅏㄴㅡㄴㄱㅔ</w>": 7332,
      "ㅅㅜㅇ": 7333,
      "ㅊㅗㅇㅔ</w>": 7334,
      "ㄴㅔㄱㅏ</w>": 7335,
      "ㅇㅡㄹㄸㅐ</w>": 7336,
      "ㅅㅓㄴㅌㅐㄱㅎㅏㄴ</w>": 7337,
      "ㅊㅓㅇㅈㅜㅅㅣ</w>": 7338,
      "ㅅㅏㅇㅌㅐㄹㅡㄹ</w>": 7339,
      "ㄷㅏㅅㅓㅅ</w>": 7340,
      "ㅂㅗㄴㅐㄴ</w>": 7341,
      "ㅂㅓㄹㅣㄱㅗ</w>": 7342,
      "ㄷㅗㅇㄱㅣ</w>": 7343,
      "ㄱㅖㅈㅘ": 7344,
      "ㅅㅓㅇㅑ</w>": 7345,
      "ㅈㅓㄴㅌㅜ": 7346,
      "ㅇㅖㅅㅏㅇ</w>": 7347,
      "ㅈㅣㄹㅇㅢ</w>": 7348,
      "ㅇㅓㄴㄷㅓ": 7349,
      "ㅅㅓㅂㅊㅟ": 7350,
      "ㅂㅜㄴㅇㅑㅇㅢ</w>": 7351,
      "ㅅㅣㅈㅏㅇㅇㅡㄹ</w>": 7352,
      "ㅍㅣㅎㅐㄹㅡㄹ</w>": 7353,
      "ㅇㅗㅌㅗ": 7354,
      "ㅂㅏㅇㅎㅑㅇㅇㅡㄹㅗ</w>": 7355,
      "ㅋㅓㅍㅡㄹ</w>": 7356,
      "ㅅㅏㅌㅐ": 7357,
      "ㅁㅏㄴㄷㅡㄹㅇㅓㅈㅣㄴ</w>": 7358,
      "ㄱㅓㄴㅈㅣ</w>": 7359,
      "ㄱㅣㅅㅏ": 7360,
      "ㅅㅓㄴㅂㅏㄹ</w>": 7361,
      "ㅅㅓㅇㅈㅓㄱ": 7362,
      "ㅌㅔㅅㅡㅌㅡ": 7363,
      "ㅍㅕㅇㄱㅏㄹㅡㄹ</w>": 7364,
      "ㄱㅜㅇㅔ</w>": 7365,
      "ㅍㅏㅇㅣㄴ": 7366,
      "ㅇㅏㅁㅜㄹㅐㄷㅗ</w>": 7367,
      "88": 7368,
      "ㄱㅓㄹㅣㄱㅏ</w>": 7369,
      "2013</w>": 7370,
      "ㅈㅗㅈㅓㅇ</w>": 7371,
      "ㅇㅣㅊㅓㄹㅓㅁ</w>": 7372,
      "ㅇㅓㄹㅕㅇㅝ": 7373,
      "ㅉㅡㅁ": 7374,
      "ㅂㅡㄹㅗ": 7375,
      "ㅇㅕㄹㅓㅂㅜㄴㅇㅢ</w>": 7376,
      "az": 7377,
      "ㅇㅏㅅㅣㅇㅏ": 7378,
      "ㅈㅐㅅㅐㅇㅅㅜ</w>": 7379,
      "ㄷㅡㅇㅇㅔㅅㅓ</w>": 7380,
      "ㄹㅠㄹㅇㅣ</w>": 7381,
      "ㄱㅖㅅㅣ": 7382,
      "ㄱㅏㅁㅅㅏㅇㅁㅜㄴ</w>": 7383,
      "ㅇㅣㅅㅏㅇㅎㅏㄴ</w>": 7384,
      "ㅂㅕㄹㄷㅗㄹㅗ</w>": 7385,
      "24ㅇㅣㄹ</w>": 7386,
      "ㅈㅗㄹㅣ": 7387,
      "ㅋㅓㄴㅌㅡㄹㅗㄹ": 7388,
      "ㅎㅐㅇㅑㅇ": 7389,
      "ㅇㅣㅅㅠ</w>": 7390,
      "ㅂㅐㄱㅂㅜㄴ": 7391,
      "ㅋㅡㄹㄹㅓㅂ": 7392,
      "KT": 7393,
      "ㅈㅓㅇㅇㅝㄴ</w>": 7394,
      "ㅎㅐㅈㅜㅅㅕㅅㅓ</w>": 7395,
      "ㅁㅝㄹ</w>": 7396,
      "ㄴㅣㄱ": 7397,
      "!)</w>": 7398,
      "ㄹㅗㄷㅡ": 7399,
      "ㅇㅣㄹㅓㅎ": 7400,
      "ㅇㅡㅇㅇㅝㄴ": 7401,
      "ㅅㅡㅍㅏ</w>": 7402,
      "ㅁㅗㅅㅎㅐ</w>": 7403,
      "2009ㄴㅕㄴ</w>": 7404,
      "ㅍㅗㅈㅏㅇ": 7405,
      "ㅇㅡㅁㅇㅏㄱㅇㅡㄹ</w>": 7406,
      "dis": 7407,
      "lis": 7408,
      "ㅈㅜㅁㅏㄹ</w>": 7409,
      "ㅇㅏㄴㄷㅚㄴㅡㄴ</w>": 7410,
      "ㅁㅜㄹㅕ</w>": 7411,
      "ㅈㅓㄴㅇㅔㄴㅡㄴ</w>": 7412,
      "ㅊㅗㄱㅣ": 7413,
      "ㅇㅣㅁㄷㅐ": 7414,
      "ㅎㅏㄹㄲㅏㅇㅛ</w>": 7415,
      "ㅅㅣㅅㅗㄱ</w>": 7416,
      "ㅈㅔㄱㅗㅇㅎㅏㄹ</w>": 7417,
      "ㅁㅜㄴㅈㅔㄹㅗ</w>": 7418,
      "ㄹㅣㅇㅓㄹ": 7419,
      "ㅅㅣㅁㄱㅏㄱㅎㅏㄴ</w>": 7420,
      "ㅁㅣㄴㄷㅡㄹㄹㅔ</w>": 7421,
      "ㄷㅏㅁㅂㅗ": 7422,
      "ㅇㅠㅎㅛ": 7423,
      "ㅈㅡㄹㄱㅣㄴㅡㄴ</w>": 7424,
      "ㅎㅠㅇ": 7425,
      "ㅇㅣㅂㅎㅏㄱ": 7426,
      "ㅂㅏㅇㅅㅣㄱㅇㅡㄹ</w>": 7427,
      "ㅂㅏㄷㅇㅏㅇㅑ</w>": 7428,
      "ㅇㅢㅇㅢ</w>": 7429,
      "ㅍㅐㄹㅓ": 7430,
      "ㅅㅓㅇㅝㄴ": 7431,
      "ㅅㅗㄴㄴㅣㅁ": 7432,
      "ㅋㅡㄹㅔ": 7433,
      "ㅅㅏㅈㅣㄴㅇㅡㄴ</w>": 7434,
      "ㅁㅏㄴㅇㅡㄴ</w>": 7435,
      "ㅁㅐㄱ</w>": 7436,
      "ㅍㅔㅇㅣㅅㅡ</w>": 7437,
      "ㅈㅗㅇㅁㅗㄱ": 7438,
      "ㄴㅡㄲㅣㄴㅡㄴ</w>": 7439,
      "ㅅㅜㅎㅏㄱ": 7440,
      "ㅂㅗㄴㅐㄴㅡㄴ</w>": 7441,
      "4ㅊㅏ</w>": 7442,
      "ㄱㅕㅂ": 7443,
      "ㅇㅕㅅㅓㅇㅇㅢ</w>": 7444,
      "ㅅㅣㄹㅂㅣ": 7445,
      "ㄱㅏㅂㅕㅇ": 7446,
      "ㅌㅣㅂㅣ</w>": 7447,
      "ㅂㅗㄴㅇㅣㄴㅇㅢ</w>": 7448,
      "ㅊㅓㅅㅉㅐ</w>": 7449,
      "ㅍㅔㅇㅣㅈㅣㅂㅜㅌㅓㄴㅡㄴ</w>": 7450,
      "ㄲㅜㅁㄲㅜ": 7451,
      "les": 7452,
      "ㅅㅏㅁㅜㅅㅣㄹ</w>": 7453,
      "ㄷㅓㄹㅏㄱㅗㅇㅛ</w>": 7454,
      "ㅎㅐㅂㅗㅅㅔㅇㅛ</w>": 7455,
      "ㅇㅚㄱㅛ": 7456,
      "ㅍㅗㅈㅏㅇ</w>": 7457,
      "ㄴㅡㄴㅑ</w>": 7458,
      "ㅈㅣㄹㅁㅜㄴㅇㅡㄹ</w>": 7459,
      "ㅍㅣㅇㅋㅡ</w>": 7460,
      "ㅈㅏㅇㅠㄹㅗㅂㄱㅔ</w>": 7461,
      "ㄷㅐㅊㅓ": 7462,
      "ㄱㅡㄴㅊㅓ</w>": 7463,
      "26ㅇㅣㄹ</w>": 7464,
      "ㅁㅏㄴㄴㅏㄴㅡㄴ</w>": 7465,
      "ㅅㅏㅇㅛㅇㅇㅔ</w>": 7466,
      "ㅅㅣㄱㅖ": 7467,
      "ㅌㅣㅋㅔㅅ</w>": 7468,
      "ㄱㅐㅂㅕㄹ</w>": 7469,
      "ㅅㅏㅇㅛㅇㅎㅏㄴ</w>": 7470,
      "194": 7471,
      "ㅇㅏㄴㅇㅡㄴ</w>": 7472,
      "ㅇㅗㄹㅂㅏㄹㅡㄴ</w>": 7473,
      "ㄹㅔㄷㅡ</w>": 7474,
      "ㄹㅏㅇㅜㄴㄷㅡ</w>": 7475,
      "39</w>": 7476,
      "ㅇㅓㅆㅇㅡㄹ</w>": 7477,
      "ON": 7478,
      "ㅊㅟ</w>": 7479,
      "ㅔㄱ": 7480,
      "ㄴㅠㅇㅛㄱ</w>": 7481,
      "ㄲㅗㄱ": 7482,
      "ㄱㅏㅂㅕ": 7483,
      "ㅇㅗㄹㅡㄹ</w>": 7484,
      "ㄱㅠㄴ</w>": 7485,
      "ㄴㅡㄲㅣㅁ</w>": 7486,
      "ㅈㅐㅈㅓㅇ": 7487,
      "ㅅㅏㅈㅏㅇ": 7488,
      "ㄴㅗㅇㄱㅜ": 7489,
      "ㅎㅐㅇㄷㅗㅇㅇㅡㄹ</w>": 7490,
      "ㅅㅡㅂㄴㅣㄷㅏㅁㅏㄴ</w>": 7491,
      "ㄴㅏㄴㅜㅁ": 7492,
      "ㄱㅏㅈㅣㄹ</w>": 7493,
      "ㅁㅣㄴㄱㅏㄴ": 7494,
      "ㄱㅏㅁㄷㅗㄱㅇㅡㄴ</w>": 7495,
      "ㅇㅖㅈㅓㅇㅇㅣㅂㄴㅣㄷㅏ</w>": 7496,
      "ker</w>": 7497,
      "ㄴㅏㅇㅗㄱㅗ</w>": 7498,
      "ㅍㅜㄹㅇㅓ": 7499,
      "ㄱㅣㅇㅓㅂㅇㅣ</w>": 7500,
      "ㅎㅐㅂㅕㄴ": 7501,
      "ㅇㅏㄹㅣ</w>": 7502,
      "ㅂㅗㄴㅇㅣㄴ</w>": 7503,
      "ㄷㅗㅇㄱㅣ": 7504,
      "ㄱㅜㄷㅗㄱ": 7505,
      "ㄷㅟㄹㅗ</w>": 7506,
      "ㅅㅇㅢ</w>": 7507,
      "ㅈㅐㅇㅘ</w>": 7508,
      "ㄴㅐㅇㅛㅇㄱㅘ</w>": 7509,
      "ㅁㅡㄹㅗ</w>": 7510,
      "ㄱㅠㅈㅓㅇ</w>": 7511,
      "ㄱㅏㄱㅇㅡㄹ</w>": 7512,
      "ㄱㅘㄴㄹㅣㄹㅡㄹ</w>": 7513,
      "99": 7514,
      "BM": 7515,
      "ㅇㅟㅇㅝㄴㅈㅏㅇ</w>": 7516,
      "ㄱㅜㄴㅅㅏ": 7517,
      "ㅍㅏㄹㅣ</w>": 7518,
      "ㄱㅔㅇㅛ</w>": 7519,
      "ㅊㅓㄹㅎㅏㄱ": 7520,
      "SNS": 7521,
      "ㅁㅔㅇㅣㄴ": 7522,
      "ㅇㅛㄱㅜ</w>": 7523,
      "ㅈㅣㄴㄷㅏㄴ</w>": 7524,
      "ㅎㅢㅅㅐㅇ": 7525,
      "ㅇㅏㄹㅇㅏㅇㅑ</w>": 7526,
      "ㅅㅔㄱㅖㄹㅡㄹ</w>": 7527,
      "ㅁㅏㅅㅔㅇㅛ</w>": 7528,
      "ㅊㅜㄱㅏㄹㅗ</w>": 7529,
      "ㅇㅓㅄㅇㅡㅁㅕㄴ</w>": 7530,
      "ㅁㅏㄶㅇㅏ</w>": 7531,
      "ㅅㅓㅇㄹㅕㅇ": 7532,
      "ㅂㅗㅇㅕㅈㅜㅂㄴㅣㄷㅏ</w>": 7533,
      "SQL</w>": 7534,
      "ust": 7535,
      "ㅂㅏㄴㄷㅗ": 7536,
      "ㄱㅠㅊㅣㄱ": 7537,
      "ㅅㅔㄱㅖㅇㅔㅅㅓ</w>": 7538,
      "ㅂㅗㅇㅕㅈㅜㄴㅡㄴ</w>": 7539,
      "ㅇㅣㅆㅈㅛ</w>": 7540,
      "ㅌㅔㅁ": 7541,
      "2012</w>": 7542,
      "ㄷㅐㄱㅕㄹ": 7543,
      "2016": 7544,
      "ㄱㅏㅇㅇㅏ": 7545,
      "ㅈㅔㅇㅓ": 7546,
      "ㄷㅐㅍㅛㄴㅡㄴ</w>": 7547,
      "ㅇㅕㅂㅜㄹㅡㄹ</w>": 7548,
      "ㅂㅐㅌㅓㄹㅣ</w>": 7549,
      "ㄷㅏㄷㄱㅣ</w>": 7550,
      "ㄹㅗㄸㅗ": 7551,
      "ㅎㅚㅅㅏㅇㅔ</w>": 7552,
      "ㅇㅓㅄㄱㅔ</w>": 7553,
      "ㅘㅆㅅㅡㅂㄴㅣㄷㅏ</w>": 7554,
      "45</w>": 7555,
      "ㅃㅡㄴ": 7556,
      "ㄲㅐㄷㅏㄹ": 7557,
      "ㅂㅗㅇㅠㄱ": 7558,
      "ㄲㅜㄴ": 7559,
      "ㅂㅡㄹㅜㄴ": 7560,
      "ㅂㅏㄹㅅㅗㅇ</w>": 7561,
      "ㄹㅕㄱㅇㅢ</w>": 7562,
      "ㅎㅢㄴ": 7563,
      "ㅎㅐㅈㅣㄱㅗ</w>": 7564,
      "ㅁㅗㅇㅣㅁ</w>": 7565,
      "FC</w>": 7566,
      "ㅍㅡㄹㅗㅇ": 7567,
      "ㅎㅕㄴㄱㅡㅁ": 7568,
      "ㅂㅗㄱㄱㅟ": 7569,
      "anc": 7570,
      "ㅋㅡㄹㅣㅁ</w>": 7571,
      "ㄸㅐㅇㅢ</w>": 7572,
      "ㅇㅕㅂ": 7573,
      "ㅅㅓㄹㅠ</w>": 7574,
      "ㄱㅔㅇㅣ</w>": 7575,
      "4ㅇㅝㄹ": 7576,
      "sc": 7577,
      "ㅊㅚㅊㅗㅇㅢ</w>": 7578,
      "ㄱㅣㅁㅅㅓㅇ": 7579,
      "ㅈㅓㄹㅓ": 7580,
      "ㅇㅏㄹㄹㅕㅈㅣㄴ</w>": 7581,
      "ㄷㅏㅇㅣㅇㅓㅌㅡ</w>": 7582,
      "ㄱㅏㄹㅅㅐㄱ</w>": 7583,
      "DI": 7584,
      "ㄷㅗㅇㅅㅐㅇ": 7585,
      "ㅇㅣㄴㅣ": 7586,
      "ㅅㅏㅁ</w>": 7587,
      "ㅅㅐㅇㅈㅗㄴ": 7588,
      "ㅅㅏㅇㅛㅇㄷㅚㄴㅡㄴ</w>": 7589,
      "ㅇㅒㄱㅣㄹㅡㄹ</w>": 7590,
      "ㅂㅜㅇㅣㄴ": 7591,
      "ㅇㅣㄹㅡㅁㅇㅡㄹㅗ</w>": 7592,
      "ㅂㅣㄹㄹㅣ": 7593,
      "ㄱㅗㄷ": 7594,
      "ㅇㅡㅁㅅㅣㄱㅈㅓㅁ</w>": 7595,
      "ㅈㅓㅇㄷㅗㄴㅡㄴ</w>": 7596,
      "ㅊㅚㄱㅡㄴㅇㅔ</w>": 7597,
      "ㅎㅡㄹㄹㅓ": 7598,
      "ㅇㅏㄹㅇㅏㅂㅗ": 7599,
      "ㄷㅜㄹㅡㄹ</w>": 7600,
      "ㅈㅔㅇㅚㅎㅏㄴ</w>": 7601,
      "ㅇㅡ</w>": 7602,
      "000</w>": 7603,
      "ㅅㅡㅌㅗㄹㅣ": 7604,
      "ㅊㅡㄱㅇㅡㄴ</w>": 7605,
      "ㅂㅜㄴㅇㅟㄱㅣ</w>": 7606,
      "ㄱㅕㅇㄹㅕㄱ</w>": 7607,
      "ㅇㅝㄴㅍㅣㅅㅡ</w>": 7608,
      "ㅇㅏㅇㅣㄹㅡㄹ</w>": 7609,
      "ㅊㅗㄷㅐ": 7610,
      "ㄸㅓㄹ": 7611,
      "ㄱㅡㄹㅐㅍㅡㅅㅏㅇㅣㅌㅡ</w>": 7612,
      "ㅍㅏㄴㅡㄴ</w>": 7613,
      "ㅅㅗㅅㅗㄱ</w>": 7614,
      "ㅂㅗㄴㅐㄱㅣ</w>": 7615,
      "ㅂㅜㅎㅘㄹ": 7616,
      "ㅇㅙㄴㅑㅎㅏㅁㅕㄴ</w>": 7617,
      "ㄱㅣㄹㅇㅣㄴㅡㄴ</w>": 7618,
      "ㄱㅣㄹㅗㄱㅎㅐㅆㄷㅏ</w>": 7619,
      "ㅅㅣㅂㅓㅁ": 7620,
      "ㅅㅜㅅㅏ": 7621,
      "ik": 7622,
      "yrics</w>": 7623,
      "ㅂㅣㅈㅡㄴㅣ": 7624,
      "ㄱㅡㄱㅓㅅㄷㅗ</w>": 7625,
      "ㅈㅓㅇㄷㅗㅇ": 7626,
      "ㅎㅗㅈㅜ</w>": 7627,
      "ㅈㅗㅎㄱㅔ</w>": 7628,
      "ㅎㅘㄴㅂㅜㄹ": 7629,
      "38</w>": 7630,
      "ㄱㅏㅅㅜ</w>": 7631,
      "ㅈㅗㅎㄱㅔㅆ": 7632,
      "ㄷㅣㄹㅔㄱ": 7633,
      "ㅈㅐㄹㅛ</w>": 7634,
      "ㅇㅓㄷㅣ</w>": 7635,
      "ㅇㅠㅇㅢ</w>": 7636,
      "ㄱㅏㅁㅈㅓㅇ": 7637,
      "ㄱㅡㄹㅡ": 7638,
      "ㅇㅝㅅㅣㅇ": 7639,
      "ㅇㅓㄹㅕㅂㄷㅏ</w>": 7640,
      "ㅇㅛㅅㅗ": 7641,
      "ㅈㅓㄹㅊㅏ</w>": 7642,
      "ㄱㅘㄴㄱㅐㄱ": 7643,
      "ㄱㅐㅂㅕㄹ": 7644,
      "ㄱㅗㅂ": 7645,
      "ㅅㅓㅇㄷㅗ</w>": 7646,
      "ㅈㅔㄱㅗㅇㅎㅏㄴㄷㅏ</w>": 7647,
      "48</w>": 7648,
      "ㄹㅐㄴㄷㅡ": 7649,
      "ㅍㅐㄴ</w>": 7650,
      "ㅍㅗㅈㅣ": 7651,
      "ㅂㅜㄴㅇㅑㅇㅔㅅㅓ</w>": 7652,
      "ㅌㅐㅇ": 7653,
      "ㄱㅓㄴㅁㅜㄹ": 7654,
      "ㅇㅔㄴㅈㅣㄴㅣ": 7655,
      "ie</w>": 7656,
      "ㅈㅓㅇㅁㅏㄹㄹㅗ</w>": 7657,
      "ㅍㅕㅇㅅㅐㅇ": 7658,
      "And": 7659,
      "ㅈㅜㅂㅕㄴㅇㅔ</w>": 7660,
      "Pr": 7661,
      "55</w>": 7662,
      "ㅁㅏㅁㅜㄹㅣ</w>": 7663,
      "ㅅㅣㄹㅈㅣㄹ": 7664,
      "ㅋㅓㅂㅓ": 7665,
      "ㅌㅓㄱㅏ</w>": 7666,
      "ㅈㅣㅂㅇㅡㄹㅗ</w>": 7667,
      "77": 7668,
      "ㄷㅐㅎㅘㄹㅡㄹ</w>": 7669,
      "ㅈㅔㅇㅚㅎㅏㄱㅗ</w>": 7670,
      "ㄷㅗㄱㅜ</w>": 7671,
      "ㅈㅔㄹ</w>": 7672,
      "ㅍㅔㅇㅣㅈㅣㅇㅔ</w>": 7673,
      "ㅈㅜㄱㅇㅡㄴ</w>": 7674,
      "Lyrics</w>": 7675,
      "ㅇㅣㅂㄱㅡㅁ": 7676,
      "ㄹㅗㄱㅏ</w>": 7677,
      "ㅎㅏㅁㄲㅔㅎㅏㄴㅡㄴ</w>": 7678,
      "ㅈㅣㄴㅊㅜㄹ</w>": 7679,
      "ㅂㅗㄹㅡㄹ</w>": 7680,
      "ㅂㅜㄹㄱㅛ": 7681,
      "ㄹㅏㄴㄷㅡ</w>": 7682,
      "po": 7683,
      "ㅁㅓㄹㅣㄹㅡㄹ</w>": 7684,
      "ㅈㅏㅇㅕㄴㅅㅡㄹㅓㅂㄱㅔ</w>": 7685,
      "ㄱㅗㄷㅗㅇㅢ</w>": 7686,
      "ㅁㅏㄹㅎㅏㄱㅗ</w>": 7687,
      "ㅈㅏㄱㅍㅜㅁㅇㅡㄹ</w>": 7688,
      "ㅅㅓㄹㅈㅓㅇㅇㅡㄹ</w>": 7689,
      "ㄲㅣㄹㅣ</w>": 7690,
      "ㅈㅓㄴㄲㅏㅈㅣ</w>": 7691,
      "PA": 7692,
      "ㅇㅣㄴㄷㅡㄹㅇㅡㄴ</w>": 7693,
      "ㅁㅜㅅㅓㄴ": 7694,
      "ㅇㅜㄴㅇㅕㅇㅎㅏㄴㅡㄴ</w>": 7695,
      "ㅈㅐㅁㅣㅇㅣㅆㄴㅡㄴ</w>": 7696,
      "ㅂㅐㄱㅂㅜㄴㅇㅠㄹ</w>": 7697,
      "ㅁㅕㄴㅇㅢ</w>": 7698,
      "ㄴㅏㄴㄷㅏ</w>": 7699,
      "ㄱㅗㅇㅂㅜ</w>": 7700,
      "ㄱㅜㄱㄱㅏㅇ": 7701,
      "ㅉㅗㅊ": 7702,
      "ㅊㅔㅇㅔ</w>": 7703,
      "ㅇㅣㅎㅐㅎㅏㄹ</w>": 7704,
      "ㅂㅣㅇㅠㄹ": 7705,
      "ㄲㅡㄶㅇㅣㅁ": 7706,
      "ㅁㅣㄷㅇㅡㅁ": 7707,
      "ㅁㅏㅅㅇㅡㄹ</w>": 7708,
      "ㅂㅏㅇㅁㅕㅇ": 7709,
      "ㄷㅚㄱㅣㄷㅗ</w>": 7710,
      "ㄴㅡㅇㄹㅕㄱㅇㅣ</w>": 7711,
      "ens": 7712,
      "ㄲㅐㄷㅏㄷ": 7713,
      "ㅈㅏㅂㅏ": 7714,
      "ㄴㅏㄹㅆㅣ": 7715,
      "ㄴㅡㄹㅇㅓㄴㅏ": 7716,
      "ㅋㅗㄴㅌㅔㄴㅊㅡㄹㅡㄹ</w>": 7717,
      "DVD</w>": 7718,
      "ㅇㅔㄷㅣ": 7719,
      "ㅈㅏㄱㅕㄱ</w>": 7720,
      "ies</w>": 7721,
      "ㄴㅏㅈㅣ</w>": 7722,
      "ㄱㅜㄱㅂㅏㅇ": 7723,
      "ㅈㅣㄴㅇㅢ</w>": 7724,
      "ㄷㅏㅁㅇㅡㄴ</w>": 7725,
      "ㅇㅣㄹㅣ": 7726,
      "ㅇㅣㄹㅡㅁㅇㅡㄴ</w>": 7727,
      "ㄷㅗㅇㄹㅛ": 7728,
      "ㅈㅣㅎㅖ": 7729,
      "ㄱㅕㅁ</w>": 7730,
      "ㅎㅐㅈㅜㄱㅗ</w>": 7731,
      "ㅂㅜㄹㄹㅣ": 7732,
      "ㄱㅗㅇㄱㅡㅂ</w>": 7733,
      "ㅅㅐㄱㅇㅡㄹㅗ</w>": 7734,
      "ㄱㅣㅇㅔㅅㅓ</w>": 7735,
      "ㅇㅓㅂㄱㅖ</w>": 7736,
      "ㅌㅣㅅㅕㅊㅡ</w>": 7737,
      "ㄹㅗㄷㅗ</w>": 7738,
      "ㄹㅔㅂㅔㄹ": 7739,
      "loc": 7740,
      "ㅈㅣㅇㅝㄴㅎㅏㄴㅡㄴ</w>": 7741,
      "ㅇㅓㅇㅔ</w>": 7742,
      "ㄷㅏㄴㅇㅡㄹㅗ</w>": 7743,
      "ㅇㅟㅇㅝㄴ</w>": 7744,
      "ance</w>": 7745,
      "ㅁㅓㅁㅊㅜ": 7746,
      "ㅇㅔㄴㅌㅓㅌㅔㅇㅣㄴ": 7747,
      "ㅇㅠㄴ</w>": 7748,
      "ㅇㅣㄺㄴㅡㄴ</w>": 7749,
      "ㄱㅜㄱㅇㅔ</w>": 7750,
      "ㅂㅓㅂㅇㅣㄴ": 7751,
      "ㅎㅚㅇㅝㄴㅇㅡㄴ</w>": 7752,
      "ㅂㅗㄱㅅㅏ": 7753,
      "ㅇㅣㅂㅓㄴㅇㅔㄴㅡㄴ</w>": 7754,
      "ㅇㅕㄴㅈㅜ": 7755,
      "ㅎㅏㅁㄱㅘ</w>": 7756,
      "ㅋㅏㄴ</w>": 7757,
      "ㅋㅏㄷㅡㄹㅡㄹ</w>": 7758,
      "ㅅㅕㄴㅇㅢ</w>": 7759,
      "ㅎㅏㄴㄱㅜㄱㅇㅔ</w>": 7760,
      "ㅂㅗㅈㅏㅇ</w>": 7761,
      "ㅍㅐㅋㅣㅈㅣ</w>": 7762,
      "ㄹㅣㄱ</w>": 7763,
      "ㅈㅏㅇㅎㅏㄱ": 7764,
      "ㅇㅓㅄㅇㅐ": 7765,
      "ㄱㅏㅈㅣㅇㅢ</w>": 7766,
      "ㅅㅗㄹㄹㅜㅅㅕㄴ</w>": 7767,
      "5ㄴㅕㄴ": 7768,
      "ystem</w>": 7769,
      "Hotel</w>": 7770,
      "ㅎㅏㄴㅏㄴㅣㅁㅇㅡㄹ</w>": 7771,
      "ㅈㅐㅁㅣㅆ": 7772,
      "ㅊㅡㄱㅈㅓㅇ</w>": 7773,
      "ㅇㅓㄴㅈㅔㄷㅡㄴㅈㅣ</w>": 7774,
      "ents</w>": 7775,
      "ㅎㅣㄱㅗ</w>": 7776,
      "ㄱㅗㅇㅠ": 7777,
      "ㅁㅜㅇㅓㄴ": 7778,
      "ㅊㅜㄹㅅㅣㄴ</w>": 7779,
      "ㅇㅣㅌㅡ</w>": 7780,
      "ㅁㅜㄴㅇㅔ</w>": 7781,
      "NA": 7782,
      "ㅁㅗㄹㅡㄱㅗ</w>": 7783,
      "ㅇㅑㄱㅎㅏㄴ</w>": 7784,
      "ㄱㅘㅇㅈㅜ</w>": 7785,
      "ㅁㅏㅇㅜㄴ": 7786,
      "ㄹㅏㅅㅓ</w>": 7787,
      "ㅌㅗㅇㅈㅔ": 7788,
      "ㅇㅣㅂㅡ</w>": 7789,
      "ㅈㅔㅍㅜㅁㅇㅣ</w>": 7790,
      "ㄴㅏㄱ</w>": 7791,
      "ㅂㅏㄹㅏㄴㄷㅏ</w>": 7792,
      "ㅁㅏㄹㅎㅐ</w>": 7793,
      "195": 7794,
      "ㄱㅏㄱㅔ": 7795,
      "ㅈㅏㄹㅣㅇㅔㅅㅓ</w>": 7796,
      "ㄴㅣㄱ</w>": 7797,
      "ㅁㅗㄱㅍㅛㄹㅡㄹ</w>": 7798,
      "ㅎㅏㅇㅇㅔ</w>": 7799,
      "ㅅㅜㅁㅇㅡㄹ</w>": 7800,
      "ㅂㅕㄴㅎㅘㅇㅔ</w>": 7801,
      "ㅈㅗㅁㄷㅓ</w>": 7802,
      "ㅇㅣㄱㅓㅅ": 7803,
      "ㅂㅗㅇㅏㅆㅅㅡㅂㄴㅣㄷㅏ</w>": 7804,
      "ㄱㅓㄷㅡ": 7805,
      "ㅂㅣㄴㅏㄴ": 7806,
      "ㅁㅏㄹㄹㅏ</w>": 7807,
      "ㄱㅣㅅㅏㄹㅡㄹ</w>": 7808,
      "Off": 7809,
      "ㅅㅏㅁㅗ": 7810,
      "ㅇㅕㄴㅎㅏㅂ</w>": 7811,
      "ㅇㅕㅇㅎㅗㄴ": 7812,
      "ㅁㅏㄶㅇㅏㅆ": 7813,
      "ㄴㅗㄴㅁㅜㄴ</w>": 7814,
      "ㅅㅣㄷㅐㅇㅔ</w>": 7815,
      "ㅇㅑㄱㅜ</w>": 7816,
      "ㅅㅏㅇㅣㄷㅡ</w>": 7817,
      "ㅅㅏㅎㅚㅇㅔ</w>": 7818,
      "ol</w>": 7819,
      "ㅅㅓㅅ": 7820,
      "ㅅㅔㄱㅅㅣㅎㅏㄴ</w>": 7821,
      "60</w>": 7822,
      "ㅂㅜㄹㄱㅏㄴㅡㅇ": 7823,
      "ㅁㅕㅇㄱㅘ</w>": 7824,
      "23ㅇㅣㄹ</w>": 7825,
      "ㅅㅓㄱㅇㅣ</w>": 7826,
      "ㅊㅏㅁㄱㅏ</w>": 7827,
      "ㅂㅏㄼ": 7828,
      "ㅁㅜㄱㅔ": 7829,
      "ㅇㅓㄷㅣㅅㅓ</w>": 7830,
      "ㅎㅕㄴㅎㅘㅇ": 7831,
      "ㅅㅗㅂㅣㅈㅏ": 7832,
      "ㅎㅘㄹㅕㅎㅏㄴ</w>": 7833,
      "ㅈㅓㄱㄱㅡㄱㅈㅓㄱㅇㅡㄹㅗ</w>": 7834,
      "om</w>": 7835,
      "ㅇㅗㄹㅠ</w>": 7836,
      "ㅇㅣㅇㅣㄱㅇㅡㄹ</w>": 7837,
      "vide": 7838,
      "ㅇㅕㄴㅈㅏㅇ": 7839,
      "ㄱㅗㄹㅣ</w>": 7840,
      "ㅅㅛㅍㅣㅇㅁㅗㄹ": 7841,
      "ㄱㅜㅊㅔㅈㅓㄱㅇㅣㄴ</w>": 7842,
      "par": 7843,
      "ㅎㅏㅈㅏㅁㅕㄴ</w>": 7844,
      "ㅁㅏㄴㅎㅘ</w>": 7845,
      "ㅁㅏㅈㅇㅡㄴ</w>": 7846,
      "ㅈㅓㅁㅅㅣㅁ</w>": 7847,
      "ㅈㅜㅇㅇㅔㄴㅡㄴ</w>": 7848,
      "ㄱㅡㄹㅓㄴㅣ</w>": 7849,
      "LA</w>": 7850,
      "ㅁㅜㄴㅈㅏㅇ": 7851,
      "ㅈㅣㄹㅎㅘㄴ</w>": 7852,
      "ㅊㅓㅇㅇㅘㄷㅐ</w>": 7853,
      "ㅅㅏㅇㄷㅐㄹㅗ</w>": 7854,
      "ㅂㅏㄴㄷㅐㄹㅗ</w>": 7855,
      "ㄱㅏㅈㅕㅇㅗ": 7856,
      "ㅈㅣㅎㅏㅊㅓㄹ</w>": 7857,
      "Lo": 7858,
      "SBS</w>": 7859,
      "ㅅㅣㅈㅏㅇㅇㅣ</w>": 7860,
      "ㄷㅔㅇㅣㅌㅓㄴㅡㄴ</w>": 7861,
      "ㅂㅣㄱㅛㅈㅓㄱ</w>": 7862,
      "11ㅍㅔㅇㅣㅈㅣ</w>": 7863,
      "10ㅂㅜㄴ</w>": 7864,
      "ㄴㅏㅇㅣㄷㅡㄴㅇㅕㅈㅏ</w>": 7865,
      "ㄱㅏㅈㄴㅡㄴ</w>": 7866,
      "47": 7867,
      "ㄱㅏㅇㅣㄷㅡ</w>": 7868,
      "ㅃㅕ": 7869,
      "ㄱㅣㄱㅏㄴㅇㅔ</w>": 7870,
      "ㅇㅏㅌㅣ": 7871,
      "ㅁㅣㅅㅏ": 7872,
      "ㅅㅣㄹㄹㅣ": 7873,
      "ㅂㅏㄱㅈㅓㅇ": 7874,
      "ㅇㅣㅇㅛㅇㅈㅏ</w>": 7875,
      "ㅈㅏㄱㅡㅁ": 7876,
      "ㅌㅏㄴㅡㄴ</w>": 7877,
      "ㅂㅡㄹㅔㅇㅣ": 7878,
      "ㄷㅗㄹㄹㅕ": 7879,
      "ㅇㅕㅇㄱㅘㅇ": 7880,
      "ㅅㅏㅇㅎㅗ": 7881,
      "ㄱㅘㄴㄹㅏㅁ": 7882,
      "ㅋㅓㄴ</w>": 7883,
      "ㅅㅡㅋㅣ</w>": 7884,
      "ㅊㅜㄱㅈㅓㄱㄷㅚㄴ</w>": 7885,
      "ㅇㅚㅂㅜ": 7886,
      "ㄱㅏㅇㅣ": 7887,
      "ㅂㅏㄴㅍㅜㅁ</w>": 7888,
      "ㅊㅣㅇㅢ</w>": 7889,
      "Gr": 7890,
      "ㄴㅗㅍㄷㅏ</w>": 7891,
      "ㅊㅏㅇㅊㅜㄹ": 7892,
      "ㅇㅏㅇㅣㄷㅡㄹ</w>": 7893,
      "ㅇㅣㄴㅅㅙ": 7894,
      "ㄷㅗㅇㅇㅑㅇ": 7895,
      "ㅇㅣㅆㅇㅓㅆㅈㅣㅁㅏㄴ</w>": 7896,
      "ㅍㅓㄹㅓㄴ": 7897,
      "0ㄱㅐ</w>": 7898,
      "AI</w>": 7899,
      "ㅈㅣㄱㅁㅜ": 7900,
      "ㅋㅠ</w>": 7901,
      "ㄷㅐㅅㄱㅡㄹㅇㅡㄴ</w>": 7902,
      "ㅈㅗㅎㅏㅂ</w>": 7903,
      "ㅈㅓㅇㅅㅣㄱ</w>": 7904,
      "ㄱㅡㄹㅐ</w>": 7905,
      "ㅁㅕㄴㅈㅓㅂ</w>": 7906,
      "ㅅㅣㄴㄱㅣ": 7907,
      "ㄷㅗㄷㅓㄱ": 7908,
      "ㅁㅗㄷㅡ</w>": 7909,
      "ㅅㅔㅍㅗ": 7910,
      "()</w>": 7911,
      "ㅇㅣㅈㅈㅣ</w>": 7912,
      "5ㄱㅐ</w>": 7913,
      "ㅌㅡㄱㅂㅕㄹ</w>": 7914,
      "ㅈㅓㄴㄱㅗㅇ</w>": 7915,
      "1ㄱㅓㄴ</w>": 7916,
      "ㅎㅏㄹㅏㄱㅗ</w>": 7917,
      "1ㅂㅜ</w>": 7918,
      "ㅎㅘㅍㅖ</w>": 7919,
      "ㅍㅣㅇㅏㄴ": 7920,
      "ㅂㅏㄹㄱㅕㄴ</w>": 7921,
      "ㅅㅕㅆㅅㅡㅂㄴㅣㄷㅏ</w>": 7922,
      "ㄱㅗㅁ": 7923,
      "ㄱㅓㅁㅅㅏ": 7924,
      "ㄷㅏㄴㅅㅜㄴㅎㅏㄴ</w>": 7925,
      "ㅈㅏㅈㅓㄴㄱㅓ": 7926,
      "ㄱㅜㄴㅇㅣ</w>": 7927,
      "ㅎㅘㄱㄷㅐ</w>": 7928,
      "ㅇㅗㄹㅐㅅㄷㅗㅇㅇㅏㄴ</w>": 7929,
      "ㅎㅖㅌㅐㄱ</w>": 7930,
      "win</w>": 7931,
      "ㄱㅣㄱㅏㄴㅇㅣ</w>": 7932,
      "ㅅㅔㅇㅣㄴ": 7933,
      "ㅈㅓㅇㅎㅘㄱㅎㅏㄱㅔ</w>": 7934,
      "ㄱㅏㅈㅊㅜㄱㅗ</w>": 7935,
      "ect": 7936,
      "ㄷㅏㅂㅇㅡㄹ</w>": 7937,
      "ㅇㅣㅅㅣ": 7938,
      "ㅇㅝㄴㅊㅣㄱ</w>": 7939,
      "ㄱㅣㅇㅓㄱㅇㅣ</w>": 7940,
      "ㅂㅗㅅㅜ": 7941,
      "ㄱㅏㄴㄹㅑㄱ": 7942,
      "Anal": 7943,
      "ㅂㅏㅇㅅㅏ": 7944,
      "ㅇㅣㄴㄱㅡㄴ</w>": 7945,
      "ㅊㅜㅇㅈㅗㄱ": 7946,
      "29ㅇㅣㄹ</w>": 7947,
      "ㄷㅗㅇㄴㅔ</w>": 7948,
      "ㅇㅗㄹㅡㄴㅉㅗㄱ</w>": 7949,
      "ㅅㅓㅇㅇㅡㄹㅗ</w>": 7950,
      "ㅉㅣㄱㅇㅡㄴ</w>": 7951,
      "ㅍㅕㅇㄹㅗ</w>": 7952,
      "ㅎㅚㅇ": 7953,
      "ㅅㅏㅅㅣㄹㅇㅡㄴ</w>": 7954,
      "tive</w>": 7955,
      "31ㅇㅣㄹ</w>": 7956,
      "ㅋㅡㄱㅗ</w>": 7957,
      "ㅇㅓㅉㅓㄹ</w>": 7958,
      "ㄱㅏㅈㅊㅝ": 7959,
      "ㄴㅐㅇㅣㄹ</w>": 7960,
      "ㅅㅣㅂㅜㅌㅓ</w>": 7961,
      "ㅈㅜㅅㅗㄹㅡㄹ</w>": 7962,
      "ㅇㅏㄶㅇㅏㅅㅓ</w>": 7963,
      "ㅅㅏㄹㅇㅏ</w>": 7964,
      "gr": 7965,
      "ㅇㅏㄱ</w>": 7966,
      "ㅋㅣㄴ</w>": 7967,
      "ㄱㅓㅁㅌㅗ</w>": 7968,
      "ta": 7969,
      "ㅂㅕㄴㅎㅘㄴ": 7970,
      "ㅍㅜㅁㅇㅣ</w>": 7971,
      "ㅈㅓㅇㅊㅔ": 7972,
      "ㅎㅏㄹㅁㅓㄴㅣ": 7973,
      "ㅇㅡㄹㅗㅁㅏㄴ</w>": 7974,
      "ㅋㅡㄹㄹㅗ": 7975,
      "ㅅㅓㄹㅇㅡㄹ</w>": 7976,
      "ㅊㅏㅇㅇㅓㅂ</w>": 7977,
      "ㅁㅜㄱㅓ": 7978,
      "ㅇㅗㄷㅣ": 7979,
      "ㄷㅗㄱㅎㅜ": 7980,
      "ㄴㅓㅁㅇㅓ</w>": 7981,
      "ㅎㅠㄱㅏ</w>": 7982,
      "ㅇㅞㅂㅅㅏㅇㅣㅌㅡ</w>": 7983,
      "ㅇㅏㅊㅣㅁㅇㅔ</w>": 7984,
      "ㄱㅓㄷㅏ</w>": 7985,
      "ㅌㅣㅇㅇㅡㄹ</w>": 7986,
      "ㅎㅡㄹㅡㅁ": 7987,
      "ㄹㅣㄹㅗ</w>": 7988,
      "ㄱㅕㅇㅇㅜㄹㅡㄹ</w>": 7989,
      "ㅇㅗㄴㅡㄹㅇㅢ</w>": 7990,
      "ㅎㅏㄴㄱㅡㄹ</w>": 7991,
      "ㄷㅏㅇㅇㅡㄹ</w>": 7992,
      "ㄴㅏㅅ": 7993,
      "ㅈㅓㅂㅅㅗㄱ</w>": 7994,
      "ㅇㅗㄴㅡㄹㄷㅗ</w>": 7995,
      "ㅁㅏㅈㅏ</w>": 7996,
      "ㄱㅕㅇㄱㅖ": 7997,
      "ㅂㅏㅇㅇㅡㄴ</w>": 7998,
      "ㅉㅏㄹㅣ</w>": 7999,
      "ㄱㅏㅅㅡ</w>": 8000,
      "ㅂㅏㄷㅇㅡㄴ": 8001,
      "ication</w>": 8002,
      "ㅂㅜㅊㅓ": 8003,
      "ㅈㅣㅎㅑㅇ": 8004,
      "ㅁㅏㄱㅏㅁ": 8005,
      "ㅁㅗㄷㅡㄴ": 8006,
      "1ㅅㅣㄱㅏㄴ</w>": 8007,
      "ㅎㅕㄴㅈㅏㅇㅇㅔㅅㅓ</w>": 8008,
      "ㄱㅏㅁㅅㅏㅇㅢ</w>": 8009,
      "ㅅㅕㅇㅑ</w>": 8010,
      "ㅈㅣㅅ</w>": 8011,
      "ㄱㅐㅂㅗㅇ": 8012,
      "ㄸㅓㅇㅗㄹ": 8013,
      "ㅅㅣㄱㅣ": 8014,
      "ㅅㅓㅂ</w>": 8015,
      "ER</w>": 8016,
      "duc": 8017,
      "ㅈㅓㄴㅅㅣ</w>": 8018,
      "ㅅㅓㄹㅁㅕㅇㅇㅡㄹ</w>": 8019,
      "ㅂㅏㅇㅈㅣ</w>": 8020,
      "ㄷㅏㅇㅢ</w>": 8021,
      "ㄱㅏㅌㄴㅔㅇㅛ</w>": 8022,
      "ㅇㅠㅂㅏㄹ": 8023,
      "pos": 8024,
      "ㅈㅣㅁㅕㄴㅅㅓ</w>": 8025,
      "ㄸㅡㄴㅡㄴ</w>": 8026,
      "ㄱㅓㄴㅊㅜㄱ</w>": 8027,
      "https</w>": 8028,
      "ㅇㅐㄴㅣㅁㅔㅇㅣㅅㅕㄴ</w>": 8029,
      "ㄱㅓㄹㅏㄱㅗ</w>": 8030,
      "ㅁㅏㅊㅣㄱㅗ</w>": 8031,
      "ㄱㅘㄴㄹㅕㄴㅎㅏㄴ</w>": 8032,
      "ㄷㅡㄹㅇㅕ": 8033,
      "ㅇㅣㄱㅅㅜㄱ": 8034,
      "ㅈㅡㅇㄱㅏ</w>": 8035,
      "ㄹㅏㅇㅣㅌㅡ</w>": 8036,
      "ㄱㅡㅁㅂㅏㄹㅇㅢ</w>": 8037,
      "ㅎㅏㅇㅔ</w>": 8038,
      "ㅂㅓㅌㅡㄴ": 8039,
      "ㅊㅐㄱㅇㅢ</w>": 8040,
      "4ㄴㅕㄴ": 8041,
      "ㅂㅡㄹㅔ": 8042,
      "ㅅㅏㅇㅛㅇㅈㅏㅇㅢ</w>": 8043,
      "ㅅㅗㅂㅣㅈㅏ</w>": 8044,
      "ㅈㅜㄱㅘㄴ": 8045,
      "ㅂㅏㄹㅎㅟ": 8046,
      "ㅅㅣㅅㅓㄹㅇㅡㄹ</w>": 8047,
      "ㄹㅠㄱ": 8048,
      "ㄷㅏㄻ": 8049,
      "6ㅇㅝㄹ": 8050,
      "ㅇㅣㄴㅍㅡㄹ": 8051,
      "ㅈㅣㄴㅎㅘ": 8052,
      "ㅊㅗㅅ": 8053,
      "ㅅㅣㅂㄷㅐ</w>": 8054,
      "ㅈㅣㄹㅁㅜㄴㅇㅔ</w>": 8055,
      "ㅅㅓㅇㅝㄴㄱㅜ</w>": 8056,
      "ㅇㅡㄹㅅㅜ</w>": 8057,
      "ㄱㅣㄷㅗㄱㄱㅛ</w>": 8058,
      "LT": 8059,
      "ㄱㅏㅈㅣㄴㅡㄴ</w>": 8060,
      "SU": 8061,
      "ㅈㅏㅇㅅㅗㄹㅡㄹ</w>": 8062,
      "ㅅㅣㅀㅇㅓ": 8063,
      "ㅍㅕㅇㅅㅗ</w>": 8064,
      "ip</w>": 8065,
      "ㄷㅡㄷㄴㅡㄴ</w>": 8066,
      "MB</w>": 8067,
      "ㅇㅓㅄㅇㅓㅆㄷㅓㄴ</w>": 8068,
      "ㅍㅗㅋㅓ": 8069,
      "ㅈㅣㅅㅣㄱ</w>": 8070,
      "ㅇㅏㅅㅟㅂ": 8071,
      "ㅇㅏㄷㅗㅇ</w>": 8072,
      "ㅅㅏㅇㅛㅇㅎㅏㄱㅣ</w>": 8073,
      "ㅍㅡㄹㅗㄱㅡㄹㅐㅁㅇㅣ</w>": 8074,
      "ㅎㅚㅇㅝㄴㄱㅏㅇㅣㅂ</w>": 8075,
      "ㅈㅓㅎㅏㅇ": 8076,
      "ㄱㅡㄹㅏ": 8077,
      "ㅅㅏㅇㅇㅛㅇ</w>": 8078,
      "ㅎㅏㄴㄷㅏ": 8079,
      "ㄱㅜㄱㄱㅏㅇㅢ</w>": 8080,
      "ㅋㅣㄴㅡㄴ</w>": 8081,
      "ㅅㅏㅅㅣㄹㅇㅣ</w>": 8082,
      "ㄷㅣㅂㅏㅇㅣ": 8083,
      "ㅈㅓㄴㄷㅏㄹ</w>": 8084,
      "ㅈㅣㄴㅅㅣㅁㅇㅡㄹㅗ</w>": 8085,
      "ㅈㅣㄴㅡㅇ</w>": 8086,
      "ㅇㅠㄹㅗ</w>": 8087,
      "ㅇㅣㅆㅅㅡㅂㄴㅣㄲㅏ</w>": 8088,
      "20ㄴㅕㄴ</w>": 8089,
      "ㄷㅏㅇㅇㅡㄴ</w>": 8090,
      "ㄷㅐㅎㅏㄴㅁㅣㄴㄱㅜㄱㅇㅢ</w>": 8091,
      "ㅈㅓㄴㅅㅗㅇ</w>": 8092,
      "ㅇㅜㅁㅇㅡㄹ</w>": 8093,
      "ㅈㅓㄱㅎㅏㅂㅎㅏㄴ</w>": 8094,
      "ㅈㅗㅇㅓㄴ": 8095,
      "ㄴㅗㄹㅇㅣㅌㅓ</w>": 8096,
      "ㅅㅏㄻ</w>": 8097,
      "ㄱㅜㅊㅜㄱ</w>": 8098,
      "ㅅㅡㅌㅏㅇㅣㄹ": 8099,
      "ㅇㅔㄴㅓㅈㅣ": 8100,
      "ㅊㅓㅁㅂㅜ": 8101,
      "ㅈㅏㄱㅡㅁ</w>": 8102,
      "ㅁㅣㄹㅡㄹ</w>": 8103,
      "ㅊㅏㄹㅣ": 8104,
      "gir": 8105,
      "ㄱㅜㄱㅕㅇ": 8106,
      "ㅂㅏㅌ": 8107,
      "ㅂㅜㄹㄱㅏ</w>": 8108,
      "ㄱㅖㅅㅗㄱㅎㅐㅅㅓ</w>": 8109,
      "ㅇㅣㅂㅈㅏㅇㅇㅡㄹ</w>": 8110,
      "ㄴㅏㅌㅏㄴㅏㅆㄷㅏ</w>": 8111,
      "ㅎㅐㅇㅈㅓㅇ</w>": 8112,
      "ㅁㅏㄴㅣ": 8113,
      "ㅊㅓㄴㅁㅜㄴㅎㅏㄱ</w>": 8114,
      "ㅎㅏㄱㄱㅛㅇㅔ</w>": 8115,
      "ㅈㅝㅇㅑ</w>": 8116,
      "ㅂㅣㅆㅏ": 8117,
      "42</w>": 8118,
      "ㅂㅣㄹ</w>": 8119,
      "ㄴㅐㅅㅕㄴ": 8120,
      "ㄱㅡㄴㄱㅓㄹㅗ</w>": 8121,
      "ㄹㅣㅊㅣㅍㅡㄹㄹㅓㅅㅡ</w>": 8122,
      "ㅂㅜㄴㅍㅕㅇㄹㅗ</w>": 8123,
      "ㅂㅜㄹㅣ": 8124,
      "ㅇㅚㄱㅜㄱ</w>": 8125,
      "ㅂㅜㄹㄱㅘ": 8126,
      "ㅅㅗㅍㅡㅌㅡ</w>": 8127,
      "ㅇㅛㅇㅇㅡㄹㅗ</w>": 8128,
      "ㅇㅡㄴㅎㅖ": 8129,
      "ㅇㅐㅂㅇㅡㄹ</w>": 8130,
      "ㄱㅛㅌㅗㅇ</w>": 8131,
      "ㄷㅏㄴㅇㅓ</w>": 8132,
      "ㅇㅟㄱㅣ</w>": 8133,
      "ㄹㅔㅍㅗㅌㅡㅇㅝㄹㄷㅡ</w>": 8134,
      "ㄷㅡㅂㄴㅣㄷㅏ</w>": 8135,
      "ㅅㅡㅍㅡㄹㅣ": 8136,
      "ㄱㅗㄱㅐ": 8137,
      "41</w>": 8138,
      "Fl": 8139,
      "ㅈㅓㅇㅅㅏㅇㅎㅚㄷㅏㅁ</w>": 8140,
      "ㅍㅔㅌㅣ": 8141,
      "ㅍㅐㄷㅡ</w>": 8142,
      "ㅇㅣㄴㄱㅏㄴㅇㅣ</w>": 8143,
      "ㄴㅏㅊ": 8144,
      "ㅈㅓㄴㄱㅐ": 8145,
      "fi": 8146,
      "ㅈㅣㄴㅏㄴㄷㅏㄹ</w>": 8147,
      "ㄷㅔㅂㅟ": 8148,
      "SD": 8149,
      "ㄴㅛ": 8150,
      "ㅇㅣㄹㅅㅏㅇ</w>": 8151,
      "ㅅㅏㅎㅚㄹㅡㄹ</w>": 8152,
      "Hub</w>": 8153,
      "ㄴㅏㄹㅡㅁ": 8154,
      "ㅈㅣㄱㅡㅁㅇㅢ</w>": 8155,
      "ㄷㅡㄹㅁㅕㄴ</w>": 8156,
      "ㅇㅣㄹㅇㅓㄴㅏㅈㅣ</w>": 8157,
      "ㅁㅏㅇㅇㅡㄹ</w>": 8158,
      "ㅇㅓㅍㅡㄹㄹㅣㅋㅔㅇㅣ": 8159,
      "ㅇㅏㅇㅑ": 8160,
      "ㅇㅕㅇㅎㅑㅇ</w>": 8161,
      "ㄱㅜㅅㅗㄱ": 8162,
      "ㄱㅘㄱ": 8163,
      "ㅅㅔㅅㅏㅇㅇㅔㅅㅓ</w>": 8164,
      "ㄱㅗㅅㅐㅇ": 8165,
      "ㅈㅔㅎㅠ": 8166,
      "Boo": 8167,
      "Op": 8168,
      "Res": 8169,
      "ㅍㅕㅇㅊㅏㅇ": 8170,
      "ㅇㅏㅅ": 8171,
      "ㄷㅓㅂㅡㄹ</w>": 8172,
      "ㅂㅣㅅ": 8173,
      "ㄱㅗㅇㅟ": 8174,
      "ㅇㅜㅅㅜㅎㅏㄴ</w>": 8175,
      "ㅎㅏㄹㄸㅐ</w>": 8176,
      "ㅌㅣㄱ</w>": 8177,
      "ㅊㅐㄱㅝㄴ": 8178,
      "ㅁㅣㄹㅣ": 8179,
      "ㄱㅕㄹㅅㅡㅇ": 8180,
      "ㅊㅓㅇㄱㅜ": 8181,
      "ㅈㅏㄱㅣㄱㅏ</w>": 8182,
      "ㅅㅣㄹㄴㅐ</w>": 8183,
      "ㄱㅣㅂㅜㄴ</w>": 8184,
      "ㅜㅁ": 8185,
      "ㅅㅏㄴㅇㅢ</w>": 8186,
      "ㄱㅏㅌㅇㅏㅅㅓ</w>": 8187,
      "ㅅㅐㅇㄱㅏㄱㅇㅡㄴ</w>": 8188,
      "FI": 8189,
      "ㅎㅏㅁㅇㅡㄴ</w>": 8190,
      "ㅁㅣㅇㅏㄴ": 8191,
      "ㅅㅣㅍㅣ</w>": 8192,
      "ㅂㅘㅆㄷㅏ</w>": 8193,
      "ㅅㅏㄹㅇㅏㄱㅏㄴㅡㄴ</w>": 8194,
      "Dr": 8195,
      "ㅂㅏㅈㅣ</w>": 8196,
      "ㅂㅜㅈㅏㅇ": 8197,
      "ㅅㅏㄹㅗ": 8198,
      "ㅇㅣㅆㄴㅏ</w>": 8199,
      "ㅋㅣㄱㅏ</w>": 8200,
      "ㅅㅔㅅ</w>": 8201,
      "Cont": 8202,
      "ㅂㅣㄹㅗㅅㅎㅐ</w>": 8203,
      "CH": 8204,
      "ㅈㅓㄱㄷㅏㅇ": 8205,
      "ㅈㅗㄹㅡㄹ</w>": 8206,
      "ㄱㅗㅇㅎㅏㄱ": 8207,
      "ㅊㅜㅇㅓㄱ": 8208,
      "ㅂㅘㅆㅅㅡㅂㄴㅣㄷㅏ</w>": 8209,
      "ㅊㅔㅈㅔ</w>": 8210,
      "ㅇㅠㅁㅕㅇ</w>": 8211,
      "ㅇㅗㅂㅡ</w>": 8212,
      "ㄹㅓㄱㅅㅕ": 8213,
      "ㅅㅣㅁㅣㄴ</w>": 8214,
      "ㅈㅣㅇㅕㄱㅇㅔㅅㅓ</w>": 8215,
      "44</w>": 8216,
      "ㄱㅕㅇㄴㅏㅁ": 8217,
      "ㄱㅡㄹㅓㅁㅇㅔㄷㅗ</w>": 8218,
      "ㅅㅜㄹㅕㅇ": 8219,
      "ㅅㅏㅇㅛㅇㅇㅡㄹ</w>": 8220,
      "ㄱㅐㄹㄹㅓㄱㅅㅣ</w>": 8221,
      "?'</w>": 8222,
      "ㅂㅗㄴㅐㄹ</w>": 8223,
      "ㄷㅐㅅㄱㅡㄹㅇㅣ</w>": 8224,
      "ㅅㅣㅍㅇㅓ": 8225,
      "ㅍㅔㅅㅡㅌㅣ": 8226,
      "ast</w>": 8227,
      "ㄲㅘ": 8228,
      "ㅇㅓㄴㅈㅔㄴ": 8229,
      "ㅅㅐㅇㅁㅕㅇ</w>": 8230,
      "ㄱㅗㄱㅐㄱㅇㅣ</w>": 8231,
      "ㅅㅏㅇㅛㅇㅇㅣ</w>": 8232,
      "ㄷㅏㄹㄹㅏ</w>": 8233,
      "ㅍㅛㅎㅕㄴ</w>": 8234,
      "ㄷㅡㄹㅇㅓㅅㅓ</w>": 8235,
      "ㅁㅏㄴㅇㅣㄹ</w>": 8236,
      "ㅅㅡㅌㅐㄴㅌㅡㄴ": 8237,
      "ㅇㅢㄹㅛ</w>": 8238,
      "ㄲㅗㅇ": 8239,
      "ㅈㅏㅂㅇㅡㄴ</w>": 8240,
      "ㅋㅓㅍㅡㄹ": 8241,
      "ㄱㅕㄹㄱㅘㄴㅡㄴ</w>": 8242,
      "ㅅㅣㄴㄱㅕㅇ</w>": 8243,
      "rig": 8244,
      "ㄴㅐㅁㅅㅐ": 8245,
      "ject</w>": 8246,
      "ㅎㅕㅇㅇㅣ</w>": 8247,
      "ㅈㅏㅂ</w>": 8248,
      "ign": 8249,
      "ㅇㅏㅋㅏㄷㅔ": 8250,
      "ㅅㅡㅌㅐ": 8251,
      "ㅁㅜㅅㅓㅇ": 8252,
      "ㅅㅜㅁㄱㅕ": 8253,
      "80</w>": 8254,
      "ure": 8255,
      "ㅇㅣㅎㅏㄴ</w>": 8256,
      "ㅎㅑㅇㅇㅡㄹ</w>": 8257,
      "ㄷㅏㄴㄷㅗㄱ</w>": 8258,
      "ㅊㅓㄹㅎㅏㄱ</w>": 8259,
      "ㅅㅣㅅㅓㄹㅇㅣ</w>": 8260,
      "ㅇㅏㄴㅈㅓㄴㅎㅏㄴ</w>": 8261,
      "ㄱㅡㄴㅏㅁㅏ</w>": 8262,
      "ary</w>": 8263,
      "ㄱㅣㄱㅏㄴㅇㅡㄹ</w>": 8264,
      "Server</w>": 8265,
      "De": 8266,
      "ㅇㅣㅇㅓㅆㄱㅗ</w>": 8267,
      "ㅇㅣㅅㅏㅇㅇㅣ</w>": 8268,
      "ㅂㅗㄴㅇㅣㄴ": 8269,
      "ㄸㅜㅀ": 8270,
      "ㅃㅏㅈㅕ": 8271,
      "DB": 8272,
      "ㄴㅠ</w>": 8273,
      "ㅇㅕㄹㅇㅡㄹ</w>": 8274,
      "ㄱㅣㄷㅏㄹㅣㄱㅗ</w>": 8275,
      "ㅂㅏㅇㅁㅕㅇㄹㅗㄱ</w>": 8276,
      "120": 8277,
      "ㄷㅡㄹㅇㅓㅇㅗ": 8278,
      "ㅇㅠㅅㅏㅎㅏㄴ</w>": 8279,
      "ㄷㅡㄹㅇㅣ": 8280,
      "ㅂㅗㅅㅏㅇ": 8281,
      "ld</w>": 8282,
      "ㅂㅜㄱㅏ": 8283,
      "ㅁㅏㄴㅇㅡㄹㅗㄷㅗ</w>": 8284,
      "ㄱㅏㅁㄷㅗㅇ": 8285,
      "ㄱㅡㄹㅕ": 8286,
      "ㄱㅗㅇㄱㅕㄱ</w>": 8287,
      "ㅇㅠㅇㅕㄴ": 8288,
      "ㅈㅓㅁㅊㅏ</w>": 8289,
      "ㄷㅡㄹㅣㄴㅡㄴ</w>": 8290,
      "For": 8291,
      "ㅇㅣㅈㅓㅇ": 8292,
      "ㅅㅜㅇㅣㅂ</w>": 8293,
      "ㅅㅏㄴㅇㅣ</w>": 8294,
      "ㅎㅚㅅ": 8295,
      "ㅅㅣㄱㅁㅜㄹ": 8296,
      "ㅂㅗㄴㅂㅜ</w>": 8297,
      "ㄷㅚㅇㅓㅆㅇㅡㄹ</w>": 8298,
      "ㅂㅏㅇㅇㅢ</w>": 8299,
      "ㅌㅣㅁㅇㅡㄹ</w>": 8300,
      "ㄲㅏㅈㅣ": 8301,
      "ㅌㅐㅇㅓㄴㅏ": 8302,
      "ㄱㅙㄴㅊㅏㄶㅇㅡㄴ</w>": 8303,
      "ㅏㅇㅜㄴ</w>": 8304,
      "ㄱㅐㅂㅏㄹㅈㅏ</w>": 8305,
      "ㅁㅣㄱㅏ</w>": 8306,
      "ㅂㅏㅂㅗ</w>": 8307,
      "ㄷㅏㄴㄷㅏㄴ": 8308,
      "ㅎㅏㅇㅕㅆㅇㅡㅁㅕ</w>": 8309,
      "ㅕㅇㅑ": 8310,
      "ㅈㅓㄴㄱㅘ</w>": 8311,
      "ㅈㅏㅇㅈㅓㅁㅇㅣ</w>": 8312,
      "ㅇㅗㅍㅡㄹㅏ": 8313,
      "ㅁㅐㅁㅐ": 8314,
      "ㅈㅡㅇㄱㅝㄴ": 8315,
      "ㄱㅡㄷㅡㄹㅇㅡㄹ</w>": 8316,
      "ㅅㅏㅎㅚㅇㅔㅅㅓ</w>": 8317,
      "ㄱㅣㅂㅜㄴ": 8318,
      "ㅍㅡㄹㅏㅇㅅㅡ": 8319,
      "ㄴㅗㄹㅡ": 8320,
      "\",</w>": 8321,
      "od</w>": 8322,
      "ell</w>": 8323,
      "ㅈㅏㅇㅣ": 8324,
      "ㅌㅏㅇㅜㄴ</w>": 8325,
      "ㅇㅝㅅㅓ</w>": 8326,
      "ㅈㅣㄴㄹㅛ": 8327,
      "ㄱㅘㄴㄱㅘㅇㄱㅐㄱ": 8328,
      "ㅇㅗㅂㅅㅕㄴㅇㅡㄹ</w>": 8329,
      "ㄱㅡㄹㄹㅗㅂㅓㄹ": 8330,
      "ㅇㅣㄹㅎㅏㄴㅡㄴ</w>": 8331,
      "ㅅㅏㅇㅣㅌㅡㅇㅔㅅㅓ</w>": 8332,
      "ㅅㅣㅅㅏ": 8333,
      "ㅇㅣㄴㅅㅐㅇ</w>": 8334,
      "ㄱㅠㅁㅗㅇㅢ</w>": 8335,
      "ㅈㅜㅇㄱㅖ": 8336,
      "ㅂㅘㅇㅑ": 8337,
      "ㅇㅖㅈㅓㄴㅇㅔ</w>": 8338,
      "ㅈㅓㅁㄱㅓㅁ": 8339,
      "20ㄷㅐ</w>": 8340,
      "ass</w>": 8341,
      "ㅇㅓㄷㅇㅡㄴ</w>": 8342,
      "ㅈㅝㅆㄷㅏ</w>": 8343,
      "ㄱㅓㄴㅇㅡㄹ</w>": 8344,
      "ake</w>": 8345,
      "ㅇㅕㄴㄱㅖ": 8346,
      "ㅇㅓㄹㅣㅇ</w>": 8347,
      "ㅎㅏㄴㅁㅣ": 8348,
      "ㅃㅓㄴ": 8349,
      "ㅇㅣㄴㄷㅗㄴㅔ": 8350,
      "ㄷㅐㅎㅕㅇ": 8351,
      "ㅍㅣㄹㅇㅛㄹㅗ</w>": 8352,
      "ㅎㅏㅅㅣㄹ": 8353,
      "ㅊㅓㄴㅊㅓㄴ": 8354,
      "ㄱㅣㅊㅗ</w>": 8355,
      "ㅁㅗㅅㅎㅏㄴㄷㅏ</w>": 8356,
      "ㅊㅏㅈㅇㅡ": 8357,
      "ㅅㅏㅇㅌㅐㄱㅏ</w>": 8358,
      "ㅗㄹㅡㄹ</w>": 8359,
      "ㅂㅏㅂㅇㅡㄹ</w>": 8360,
      "ㅎㅘㄹㅂㅏㄹ": 8361,
      "ㄴㅗㅎㅏㅇ": 8362,
      "ㅇㅏㄹㅡㄹ</w>": 8363,
      "ㅂㅗㄱㅈㅏㅂㅎㅏㄴ</w>": 8364,
      "ㄱㅓㄹㅣㄴㅡㄴ</w>": 8365,
      "ㅈㅐㅅㅐㅇ</w>": 8366,
      "ㅁㅐㅈㅏㅇ</w>": 8367,
      "ㅇㅛㄱㅅㅣㄹ</w>": 8368,
      "ㅈㅓㄴㅎㅏㄴ</w>": 8369,
      "ㄷㅓㅅㅂㅜㅌㅇㅕㅆㄷㅏ</w>": 8370,
      "ㄷㅗㅇㅂㅏㄴ": 8371,
      "ㅋㅐㅁㅍㅡ</w>": 8372,
      "ㅇㅟㅌㅏㄱ": 8373,
      "ㄷㅏㄴㅂㅐㄱ": 8374,
      "ㅅㅣㄱㅏㄴㄱㅘ</w>": 8375,
      "ㄴㅗㅍㅇㅣ</w>": 8376,
      "ㅅㅐㄱㅇㅣ</w>": 8377,
      "Google</w>": 8378,
      "ㅈㅏㅂㅇㅡㄹ</w>": 8379,
      "ㄱㅏㅄㅇㅣ</w>": 8380,
      "ㄱㅏㄷㅡㄱㅎㅏㄴ</w>": 8381,
      "ㅇㅕㅅ</w>": 8382,
      "ㄱㅘㅁㅗㄱ": 8383,
      "ㅊㅣㄱㅇㅡㄹ</w>": 8384,
      "ㅈㅏㅁㅈㅐ": 8385,
      "ㅇㅑㅇㅇㅡㄹ</w>": 8386,
      "ames</w>": 8387,
      "Eng": 8388,
      "ㄸㅏㅇ</w>": 8389,
      "ㅈㅣㅂㄷㅏㄴ</w>": 8390,
      "ㅍㅗㄹㄷㅓ": 8391,
      "KR": 8392,
      "ㅅㅏㄹㅏㅁㄷㅡㄹㄱㅘ</w>": 8393,
      "ㅇㅣㄴㅅㅐㅇㅇㅡㄹ</w>": 8394,
      "ㅎㅜㄹㅗ</w>": 8395,
      "ㅇㅓㅂㄷㅔㅇㅣㅌㅡ": 8396,
      "KT</w>": 8397,
      "ㅌㅔㅋㅡ</w>": 8398,
      "ㄱㅓㅅㅇㅣㅇㅓㅆㄷㅏ</w>": 8399,
      "ㄲㅡㅀ": 8400,
      "ㅇㅏㄴㄷㅚ": 8401,
      "ㅍㅗㅎㅏㅁㅎㅏㅇㅕ</w>": 8402,
      "aw": 8403,
      "2007ㄴㅕㄴ</w>": 8404,
      "ets</w>": 8405,
      "ㅎㅕㅇㅇㅡㄴ</w>": 8406,
      "ㄷㅚㅇㅓㅆㄷㅏㄱㅗ</w>": 8407,
      "ㅌㅡㅇㅟㅌㅓ</w>": 8408,
      "5ㅊㅓㄴ": 8409,
      "ㅎㅏㄴㅇㅣㄴ": 8410,
      "ㅅㅣㄴㅊㅓㅇㅇㅡㄹ</w>": 8411,
      "ㄷㅏㄹㅏㄴ</w>": 8412,
      "ㄱㅐㄱㄱㅘㄴ": 8413,
      "ㄱㅏㄴㅡㅇㅅㅓㅇㅇㅡㄹ</w>": 8414,
      "Or": 8415,
      "ㅎㅗㅁㅍㅔㅇㅣㅈㅣ": 8416,
      "ㅟㄴ": 8417,
      "ㅈㅗㅇㄱㅛ</w>": 8418,
      "9ㅇㅝㄹ": 8419,
      "ㅅㅣㅈㅏㅇㅇㅡㄴ</w>": 8420,
      "ㅇㅣㄴㅈㅗ</w>": 8421,
      "ㄴㅏㄱㅗ</w>": 8422,
      "ㅈㅓㄴㅇㅡㄴ</w>": 8423,
      "ㅇㅣㄱㅅㅡ": 8424,
      "ㅅㅡㄹㅔ": 8425,
      "ㄴㅣㄴ": 8426,
      "ㅇㅗㄴㅡㄹㄴㅏㄹ</w>": 8427,
      "ㅎㅏㄱㄱㅛㅇㅔㅅㅓ</w>": 8428,
      "ㅅㅏㅇㅜ": 8429,
      "ㅊㅏㅈㅇㅡㄹㅕ</w>": 8430,
      "ㅅㅏㄹㅣ": 8431,
      "ㅎㅔㄷㅡ": 8432,
      "te</w>": 8433,
      "ㄷㅏㄲ": 8434,
      "ㅅㅣㄲㅏㅈㅣ</w>": 8435,
      "ㅅㅔㅇㅢ</w>": 8436,
      "ㅂㅏㄹㄱㅡㅂ": 8437,
      "ㅈㅓㅁㄷㅗ</w>": 8438,
      "ㅎㅏㅅㅕㅅㅓ</w>": 8439,
      "ㄹㅡㅇ": 8440,
      "ㅈㅓㅎㅢㄱㅏ</w>": 8441,
      "ㅂㅜㅂㅜ": 8442,
      "ㄱㅜㄴㅇㅡㄴ</w>": 8443,
      "ㅇㅣㄹㅇㅣㅂㄴㅣㄷㅏ</w>": 8444,
      "ㅊㅣㅇㅕㄹ": 8445,
      "ㅅㅔㄴㅅㅡ</w>": 8446,
      "ut</w>": 8447,
      "ㅇㅓㄸㅓㅎ": 8448,
      "SP": 8449,
      "ㅇㅔㅅㅓㅂㅜㅌㅓ</w>": 8450,
      "ㅁㅏㅈㅊㅝ": 8451,
      "ㄷㅣㅅㅡㅍㅡㄹㄹㅔㅇㅣ</w>": 8452,
      "ㅇㅣㄱㅓㄹ</w>": 8453,
      "ㅅㅓㅅㅓ</w>": 8454,
      "ㄷㅗㄷㅐㅊㅔ</w>": 8455,
      "ㄴㅓㅎㅇㅓ</w>": 8456,
      "ㄱㅛㅎㅚㅇㅢ</w>": 8457,
      "ㅂㅜㄱㅁㅣ": 8458,
      "ㅇㅔㄴㅈㅣㄴ</w>": 8459,
      "ㅌㅐㅂㅡㄹㄹㅣ": 8460,
      "ㅊㅗㅂㅏㄴ": 8461,
      "ㅍㅣㄹㅡㄹ</w>": 8462,
      "ㅂㅐㅊㅜㄹ": 8463,
      "ㄱㅜㅇㅣㅂ</w>": 8464,
      "ㅅㅏㅎㅏㅇㅇㅔ</w>": 8465,
      "600": 8466,
      "ㅊㅟㅇㅓㅂ</w>": 8467,
      "ㄱㅣㄹㅇㅔ</w>": 8468,
      "ㄱㅜㅂ": 8469,
      "ㅋㅡㄴㅇㅓㅇㄷㅓㅇㅇㅣ</w>": 8470,
      "ㅇㅓㄱㅇㅡㄹ</w>": 8471,
      "2010</w>": 8472,
      "Trip": 8473,
      "ye": 8474,
      "ㄱㅝㄴㅎㅏㄴㅇㅣ</w>": 8475,
      "ㄷㅏㅂㅗㅁㅕㄴ</w>": 8476,
      "ㅈㅓㅂㅊㅗㄱ": 8477,
      "ㅅㅏㅇㅝㄴ</w>": 8478,
      "ㅈㅣㅈㅓㅇ</w>": 8479,
      "ㅅㅏㅈㅣㄴㅇㅣ</w>": 8480,
      "ㅈㅗㄹㅇㅓㅂ</w>": 8481,
      "ㅎㅘㄴㄱㅕㅇㅇㅔ</w>": 8482,
      "ㄷㅏㅇㅇㅣㄹ</w>": 8483,
      "ㅂㅗㅅㅜ</w>": 8484,
      "ㅈㅜㄴㅅㅜ": 8485,
      "ㅈㅡㄹㄱㅓㅂㄱㅔ</w>": 8486,
      "ㄹㄲㅏㅇㅛ</w>": 8487,
      "ㅈㅣㅇㅕㄴ": 8488,
      "ㄷㅗㄱㅅㅓ": 8489,
      "ㅁㅏㅈㅈㅣ</w>": 8490,
      "ㅇㅏㅅㅣㅇㅏㅇㅢ</w>": 8491,
      "ㄷㅏㄱㅏ": 8492,
      "ㅇㅗㄷㅣㅇㅗ</w>": 8493,
      "ㄱㅣㄱㅘㄴㅇㅢ</w>": 8494,
      "ㅈㅓㅇㅅㅏㅇ</w>": 8495,
      "ㅈㅏㅂㅇㅏ": 8496,
      "ㅇㅣㅇㅠㄹㅡㄹ</w>": 8497,
      "AD": 8498,
      "ㅇㅜㅇ</w>": 8499,
      "ㅎㅏㄱㅔㅆㄷㅏㄴㅡㄴ</w>": 8500,
      "ㄹㅗㅁㅐㄴ": 8501,
      "ㅎㅘㅇㄱㅡㅁ": 8502,
      "ㄷㅗㅇㄱㅖ": 8503,
      "ㄱㅣㅅㅜㄹㅇㅢ</w>": 8504,
      "ㅂㅏㄲㅇㅢ</w>": 8505,
      "ㅁㅏㄹㅇㅣㅂㄴㅣㄷㅏ</w>": 8506,
      "ㅅㅏㅁㅅㅓㅇㅈㅓㄴㅈㅏ</w>": 8507,
      "ㅁㅏㅈㅜ": 8508,
      "ㅅㅓㄴㅂㅐ": 8509,
      "ㄱㅏㅇㄴㅏㅁㄱㅜ</w>": 8510,
      "ㅇㅣㅇㅛㅇㅇㅔ</w>": 8511,
      "ㅂㅗㅅㅣ": 8512,
      "ㅁㅗㄱㅍㅛㄹㅗ</w>": 8513,
      "ㅅㅏㅇㄷㅐㅈㅓㄱㅇㅡㄹㅗ</w>": 8514,
      "ㅈㅠ": 8515,
      "ㅅㅜㅌㅏㄺ</w>": 8516,
      "ㅂㅜㄹㄹㅣㄴㅡㄴ</w>": 8517,
      "ㅅㅜㄴㅎㅘㄴ": 8518,
      "ㅂㅏㄴㄷㅐ</w>": 8519,
      "ㅈㅓㅇㅅㅣㄴ</w>": 8520,
      "ㅇㅣㅂㅡㄹ": 8521,
      "ㅇㅜㄹㅅㅏㄴ": 8522,
      "ㅂㅗㄱㄱㅜ</w>": 8523,
      "ㄴㅓㄴ</w>": 8524,
      "ㅊㅓㄴㅊㅓㄴㅎㅣ</w>": 8525,
      "ㅇㅏㅋㅣ": 8526,
      "ㄱㅖㅇㅕㄹ": 8527,
      "PP": 8528,
      "ㅅㅣㅅㅡㅌㅔㅁㅇㅢ</w>": 8529,
      "ㅍㅗㄱㅂㅏㄹ": 8530,
      "ㅅㅣㄴㅇㅛㅇㅋㅏㄷㅡ</w>": 8531,
      "ㄱㅡㅁㅇㅕㄴ</w>": 8532,
      "ㅂㅏㄱㅅㅏ</w>": 8533,
      "ㄴㅐㅇㅈㅏㅇㄱㅗ</w>": 8534,
      "ㅈㅓㄱㄱㅡㄱ</w>": 8535,
      "ㅌㅏㅇㅣㅁ</w>": 8536,
      "ㅅㅣㄷㅐㄹㅡㄹ</w>": 8537,
      "ㄴㅐㄱㅣ</w>": 8538,
      "ㄱㅓㄴㅈㅗ": 8539,
      "ㅍㅏㄴㄱㅕㄹ": 8540,
      "5ㅇㅝㄹ": 8541,
      "ㄱㅡㄹㅆㅡㄴ": 8542,
      "ㅎㅏㄴㄱㅜㄱㅇㅓ</w>": 8543,
      "ㅁㅏㄴㄴㅏㅁ</w>": 8544,
      "ㅅㅐㅁㅍㅡㄹ": 8545,
      "ㅅㅓㄱㅇㅡㄴ</w>": 8546,
      "ㅇㅏㅂㅓㅈㅣ": 8547,
      "ㅋㅓㅁㅠㄴㅣㅌㅣ": 8548,
      "ㅈㅓㄹㅊㅏㄹㅡㄹ</w>": 8549,
      "ㅅㅑㅅ</w>": 8550,
      "xx": 8551,
      "ㅇㅜㄹㅣㄴㅏㄹㅏㅇㅢ</w>": 8552,
      "ㅈㅏㅂㅏㅅㅡㅋㅡㄹㅣㅂ": 8553,
      "ㅂㅗㄴㅐㄱㅗ</w>": 8554,
      "ㄱㅜㅇㅕㄱ</w>": 8555,
      "ㅍㅣㄹㄹ": 8556,
      "ㅇㅑㅇㅅㅓㅇ": 8557,
      "1980": 8558,
      "ㅋㅜㅍㅗㄴ</w>": 8559,
      "ㅎㅐㅇㅇㅟ": 8560,
      "ㅇㅣㅅㅜ": 8561,
      "ㅅㅣㅋㅏ": 8562,
      "ㅇㅖㄱㅗ": 8563,
      "ㅇㅞㄹ": 8564,
      "ㅁㅜㄴㅎㅘㅇㅢ</w>": 8565,
      "7ㅇㅝㄹ": 8566,
      "ㄷㅚㅇㅓㅆㄷㅓㄴ</w>": 8567,
      "ㅇㅣㅁㅕㅇㅂㅏㄱ</w>": 8568,
      "ㅇㅗㄹㅐㄴㅁㅏㄴㅇㅔ</w>": 8569,
      "ㅈㅏㅁㄲㅏㄴ</w>": 8570,
      "ㅌㅗㅁㅏ": 8571,
      "ㄲㅡㅌㅇㅣ</w>": 8572,
      "enc": 8573,
      "ㄷㅏㄹㅡㄷㅏ</w>": 8574,
      ")(</w>": 8575,
      "ㄱㅓㅅㅁㅏㄴ</w>": 8576,
      "ㅅㅏㅇㅛㅇㅎㅐ</w>": 8577,
      "ㄱㅡㄴㅊㅓㅇㅔ</w>": 8578,
      "ㅇㅏㅌㅡ": 8579,
      "ㅁㅜㄱㅣ": 8580,
      "ㅆㅇㅡㅁㅕㄴ</w>": 8581,
      "ㅁㅜㅇㅓㅅㅇㅣㄴㅈㅣ</w>": 8582,
      "ㅈㅣㅅㅣㄱㅇㅡㄹ</w>": 8583,
      "gro": 8584,
      "ㅈㅗㅊㅣ</w>": 8585,
      "LI": 8586,
      "ㅋㅗㄴㅅㅓㅌㅡ</w>": 8587,
      "SW": 8588,
      "ㅂㅜㄷㅡㄹㅓ": 8589,
      "ㅇㅏㄹㅈㅣ</w>": 8590,
      "CR": 8591,
      "ㄱㅝㄴㄹㅣㄹㅡㄹ</w>": 8592,
      "ㅇㅑㅇㅅㅣㄱ</w>": 8593,
      "ㄱㅗㅇㄱㅏㄴㅇㅣ</w>": 8594,
      "ㅁㅣㄷㅇㅡㄹ</w>": 8595,
      "ㅇㅣㅎㅜㅇㅔ</w>": 8596,
      "ㅂㅗㅇㅣㄹ</w>": 8597,
      "ㅁㅏㅈㅓ</w>": 8598,
      "ㅇㅏㅈㅜㅁ": 8599,
      "ㄱㅘㅇㅇㅕㄱㅅㅣ</w>": 8600,
      "ㅅㅡㅌㅗㅇ": 8601,
      "ㅇㅓㅉㅐㅆ": 8602,
      "ㅓㅅㅡ</w>": 8603,
      "2ㅊㅓㄴ": 8604,
      "ㅇㅓㅈㅕ</w>": 8605,
      "ㅅㅐㅂㅕㄱ</w>": 8606,
      "ㅎㅘㄹㅇㅛㅇㅎㅏㄹ</w>": 8607,
      "ㅇㅕㅇㅇㅓㅂ</w>": 8608,
      "Ro": 8609,
      "ㄱㅘㄹ": 8610,
      "ㅎㅗㅎㅡㅂ": 8611,
      "ㄷㅔㅅㅡㅋㅡ": 8612,
      "ㅋㅡㄹㅣㅁ": 8613,
      "ㄱㅣㅅㅜㄹㅇㅣ</w>": 8614,
      "ㄱㅓㄴㄱㅏㅇㅛ</w>": 8615,
      "....": 8616,
      "ㅍㅓㅅㅔㄴㅌㅡ</w>": 8617,
      "ㅇㅏㄴㅣㄹ</w>": 8618,
      "ㄱㅡㄹㅓㄴㅈㅣ</w>": 8619,
      "ㅇㅓㄹㅕㅇㅜㅁㅇㅣ</w>": 8620,
      "line</w>": 8621,
      "ㄷㅏㄹㅇㅡㄹ</w>": 8622,
      "ㅅㅓㄴㅌㅐㄱㅇㅡㄹ</w>": 8623,
      "Lin": 8624,
      "ㅇㅏㄹㄹㅔ": 8625,
      "ㅁㅏㄹㅇㅣㅈㅛ</w>": 8626,
      "ㅅㅑㅇㅝ</w>": 8627,
      "ㅂㅓㄹㅣㄴㅡㄴ</w>": 8628,
      "ㅁㅜㅇ": 8629,
      "ㅁㅏㅌㅡ</w>": 8630,
      "ㅌㅜㅅㅡ</w>": 8631,
      "ㅍㅡㄹㄹㅗ": 8632,
      "ㄱㅣㅁㄷㅗㅇ": 8633,
      "ting</w>": 8634,
      "AW": 8635,
      "ㅈㅜㄱㅓ": 8636,
      "ㅎㅕㅇㅇㅢ</w>": 8637,
      "ㄱㅜㅊㅔㅈㅓㄱㅇㅡㄹㅗ</w>": 8638,
      "eㅇㅢ</w>": 8639,
      "ㅁㅝㄱㅏ</w>": 8640,
      "ㄱㅇㅡㄴ</w>": 8641,
      "ㅓㅁ</w>": 8642,
      "75": 8643,
      "ㅁㅗㅇㅡ": 8644,
      "ㅇㅕㄴㅅㅗㄱ": 8645,
      "ㄱㅐㄱㅅㅣㄹㅇㅣ</w>": 8646,
      "ㅂㅐㄴㄷㅡㄹㅗ</w>": 8647,
      "ㅎㅏㄴㅂㅏㄴㄷㅗ</w>": 8648,
      "ㅇㅓㅂㄹㅗㄷㅡ</w>": 8649,
      "ㅇㅣㄹㄱㅘㅇ</w>": 8650,
      "ber": 8651,
      "ㅎㅗㅇㅋㅗㅇ</w>": 8652,
      "ㅁㅐㅈㅜ</w>": 8653,
      "ㄹㅔㅈㅣ": 8654,
      "ㅇㅕㄹㄱㅗ</w>": 8655,
      "800": 8656,
      "ㅇㅝㄴㅎㅘㄹ": 8657,
      "AI": 8658,
      "ㅇㅞㅂㅋㅐㅁ</w>": 8659,
      "ㅂㅔㄴㅊㅓ": 8660,
      "Des": 8661,
      "ㅅㅔㄱㅡㅁ</w>": 8662,
      "ㅇㅓㅆㄷㅏㄱㅗ</w>": 8663,
      "ㄷㅜㄴㅡㄴ</w>": 8664,
      "ㅂㅓㅌㅡㄴ</w>": 8665,
      "ㅈㅏㄹㅏ": 8666,
      "ㅂㅗㅅㅣㅁㅕㄴ</w>": 8667,
      "ㅎㅏㄴㅣㄲㅏ</w>": 8668,
      "ㅅㅏㅇㅝㄴ": 8669,
      "ㄱㅕㅇㅈㅐㅇ</w>": 8670,
      "ㅂㅗㄹㄴㅔㅅ</w>": 8671,
      "6ㄱㅐㅇㅝㄹ</w>": 8672,
      "ㅇㅠㅊㅜㄹ": 8673,
      "ㄱㅡㄹㅐㅍㅣㄱ</w>": 8674,
      "ㄷㅓㄴㄱㅏ</w>": 8675,
      "ㅇㅕㄹㅗㄴ": 8676,
      "ㅅㅓㅇㅁㅕㅇ</w>": 8677,
      "ㅍㅡㄹㅗㅁㅗㅅ": 8678,
      "ㅅㅡㅍㅗㅊㅡㅌㅗㅌㅗ": 8679,
      "ㅁㅗㄷㅔㄹㅇㅣ</w>": 8680,
      "ㅂㅡㄹㄹㅗㄱㅡㄹㅡㄹ</w>": 8681,
      "ㅇㅗㄻㄱㅕ": 8682,
      "sk": 8683,
      "ㅎㅘㅈㅐ</w>": 8684,
      "ㅈㅓㄴㅈㅏㅇ": 8685,
      "ㅅㅔㅌㅏㄱ": 8686,
      "im</w>": 8687,
      "ㅂㅣㅁㅣㄹ</w>": 8688,
      "12ㅍㅔㅇㅣㅈㅣ</w>": 8689,
      "ㅇㅣㄴㄷㅣ": 8690,
      "that</w>": 8691,
      "ㅈㅣㄱㅡㅂ</w>": 8692,
      "ㄴㅔㅇㅣㅂㅓ": 8693,
      "ㅋㅏㅇㅜ": 8694,
      "aver</w>": 8695,
      "ㅈㅗㅎㄱㅔㅆㄷㅏ</w>": 8696,
      "ㅇㅕㄱㅕ": 8697,
      "ㅎㅏㅂㄴㅣㄲㅏ</w>": 8698,
      "ㅇㅓㄹㄱㅜㄹㅇㅡㄹ</w>": 8699,
      "ㅁㅣㄱㅜㄱㅇㅔㅅㅓ</w>": 8700,
      "ㅎㅏㄴㅇㅢ</w>": 8701,
[...]
