{
  "ㅇㅏㄹㄸㅡㄹ": 24591,
  "ㅎㅚㅈㅏㅇㅇㅣ</w>": 12962,
  "ㅈㅐㅁㅣㅇㅣㅆㄱㅔ</w>": 10980,
  "ㅇㅣㅁㅣㅈㅣㅇㅢ</w>": 22343,
  "ㅍㅏㅇㅣㅍㅡ</w>": 26421,
  "Good</w>": 25089,
  "ㄱㅜㅊㅜㄱㅎㅏㄱㅗ</w>": 24761,
  "ㅎㅐㄴㅡㄴ</w>": 19844,
  "ㄷㅗㅅㅣㄹㅏㄱ</w>": 21680,
  "ㅂㅏㄲ": 913,
  "ㅅㅏㅇㅛㅇㅎㅏㅅㅣㄹ</w>": 11320,
  "ㅈㅣㄱㅡㅁㅇㅢ</w>": 8155,
  "ㅍㅗㄹㅡㄹ</w>": 9107,
  "ㅅㅜㅇㅓㅂㅇㅣ</w>": 24177,
  "ㅉㅏㅈㅡㅇ": 19018,
  "ㅍㅕㅇㄱㅏ": 2447,
  "ㅇㅠㅂㅔㄴㅌㅜ": 30756,
  "ㄷㅚ": 318,
  "ㅁㅏㄴㄴㅏㅁㅇㅡㄹ</w>": 23062,
  "ㅊㅗㅊㅏㅇ": 23981,
  "ㅂㅣㄹㅗㅅㅎㅐ</w>": 8203,
  "ㅅㅔㄹㅕㄴㄷㅚㄴ</w>": 15468,
  "ㅍㅕㅇㄱㅏㄱㅏ</w>": 16824,
  "ㅋㅏㅁ": 2178,
  "ㄱㅜㄱㅅㅜ</w>": 16218,
  "ㅇㅟㅎㅕㅂㅇㅡㄹ</w>": 26085,
  "ㅇㅣㄲㅡㄹ</w>": 30047,
  "ㅍㅛㅅㅣㄷㅚㄴㅡㄴ</w>": 29437,
  "ㅇㅔㄴㅈㅣㄴㅇㅡㄹ</w>": 22265,
  "ㅁㅏㅈㄷㅐㄱㅕㄹㅇㅡㄹ</w>": 29145,
  "ㄷㅐㅊㅓㅎㅏㄴㅡㄴ</w>": 29620,
  "ㅁㅏㄹㅡ</w>": 27591,
  "ㅈㅏㄱㄱㅏㄱㅏ</w>": 15029,
  "ㅋㅏㄹㅇㅡㄹ</w>": 24464,
  "La</w>": 14860,
  "ㅈㅜㅇㄱㅗㅇㅇㅓㅂ</w>": 24838,
  "ㅈㅓㅁㅅㅜㄱㅏ</w>": 18965,
  "ㅅㅔㅌㅏㄱ</w>": 9693,
  "ㅂㅕㅇㅇㅏㄹㅣ</w>": 14823,
  "ㅌㅡㄹㅣ": 1688,
  "ㅊㅓㄹㅣㅎㅏㄱㅗ</w>": 26852,
  "1ㅈㅏㅇ</w>": 14859,
  "ㅇㅣㄹㅂㅗㄴㅇㅢ</w>": 4093,
  "ㅅㅣㄴㅎㅕㅇ</w>": 14020,
  "ㅅㅕㄴㅓㄹ</w>": 22449,
  "ㅇㅓㄴㅇㅓㄱㅏ</w>": 27200,
  "ㅅㅐㅇㄱㅣㄱㅔ</w>": 27262,
  "ㄷㅗㅇㅍㅗ": 20070,
  "ㄴㅓㅎ": 1909,
  "ㅆㅏㅇㄷㅜㅇㅇㅣ</w>": 25293,
  "ㅅㅓㄹㅊㅣㅎㅏㅇㅕ</w>": 31444,
  "ㄱㅗㅇㅍㅕㅇ": 22842,
  "ㄱㅗㅈㅣㄹㅡㄹ</w>": 30272,
  "ㅅㅗㅎㅗㄹ": 20662,
  "ㅃㅏㄹㅇㅏ</w>": 26972,
  "ㅇㅣㄹㅓ": 648,
  "ㅎㅏㄾ</w>": 32725,
  "ㅍㅖㅈㅣ</w>": 17369,
  "ㅇㅣㄱㅓㅅㅇㅡㄹ</w>": 6658,
  "ㅊㅣㅁㅇㅡㄹ</w>": 6334,
  "ㅋㅏㅍㅡㄹㅣ": 26833,
  "ㅅㅡㅍㅔㄱ": 10722,
  "Red</w>": 16601,
  "ㅂㅓㅂㅇㅣㄴ": 7751,
  "ㅊㅚㄷㅐㅎㅏㄴ</w>": 5578,
  "ㅅㅓㅂㅣㅅㅡㄹㅗ</w>": 14894,
  "ㅈㅏㄲㅜ</w>": 6985,
  "ㄸㅏㅇ</w>": 8389,
  "ㄱㅔㅅㅣ": 1205,
  "ㅅㅡㅍㅡㄹㅔㅇㅣ</w>": 27493,
  "ㅎㅘㅎㅏㄱ</w>": 8741,
  "ㅂㅜㅇㅓㅋ</w>": 17807,
  "ㅂㅏㄹㅇㅓㄴㅇㅡㄹ</w>": 16325,
  "ㅎㅚㄱㄱㅣㅈㅓㄱㅇㅣㄴ</w>": 28208,
  "ㅇㅣㄱㅕㄴ": 11969,
  "your</w>": 24154,
  "ㅅㅡㅅㅡㄹㅗㅇㅢ</w>": 20596,
  "ㅇㅜㄹㅣㅇㅡㄴㅎㅐㅇ</w>": 29017,
  "ㅇㅏㄹㅐ</w>": 2417,
  "ㅂㅣㅊㅜ": 31547,
  "ㅅㅣㄹㅈㅓㅁㅇㅡㄹ</w>": 27131,
  "ㄱㅓㄱ": 2677,
  "ㅊㅡㅇㅇㅔ</w>": 10059,
  "ㅇㅣㄹㅐ</w>": 10564,
  "ㅇㅣㄴㄱㅗㅇㅈㅣㄴㅡㅇ</w>": 9385,
  "ㅇㅟㄴㄷㅗㅇ": 5396,
  "ㅁㅕㄴ</w>": 373,
  "ㅊㅣㄹ</w>": 3066,
  "ㅇㅏㄶㅇㅏㅆㅇㅡㄹ</w>": 14254,
  "ㅂㅓㅂㄹㅕㅇ": 5928,
  "ㅇㅢㅅㅏㄹㅡㄹ</w>": 12922,
  "ㅅㅡㄹㄹㅣㅂ": 23036,
  "ㅂㅜㄹ</w>": 2975,
  "ㅅㅡㅋㅗ</w>": 6743,
  "ㄷㅜㅇ": 5140,
  "ㅅㅔㅍㅗㅇㅢ</w>": 25734,
  "ㅎㅘㄱㅇㅣㄴㅎㅏㅈㅣ</w>": 28773,
  "ㅈㅓㄴㄹㅏㄴㅏㅁ": 26959,
  "ㅇㅕㄱㅝㄴ": 17589,
  "ㅌㅏㄹㅌㅚ</w>": 12630,
  "ㅁㅜㅅㅓㅇㅜㄴ</w>": 12433,
  ")-</w>": 6839,
  "ㅋㅡㄱㅣㄱㅏ</w>": 12613,
  "ㄴㅔㅌㅣㅈㅡ": 13379,
  "ㅅㅗㅍㅏ</w>": 18176,
  "ㅁㅐㄴㅣㅈㅓ": 24783,
  "ㄷㅗㅇㅁㅜㄴ": 20179,
  "ㄱㅏㄷ": 13745,
  "ㅡㅁㅇㅣ</w>": 5605,
  "119": 20502,
  "ESS</w>": 23831,
  "ㅅㅏㅇㄷㅐㅈㅓㄱㅇㅡㄹㅗ</w>": 8514,
  "ㄱㅖㅎㅚㄱㅎㅏㅅㅔㅇㅛ</w>": 22439,
  "ㅎㅏㄹㅇㅣㄴㅇㅡㄹ</w>": 30519,
  "ㅁㅕㅇ": 454,
  "ㅂㅔㅅ</w>": 8710,
  "ㄱㅔㅆㄴㅔㅇㅛ</w>": 12124,
  "ㄱㅡㅁ": 522,
  "ㅋㅗㅁㅔㄴㅌㅡㄹㅡㄹ</w>": 27096,
  "ㅍㅗㅊㅔㅌㅣ": 30861,
  "6": 18,
  "ㅎㅏㄹㄱㅔ</w>": 27447,
  "ㅎㅗㅍㅡ</w>": 27048,
  "ㅎㅏㄴㅂㅗㄱ</w>": 29664,
  "ㅊㅡㅇㅢ</w>": 24560,
  "ㅂㅣㅇㅛㅇㅇㅡㄴ</w>": 12578,
  "ㅁㅣㄴㄱㅏㄴ": 7494,
  "ㅋㅡㄱㅏ</w>": 10254,
  "ㅁㅜㄹ": 428,
  "ㅇㅣㄴㅔㅇㅛ</w>": 6352,
  "ick</w>": 7240,
  "ㅈㅣㅂㄷㅏㄴ": 6539,
  "ㄷㅐㅁㅜㄴ": 11401,
  "9ㅇㅟ</w>": 30400,
  "ㅁㅗㅇㅣㄴ</w>": 13309,
  "ㅎㅚㄹㅗ": 26321,
  "ㅌㅗㄹㅣ</w>": 9942,
  "ㄱㅓㅁㅅㅐㄱㅇㅡㄹ</w>": 13505,
  "ㅌㅐㄱㅅㅣ</w>": 10639,
  "ㅇㅏㅁㅔㄴ</w>": 19188,
  "ㅌㅟㄱㅣㅁ": 30157,
  "ㅇㅣㅂㄱㅜ</w>": 15782,
  "um": 2667,
  "ㅅㅜㅈㅣㅂㄷㅚㄴㅡㄴ</w>": 28179,
  "ㅆㅏㄹㅆㅏㄹ": 30331,
  "ㅎㅡㄺ": 10751,
  "ㅅㅓㄹㅊㅣㅎㅏㄱㅣ</w>": 30350,
  "ㅂㅜㄴㅇㅑㄹㅡㄹ</w>": 14495,
  "ㅇㅣㄹㅇㅝㄹ": 27172,
  "ㅈㅔㄷㅗㄱㅏ</w>": 15729,
  "ㅇㅐㄹㅣㅈㅗ": 17319,
  "ㅁㅏㄹㅡㅌㅣ": 32267,
  "ㄷㅏㄱㅏ</w>": 1274,
  "ㅋㅐㅂㅌㅣㄴ</w>": 27095,
  "ㅃㅜㄹㅣㄴㅡㄴ</w>": 32549,
  "ㅈㅣㅂㅎㅚㄹㅡㄹ</w>": 31789,
  "ㅇㅓㄴㄷㅓ": 7349,
  "ㅇㅓㅄㄴㅡㄴㅈㅣ</w>": 22382,
  "ㅊㅚㅊㅓㅁㄷㅏㄴ</w>": 30994,
  "ㅇㅏㅇㅣㅋㅗㄴ</w>": 14058,
  "ㅇㅣㅂㅇㅑㅇ": 18598,
  "ㅅㅡㅍㅔㅇㅣㅅㅡ</w>": 18733,
  "ㅅㅓㅅㅣㄱ": 18115,
  "ㄷㅗㅇㅇㅏ": 17657,
  "ㅇㅣㄴㅡㄴ": 24668,
  "ㅅㅔㄱㅖㅈㅓㄱㅇㅡㄹㅗ</w>": 10445,
  "ㅅㅏㄱㅘ": 7026,
  "ㅅㅣㅁㅇㅡㄴ</w>": 12560,
  "ㅈㅓㄴㅅㅗㅇㅎㅏㄹ</w>": 28731,
  "ㅁㅗㅅㅡㅋㅡㅂㅏ</w>": 26285,
  "ㄱㅡㄷㅡㄹㅇㅡㄹ</w>": 8316,
  "ㄴㅏㅌㅏㄴㅐㄴㅡㄴ</w>": 11860,
  "PA</w>": 27265,
  "ㄷㅡㅇㅇㅡㄹㅗ</w>": 3260,
  "ㄹㅏㅅㅡㅂㅔ": 25672,
  "ㅂㅗ</w>": 660,
  "ㅅㅣㄴㅅㅓㅇ": 20492,
  "ㅈㅓ": 268,
  "ㅇㅣㄴㄱㅏ</w>": 1799,
  "ㅂㅔㄴㅊㅣ": 15742,
  "ㄷㅡㄹㅏㅇㅣㅂㅓ</w>": 11485,
  "ㄸㅡㄱ</w>": 18589,
  "ㅈㅐㄱ": 3007,
  "ㅅㅜㄱㅡㅂ": 13743,
  "ㅇㅣㅆㅇㅓㅆㄴㅡㄴㄷㅔ</w>": 5127,
  "ㄷㅡㄱㅈㅓㅁ</w>": 9838,
  "ㅅㅣㄴㄱㅗㄱ</w>": 31224,
  "ㄷㅏㄹㄹㅓ</w>": 3714,
  "ㄴㅗㅇㅈㅏㅇ</w>": 21783,
  "ㄷㅚㄱㅗ</w>": 1024,
  "ㅇㅣㅇㅔㄴ": 20359,
  "ㅅㅣㅇㅑ": 13559,
  "ㄱㅖㅅㅗㄱㄷㅚㄱㅗ</w>": 27681,
  "ㅇㅓㄹㅣㄴㅇㅣㅇㅢ</w>": 32004,
  "ㅁㅕㅇㄹㅕㅇㅇㅓ</w>": 31089,
  "ㅅㅓㄷㅏ</w>": 26426,
  "ㅅㅣㅈㅏㅇㅇㅢ</w>": 6092,
  "ㅇㅕㄴㄱㅣㄹㅡㄹ</w>": 15379,
  "ㄴㅐㄱㅗ</w>": 4128,
  "ㅇㅣㅇㅑㄱㅣ</w>": 1696,
  "ㅅㅣㄱㅏㄴㅇㅡㄴ</w>": 4462,
  "ㄹㅏㄹㅣ": 11911,
  "ㅇㅏㄴㅇㅢ</w>": 5192,
  "ㅁㅗㅂㅓㅁ": 23671,
  "RE</w>": 26252,
  "ㅇㅏㄴㅈㅓㄴㅅㅓㅇ</w>": 21585,
  "ㅁㅔㅁㅂㅓ": 5369,
  "ㅈㅗㅎㅇㅏㅎㅐㅅㅓ</w>": 28204,
  "ㅌㅏㅂㅈㅐ</w>": 26712,
  "ㅇㅜㄹㅣㅇㅢ</w>": 2233,
  "ㅅㅗㅂㅣㅈㅏ</w>": 8044,
  "The": 18468,
  "12ㅇㅝㄹㅇㅔ</w>": 23290,
  "ㄱㅓㅅㅇㅣㄱㅗ</w>": 4949,
  "ㅎㅕ": 507,
  "ㅇㅡㅁㅎㅑㅇ": 30182,
  "ㅈㅔㅇㅚ": 2829,
  "ㅈㅓㅈㅏㅇㅅㅗ</w>": 26434,
  "ㅈㅡㅁ</w>": 2074,
  "ㅍㅏㄴㅈㅓㅇㅇㅡㄹ</w>": 30013,
  "ㅇㅏㄱㅏㅆㅣ</w>": 9246,
  "ㄷㅐㅇㅢ</w>": 2835,
  "ㄱㅏㄹㅇㅏ</w>": 20400,
  "ㄷㅐㅍㅛㅌㅣㅁㅇㅡㄴ</w>": 30238,
  "ㅁㅜㄴㅎㅏㄱ": 3934,
  "ㅇㅕㄴㄱㅜㅇㅘ</w>": 25737,
  "ㅅㅏㅇㄷㅏㅁ": 3325,
  "ㅅㅐㅇㄱㅕ</w>": 17702,
  "ㅊㅡ": 632,
  "Hard": 21259,
  "ㅌㅣㅈㅡ": 11839,
  "ㅎㅑㅇㄱㅣㄱㅏ</w>": 32154,
  "ㄱㅓㄴㅇㅔ</w>": 11674,
  "ㅌㅏㄹㄹㅏㄱ</w>": 22737,
  "Vis": 11942,
  "ㅇㅡㅁㅅㅣㄱㅇㅡㄹ</w>": 6033,
  "56": 11270,
  "ㅅㅡㅇㄴㅏㄱ</w>": 30552,
  "ㅁㅏㅂㅡㄹ</w>": 18539,
  "21ㅍㅔㅇㅣㅈㅣ</w>": 16928,
  "ㅁㅐㄱㅈㅜ": 24565,
  "ㄷㅏㅇㅅㅏㅇㅢ</w>": 14207,
  "ㄷㅡㅁㅃ": 26137,
  "ㅅㅣㄴㅊㅗㄴ": 24462,
  "ㅎㅘㄷㅚㄴ</w>": 3900,
  "ㄷㅏㄴㅇㅔㅅㅓ</w>": 14964,
  "ㄱㅖㄷㅏㄴ</w>": 23304,
  "ㅂㅕㅇㅇㅕㄱ": 17652,
  "ㅇㅏㅍㅇㅡㄹ</w>": 25783,
  "ㅅㅓㄴㅌㅐㄱㅇㅢ</w>": 16166,
  "ㅇㅣㅂㅇㅡㄴ</w>": 5909,
  "ㄱㅗ3</w>": 32560,
  "ㅇㅏㅁㅅㅡㅌㅔㄹㅡ": 25680,
  "ㅅㅏㅇㅈㅣㅇㅎㅏㄴㅡㄴ</w>": 28815,
  "ㅇㅗㄴㅡㄴ</w>": 2035,
  "ㅌㅔㅅㅡㄹ": 26032,
  "ㅇㅣㄲㅡㄹㄱㅗ</w>": 19598,
  "ㅅㅣㅁㅅㅏ": 10175,
  "ShemaleTube</w>": 20633,
  "ㄱㅜㅇㄱㅡㅁㅎㅏㄴ</w>": 4139,
  "ㅏㄴㅡㄴ</w>": 1793,
  "ㅇㅣㄱㅜㅇㅛ</w>": 19296,
  "ㅂㅜㅂㅜㄴㅇㅔㅅㅓ</w>": 11627,
  "ㄱㅜㄱㅁㅣㄴㄱㅘ</w>": 32156,
  "ㅇㅑㅇㅂㅗ": 21098,
  "ㅅㅡㅌㅏㅇㅣㄹㅇㅔ</w>": 30256,
  "ㅈㅡㅇㄱㅏㅎㅏㅇㅕ</w>": 25366,
  "ㅁㅕㅇㅎㅘㄱㅎㅣ</w>": 15549,
  "ㅅㅓㅇㅈㅏㅇㅇㅔ</w>": 25115,
  "''</w>": 14431,
  "ㄹㅔㅇㅣㄴㅡㄴ</w>": 24827,
  "ㄱㅐㄱㄱㅘㄴㅈㅓㄱㅇㅣㄴ</w>": 22505,
  "cr": 19939,
  "ㅅㅗㅇㅛ": 5887,
  "ㅍㅕㄴㅎㅏㄴ</w>": 15154,
  "ㅇㅠㅊㅣ": 4961,
  "ㄱㅏㅇㅘ</w>": 5905,
  "ir": 1958,
  "LE": 2777,
  "ㅇㅛㄱㄱㅜㄹㅡㄹ</w>": 19038,
  "ㅂㅔㅌㅡㅁㅐㄴㅌㅗㅌㅗ</w>": 31190,
  "ㅇㅣㄱㅅㅡㅍㅡㄹㄹㅗㄹ": 15511,
  "ㄷㅏㅇㅑㅇ": 937,
  "ㅅㅣㄴㅊㅓㄴ": 19285,
  "ㅅㅐㅇㄱㅣㄴ</w>": 6544,
  "am</w>": 4728,
  "ㄱㅗㅇㅁㅜㅇㅝㄴ</w>": 6391,
  "ㅋㅣㅇㅜ": 10218,
  "ㄱㅜㄴㄷㅐㄹㅡㄹ</w>": 28476,
  "ㅊㅓㄹㄷㅗ</w>": 11782,
  "Dㅇㅢ</w>": 23669,
  "angu": 14562,
  "1ㄴㅕㄴㅇㅔ</w>": 12368,
  "ㅁㅏㅂㅣ": 28766,
  "ㅅㅔㅇㅜㄴ</w>": 12448,
  "ㅎㅐㅋㅣㅇ": 19055,
  "ㅈㅏㄷㅡㄹㅇㅔ</w>": 13529,
  "ㅅㅏㅎㅚㅂㅗㄱㅈㅣㅅㅏ</w>": 23225,
  "ㅇㅣㄴㅅㅔㄴ": 23771,
  "ㄱㅘㅎㅏㄱ</w>": 4476,
  "ㅇㅓㄴㅇㅓㄹㅗ</w>": 14976,
  "sㅇㅔ</w>": 26332,
  "ㅅㅣㅇㅕㄴ": 29792,
  "ㄱㅗㅇㄱㅡㅂㅈㅏ</w>": 30042,
  "ron": 23208,
  "ㅇㅗㅂㅅㅕㄴ</w>": 6152,
  "ㄱㅣㅁㅕㄴ</w>": 23568,
  "ㄱㅠㅈㅓㅇㅇㅡㄹ</w>": 13086,
  "ㅋㅐㅂㅊㅕ": 30750,
  "ㅇㅕㅆㅇㅡㄹ</w>": 29463,
  "ㄴㅓㅁㄱㅣㄴ</w>": 31277,
  "ㄱㅔㅇㅣㅁㅇㅣㄷㅏ</w>": 29315,
  "ㅎㅣㄱㅣ</w>": 16699,
  "UL</w>": 31730,
  "ㅇㅣㅇㅣㅆㄷㅏㅁㅕㄴ</w>": 31648,
  "ㅅㅣㄴㅅㅗㄱ": 6383,
  "ㄷㅐㅎㅏㄴㅁㅣㄴㄱㅜㄱㅇㅣ</w>": 32158,
  "ㅇㅣㅂㅊㅏㄹ": 10981,
  "ㄱㅕㄲㅇㅡㄹ</w>": 31574,
  "ㅂㅡㄹㄹㅗ": 6737,
  "eㄹㅡㄹ</w>": 9704,
  "ㅅㅓㅇㅔ</w>": 5702,
  "ㅈㅔㄱㅜㄱㅇㅢ</w>": 22272,
  "Far": 30757,
  "ㅅㅗㄴㄱㅏㄹ": 6118,
  "ㅆㅣㅇ</w>": 30659,
  "ㅊㅐㅇ": 4620,
  "ㅂㅏㅇㅅㅏㅅㅓㄴ</w>": 24458,
  "ㅇㅝㄴㄴㅐ": 15766,
  "ㅂㅜㅊㅓㄴ</w>": 21492,
  "ㅇㅏㄹㄹㅐ": 21130,
  "ㅅㅏㅅㅐㅇㅎㅘㄹ</w>": 25687,
  "ㅎㅏㅅㅣㅁㅕㄴ</w>": 2808,
  "ick": 11130,
  "ㄹㅣㅍㅡ": 25058,
  "ㅅㅣㅎㅓㅁ</w>": 3715,
  "ㄷㅡㄹㅇㅓㄱㅏㄱㅔ</w>": 28336,
  "ㅎㅗㅇㅢ</w>": 5429,
  "ㅂㅜㅇㅓㅋ": 23235,
  "ㅈㅗㄹㅗㅇ": 22967,
  "ㅇㅞㅂㅌㅜㄴ": 21965,
  "ㄱㅏㄴㅇㅡㄹ</w>": 14290,
  "ㄶ</w>": 239,
  "ㅇㅣㅎㅐㅎㅏㄹ</w>": 7704,
  "ㄱㅕㄹㅅㅏㄴ": 30077,
  "ㄱㅐㅂㅏㄹ</w>": 2050,
  "ㅈㅏㅇㅠㅇㅘ</w>": 26338,
  "ㅁㅕㄴㅁㅗㄹㅡㄹ</w>": 27020,
  "ㅕㄱㅇㅡㄹ</w>": 4267,
  "ㅋㅗㄹㄹㅔㅅㅡㅌㅔ": 21264,
  "ㅅㅜㄱㅏㅇ</w>": 21577,
  "ㅇㅣㄹㄲㅐ": 27156,
  "ㅁㅏㅌㅇㅡㄴ</w>": 13840,
  "ㅊㅣㅋㅣㄴ": 15906,
  "ㅔㅅㅓㅇㅢ</w>": 8894,
  "ㅂㅗㄱㅗㄴㅡㄴ</w>": 28976,
  "ㅅㅣㄱㅔㅆㅈㅣㅁㅏㄴ</w>": 19661,
  "ㅇㅣㄹㅕㄱㅅㅓ</w>": 17089,
  "ㄸㅡㄱㅗ</w>": 19977,
  "ㄱㅗㅇㄱㅐ": 2104,
  "using</w>": 20202,
  "ㅇㅏㅍㅇㅡㄹㅗㅇㅢ</w>": 15884,
  "Off": 7809,
  "ㅂㅠ</w>": 7203,
  "ㅂㅗㄱㅓㄴ": 3854,
  "ㅂㅜㅅㅗㄱ": 19496,
  "ㄱㅜㅇㅕㄱㅇㅣ</w>": 26388,
  "ㅁㅐㄷㅏㄹ</w>": 13814,
  "ㅇㅓㄷㅣㅅㅓ": 19681,
  "ㅇㅛㄱㅜㄹㅡㄹ</w>": 14803,
  "ㅈㅓㄱㄷㅏㅇㅎㅣ</w>": 14319,
  "AF</w>": 28447,
  "ㄴㅓㅁㄴㅡㄴ</w>": 6192,
  "ㅁㅗㅁ": 2520,
  "ㅇㅡㄴㅣㄲㅏ</w>": 8778,
  "ㅂㅣㅅㅡㅅ": 5347,
  "tic</w>": 21367,
  "ㅎㅐㅍㅣ": 3728,
  "ㅆㅡㅇㅣㄱㅗ</w>": 31873,
  "ㄱㅗㅇㄹㅑㄱ": 13657,
  "ㅅㅏㄹㅣ</w>": 14947,
  "ㅁㅜㄴㅈㅔㄹㅏㄱㅗ</w>": 27485,
  "ㅂㅏㄴㅈㅓㄴ</w>": 18183,
  "ㅂㅗㅎㅓㅁㄹㅛㄱㅏ</w>": 29511,
  "ㅇㅏㅇㅣㄷㅡㄹㄷㅗ</w>": 28637,
  "ㅈㅓㅊㅜㄱ": 10272,
  "ㄷㅗㅊㅏㄱㅎㅐㅆㄷㅏ</w>": 27653,
  "1ㅍㅔㅇㅣㅈㅣㅇㅢ</w>": 30112,
  "ㄸㅐ": 518,
  "ㅅㅏㄷㅏㄹㅣ": 4615,
  "ㄱㅗㄴㄹㅏㄴㅎㅏㄴ</w>": 29881,
  "1ㅇㅟ": 19176,
  "ㅅㅏㅁㅅㅓㅇㅎㅘㅈㅐ</w>": 29457,
  "ㄷㅡㄹㅓㄴㅐㄴㅡㄴ</w>": 26367,
  "ㄷㅡㄹㅓㄴㅐㄴ</w>": 30637,
  "ㄱㅏㅈ": 1022,
  "ㅈㅣㄱㅇㅝㄴㅇㅡㄴ</w>": 16384,
  "ㅂㅣㅅㅡ</w>": 14388,
  "ㅂㅜㄹㄹㅓ</w>": 12006,
  "ㅏㅁㅕ</w>": 23305,
  "ㅅㅞㅂㅗㄹㅔ</w>": 30787,
  "ㅇㅏㅆㄱㅗ</w>": 10532,
  "ㄴㅏㅇㅗ": 1071,
  "ㅈㅓㄹㅈㅔ": 21753,
  "ㅅㅏㅇㅍㅜㅁㅇㅣ</w>": 8822,
  "ㅁㅏㄴㄷㅏ</w>": 22419,
  "ㅈㅔㅁㅗㄱ": 6181,
  "ㅅㅏㄱㅓㄴㅇㅡㄹ</w>": 9921,
  "ㄴㅔㄱ": 5960,
  "ㅏㄴㅇㅡㄹ</w>": 27630,
  "ㅇㅣㄷㅗㅇㅎㅏㄴㅡㄴ</w>": 20851,
  "ㄱㅡㄹㅣㅂ": 29313,
  "ㅆㅏㄴ</w>": 4457,
  "ㅁㅜㄹㅗ</w>": 13117,
  "UN</w>": 19052,
  "ㅁㅔㅇㅣㅈㅓ</w>": 13790,
  "ㅍㅔㅇㅓ": 20639,
  "ㅌㅡㄹㅐㄱㅂㅐㄱ</w>": 9815,
  "ded</w>": 20661,
  "TVㅇㅢ</w>": 30801,
  "ㅍㅣㄹㅇㅛㅎㅏㄴ</w>": 1512,
  "ㄱㅗㅇㅎㅓㄴ</w>": 27897,
  "ㅇㅓㅍㅡㄹㄹㅣㅋㅔㅇㅣ": 8159,
  "ㅅㅐㅇㅎㅘㄹㅇㅡㄴ</w>": 23676,
  "50ㄷㅐ</w>": 20388,
  "HP": 15864,
  "ㅇㅏㄴㄹㅏㄱ": 16596,
  "ab": 1916,
  "ㄴㅏㄱㅏ": 5534,
  "ㅅㅣㅀㅇㅡㄴ</w>": 21087,
  "ㅊㅗㄱ</w>": 13649,
  "ㄱㅘㄴㄱㅘㅇ": 2006,
  "ㅊㅏㅇㅇㅢ</w>": 24493,
  "ㄱㅣㄷㅐㅎㅐ</w>": 23691,
  "ㅁㅜㄴㅇㅡㄹ</w>": 2040,
  "ㅎㅗㅅㅜ": 20657,
  "ㅎㅏㄴㅎㅏㅁ</w>": 19153,
  "ㄷㅏㅎㅏㄱㅗ</w>": 15728,
  "Hub</w>": 8153,
  "6ㅇㅣㄹ</w>": 6299,
  "ㅈㅣㅈㅣㅎㅏㄴㅡㄴ</w>": 26897,
  "AR": 3809,
  "ㄴㅗㄹㅇㅣ": 3981,
  "ㄷㅗㄴㅇㅔ</w>": 29119,
  "ㅈㅣㅇㅕㄱㅇㅡㄹ</w>": 10060,
  "ㅃㅐㅅ": 20383,
  "ㄱㅝㄴㄹㅕㄱㅇㅢ</w>": 24889,
  "ㅈㅣㄱㅈㅏㅇㅇㅔㅅㅓ</w>": 26764,
  "ㅊㅜㅇㅜㄴ</w>": 14449,
  "ㅈㅣㅂㅇㅏㄴ</w>": 19278,
  "struc": 17230,
  "ㅍㅐㄴㅌㅣ": 26327,
  "DSM</w>": 32513,
  "ㄲㅏ": 537,
  "ㅌㅗㅇㄱㅘ": 5843,
  "ㅎㅘㄴㅇㅠㄹ</w>": 22136,
  "ㅇㅠㄱㅣ</w>": 26641,
  "ㅏㄴㄷㅏㄱㅗ</w>": 32496,
  "ㅇㅣㅂㅓㄴㅇㅔ</w>": 4814,
  "ㄱㅐㅈㅓㅇ</w>": 9565,
  "ㄴㅗㅇ</w>": 12946,
  "ㅇㅓㅍㅣㄹ": 21321,
  "ㅇㅣㄱ": 1232,
  "ㅌㅗㅇㅘ</w>": 24039,
  "ㅌㅏㅇㅣㄴㅇㅔㄱㅔ</w>": 17910,
  "ㅡㄱㅗ</w>": 2825,
  "ㅇㅗㄹㅐㄴ": 6868,
  "ㅎㅐㄴㄷㅡㅍㅗㄴ": 15367,
  "ㅅㅏㄹㅡ": 29217,
  "ㅗㅇ": 278,
  "3ㄹㅜ": 17233,
  "ㅎㅕㅂ</w>": 6341,
  "ㄸㅡㄱㅓㅂㄱㅔ</w>": 22347,
  "ㅅㅓㅁㅕㄴ": 31033,
  "ㅇㅣㅆㅇㅓㅆㄷㅏㄴㅡㄴ</w>": 15301,
  "ㄷㅜㅇㅓ</w>": 21751,
  "ㄱㅣㅁㅁㅕㅇ": 17428,
  "ㅎㅏㄱㅇㅟㄹㅡㄹ</w>": 26246,
  "ㅌㅔㅁㅏ</w>": 13976,
  "ㄷㅓㄱㅜㄴ": 24537,
  "ㅇㅣㄹㅇㅣㄹㅏ</w>": 30321,
  "ㅅㅏㄴㄷㅗ</w>": 30824,
  "ㅁㅣㄱㅜㄱㅇㅣㄴ</w>": 26575,
  "ㄷㅏㅌㅜ": 12775,
  "ㅇㅠㄴㅅㅓㅇ": 30280,
  "ㄹㅗㄹㄹㅓ</w>": 31812,
  "ㅋㅣㅇㅢ</w>": 11334,
  "ㅅㅓㅇㅈㅓㄱ</w>": 7127,
  "ㄱㅏㅇㅣㅂㅎㅐ</w>": 22749,
  "ve": 23255,
  "ㅇㅖㅈㅓㅇㅇㅣㅁㅕ</w>": 25425,
  "ㅈㅕ": 873,
  "ㅇㅏㅅㅟㅂㄷㅏ</w>": 28367,
  "ㅁㅓㅁㅊㅜㄴ</w>": 30355,
  "ㅂㅔㄱㅌㅓ</w>": 12572,
  "ㅌㅡㄱㄱㅏㅇ</w>": 12594,
  "ㅁㅓㄹㅣ": 3965,
  "ㄱㅗㄱㅐㄱㄴㅣㅁㅇㅢ</w>": 9656,
  "ㅑㅇ</w>": 802,
  "ㅅㅕㅊㅡ": 21963,
  "ㅊㅚㄱㅗㅇㅢ</w>": 2309,
  "ㅌㅚㄱㅡㄴ</w>": 16368,
  "ㅎㅐㅇㄷㅗㅇㅇㅢ</w>": 23763,
  "ㅃㅕ": 7869,
  "ㅇㅣㅇㅛㅇㅎㅏㄴ</w>": 4869,
  "ㅅㅜㅅㅜㄹ": 2610,
  "ㄱㅘㄴㅅㅣㅁㄱㅘ</w>": 11787,
  "ㄱㅐㄴㅕㅁㄱㅘ</w>": 12939,
  "ㅅㅓㅁㅅㅔ": 31532,
  "ㄷㅚㄱㅔ</w>": 5988,
  "ㄱㅙㄴㅊㅏㄶ": 2991,
  "ㅁㅏㄴㄷㅡㄹㅇㅓㅆㅅㅡㅂㄴㅣㄷㅏ</w>": 19409,
  "1ㅇㅣㄴㄷㅏㅇ</w>": 13375,
  "staur": 24078,
  "KBO": 16412,
  "ㅇㅣㄹㅝㅈㅣㄴ</w>": 24124,
  "ㅍㅐㄴㄷㅡㄹㅇㅡㄴ</w>": 25438,
  "FTA</w>": 15135,
  "ㅋㅏㅁㅔㄹㅏㅇㅢ</w>": 30613,
  "ㅅㅏㅈㅣㄴ": 1308,
  "ㄱㅕㄴㅈㅔ": 29099,
  "ㅅㅗㅇㅝㄴㅇㅡㄹ</w>": 31741,
  "ㅅㅣㅇㅗ</w>": 15214,
  "ㅅㅣㅍㅇㅓㄷㅗ</w>": 31305,
  "ㅇㅘㅇㅣㅇㅓ</w>": 23759,
  "ㅁㅣㅌㅓ</w>": 3196,
  "ㅅㅣㄴㄴㅏㄱㅔ</w>": 21940,
  "ㅇㅓㅁㅁㅏㄹ": 24803,
  "ㅁㅏㅅㅏㄴ": 19861,
  "ㅈㅣㅈㅓㄱ": 3860,
  "ㅎㅡㄹㅡㅁㅇㅔ</w>": 24168,
  "ㄱㅣㅈㅏㄱㅏ</w>": 17248,
  "ㅈㅏㅇㅎㅏㄱ": 7764,
  "ㅂㅓㅁㅇㅟㄴㅡㄴ</w>": 31791,
  "ㅇㅕㅆ": 3535,
  "cc": 27696,
  "ㄱㅛㅅㅜㄴㅣㅁ</w>": 18305,
  "ㅆㅗㄷㅇㅏㅈㅣㄴㅡㄴ</w>": 31492,
  "ㅂㅗㅇㅕㅈㅜㄴ</w>": 14560,
  "ㅍㅗㄱㅇㅕㅁ": 30944,
  "ㅇㅣㅁㅊㅏ": 19787,
  "ㅅㅑㅇㅝ": 11025,
  "ㅅㅏㄱㅏㄱ": 10879,
  "ㄱㅕㅇㅇㅜㄴㅡㄴ</w>": 4326,
  "ㅊㅏㄴㅅㅗㅇ": 20670,
  "ㄴㅏㅁㅂㅜㄱㅈㅓㅇㅅㅏㅇㅎㅚㄷㅏㅁ</w>": 20391,
  "http</w>": 2849,
  "ㅅㅏㅂ": 5442,
  "ㅍㅗㄹㄹㅏㄴㄷㅡ</w>": 23317,
  "CO</w>": 13243,
  "ㅁㅣㄹ</w>": 5134,
  "ㅇㅏㄴㅈㅓㄴㄱㅘ</w>": 31377,
  "ㅋㅡㄹㄹㅣㅇ</w>": 30389,
  "ㄱㅚㅇㅈㅏㅇㅎㅏㄴ</w>": 24496,
  "ㄱㅖㅇㅔ</w>": 14130,
  "ㄴㅓㄱㄴㅓㄱㅎㅏㄴ</w>": 30880,
  "ㅈㅓㄴㅂㅜ": 17168,
  "ㅊㅓㄹㅣ</w>": 3187,
  "ㄱㅣㅂㅏㄴㅇㅡㄹ</w>": 14902,
  "ㅍㅏㅇㅣㄹㅇㅔㅅㅓ</w>": 31289,
  "ㅈㅐㅎㅕㄴ": 13058,
  "ㅅㅗㄱㄷㅗㄴㅡㄴ</w>": 20903,
  "ㄷㅏㅇㅅㅓㄴ": 9238,
  "ㄹ": 90,
  "ㅇㅡㅇㄱㅡㅂ": 11201,
  "ㅅㅗㄱㅏ</w>": 3232,
  "ㄱㅜㅎㅕㄴㅎㅏㄴㅡㄴ</w>": 30731,
  "ㅎㅕㄴㅈㅏㅇㅇㅢ</w>": 23272,
  "ㅅㅓㅇㅎㅑㅇ</w>": 27327,
  "2004ㄴㅕㄴ</w>": 11430,
  "ㅅㅣㄹㅇㅓㅂ": 12079,
  "ㄱㅓㄹㅇㅣ": 24463,
  "ML": 6627,
  "ㅅㅣㅅㅡㅌㅔㅁ</w>": 1935,
  "ㅊㅣㅁㅕㄴ</w>": 9351,
  "ㄱㅘㄱㅓㅇㅘ</w>": 22918,
  "ㅅㅓㅇㄹㅕㅇ</w>": 30472,
  "ㅅㅣㅍㄱㅗ</w>": 20638,
  "ㅇㅖㅅㅜㄴㅣㅁㅇㅣ</w>": 19500,
  "ㄲㅡㄹㅇㅓ</w>": 23068,
  "Cㄱㅏ</w>": 27969,
  "ㅂㅜㅈㅣ": 29925,
  "ㄴㅗㄴㅁㅜㄴㅇㅡㄹ</w>": 19639,
  "ㅈㅓㄱㅇㅣㄹ</w>": 17001,
  "ㄱㅘㄴㄱㅘㅇㄱㅐㄱㄷㅡㄹㅇㅣ</w>": 26070,
  "ㅇㅡㄹㅗㄴ</w>": 19926,
  "ㄷㅚㄱㅣㄹ</w>": 12345,
  "ㄴㅏㄷㅡㄹㅇㅣ</w>": 19086,
  "Digital</w>": 19031,
  "ㅇㅘㅇㅢ</w>": 3920,
  "ㅂㅜㄹㄱㅏㄴㅡㅇ": 7823,
  "ㅍㅗㅇㅣㄴㅌㅡ": 13454,
  "ㅅㅡㅌㅐㄴㅌㅡㄴㅇㅣ</w>": 27948,
  "ㅂㅏㅇㅈㅣㄹㅡㄹ</w>": 24348,
  "ㅃㅏㄱ": 13964,
  "ㄷㅣㅈㅏㅇㅣㄴㅇㅡㄹㅗ</w>": 20133,
  "ㄷㅐㅎㅐㅇ</w>": 11579,
  "ㄱㅏㅁㅐㅇㅈㅓㅁ</w>": 31228,
  "ㄲㅙ": 14274,
  "ㅍㅣㅎㅏㄱㅗ</w>": 19585,
  "ㅇㅣㄴㅈㅣㄹㅏ</w>": 22894,
  "ㅇㅠㅈㅓ</w>": 17665,
  "ㅅㅏㅇㅣㅌㅡㅈㅜㅅㅗ</w>": 20318,
  "ㅅㅣㄱㅣㄹ</w>": 6622,
  "ㅇㅓㅍㅡㄹㄹㅣㅋㅔㅇㅣㅅㅕㄴ</w>": 16957,
  "Im": 15166,
  "ㅅㅗㄱㅣ": 17471,
  "ㄹㅗㄴㅈㅓㄱ</w>": 19618,
  "ㄱㅖㅅㅣㄴㅡㄴ</w>": 19697,
  "ㅌㅔㄹㅏㅅㅡ</w>": 11829,
  "ㅈㅣㄱㅡㅁㅇㅡㄴ</w>": 3660,
  "ㅈㅓㅇㅔㅅㅓ</w>": 15315,
  "ㅈㅐㅎㅘㄹㅇㅛㅇ": 24158,
  "ㅂㅐㅇㅑㅇ": 27571,
  "ㅅㅔㅅㅣㅁㅎㅏㄱㅔ</w>": 25661,
  "ㄱㅣㅍㄱㅗ</w>": 31380,
  "ㅅㅣㄹㅅㅣㅎㅐㅆㄷㅏ</w>": 28602,
  "ㅇㅘㅆㅇㅡㅁㅕ</w>": 28744,
  "ㅅㅣㅈㅡㄴㅇㅣ</w>": 21793,
  "ㅅㅡㅌㅓ": 2043,
  "ㅋㅏㅌㅔ": 3048,
  "ㄷㅗㄱㅈㅓㅁ": 16099,
  "Gro": 12818,
  "ㅇㅏㄹㄹㅣㅁ</w>": 8853,
  "ㅕㄴㅣ</w>": 30605,
  "ㄹㅣㅌㅠ": 27764,
  "LP</w>": 24418,
  "ㅎㅏㄷㅓㄹㅏㄱㅗㅇㅛ</w>": 27620,
  "ㅂㅗㅌㅗㅇ</w>": 3657,
  "ㅂㅜㅇㅢ</w>": 3289,
  "ㄹㅏㅅㅓ</w>": 7787,
  "ㅈㅏㄱㅕㄱㅇㅡㄹ</w>": 12933,
  "ㄱㅖㄹㅏㄴ": 18214,
  "ㄷㅐㅈㅜ": 26477,
  "ㅎㅏㄷㅓㄱㅜㄴㅇㅛ</w>": 12607,
  "case</w>": 22189,
  "92</w>": 21818,
  "ㄱㅘㄴㄱㅘㅇㄱㅐㄱ": 8328,
  "but": 11455,
  "ㄹㅛ": 785,
  "ro": 979,
  "ㄱㅠㄱㅕㄱ": 17186,
  "ㅅㅣㅂㄷㅐ</w>": 8054,
  "ㅊㅜㄹㅁㅏ": 20861,
  "ㅈㅣㅇㅟ</w>": 30816,
  "ㅂㅜㄹㅍㅔㄴ": 18663,
  "ㅈㅜㄱㅏㄴ": 12513,
  "1ㄱㅣ</w>": 22919,
  "ㅅㅣㅇㅐㅌㅡㄹ</w>": 20810,
  "ㅎㅏㅂㅇㅣ</w>": 23221,
  "System": 29597,
  "ton</w>": 10259,
  "ㄱㅗㄹㅣ": 20624,
  "ㅁㅏㅇㅡㅁㄷㅐㄹㅗ</w>": 15530,
  "ㄱㅣㅍㅇㅣ</w>": 6769,
  "ㅈㅗㅈㅓㄹㅇㅣ</w>": 28913,
  "ㄱㅣㅈㅓㄴㅇㅔ</w>": 27013,
  "ㄱㅡㄹㅣㄴ": 7247,
  "ㄱㅏㄴㅇㅔ</w>": 3443,
  "ㅁㅜㄱㅁㅜㄱㅎㅣ</w>": 30734,
  "??": 24208,
  "ㅉㅣㄱㅇㅡㄹ</w>": 18499,
  "ㅇㅗㄴㅓㅇㅣㄱㅓㄴㅏ</w>": 23666,
  "ㄱㅣㅁㅎㅐ": 14278,
  "ㅂㅏㄹㅅㅐㅇㅎㅐㅆㅅㅡㅂㄴㅣㄷㅏ</w>": 19766,
  "ㄴㅓㅁ</w>": 10367,
  "US": 2877,
  "ㅇㅣㄱㅗㅇㅛ</w>": 24371,
  "ㅊㅜㄹ</w>": 1248,
  "ㄱㅣㅇㅓㅂㄷㅡㄹㅇㅡㄴ</w>": 20333,
  "ㅋㅓㅋㅓㄹㄷㅡ</w>": 23876,
  "IC</w>": 9425,
  "ㅇㅏㅅㅟㅇㅜㅁㅇㅡㄹ</w>": 29532,
  "ㅇㅕㄴㄱㅜㄴㅡㄴ</w>": 14237,
  "ㅂㅜㅇㅣㄴㄱㅘ</w>": 25700,
  "ㅂㅗㄱㅁㅕㄴ": 32081,
  "Play</w>": 24813,
  "ㅂㅜㄹㅡㅁㅕ</w>": 28769,
  "ㅂㅗㅇㅕㅈㅜㅁㅕ</w>": 29260,
  "ㅁㅓㅁㅊㅜㅈㅣ</w>": 25320,
  "ㅂㅏㄹㄱㅕㄴㅎㅏㄱㅔ</w>": 30139,
  "ㄱㅣㅇㅘ</w>": 3361,
  "ㅌㅡㄹㅣㅂㅇㅓㄷㅡㅂㅏㅇㅣㅈㅓ</w>": 10343,
  "ㅎㅜㅁ": 13493,
  "ㄸㅐㄴ</w>": 6427,
  "ㅎㅏㅂㅅㅓㅇ</w>": 18168,
  "3ㄴㅕㄴㄱㅏㄴ</w>": 15882,
  "ㄹㅔㅇㅣㅌㅡ</w>": 22890,
  "ㄷㅐㅎㅏㄱㄱㅛ</w>": 2181,
  "ㄷㅓㄹ</w>": 7129,
  "ㅁㅣㄷㅡㄹ": 21778,
  "ㅈㅏㅇㅢ</w>": 1011,
  "ㅌㅗㅇㅣㄱ</w>": 18749,
  "ㅇㅓㄹㅁㅏㄴㅏ</w>": 2190,
  "ㄱㅡㄴㅊㅓ</w>": 7463,
  "ㄱㅏㅁㄱㅏㄱ": 9405,
  "ㅊㅜㅇ": 878,
  "cri": 20825,
  "NO</w>": 13096,
  "ㄷㅏㅇㅣㄹㅔㄱㅌㅡ": 30958,
  "obile</w>": 13932,
  "ㅇㅖㅅ": 5439,
  "Mach": 26286,
  "5ㅂㅜㄴ": 21258,
  "ㄱㅏㅂㅗㄹ": 19058,
  "ㅇㅜㄴㅇㅕㅇㅈㅏ</w>": 17412,
  "ASP</w>": 31067,
  "ㅅㅓㄴㄱㅜ": 20099,
  "ㅇㅘㅇㅣㄷㅡ</w>": 22611,
  "ㄱㅣㅅㅜㄹㅇㅔ</w>": 16196,
  "dis": 7407,
  "ㄱㅘㅈㅓㅇㄱㅘ</w>": 14557,
  "ㅈㅓㅇㅇㅐㄱㅁㅓㄱㄱㅣ</w>": 27828,
  "ㅈㅏㅇㅅㅗ": 10707,
  "ㅎㅕㄴㅁㅕㅇ": 25573,
  "ㅈㅔㄱㅗㅇㅎㅏㄴ</w>": 10856,
  "ㅇㅣㄹㄹㅕㄴㅇㅢ</w>": 17194,
  "1300": 27824,
  "ㄱㅓㄹㅜㄱ": 20858,
  "ㅅㅏㄹㄹㅣㄴㅡㄴ</w>": 24625,
  "iTun": 23013,
  "ㅂㅗㄴㅐㅆㅅㅡㅂㄴㅣㄷㅏ</w>": 26917,
  "ㅎㅚㅅㅏㅇㅣㄴ</w>": 23413,
  "ㅁㅗㄱㄹㅗㄱㅇㅔㅅㅓ</w>": 23228,
  "2ㅂㅜㄴ</w>": 18406,
  "ICT</w>": 16365,
  "ㅌㅏㄹㅎㅘㄴ": 29383,
  "ㅁㅜㅇㅓㅅㅂㅗㄷㅏㄷㅗ</w>": 13401,
  "ㄱㅕㅇㅈㅐㅇㅇㅡㄴ</w>": 32367,
  "ㅅㅏㄹㅏㅁㅁㅏㄴ</w>": 30796,
  "SP": 8449,
  "ㅇㅣㅁㅁㅕㅇ": 13055,
  "ㅈㅜㅇㅅㅓㅇ": 30343,
  "900</w>": 31600,
  "ㄱㅓㅅㅇㅡㄴ</w>": 733,
  "ㅈㅡㄹㄱㅓㅇㅜㄴ</w>": 4611,
  "ㄷㅡㅅㅎㅏㅂㄴㅣㄷㅏ</w>": 20405,
  "ㅈㅔㄱㅗㅇㅎㅐ</w>": 12860,
  "ㄱㅏㅇㅇㅣ</w>": 22776,
  "ㅊㅐㅁㅍㅣㅇㅓㄴ": 5492,
  "ㅇㅔㄴㅈㅣㄴㅣ": 7655,
  "ㅁㅏㅅㅂㅗㄹ</w>": 21520,
  "ㅅㅐㅇㅇㅡㄴ</w>": 22028,
  "ㅊㅜㄱㅏ</w>": 1827,
  "ㅇㅗㄴㄹㅏ": 1621,
  "ㅎㅐㅈㅜㄴ</w>": 12257,
  "ㅎㅏㄴㅂㅓㄴㅆㅣㄱ</w>": 21307,
  "ㄱㅣㅇㅓ": 17219,
  "ㅅㅍㅗ": 3316,
  "ㅎㅘㅇㅔ</w>": 6961,
  "ㅅㅐㄱㅕ": 18312,
  "ㅊㅣㅁㅁㅜㄱ": 16405,
  "ㅇㅏㄶㅇㅡㅁㅇㅡㄹ</w>": 32180,
  "ㅇㅓㅂㄷㅔㅇㅣㅌㅡㄷㅚㄴ</w>": 28295,
  "al": 994,
  "ㄱㅏㅁㅅㅓㅇㅇㅡㄹ</w>": 27105,
  "ㅜㄹㅣ</w>": 20713,
  "ㅅㅔㅌㅡ</w>": 3389,
  "ㅇㅕㅇㅎㅘㄹㅡㄹ</w>": 5867,
  "ㄱㅣㅇㅝㄴㅎㅏㅂㄴㅣㄷㅏ</w>": 24255,
  "ㄴㅏㄹㅏ</w>": 3822,
  "ㅇㅗㅅ": 4782,
  "1ㄱㅓㄴ</w>": 7916,
  "\")</w>": 21683,
  "ㄱㅟㄹㅡㄹ</w>": 13102,
  "mg": 31332,
  "ㄹㅐㄴ</w>": 30384,
  "ㅅㅐㅇㄱㅏㄱㅎㅐ": 7304,
  "ㄷㅗㅇㅇㅣㄹㅎㅏㄴ</w>": 5545,
  "ㄷㅏㄹㅡㄴㅇㅣㄴㅈㅗㅇㄱㅏㄴ</w>": 12141,
  "ㄷㅚㄴㄷㅏㄱㅗ</w>": 4601,
  "w</w>": 216,
  "ood</w>": 10378,
  "ㅊㅜㄴ": 2912,
  "ㄹㅓㅂ": 21432,
  "ㄱㅔㅈㅐ": 6443,
  "ㄴㅗㅎㅇㅡㄹ</w>": 12814,
  "ㅈㅔㅇㅚㅎㅏㅁㅕㄴ</w>": 18744,
  "ㅎㅕㄹㄱㅘㄴ</w>": 21349,
  "ㅋㅐㅁ": 1676,
  "ㅎㅕㅇㅅㅣㄱㅇㅢ</w>": 17829,
  "ㅁㅔㅊㅣ": 24334,
  "ㅈㅏㅈㅔ": 19014,
  "ㅇㅣㅋㅗㄴㅗ": 24849,
  "ㄱㅓㅈㅔ": 20857,
  "ㅂㅐㄱㅕㅇㄱㅘ</w>": 25387,
  "ㅁㅣㅇㅛㅇ": 10828,
  "coun": 17107,
  "ㅇㅝㄹㄱㅏㄴ": 28609,
  "ㅅㅡㅇㅁㅜㅍㅐ</w>": 13541,
  "cor": 18207,
  "ㅇㅏㅁㅜㄹㅣ</w>": 4275,
  "ㄱㅖㅅㅜ</w>": 28485,
  "ㄱㅜㄴㅇㅔ</w>": 13279,
  "ㅈㅓㅈㅏㄱㄱㅝㄴㄱㅘ</w>": 5179,
  "ㅇㅣㄱㅅㅜ</w>": 23551,
  "ㄷㅗㄱㅜㄹㅗ</w>": 27718,
  "ㅎㅘㄱ</w>": 9275,
  "ㅅㅣㅇㅘ</w>": 10201,
  "1ㅅㅜㄴㅇㅟ</w>": 32009,
  "ㅇㅣㅎㅜㄹㅗ</w>": 11514,
  "ㅌㅡㄹㅐㅂ</w>": 21897,
  "ㄹㅏㅇㅣㄴㅇㅓㅂ</w>": 22994,
  "ㄱㅓㅈㅜ</w>": 21825,
  "ㅁㅏㅈㅊㅜㅁ</w>": 12057,
  "ㅍㅛㅎㅕㄴㅎㅏㄴ</w>": 24756,
  "ㅁㅏㅈㅊㅜㄱㅗ</w>": 26603,
  "syn": 27266,
  "ㅅㅏㅁㅏㅇㅎㅏㄴ</w>": 22932,
  "ㄷㅗㄹ": 573,
  "ㄹㅕㄴㅏ": 22867,
  "ㄷㅗㅇㄱㅘ</w>": 25224,
  "Km</w>": 18286,
  "ㄱㅗㅇㅇㅠㅎㅏㄴㅡㄴ</w>": 16264,
  "ㄱㅓㅁㅅㅐㄱㅎㅏㄹ</w>": 19928,
  "ㅁㅜㄴㅎㅏㄱ</w>": 3950,
  "5ㄴㅕㄴ</w>": 2131,
  "ㅇㅏㅇㅣㄷㅡㄹㅇㅡㄴ</w>": 10416,
  "ㅌㅡㄱㅎㅣ</w>": 1346,
  "ㅊㅜㅇㄴㅏㅁ</w>": 11480,
  "ㄸㅏㄱㄸㅏㄱ": 19301,
  "ㄷㅏㅇㅜㄴㅂㅏㄷㅇㅡㄴ</w>": 5100,
  "ㅅㅐㅂㅕㄱ</w>": 8606,
  "ㅈㅜㅇㅈㅣ": 10786,
  "ely</w>": 22046,
  "ㅆㅡㄴㅡㄴ</w>": 3434,
  "ㄱㅔㅇㅣㅌㅡ</w>": 12854,
  "ㅊㅣㄴ</w>": 2016,
  "ㄱㅜㅎㅕㄴ</w>": 15853,
  "ㅁㅓㄱㅇㅡㄹㅓ</w>": 25357,
  "ㄱㅏㄹㅜ": 15994,
  "ㅊㅕ</w>": 2053,
  "ㅅㅡㅍㅔㅇㅣㄴ": 10888,
  "ㅇㅣㄴㅌㅓㄴ": 1005,
  "ㅅㅣㄱㅁㅜㄹㅇㅢ</w>": 26832,
  "ㅅㅣㅈㅓㅇ": 17337,
  "ㅂㅏㄴㅇㅡㄹㅗ</w>": 26263,
  "ish</w>": 15576,
  "ㅅㅡㅍㅐㅁ": 22319,
  "ㄴㅣㅈㅡㅁ</w>": 24707,
  "ㅇㅣㄹㄲㅏㅈㅣ</w>": 3212,
  "ㅎㅚㅇㅝㄴㅇㅔ</w>": 21950,
  "ㅈㅓㅇㄷㅗㄹ": 20449,
  "ㅍㅖㄱㅣ</w>": 30368,
  "ㅌㅓㅇㅔㅅㅓ</w>": 17308,
  "ㅇㅜㅁㅈㅣㄱㅇㅣㄱㅗ</w>": 25888,
  "ㄱㅜㄴㅣ": 17111,
  "ㅍㅣㄹㅇㅛㄹㅗ</w>": 8352,
  "ㅊㅏㅇㅇㅢㅈㅓㄱ</w>": 32092,
  "ㄷㅏㅇㅇㅣㄹ</w>": 8483,
  "ㅂㅗㄱㅘㄴ</w>": 11803,
  "ㄱㅜㄱㅇㅣ</w>": 6404,
  "ㄱㅕㄱㅇㅡㄹ</w>": 2695,
  "ㅈㅣㄴㅔㅇㅛ</w>": 19865,
  "ㅇㅐㅊㅗㅇㅔ</w>": 15948,
  "ㄱㅏㄹㅇㅏ": 14000,
  "ㅇㅣㅎㅏㄴ</w>": 8256,
  "ㅈㅓㄴㅓㄹ": 26980,
  "ㅇㅏㄴㅐㅇㅢ</w>": 21617,
  "ㅎㅚㄱㅕㄴ</w>": 21734,
  "ㄱㅣㄷㅜㅇ": 26214,
  "ㄴㅏㅈㅇㅔ</w>": 29671,
  "ㅂㅡㄹㅏㅈㅣㄹ": 25667,
  "ㅁㅐㄱㅇㅡㄹ</w>": 20640,
  "ㅁㅣㄹㅐㄹㅡㄹ</w>": 6983,
  "ㅈㅓㅇㅂㅗㅌㅗㅇㅅㅣㄴㅁㅏㅇㅂㅓㅂㅇㅔ</w>": 30375,
  "ㅇㅏㄱㄱㅣ</w>": 25620,
  "ㅊㅏㅈㅓㄱㅇㅡㄹㅗ</w>": 17986,
  "ㄱㅏㅈㅊㅜㅇㅓㅈㅕ</w>": 28524,
  "ㅋㅐㅅㅡㅌㅡ</w>": 15525,
  "ㅈㅜㅇㄱㅜㄱㅇㅓ</w>": 12591,
  "ㄷㅡㄹㅇㅓㄱㅏㄹ</w>": 9972,
  "ㅎㅏㄷㅏㄱㅗ</w>": 2836,
  "ives</w>": 27852,
  "ㄱㅏㄴㅡㅇㅅㅓㅇㅇㅡㄹ</w>": 8414,
  "ㅇㅣㅆㄴㅡㄴㅈㅣㄷㅗ</w>": 32000,
  "And</w>": 31287,
  "ㅊㅔㄱㅏ</w>": 4964,
  "ao</w>": 23404,
  "XCafe</w>": 25264,
  "ㅋㅓㅅ": 10536,
  "ㅈㅏㅇㅂㅣㄹㅡㄹ</w>": 13422,
  "ㅈㅗㅈㅏㅇ": 26927,
  "ㅍㅗㅎㅏㅁㅎㅐㅅㅓ</w>": 28100,
  "ㄱㅔㅇㅣㅁㅇㅢ</w>": 9492,
  "ㅇㅜㄴㅎㅐㅇ": 11063,
  "ㄹㅗㅇㅔ</w>": 11327,
  "ㄱㅡㄹㅈㅏ</w>": 14961,
  "ㅌㅐㅇㅋㅡ</w>": 24444,
  "ㅂㅏㄴㄷㅐ": 4721,
  "ㄱㅏㅇㅈㅗㅎㅏㄴ</w>": 29660,
  "ㄱㅗㄴㅏㄴ": 13462,
  "ㅅㅓㅇㅅㅓ": 29287,
  "ㅈㅣㄹㅁㅜㄴㅇㅣ</w>": 15726,
  "ㅍㅏㅅㅏㄴ": 25748,
  "ㄷㅡㅁㅃㅜㄱ</w>": 27743,
  "ㅎㅘㄱㅇㅣㄴㄷㅙㅆㄷㅏ</w>": 27883,
  "ㄴㅏㄴㅟ": 9267,
  "ㅅㅜㅁㅕㄴㅇㅢ</w>": 25747,
  "ㅅㅏㅇㅍㅜㅁ": 1114,
  "ㅁㅐㅅㅜ</w>": 30845,
  "ㅎㅕㄴㅈㅗㄴ": 31103,
  "ㅇㅣㅅㄴㅡㄴ</w>": 19410,
  "ㅅㅓㄹㅊㅣㅇㅔ</w>": 32601,
  "ㅅㅏㅇㅌㅐ": 1535,
  "ㅅㅓㅁㄱㅣㄴㅡㄴ</w>": 31978,
  "ㅈㅏㄱㅈㅓㄴ</w>": 22523,
  "ㄴㅏㄹㅇㅢ</w>": 10295,
  "ㅅㅏㄴㅇㅓㅂㅇㅡㄴ</w>": 20244,
  "ㅇㅣㅇㅓㅍㅗㄴ": 24782,
  "DB": 8272,
  "ㅅㅔㄴㅌㅡ</w>": 21758,
  "ㅍㅡㄹㅗㅈㅔㄱㅌㅓ</w>": 29318,
  "ㅇㅓㄷㄱㅔ</w>": 13370,
  "ㅁㅏㄴㅋㅡㅁㅇㅢ</w>": 15051,
  "ㅈㅓㄱㅇㅣㅁㅕ</w>": 12036,
  "ㅈㅡㄱㄱㅏㄱㅈㅓㄱ</w>": 18644,
  "2015": 13817,
  "ㄲㅜㅁㅇㅡㄹ</w>": 5652,
  "6ㄱㅏㅈㅣ</w>": 22683,
  "Retrospective</w>": 19740,
  "ㅈㅓㄱㄱㅔ</w>": 13868,
  "ms</w>": 16921,
  "system</w>": 12846,
  "Dev": 12895,
  "ㄱㅕㅇㅇㅔ</w>": 13624,
  "ㅇㅣㄴㅇㅝㄴㅇㅡㄴ</w>": 30621,
  "ㅅㅡㅂ</w>": 2048,
  "ㅂㅣㄱㅏ</w>": 3364,
  "ㅅㅣㄲㅡㄹㅓ": 25626,
  "ㅅㅏㅇ": 322,
  "ㄴㅜㄴㅁㅜㄹㅇㅡㄹ</w>": 13537,
  "ㅇㅣㅂㄹㅕㄱㅎㅏㅅㅔㅇㅛ</w>": 15156,
  "ㄱㅏㅈㅕㅇㅗ": 7856,
  "ㄱㅓㄹㅣㄱㅏ</w>": 7369,
  "ㅊㅗㅂㅗ": 10982,
  "ㅊㅓ": 348,
  "ㅇㅣㄴㅈㅓㅇㄷㅚㄴㅡㄴ</w>": 22722,
  "ㄱㅏㄱㅈㅗㅇ": 29667,
  "ㅅㅡㅌㅏㅋㅣㅇ</w>": 6026,
  "ㄴㅏㅇㅡㄹ</w>": 29836,
  "ㅌㅡㅁㅇㅣ</w>": 25039,
  "ㄹㅔㅅ": 12010,
  "ㅈㅓㅇㅎㅘㄱ": 1983,
  "ㅈㅏㅇㅕㄴ</w>": 5090,
  "ㄱㅕㅁㅅㅗㄴ": 17607,
  "ㅊㅣㄱㅗ</w>": 2650,
  "ings</w>": 12583,
  "ㅁㅏㅇㅡㅁㅇㅡㄴ</w>": 11519,
  "ㅇㅓㅄㅇㅐㄴㅡㄴ</w>": 30879,
  "ㅁㅐㅇㅜㄴ</w>": 27224,
  "ㅅㅏ": 305,
  "ㄱㅡㄱㅓㅅㄷㅗ</w>": 7625,
  "ㄱㅣㄴㅡㅇㅅㅓㅇ</w>": 20117,
  "ㅅㅣㄹㅣㅇㅓㄹ</w>": 27299,
  "ㅂㅗㅈㅡㅇ</w>": 9543,
  "ㅂㅏㄱㅇㅕㅇ": 17691,
  "ㅎㅘㅈㅔㄱㅏ</w>": 19679,
  "ㄱㅣㅍㅇㅡㄴ</w>": 4026,
  "ㅋㅐㅁㅍㅔㅇㅣㄴㅇㅡㄹ</w>": 24929,
  "ㄴㅐㄹㅣㄱㅗ</w>": 15125,
  "ㅇㅗㅂㅅㅕㄴㅇㅡㄴ</w>": 27374,
  "ㄱㅘㄴㄹㅕㄴㅎㅐㅅㅓ</w>": 16214,
  "ㅇㅣㄹㄹㅓ": 6075,
  "ㅍㅡㄹㅗㄱㅡㄹㅐㅁㅣㅇ</w>": 9784,
  "ㄱㅏㅁㄷㅏㅇㅎㅏㄹ</w>": 25845,
  "ㅇㅣㄱㅓㄴ</w>": 3833,
  "ㅈㅔ8": 14259,
  "ㅇㅣㅃㅓ": 28109,
  "ㄱㅡㄴㅊㅓㅇㅔ</w>": 8578,
  "112</w>": 32732,
  "ㅅㅣㅁㅍㅡㄹ": 14273,
  "ㄱㅣㅈㅏ</w>": 1988,
  "ㅍㅡㄹㅗㄱㅡㄹㅐㅁ</w>": 1941,
  "ㄴㅏㄹㅗ</w>": 31504,
  "{": 80,
  "ㅇㅘ": 534,
  "ㅇㅏㄴㅇㅔ</w>": 2060,
  "ㅊㅔㄴ": 31892,
  "ㅂㅏㅇㅎㅑㅇㅇㅡㄴ</w>": 14510,
  "ㅎㅕㄴㅇㅡㄴ</w>": 10819,
  "ㄴㅚㅈㅗㄹ": 21289,
  "ㄱㅡㄹㅣㅅㅡㄷㅗ</w>": 14701,
  "ㅇㅡㄴㅎㅖ": 8129,
  "ㅂㅜㄹㅍㅕㄴㅎㅏㅁㅇㅡㄹ</w>": 26500,
  "ㄹㅗㅇㅣ": 20714,
  "ㅁㅔㅇㅣㅋㅡㅇㅓㅂ</w>": 14571,
  "ㄱㅏㅈㅗㄱ": 1615,
  "ㅍㅐㄹㅗ</w>": 14967,
  "ㅎㅐㅆㅇㅡㅁㅇㅔㄷㅗ</w>": 28881,
  "ㅊㅓㅁ": 2223,
  "ㅂㅓㄷㅣㄹㅡㄹ</w>": 17876,
  "ㄹㅕ</w>": 1191,
  "aver</w>": 8695,
  "ㅅㅓㄲㅇㅕ</w>": 26296,
  "ㅁㅏㄶㄱㅣ</w>": 19099,
  "ㅇㅣㄹㄱㅕㅇㅇㅔㅅㅓ</w>": 26516,
  "ㅓㅇ": 25211,
  "ㅅㅡㅁㅏㅌㅡㅍㅗㄴㅇㅔ</w>": 31512,
  "ㅂㅏㄴㅊㅏㄴ</w>": 27553,
  "ㄷㅡㅇㅔ</w>": 4478,
  "6ㅇㅝㄹ": 8050,
  "ㅇㅏㅇㅣㅇㅘ</w>": 16366,
  "ㅋㅔㅁㅣ": 13647,
  "ㅇㅕㄴㄱㅕㄹ</w>": 5315,
  "ㅍㅗㄹㅡㄴㅗㄹㅡㄹ</w>": 12367,
  "ㅂㅗㄹㅗ</w>": 11213,
  "ㅅㅣㄹㅇㅛㅇㅈㅓㄱㅇㅣㄴ</w>": 28604,
  "minal</w>": 24633,
  "ㅁㅣㅁㅏㄴㅇㅢ</w>": 14467,
  "ㅈㅗㅈㅣ</w>": 18281,
  "ㅊㅓㅅㅉㅐ</w>": 7449,
  "leg": 17810,
  "ㅅㅣㅁㅇㅡㄹㅗ</w>": 5946,
  "ㅇㅠㄹㅓㅂㅊㅜㄱㄱㅜㅇㅕㄴㅁㅐㅇ</w>": 27259,
  "ㅎㅕㅂㅎㅚㄴㅡㄴ</w>": 23725,
  "ㅇㅓㄹㅏ</w>": 27220,
  "ㄱㅜㄷㅗㄱ": 7505,
  "ul": 2495,
  "))</w>": 16235,
  "ross</w>": 29974,
  "ㅅㅓㅇㄱㅠㄴㄱㅘㄴ": 24327,
  "Cat": 29193,
  "ㅊㅓㄱ</w>": 4481,
  "ㅂㅜㄴㅇㅣㅁㅕ</w>": 17047,
  "ㄱㅐㅅㅣㄴ": 20898,
  "ㅇㅏㅍㅈㅏㅇ": 16893,
  "...)</w>": 9014,
  "ㅂㅣㄹㄷㅡ": 30349,
  "ㅎㅖㅌㅐㄱㅇㅣ</w>": 18422,
  "ㄷㅡㄹㅣㄴ</w>": 10911,
  "ㅍㅡㄹㅗㄴㅌㅡ</w>": 14915,
  "ㅈㅗㅅㅏㅎㅏㄴ</w>": 26696,
  "ㄷㅡㅇㅘ</w>": 6345,
  "ㅈㅓㅇㄷㅗ</w>": 1609,
  "ㅂㅏㅇㅣㅇㅓ": 25431,
  "CF": 14493,
  "ㅈㅗㅇㄱㅘ</w>": 25521,
  "ㅅㅣㄹㄹㅕㄱㅇㅣ</w>": 17694,
  "ㅊㅡㅇㅇㅡㄹ</w>": 13600,
  "ㅈㅓㄴㅎㅘㄱㅏ</w>": 20390,
  "hd</w>": 3255,
  "ㄷㅏㅇㅣㅇㅓ": 4110,
  "ㅇㅗㄹㄹㅣㅁㅕㄴ</w>": 30372,
  "ㄴㅏㅇㅗㄱㅣ</w>": 17446,
  "ㅎㅗㄹㅡㄹ</w>": 10441,
  "ㅂㅏㄴㅇㅕㅇ": 4099,
  "ㅇㅣㄴㅐㅇㅢ</w>": 6150,
  "ㅂㅡㄹㄹㅐㄱㅈㅐㄱ": 15455,
  "ㅅㅗㄱㅅㅓㅇ": 25458,
  "ㅈㅏㅅㅔㄱㅏ</w>": 27991,
  "ㅈㅏㄱㅡㄱㅎㅏㄴㅡㄴ</w>": 22231,
  "ㅌㅡㄱㅇㅣㅎㅏㄴ</w>": 17087,
  "ㅂㅣㅊㅇㅡㄹ</w>": 8979,
  "ㅊㅔㅇㅠㄱ": 3980,
  "down": 26568,
  "ㄴㅗㅎㅏㅇㅜㄹㅡㄹ</w>": 20556,
  "ㄱㅜㅈㅗㄴㅡㄴ</w>": 22091,
  "ㅎㅛㅇㅠㄹㅈㅓㄱ</w>": 32528,
  "ㅍㅡㄹㅏㅇ": 2318,
  "ㅋㅗㅌㅡ": 25961,
  "claim</w>": 22084,
  "ㅇㅣㄷㅡ</w>": 2771,
  "ㄷㅣㅂㅓ": 22072,
  "ㅂㅐㄴㅡㄴ</w>": 23836,
  "ㅅㅐㅇㄱㅏㄱㅎㅏㅈㅣ</w>": 10569,
  "ㅈㅗㄴㅡㄴ</w>": 11997,
  "ㄴㅚㅇㅢ</w>": 26563,
  "ㄱㅝㄴㄹㅣㄱㅏ</w>": 17374,
  "ㅁㅕㅇㅅㅣㅁ": 18584,
  "ㅂㅐㄴㄷㅡㄴㅡㄴ</w>": 16503,
  "2ㄹㅜ": 12323,
  "ㅅㅣㄴㅊㅓㅇㅎㅏㄱㅣ</w>": 18382,
  "ㅂㅏㄴㅂㅗㄱㅎㅐㅅㅓ</w>": 30354,
  "ㅇㅠㄹㅐ": 11319,
  "ㄴㅡㄴㅈㅣㄹㅡㄹ</w>": 12897,
  "ㅂㅓㅈㄲㅗㅊ</w>": 30810,
  "ㅂㅅㅣㅇㅛ</w>": 18367,
  "ㅅㅏㅁㅇㅏ</w>": 13637,
  "ㅊㅓㄱㅏ</w>": 12892,
  "ㅂㅗㅌㅗㅇ": 9047,
  "ㅇㅓㄷㅣㄹㅡㄹ</w>": 29161,
  "ㅂㅏㄲㅟㅇㅓ</w>": 31253,
  "ㅇㅕㄹㅓㅂㅜㄴㅇㅡㄹ</w>": 21538,
  "ㅇㅗㄴㄹㅏㅇㅣㄴㅇㅡㄹㅗ</w>": 17070,
  "ㅉㅓㄱ": 29079,
  "ㄴㅡㄴㅈㅣ</w>": 1852,
  "ㅎㅐㅍㅣ</w>": 31819,
  "ㅉㅣ</w>": 6226,
  "ㅌㅗㄴㅓㅁㅓㄴㅌㅡ</w>": 24569,
  "Asia</w>": 17996,
  "ㅅㅏㅎㅏㅇㅇㅡㄹ</w>": 3865,
  "ㅈㅓㄴㅁㅜㄴㄱㅏㅇㅘ</w>": 28713,
  "SMS</w>": 12938,
  "rom</w>": 10324,
  "ㅅㅣㄷㅗㄹㅡㄹ</w>": 20532,
  "ㅇㅏㄹㄱㅗ</w>": 1815,
  "an": 724,
  "nam": 30668,
  "ㄱㅖㅅㅗㄱㄷㅚㄴㅡㄴ</w>": 22815,
  "ㄷㅏㄹㄹㅣㄴ</w>": 12966,
  "ㄷㅏㅅㅣㅍㅣ</w>": 16248,
  "ㅈㅏㅇㄹㅗ": 21828,
  "ㅍㅓㄴㅡㄴ</w>": 30386,
  "ㅇㅢㄱㅕㄴㄷㅗ</w>": 26409,
  "ㄱㅜㅊㅓㅇ</w>": 21528,
  "3ㄴㅕㄴ</w>": 2259,
  "group</w>": 24241,
  "MC</w>": 12130,
  "ㅂㅓㅂ": 525,
  "COM</w>": 19411,
  "ㅊㅏㅇㅇㅝㄴ": 11769,
  "ling</w>": 21660,
  "ㅎㅏㅅㅣㄴ</w>": 2124,
  "ur</w>": 12725,
  "ㅎㅗㅇㄷㅐ": 26779,
  "ㅅㅗㅅㅣㄱ": 9111,
  "ㅊㅓㅁㄷㅏㄴ": 17825,
  "ㅂㅗㄱㅈㅣㄱㅘㄴ</w>": 24465,
  "ㅂㅓㅂㅇㅣㄴ</w>": 6554,
  "ㄴㅗㄹㅕㄱㅇㅡㄹ</w>": 6364,
  "ㅇㅣㅁㅁㅜ</w>": 32332,
  "ㅇㅓㄷㅜㅇㅜㄴ</w>": 12678,
  "ㅋㅣㄹㄹㅗㅁㅣㅌㅓ": 4509,
  "ㄱㅔㅅㅡㅌㅡㅎㅏㅇㅜㅅㅡ</w>": 24651,
  "ㅅㅓㄹㅅㅏ</w>": 23739,
  "ㅅㅜㅅㅜㄹㅛㄴㅡㄴ</w>": 25966,
  "gu": 11973,
  "ㅎㅐㅇㅘㅆㄷㅏ</w>": 13359,
  "ㅅㅣㄱㅏㄱㅇㅡㄹ</w>": 23349,
  "Gre": 11416,
  "ㅎㅐㅇㅈㅓㅇ": 2542,
  "ㄴㅣㅅ": 22873,
  "ㅅㅏㅊㅜㄴ": 17863,
  "ㄱㅜㄷㅜ": 10585,
  "ㅅㅡㅇㅈㅣㄴ</w>": 25289,
  "ㅂㅜㄷㅗㅇㅅㅏㄴㅇㅡㄹ</w>": 30708,
  "ㅊㅓㅇㅅㅏ</w>": 23387,
  "ㅈㅜㅁ": 17682,
  "ㅅㅏㅇㅓㅂㅈㅏ</w>": 12686,
  "ㅁㅣㄷㄴㅡㄴㄷㅏ</w>": 20738,
  "ㅅㅣㅎㅐㅇ": 3225,
  "JTBC</w>": 19623,
  "ㅎㅕㄴㅅㅣㄹㅇㅡㄴ</w>": 20698,
  "ㅅㅔㄱㅏ</w>": 5917,
  "ㅁㅜㄹㄹㅠ": 9825,
  "ㅇㅕㄴㄹㅏㄱㅊㅓㄹㅡㄹ</w>": 25244,
  "uro": 31864,
  "ㅍㅏㄱㅕㄱ": 24040,
  "ㅎㅗㅅ": 20436,
  "ㅎㅏㄷㅓㄴㄷㅔ</w>": 26735,
  "ㄱㅏㅈㅏㅇ</w>": 781,
  "ㅈㅏㄹㅛㅇㅘ</w>": 5176,
  "ㅋㅕ": 1744,
  "ㅂㅔㅇㅣ": 1583,
  "ㄱㅣㄱㅔ</w>": 21438,
  "us</w>": 3685,
  "ㅁㅏㄴㄲㅣ": 18030,
  "ㄲㅜㅈㅜㄴ": 4428,
  "ㅇㅠㅂㅏㄹ": 8023,
  "ㅁㅕㅇㅅㅏ</w>": 32204,
  "ㅂㅗㄱㅇㅡㅁㅇㅡㄹ</w>": 15877,
  "ㅋㅗㅌㅣㅇ": 26173,
  "ㅈㅣㄱㄱㅘㄴ": 19330,
  "ㅎㅘㄱㅅㅣㄹ": 2707,
  "ㅂㅗㄱㅓㄴㅂㅗㄱㅈㅣ": 19174,
  "ㅎㅏㄴㅡㄴ": 1102,
  "ㅅㅓㅍㅕㅇ</w>": 17195,
  "ㅂㅔㄴㅊㅓ</w>": 18087,
  "ㄷㅏㅋㅡ": 17443,
  "ㅎㅗㅁㄹㅓㄴ</w>": 4670,
  "ㄱㅗㅅㅇㅔㅅㅓㄴㅡㄴ</w>": 24110,
  "ㅅㅓㅇㄱㅘㅇㅔ</w>": 29407,
  "ㅌㅓㄹㅏ</w>": 22366,
  "ㄱㅛㅇㅠㄱ": 992,
  "ㅊㅓㅁ</w>": 11858,
  "ㅇㅡㅁㅇㅡㄹㅗㅆㅓ</w>": 28804,
  "ㅅㅏㅌㅏㅇ": 29051,
  "ㅈㅣㅅㅣㄱㅇㅡㄹ</w>": 8583,
  "ㅅㅔㅈㅔ</w>": 26304,
  "ㄷㅏㄴㅅㅣㄴ</w>": 25793,
  "ㄷㅗㄹㅇㅣ</w>": 11745,
  "ㅇㅓㅉㅓㅁㅕㄴ</w>": 7205,
  "ㅂㅓㄴㅇㅡㄹ</w>": 11684,
  "ㅂㅏㄹㅅㅗㅇ": 6405,
  "ㅇㅏㄲㅕ": 28226,
  "ㄱㅗㅇㅈㅣ</w>": 4263,
  "ㅇㅚㅎㅘㄴ": 15442,
  "ㅈㅣㅂㅎㅏㅂ</w>": 27482,
  "ㅇㅣㄴㄹㅕㄱ": 11949,
  "ㅆㅣㄴ": 25363,
  "ㄱㅗㅇㅇㅣㄴㅈㅜㅇㄱㅐㅅㅏ</w>": 30898,
  "ㅂㅐㄴㅋㅜㅂㅓ</w>": 28717,
  "ㅈㅏㅂㅇㅡㄹ</w>": 8379,
  "ㅇㅗㅋㅣ": 16372,
  "ㅇㅔㅍㅣㅅㅗ": 12114,
  "ㄱㅕㅇㅜㄹㅊㅓㄹ</w>": 22315,
  "ㅇㅣㅇㄱㅡㄹ": 8937,
  "ement</w>": 10288,
  "ㄱㅗㄹㅕ": 2551,
  "ㄴㅗㅌㅡㅂㅜㄱㅇㅡㄹ</w>": 30839,
  "ㅉㅣㄱ": 1937,
  "ㅡㄹㅐ": 972,
  "ㅇㅣㅅㅏ</w>": 5522,
  "ㅅㅏㅁㅜㅅㅣㄹ</w>": 7453,
  "ㅂㅣㄹㅗㅅㅎㅏㄴ</w>": 6119,
  "ㅈㅡㅇㄱㅏㅇ": 18702,
  "ㄱㅕㅇㅇㅠ": 24287,
  "Aㄱㅡㅂ</w>": 26297,
  "ㅂㅏㄹㅍㅛㅎㅏㄱㅗ</w>": 26408,
  "ㅂㅜㄴㄷㅡㄹㄱㅘ</w>": 20735,
  "ㅆㅏㅇㅇㅛㅇ": 19061,
  "ㄴㅏㅇㅣㅌㅡ": 28811,
  "ㅅㅔㅁㅜ": 11878,
  "ㅎㅗㅁㄹㅓㄴㅇㅘㅇ</w>": 29936,
  "ㅂㅗㅇㅏㅇㅑ</w>": 14714,
  "ㅇㅟㅎㅓㅁㅇㅣ</w>": 12108,
  "ㅈㅐㅁㅣㅇㅣㅆㄴㅡㄴ</w>": 7696,
  "ㅌㅏㅇㅣㄴㅇㅡㄹ</w>": 29094,
  "Sol": 13458,
  "ㅋㅏㅇㅣ</w>": 12750,
  "ㅇㅣㄹㅎㅘㄴㅇㅡㄹㅗ</w>": 17900,
  "ㅍㅏ</w>": 1788,
  "ㅈㅣㄹㅂㅕㅇㅇㅡㄹ</w>": 27028,
  "ㄱㅛㅈㅓㅇ": 9880,
  "ㅂㅜㄴㅅㅓㄱㅇㅡㄴ</w>": 14567,
  "ㅃㅜㅁ": 17858,
  "ㄷㅗㅇㅇㅏㄴㅇㅡㄴ</w>": 22060,
  "ㅂㅣㄱㅛㅎㅏㅂㄴㅣㄷㅏ</w>": 29612,
  "ㅇㅓㅉㅓ": 3294,
  "lec": 6430,
  "ㄱㅣㄷㅐㅇㅘ</w>": 32366,
  "ㅇㅏㄶ</w>": 15963,
  "ㅂㅜㄱ</w>": 1510,
  "ㅇㅕㄹㅓㅂㅜㄴㄷㅡㄹㅇㅣ</w>": 24995,
  "ama</w>": 23557,
  "ㅇㅜㄹㅣㄴㅏㄹㅏㅇㅢ</w>": 8552,
  "ㅅㅓㅇㅕㅇㄴㅏㅁ</w>": 29903,
  "ㄷㅡㄹㄱㅘㄴㅡㄴ</w>": 20533,
  "ㅁㅏㅂㅓㅂ</w>": 14688,
  "ㅁㅣㄹㅐ": 2281,
  "ㄱㅘㄴㅊㅡㄱㅅㅗㄱㅏ</w>": 20801,
  "ㅈㅜㄹㄹㅗ</w>": 25169,
  "ㅁㅗㄱㅅㅏㄴㅡㄴ</w>": 20192,
  "ㄷㅗㄱㅜ": 11086,
  "ㅅㅓㅇㅊㅜ": 12477,
  "Top</w>": 15493,
  "ㄱㅏㅇㅇㅛ": 12148,
  "ㅇㅡㄴㅎㅐㅇㅇㅔ</w>": 27084,
  "ㅇㅏㄶㅇㅏㅆㄷㅏ</w>": 2363,
  "DC</w>": 11490,
  "ㅈㅡㅇㄱㅘ</w>": 16543,
  "ㄹㅡㅇ</w>": 16028,
  "ㅍㅔㅅㅡㅌㅣ": 8226,
  "ㄷㅚㄴㄷㅏㅁㅕㄴ</w>": 6018,
  "ㄱㅡㄹㄹㅗㅂㅓㄹ</w>": 3377,
  "ㄱㅓㅁㅅㅐㄱㅇㅔㄴㅈㅣㄴ": 32113,
  "ㅁㅐㄱㅏㄱ</w>": 27017,
  "ㅎㅚㅇㅝㄴㅇㅡㄹㅗ</w>": 16027,
  "ㅊㅔㄹ": 15506,
  "ㅇㅣㅂㅈㅏㅇㅇㅣㄷㅏ</w>": 31406,
  "ㅊㅡㄱ</w>": 3936,
  "ㅁㅏㅌㅐ": 31198,
  "ㅅㅐㄹㅡㄹ</w>": 24669,
  "ㅎㅐㅇㅇㅣ</w>": 17458,
  "ㅂㅏㄷㅇㅏㅆㄱㅗ</w>": 17356,
  "ㅇㅣㅂㅁㅜㄴ": 18638,
  "ㅅㅡㅇㅇㅣㄴ": 9231,
  "3ㅈㅗㅇ</w>": 18339,
  "ㅇㅖㅅㅣ": 31242,
  "ㅅㅓㅁㅏㄴ</w>": 20712,
  "ㄱㅣㅎㅚㅇㅣㅂㄴㅣㄷㅏ</w>": 30557,
  "Wal": 22580,
  "ㅈㅔㄱㅗㅇㅇㅔ</w>": 16100,
  "ㅁㅗㄱㅏ</w>": 12175,
  "KST</w>": 17874,
  "ㅎㅑㅇㅅㅏㅇㅅㅣㅋㅣㄹ</w>": 31903,
  "ㅁㅣㅇ</w>": 4225,
  "ㅊㅗㅇㄱㅖ": 16336,
  "ㅈㅣㅂㅏㅇㅇㅡㄹ</w>": 30612,
  "ㅕㅆㄷㅏ</w>": 4107,
  "ㅁㅗㄷㅡㄹㅡㄹ</w>": 17649,
  "ㅁㅏㄹㄷㅡㄹㅇㅣ</w>": 30607,
  "ㅎㅔㄹㅅㅡ</w>": 27396,
  "ㅈㅓㄱㅕㄱ": 29855,
  "ㅈㅓㅇㅇㅔ</w>": 3034,
  "ㅈㅓㄴㅂㅏㄴㅈㅓㄱㅇㅣㄴ</w>": 12195,
  "ㅈㅓㄷㅗ</w>": 2507,
  "ace": 20152,
  "Bun": 11123,
  "ㅁㅜㄴㅎㅘㄴㅡㄴ</w>": 21534,
  "Hal": 27857,
  "D</w>": 201,
  "ㅈㅚㄹㅗ</w>": 25564,
  "ㅆㅡㄴㅡㄴ": 32412,
  "ㄱㅗㄷㅡㅇㅎㅏㄱㄱㅛ": 31066,
  "ㅅㅏㅇㄷㅐㅂㅏㅇㅇㅣ</w>": 21668,
  "ㅎㅗㅈㅜ</w>": 7627,
  "ㄷㅗㄱㄹㅣㅂ": 4245,
  "ee</w>": 19562,
  "Pal": 17983,
  "ㅇㅕㄹㄱㅘㅇ": 23388,
  "ph": 4514,
  "ㅅㅣㄹㅅㅜㄹㅗ</w>": 22062,
  "ㅅㅔㅅㅇㅡㄹ</w>": 23185,
  "ㄱㅣㅁㅊㅣ": 12178,
  "Window": 3913,
  "ㄷㅔㄴ": 4784,
  "ㄴㅐㅅㅓ</w>": 18617,
  "ㄱㅡㅁㅇㅕㄴㅅㅣㄹ</w>": 29167,
  "ㅂㅣㅎㅏㅇㅕ</w>": 32148,
  "ㄶ": 87,
  "rece": 24965,
  "ㅈㅣㄴㅇㅣ</w>": 5552,
  "ㄱㅓㅅㅇㅣ": 4381,
  "ㅇㅔㄴㅓㅈㅣ</w>": 4764,
  "Store</w>": 25795,
  "ㅇㅐㅇㅘㄴㄷㅗㅇㅁㅜㄹ</w>": 29144,
  "ㄷㅚㅇㅓㅇㅣㅆㅅㅡㅂㄴㅣㄷㅏ</w>": 16569,
  "ㄷㅗㄷㅜㄱ": 19487,
  "pro": 3461,
  "ㅇㅏㄴ": 371,
  "ㅅㅏㄱㅈㅔㅎㅏㅅㅣㄱㅔㅆㅅㅡㅂㄴㅣㄲㅏ</w>": 11141,
  "ㅇㅠㄱㅘㄴ": 27328,
  "ㄱㅏㅇㅅㅜㄹㅑㅇㅇㅣㅂㄴㅣㄷㅏ</w>": 15309,
  "ㅍㅜㅁㄱㅕㄱ</w>": 24549,
  "Aut": 16035,
  "ㄹㅓㄴㄷㅓㄴ</w>": 11424,
  "ㅈㅜㅊㅜㅁ": 29173,
  "THE</w>": 18245,
  "ㄱㅡㄹㅐ": 694,
  "ㄹㅗㅇㅑㄹ": 21607,
  "ㅇㅜㄴㄷㅗㅇㅇㅔ</w>": 16945,
  "ㅅㅗㅅㅣㄱㅇㅡㄹ</w>": 7258,
  "ㄱㅡㄹㅓㅁㅡㄹㅗ</w>": 4785,
  "ㅂㅏㅇㅣㅇㅔㄹ": 24120,
  "ㅇㅓㅂㅇㅡㄹㅗ</w>": 27500,
  "ㅇㅕ": 285,
  "ㅅㅡㅌㅐㄴㅌㅡㄴㄱㅘ</w>": 32142,
  "ㄱㅘㄴㅈㅏㅇ</w>": 26273,
  "ㅇㅣㄴㅌㅓㄴㅔㅅㄱㅘ</w>": 27489,
  "ㅅㅓㅂㅊㅟ</w>": 29369,
  "6ㅍㅣㅌㅡ": 26700,
  "ㅇㅏㅇㅣㄹㄹㅐㄴㄷㅡ</w>": 11381,
  "ㄱㅣㅈㅜㄴㅇㅔ</w>": 12636,
  "ㅍㅣㄹㅇㅛㅅㅓㅇ</w>": 11718,
  "ㅅㅗㅇㅎㅖ": 26050,
  "ㅅㅡㅋㅣㄴㅣ</w>": 19364,
  "ㅍㅏㅌㅡㄴㅓ</w>": 11796,
  "ㅈㅡㅇ": 673,
  "79</w>": 21156,
  "ing": 2850,
  "ㅎㅏㅇㅇㅔㅅㅓ</w>": 28076,
  "Pod</w>": 27492,
  "2003ㄴㅕㄴ</w>": 11665,
  "ㅇㅣㄴㄱㅝㄴ": 5052,
  "ㄱㅗㅇㅘ</w>": 10111,
  "ㅌㅏㅂㅈㅐㅎㅏㄴ</w>": 25611,
  "ㅈㅔㅍㅜㅁㅇㅣ</w>": 7790,
  "200</w>": 11790,
  "ㅌㅡㄱㅈㅣㅇㄱㅘ</w>": 22893,
  "ㄱㅐㄴㅕㅁㅇㅣ</w>": 15622,
  "ㅕㅁ": 23468,
  "ㅊㅐㅇㄱㅕ": 9877,
  "ㅇㅑㄱㅎㅏㄴ</w>": 7784,
  "ㅅㅣㅁㅠㄹ": 11982,
  "ㅇㅏㅅㅟㅇㅜㅁㅇㅣ</w>": 22241,
  "ㅇㅜㄱ": 9644,
  "ㅅㅔㅁㅇㅣㄷㅏ</w>": 10701,
  "ㅈㅓㅇㅂㅜㄴㅡㄴ</w>": 6368,
  "ㅈㅣㄴㅎㅐㅇㄷㅚㅂㄴㅣㄷㅏ</w>": 19765,
  "ㄷㅏㄱㅏㅇㅗ": 18318,
  "ㅇㅏㅍㅡㄱㅔ</w>": 28869,
  "ㅂㅏㄴㅇㅡㅇ</w>": 10085,
  "ㄷㅓㅂㅜㄹ": 3774,
  "ㅍㅏㄱ": 19951,
  "ang</w>": 7292,
  "ㅇㅐㄹㅂㅓㅁㅇㅡㄹ</w>": 21995,
  "ㅈㅏㅇㄱㅣ</w>": 9541,
  "ㅊㅏㄹㅑㅇㅇㅢ</w>": 22645,
  "ㅊㅗㄹㅏ": 31538,
  "ㅎㅐㅈㅜㄴㅡㄴ</w>": 4384,
  "ㅇㅘㅇㅣㅍㅏㅇㅣ</w>": 13085,
  "ㅂㅜㄴㅅㅓㄱㅇㅡㄹ</w>": 10269,
  "ㄴㅏㅅㅓㄴㄷㅏ</w>": 20897,
  "ㅇㅕㄱㅣㅅㅓ</w>": 3257,
  "ㄴㅡㅇㄷㅗㅇ": 22953,
  "ㅈㅏㅇㅁㅣ": 14664,
  "ㅎㅐㅆㄱㅗ</w>": 1982,
  "ㄹㅡㄴㅔㅅㅏㅇㅅㅡ</w>": 29833,
  "ㄱㅓㄹㅣㄹㅡㄹ</w>": 6964,
  "kt": 17888,
  "ㅅㅑㅇㅣㄴ</w>": 25823,
  "ㅅㅣㅅㅓㄴㅇㅡㄹ</w>": 12792,
  "ㅈㅣㄱㅇㅝㄴㅇㅡㄹ</w>": 19528,
  "ㅆㅏㄱ": 18109,
  "ㅁ</w>": 135,
  "ㅇㅏㄶㅇㅏㅆㅇㅡㅁㅕㄴ</w>": 30799,
  "ㅇㅖㄱㅗ</w>": 4056,
  "ㅁㅏㄹㄹㅗ</w>": 2999,
  "ㅈㅔ10": 19397,
  "ㅈㅚ</w>": 5305,
  "ㅍㅡㄹㄹㅏㅇ": 8790,
  "ㅈㅣㄴㅐㄹ</w>": 29851,
  "ㄱㅣㅁ</w>": 2796,
  "ㅊㅏㅁㅇㅕㅎㅐㅈㅜㅅㅕㅅㅓ</w>": 21317,
  "3ㅎㅚㅁㅏㄴ</w>": 5219,
  "ㄸㅏㅇㅇㅔ</w>": 10089,
  "ㅇㅣㄴㅈㅗ</w>": 8421,
  "ㅍㅕㄴㅇㅣㅂ": 18966,
  "ㅇㅐㄴ</w>": 10131,
  "ㅇㅣㅇㄱㅡㄹㄹㅐㄴㄷㅡ</w>": 14777,
  "ㅇㅛㅇㅇㅓ</w>": 11378,
  "ㅈㅏㄷㅗㅇㅈㅓㄱㅇㅡㄹㅗ</w>": 28487,
  "ㅁㅓㄱ": 896,
  "ㄷㅏㅇㅊㅓㅁ</w>": 19315,
  "ㄱㅏㄷㅗ</w>": 10867,
  "ㅊㅜㅇㅓ": 26109,
  "ㅎㅓㅂㅡ</w>": 16335,
  "ㅅㅓㅇㅈㅏㅇㅎㅏㄴ</w>": 29826,
  "ㅇㅗㅍㅡㄴ": 4535,
  "ㅂㅗㅈㅗㄴ</w>": 15345,
  "ㅆㅣㅇㅘ</w>": 13828,
  "ㄱㅗㅇㅂㅜㅎㅏㄱㅗ</w>": 17640,
  "ㅇㅏㄹㅍㅏ</w>": 28659,
  "ㅂㅜㄹㅇㅣㅇㅣㄱㅇㅡㄹ</w>": 24946,
  "msgstr</w>": 27100,
  "ㅂㅓㅈㅓㄴㄱㅘ</w>": 22931,
  "ka</w>": 26682,
  "ㅅㅔㅇㅝㅈㅣㄴ</w>": 32643,
  "ㄴㅗㅍㅇㅡㄴ": 22954,
  "ㄸㅏㄹ</w>": 5618,
  "ㅊㅓㅇㅇㅑㄱ": 11198,
  "ㅅㅓㅇㅎㅑㅇㅇㅣ</w>": 30404,
  "ㄹㄹㅓㄹㅣ</w>": 30326,
  "ㅂㅜㅅㅡㅌㅏㅂㅣㅅㅂㅜㅅㅡㅌㅏㅂㅣㅅ</w>": 9645,
  "ㅈㅔㅍㅜㅁ": 1408,
  "ㅂㅡㄹㄹㅗㄱㅡㄱㅏ</w>": 25722,
  "ㅅㅓㅇㄴㅡㅇ": 4178,
  "ㄴㅠㅅㅡㄹㅔ": 16256,
  "S": 43,
  "ㅈㅜㄹㄱㅔ</w>": 28059,
  "ㅇㅣㄷㅏㄹ</w>": 15962,
  "ㅊㅓㄱ": 3044,
  "ㅅㅗㄹㄹㅜㅅㅕㄴ</w>": 7767,
  "ㄴㅏㅁㅜㅅ": 24479,
  "OO": 11276,
  "ㅈㅏ": 298,
  "ㅈ": 105,
  "ㅎㅘㄴㅂㅜㄹ</w>": 8905,
  "ㄴㅏㅌㅏㄴㅏㄱㅔ</w>": 31405,
  "ㄱㅏㄴㅅㅣㄴ": 25898,
  "ㅁㅗㄹㄹㅣㄴ</w>": 23289,
  "ㅅㅜㄴㅅㅓㄹㅗ</w>": 27977,
  "ㅊㅔㄹㅕㄱㅇㅡㄹ</w>": 31368,
  "ㅎㅏㅇㅑㄴ": 25743,
  "ㅂㅣㅊㅣ": 11618,
  "ㄱㅏㅅㅗㄹ": 22461,
  "BS</w>": 4860,
  "ㅊㅚㅈㅓㅇㅣㅁㄱㅡㅁ</w>": 18746,
  "ㅈㅔㄴㅔㅅㅣㅅㅡ</w>": 31703,
  "ㅇㅕㅂ</w>": 15687,
  "ㅇㅏㅁㅜㄷㅗ</w>": 6674,
  "ㅎㅜㅇㅝㄴ": 6758,
  "ㄷㅜㅂㅓㄴ</w>": 21152,
  "ㅇㅝ</w>": 3747,
  "ㅊㅜㅊㅓㄴㅇㅣㄴ</w>": 27612,
  "ㅂㅠㄹㅡㄹ</w>": 31796,
  "ㄴㅗㄹㅕㄱㅇㅡㄹㅗ</w>": 29472,
  "ㅇㅐㄴㅣ": 11701,
  "ㅈㅝㅅㅓ</w>": 19071,
  "ㅇㅣㅇㅗㄴ</w>": 28328,
  "ㅌㅡㄹㄹㅐㄴㄷㅡ</w>": 24391,
  "ㄷㅜㅇㅕㅈㅏㅇㅘ</w>": 27822,
  "ㅎㅐㄱㅅㅣㅁ": 4680,
  "350": 19313,
  "ㄱㅓㅅㅡ</w>": 28802,
  "ㄱㅕㄹㄱㅜㄱㅇㅡㄴ</w>": 13916,
  "assfucking</w>": 14810,
  "ㄱㅣㅇㅓㅂㄹㅣㅂㅠ</w>": 22023,
  "ㅍㅏㄴㅁㅐ": 1560,
  "ㅅㅡㅇㄹㅣㅎㅐㅆㄷㅏ</w>": 28643,
  "ㄴㅐㄴㅐ</w>": 5693,
  "ㅁㅗㅈㅣㅂㅎㅏㅂㄴㅣㄷㅏ</w>": 17560,
  "ㄹㅔㅅㅡㅌㅗㄹㅏㅇㅇㅔㅅㅓㄴㅡㄴ</w>": 32624,
  "ㅈㅔㄹㄹㅔ": 17136,
  "ㅈㅗㅎㅏㅇ": 14610,
  "ㅏㅇㅗㄴㅡㄴ</w>": 22434,
  "[]</w>": 27245,
  "ㅈㅏㄹㅗ</w>": 2618,
  "ㅇㅠㅇㅢ": 9494,
  "ㅁㅣㄴㅡㄴ</w>": 9574,
  "ㅅㅓㅈㅣ</w>": 29794,
  "ㅇㅠㅇㅣㄹ": 4794,
  "ㄴㅔㅇㅣㅁㄷㅡㅅㅏㄷㅏㄹㅣㄱㅔㅇㅣㅁ</w>": 30775,
  "ㅎㅏㄴㄱㅡㄹ": 5451,
  "ㅅㅣㅅㅡㅌㅔㅁㅇㅡㄴ</w>": 12362,
  "ㅅㅜㄱㅂㅏㄱ</w>": 3820,
  "ㅇㅓㄱㅡㅅ": 19836,
  "ㄱㅣㄹㅗㄱㅎㅏㅁㅕ</w>": 15919,
  "ㄱㅣㅇㅣㄴ</w>": 23891,
  "ㅅㅓㅍㅣㅇ": 2989,
  "ㅇㅓㄹㅣㄴㅇㅣㄴㅡㄴ</w>": 27543,
  "ㄷㅡㄹㅜㅁ</w>": 17249,
  "LGㅈㅓㄴㅈㅏ</w>": 16971,
  "ㄸㅏㄹㅡㅁㅕㄴ</w>": 2907,
  "erein</w>": 26357,
  "La": 12395,
  "ㅅㅏㅈㅏㅇㅇㅡㄴ</w>": 17543,
  "ㅍㅕㅇㅎㅘㄹㅗㅇㅜㄴ</w>": 31636,
  "ㄴㅣㅁㅇㅣ</w>": 2855,
  "ㄴㅏㅁㅇㅡㄹ</w>": 9287,
  "yn": 7027,
  "ㄱㅣㅁ": 680,
  "ㅇㅣㄹㅏㄷㅡㄴㅈㅣ</w>": 29255,
  "ㄴㅗㅍㄱㅣ</w>": 30553,
  "ㅅㅓㅇㅎㅕㅇ</w>": 19443,
  "ㅇㅣㅅㅡㄹㄹㅏㅁ": 21834,
  "ㅌㅗㅇㅇㅣ</w>": 15164,
  "ㅂㅣㅈㅜㅇㅇㅡㄹ</w>": 23166,
  "ㅅㅗㅇㅛㅇ": 18665,
  "ㅑㄱ": 6546,
  "ㄷㅗㄹㅇㅏㄱㅏㄱㅗ</w>": 30282,
  "ㅈㅜㅇㅇㅣㅅㅣㄴㄱㅏㅇㅛ</w>": 21636,
  "ㅅㅣㅈㅜㅇㅇㅔ</w>": 25443,
  "ㅁㅓㄹㄹㅣㅅㅓ</w>": 30358,
  "ㅍㅏㄴㅇㅢ</w>": 18827,
  "ㅁㅕㅇㅅㅗ": 16442,
  "ㅇㅐㅆㅓ</w>": 32282,
  "ㄱㅏㅇㅘ": 24490,
  "ㅍㅡㄹㅗㅌㅗ": 6040,
  "ㅅㅜㅎㅘㄱ</w>": 28434,
  "ㅇㅣㅆㅈㅛ</w>": 7540,
  "ㅌㅗㅁ": 17073,
  "ㄷㅡㅇㅍㅏㄴ": 15144,
  "1992ㄴㅕㄴ</w>": 26987,
  "SV": 29885,
  "ㅊㅏㅈㅇㅏㅇㅑ</w>": 19839,
  "ㄱㅣㅅㅏ": 7360,
  "ㅈㅣㄴㅎㅐㅇ</w>": 2968,
  "ㄷㅣㅈㅏㅇㅣㄴ": 2571,
  "ㅊㅣㄴㄱㅜㄷㅡㄹㅇㅔㄱㅔ</w>": 28317,
  "ㅊㅓㅂㅓㄹ</w>": 11717,
  "ㅂㅗㄴㅐㅂㄴㅣㄷㅏ</w>": 27574,
  "ㄱㅘㄱㅏ</w>": 31754,
  "ㅈㅓㄱㅇㅡㄹㅗ": 11540,
  "ㅇㅘㅇㅣㄹㄷㅡㅋㅏㄷㅡ</w>": 31835,
  "ㅊㅐㅅ": 30995,
  "ㄱㅠㅈㅓㅇ": 5581,
  "ㄸㅏㅅㅡ": 26876,
  "ㅎㅜㄱㅣ": 14242,
  "ㄱㅏㅇㄴㅏㅁㄱㅜ</w>": 8510,
  "ㅈㅔㄱㅏ</w>": 1135,
  "ㅇㅖㄹㅜㅅㅏㄹㄹㅔ": 16397,
  "ㅊㅓㄴㅇㅡㄹ</w>": 25050,
  "6ㅎㅚ</w>": 20314,
  "ㅅㅔㅁㅣㄴ": 6858,
  "ㅁㅜㅅㅣㅁ": 26947,
  "ㅊㅚㄱㅗㄱ": 19894,
  "ㄱㅠㅁㅗㅇㅢ</w>": 8335,
  "ㅋㅜㄴ": 17563,
  "ㄷㅡㄹㅇㅓㅆㅅㅡㅂㄴㅣㄷㅏ</w>": 9828,
  "ㅇㅕㅇㅇㅜ": 24825,
  ")]</w>": 11159,
  "ㄴㅓㄱㅏ</w>": 21315,
  "ㅇㅠㅁㅏㅇ": 14877,
  "ㅎㅏㅇㅗㄴㅣ</w>": 18131,
  "ㅅㅣㄴㅣㅇㅓ</w>": 28618,
  "ㅇㅜㅅ": 1906,
  "ㅋㅓㅁㅍㅗㄴ": 19417,
  "ㅁㅜㄴㅎㅘㄱㅘㄴㄱㅘㅇ": 30999,
  "ㅁㅣㄴㅈㅜㅈㅜㅇㅢㅇㅢ</w>": 27165,
  "doc": 22839,
  "ㅇㅣㅆㅇㅓㅆㄷㅓㄴ</w>": 3329,
  "ㅅㅏㅇㄱㅡㅁ</w>": 16278,
  "ㅅㅡㅋㅡㄹㅣㅂ": 5005,
  "ㄴㅏㅅㅓㄹ</w>": 24140,
  "ㄷㅠㅇㅓㄹ": 19239,
  "ㅎㅘㅁㅕㄴ</w>": 5308,
  "LGㅇㅠ": 22515,
  "cc</w>": 24930,
  "U": 45,
  "ics</w>": 4723,
  "ㅅㅓㅇㄱㅗㅇㅎㅏㄴ</w>": 11290,
  "ㄱㅗㄹㅡㄴㅡㄴ</w>": 28756,
  "ㄷㅏㅇㅣㄹㅔㄱㅌㅡ</w>": 30002,
  "ㅂㅓㅂㅇㅢ</w>": 3925,
  "ㅈㅏㅅㅣㄴㅇㅢ</w>": 1363,
  "ㅉㅗㅊㄱㅕㄴ": 31514,
  "ㅎㅏㅅㅣㄱㅣㄹ</w>": 10116,
  "ㅌㅏㄹㅊㅜㄹ": 11283,
  "St</w>": 17901,
  "3ㅂㅓㄴㅉㅐ</w>": 22068,
  "ㅇㅣㅂㄱㅗ</w>": 5008,
  "ㅈㅔㅈㅗㅅㅏ": 29888,
  "72": 16167,
  "ㄷㅏㄴㅣㅇㅔㄹ</w>": 21407,
  "ㄱㅜㅇㅔ</w>": 7365,
  "ㅎㅐㅇㅚㅇㅔ</w>": 27347,
  "ㅌㅐㄷㅗㄱㅏ</w>": 28333,
  "ㅇㅏㄶㅇㅡ": 6701,
  "ㅅㅜㅇㅣㅆㄷㅏ</w>": 17854,
  "ㅅㅐㅁㅏㅇㅡㄹ": 23503,
  "ㅁㅓㄴㅈㅣ</w>": 23751,
  "ㅍㅐㄴ</w>": 7650,
  "sa</w>": 31313,
  "ㅅㅡㅌㅏㄷㅣㅇㅜㅁ</w>": 28943,
  "ㄱㅓㅅㅇㅣㄹㅏ</w>": 7250,
  "ㄱㅡㄹㅗ": 13934,
  "ㄷㅏㄹㄹㅣㄱㅣ</w>": 27454,
  "ㄱㅕㄹㅈㅓㅇㅎㅐㅆㄷㅏ</w>": 24340,
  "ㅅㅜㅊㅣ": 11392,
  "ㅈㅗㅇㅔㅅㅓ</w>": 24741,
  "ㅁㅏㄷㅡㄹㅣㄷㅡ</w>": 20601,
  "ㄸㅐㅁㅜㄴㅇㅣㅇㅓㅆㄷㅏ</w>": 18586,
  "ㄴㅏㄴㅗ</w>": 31107,
  "ㄷㅐㅁㅏ": 24034,
  "YT": 16815,
  "2006ㄴㅕㄴ</w>": 9975,
  "ㅈㅗㅎㄷㅏ</w>": 3330,
  "ㅇㅗㅀㅇㅡㄴ</w>": 19225,
  "VM": 17188,
  "ㅎㅏㄷㅏ": 13962,
  "ㅂㅗㄴㅣ</w>": 1651,
  "ㄱㅏㅈㅗㄱ</w>": 2718,
  "ㅇㅣㅁㅣㅈㅣㄹㅡㄹ</w>": 6283,
  "ㅈㅓㅇㅇㅣㅂㄴㅣㄷㅏ</w>": 14466,
  "ㅈㅣㄴㅎㅏㄱ": 15003,
  "ㅂㅓㄹㅣㄴ</w>": 5049,
  "ㅊㅜㄱㅏㅎㅏㄴ</w>": 27229,
  "ㅅㅐㅇㅈㅗㄴ</w>": 25689,
  "ㄱㅓㅇㅢ</w>": 1542,
  "ning</w>": 15252,
  "ㄱㅣㅇㅓㄱㅇㅡㄹ</w>": 15299,
  "ㅅㅓㄹㅇㅡㄹ</w>": 7976,
  "ㅊㅣㅇㅘ</w>": 17457,
  "ㄴㅜㄴㅇㅡㄴ</w>": 22410,
  "fir": 15267,
  "ㅅㅏㄹㅏㅇㅇㅡㄹㅗ</w>": 20839,
  "ㅅㅣㄹㅁㅕㅇ": 21769,
  "ㅍㅏㄱㅚ</w>": 16183,
  "ㅇㅓㄹㅕㅂㄱㅗ</w>": 16015,
  "ㅈㅏㅂㅏㄹㅈㅓㄱㅇㅡㄹㅗ</w>": 25726,
  "10ㄷㅐ": 28335,
  "ㄱㅏㄴㅡㅇㅎㅏㄱㅣ</w>": 30410,
  "ㅅㅔㅂㅓㅂ</w>": 32477,
  "ㄱㅛㅂㅗㅁㅜㄴㄱㅗ</w>": 18098,
  "ㅇㅠㅂㅏㄹㅎㅏㄴㅡㄴ</w>": 20425,
  "ㄸㅟㄱㅗ</w>": 25695,
  "fb2</w>": 27813,
  "5ㅁㅕㅇㅇㅢ</w>": 32272,
  "ㅎㅘㅇㄱㅡㅁ": 8502,
  "ㅎㅚㅈㅏㅇㅇㅡㄹ</w>": 25193,
  "27ㅍㅔㅇㅣㅈㅣ</w>": 26896,
  "ㄴㅏㅅ": 7993,
  "ㅎㅘㅅㅏㅇ": 20456,
  "ㄸㅜㅇㄴㅕ</w>": 13979,
  "ㅎㅡㄹㅡㅁ</w>": 14185,
  "ㄷㅡㄱㅇㅡㄹ</w>": 18249,
  "ㄷㅣㅈㅡㄴㅣ</w>": 25728,
  "ㅈㅓㄱㄱㅘ</w>": 31058,
  "ㅇㅠㅈㅣㄷㅚㅂㄴㅣㄷㅏ</w>": 25131,
  "ㅂㅏㅇㅅㅗㅇㅇㅡㄹ</w>": 9963,
  "ㅅㅣㄹ</w>": 637,
  "ㅌㅣㅅㅡㅌㅗㄹㅣ</w>": 11799,
  "ㅅㅔㅊㅓㄱ": 17530,
  "ㅅㅏㄱㅓㄴㅇㅔ</w>": 14934,
  "ㅎㅡㄱㅇㅣㄴㅋㅡㄴㅈㅏㅈㅣ</w>": 21743,
  "ㅇㅜㄹㅕ</w>": 19615,
  "ㄱㅡㄹㅓㄴㅡㄴ</w>": 30254,
  "ㄱㅣㄴㅡㅇㅇㅡㄹ</w>": 2504,
  "ㄸㅏㅇㅇㅢ</w>": 21085,
  "ㄱㅣㄱㅘㄴㅇㅔㅅㅓ</w>": 17207,
  "FC</w>": 7566,
  "ㄱㅏㅇㅣㅂㅇㅡㄴ</w>": 31509,
  "ㅁㅏㅊㅣㅁ</w>": 13367,
  "ㅇㅛㅇㅇㅓㄹㅗ</w>": 26688,
  "ㅇㅠㅈㅓㅇ</w>": 31649,
  "ㄱㅕㅇㄱㅖㄹㅡㄹ</w>": 27158,
  "ㅆㅡㄹㅣ</w>": 15975,
  "ㅇㅕㅇㅎㅗㄴ": 7812,
  "ㅇㅣㄹㅗㄴㅇㅡㄹ</w>": 15272,
  "ㄱㅓㄴㄱㅏㅇㅇㅡㄹ</w>": 9657,
  "ㅎㅐㅇㅅㅏㅇㅔ</w>": 14938,
  "ㅎㅐㅆㄷㅓㄴ": 20352,
  "ㄷㅣㅅㅡ": 2639,
  "ㅅㅔㅇㅝㄹㅇㅣ</w>": 21937,
  "ㅇㅟㅇㅝㄴㅎㅚㄴㅡㄴ</w>": 12045,
  "ㄴㅡㄲㅕㅆㅅㅡㅂㄴㅣㄷㅏ</w>": 32488,
  "ㄱㅣㅂㅜㄴ": 8318,
  "Ev": 16768,
  "ㅅㅣㅋㅕㅈㅜㄴㅡㄴ</w>": 28066,
  "ㅅㅓㅇㅔㅅㅓ</w>": 16379,
  "2017ㄴㅕㄴ</w>": 3259,
  "ㅇㅓㄹㅕㅂㅈㅣㅁㅏㄴ</w>": 32160,
  "ㅁㅗㅅㅎㅏㄷㅗㄹㅗㄱ</w>": 25324,
  "ㄴㅓㅎㅇㅓ": 12258,
  "ㄱㅓㄷㅡ": 7805,
  "cat": 30960,
  "ㅇㅓㅄㄱㅔ</w>": 7553,
  "ㄹㅐㄴㄷㅡ": 7649,
  "ㅅㅣㄴㅅㅓㄹ": 15875,
  "ㅍㅐㄴㄷㅡㄹㅇㅣ</w>": 15696,
  "ㄹㅔㅅㅡㄴ</w>": 30533,
  "ㅅㅕㅆㄴㅏㅇㅛ</w>": 11643,
  "ㅈㅡㄹㄱㅣㄱㅣ</w>": 22881,
  "ㅋㅘ": 18715,
  "ㅈㅡㄹㄱㅣㄱㅗ</w>": 15754,
  "ㄱㅣㅇㅓㄱ": 2235,
  "ㄱㅘㅎㅏㄱㅇㅢ</w>": 18817,
  "ㅎㅐㅇㅇㅢ</w>": 20199,
  "ㅍㅡㄹㅗㄱㅗㄹ": 21076,
  "ㅠㄹ": 5554,
  "ㄴㅏㅁㅇㅏ": 5149,
  "ㄱㅏㄹㅅㅐㄱ</w>": 7583,
  "ㅈㅏㄱㅡㅁ</w>": 8102,
  "ㄱㅗㄱㅐㄱㄴㅣㅁㄲㅔㅅㅓ</w>": 24526,
  "ㅇㅟㅎㅏㅁ": 22734,
  "ㄱㅡㄹㅏㅇ": 22877,
  "ㅈㅣㅇㅝㄴㄷㅚㄴㅡㄴ</w>": 31765,
  "ㅍㅜㅁㅈㅓㄹ</w>": 12169,
  "ㄷㅗㅇㅇㅕㅇㅅㅏㅇ": 6781,
  "ㄷㅔㅇㅣㅌㅡ</w>": 10466,
  "ㅂㅣㅇㅠㄹ": 7705,
  "ㅅㅗㅇㅟ</w>": 12465,
  "ㄷㅏㄱㅏ": 8492,
  "ㅁㅗㄹ</w>": 2481,
  "ㅈㅜㅇㄹㅣㅂ": 17890,
  "ㅇㅣㅆㄴㅏㅇㅛ</w>": 3771,
  "ㄹㅔㅇㅓ": 31206,
  "ㅊㅜㄱㅏㅎㅏㄱㅗ</w>": 28387,
  "ㅍㅔㄷㅓㄹㅓ": 19222,
  "ㄷㅏㄴㅍㅜㅇ": 26981,
  "ㅈㅣㄴㅈㅓㅇㅇㅡㄹㅗ</w>": 18023,
  "ㅁㅗㅁ</w>": 6358,
  "ㅅㅐㅇㄱㅏㄱㄷㅗ</w>": 9990,
  "ㅅㅏㅅㅏㅇㅇㅡㄹ</w>": 25761,
  "ㅇㅣㄴㅇㅛㅇ": 10349,
  "ㄷㅡㄹㅇㅕㄷㅏ": 20076,
  "hit": 24622,
  "40</w>": 5109,
  "UB": 19732,
  "ㅌㅗㅌㅗㅊㅜㅊㅓㄴ</w>": 18577,
  "ㅇㅏㄶㅇㅏㅆㄷㅏㄱㅗ</w>": 21102,
  "ㄷㅏㅇㅡㅁㅇㅢ</w>": 7077,
  "jav": 23339,
  "8ㄱㅏㅈㅣ</w>": 29595,
  "ㅁㅗㅇㅏ": 6258,
  "ㅇㅣㄴㅇㅝㄴ": 12456,
  "ㅁㅜㄴㅎㅘㅇㅢ</w>": 8565,
  "ㅁㅏㄶㅇㅏㅆㄱㅗ</w>": 28615,
  "ㅍㅗㄹㄹㅣㅅㅡ</w>": 25462,
  "ㅇㅏㄷㅡㄹㄱㅘ</w>": 27339,
  "ㄴㅏㅅㅓㅇㅑ</w>": 26413,
  "ㅇㅕㅇㄷㅡㅇㅍㅗㄱㅜ</w>": 20674,
  "ㅇㅘㄴㅂㅕㄱㅎㅏㄴ</w>": 6141,
  "ㅎㅏㅂㄱㅕㄱ": 5062,
  "ㅊㅜㄹㅈㅏㅇㅇㅏㄴㅁㅏ</w>": 30451,
  "ㄷㅜㄹㅇㅢ</w>": 23716,
  "ㅍㅕㅇ": 616,
  "ㅅㅣㅎㅓㅁㅇㅣ</w>": 26315,
  "ㄷㅗㄴㄷㅗ</w>": 25460,
  "ㅁㅜㄴㅈㅏㅈㅜㅇㄱㅖ</w>": 29306,
  "ㅊㅓㅇㄴㅕㄴ</w>": 9629,
  "ㅎㅘㅁㅕㄴ": 2761,
  "ㅎㅐㄷㅜ": 23902,
  "ㅇㅕㄱㅣㄱㅗ</w>": 29136,
  "Lㅇㅡㄹ</w>": 13161,
  "ㅅㅏㅆㄷㅏ</w>": 31034,
  "ㅈㅣㄷㅐ</w>": 19066,
  "ㅇㅏㄴㅈㅓㅇㅅㅓㅇ</w>": 23384,
  "ㅁㅏㄷㅏ": 29985,
  "ㅌㅏㄱㅕㄱㅇㅡㄹ</w>": 16478,
  "ㅅㅏㄷㅡㄹㅇㅢ</w>": 16528,
  "ㅈㅏㄷㅡㄹㄷㅗ</w>": 15338,
  "ㅎㅐㅂㅕㄴㅇㅔㅅㅓ</w>": 28782,
  "ㅂㅡㄹㅓㄴ": 23021,
  "ㅈㅣㄱㅡㅁㅇㅣ</w>": 28339,
  "::</w>": 2527,
  "ㅈㅐㄴㅡㄴ</w>": 13396,
  "ㅇㅏㄴㅣㄹㅏㄴㅡㄴ</w>": 9025,
  "rig": 8244,
  "Moun": 27219,
  "ㅎㅏㅇㅕㅆㅇㅡㄹ</w>": 13877,
  "ㅇㅣㅁ</w>": 1586,
  "ㅍㅕㅇㄷㅡㅇ</w>": 22207,
  "ㅁㅠㅈㅣㄱ": 10693,
  "ㅎㅏㄱㄷㅐ</w>": 18507,
  "ㅅㅓㅂㅡ": 14677,
  "ㅇㅕㄴㅁㅐㅇ</w>": 9862,
  "ㄷㅏㅇㅛㅇ": 29559,
  "ㅈㅣㅎㅏ</w>": 15153,
  "ㄱㅔㅇㅡㄹ": 16862,
  "Sch": 12227,
  "ㅍㅔㅇㅣ": 563,
  "ㅅㅔㄴㅌㅓㄹㅡㄹ</w>": 12480,
  "ㅅㅔㄹㅍㅡ</w>": 7221,
  "ㅅㅔㄴㅅㅡ</w>": 8446,
  "ㅋㅓㅁㅠㄴㅣㅋㅔㅇㅣㅅㅕㄴ</w>": 9820,
  "ㅍㅔㅇㅣㅈㅣㄱㅏ</w>": 15484,
  "ㄴㅏㅇㅗㅁㅕㄴㅅㅓ</w>": 30744,
  "ㅁㅜㄴㅅㅓㄴㅡㄴ</w>": 5137,
  "GM": 8870,
  "ㅎㅏㄱㅗㄴ</w>": 14709,
  "ㅇㅣㅆㅇㅓㄷㅗ</w>": 9079,
  "tw": 11752,
  "Tag</w>": 14680,
  "ㅂㅗ": 296,
  "ㅅㅣㄱㅇㅡㄴ</w>": 6396,
  "raw": 28962,
  "ㅂㅗㅇㅣㄴㅡㄴ</w>": 2496,
  "ㅎㅏㅂㅓ": 19353,
  "ㅅㅔㅌㅣㅇ": 20884,
  "ㄱㅗㅇㅠㅇㅢ</w>": 18979,
  "ㅆㅏㄱㅗ</w>": 14190,
  "ㅂㅏㄴ": 506,
  "ㅢ</w>": 141,
  "ㄱㅏㅌㅅㅡㅂㄴㅣㄷㅏ</w>": 1657,
  "ㄴㅔㅇㅣㅁ": 4167,
  "ㅎㅘㅈㅏㅇㅍㅜㅁ</w>": 6654,
  "ㅈㅣㄱㅇㅝㄴ</w>": 3489,
  "ㄷㅗㄹㅇㅏㄷㅏㄴㅣ": 23651,
  "ㅍㅡㄹㅏㅇㅣㅁ</w>": 23629,
  "ㅇㅢㅁㅣㄴㅡㄴ</w>": 14331,
  "ㄷㅗㅇㄱㅜㄹ</w>": 29265,
  "ㅎㅕㄴㅈㅣㅌㅜㅇㅓㄷㅗ</w>": 22579,
  "ㅊㅏㅇㄱㅗ</w>": 20878,
  "ㅅㅏㅇㅎㅘㄴ": 17434,
  "ㅁㅕㅇㄱㅘ</w>": 7824,
  "ㅅㅗㅅㅓㄹㅇㅡㄹ</w>": 15679,
  "ㅎㅡㅇㅎㅐㅇ</w>": 31896,
  "ㅇㅣㄴㅡㄴ</w>": 955,
  "ㅅㅣㄴㅅㅓㄹ</w>": 24512,
  "ㅂㅣ": 346,
  "ㄸㅓㅇㅗㄹㅡ": 16491,
  "ㅇㅡㅇ</w>": 4060,
  "ㅇㅠㅈㅣㄷㅚㄹ</w>": 17461,
  "ㅂㅗㄴㄴㅡㅇ": 19508,
  "06</w>": 3306,
  "ㅇㅛㄱㅜㅎㅐㅆㄷㅏ</w>": 31162,
  "ㅈㅓㅇㄷㅗㅇㅔ</w>": 18605,
  "ㅅㅡㄴ</w>": 1901,
  "ㄴㅕㄴㄱㅏㄴ</w>": 3178,
  "ㅎㅕㅇㅅㅣㄱㅇㅡㄹ</w>": 17566,
  "30ㄴㅕㄴ</w>": 12499,
  "2ㅁㅏㄴㅇㅝㄴ</w>": 26733,
  "ㄱㅡㅁㄹㅣㄹㅡㄹ</w>": 32690,
  "ㅂㅡㄹㄹㅔ": 26537,
  "ㅇㅔㄷㅡ": 18112,
  "ㅅㅓㅂㅜ</w>": 18430,
  "ㅁㅔㄴ</w>": 10439,
  "ㄱㅓㄴㄹㅣㅂ": 18728,
  "ㅅㅣㅈㅏㅇㅇㅡㄴ</w>": 8420,
  "ㅁㅐㄹㅣ": 20664,
  "ㅇㅟㅇㅝㄴㅎㅚㄱㅏ</w>": 16226,
  "ㅌㅗㅌㅗㅅㅏㅇㅣㅌㅡ</w>": 18999,
  "ㅅㅗㅌㅗㅇㅇㅡㄹ</w>": 21230,
  "ㅈㅏㄹㅣㄴㅡㄴ</w>": 18796,
  "ㄱㅏㄷㅡㄴ</w>": 15654,
  "ㅋㅗㄹㅣㅇㅏ": 12176,
  "ㄱㅗㅇㅇㅣㄱ": 14199,
  "ior</w>": 29981,
  "ㅁㅕㅇㅎㅘㄱㅎㅏㄱㅔ</w>": 14380,
  "ㅅㅔㄹㅕㄱㅇㅢ</w>": 31337,
  "ㅈㅣㄴㅈㅣㅎㅏㄱㅔ</w>": 19420,
  "ㅂㅣㄱㅕㄹ": 16776,
  "ㅎㅓㅇㅛㅇ</w>": 14469,
  "ㅅㅔㄷㅐㄹㅡㄹ</w>": 24520,
  "ㅈㅓㅇㅌㅗㅇ</w>": 29735,
  "ㅅㅏㅇㅅㅔㅎㅏㄴ</w>": 15514,
  "ㅌ</w>": 222,
  "SSL</w>": 29101,
  "ㅎㅘㄹㅇㅛㅇㅎㅏㄱㅣ</w>": 19132,
  "ㅁㅏㄴㅇㅡㄹㅗ</w>": 6065,
  "ㄴㅏㅇㅣ</w>": 6924,
  "ㄷㅐㅁㅗㄱ": 19272,
  "ora</w>": 14243,
  "DB</w>": 10627,
  "ㅊㅓㄴㅇㅏㄴ": 10362,
  "ㅂㅜ</w>": 665,
  "ㅂㅜㄴㄴㅗㅇ": 24447,
  "ㅎㅏㄱㅅㅐㅇㄷㅡㄹㅇㅣ</w>": 7162,
  "ㅂㅣㄷㅣ": 13841,
  "ㅅㅐㅁ</w>": 15086,
  "ㅇㅓㄴㄱㅡㅂㅎㅏㅈㅣ</w>": 28743,
  "ㅋㅗㄴㅅㅣㅇㅓㅈㅣ</w>": 27719,
  "ㅎㅘㄹㅂㅏㄹ": 8361,
  "ㅇㅕㄱㅅㅏㄴㅡㄴ</w>": 16354,
  "ㅎㅗㄴㅈㅏㅅㅓ</w>": 12313,
  "ㅎㅏㄱㅣㄹㅡㄹ</w>": 3618,
  "deter": 27400,
  "ㅂㅗㄱㅓㄴ</w>": 18725,
  "ㅅㅓㅇㄷㅗㅇ": 32076,
  "ㅇㅣㄹㅇㅓㄴㅏㅆㄷㅏ</w>": 24075,
  "ㅇㅠㄷㅗ": 9403,
  "ㅈㅓㄴㅁㅏㅇㅇㅡㄹ</w>": 16758,
  "ㄱㅕㄴㄷㅣㄹ</w>": 25989,
  "ㄷㅗㅈㅓㄴㅎㅏㄴㅡㄴ</w>": 29062,
  "ㅅㅣㄹㅈㅣㄹㅈㅓㄱ</w>": 32551,
  "ㄱㅐㅊㅔ</w>": 26108,
  "Paul</w>": 29262,
  "ㄱㅘㄴㄹㅖ": 30891,
  "ㄱㅏㄴㅡㄴㄷㅔ</w>": 11587,
  "ㄷㅡㄹㅏㅁ": 11852,
  "ㄱㅜㅇㅝ": 30735,
  "ㄱㅗㄹㅇㅣ</w>": 32065,
  "1ㅇㅟㅇㅔ</w>": 18818,
  "Te": 10228,
  "F</w>": 203,
  "ㅎㅗㅎㅡㅂ": 8611,
  "ㅂㅓㄴㅎㅗㄴㅡㄴ</w>": 19707,
  "ㅌㅔㅅㅡㅌㅡ</w>": 4319,
  "ㅈㅜㅇㅇㅔㅅㅓㄷㅗ</w>": 8914,
  "ㅇㅇㅡㄹ</w>": 2238,
  "Italiano</w>": 18159,
  "ㅇㅗㄹㅏㄱㅗ</w>": 30133,
  "ㅇㅏㄴㅅㅣㅁㅎㅏㄱㅗ</w>": 18988,
  "1ㄴㅕㄴㅇㅣ</w>": 21344,
  "ㅇㅣㄹㅝㅈㅣㅈㅣ</w>": 32640,
  "ㅂㅏㅇㅁㅜㄴㄱㅐㄱㅇㅔㄱㅔㅅㅓ</w>": 22414,
  "ㅅㅏㄱㅈㅔㅎㅏㄹ</w>": 19856,
  "ㄴㅡㄴㄱㅓㄹ</w>": 17617,
  "ㅇㅓㄹㅣ": 7211,
  "10ㅇㅕ</w>": 23346,
  "ㅅㅣㄴㅡㄴ": 26570,
  "ㅇㅜㄴㅇㅕㅇㅇㅝㄴㅊㅣㄱ</w>": 16245,
  "ㄱㅗㄱㅐ</w>": 30206,
  "ㅅㅣㅁㅕㄴㅅㅓ</w>": 13353,
  "ㅊㅚㅅㅏㅇㅇㅟ</w>": 28551,
  "ㄴㅜㄱㅜㄴㅏ</w>": 4004,
  "ㅁㅏㄱㄷㅐ": 31249,
  "way</w>": 17019,
  "',</w>": 2930,
  "ㅃㅜㄴㅇㅣㄴㄷㅔ</w>": 29722,
  "ㅈㅕㅇㅑ": 28895,
  "ㅂ</w>": 136,
  "ㅅㅟㄹ": 20901,
  "sd": 28668,
  "ㅌㅗㄹㅗㄴ": 4023,
  "ㄹㅏㄹ": 3398,
  "ㄴㅏㅁㅇㅡㄴ</w>": 4456,
  "ㅇㅣㄹㅂㅜ": 6857,
  "ㅈㅏㄷㅗㅇㅊㅏㄴㅡㄴ</w>": 27029,
  "ㅇㅕㄴㄱㅜㄱㅏ</w>": 15531,
  "Soc": 16314,
  "ㅍㅕㅇㄱㅠㄴㅈㅏㅊㅐㄱ": 19224,
  "korea</w>": 23367,
  "ㅇㅜㅇㅠ</w>": 13177,
  "ㅂㅗㅎㅗㅂㅓㅂ</w>": 21019,
  "ict": 14834,
  "ㅈㅗㄱㅡㅁ</w>": 1973,
  "ㅅㅓㄲ": 6601,
  "ㅇㅝㄴㅊㅣㄱㅇㅡㄹㅗ</w>": 16128,
  "Spark</w>": 19223,
  "ㄷㅚㅁㅇㅡㄹ</w>": 15633,
  "ㅈㅓㄴㅎㅜ</w>": 20767,
  "ㅇㅡㅁㅅㅣㄱㅇㅡㄴ</w>": 10715,
  "ㄱㅣㅅㅜㄹㄹㅗ</w>": 16287,
  "ㅈㅡㅇㄱㅏㅎㅏㅁㅕ</w>": 27947,
  "ㅌㅗㅂ</w>": 10836,
  "ㅃㅜㄴㅇㅣㄷㅏ</w>": 5571,
  "ㅇㅣㄹㅣ</w>": 17492,
  "ㅌㅗㄹㅔㄴ": 32339,
  "mb": 20766,
  "ㅇㅔㄴㅈㅣㄴ</w>": 8459,
  "ㄱㅣㅊㅗㅇ": 19896,
  "ㄹㅔㅅㅡㅌㅗㄹㅏㅇㄷㅗ</w>": 27723,
  "ㄱㅜㄱㅈㅔ": 1738,
  "Fil": 22996,
  "ㅍㅡㄹㄹㅔ": 2491,
  "ㄱㅏㅈㅓㅇㅇㅔ</w>": 26534,
  "LPGA</w>": 13115,
  "ㄷㅏㄴㅕㅇㅘㅆㅅㅡㅂㄴㅣㄷㅏ</w>": 23899,
  "800": 8656,
  "ㅆㄷㅏㄱㅗ</w>": 2227,
  "ㄹㅕㄹ</w>": 9746,
  "ㅅㅣㄱㅗㄹ": 15581,
  "RA": 7075,
  "7km</w>": 30399,
  "ㅗㅂㄱㅔ</w>": 24779,
  "Design</w>": 22280,
  "Flix</w>": 20531,
  "ㅇㅣㅅㅏ": 7047,
  "CD</w>": 5329,
  "ㅍㅣㅎㅐ</w>": 6968,
  "ㄴㅡㄲㅣㅈㅣ</w>": 17897,
  "ㅎㅏㄹㅏㄱㅗ</w>": 7917,
  "ㅇㅏㅂㅗㄱㅣ</w>": 21527,
  "ㅁㅣㄹㅊㅏㄱ": 30797,
  "ㅈㅏㅇㅔㄱㅔㄷㅗ</w>": 25919,
  "ㄷㅗㄱㅅㅓ": 8489,
  "ㅇㅟㅇㅔㅅㅓ</w>": 4438,
  "ㅊㅏㅂㅕㄹㅎㅘㄷㅚㄴ</w>": 21088,
  "ㅊㅓㅇㅇㅔㅅㅓ</w>": 27432,
  "ㅅㅜㅇㅡㅁ": 30624,
  "ㄴㅗㅎㅏㅇㅜ</w>": 11862,
  "ㅅㅗㅅㅕㄹㄱㅡㄹㅐㅍㅡㄱㅔㅇㅣㅁ": 13195,
  "ㅁㅏㄴㅈㅗㄱ": 2702,
  "ㅇㅕㄹㅓㅂㅜㄴ</w>": 6106,
  "ㅌㅡㄹㅏ</w>": 14542,
  "ㅁㅗㅅㅡㅂ": 1342,
  "ㅇㅠㄹㅓㅂ</w>": 4013,
  "ㅅㅡㄴㅣㅁㅇㅢ</w>": 29033,
  "ㅇㅐㅇㅘㄴ</w>": 29703,
  "ㄱㅐㅇㅣㄴㅈㅓㄱㅇㅡㄹㅗㄴㅡㄴ</w>": 19743,
  "ㄴㅏㅂㅅㅔ": 27546,
  "ㄱㅜㅁㅐㅇㅏㄴㅈㅓㄴ": 31401,
  "ㅊㅚㄱㅏㅇ</w>": 22085,
  "ㅈㅣㄱㅇㅔ</w>": 28301,
  "ㅂㅇㅣ</w>": 6477,
  "ㄴㅏㅁㅅㅏㄴ": 31759,
  "ㅇㅣㅇㅛㅇㅎㅏㅇㅕ</w>": 4335,
  "ㅇㅜㅁㅈㅣㄱㅇㅣㅁㅇㅣ</w>": 22631,
  "ㄸㅔ": 5620,
  "Da": 9061,
  "ㅈㅣㅂㅐㄹㅡㄹ</w>": 31680,
  "ㅎㅣㄹ": 6992,
  "ㄷㅗㄹㄹㅣㄴㅡㄴ</w>": 24857,
  "ㅇㅏㅋㅏ": 6340,
  "ㄷㅏㅇㅘ</w>": 30844,
  "ㅈㅏㅈㅗㄴ": 10168,
  "ㅇㅐㅁ": 9188,
  "ㅌㅡㄹㅐㄱ": 4847,
  "ㅅㅣㅁㅇㅔㅅㅓ</w>": 31456,
  "ㄴㅏㄷㅡㄹ": 20513,
  "ㅈㅏㅇㄷㅏㅁ": 32762,
  "ㅊㅓㅇㅡㅁㅂㅜㅌㅓ</w>": 8900,
  "ㅁㅕㅇㄹㅕㅇㅇㅡㄹ</w>": 10908,
  "ㅈㅣㄱㅡㅁㄲㅓㅅ</w>": 27978,
  "ㅂㅗㄷㅗㅈㅏㄹㅛ</w>": 11766,
  "ㅈㅏㄹㅡ": 24817,
  "ㅅㅏㅇㄷㅐㅈㅓㄱ</w>": 14208,
  "ㅇㅟㄹ</w>": 29600,
  "ㄸㅟㅇㅓㄴㅓㅁㄴㅡㄴ</w>": 28414,
  "ㅂㅡㄹㅏㅇㅜㅈㅓ</w>": 10953,
  "ㄱㅓㅅㄲㅏㅈㅣ</w>": 32201,
  "ㄹㅑㅇㅇㅢ</w>": 9622,
  "ㄷㅐㅎㅏㄴㅁㅣㄴㄱㅜㄱ</w>": 2754,
  "ㅌㅗㄹㅣㅇㅏ</w>": 21696,
  "ㄱㅏㄹㅅㅜ</w>": 32633,
  "iOS</w>": 10644,
  "ㅁㅣㄹ": 966,
  "ㅅㅏㅇㅂㅏㄴ": 19516,
  "1bo": 31729,
  "ㅈㅣㅂㄷㅏㄴ</w>": 8390,
  "ㄱㅕㄹㅇㅣ</w>": 23599,
  "ㄴㄷㅏ</w>": 659,
  "23</w>": 4047,
  "ㄷㅐㄷㅗ</w>": 20178,
  "ㅂㅏㄴㅇㅡㅇㅇㅣ</w>": 13500,
  "28ㅇㅣㄹ</w>": 6827,
  "W</w>": 226,
  "H": 32,
  "ㅋㅗㅅㅡ": 6474,
  "ㅅㅜㄴㅏ</w>": 16700,
  "ㅇㅚㄹㅐ": 28828,
  "ㅈㅣ": 274,
  "ㅊㅏㅁㅇㅕ": 1713,
  "ㄹㅣㅇㅏ</w>": 2350,
  "ㅎㅣㄱㅗ</w>": 7776,
  "ㅎㅘㄹㅇㅛㅇ</w>": 4641,
  "ㅂㅏㄹㄷㅏㄹ": 4083,
  "part</w>": 32703,
  "ㅈㅏㄱㅣㄹㅡㄹ</w>": 16983,
  "ㅂㅕㄴㅎㅘ</w>": 4063,
  "ㅇㅣㄹㅗㄴㄱㅘ</w>": 13978,
  "ㅁㅣㅅㅔㅁㅓㄴㅈㅣ</w>": 12285,
  "Dan": 22950,
  "ㅇㅣㄹㅈㅏㄹㅣ</w>": 9114,
  "ㅈㅏㄹㅛㄹㅗ</w>": 20864,
  "ㅈㅏㅇㅠ</w>": 7042,
  "ㅂㅐ": 478,
  "ㅇㅓㅎㅏㄱㅇㅝㄴ</w>": 23053,
  "ㅈㅔ1</w>": 30962,
  "ㅅㅏㄱㅗ": 3173,
  "next": 29086,
  "ㅁㅗㅇㅣㅁㅇㅣ</w>": 30332,
  "ㅍㅗㅎㅏㅇ</w>": 17800,
  "ㅋㅏㅇㅜㄴㅌㅣ</w>": 27689,
  "Jo": 8883,
  "ㅇㅏㅋㅡㄹㅣㄹ</w>": 32450,
  "ㄷㅐㅊㅣ": 20079,
  "ㄷㅏㄹㅍㅐㅇ": 16806,
  "ㅁㅏㄴㄴㅏㄷㅏ</w>": 18493,
  "ㄱㅏㅁㅅㅗㅎㅏㅇㅕ</w>": 26120,
  "ㅇㅣㄹㄱㅏㄴ</w>": 6390,
  "aceb": 10380,
  "ㅅㅓㄴㄱㅗ</w>": 22104,
  "ㅍㅜㄹㅅㅏㅇㅣㄷㅡ</w>": 29134,
  "ㄲㅣㄹㅣ</w>": 7690,
  "ㅅㅓㄹㅈㅓㅇㅎㅏㅂㄴㅣㄷㅏ</w>": 26620,
  "ㅅㅓㅂㅣㅅㅡㄱㅏ</w>": 6148,
  "ame": 19899,
  "Street</w>": 17477,
  "Bra": 19768,
  "memory</w>": 22980,
  "ㅁㅗㄱㅊㅏ</w>": 13027,
  "ㅇㅣㅁㅣㅈㅣㄴㅡㄴ</w>": 18897,
  "ㄴㅗㄹㄱㅗ</w>": 19830,
  "ㅌㅗㄱㅏ</w>": 22563,
  "ㄷㅏㄴㄷㅗㄱ": 11135,
  "ㅎㅘㅇㄷㅏㅇㅎㅏㄴ</w>": 29781,
  "ㄱㅜㄹㅣ</w>": 18073,
  "ㅁㅜㄲㅇㅓ</w>": 29976,
  "ㅇㅡㅁㅅㅓㅇ</w>": 9839,
  "Chro": 23292,
  "ㅈㅣㄴㅇㅔ</w>": 21294,
  "ㄱㅖㅎㅚㄱㅇㅡㄴ</w>": 18020,
  "ㄱㅡㄴㅎㅘㅇ</w>": 20620,
  "ㄱㅡㄹㅆ": 19945,
  "amp</w>": 31399,
  "ㅎㅘㅁㅕㄴㅇㅔㅅㅓ</w>": 14747,
  "ㅇㅣㄴㅅㅣㄱㅇㅡㄹ</w>": 16254,
  "ㄱㅕㅇㅇㅜㅇㅔㄴㅡㄴ</w>": 2364,
  "ㅊㅣㄴㅈㅓㄹㅎㅏㄱㅗ</w>": 10730,
  "ㄱㅗㅇㄱㅗㅇㅇㅢ</w>": 22568,
  "ㅇㅏㄴㄷㅡㄹㅗㅇㅣ": 23794,
  "user</w>": 13977,
  "ㅅㅓㄴ": 424,
  "ㄸㅓㄴㅏ</w>": 9901,
  "ㅍㅕㄴㄹㅣㅎㅏㄱㅗ</w>": 30640,
  "WiFi": 18368,
  "ㄱㅘㅇㅈㅜㅅㅣ": 31809,
  "ㅎㅏㅅㅣㄱㅔㅆㅅㅡㅂㄴㅣㄲㅏ</w>": 7289,
  "ㄸㅓ": 550,
  "ㄱㅏㅅㅏㄴ": 15376,
  "ㄴㅏㄴㅜㄴ</w>": 26352,
  "ㅇㅣㅂㅡㅅㅡㅋㅗㅇㅓ</w>": 24254,
  "ㅂㅓㅂㅊㅣㄱ": 14398,
  "ㅈㅡㅇㅈㅣㄴ</w>": 26708,
  "ㅅㅓㅎㅐ": 29870,
  "ㅌㅏㅇㅣㅁㅅㅡ</w>": 25172,
  "ㅂㅗㄴㅓㅅㅡ</w>": 22562,
  "ogr": 13073,
  "ㅈㅏㅈㅜ</w>": 2746,
  "ㅆㅣㅌㅡㄹㅣㅂ</w>": 22262,
  "ㅇㅏㅇㅣㅇㅠ</w>": 29840,
  "pd": 9342,
  "ㄴㅏㅅㅓ": 4984,
  "ㄱㅙ": 21559,
  "ㄹㅗㅁㅣㅇ</w>": 26009,
  "ㅅㅡㅌㅏ": 885,
  "ㄱㅜㄱㅁㅣㄴㅇㅕㄴㄱㅡㅁ</w>": 23203,
  "ㄱㅕㅇㅊㅏㄹㅇㅢ</w>": 19633,
  "ㅂㅓㅂㄹㅠㄹㅇㅏㄴ</w>": 31090,
  "ㅂㅏㄴㄷㅗ": 7536,
  "ㅂㅅㅣㅇㅗ</w>": 1536,
  "ㅂㅏㄱㅌㅐ": 30850,
  "ㅇㅠㄴㅕㅁㅎㅏㅅㅣㄱㅣ</w>": 28893,
  "ㅇㅗㅅㅡㅌㅡㄹㅣ": 16219,
  "ㅎㅕㅇㅌㅐㄹㅡㄹ</w>": 13923,
  "ㅃㅓ": 5181,
  "ㅎㅏㄹㅏㄴㅡㄴ</w>": 10647,
  "ㅈㅓㅇㅂㅗㅇ": 2306,
  "1950": 32155,
  "ㅁㅏㅅㅣㅂㅅㅣㅇㅗ</w>": 15143,
  "ㅇㅕㄴㄷㅐ": 16074,
  "ㅌㅐㄱㅂㅐ": 9793,
  "ㄱㅓㅂㅜㅎㅏㄴㅡㄴ</w>": 27905,
  "ㅎㅣㅌㅡ</w>": 20145,
  "fur": 24886,
  "ㅏㄴ</w>": 1741,
  "ㄴㅜ": 974,
  "ㅂㅜㄴㄱㅏㄴ</w>": 13975,
  "ㄱㅗㅁㅣㄴ</w>": 11918,
  "ㄴㅏㅈ</w>": 10440,
  "ㄱㅜㄴㄷㅐ</w>": 15856,
  "ㅁㅗㄷㅠㄹ": 20573,
  "ㄱㅅㅣ": 1806,
  "ai</w>": 13633,
  "ㅈㅓㄱㅇㅔ</w>": 17481,
  "ㄴㅗㄷㅗㅇ</w>": 11105,
  "ㄱㅡㅁㅂㅏㅇ</w>": 11062,
  "ㅈㅣㅇㅕㄱㄹㅗㄱㅡ</w>": 9304,
  "Met": 19678,
  "ㄱㅗㅅㄱㅗㅅㅇㅔ</w>": 14480,
  "ㄱㅏㅇㅇㅏㅈㅣ</w>": 12648,
  "ㄱㅐㄱㅘㄴ</w>": 22420,
  "ㅇㅕㄱㅣㅇㅔㄴㅡㄴ</w>": 20219,
  "ㅂㅏㄹㅎㅟ": 8046,
  "ㄴㅗㅎㅏㅇㅜ": 21868,
  "ㅇㅓㄹㄱㅜㄹㄹㅗ</w>": 27916,
  "ㅎㅣㅁㄷㅡㄹ": 3355,
  "ㅊㅚㅅㅏㅇ": 24273,
  "ㄷㅏㄹㅎㅏㄴㄷㅏ</w>": 20608,
  "ㄱㅜㄱㄴㅐㅇㅢ</w>": 25143,
  "gener": 17336,
  "ㅈㅐㄹㅐ": 26794,
  "ㅈㅔㄱㅜㄱ</w>": 22203,
  "ㄱㅐㅅㅣ": 14850,
  "ㄹㅏㅇㅣㄴㅇㅢ</w>": 30458,
  "ㅈㅡㅇㅔ</w>": 24935,
  "2ㅇㅟㄹㅡㄹ</w>": 28835,
  "ㄱㅘㄱㅏㅁ": 13036,
  "ㅋㅗㅇㅘ</w>": 31849,
  "ㅁㅇㅡㄹ</w>": 444,
  "ㅍㅣㄹㅇㅛㅎㅏㄴ": 32634,
  "ㄱㅗㄹㅁㅗㄱ": 11728,
  "CPU": 14814,
  "lix</w>": 15586,
  "ㄹㅏㅇㅣㄴ</w>": 5467,
  "ㄱㅡㄹㅣㅇㅝ": 22845,
  "ㅅㅣㅈㅡ": 1516,
  "ㅅㅔㅇㅣㅂㅡ</w>": 19305,
  "ㅇㅓㅄㅈㅣㅇㅛ</w>": 31651,
  "ㅁㅗㅂㅏㅇㅣㄹ</w>": 2158,
  "ㄹㅣㅎㅏㄴ</w>": 22123,
  "ㅂㅜㄷㅡㄹㅓ": 8589,
  "ㄱㅓㄹㅣㄱㅗ</w>": 24663,
  "ㅜㅁ": 8185,
  "ㅋㅓㅅㅡ</w>": 11846,
  "ㄴㅗㅎㅜ": 16579,
  "ㅈㅣㅂㄷㅗ</w>": 26399,
  "ㄴㅏㅁㅂㅜㄱㅈㅓㅇㅅㅏㅇㅎㅚㄷㅏㅁ": 30066,
  "ㅌㅜㄱㅏ</w>": 26470,
  "ㅋㅗㄹㄹㅔㄱ": 32525,
  "ㅎㅘㅁㅕㄴㅇㅡㄹ</w>": 10106,
  "ㅇㅣㅂㅈㅏㅇㅇㅣ</w>": 17681,
  "ㅇㅛㅇㅈㅓㅂ": 18225,
  "ㅂㅕㄹㄷㅗ</w>": 6551,
  "ㅅㅏㅇㅛㅇㅈㅏ": 17545,
  "ㅂㅕ": 542,
  "ㅅㅣㄹㅈㅡㅇ": 29801,
  "EUR</w>": 23236,
  "ㅊㅓㅇㅈㅜ</w>": 20186,
  "ㄱㅡㄹㅐㅁ</w>": 18762,
  "iOS": 23069,
  "ㅇㅛㅇㅣㄴ</w>": 9989,
  "ㅅㅓㄹㅈㅓㅇ": 2140,
  "ㅇㅛㅅㅗㄹㅡㄹ</w>": 10609,
  "ㅎㅗㄱ</w>": 6687,
  "ㄱㅏㅇㅣㅂㅈㅏ</w>": 24603,
  "ㅇㅢㅁㅣ</w>": 5525,
  "ㅂㄴㅣㄷㅏㅁㅏㄴ</w>": 4734,
  "ㅇㅟㅊㅜㄱ": 25214,
  "ㅈㅏㅇㄷㅗ</w>": 11768,
  "ㄷㅗㅇㅎㅘ": 15930,
  "ㅈㅣㅈㅣ": 4896,
  "3ㅊㅏ</w>": 11825,
  "star": 29270,
  "ㅋㅣㅁ": 27751,
  "ㅎㅐㅇㄷㅗㅇㅎㅏㄴㅡㄴ</w>": 32213,
  "ㄷㅏㄴㄱㅘ</w>": 11155,
  "ㅍㅗㅎㅏㅁㅎㅏㅂㄴㅣㄷㅏ</w>": 23060,
  "ㅇㅝㄴㅈㅓㅇ</w>": 22403,
  "ㅈㅣㄴㅊㅜㄹ</w>": 7679,
  "ㅎㅏㅅㅕㅆㄴㅏㅇㅛ</w>": 24632,
  "ㄱㅟㅎㅏㄴㅡㄴ</w>": 21137,
  "ㅈㅜㄴㅕㄴㅇㅡㄹ</w>": 13059,
  "ㅅㅏㅇㅣㅂㅓ</w>": 11539,
  "11ㅍㅔㅇㅣㅈㅣ</w>": 7863,
  "ㅁㅣㅌ": 3591,
  "ㄷㅡㄴㄷㅏ</w>": 7150,
  "ㄱㅏㅌㄷㅏ</w>": 1811,
  "ㅂㅏㄺㅎㅕㅆㄷㅏ</w>": 2402,
  "ㅎㅜㅂㅗㄱㅏ</w>": 15236,
  "ㅇㅓㅅㅔㅁ": 27384,
  "ㅎㅏㄴㅡㄴㅑ</w>": 17729,
  "ㅈㅐㅁㅣㅇㅣㅆㄱㅗ</w>": 29723,
  "Database</w>": 15445,
  "ㄱㅏㄴㄷㅏㅁㅕㄴ</w>": 20704,
  "84</w>": 18063,
  "AW": 8635,
  "ㅅㅏㅇㅎㅘㅇㅇㅡㄹㅗ</w>": 29948,
  "ㅎㅗㅇㅔ</w>": 6078,
  "des": 10156,
  "ㄱㅏㄷㅏㄱㅏ</w>": 25094,
  "ㅇㅕㄱㅎㅏㄹㅇㅡㄴ</w>": 21020,
  "ㅇㅣㄹㅁㅕㅇ</w>": 17799,
  "ci": 31621,
  "SM": 4713,
  "ㅇㅕㅈㅏㄷㅐㅎㅏㄱㄱㅛ</w>": 27757,
  "ㄱㅛㅎㅚㅇㅢ</w>": 8457,
  "ㅇㅡㄴ16ㅇㅣㄹ</w>": 32108,
  "ㅍㅕㅇㄹㅗ</w>": 7952,
  "ㄴㅗㄹㅡㅅ": 32493,
  "ㄷㅏㅇㅊㅓㅁㅈㅏ</w>": 17500,
  "ㅅㅣㄴㅁㅜㄴ": 4498,
  "ㅌㅐㄱㅡㅇㅢ</w>": 5496,
  "ㅇㅣㄴㅈㅓㅇㅎㅏㄴㅡㄴ</w>": 16204,
  "ㅋㅣㄹㄹㅗㅁㅣㅌㅓㅇㅣㄴㅐㅇㅔ</w>": 21425,
  "ㅌㅜㄱ</w>": 30767,
  "ㅇㅣㅎㅘ": 14608,
  "Tit": 26899,
  "ㅅㅏㅎㅏㅇㅇㅣ</w>": 9522,
  "ㄱㅏㄴㅎㅗㄱ": 23978,
  "ㅌㅡㄱㅅㅓㅇㅇㅣ</w>": 24811,
  "ㅌㅏㅎㅕㅂ": 21553,
  "ㅈㅏㄹㅣㅁㅐㄱㅣㅁ": 30686,
  "ㅅㅓㅇㅇㅜ</w>": 23957,
  "Mat": 14663,
  "ㅌㅏㄱㅕㄱ": 12819,
  "ㄱㅏㅇㅣㄷㅡ</w>": 7868,
  "ㅍㅡㄹㅣㄴ": 4147,
  "ㅊㅓㅇㅇㅘ": 5323,
  "ㅊㅜㅊㅓㄴ": 1859,
  "ㅈㅔ13": 24969,
  "ㅌㅔㅎㅔㄹㅏㄴ": 19665,
  "ㄱㅡㅁㅂㅏㄹㅁㅣㄴㅕ</w>": 20196,
  "ㅍㅕㅇㅎㅘㅇㅘ</w>": 23495,
  "ㅅㅏㅇㅍㅜㅁㅇㅢ</w>": 5849,
  "Sur": 23634,
  "ㄴㅗㅎㅊㅣㄹ</w>": 32210,
  "ㅋㅡㄹㄹㅐㅅㅣㄱ</w>": 9000,
  "ㄱㅡㄹㅓㄷㅏ</w>": 12643,
  "ㄱㅓㅅㄷㅡㄹ": 22260,
  "ㅎㅏㄱㅔ": 1219,
  "ㅂㅗㄹㅕㄱㅗ</w>": 13953,
  "tub": 9012,
  "ㄱㅘㄴㅊㅏㄹ": 6995,
  "ㄱㅗㅇㅈㅣㅅㅏㅎㅏㅇ</w>": 10419,
  "ㅈㅜㅅㅣㅂㅅㅣㅇㅗ</w>": 5997,
  "ㅁㅗㄹㄹㅏ": 5132,
  "ㄸㅏㄸㅡㅅㅎㅏㄱㅔ</w>": 15843,
  "ㅊㅐㅇㅛㅇ": 4256,
  "ㅍㅕㄴㅇㅣㄷㅏ</w>": 11150,
  "ㄱㅗㅇㄱㅣ</w>": 11387,
  "ㅎㅚㅇㅢㅅㅣㄹㅇㅔㅅㅓ</w>": 25079,
  "ㅇㅣㄴㅊㅔ": 29285,
  "lot": 22599,
  "ㅅㅓㅇㄱㅗㅇㅎㅏㄹ</w>": 20430,
  "ㅎㅏㄱㅅㅐㅇ</w>": 2733,
  "man": 8876,
  "ㅈㅓㅇㅅㅏㅇ</w>": 8495,
  "ㅎㅚㅈㅏㅇㅇㅡㄴ</w>": 10043,
  "ㄷㅏㄹㅡㄴ": 4308,
  "ㅂㅏㄱㅂㅕㅇ": 15334,
  "ㅇㅣㅂㅊㅏㄹ</w>": 22404,
  "sㅇㅔㅅㅓ</w>": 22494,
  "POR": 26425,
  "ㅇㅠㅎㅕㅇ</w>": 6103,
  "ㅅㅜㄱㅗ": 15625,
  "ㅊㅏㅇㄴㅕ</w>": 30676,
  "ㅇㅣㅁㅅㅣ": 9758,
  "ㅅㅡㅌㅏㅌㅡㅇㅓㅂ</w>": 11520,
  "ㅎㅖㅈㅣㄴ</w>": 29436,
  "ㅇㅓㅍㅡㄹㄹㅣㅋㅔㅇㅣㅅㅕㄴㅇㅡㄹ</w>": 27918,
  "ㄱㅏㅌㄷㅏㄴㅡㄴ</w>": 13304,
  "ㅈㅓㄱㄹㅣㅂㄷㅚㄴ</w>": 27892,
  "ㅈㅜㅅㅗㄹㅡㄹ</w>": 7962,
  "port</w>": 6953,
  "Rom": 32495,
  "ㅌㅡㄹㅏㅇㅣ": 12870,
  "ㅅㅜㄷ": 20986,
  "ㄹㅗㅁㅐㄴㅅㅡ</w>": 18764,
  "Bl": 7267,
  "ㅊㅜㄹㅊㅓㄹㅡㄹ</w>": 21171,
  "ㅇㅠㄴㅏㅇㅣㅌㅣ": 32448,
  "ㅈㅏㄹㅎㅏㄴ</w>": 30889,
  "ㅅㅜㄴㅅㅜ": 12787,
  "ㄱㅏㅁㄹㅣ": 22323,
  "ㅂㅜㄹㅡㄴㅡㄴ</w>": 10458,
  "ㄱㅓㄹㅏ</w>": 8871,
  "device</w>": 12958,
  "ㅈㅓㄱㅏ": 27115,
  "2D</w>": 24152,
  "ㄷㅐㅇㅕ": 13031,
  "ㅈㅏㄹㅏㄴ</w>": 14192,
  "ㅂㅗㄴㅓ": 27974,
  "ㅈㅗㄱㅇㅢ</w>": 25362,
  "ㄷㅓㅇ": 6583,
  "ool</w>": 10524,
  "ㅇㅣㅅㅓ": 28920,
  "ㄱㅏㅈㅏㅇㅈㅓㄹㅕㅁㅎㅏㄴ</w>": 32611,
  "ㅅㅡㅅㅡㄹ": 6342,
  "ㅍㅗㄱㅅㅡ": 19789,
  "ㅅㅐㅇㅇㅔ</w>": 29637,
  "ㅈㅣㅇㅝㄴㅇㅣ</w>": 12614,
  "ㅈㅓㅇㅎㅏㄱㅗ</w>": 13014,
  "ㅅㅓㄴㅅㅐㅇㄴㅣㅁ": 8887,
  "s": 72,
  "iss</w>": 27638,
  "ㅎㅛㄱㅘ</w>": 4582,
  "ㅡㄹㅣ": 25674,
  "ㅎㅐㅈㅜㄹ</w>": 9844,
  "ㅅㅜㄱㅎㅏㄴ</w>": 4511,
  "ㅍㅡㄹㅏㅇㅋㅡ": 27061,
  "ㄱㅠㅁㅗㄹㅡㄹ</w>": 21993,
  "ㅅㅏㅈㅏㅇㅇㅣ</w>": 20376,
  "ㅅㅏㄹㅇㅡㄹ</w>": 11070,
  "ㅇㅣㅈㅜㅇ</w>": 12464,
  "59": 8816,
  "be": 8783,
  "ㅂㅗㅋㅓㄹ</w>": 27587,
  "ㅈㅗㅁㄷㅓ</w>": 7802,
  "ㅊㅏㄴㅅㅓㅇ</w>": 25621,
  "ㅈㅓㄴㅅㅣㅎㅚ</w>": 12741,
  "ㅅㅐㅇㅁㅕㅇㅇㅢ</w>": 12821,
  "ㅇㅝㅋㅓ": 27460,
  "ㄷㅏㄹㄹㅣ</w>": 3745,
  "ㄷㅐㅎㅏㅇㅕㄴㅡㄴ</w>": 22443,
  "ㅇㅣㄹㅡㅁㄱㅘ</w>": 19545,
  "ㄱㅜㄹ": 989,
  "ㅁㅣ</w>": 1230,
  "ㅅㅡㅌㅣㅇ</w>": 5012,
  "ㄷㅡㄷㄱㅔ</w>": 22649,
  "ㄱㅛㅇㅠ": 1337,
  "ㅇㅕㄴㅈㅏㅇ": 7839,
  "ㅇㅣㅅㅐㄱ": 26840,
  "1999ㄴㅕㄴ</w>": 17287,
  "ㅊㅚㅈㅗㅇ</w>": 4937,
  "ㅇㅕㄴㅇㅖ": 5302,
  "ㅎㅣㅁㅇㅡㄴ</w>": 22261,
  "ㅁㅜㅇㅓㅅㅇㅣㄹㄲㅏㅇㅛ</w>": 24431,
  "ㄱㅜㄱㅈㅏㅇ</w>": 15286,
  "ㅂㅏㅇㅅㅜ": 29800,
  "ㅁㅏㄴㅇㅑㄱㅇㅔ</w>": 18653,
  "ㅈㅣㅁㅈㅏㄱ": 13772,
  "ㄷㅓㄱ</w>": 6324,
  "ㅂㅜㅁ": 22901,
  "ㄱㅖㄴㅡㄴ</w>": 19547,
  "ㅇㅕㅎㅐㅇㅈㅣㅇㅣㅂㄴㅣㄷㅏ</w>": 22148,
  "Azure</w>": 22933,
  "ㅈㅓㅇㅎㅐ</w>": 27289,
  "ㅂㅏㄹㅍㅛㅎㅐㅆㄷㅏ</w>": 9490,
  "on</w>": 911,
  "ㄴㅏㅇㅣㅌㅡ</w>": 16390,
  "ㅊㅏㅈㅇㅏ</w>": 3887,
  "ㅊㅏㄷㅗ</w>": 10161,
  "ㅍㅏㅌㅣㅇㅗ</w>": 32090,
  "ㅈㅡㅇㄱㅏㅎㅏㄴㅡㄴ</w>": 24908,
  "ㅎㅏㄴㅡㄴㄱㅗㅅ</w>": 6399,
  "ㅈㅔ3ㅈㅏ</w>": 21736,
  "ㅈㅗㅅㅓㄴ</w>": 6861,
  "ㄴㅐ</w>": 652,
  "ㅅㅐㄱㅅㅏㅇ</w>": 6856,
  "ㅈㅓㅇㄷㅗㅁㅕㄴ</w>": 14511,
  "iz": 3588,
  "ㅈㅏㄱㅇㅓㅂ</w>": 4141,
  "ㅁㅗㄹㅡㄴㄷㅏㄴㅡㄴ</w>": 23403,
  "1000": 5870,
  "ㅅㅔㅌㅏㄱㄱㅣ</w>": 24744,
  "ㅎㅐㅇ": 400,
  "ㅇㅣㄹㅡㅁㅇㅔ</w>": 31945,
  "ㅂㅗㅇㅕㅈㅜㄱㅗ</w>": 9575,
  "ㅇㅏㄹㅏ</w>": 10477,
  "ㅁㅗㅅㅡㅂㄱㅘ</w>": 20964,
  "ㄸㅜㅀㄱㅗ</w>": 20246,
  "ㄱㅡㄹㅣㅁㅇㅡㄹ</w>": 8774,
  "ㅑㅇㅇㅢ</w>": 11112,
  "ㄹㅣㅅㅔㅂ": 17348,
  "ㄱㅓㅁㅊㅏㄹ": 6108,
  "ㄱㅘㅇㄱㅗ</w>": 2766,
  "ㅈㅜㅁㅜㄹ</w>": 14465,
  "sa": 28327,
  "ㄴㅐㅁㅕㄴ</w>": 17450,
  "ㅈㅔㄷㅗㄱ": 25828,
  "ㄱㅓㅁㅅㅐㄱ": 2130,
  "tits</w>": 16482,
  "ㄱㅏㄴㄹㅑㄱㅅㅓㄹㅁㅕㅇ</w>": 13233,
  "ㅇㅘㅆㄴㅡㄴㄷㅔ</w>": 14905,
  "ㅎㅘㄴㄱㅕㅇㅂㅜ</w>": 32665,
  "tit": 9801,
  "ㅇㅣㅇㅠㄹㅡㄹ</w>": 8497,
  "ㅁㅗㄹㅋㅏ</w>": 17692,
  "ㅎㅏㅂㅅㅏㄴ": 28302,
  "ㄱㅣㄹㅗㄱㅇㅡㄴ</w>": 20562,
  "ㅅㅕㄴㅇㅣ</w>": 5672,
  "ㅂㅐㅇㅜㄴㅡㄴ</w>": 9273,
  "ㅊㅏㄹㅗ</w>": 4988,
  "off": 23799,
  "load</w>": 13898,
  "ㅅㅣㅂㅈㅏㄱ": 12468,
  "ㅂㅜㄹㅁㅏㄴ</w>": 18031,
  "ㅈㅜㅊㅔㄱㅏ</w>": 27870,
  "ㅎㅏㅁㅅㅜㄴㅡㄴ</w>": 30121,
  "ㄱㅔㅆㄷㅏㄱㅗ</w>": 6117,
  "ㅍㅏㅇㅣㄴ": 7366,
  "ㅈㅏㅁㅈㅐㅈㅓㄱ</w>": 28616,
  "ㄷㅡㄹㅇㅓㄱㅏㅆ": 29669,
  "SI": 16608,
  "ㄱㅓㄹㅇㅓ": 6789,
  "wat": 16803,
  "ㅇㅓㄱ</w>": 2017,
  "ㅁㅕㅊㄴㅕㄴ</w>": 32416,
  "ㅊㅣㅁㅏ</w>": 25290,
  "ㅂㅗㄹㅡㅁ": 21688,
  "ㅎㅏㄱㅇㅔ</w>": 27702,
  "ㅌㅓㅋㅣ": 19416,
  "ㄱㅓㅇㅠ": 27748,
  "ㅌㅏㄹㅇㅡㄹ</w>": 32599,
  "ㄷㅡㄹㅇㅓㅇㅑ</w>": 23884,
  "ㅅㅐㄱㅅㅏㅇ": 17832,
  "ㄹㅠㄱㅏ</w>": 22535,
  "ㅁㅣㄴㄱㅘ</w>": 24856,
  "ition": 18366,
  "ㅅㅓㄹㅊㅣ": 1721,
  "ㅂㅜㅂㅜㄴㅇㅣㄷㅏ</w>": 19418,
  "ㅈㅗㅇ</w>": 1151,
  "ㅇㅓㅂㅁㅜ": 3189,
  "ㅇㅛㄱㅓㄴㅇㅡㄹ</w>": 23746,
  "ㅅㅡㅋㅗㄹㅣㅇㅏ</w>": 30353,
  "ㅈㅔㅈㅜ</w>": 5630,
  "isco</w>": 22575,
  "ㅎㅏㄴㄷㅏㄹ": 16168,
  "ㄱㅜㄱㅎㅚ</w>": 6798,
  "ㄷㅏㄴㄷㅏ</w>": 14700,
  "Ret": 13694,
  "ㅊㅚㅅㅓㄴㅇㅢ</w>": 16984,
  "ㄷㅏㅇㅡㅁㅇㅔㄴㅡㄴ</w>": 18956,
  "ㅅㅏㅇㅠㄹㅡㄹ</w>": 25259,
  "ㅎㅘㄹㅇㅛㅇㅎㅏㄴㅡㄴ</w>": 13494,
  "ㅊㅏㄱㅏ</w>": 4503,
  "ㄱㅏㅍㅏㄹ": 30515,
  "ㅈㅔㅎㅏㄴ</w>": 4175,
  "ㄱㅣㅅㅏㅇㅔ</w>": 10457,
  "ㄹㅠㄹㅇㅣ</w>": 7381,
  "ㄱㅡㄹㅗㅂㅜㅌㅓ</w>": 29736,
  "ㅇㅕㄴㅅㅔㄷㅐ</w>": 28139,
  "ㄷㅡㄹㅇㅓㅇㅗㅁㅕㄴ</w>": 31580,
  "ㄷㅚㅇㅓㅆㄷㅓㄴ</w>": 8567,
  "120": 8277,
  "ㅈㅓㅇㅜ</w>": 25958,
  "ㅇㅜㅁㅈㅣㄱㅇㅣㄹ</w>": 20084,
  "ㄹㅗㄹㄹㅓ": 28557,
  "ㅃㅡㄴ</w>": 2665,
  "ㄷㅏㅇㅔ</w>": 24410,
  "ㅂㅓㄴ</w>": 779,
  "ber": 8651,
  "ㄷㅚㅇㅓㅆㄱㅗ</w>": 4501,
  "ㅇㅣㄹㅂㅜㄱㅐㅈㅓㅇ": 26210,
  "ㅈㅏㄱㄱㅗㄱ": 13517,
  "ㅁㅣㄴ": 512,
  "ㄴㅏㅁㄱㅔ</w>": 28709,
  "ion</w>": 1227,
  "ㅅㅓㅇㅠ": 27731,
  "FL": 17736,
  "ㄴㅐㄷㅏㄹ</w>": 24272,
  "ㄷㅏㅇㅎㅐㅆㄷㅏㄱㅗ</w>": 32406,
  "ㄱㅕㅇㅇㅡㄴ</w>": 13594,
  "ㅁㅜㄹㄱㅓㄴ</w>": 14744,
  "ㅂㅏㄴㅍㅏㄹ": 23422,
  "ㄴㅗㄹㅕㄱㅎㅏㄱㅗ</w>": 11073,
  "ㅂㅘㄹㅏ</w>": 21512,
  "ㅁㅣㅇㅢ</w>": 11757,
  "ㅇㅕㅇㅢㄷㅗ</w>": 18229,
  "ㄱㅜㅇㅜㄴ</w>": 29333,
  "ㅇㅏㄲㅏㅇ": 20177,
  "Inn": 30611,
  "Sam": 18121,
  "ㅊㅓㅅㅉㅐ": 15028,
  "ㄱㅛㅇㅠㄱㅊㅓㅇ</w>": 24183,
  "red</w>": 17382,
  "18ㄴㅕㄴ</w>": 22209,
  "ㅇㅕㄴㅅㅡㅂㅇㅡㄹ</w>": 15852,
  "ㅈㅣㄴㅇㅡㄹㅗ</w>": 20268,
  "ㅎㅕㅇㅅㅏ</w>": 14040,
  "80": 2359,
  "ㄱㅏㅁㅈㅣ</w>": 29821,
  "ㅈㅓㅇㅅㅣㄴㅇㅡㄹ</w>": 10974,
  "ㅁㅜㄹㅕㅂ</w>": 20731,
  "ㅊㅜㄹㅂㅏㄹ": 4320,
  "ㅅㅏㅇㄱㅗㅇㅎㅚㅇㅢ": 32072,
  "ㄱㅓㅅㅁㅏㄴㅇㅡㄹㅗㄷㅗ</w>": 19273,
  "ㅇㅣㅇㅓㅆㅈㅛ</w>": 24662,
  "ㅈㅓㅇㅇㅢㅇㅘ</w>": 19340,
  "ㅌㅡㄹ</w>": 3600,
  "ㅈㅏㅇㅇㅐㅇㅣㄴㅇㅢ</w>": 23939,
  "ㄴㅜㄹㅣ</w>": 30016,
  "ㅅㅣㄱㄷㅏㅇㅇㅡㄹ</w>": 32297,
  "ㅎㅐㅅㅓㄴ</w>": 9580,
  "ㅇㅠㄴㅣㅅ</w>": 23999,
  "ㄹㅣㅅㅡㅌㅡ": 12400,
  "ㅔㅇㅣ": 365,
  "ㅈㅔㄱㅗㅇ": 757,
  "ㄱㅜㄱㅇㅡㄴ</w>": 5211,
  "ㅋㅡㄱㅔ</w>": 2189,
  "ㅈㅓㅇㄷㅏㅇㅎㅏㄴ</w>": 17220,
  "ㄱㅟㅇㅕㅇ": 4482,
  "ㅍㅐㄹㅓㄷㅏㅇㅣㅁ</w>": 31644,
  "ㄷㅓㅎㅏㄹ</w>": 30591,
  "ㅂㅣㄱ": 3558,
  "new": 14986,
  "ㄱㅘㄴㅎㅐ</w>": 9646,
  "ㅂㅓㄹㅣ": 3623,
  "ㅇㅛㄱㅅㅓㄹ": 14982,
  "ㅈㅓㅁㅍㅡ": 25227,
  "ㅂㅏㅁㅇㅔㄴㅡㄴ</w>": 31352,
  "ㅊㅜㄹㄱㅡㅁ</w>": 20970,
  "ㅍㅐㅇㅇㅣ</w>": 31552,
  "ㅈㅏㄴㄷㅣ": 22424,
  "ㄴㅏㅁㄴㅕ": 10435,
  "ㅅㅔㄷㅐㅇㅢ</w>": 22300,
  "ㅈㅓㅂㅅㅗㄱㅎㅏㄹ</w>": 32342,
  "ㄴㅣㄲㅏㄴ</w>": 17347,
  "ㄱㅏㄱㅗ": 26393,
  "Stat": 27706,
  "ㅅㅜㅅㅗㅇ": 17656,
  "ㅎㅡㄹㄹㅣ": 32506,
  "ㅅㅇㅔ</w>": 10844,
  "ㅅㅣㅈㅏㄱㄷㅚㄴㅡㄴ</w>": 18331,
  "ㄱㅏㅅㅓㅇㅂㅣ</w>": 15642,
  "ㄴㅗㅇㅇㅓㅂ</w>": 16375,
  "ㅈㅡ</w>": 997,
  "FE</w>": 25826,
  "ㄹㅣㄷㅓㄱㅏ</w>": 29744,
  "ㅋㅏㅍㅣ": 25167,
  "ㅂㅡㄹㅐ": 15931,
  "ㅁㅏㄹㅁㅣㅇㅏㅁ": 19434,
  "ㅇㅠㄹㅛ</w>": 10514,
  "ㅂㅏㅁㅇㅔ</w>": 8995,
  "ㅉㅏ": 1186,
  "ㅙ": 122,
  "ㅇㅏㄹㄹㅣ": 6216,
  "stp</w>": 29756,
  "ㅇㅕㅎㅐㅇㅇㅢ</w>": 15478,
  "ㅂㅜㄹㄹㅑㅇ": 10654,
  "bit": 21002,
  "ㄱㅣㅅㅜㄱ": 12358,
  "ㄱㅜㄱㄱㅏㄹㅗ</w>": 29751,
  "ㅅㅜㅈㅣㅂ": 1889,
  "ㅇㅣㅁㅣㅈㅣㅇㅘ</w>": 24844,
  "ale": 11844,
  "ㅅㅓㄹㅂㅣ</w>": 12778,
  "ㅈㅜㅇㅅㅜㄴ</w>": 32657,
  "ㅂㅕㄴㅅㅜㄹㅡㄹ</w>": 20362,
  "ㅁㅏㄶㅇㅏㅅㅓ</w>": 9283,
  "ㅎㅏㄴㅏㄹㅗ</w>": 6578,
  "Ltd</w>": 32173,
  "ㅇㅛㅅㅗㅇㅔ</w>": 13670,
  "ㄷㅜㄹ</w>": 4235,
  "ㅅㅏㄹㅖㄴㅡㄴ</w>": 25258,
  "ㄱㅜㅁㅣ</w>": 25947,
  "ㅅㅏㄹㅖㄱㅏ</w>": 13799,
  "ㅁㅣㅁㅗ</w>": 28574,
  "ㅎㅗㄴㅈㅏ</w>": 3500,
  "?\"</w>": 3652,
  "ㄷㅗㄱ": 658,
  "ep": 3875,
  "ㅇㅟㅇㅝㄴ": 1398,
  "ㅇㅣㅆㅇㅓㅇㅑ</w>": 3481,
  "ㅈㅏㄴㅕㅇㅢ</w>": 23227,
  "ㄷㅡㄹㅓ": 2525,
  "ㅇㅣㅇㅑㄱㅣㅎㅏㄴㅡㄴ</w>": 17669,
  "ㅅㅗㄱㅐㅎㅏㄴ</w>": 21785,
  "ㅅㅓㅇㅈㅏㅇ": 2470,
  "ㄹㅗㄱㅡㄹㅐ": 28596,
  "ㅂㅘㅆㄷㅓㄴㅣ</w>": 31447,
  "ㄱㅓㄹㅐㅇㅔ</w>": 23191,
  "ㅇㅣㄱㅓㅅ</w>": 11688,
  "ㄷㅜㅌㅗㅇ</w>": 32285,
  "ㅇㅕㅇㅇㅓㅂㅇㅡㄹ</w>": 25267,
  "DI": 7584,
  "ㅍㅡㄹㅐㅇ": 22727,
  "ㅂㅣㄱㅛㅎㅏㅁㅕㄴ</w>": 26000,
  "ㄴㅏㅇㅗㄴㄷㅏ</w>": 6346,
  "ㄱㅣㄷㅐㅎㅏㅂㄴㅣㄷㅏ</w>": 27450,
  "ㅂㅓㅂㅇㅣㄴㅇㅢ</w>": 27859,
  "ㅁㅗㅅㅎㅏㅈㅣㅁㅏㄴ</w>": 27594,
  "ㅇㅑㅇㅅㅣㄱㅇㅡㄹ</w>": 19566,
  "ky": 25893,
  "ㄹㅔㄴㅈㅡ": 21602,
  "ㄱㅣㅁㅎㅡㅇ": 23883,
  "ㅇㅐㅁㅍㅡ</w>": 27203,
  "8ㅊㅓㄴ": 18819,
  "ㅇㅑ</w>": 745,
  "ㄷㅏㄴㅡㄴㄱㅔ</w>": 26705,
  "ㅁㅏㅅㅏ": 3576,
  "ㄱㅖㅎㅚㄱ</w>": 3348,
  "ㅈㅗㅅㅓㄴㅇㅣㄹ": 28613,
  "ㅇㅓㅆㄴㅡㄴㅈㅣ</w>": 27685,
  "ㅂㅡㄹㄹㅏㅇㅜㅅㅡ</w>": 26714,
  "ㄱㅗㅇㄱㅣㄹㅡㄹ</w>": 25008,
  "ㅅㅣㄱㅗㅇ</w>": 20406,
  "ㄱㅜㄷㄱㅔ</w>": 30310,
  "ㅂㅈㅣ</w>": 13340,
  "ㅇㅚ": 668,
  "ㄱㅣㄷㅏㄹㅣㄹ</w>": 29405,
  "ㄷㅜㄲㅓ": 14377,
  "ㅁㅏ</w>": 1027,
  "ㄲㅗㅊ": 2175,
  "8ㅎㅚ</w>": 20028,
  "ㄹㅗㅂㄷㅏ</w>": 20819,
  "ㄷㅗㄲㅣ": 31784,
  "ㅁㅏㅇ": 770,
  "ㅌㅏㄱ": 1540,
  "ㅎㅏㄴㄱㅔ</w>": 9968,
  "ㄱㅛㅎㅚㅇㅔ</w>": 15270,
  "ㅈㅓㄴㅁㅜㄴㄱㅏㄷㅡㄹㅇㅢ</w>": 29727,
  "ㄴㅔㄹ</w>": 20271,
  "ㄷㅏㄴㅅㅗㄱ": 27104,
  "ㅅㅡㅁㅏㅇㅣㄹ": 28536,
  "ㅅㅗㄱㅐㅌㅣㅇ</w>": 14898,
  "ㅇㅣㄴㄷㅣ": 8690,
  "ㅂㅜㅅㅡㅌㅏㅂㅣㅅㅂㅜㅅㅡㅌㅏㅂㅣㅅㅂㅜㅅㅡㅌㅏㅂㅣㅅㅂㅜㅅㅡㅌㅏㅂㅣㅅ</w>": 22287,
  "ㅎㅕㅇㅅㅣㄱ": 9941,
  "NO": 15936,
  "ㅊㅜㄱㅈㅓㄱㄷㅚㄴ</w>": 7885,
  "ㄷㅗㅁㅜㅈㅣ</w>": 26886,
  "ㄴㅡㅇㅎㅏㄴ</w>": 21095,
  "ㅋㅓㅁㅓㅅㅡ</w>": 25140,
  "ㅂㅐㄱㅇㅣㄴ": 28677,
  "ㅇㅕㅎㅐㅇㅇㅡㄹ</w>": 3944,
  "ㄹㅗㄴㅇㅡㄹ</w>": 11537,
  "ㅇㅕㄱㅜㄴ</w>": 30937,
  "ㅅㅠㅍㅓ</w>": 9884,
  "ㅅㅛ": 1379,
  "ㅅㅐㅇㅊㅔ": 25701,
  "ㅈㅓㄴㅇㅏㅂ</w>": 23966,
  "ke</w>": 13635,
  "ㄸㅏㄹㅇㅡㄹ</w>": 18674,
  "ㅈㅏㅅㅣㄱㅇㅣ</w>": 32099,
  "New": 17722,
  "Sof": 20035,
  "ㅅㅏㅇㅅㅏㅇ": 5268,
  "ㅇㅣㄴㅌㅓㅍㅔㅇㅣㅅㅡㄹㅡㄹ</w>": 22360,
  "ㅇㅏㄴㅣㅁ</w>": 11577,
  "Hz": 25104,
  "ㅁㅣㄷㅇㅓ</w>": 32112,
  "MERRA</w>": 6669,
  "ㅇㅏㄴㄷㅗㅇ": 22061,
  "ㄷㅗㄹㅗㄱ": 10926,
  "ㅇㅕㄹㄹㅣㅂㄴㅣㄷㅏ</w>": 29624,
  "ㅌㅗㄹㅗㄴㅇㅡㄹ</w>": 17790,
  "ㅇㅓㅂㅊㅔㅇㅔㅅㅓ</w>": 24367,
  "ㅇㅣㄴㅌㅔㄹㅣ": 16712,
  "ㅎㅏㄴㅡㄴㄷㅔ</w>": 1545,
  "ㄸㅏㅁ</w>": 23707,
  "ㅊㅔㅇㅠㄱ</w>": 13307,
  "ㅎㅏㄱㅇㅝㄴ</w>": 6685,
  "ㅇㅠㅅㅓㅇ": 25586,
  "ㅅㅐㄲㅣ</w>": 16963,
  "ㄴㅏㅇㅗㅂㄴㅣㄷㅏ</w>": 10128,
  "ㅎㅗㅇㅂㅗㄹㅡㄹ</w>": 25295,
  "ㅎㅕㄴㄷㅐㅊㅏ</w>": 18503,
  "he": 9149,
  "ㅇㅣㅂㅈㅏㅇ": 3642,
  "Project</w>": 20273,
  "ㄱㅖㅅㅣㄴ</w>": 9075,
  "ㅅㅣㅇㄱㅏㅍㅗㄹㅡ": 19094,
  "2ㄱㅣ</w>": 22142,
  "ㅇㅏㅇㅣㅍㅐㄷㅡ": 32645,
  "ㅎㅓㅂㅓㄱ": 23306,
  "ㄱㅏㅁㅇㅕㅁ</w>": 19123,
  "/)</w>": 28569,
  "ㅅㅣㄱㅣㄴㅡㄴ</w>": 22243,
  "ㅇㅛㄱㅡㅁㅈㅔ</w>": 18807,
  "ㅎㅖㅌㅐㄱㅇㅡㄴ</w>": 25275,
  "ㄷㅡㄹㄹㅕㅈㅜㄴㅡㄴ</w>": 31259,
  "ㄴㅡㄹㅇㅓ": 7046,
  "ㅊㅡㄹㅗ</w>": 21946,
  "BT": 18407,
  "ㅈㅣㄴㅐㄱㅗ</w>": 21329,
  "1ㅇㅟ</w>": 3305,
  "ㅁㅜㄱㅅㅣ": 11434,
  "ㅎㅓㄹㅣ</w>": 16837,
  "ㅂㅗㄱㅇㅡㄹ</w>": 5151,
  "ㄴㅜㄱㅜㄴㄱㅏㄹㅡㄹ</w>": 23588,
  "ㅍㅜㅇㅇㅑㅇ": 31463,
  "uck</w>": 19092,
  "ㅡㄹㅗ</w>": 1373,
  "ㅅㅡㅂㅔㅇㅣ": 27807,
  "ㅍㅡㄹㅗㄱ": 998,
  "ㅅㅓㅂㅓㅇㅢ</w>": 23363,
  "ㅇㅕㄴㅇㅐ": 7228,
  "ㅇㅟㅊㅣㄱㅏ</w>": 15088,
  "ㅅㅜㄱㅅㅗㄴㅡㄴ</w>": 19191,
  "ㅇㅕㅆ</w>": 22517,
  "ㄴㅡㅇㄹㅕㄱㅇㅢ</w>": 28614,
  "ㅅㅐㄹㅗㅇㅣ</w>": 30091,
  "ㅅㅗㄱㅎㅏㄴ</w>": 12157,
  "Shem": 15968,
  "SKㅌㅔㄹㄹㅔ": 14170,
  "ni": 28788,
  "ㄴㅗㄹㅐㄱㅏ</w>": 23205,
  "57</w>": 10460,
  "ㄹㅏㅁㅣ": 10835,
  "new</w>": 18799,
  "ㄷㅡㄹㅓㅁ": 28227,
  "ㅈㅏㅇㅏㄴ": 15064,
  "ㅇㅣㅁㅕ</w>": 1139,
  "ㄱㅡㄹㅓㄴㄱㅏ</w>": 21913,
  "ㄷㅚㅇㅓㅆㅇㅡㅁㅇㅡㄹ</w>": 29545,
  "ㅇㅑㅇㄷㅗ": 15145,
  "ㅇㅝㄴㅇㅔ</w>": 3069,
  "ㅈㅓㄴㅊㅔㅂㅗㄱㅣ</w>": 27687,
  "ㅁㅏㄴㄴㅏㅁ</w>": 8544,
  "ㄱㅏㄴㅡㅇㅎㅏㄱㅗ</w>": 16382,
  "ㄸㅏㅇㅟ": 12132,
  "ㄱㅏㅆㄷㅓㄴ</w>": 20303,
  "ㅇㅣㄴㅅㅐㅇㅇㅔ</w>": 22930,
  "ㄱㅘㅇㄱㅗㅅㅓㅇ</w>": 24568,
  "ㅅㅐㅇㄹㅑㄱ</w>": 30230,
  "ㅈㅓㅇㅊㅣㄱㅏ</w>": 28164,
  "ㅁㅐㄴㅎㅐ": 31144,
  "ㄱㅗㄱㅜㄴ": 29841,
  "ㄱㅘㅁㅗㄱ</w>": 10717,
  "Dav": 24284,
  "ㅇㅣㄹㅈㅜ</w>": 29940,
  "ㅈㅏㄱㅅㅏ</w>": 29754,
  "ound</w>": 18526,
  "ㅇㅕㄴㅅㅓㄹ": 20437,
  "ㄴㅗㄴㄹㅣㄹㅡㄹ</w>": 32414,
  "vid</w>": 31597,
  "ㅊㅣㄱㅏ</w>": 4247,
  "ㅇㅏㄴㅣㅂㄴㅣㄲㅏ</w>": 21234,
  "ㅈㅓㄴㅏ</w>": 26182,
  "GA": 29906,
  "hot": 23405,
  "ㄱㅡㄹㅣㄱㅗ": 26834,
  "ㅈㅓㄴㅍㅏ</w>": 30736,
  "ㅍㅣㄹㅇㅛㅅㅓㅇㅇㅣ</w>": 24070,
  "acial</w>": 24602,
  "ust</w>": 12088,
  "ㄴㅡㄹㅕ": 25509,
  "ㅅㅓㅇㄱㅕㅇㅇㅡㄹ</w>": 17013,
  "ㅅㅞㅇㅣ": 30450,
  "ㅇㅕㄹㅓㅁㅗㄹㅗ</w>": 26300,
  "ㅇㅕㅆㄱㅣ</w>": 30915,
  "ㅇㅏㄹㅇㅏㅆㄷㅏ</w>": 16182,
  "N": 38,
  "ㅅㅗㄹㅕㄴ": 27391,
  "ㅉㅡㅁㅇㅡㄴ</w>": 18560,
  "ㅎㅏㅅㅇㅣㅅㅠ</w>": 23158,
  "ㄱㅏㅅㅏㅇ": 4469,
  "ㄷㅟㅇㅢ</w>": 31969,
  "ㅊㅜㄱㅈㅔ": 12318,
  "ㅈㅓㅇㅅㅓ</w>": 29409,
  "ㅊㅗㄹㅗㄱ": 14305,
  "ㄱㅕㄹㅎㅗㄴㅎㅏㄴ</w>": 30679,
  "tㅇㅢ</w>": 27086,
  "ㅎㅞㅅㅗㄴㄷㅚㄴ</w>": 24456,
  "ㄴㅐㅇㅈㅏㅇㄱㅗ</w>": 8534,
  "ㅊㅓㄹㅈㅓ": 9190,
  "ㅋㅏㅁㅂㅗ": 17253,
  "ㅍㅏㄴㄷㅏㄴㅇㅡㄹ</w>": 16570,
  "ㅊㅐㄱㅇㅣㅁㅈㅣㄱㅗ</w>": 26814,
  "ㄱㅏㄴㅈㅓㄹ": 10375,
  "ㅈㅡㅇㄱㅏㅎㅏㅂㄴㅣㄷㅏ</w>": 22469,
  "ㄷㅗㄹㅣ": 24066,
  "ㄷㅗㅇㅛ": 21780,
  "ild": 28991,
  "ㅌㅓㄴㅇㅢ</w>": 30366,
  "ㅁㅔㄱㅅㅣㅋㅗ</w>": 8791,
  "ㄱㅕㅇㅎㅓㅁㄱㅘ</w>": 15818,
  "ㅅㅣㅎㅏㄴ</w>": 23679,
  "ㅇㅖㄱㅏ</w>": 29486,
  "ㅂㅐㄴ": 2234,
  "ㄱㅕㅇㅇㅜ": 1012,
  "ㅂㅏㄹㅈㅓㄴ": 1874,
  "ㄹㅕㄴ</w>": 4916,
  "ㅈㅜㅇㄱㅕㄴ": 21791,
  "ㅈㅡㄹㄱㅓㅂㄱㅗ</w>": 21468,
  "ㄷㅏㅇㅣ</w>": 21741,
  "ㄸㅓㅅㅓ</w>": 29203,
  "ㄱㅜㄹㅣ": 10864,
  "ㅅㅏㅇㅣㅁ": 23351,
  "ㅂㅜㄺㅇㅡㄴ": 18832,
  "ㅈㅜㅅㅣㄹ</w>": 15106,
  "ㅈㅣㅈㅓㅇㅎㅏㄴㅡㄴ</w>": 32723,
  "ㄷㅐㄹㅣ</w>": 17269,
  "ㄱㅗㅇㄱㅗㅇ</w>": 11098,
  "ㅂㅏㅋㅟ": 14241,
  "ㄱㅗㅈㅓㅇ</w>": 15993,
  "ㅎㅟ": 2054,
  "ㅇㅣㅆㄴㅡㄴㅈㅣㄹㅡㄹ</w>": 17031,
  "ㅈㅜㅇㄷㅗㄱ</w>": 14075,
  "OS": 3754,
  "ㅊㅏㅇㅇㅓㅂ</w>": 7977,
  "ㅎㅚㄹㅗ</w>": 9510,
  "ㄷㅗㅈㅓㄴㅎㅏㄹ</w>": 23664,
  "ㅈㅏㄹㅎㅏㄱㅗ</w>": 20429,
  "ㅈㅓㅇㅊㅣㅇㅘ</w>": 28538,
  "ㅂㅕㄹㅇㅣ</w>": 22915,
  "ㅇㅕㄴㄱㅣ</w>": 11108,
  "ㅂㅗㄱㄱㅜㅎㅏㄹ</w>": 10630,
  "ㅇㅝㄹㄷㅡ</w>": 4148,
  "ㅁㅜㄹㅇㅓ": 6464,
  "ㅇㅣㄴㅈㅓㅇㅎㅏㅈㅣ</w>": 24215,
  "ㅋㅗㅇㅓ": 29838,
  "ㅅㅓㅍㅣㅇ</w>": 31361,
  "ㄱㅏㅇㅈㅗ": 3538,
  "ㅅㅗㅇㅡㅁ": 23093,
  "ㅅㅣ</w>": 429,
  "ㅈㅡㅁ": 22341,
  "ㅇㅠㅅㅏㄴ": 11093,
  "ㅇㅣㄴㅣㅇ": 23325,
  "ㅅㅟㅂㄱㅗ</w>": 7264,
  "ㅇㅕㄴㅅㅔ": 14094,
  "4ㄷㅐㄱㅏㅇ</w>": 21515,
  "ㅊㅓㄴㅡㄴ</w>": 18795,
  "ㅈㅓㄴㅇㅝㄴㅇㅡㄹ</w>": 20504,
  "ㅈㅓㄴㄹㅑㄱㅇㅡㄴ</w>": 25116,
  "ㅇㅓㄴㅈㅔㄴㄱㅏㄴㅡㄴ</w>": 21189,
  "ㅈㅜㅇㅇㅣㄴ</w>": 3114,
  "ㅈㅝ": 2441,
  "ㅎㅏㅂㅏㄴㄱㅣ</w>": 10817,
  "ㅁㅏㄹㅇㅏ": 29218,
  "ㅌㅣㅋㅔㅅ</w>": 7468,
  "ㄱㅘㄴㅅㅔ": 18426,
  "ㄷㅏㅇㅜㄴㄹㅗㄷㅡ</w>": 2810,
  "ㅅㅜㅎㅐㅇ</w>": 9023,
  "ers</w>": 5203,
  "ㄸㅐㅁㅜㄴ</w>": 9813,
  "ㄹㅓㅅㅣㅇㅏㅇ": 24881,
  "ㅂㅏㄷㅏㄹㅗ</w>": 32075,
  "91</w>": 23237,
  "ㅅㅗㅇㅅㅣㄴ": 29686,
  "ㅈㅔ3": 3337,
  "4ㅂㅓㄴ</w>": 20460,
  "ㅇㅣㄴㄱㅣ": 6499,
  "ㅇㅣㅇㅓㅈㅣㄴㅡㄴ</w>": 11046,
  "ㄱㅗㅇㄱㅏㄴ": 1967,
  "ㅌㅜㅇㅣㅂ</w>": 30165,
  "Fly": 23847,
  "ㅈㅓㄴㅇㅢ</w>": 5340,
  "ㅂㅏㄲㅇㅔ</w>": 1693,
  "ㅇㅓㅆㅇㅓㅇㅛ</w>": 9150,
  "ㅅㅣㅈㅓㅁㅇㅔㅅㅓ</w>": 13834,
  "ㅎㅐㅇㅂㅗㄱㅇㅡㄴ</w>": 30558,
  "ㅈㅐㄱ</w>": 11179,
  "ㄷㅗㅇㄱㅖㅇㅗㄹㄹㅣㅁㅍㅣㄱ</w>": 15371,
  "ㅇㅏㄹㅡㅁㄷㅏㅂ": 9900,
  "ㅇㅜㅅㅇㅡㅁ": 15967,
  "ㅅㅜㅇㅕㅇ</w>": 16295,
  "13ㅇㅣㄹ</w>": 5967,
  "ㅂㅗㅇㅅㅏ": 4295,
  "ㅅㅓㄴㅂㅗㅇㅣㄴ</w>": 19725,
  "ㅁㅐㄴㅌㅜㅁㅐㄴ</w>": 13777,
  "ㄷㅏㄴㅇㅡㄹ</w>": 4071,
  "74</w>": 6154,
  "ㅊㅓㅇㅇㅔ</w>": 19036,
  "ㄸㅡㅅㅎㅏㄴㄷㅏ</w>": 26818,
  "O</w>": 170,
  "ㅇㅕㄹㅗㄴ": 8676,
  "ㅈㅓㄹㅂㅏㄴ</w>": 19017,
  "ㅇㅏㄹㅇㅏㄷㅜㅁㅕㄴ</w>": 31746,
  "ㅁㅜㄴㅇㅢㄴㅡㄴ</w>": 19744,
  "ㅍㅕㄴㅇㅢㅈㅓㅁ</w>": 14258,
  "ㅇㅝㄴㅎㅏㅂㄴㅣㄷㅏ</w>": 23483,
  "ㅇㅣㄴㅍㅗ": 24372,
  "ㅁㅜㅅㅓㅂ": 18786,
  "ㅍㅗㄱㅡㄴ": 28739,
  "ㅂㅏㄴㅇㅣ</w>": 18446,
  "ㅇㅡㅁㅅㅣㄱㄷㅗ</w>": 22479,
  "ㅊㅔㄹㅕㄱ": 17834,
  "ㅌㅔㄴㅣㄲㅏ</w>": 27146,
  "ㅇㅣㅅㅗㅇ": 23064,
  "ㅍㅗㄱㅘㄹ": 13149,
  "ㅇㅝㅋㅡ": 6094,
  "ㅅㅣㅈㅓㄹ</w>": 5661,
  "ㅍㅕㄹㅊㅕ</w>": 23464,
  "ㅎㅘㄹㅅㅓㅇ</w>": 23287,
  "ㅂㅗㅎㅗㅇㅔ</w>": 14443,
  "ㅇㅏㅇㅓ</w>": 9312,
  "ㄱㅡㅁㅈㅣ</w>": 5885,
  "ㅈㅏㅂㅎㅕ": 24972,
  "ㅇㅓㄴㄹㅗㄴㅇㅡㄴ</w>": 30638,
  "ㅂㅐㄷㅏㅇ": 8865,
  "ㅁㅕㅇ</w>": 732,
  "ㅌㅔㄹ</w>": 10410,
  "ㅁㅜㄹㄹㅣ</w>": 22116,
  "ㅅㅡㄹㄹㅓ": 25589,
  "11ㅇㅣㄹ</w>": 5950,
  "ㄱㅡㄴㅡㄹ": 21999,
  "ㅂㅣㄹㄷㅡ</w>": 23462,
  "Univers": 13040,
  "ㅅㅏㅂㅇㅣㅂ</w>": 12386,
  "ㄱㅕㅇㅈㅔㅈㅓㄱㅇㅡㄹㅗ</w>": 25437,
  "T": 44,
  "ㄱㅡㄹㅐㅇㅛ</w>": 22565,
  "ㄷㅔㄹㅣㄱㅗ</w>": 10334,
  "ㅇㅛㅅㅗ</w>": 2614,
  "ㅍㅔㅇㅣㅅㅡㅂㅜㄱ</w>": 4778,
  "Mod": 11880,
  "comㅇㅔㅅㅓ</w>": 14037,
  "ㅊㅓㄴㅅㅣㄱ</w>": 31652,
  "ㄱㅘㄴㅎㅏㄴ</w>": 1420,
  "ㅇㅓㅉㅣ</w>": 9833,
  "ㅇㅣㄲㅡㄴ</w>": 29573,
  "ㅌㅡㄱㅈㅓㅇㅎㅏㄴ</w>": 12369,
  "ㄹㅓㄱㅅㅡ</w>": 24107,
  "ㅇㅏㄹㅅㅜ</w>": 22698,
  "ㅎㅏㅂㅣ": 32174,
  "18": 1369,
  "ㅇㅣㄴㄱㅓㅅ</w>": 19847,
  "ㅈㅣㄴㅎㅐㅇㄷㅚㄴㄷㅏ</w>": 14831,
  "ㄹㅏㄴㅇㅣ</w>": 27944,
  "ㅇㅜㅋㅡㄹㅏㅇㅣㄴㅏ</w>": 20034,
  "ㅁㅜㄹㅇㅣㄴㅏ</w>": 31435,
  "ㅅㅏㅈㅓㄴㅇㅔ</w>": 7276,
  "ㅂㅏㄹㅈㅓㄴㅇㅡㄴ</w>": 32526,
  "ㅅㅣㅇㅝㄴㅎㅏㄴ</w>": 11861,
  "ㅂㅣㅊㅇㅢ</w>": 16734,
  "ㄱㅝㄴ": 649,
  "ㄷㅗㅇㅇㅏㅅㅣㅇㅏ</w>": 31217,
  "ㅅㅣㄹㅅㅜ</w>": 12785,
  "(.</w>": 9809,
  "ㅌㅡㄹㅓㄱ</w>": 15412,
  "ㄱㅡㄹㅆㅡㄴㅇㅣ</w>": 11010,
  "link</w>": 23943,
  "8ㅅㅣㄱㅏㄴ</w>": 24795,
  "ㅇㅏㄴㄴㅐㄹㅡㄹ</w>": 17174,
  "ㅅㅕㄴㅇㅔㅅㅓ</w>": 13407,
  "ㅂㅗㅎㅓㅁㄹㅛ": 17777,
  "ㄱㅔㅅㅣㄱㅡㄹ</w>": 29737,
  "ㅁㅜㄷㅈㅣ</w>": 28961,
  "ㅎㅕㄴㅇㅣ</w>": 16653,
  "GPS": 31431,
  "ㅅㅓㅇㅇㅣㄷㅏ</w>": 32381,
  "ㅍㅕㄴㅇㅏㄴ": 3463,
  "ㄴㅔㄴ</w>": 23058,
  "SN": 3477,
  "ㅎㅐㅇㅑㅈㅣ</w>": 19751,
  "ㅇㅏㅇㅣㄷㅣㅇㅓㄹㅡㄹ</w>": 12532,
  "ㅂㅣㅇㅓ": 31318,
  "ㄷㅏㄴㅏㅇ": 28032,
  "ㅊㅜㅊㅜㄹ</w>": 23612,
  "ㄱㅏㅌㅇㅡㄴㄷㅔ</w>": 5277,
  "ㅂㅏㄱㅅㅡㅇㅔ</w>": 32287,
  "ㅇㅣㅇㅛㅇㅎㅏㄹ</w>": 3837,
  "ㅇㅑㅇㅇㅠㄱ": 14974,
  "ㅅㅡㅌㅣㅇㅇㅡㄹ</w>": 10876,
  "ㅈㅣㅌ": 28210,
  "ㅇㅔㄴㅈㅣㄴㅣㅇㅓ</w>": 24220,
  "ㅇㅜㄴㄷㅗㅇㅇㅢ</w>": 11583,
  "AnySex</w>": 24310,
  "ㅂㅜㄴㅍㅗ": 18349,
  "ㅂㅏㄷㅏㄱㅇㅡㄹ</w>": 22723,
  "ㅇㅗㄴㅣ</w>": 9702,
  "ㅇㅓㄸㅓㄱ": 26130,
  "ㅂㅏㄴㅇㅡㅇ": 3343,
  "ㅊㅔㄹㅡㄹ</w>": 3884,
  "ㅅㅣㅂㅓㅁ": 7620,
  "ㅋㅡㄹㅗㅅㅡ</w>": 17592,
  "ㄳ": 84,
  "ㅅㅣㅁㅈㅏㅇㅇㅣ</w>": 30794,
  "ㅅㅏㅁㅇㅡㄴ</w>": 32691,
  "ㅅㅜㅈㅓㅇㅇㅡㄹ</w>": 21431,
  "ㅇㅠㅇㅢ</w>": 7636,
  "ㅎㅏㄴㄱㅔㅇㅣㅁ": 15078,
  "ㅁㅣㄹㄹㅣㅁㅣㅌㅓㄹㅗ</w>": 9464,
  "ㅂㅏㄴㅇㅕㅇㅎㅏㅁㅇㅔ</w>": 18255,
  "ㅅㅡㄴㅇㅣ</w>": 25145,
  "ㅅㅣㄴㄱㅣㅎㅏㄴ</w>": 23402,
  "le": 1129,
  "ㅈㅓㅇㅊㅣㅈㅓㄱ</w>": 6333,
  "ㅎㅐㄷㅡㄹㅣㅂㄴㅣㄷㅏ</w>": 11284,
  "ㅃㅗㅁ": 14774,
  "ㅅㅐㅇㅁㅕㅇㄱㅘ</w>": 25916,
  "ㅇㅜㄴㅁㅕㅇ": 24096,
  "ㅂㅗㄴㅇㅢ</w>": 28520,
  "ㅇㅑㅇㅎㅐ</w>": 20356,
  "ㄱㅓㄴㅡㄴ</w>": 10629,
  "DNS</w>": 26870,
  "ㄷㅡㄹㅆㅓㄱ": 29196,
  "ㄱㅣㅈㅐㄷㅚㄴ</w>": 23091,
  "ㅅㅡㄹㄹㅔ": 24840,
  "ㅇㅛㅇㅇㅣ</w>": 19961,
  "ㅇㅣㄴㅈㅡㅇ": 3529,
  "ㄴㅏㅁㅜㄹㅡㄹ</w>": 16787,
  "ㅌㅏㅂㅅㅡㅇ</w>": 28342,
  "Space</w>": 32343,
  "ㅋㅡㄴ": 2067,
  "ㅇㅣㄹㅇㅡㄴ</w>": 2290,
  "obi": 19730,
  "ㄱㅘㄴㅇㅡㄹ</w>": 2700,
  "ㅅㅏㅈㅣㄴㄷㅗ</w>": 20708,
  "ㄹㅏㅇㅣㅍㅡ": 11496,
  "ㅅㅗㄱㄷㅗㄹㅗ</w>": 13658,
  "ㅂㅏㄹㅡㄱㅔ</w>": 9564,
  "Q</w>": 227,
  "ㅈㅏㄱㅇㅓㅂㅇㅣ</w>": 10952,
  "ASUS</w>": 32264,
  "ㅂㅗㅅㅣㅁㅕㄴ</w>": 8667,
  "ㄸㅐㅁㅏㄴ</w>": 15901,
  "GA</w>": 16188,
  "User</w>": 29191,
  "ㅇㅣㅅㅡㄹㄹㅏ": 31696,
  "300": 4106,
  "ㄴㅡㄴㄱㅓㅅㅇㅣ</w>": 19762,
  "ㅎㅏㄴㄷㅏ": 8079,
  "ㅁㅓㄹ</w>": 26266,
  "ㅇㅏㄹㄹㅔㄱㅅㅏㄴ": 20856,
  "ㅊㅜㄱㅏㅎㅏㅇㅕ</w>": 32750,
  "ㅈㅔ2</w>": 27984,
  "4ㅍㅔㅇㅣㅈㅣㅂㅜㅌㅓㄴㅡㄴ</w>": 28348,
  "ㅊㅏㅇㅇㅢ": 6356,
  "ㄷㅐㄱㅕㄹ": 7543,
  "ㅃㅏㅈㅣㄹ</w>": 17885,
  "ㅊㅟㄷㅡㄱ</w>": 14671,
  "ㅇㅣㄴㅇㅝㄴ</w>": 10136,
  "ㅎㅚㄱㅏ</w>": 4407,
  "ㄱㅡㄹㅓㅎㄱㅗ</w>": 14527,
  "ㄱㅜㄱㅅㅜㅈㅣㅂ": 19220,
  "ㅁㅣㄷㄴㅡㄴ</w>": 9473,
  "ation": 4414,
  "ㅎㅣㅁㄷㅡㄹㄱㅔ</w>": 14298,
  "ㅁㅏㄴ</w>": 399,
  "ㅍㅐㄴㅓㄹ</w>": 12629,
  "ㅌㅗㄱㅌㅗㄱ</w>": 26975,
  "perform": 32699,
  "ㄷㅏㅁㅇㅏㅆㄷㅏ</w>": 28451,
  "ㄷㅏㄹㅜㄴㅡㄴ</w>": 11932,
  "ㅅㅡㅌㅏㄴ": 8861,
  "Ar": 4812,
  "ㅁㅜㄷㅏㄴ": 9959,
  "!]</w>": 23027,
  "ㅅㅏㅅㅓㄹ</w>": 13477,
  "ㅈㅏㅇㄱㅜㄴ": 30471,
  "ㅇㅓㅄㅇㅡㅁㅕㄴ</w>": 7530,
  "ㅅㅣㄷ": 22952,
  "ㄱㅡㄹㅐㅍㅡ": 1382,
  "Sil": 22430,
  "ㄱㅣㅂㅏㄴㅇㅢ</w>": 10697,
  "ㅇㅖㅅㅏㅇ": 2800,
  "ㅇㅏㄵㅇㅏㅅㅓ</w>": 13891,
  "ㅅㅏㅇㅎㅘㅇㅇㅔ</w>": 5227,
  "ㄱㅏㅇㄱㅕㅇ": 19595,
  "ㅁㅏㅈㅜ": 8508,
  "ㄹㅔㅇㅣㄷㅣㅅㅡ</w>": 28967,
  "1ㄷㅗㅇ</w>": 31561,
  "ㅂㅜㅈㅏ</w>": 23733,
  "ㅅㅣㄹㅎㅐㅇㅎㅏㄹ</w>": 16536,
  "ㅅㅐㅇㄱㅕㄴ": 9577,
  "60</w>": 7822,
  "ㅇㅏㄱㅇㅢ": 31020,
  "ㅌㅏㅇㅣㅈㅡ</w>": 30103,
  "ㅍㅏㄹㅏㄴㅅㅐㄱ</w>": 28817,
  "ㄴㅗㄴㅇㅢ</w>": 14886,
  "ㅅㅛㅍㅣㅇㅁㅗㄹ": 7841,
  "ㅂㅘㅆㅇㅓㅇㅛ</w>": 21205,
  "ㅅㅐㅇㄱㅏㄱㅇㅓㅄㅇㅣ</w>": 28450,
  "HU": 32348,
  "ㅅㅓㅂㅣㅅㅡㅇㅣㅂㄴㅣㄷㅏ</w>": 26767,
  "ㅅㅟㅇㅜㄴ</w>": 3682,
  "acy</w>": 22450,
  "ash</w>": 13555,
  "ㅍㅐㄱㅇㅡㄹ</w>": 31693,
  "ㅎㅏㅇㅈㅐㅇ": 31990,
  "ㅇㅣㄱㅓㄴㅏ</w>": 6706,
  "ㅊㅏㅇㅊㅜㄹㅇㅡㄹ</w>": 31833,
  "ㅁㅏㄹㅏㅌㅗㄴ</w>": 17646,
  "ity</w>": 3319,
  "ㄹㅔㅇㅣㄷㅣ": 15370,
  "ㄷㅗㅇㅁㅐㅇ": 18726,
  "ㅇㅛㅇ</w>": 636,
  "CSS</w>": 22141,
  "ㅊㅜㄱㅏㄷㅚㄴ</w>": 18097,
  "ㄱㅏㅇㅣ": 7887,
  "ㅂㅜㄹㄱㅏㄴㅡㅇ</w>": 16470,
  "ㅂㅕㄴㅎㅏㅈㅣ</w>": 18117,
  "ㅆㅏㅇㅣㅌㅡ</w>": 16897,
  "ㅈㅜㄹㅇㅓ": 6778,
  "ㄴㅏㅃㅡ": 9202,
  "ㅁㅗㅅㅎㅐ</w>": 7403,
  "ㅈㅣㄷㅗㄱ": 14374,
  "ㅊㅕㄷㅗ</w>": 28270,
  "ㅊㅔㅎㅓㅁㅇㅡㄹ</w>": 16665,
  "ㅇㅓㄹㅡ": 10368,
  "ㅈㅐㅎㅏㄱ": 29523,
  "ㅋㅓㅁㅠㄴㅣ": 2994,
  "ㅎㅘㅎㅏㄹ</w>": 14535,
  "ㅂㅜㅁㅜㄴㅇㅔㅅㅓ</w>": 27632,
  "ㅈㅓㄴㅎㅣ</w>": 1955,
  "ㄴㅗㅇㅁㅣㄴ": 15989,
  "ㅎㅏㄷㅓㄴ</w>": 2851,
  "VP": 14840,
  "ㅎㅏㄴㅈㅣ</w>": 6480,
  "ㄱㅓㄹㄹㅕㅆㄷㅏ</w>": 28610,
  "IDE</w>": 28912,
  "ㄱㅗㅇㄷㅗㅇ</w>": 4965,
  "ㅊㅣㅇㅊㅏㄴ": 9854,
  "ㄷㅡㄹㅣㄴㄷㅏ</w>": 20888,
  "ㅊㅏㅂㅕㄹ</w>": 12597,
  "ㅇㅣㅇㅕㅇ": 10134,
  "ㅁㅗㄷㅜㄷㅡㄹ</w>": 19920,
  "ㅌㅡㄹㅏㅇㅜ": 23838,
  "ㅇㅝㄴㅅㅓ": 32015,
  "ㄱㅏㄴㄷㅏㄴㅎㅣ</w>": 9961,
  "ㅇㅕㅇㅅㅏㅇㅇㅡㄴ</w>": 24477,
  "ㅅㅣㄱㅇㅔㅅㅓ</w>": 16333,
  "ㅅㅓㅇㅜㄹㅅㅣ</w>": 4644,
  "ㄷㅗㄹㅇㅏㄱㅏㄹ</w>": 18137,
  "ㅁㅕㅊ": 2191,
  "ㅂㅣㅈㅏ</w>": 12347,
  "ㅈㅏㅇㅕㄴㅅㅡㄹㅔ</w>": 25195,
  "ㄷㅡㅇㄹㅗㄱㅇㅣ</w>": 15860,
  "ㅌㅡㄴ</w>": 2608,
  "ㅊㅜㄹㅅㅣㄴ": 9009,
  "ial</w>": 6210,
  "ㄱㅡㄷㅐ</w>": 14908,
  "ㄱㅏㄴㅇㅢ</w>": 2387,
  "ㅇㅕㅁ": 2122,
  "ram</w>": 12004,
  "ㅋㅣㅇㅇㅣ</w>": 31436,
  "ㅇㅛㅇㅈㅣ</w>": 26522,
  "ㅊㅛ": 32011,
  "ㅇㅕㄹㅈㅓㅇㄱㅘ</w>": 28285,
  "ㅊㅓㅇㄱㅖ": 20537,
  "ㅍㅏㄱㅡㅂ": 28770,
  "ㅅㅏㅇㅛㅇㅈㅏㄷㅡㄹㅇㅣ</w>": 23637,
  "ㄷㅓㄴㅈㅣ</w>": 11704,
  "ㅁㅜㄹㅣㄱㅏ</w>": 14640,
  "ㅋㅡㄹㄹㅐ": 3147,
  "ㅇㅣㅆㅇㅓㅆㅇㅡㄴㅏ</w>": 22804,
  "ㅅㅣㅎㅓㅁㅇㅡㄹ</w>": 9849,
  "ㅇㅏㅋㅏㄷㅔ": 8250,
  "ㅎㅓㄹㅣ": 14476,
  "ㅅㅣㄹㄴㅐ": 9927,
  "ㄱㅘㅎㅏㄱㄱㅣㅅㅜㄹ</w>": 32138,
  "ㅏㄹㅡㄹ</w>": 2197,
  "meth": 10366,
  "ㅅㅡㅋㅡㄹㅣㅂㅌㅡ</w>": 16591,
  "ㅇㅣㄹㄷㅐ</w>": 28260,
  "MMOR": 27066,
  "88": 7368,
  "ㅇㅔㄷㅗ</w>": 961,
  "ㅅㅏㄷㅗ</w>": 8792,
  "ㅁㅏㅈㄱㅗ</w>": 10498,
  "ㄱㅣㅇㅓㄱㅇㅣ</w>": 7940,
  "ㅌㅡㄱ</w>": 28172,
  "ㄱㅏㅁㅅㅏㅎㅐㅇㅛ</w>": 28142,
  "ㅎㅜㅇㅣㄴ</w>": 29605,
  "ㄷㅏㄹㅇㅣㄴ</w>": 28988,
  "ㄱㅣㄱㅘㄴㅇㅣㄴ</w>": 27434,
  "ㄷㅣㅈㅏㅇㅣㄴㅓ": 10172,
  "ㅍㅡㄹㅗㄱㅡㄹㅐㅁㅇㅔㅅㅓ</w>": 19800,
  "ㅎㅐㄱㅅㅣㅁ</w>": 5676,
  "ㅅㅡㅍㅗㅊㅡㄴㅡㄴ</w>": 24678,
  "ㄱㅣㅈㅣ</w>": 9099,
  "10ㅅㅣㄱㅏㄴ</w>": 28936,
  "ㅋㅡㄹㄹㅣㄴ": 11777,
  "ㅁㅏㄴㅇㅣㄴ</w>": 19128,
  "KAY": 29729,
  "ㅌㅏㄷㅏㅇ": 15065,
  "vention</w>": 12728,
  "ㄷㅏㄹㄹㅓㄹㅗ</w>": 25874,
  "ㄱㅏㅁㄷㅗㄱㅇㅢ</w>": 10763,
  "ㅅㅗㅈㅐㄹㅗ</w>": 17131,
  "ㄲㅗㅇㅣㅁ</w>": 32766,
  "ㄱㅣㄷㅏㄹㅣㄴㅡㄴ</w>": 9804,
  "ㅇㅗㅅㅣㄹ": 32728,
  "ㅅㅖ": 5654,
  "ㄷㅐㅁㅏㄴ": 22518,
  "ame</w>": 6870,
  "ㅊㅚㅊㅗ</w>": 6848,
  "ㅁㅜㄹㄹㅗ</w>": 6733,
  "Produc": 22489,
  "ㅉㅜ": 15141,
  "ㅊㅗㅇㅇㅡㄹ</w>": 15749,
  "ㅇㅏㅈㅣㄱㄲㅏㅈㅣㄴㅡㄴ</w>": 32489,
  "ㄹㅗㄱㅡㅇㅣㄴㅇㅡㄹ</w>": 14773,
  "ㅇㅣㄴㅈㅓㅇㅎㅏㄹ</w>": 22689,
  "ㅈㅗㄴㅇㅡㄹ</w>": 23445,
  "ㅍㅛㄴㅡㄴ</w>": 17937,
  "ㅂㅓㄴㅇㅕㄱ</w>": 6515,
  "yㅇㅢ</w>": 19967,
  "ㅈㅐㄹㅛ": 4604,
  "ㅇㅓㅂㅁㅜㅇㅢ</w>": 24146,
  "ㅁㅗㄹㄹㅏ</w>": 13603,
  "ㅇㅣㄴㅌㅔㄹ</w>": 13905,
  "ㄱㅣㅁㄷㅗㅇ": 8633,
  "ㅇㅕㄱㅅㅣ</w>": 1533,
  "ㄱㅔㄴㅡㄴ</w>": 11414,
  "ㅇㅜㄴㅎㅐㅇ</w>": 13715,
  "ㅇㅓㅇ": 2127,
  "2ㅎㅚ": 31862,
  "ㅅㅏㅇㅎㅏㄴ</w>": 16114,
  "ㅇㅏㅈㅜㅁㅁㅏ</w>": 12039,
  "ㅈㅏㅇㅌㅓ</w>": 18850,
  "ㅈㅓㄱㅇㅛㅇㄷㅚㄴㅡㄴ</w>": 17497,
  "ㅋㅡㄹ": 549,
  "ㄷㅏㅂ": 1059,
  "ㅊㅓㄹㅇㅢ</w>": 24163,
  "ㅇㅢㅈㅗㄴㅎㅏㄴㅡㄴ</w>": 14171,
  "ㄱㅖㅎㅚㄱㅇㅏㄴ</w>": 23539,
  "ㅁㅏㄴㅇㅝㄴㅇㅡㄹ</w>": 10164,
  "ㅅㅏㅁ": 946,
  "QR": 26518,
  "ㅅㅗㅅㅜㅇㅢ</w>": 22775,
  "2</w>": 166,
  "ㅌㅡㄱㅂㅕㄹㅎㅏㄴ</w>": 2885,
  "ㅂㅗㄱㅣㄱㅏ</w>": 24693,
  "ㅈㅏㄱㅅㅓㅇㅈㅏ</w>": 13451,
  "inclu": 16854,
  "ㅋㅗㄴㅡㄴ</w>": 26187,
  "ㅅㅏㅁㅅㅓㅇㅈㅓㄴ": 12050,
  "ㄹㅗㄹㅣ</w>": 22763,
  "ㄱㅏㅅㅏ</w>": 18645,
  "ㅂㅓㅂㅡㄹ": 24672,
  "ㄱㅕㄴㅑㅇ": 24118,
  "ㅇㅣㅃㅡㄴ</w>": 21526,
  "ㅁㅜㄹㅇㅓ</w>": 17879,
  "Sal": 17723,
  "ㅇㅙ</w>": 1427,
  "!\"</w>": 6385,
  "ㅂㅘ</w>": 6079,
  "ㅇㅣㄺㄱㅣ</w>": 6919,
  "ㅈㅏㄱㄷㅗㅇ": 4559,
  "ㅊㅣㄴㄱㅜ": 1708,
  "sㅇㅢ</w>": 12484,
  "ㅂㅓㄹ": 1100,
  "ㄱㅜㄴㅇㅣ</w>": 7927,
  "ㅂㅣㅈㅡㄴㅣ": 7624,
  "URLㅇㅡㄹ</w>": 19044,
  "ㅎㅐㅇㅔ</w>": 13139,
  "ss": 13956,
  "ㅇㅢㄹㅚ": 11089,
  "ㅇㅣㅊㅓㄹㅓㅁ</w>": 7372,
  "ㅇㅓㅂㅔㄴ": 24106,
  "ㄷㅡㄹㅇㅓㄱㅏㄴㄷㅏ</w>": 23648,
  "ㄱㅘㄹㅡㄹ</w>": 16500,
  "ㄷㅡㄴㅣ</w>": 18414,
  "ㅌㅗㅋㅡ</w>": 19543,
  "net": 10871,
  "ㅈㅗㅇㅅㅣㄴ": 25048,
  "ㅍㅣㄹㅡㄹ</w>": 8462,
  "ㅎㅘ</w>": 622,
  "ㅇㅣㅆ": 294,
  "ㄴㅏㅁㅁㅣ</w>": 22610,
  "ㅇㅝㄱㅅㅡ</w>": 31235,
  "ㄷㅏㄴㅂㅐㄱㅈㅣㄹ</w>": 16241,
  "ㅋㅗㅊㅣㅇ</w>": 28952,
  "ㅇㅕㅍㅇㅔ</w>": 6168,
  "30ㅁㅏㄴㅇㅝㄴ</w>": 32504,
  "ㅂㅏㅇㅁㅜㄴ": 1795,
  "13ㅍㅔㅇㅣㅈㅣ</w>": 9751,
  "ㅍㅣㄹㅇㅛㅎㅏㅈㅣ</w>": 18434,
  "ㅇㅣㅆㅇㅡㄹㅈㅣㄷㅗ</w>": 26783,
  "ㄷㅏㅎㅏㄴ</w>": 22652,
  "ㄴㅓㅁㅂㅓ": 22498,
  "ㄲㅡㄶㅇㅣㅈㅣ</w>": 28167,
  "ㄱㅓㄱㅈㅓㅇㅇㅣ</w>": 14026,
  "ㅁㅏㅇㅡㄹ</w>": 4143,
  "ㅌㅡㄱㅂㅕㄹ</w>": 7914,
  "ㅁㅗㅇㅢ": 11223,
  "ㅇㅓㅁㅁㅏㅇ": 12213,
  "ㅎㅐㅆㅅㅡㅂㄴㅣㄷㅏ</w>": 1144,
  "ㄱㅕㄹㅎㅏㅁ</w>": 27534,
  "ㅇㅓㅄㄷㅗㄹㅗㄱ</w>": 12668,
  "ㅎㅢㅇㅢ</w>": 18011,
  "ㅎㅐㄱㅗ": 26155,
  "ㅈㅏㅅㅏㄹ</w>": 19758,
  "ㅇㅛㄹㅣㄹㅡㄹ</w>": 12211,
  "ㅁㅜㄴㄱㅜ</w>": 19968,
  "ㅅㅗㅁㅐ": 15372,
  "ㅅㅏㅈㅓㅇㅇㅣ</w>": 18652,
  "2010": 4877,
  "pris": 17490,
  "ㅁㅏㄹㅎㅐㅆㄷㅏ</w>": 2073,
  "ㄱㅗㅇㅇㅛㅇ": 22633,
  "ㅇㅑㅇㅈㅏㅇ": 22672,
  "INT</w>": 31404,
  "ㅂㅗㄱㄱㅝㄴ</w>": 20083,
  "ㅂ": 99,
  "one": 14580,
  "ㅅㅗㅈㅜ</w>": 24005,
  "ㅇㅣㄴㅌㅓㄴㅔㅅㅇㅣ</w>": 18976,
  "ㄴㅡㄲㅕㅈㅣ": 28523,
  "ㅊㅣㅁㅎㅐㅎㅏㄴㅡㄴ</w>": 25859,
  "ㅅㅣㄷㅏㄹㄹㅣ": 29770,
  "ㅈㅗㅇㅇㅣㄹ</w>": 9179,
  "ㅂㅓㄱㅡ</w>": 8731,
  "ㅁㅏㄶㅇㅏㅈㅣㄱㅗ</w>": 31028,
  "ㄷㅗㅂ": 6880,
  "ㅅㅣㄴㅈㅜㅇㅎㅏㄴ</w>": 14468,
  "ㅍㅕㄴㅎㅑㅇ": 25691,
  "ㅎㅓㅇㅛㅇㅎㅏㅈㅣ</w>": 31902,
  "ㅁㅓㄱㄱㅔ</w>": 27408,
  "ㅇㅓㄹㅇㅡㅁ</w>": 27899,
  "ㅇㅕㄹㅁㅐ</w>": 26556,
  "ㅅㅗㄴㄴㅣㅁㅇㅣ</w>": 22746,
  "ㅎㅏㄷㅏ</w>": 914,
  "ㅇㅏㄶㅇㅡㅁㅡㄹㅗ</w>": 20317,
  "ㅊㅣㄷㅗ</w>": 31841,
  "ㅈㅓㄴㅈㅐㅇ</w>": 5243,
  "ㅅㅐㄱㅇㅡㄹ</w>": 5996,
  "ㅅㅏㅇㅛㅇㅎㅏㄴ</w>": 7470,
  "CS": 7309,
  "ㄱㅏㅁㅇㅗㄱ": 17153,
  "ㅎㅏㄴㅏㄴㅣㅁㅇㅡㄹ</w>": 7771,
  "ㄴㅓㄼ": 4184,
  "ㄱㅜㄱㄹㅣㅂㄱㅗㅇㅇㅝㄴ</w>": 21835,
  "ㅂㅣㅌㅏㄴ</w>": 9123,
  "ㅇㅓㅄㄷㅏ</w>": 1172,
  "Mac</w>": 13813,
  "ㄷㅗㅇㄱㅖ": 8503,
  "ㄴㅏㅌㅏㄴㅏㅂㄴㅣㄷㅏ</w>": 16330,
  "ㄱㅣㅇㅓㅂㅇㅔㅅㅓ</w>": 20587,
  "ㅇㅓㄸㅓㄴ</w>": 959,
  "NGO</w>": 29661,
  "ㄷㅏㅇㅎㅏㄱㅗ</w>": 13468,
  "de": 1749,
  "ㅌㅓㄱ": 10712,
  "ㅁㅕㄹㅁㅏㅇ": 21891,
  "ㄱㅕㅇㅇㅕㄴ": 28948,
  "RGB</w>": 24060,
  "ㄴㅓㄹ</w>": 2370,
  "ㅅㅡㅁㅏㅌㅡ": 2036,
  "ㅂㅜㅊㅐ</w>": 19034,
  "ㄱㅣㅂㅏㄴㅎㅏㄴ</w>": 29565,
  "ㅂㅔㄴㅊㅣㅁㅏ": 31213,
  "ㄷㅡㅇ</w>": 600,
  "ㅁㅏㅋㅔ": 1548,
  "ㄴㅡㄲㅕㅈㅣㄴㄷㅏ</w>": 23038,
  "XVideos</w>": 24384,
  "ㅊㅔㅋㅗ</w>": 20131,
  "ㄷㅐㄱㅕㄹ</w>": 16420,
  "ㅂㅕㄴㅇㅣ</w>": 30150,
  "ㅊㅜㅇㅈㅓㄴ</w>": 9667,
  "ㅇㅣㅁㅔㅇㅣㄹ": 16033,
  "ㅇㅣㄴㄱㅏㄴ": 1538,
  "ㅅㅔㄱㅖㅇㅢ</w>": 5933,
  "ㅇㅏㄹㄹㅕㄷㅡㄹㅣㅂㄴㅣㄷㅏ</w>": 14063,
  "ㅎㅏㄴㅁㅕㅇ": 30119,
  "ㅎㅜㅇㅢ</w>": 6008,
  "ㅈㅏㄱㄱㅏ": 9144,
  "ㅇㅖㅈㅔ</w>": 22022,
  "ㄱㅓㅁㅊㅏㄹ</w>": 10709,
  "ㅌㅡㄹㅐㄱㅂㅐㄱㅇㅣ</w>": 19342,
  "ㅇㅣㅆㅇㅓㅆㅈㅛ</w>": 23827,
  "ㄹㅣㄱ</w>": 7763,
  "ㅇㅣㄴㅑ</w>": 13013,
  "ㅁㅔㅇㅣㄷㅡ</w>": 16251,
  "Kㄹㅣㄱㅡ</w>": 26242,
  "ㅋㅣㅌㅡ</w>": 22455,
  "ㅁㅐㅈㅏㅇㅇㅡㄹ</w>": 23581,
  "ㅎㅛㅇㅠㄹㅅㅓㅇㅇㅡㄹ</w>": 24123,
  "ㅇㅔㄹㄹㅣ": 4982,
  "ㅂㅏㅇㅇㅏㄴㅇㅔ</w>": 17123,
  "TO": 5235,
  "ㅋㅓㄴㅌㅔㅇㅣㄴ": 15261,
  "ㅈㅓㅇㅈㅣㄱ": 21518,
  "ㄴㅜㄴㅇㅡㄹㅗ</w>": 10760,
  "ㄸㅓ</w>": 15237,
  "ㅇㅕㄹㄱㅣ</w>": 11113,
  "ㅌㅡㄹㄹㅣㅁ": 16795,
  "ㅁㅓㄴㅣㅌㅜㄷㅔㅇㅣ</w>": 30836,
  "ㅂㅗㄱㅗ": 1587,
  "ㄱㅗㅇㅁㅗㅈㅓㄴ</w>": 12514,
  "ㅌㅣㅋㅔㅅㅇㅡㄹ</w>": 16458,
  "ㅎㅏㄱㅈㅓㅁ</w>": 16578,
  "ㅃㅑ": 27698,
  "ㅁㅣㄴㅅㅗㄱ": 18051,
  "ㅈㅏㄴㅣㅁ": 31116,
  "ㅍㅡㄹㅗㅇㅑ": 8903,
  "ㅅㅜㅅㅗ</w>": 32403,
  "ㄱㅓㅈㅛ</w>": 5992,
  "ㄱㅘㄴㄹㅣ</w>": 1495,
  "ㅂㅣㅇㅏ</w>": 7116,
  "KR3</w>": 21524,
  "ㅗㄹㅣ</w>": 28767,
  "ㅎㅏㅇㅕㄱㅡㅁ</w>": 11425,
  "ㅂㅗㅎㅗㅎㅏㄴㅡㄴ</w>": 23382,
  "ㅇㅢㅎㅐ</w>": 1881,
  "ㄱㅕㄹㅈㅓㅇㅎㅏㄴㅡㄴ</w>": 14325,
  "ㅅㅣㄹㅎㅕㄴ": 6705,
  "ㅎㅏㄴㄲㅓㅅ</w>": 32074,
  "ㅋㅣㅇㅜㄱㅣ</w>": 28665,
  "ㅂㅓㅂㄹㅠㄹ": 4774,
  "ㅁㅕㅇㅇㅔㄱㅔ</w>": 19733,
  "ㅍㅗ": 439,
  "ㄱㅓㅅㄱㅘㄴㅡㄴ</w>": 22878,
  "ㅌㅡㄹㅐㅍㅣㄱ": 30681,
  "ㅂㅣㅆㅏㄴ</w>": 8947,
  "ㅎㅏㄾㅇㅏ</w>": 20015,
  "ㅅㅡㅋㅣㄹ</w>": 15457,
  "ㄷㅚㅇㅓㅆㄷㅏㄴㅡㄴ</w>": 10687,
  "ㅈㅏㅇㅊㅏㄱ": 6759,
  "ㅅㅣㄹㅅㅜㄹㅡㄹ</w>": 15797,
  "rip": 4614,
  "ㄱㅐㅂㅏㄹㅎㅏㄹ</w>": 26159,
  "ㅊㅗㅈㅓㅁ</w>": 28474,
  "ㄹㅕㄱ</w>": 1044,
  "ㅊㅣㅇㅏ": 13738,
  "ㄴㅏㅍㅗㄹ": 30074,
  "ㅎㅏㄴㅏ</w>": 1608,
  "ㄱㅏㅇㅈㅗㅎㅏㄱㅗ</w>": 22908,
  "ㅇㅏㄴㅏ": 12886,
  "etc</w>": 22314,
  "ㄱㅏㄴㅈㅓㅂㅈㅓㄱㅇㅡㄹㅗ</w>": 29357,
  "ㄱㅣㅁㅎㅏㄴ": 26350,
  "ㅎㅕㄴㅅㅣㄹㅇㅡㄹ</w>": 12628,
  "ㄱㅗㅇㅇㅠㅎㅏㄹ</w>": 13129,
  "ㅅㅣㅅㅡㅌㅔ": 1164,
  "ㅊㅜㄹㅂㅓㅁ": 14808,
  "61": 30882,
  "da</w>": 26519,
  "ist": 5146,
  "ㄱㅠㄹ": 32207,
  "ㅁㅣㄱㅜㄴ</w>": 27429,
  "ㅇㅠㅇㅛㅇㅎㅏㄴ</w>": 7326,
  "ㅈㅓㄴㅓㄹㄹㅣ": 22902,
  "ㅇㅣㅁㅅㅣㄴ</w>": 10455,
  "ㅇㅝㄴㄷㅓ": 28837,
  "ㅁㅐㅈㅣㄴ": 24870,
  "ㅅㅣㅅㅓㄹ": 1690,
  "ㅅㅏㅇㅛㅇㅈㅏㄱㅏ</w>": 5288,
  "ㅅㅡㅇㅟㅅㅡ</w>": 10193,
  "ㅇㅣㄴㅔ</w>": 17850,
  "ㄱㅡㅇㅔ</w>": 5078,
  "ㅇㅣㅇㅔㅅㅓ</w>": 22909,
  "ㅋㅣㄹㄹㅗㅁㅣㅌㅓㅇㅏㄴㅇㅡㄹㅗ</w>": 31445,
  "ㅇㅣㅅㅜㄴ": 17020,
  "ㅈㅗㅅㅏ": 3640,
  "ㄴㅕㄴㄲㅏㅈㅣ</w>": 9418,
  "ㅅㅐㅇㄱㅏㄱㅎㅐㅆㅅㅡㅂㄴㅣㄷㅏ</w>": 24275,
  "ㄷㅏㅇㄱㅘ</w>": 13187,
  "ㅎㅏㄱㄱㅛㅈㅓㅇㅂㅗㅇㅣㅁㅕ</w>": 5223,
  "ㅁㅝㄴ</w>": 24445,
  "ㄷㅜ": 643,
  "ㄱㅓㅅㅇㅣㅈㅣ</w>": 18306,
  "ㄱㅏㅇ</w>": 1413,
  "ㅈㅣㅈㅣㄴ</w>": 15089,
  "2ㄱㅐㄹㅡㄹ</w>": 28244,
  "ㅈㅜㅁㅜㄴㅇㅡㄹ</w>": 14606,
  "des</w>": 22431,
  "ㅂㅡㄹㅏㅇㅜ": 3277,
  "ㅍㅏㄱㅗ": 20577,
  "ㅇㅕㅈㅏㅇ": 8800,
  "ㅌㅗㅌㅡ": 21202,
  "ㅇㅗㅂㅡㅈㅔㄱ": 20392,
  "ㅌㅡㄴㅌㅡㄴ": 13730,
  "ㅈㅏㅇㅈㅓㅁㅇㅡㄴ</w>": 17236,
  "ㄹㅣㅁ": 1572,
  "ㅅㅐㅇㅅㅜ</w>": 31986,
  "ㄱㅕㅇㄱㅣㄹㅡㄹ</w>": 4759,
  "ㅁㅗㅈㅣㅂㅇㅔ</w>": 30403,
  "ㅇㅣㄺㄱㅗ</w>": 4105,
  "ㅋㅗㅅ": 17251,
  "ㅇㅠㄱㅏ</w>": 19644,
  "ㅇㅏㄹㄹㅣㅁㅇㅣ</w>": 29122,
  "4": 16,
  "ㅅㅏㅇㅓㅂㄱㅖㅎㅚㄱㅅㅓ</w>": 17391,
  "ㅁㅣㄱㅅㅡ": 24850,
  "POS": 31581,
  "ㅁㅔㅅㅣ": 2679,
  "ㄱㅡㄴㅈㅓㅂ": 25481,
  "ㅌㅡㅇㅟ": 3441,
  "ㄱㅐㅂㅏㄹㅈㅏㄱㅏ</w>": 22014,
  "ㄱㅜㄱㅡㄹ": 6002,
  "ㅎㅏㅈㅣㅁㅏㄴ</w>": 843,
  "ㅂㅜㄹㅍㅕㄴ": 2304,
  "ㄷㅏㅈㅜㅇ</w>": 18069,
  "ㅅㅓㄴㅂㅐ": 8509,
  "ㅂㅐㅇㅜㄱㅣ</w>": 20236,
  "ㅈㅗㄱㅓㄴㅇㅡㄴ</w>": 20892,
  ",..</w>": 27231,
  "ㅅㅛㅂ</w>": 9857,
  "ㅂㅗㄱㅗㅅㅓ</w>": 3307,
  "ㄱㅐㅎㅚ": 28592,
  "ㅈㅣㄴㅈㅜ</w>": 18060,
  "ㅂㅏㄷㅇㅏㄷㅡㄹㅇㅕ": 19461,
  "ㄱㅗㅇㅇㅝㄴ</w>": 4376,
  "ㅈㅓㄴㅎㅏㄱㅗ</w>": 13703,
  "ㄴㅗㄷㅗㅇㅈㅏ": 24665,
  "DP</w>": 28326,
  "ㅅㅏㅇㅅㅔㅍㅔㅇㅣㅈㅣ</w>": 23845,
  "2011": 29115,
  "ㄴㅏㅇㅗㄴㅡㄴㄷㅔ</w>": 16909,
  "ost</w>": 11897,
  "ㅈㅣㅇㅕㄱㅇㅔㅅㅓㄴㅡㄴ</w>": 31347,
  "dd</w>": 28395,
  "ㅌㅜㅈㅏㅈㅏ</w>": 14002,
  "ㅅㅡㅌㅐㄴㅌㅡㄴㅇㅡㄴ</w>": 21164,
  "ㅂㅗㅎㅓㅁㄹㅛ</w>": 13550,
  "ㄱㅓㅅㅇㅣㄹ</w>": 17877,
  "ㅈㅏㅇㅅㅏ": 26926,
  "ㄱㅏㅁㄷㅗㄱㅇㅡㄴ</w>": 7495,
  "ㄲㅜㅁㅇㅡㄴ</w>": 18802,
  "ㅂㅓㅅㅡ": 8996,
  "v": 75,
  "ㅂㅜㄴㅂㅕㄹ": 16866,
  "ㄴㄷㅏㅁㅕㄴ</w>": 28650,
  "ㅁㅗㄱㅈㅓㄱㅇㅔ</w>": 18730,
  "ding</w>": 11672,
  "DIY</w>": 20482,
  "ㅋㅗㄴㅣ</w>": 15395,
  "ㅊㅏㅇㅇㅔㅅㅓ</w>": 9027,
  "ㅅㅡㅌㅗㄴ</w>": 10615,
  "!(</w>": 23322,
  "ㅇㅛㅈㅡㅁㅇㅡㄴ</w>": 9167,
  "ㅊㅓㄹㅇㅣ</w>": 22641,
  "ㄱㅣㅎㅜㅇㅔ</w>": 17043,
  "ㅈㅣㄷㅗㅈㅏ</w>": 15347,
  "1ㅇㅓㄱ": 12875,
  "ㅁㅣㄲㅡㄹㅓ": 20534,
  "R": 42,
  "ㅇㅣㅂㄹㅕㄱㅎㅏㅁㅕㄴ</w>": 24679,
  "ㅂㅜㄱㅎㅏㄴㅇㅡㄴ</w>": 14169,
  "ㅃㅓㄷ": 14519,
  "ㅁㅣㄷㅣㅇㅓ": 3503,
  "ㅈㅣㅂㅇㅏㄴ": 24674,
  "umber</w>": 21310,
  "ㅍㅡㄹㅗㄱㅡㄹㅐㅁㅇㅣㄷㅏ</w>": 28218,
  "ㄱㅗㅅㅇㅡㄹ</w>": 4617,
  "ㅂㅓㅂㅇㅣㄷㅏ</w>": 23009,
  "ㅎㅐㅈㅜㅅㅣㄱㅗ</w>": 20889,
  "ㅇㅟㄹㅗ</w>": 3067,
  "ㅋㅏㄹㅡㄹ": 17015,
  "ㄴㅗㅂㅔㄹ": 20521,
  "ㅈㅜㄱㅇㅣㄴㅡㄴ</w>": 28290,
  "ㄱㅘㅇㅂㅓㅁ": 12527,
  "ㄴㅜㅂㅣ": 21486,
  "ㅂㅔㅇㅣㅂㅣ": 15541,
  "ㄱㅗㄷㅗㄱㅏ</w>": 16201,
  "ㅎㅗㄹㅡㅁㅗㄴ</w>": 18551,
  "ㄷㅣ": 458,
  "ㅎㅘㅇㅣㅌㅡ</w>": 5856,
  "ㄱㅓㅅㄷㅡㄹㅇㅡㄹ</w>": 6921,
  "ㅝㄴㅇㅢ</w>": 23084,
  "ㄱㅘㄴㄹㅣㄱㅏ</w>": 14016,
  "ㅇㅏㅈㅓㅆㅣ</w>": 17789,
  "ㄷㅚㅁ</w>": 4952,
  "ㄷㅗㅇㅇㅝㄴ": 10091,
  "ㅅㅓㄹㅌㅏㅇ</w>": 23285,
  "ㄴㅏㅇㅗㄹ</w>": 5778,
  "ㅈㅜㄱㅈㅣ</w>": 25436,
  "ㄱ</w>": 149,
  "ㅇㅟㄱㅣ</w>": 8133,
  "ㅁㅏㄴㅈㅗㄱ</w>": 14351,
  "86": 20007,
  "ㅍㅏㄴㅈㅓㅇ": 29487,
  "ㅇㅛㅇㅇㅕㄱ</w>": 22647,
  "ㅅㅣㅂㅡ</w>": 22819,
  "ack": 5920,
  "ㅇㅣㅇㅠㄴ": 16724,
  "ㅅㅣㄹㅁㅏㅇ": 8804,
  "ㅈㅏㄴ": 1321,
  "ㄱㅗㅁㅣㄴㅎㅏㄱㅗ</w>": 18270,
  "ㅅㅗㄷㅡㄱ": 4089,
  "ㅂㅐㅁ": 17397,
  "ㅎㅏㄴㄱㅡㄹㄹㅗ</w>": 28939,
  "ㅎㅘㅁㅜㄹ": 16044,
  "ㅇㅠㅎㅢ": 27174,
  "Su": 13079,
  "ㅌㅏㄹ</w>": 4092,
  "C": 27,
  "ㅂㅜㅌㅇㅓ</w>": 12314,
  "ㅅㅓㅇㅎㅑㅇㅇㅡㄹ</w>": 28053,
  "ㅌㅣㅅㅡ</w>": 19936,
  "Box</w>": 23365,
  "ㅈㅣㄴㅁㅕㅇ</w>": 27419,
  "ㄹㅣㅅㅡㅌㅣㅇ</w>": 22177,
  "ㄷㅐㅊㅐㄱㅇㅣ</w>": 30529,
  "ㅂㅐㅇㅜㄹ": 12462,
  "ㅇㅗㅁㅏㅇㅣㄴ": 26948,
  "ㅁㅗㅅㅎㅐㅆ": 16003,
  "ㅇㅟㄱㅣㅇㅢ</w>": 23420,
  "ㅈㅓㅁㅅㅓㄴㅇㅡㄴ</w>": 19037,
  "ㅁㅗㅇㅑㅇㅇㅢ</w>": 15831,
  "ㄷㅓㄹㅏㅁㅕㄴ</w>": 16705,
  "ㅅㅓㄹㅈㅓㅇㅎㅏㄹ</w>": 11083,
  "ㄱㅏㅁㅅㅏㄹㅡㄹ</w>": 15563,
  "ㅅㅓㅇㅈㅣㄱ": 31604,
  "7": 19,
  "ㅈㅓㄴㅁㅜㄴㅇㅢ</w>": 25328,
  "on": 790,
  "ㄱㅏㄹㄲㅏ</w>": 26848,
  "ㅍㅔ</w>": 3103,
  "ㅇㅕㅇㅅㅜㅈㅡㅇ</w>": 22242,
  "ㄷㅏㄴㅎㅗ": 23072,
  "ㅇㅖㅃㅡㄴ</w>": 6944,
  "ㅎㅘㅇㅛ": 32726,
  "ㅅㅜㄴㄹㅖ": 25649,
  "ㅇㅕㄹㅈㅓㅇㅇㅡㄹ</w>": 19473,
  "ㅊㅗㄷㅡㅇ</w>": 21297,
  "ㅇㅠㅇㅏㅇ": 16713,
  "ㅎㅏㄹㄸㅐ</w>": 8176,
  "ㅇㅣㄹ</w>": 434,
  "ㅈㅓㅇㅂㅗㄱㅗㅇㅇㅠ": 30480,
  "ㄱㅣㅎㅜㄹㅡㄹ</w>": 16527,
  "3ㅎㅗ</w>": 20413,
  "ㅔㅅ": 23877,
  "ㄱㅏㄴㅍㅏㄴ</w>": 27792,
  "7ㅍㅔㅇㅣㅈㅣ</w>": 5119,
  "ㅇㅡㄹㄸㅐ</w>": 7336,
  "ㅎㅐㅂㅗㅂㄴㅣㄷㅏ</w>": 18912,
  "ㄱㅏㅇㅈㅗㅎㅏㄴㅡㄴ</w>": 21072,
  "RC</w>": 24328,
  "ㄱㅐㅇㅣㄴㅈㅓㄱ</w>": 17054,
  "ㅁㅏㄴㅇㅑㄱ</w>": 3095,
  "360</w>": 24088,
  "ㅌㅜㅈㅏㅇㅠ": 28201,
  "ㅎㅏㄴㄱㅏ</w>": 11016,
  "ㅅㅓㅇㅅㅏㄴ": 28898,
  "ㅎㅜㄾ": 30765,
  "ㅋㅏㅌㅡㄹㅣ": 31138,
  "ㅚ</w>": 164,
  "ㅈㅓㅇㄷㅗㅇ": 7626,
  "ㄱㅣㅊㅜㄹㅁㅜㄴㅈㅔ</w>": 31074,
  "ol": 1814,
  "ㅇㅓㅇㅜㄹㄹㅣㅈㅣ</w>": 30599,
  "ㅅㅣㅁㄷㅗ</w>": 19362,
  "Mc": 22069,
  "ㅌㅔㅅㅡㅌㅡ": 7363,
  "ㅅㅡㅋㅓ": 10684,
  "ㅂㄷㅏ</w>": 6559,
  "ㅎㅛ": 953,
  "ㅊㅐㄱㅇㅣㅁㅇㅡㄴ</w>": 3874,
  "ㅇㅐㅍㅡㄹㅇㅢ</w>": 19050,
  "ㄹㅏㄴㅣ</w>": 31022,
  "ㄴㅐㅁㅅㅐ</w>": 15592,
  "ㅈㅔ1": 4158,
  "9ㅎㅚ</w>": 23964,
  "ㄱㅜㄱㅇㅡㄹ</w>": 6787,
  "ㅅㅗㄴㅅㅟㅂㄱㅔ</w>": 10584,
  "ㅇㅕㅇㅑ": 26546,
  "ㅇㅟㅂㅏㄴㅎㅏㄴ</w>": 26371,
  "ㄱㅏㄱㅣ</w>": 2753,
  "ㅇㅕㄷㅡㄹ": 13957,
  "ㅎㅘㄱㄱㅗㅎㅏㄴ</w>": 31551,
  "ㅈㅓㅈㅏㅇ": 2629,
  "ㅇㅛㅋㅗ": 30227,
  "non</w>": 29598,
  "ㅊㅏㅁㄱㅗ": 2047,
  "ㅇㅕㅎㅗㅇ": 8884,
  "ㅈㅜㅇㅔ</w>": 6042,
  "ㅁㅏㄶㅇㅡㅁㅕㄴ</w>": 29155,
  "ml": 14598,
  "ㄷㅓㅂㅜㄹㅇㅓㅁㅣㄴㅈㅜㄷㅏㅇ</w>": 14301,
  "ㅇㅓㅂㅇㅔ</w>": 19207,
  "ㅇㅏㄶㅈㅣㅁㅏㄴ</w>": 6297,
  "ㅍㅕㄴㅇㅢㄹㅡㄹ</w>": 10356,
  "ㅎㅘㄷㅚㄱㅗ</w>": 16722,
  "ㄱㅣㅇㅝㄴ</w>": 16315,
  "ㅂㅗㄴㅅㅓㄴ</w>": 26203,
  "IA</w>": 10788,
  "indow": 3727,
  "ㅇㅔㄴㅓㅈㅣㄱㅏ</w>": 23276,
  "ㅅㅏㅇㅇㅡㄹㅗ</w>": 5154,
  "ㅍㅏㄴㅌㅏㅈㅣ": 23710,
  "ㅈㅓㄴㅁㅜㄴㄱㅏㄱㅏ</w>": 17945,
  "ㅁㅣㄷㅇㅡㅁㅇㅡㄹㅗ</w>": 24482,
  "ㅂㅡㄹㄹㅜㅌㅜㅅㅡ</w>": 10342,
  "ㅁㅔㄴㅠㄱㅏ</w>": 15721,
  "ㄱㅐㅈㅓㅇㄷㅚㄴ</w>": 32736,
  "ㄷㅠㅇㅓㄹ</w>": 20075,
  "ㄹㅣㅅㅡㅋㅡ": 31586,
  "Pub": 21977,
  "ㅇㅝㄴㅂㅗㄴ": 20241,
  "ual": 27035,
  "ㅅㅓㅇㅅㅜㄱㅎㅏㄴ</w>": 6529,
  "ㅅㅗㅂㅣㅈㅏㄷㅡㄹㅇㅢ</w>": 22130,
  "ㅅㅔㅇㅝ": 5362,
  "ㅌㅏㅁㅈㅓㅇ</w>": 30950,
  "ㄱㅜㄱㅎㅏㄴ": 22146,
  "ㅎㅘㄹㄷㅗㅇㅇㅡㄴ</w>": 16974,
  "pp": 10415,
  "Java": 20955,
  "ㅂㅐㄱㅣ</w>": 29012,
  "ㅈㅓㄴㄹㅣㅂ": 24557,
  "ㄷㅐㅎㅏㄴ</w>": 601,
  "ㅈㅓㄴㅊㅔㄱㅣㅅㅏ</w>": 32237,
  "ㅊㅚㅎㅜㅇㅢ</w>": 18576,
  "ㅂㅜㅍㅐ": 16685,
  "ㅈㅜㅅㅣㄱ": 5044,
  "Xbox</w>": 29103,
  "ㄱㅐㅂㅗㅇ</w>": 15402,
  "ern</w>": 11274,
  "ㄴㅏㅌㅡㄹ": 25177,
  "ㅂㅣㄱㅛㅎㅐ</w>": 15255,
  "ㅂㅗㅇㅏㅆㄷㅏ</w>": 5725,
  "ㄷㅐㅎㅏㄱㅇㅔㅅㅓ</w>": 15350,
  "ㄸㅡㄱ": 30303,
  "ㅇㅣㅇㅣㄱㅇㅡㄴ</w>": 29553,
  "ㄱㅗㄱ": 728,
  "ㅎㅐㄴㅐㄴ</w>": 31008,
  "ㄱㅖㄱㅣㄹㅗ</w>": 13327,
  "ㄴㅏㄱㅔ</w>": 5882,
  "ㅍㅣㅅㅡ</w>": 4732,
  "ㅇㅓㅂㄱㅖㅇㅔㅅㅓ</w>": 23428,
  "ㅍㅔㅇㅣㅈㅣㅇㅣㅂㄴㅣㄷㅏ</w>": 22849,
  "ll</w>": 24748,
  "ㅇㅣㅁㅗ</w>": 24521,
  "ㅇㅟㅈㅔㅅ</w>": 28856,
  "ㅋ": 108,
  "ㅎㅏㄹㅇㅣㄴ": 6462,
  "ㄱㅏㅈㅣㄹㅗ</w>": 10034,
  "ㅅㅐㅇㅅㅐㅇㅎㅏㄱㅔ</w>": 27441,
  "ㅇㅣㅆㅇㅓㅆㅇㅡㅁㅕ</w>": 20515,
  "ㅍㅣㄹㅇㅛ": 799,
  "s</w>": 190,
  "AA</w>": 27323,
  "ㄷㅚㅇㅓㄷㅗ</w>": 26872,
  "ㅍㅡㅇㅔ</w>": 21990,
  "ㄱㅡㅂㅜㄴㅇㅢ</w>": 23547,
  "ㄷㅏㄹㄹㅣㄹ</w>": 27250,
  "ㄴㅕㄴㅇㅝㄹ": 14730,
  "ㄹㅏㄱㅗ": 31934,
  "ㅇㅏㅂㅏㄴ": 24556,
  "ㄴㅜㄱㅜㄴㄱㅏㅇㅢ</w>": 22682,
  "ㄱㅗㄴㅊㅜㅇ": 24792,
  "ㄱㅘㄴㅎㅏㄹ": 18152,
  "ㅎㅐㅈㅜㅅㅕㅇㅑ</w>": 28215,
  "ㄲㅐㄷㅏㄷ": 7713,
  "ㅈㅗㄱㅣ</w>": 11152,
  "ㅅㅏㄴㅡㄴ</w>": 1132,
  "ㅅㅔㅂㅡㄴ": 13374,
  "ㅂㅏㄷㅏㄹㅡㄹ</w>": 17998,
  "ㅁㅓㅁㅊㅜㄱㅗ</w>": 31003,
  "ㅍㅠ": 1439,
  "ㅇㅜㄴㄷㅗㅇㅈㅏㅇ</w>": 32718,
  "ㅅㅓㅇㅈㅓㄱㅇㅡㄴ</w>": 21017,
  "es": 1294,
  "ㄱㅕㅇㅎㅓㅁㅇㅡㄹㅗ</w>": 31421,
  "ㅘㅅㅓ</w>": 8846,
  "ㅁㅜㄲ": 6472,
  "ㅂㅏㄱㄱㅕㅇ": 23087,
  "ㅌㅓㅋㅣ</w>": 12967,
  "ㄱㅝ": 20111,
  "ㅇㅗㄹㅡㄴㅉㅗㄱㅇㅡㄹㅗ</w>": 30216,
  "ㅇㅣㅈㅇㅓ": 14114,
  "ㅅㅜㄹㅣㅂ": 10598,
  "ㄱㅕㄹㄹㅗㄴㅈㅓㄱㅇㅡㄹㅗ</w>": 31578,
  "ㅈㅔㄹㄹㅣ</w>": 31293,
  "ㅂㅜㄱㅘ": 9440,
  "ㅇㅕㄴㄱㅜ": 1208,
  "ㅇㅏㅅㅏㄴ": 19702,
  "ㅂㅏㄹㅈㅓㄴㅇㅢ</w>": 20549,
  "ㅈㅣㅍ": 9914,
  "ㅎㅘㄹㅇㅛㅇ": 1747,
  "ㄷㅡㄹㅇㅢ</w>": 755,
  "ㅇㅕㅂ": 7573,
  "ㅂㅏㄷㅇㅏㅇㅑ</w>": 7428,
  "Sec": 13223,
  "os</w>": 4994,
  "8ㄴㅕㄴ": 25645,
  "ㅌㅏㅈㅏㄴㅡㄴ</w>": 27776,
  "2008ㄴㅕㄴ</w>": 6876,
  "ㅈㅏㅁㅜㄴ</w>": 27588,
  "ㄹㄹㅣㅁ": 23214,
  "ㅋㅗㄱ</w>": 12164,
  "ㅎㅐㅇㅈㅓㅇㅇㅏㄴㅈㅓㄴ": 31794,
  "ㅈㅏㅈㅜㅎㅏㅅㅣㄴㅡㄴ</w>": 30373,
  "ㅅㅡㅋㅣㄹ": 16440,
  "Porno</w>": 11585,
  "ㅑㄱ</w>": 9350,
  "ㅁㅔㅌㅏ</w>": 26692,
  "ㅂㅜㅅㅡ</w>": 18720,
  "98</w>": 20622,
  "ㅍㅔㅇㄱㅟ": 32452,
  "ㅁㅣㅅㅡㅌㅓ</w>": 26334,
  "ㅁㅝㄴㅑ</w>": 24057,
  "ㄱㅗㅅㅏ</w>": 12666,
  "ㄱㅏㄴㄱㅕㄱ</w>": 27226,
  "3ㄴㅕㄴㅇㅔ</w>": 30289,
  "ㅂㅏㅇㅇㅔ</w>": 6056,
  "1ㄴㅕㄴㅇㅡㄹ</w>": 27967,
  "ㄴㅡㄲㅣㅂㄴㅣㄷㅏ</w>": 29562,
  "ㄹㅔㅋㅡㄹㅣㅇㅔㅇㅣ": 25884,
  "29": 2815,
  "ㄳ</w>": 254,
  "ㅇㅐㅇㅋㅓ</w>": 22619,
  "ㅋㅓㄹ</w>": 5180,
  "ㅍㅏㄴㄷㅏㄴㅎㅏㄹ</w>": 24176,
  "ㄱㅗㄱㅇㅡㄹ</w>": 10350,
  "ㄷㅐㅌㅗㅇ": 1355,
  "ㄱㅣㄹㄹㅓ": 22304,
  "ㅁㅜㄷㅇㅓ": 27826,
  "ㅅㅓㄴㅂㅏㄱ": 21006,
  "ㄱㅓㅊㅣㅁ": 32425,
  "ㅁㅜㄴㅈㅔㄷㅏ</w>": 18654,
  "ㅎㅑㅇㅅㅏㅇ</w>": 11121,
  "ㅇㅐㄴㅓㄹ</w>": 6562,
  "ㄴㅣㅁㅇㅡㄴ</w>": 4313,
  "ago": 17911,
  "ㄷㅏㅇㅣㅂㅣㅇ": 30639,
  "ㄱㅡㅁㅇㅠㅇ</w>": 7142,
  "fuc": 5085,
  "if": 4471,
  "ㅃㅏㄹㄱㅏㄴㅁㅓㄹㅣ</w>": 22318,
  "ㅅㅡㄹㅗ</w>": 2005,
  "ㅈㅣㄴㄹㅛ</w>": 18760,
  "ㄱㅏㅈㅓㅇㅇㅣ</w>": 26287,
  "ㅁㅔㄱㅏ</w>": 19580,
  "ㅇㅏㅍㅡㄱㅗ</w>": 28583,
  "ㄱㅘㄴㄹㅕㄴㅎㅏㄴ</w>": 8032,
  "ㅇㅜㅅㅏㄴ</w>": 28356,
  "ㅇㅗㄹㅎㅐㅇㅢ</w>": 15772,
  "Vporn</w>": 29812,
  "ㅈㅜㄱㅇㅡㅁㅇㅔ</w>": 24518,
  "Rem": 21498,
  "39</w>": 7476,
  "ㄷㅔㅅㅡㅋㅡㅌㅏㅂ</w>": 25090,
  "ㅂㅐㅌㅓㄹㅣㄱㅏ</w>": 29442,
  "ㅋㅏㄹㄹㅏ": 27540,
  "ㄱㅣㅇㅜㄹㅇㅕ</w>": 30072,
  "ㄱㅣㄱㅏㄴㅇㅔ</w>": 7870,
  "ㅅㅓㄱㅇㅡㄹ</w>": 4181,
  "ㅇㅣㄹㅊㅣ": 7177,
  "Sh": 2967,
  "ㄹㅗㅁㅏㄴ</w>": 9225,
  "ㅈㅓㅇㄷㅗㄴㅡㄴ</w>": 7596,
  "ㅈㅏㄱㅇㅓㅂㅇㅡㄹ</w>": 3730,
  "ㄱㅐㅇㅣㄴ</w>": 2458,
  "ㅇㅕㅈㅏㄷㅡㄹㅇㅣ</w>": 28652,
  "ㅍㅡㄹㄹㅐㄴ</w>": 26134,
  "ㅌㅐㅇㅑㅇㅇㅢ</w>": 12443,
  "ㅇㅢㅁㅣㄱㅏ</w>": 6587,
  "ㅅㅡㅁㅕ": 28969,
  "ㅇㅣㅂㅓ</w>": 9583,
  "ㅕㄴㅅㅓㄷㅗ</w>": 4434,
  "ㅂㅇㅢ</w>": 22603,
  "ㅎㅘㄹㄱㅣ": 26912,
  "ㄴㅐㅇㅓ</w>": 12252,
  "ㅁㅜㄴㅈㅏ": 9755,
  "ㅌㅠㄴㅣㅇ": 31900,
  "ㄱㅏㅁ</w>": 1517,
  "ㄴㅏㅈㅜㅇㅇㅔ</w>": 4699,
  "ㅅㅡㄹㄹㅣㅇ</w>": 26430,
  "ㄱㅐㅈㅓㅇㅇㅡㄹ</w>": 30494,
  "ㅅㅣㄴㅂㅜ": 16421,
  "ㅍㅕㅇㄱㅏㅎㅏㄴㅡㄴ</w>": 20818,
  "ㅎㅘㄴㅂㅜㄹ": 7629,
  "110": 12940,
  "ㅈㅐㅎㅘ": 31339,
  "52": 12031,
  "ㄱㅓㅁㅅㅏ": 7924,
  "ㅎㅏㄱㅇㅝㄴ": 10821,
  "ㅎㅏㄱㅅㅐㅇㅇㅣ</w>": 10954,
  "ㄷㅗㅇㅛㅇ": 18810,
  "ㅇㅏㄲㅏ": 17090,
  "ㄱㅜㄱㅡㅂ": 31434,
  "ㄱㅜㄱㅅㅜㅈㅣㅂ</w>": 28400,
  "ㅇㅢㄹㅠ</w>": 12769,
  "ㅂㅜㅌㅏㄱㄷㅡㄹㅣㅂㄴㅣㄷㅏ</w>": 4382,
  "ㅎㅏㅈㅏㄱㅗ</w>": 18875,
  "ㅌㅏㅇㅣㄱㅓ": 24380,
  "ㅅㅣㄹㅣㅈㅡㅇㅢ</w>": 19784,
  "](</w>": 21413,
  "ㄷㅜㄹㅉㅐ": 13921,
  "ㅁㅏㄹㅇㅣㅂㄴㅣㄷㅏ</w>": 8506,
  "ㅈㅣㄷㅏ</w>": 13971,
  "ㅇㅑㅇㅇㅡㄹ</w>": 8386,
  "ㅇㅠㄴㄹㅣ": 7277,
  "ㅇㅣㄹㄱㅘㅇ</w>": 8650,
  "ㅈㅏㄷㅗㅇㅊㅏㄱㅏ</w>": 23726,
  "ㅂㅜㅂㅜㄴ</w>": 2217,
  "ㄱㅜㅎㅕㄴㅎㅏㄹ</w>": 26564,
  "ㅗㄴ": 1464,
  "ㅍㅣㄹㄷㅡ</w>": 9324,
  "ㄱㅣㄱㅘㄴ</w>": 3541,
  "ㅋㅏㄹㅣ": 11049,
  "ㅇㅣㄴㄱㅗㅇ": 2969,
  "ㅇㅠㄹㅡㄹ</w>": 9716,
  "ㄱㅡㄹㅐㄴㄷㅡ": 17598,
  "ㅇㅣㅇㅠㄷㅗ</w>": 17182,
  "ㅇㅢㄹㅛ</w>": 8238,
  "ㅊㅏㅇㅘ</w>": 11156,
  "ㄱㅣㄱㅏㄴㅇㅡㄹ</w>": 8264,
  "ㅍㅣㄱㅇㅡㄹ</w>": 14565,
  "ㄸㅡㄴㅡㄴ</w>": 8026,
  "ㅈㅏㅇㅇㅔㄴㅡㄴ</w>": 29636,
  "000": 1999,
  "ㄱㅡㄱㄷㅏㄴ</w>": 28021,
  "ㅈㅜㅇㅇㅏㅇ</w>": 10340,
  "ㅅㅜㅇㅣㅂ</w>": 8293,
  "ㅍㅏㄴ": 653,
  "ㅁㅗㄱㅍㅛㄹㅗ</w>": 8513,
  "ㄴㅇㅡㄹ</w>": 1285,
  "ㅈㅣㄴㅎㅐㅇㅇㅡㄹ</w>": 17940,
  "ㅇㅗㄷㅣㅅㅕㄴ</w>": 18823,
  "ㅅㅡㅍㅣ": 2602,
  "ㅁㅐㅊㅜㄴ": 12485,
  "ㅅㅏㅁㅕㅇ": 25430,
  "ㅇㅏㄷㅡㄹㅇㅢ</w>": 19126,
  "ㄹㅏㅇㅣㅈㅔㄴ</w>": 30496,
  "ㄷㅐㅍㅛㄱㅏ</w>": 13776,
  "ㅠㅁ": 23324,
  "ㅌㅗㄷㅐㄹㅗ</w>": 12154,
  "ㅂㅏㅇㅣ</w>": 6844,
  "ㄷㅔㅅㅡ": 25510,
  "ㅂㅐㅇㅜㄱㅗ</w>": 9228,
  "ㅇㅣㅀㅇㅡㄴ</w>": 13653,
  "ㅇㅑㄷㅡ</w>": 18882,
  "ㅍㅏㄴㅌㅏ": 6183,
  "ㅎㅢㅁㅏㅇㅇㅡㄹ</w>": 10517,
  "21ㅇㅣㄹㅇㅔ</w>": 20155,
  "ㄱㅏㄹㅏㅇㅏ": 22640,
  "und</w>": 23190,
  "ㄱㅜㅎㅏㅅㅔㅇㅛ</w>": 17683,
  "ㅂㅏㄱㅅㅏㅇ": 17809,
  "ox</w>": 17234,
  "ard": 5732,
  "ㅈㅐㄷㅏㄴ": 18428,
  "GF": 25034,
  "ㅈㅜㅇㅠ": 20495,
  "ㅅㅡㅇㅇㅣㄴㅇㅡㄹ</w>": 15467,
  "ㅇㅡㄹㅗㅅㅓㄴㅡㄴ</w>": 22510,
  "ㅎㅏㄹㅁㅓㄴㅣ</w>": 6801,
  "ㅇㅣㅁㅕㄴㅅㅓㄷㅗ</w>": 24491,
  "tv</w>": 11323,
  "ㅈㅓㄴㅈㅐㅇㄱㅘ</w>": 32115,
  "ㄷㅡㄹㅇㅓㄱㅏㄴ</w>": 10179,
  "ㅎㅛㄱㅘㄴㅡㄴ</w>": 15487,
  "ㅍㅣㅎㅏㄴㅡㄴ</w>": 17436,
  "ㅍㅡㄹㄹㅏ": 4224,
  "ㅎㅏㅂㅇㅢ": 6735,
  "ㄹㄹㅔ": 2922,
  "ㅈㅣㅎㅖ": 7729,
  "ㅊㅗㅇㅔㅅㅓ</w>": 15099,
  "ound": 22374,
  "ㅈㅗㅇㅣ</w>": 13397,
  "ㄱㅘㅈㅓㅇㅇㅡㄹㅗ</w>": 22787,
  "ㄱㅔㅅㅣㅁㅜㄹ</w>": 2071,
  "ㄷㅡㄹㅇㅕ": 8033,
  "ㅅㅗㅅㅏㅇ": 28935,
  "ㅂㅜㄹㅡㄱㅗ</w>": 22445,
  "ㄱㅗㅇㄱㅕㄱㅇㅡㄹ</w>": 11649,
  "ㄱㅡㄴㅏ": 24915,
  "ㅇㅣㅌㅡㄹ</w>": 13826,
  "ㄱㅐㅎㅕㄱ</w>": 10215,
  "ㅇㅕㄱㅇㅡㄹㅗ</w>": 13599,
  "ㄱㅏㅁㅅㅏㅇ</w>": 12503,
  "ㅇㅏㅁㅇㅡㄹ</w>": 22774,
  "ㄷㅓㄱㅇㅡㄹ</w>": 29484,
  "ㅈㅗㅅㅓㅇㅇㅡㄹ</w>": 28575,
  "ㅈㅔㅍㅜㅁㄷㅡㄹㅇㅡㄹ</w>": 31084,
  "ㅇㅣㄹㅎㅏㄴㅡㄴ</w>": 8331,
  "ㅎㅣㅈㅣ</w>": 16212,
  "ㄹㅣㅇㅓㄹ": 7419,
  "ㄴㅓㄴㅡㄴ</w>": 6777,
  "ㅇㅣㄴㅌㅔ": 4054,
  "ㅎㅐㅂㅗ": 2009,
  "ㄷㅏㄴㅇㅟㅇㅢ</w>": 23758,
  "ㅋㅏㅇㅢ</w>": 12201,
  "ㅇㅕㅌㅏ</w>": 29331,
  "ㅍㅡㄹㅏㅇㅅㅡ": 8319,
  "ㄲㅗㄹ</w>": 15575,
  "ㅋㅙㅈㅓㄱ": 12403,
  "ㅎㅠㄱㅏㅈㅣ</w>": 31416,
  "yth": 18692,
  "ㅎㅘㅅㅏㄴ": 31479,
  "ㅂㅗㅇㅕㅈㅜㅂㄴㅣㄷㅏ</w>": 7533,
  "Language</w>": 18327,
  "ㅋㅗㄴㅌㅔㄴㅊㅡㄴㅡㄴ</w>": 15889,
  "Live</w>": 21899,
  "ㅅㅗㅅㅕㄹㄱㅡㄹㅐㅍㅡㄱㅔㅇㅣㅁ</w>": 6931,
  "ㅇㅗㄹㅡㄱㅏㅅㅡㅁ</w>": 18683,
  "ㅇㅣㅀㅇㅡㄹ</w>": 28103,
  "ㅁㅗㅎㅓㅁ</w>": 24387,
  "ㅂㅏㅇㅇㅟ</w>": 27898,
  "ㄷㅏㅁㄱㅗ</w>": 9391,
  "ㅂㅗㄴㅇㅣㄴㅇㅢ</w>": 7448,
  "ㅅㅗㄹㅣㅇㅘ</w>": 26785,
  "ㄷㅐㅅㅏ": 10173,
  "ㄷㅏㅇㅈㅏㅇ</w>": 6684,
  "ㅇㅡㄹㅗ": 842,
  "ㄸㅡㄱㅓ": 3077,
  "ㅅㅏㄴㄷㅏㄴㅡㄴ</w>": 27819,
  "ㅇㅣㅁㅅㅏㅇ": 10084,
  "Chapter</w>": 21011,
  "ㄷㅗㄱㅅㅓ</w>": 14140,
  "ㅎㅘㄱㅇㅣㄴㅎㅐㅇㅑ</w>": 25019,
  "ㅈㅔㄱㅗㅇㅎㅏㄹ</w>": 7417,
  "ㅅㅐㅇㅅㅓㅇㄷㅚㄴ</w>": 24997,
  "ㅅㅜㅅㅜㄹㅇㅡㄹ</w>": 10761,
  "ㅏㅁㅏ</w>": 3545,
  "ㅁㅜㄲㅇㅕ</w>": 27932,
  "ㅇㅡㄴㅎㅐㅇㄱㅘ</w>": 32637,
  "ㅈㅓㄱㅇㅛㅇㅎㅏㄱㅗ</w>": 28848,
  "ㅈㅗㅇㅎㅏㅂ</w>": 6697,
  "ㄹㅓㄹ</w>": 21886,
  "ㅆㅏㅎㅇㅣㄴ</w>": 23010,
  "ㅅㅣㄹㅅㅣㄱㅏㄴㅇㅡㄹㅗ</w>": 10676,
  "9ㅇㅣㄹ</w>": 5708,
  "ㅈㅡㅇㅎㅜ": 11612,
  "ㄹㅐㅇㅋㅡ</w>": 18147,
  "ㄴㅏㅁㅂㅜ": 16763,
  "ㅈㅏㅇㄹㅐ": 30669,
  "ㅎㅜㅂㅗㄴㅡㄴ</w>": 15380,
  "ㅇㅏㄶㅇㅡㅁㅕㄴ</w>": 3528,
  "ost": 15105,
  "ㅈㅓㅇㄷㅗㅇㅣㅂㄴㅣㄷㅏ</w>": 25385,
  "bian</w>": 30562,
  "ㅎㅏㄴㅏㄷㅏ</w>": 17611,
  "ㅇㅜㄱ</w>": 1607,
  "ㅊㅜㄹㅍㅏㄴ</w>": 12752,
  "ㅇㅣㅇㅑㄱㅣㅎㅏㄱㅗ</w>": 24630,
  "ㅁㅏㄱㅎㅏㄴ</w>": 22626,
  "ㅂㅜㅊㅓ": 8003,
  "ㅇㅣㅂㅡ": 9404,
  "right</w>": 15998,
  "ㅎㅠㄷㅐ": 2914,
  "ㄱㅗㄱㅐ": 8137,
  "ㅇㅢㄱㅕㄴ": 2696,
  "ㅅㅕㅆㄴㅡㄴㄷㅔ</w>": 20182,
  "ㄱㅛㅂㅗㅁㅜㄴ": 2990,
  "ㅈㅔㅊㅓㄹ": 29521,
  "110</w>": 22389,
  "ㅇㅠㄴㅈㅗㅇ": 31972,
  "ㄱㅘㄹ": 8610,
  "ily</w>": 16101,
  "ㅂㅜㅈㅣㄹㅓㄴ": 22078,
  "ㅂㅔㄴ</w>": 12510,
  "ㅁㅜㅊㅓㄱ</w>": 9377,
  "ㄲㅏㅈㅣㄷㅗ</w>": 6881,
  "ㅁㅗㄱ</w>": 1509,
  "ㄷㅏㅁㅕㄴ": 23118,
  "ument</w>": 27409,
  "ress</w>": 10827,
  "ㅎㅏㄴㅁㅣ": 8348,
  "ㄱㅡㄹㅏㅇㅜㄴㄷㅡ</w>": 16151,
  "ㅎㅡㅁ": 13665,
  "ㄴㅓㅁㅜ": 10910,
  "ㅍㅛㅅㅣㄷㅚㅂㄴㅣㄷㅏ</w>": 4391,
  "Tech": 16708,
  "ㅅㅏㅇㅛㅇㅇㅔ</w>": 7466,
  "ㅇㅘㄷㅗ</w>": 13950,
  "20ㄷㅐ": 30629,
  "les": 7452,
  "ㄱㅗㅇㅅㅣㄱ</w>": 3031,
  "ㅈㅓㄴㅌㅗㅇㅇㅡㄹ</w>": 25427,
  "ㄴㅡㄴㅂㅓㅂ</w>": 14116,
  "l</w>": 176,
  "ㅇㅛㅅㅐ</w>": 17678,
  "ㅇㅕㄹㅇㅡㄹ</w>": 8274,
  "ㅅㅣㄴㅎㅘ</w>": 14923,
  "ㅏㄹㅣ</w>": 8938,
  "ㅅㅓㄴㅇㅔㅅㅓ</w>": 10024,
  "GB</w>": 6373,
  "ㅇㅏㅁㅣ": 15430,
  "ㅈㅏㅈㅐ": 25584,
  "ㅈㅔ3ㅈㅗ</w>": 30022,
  "ㄷㅓㅁ": 6728,
  "ㅇㅏㄹㄹㅣㅁ": 15494,
  "din</w>": 15036,
  "ㅅㅣㄹㅍㅐㅎㅏㄴ</w>": 19318,
  "ㅁㅏㄹㄱㅘ</w>": 14801,
  "ㅇㅑㅇㅎㅕㄴ": 27778,
  "ㅈㅗㅎㄱㅔㅆㄴㅔㅇㅛ</w>": 23054,
  "ㄷㅡㄹㅣㅁㅕㄴ</w>": 31637,
  "km": 9399,
  "ㅍㅡㄹㄹㅏㅅㅡㅌㅣㄱ</w>": 10112,
  "ㅅㅣㄱㄱㅘ</w>": 11247,
  "ㄱㅗㅅㅐㅇㅇㅡㄹ</w>": 25960,
  "lic</w>": 15132,
  "ㅇㅣㅈㅓㅇ": 8292,
  "LCD</w>": 11635,
  "Du": 19352,
  "ㄱㅡㄹㅡㅅ": 21594,
  "ㄴㅓㅎㅢㄴㅡㄴ</w>": 21469,
  "ㄹㅕㅆㄷㅏ</w>": 2586,
  "51": 20078,
  "ㅎㅐㄱㅕㄹㅂㅏㅇㅇㅏㄴ</w>": 21915,
  "ㅂㅠㅌㅣ": 12812,
  "ㄸㅓㄱㅂㅗㄲ": 20065,
  "TVㄴㅡㄴ</w>": 30912,
  "ㅇㅠㅂㅜㄴ": 11477,
  "ㅎㅠㄱㅏ": 21716,
  "STA": 17124,
  "ㅅㅓㅇㄱㅗㅇㅈㅓㄱㅇㅡㄹㅗ</w>": 12501,
  "ㄱㅗㅇㅍㅗ": 13116,
  "ㅊㅚㅈㅐ": 29013,
  "ㅎㅐㅆㄱㅣㅇㅔ</w>": 21111,
  "ㅂㅗㄱㅈㅏㅂㅎㅏㄴ</w>": 8364,
  "ㄷㅗㅇㄴㅏㅁ": 13985,
  "ㄷㅗㄱ</w>": 2155,
  "ㅋㅣㅅㅡ": 23624,
  "ㅋㅏㅌㅗㄱ</w>": 20719,
  "ㅎㅏㄴㅎㅐ</w>": 12868,
  "ㅈㅏㅇㅝㄴㅇㅡㄹ</w>": 14956,
  "4ㅅㅣ</w>": 19256,
  "IT</w>": 3873,
  "ㅎㅜㅈㅣㄴ": 32459,
  "ㅈㅜㅎㅘㅇㅅㅐㄱ</w>": 16276,
  "ㅂㅓㅂㅇㅝㄴㅇㅔ</w>": 27463,
  "ㅍㅣㅅ</w>": 10008,
  "ㄱㅕㅇㅇㅕㅇㅈㅓㄴㄹㅑㄱ</w>": 21841,
  "ㅊㅏㅈㅇㅡㅅㅣㄹ</w>": 14674,
  "ㅌㅡㅇㅔㅅㅓ</w>": 6071,
  "ㅈㅗㅊㅣㄱㅏ</w>": 22692,
  "Microsoft</w>": 7021,
  "ㅍㅗㄱㅇㅡㄹ</w>": 20450,
  "ㅇㅓㅂㅊㅔㅇㅣㄴ</w>": 20030,
  "ㅅㅡㅌㅡㄹㅐㅂ</w>": 17507,
  "ㅅㅐㅁ": 4786,
  "ㅂㅔㅌㅡ": 3947,
  "ㅎㅘㄱㅅㅏㄴ</w>": 18599,
  "ㅍㅕㅇㅅㅗㅇㅔ</w>": 13293,
  "ㄴㅏㄹㅆㅣ": 7715,
  "ㅅㅗㄴㅏ</w>": 31154,
  "ㅇㅠㅈㅐㅅㅓㄱ</w>": 32673,
  "ㅛㅇ": 2000,
  "ㅂㅣㄱㅗㅇㄱㅐ</w>": 19155,
  "ㄴㅜㄴㅇㅏㅍㅇㅔ</w>": 23423,
  "ㅇㅠㄹㅣ</w>": 9026,
  "Chur": 32193,
  "ㅇㅣㄹㅇㅡㅋㅣㄴㅡㄴ</w>": 16127,
  "ㅈㅜㄴㅕㄴ</w>": 5233,
  "ㅇㅣㅈㅣㅇㅛ</w>": 9182,
  "ㅈㅏㄹㅣㅎㅏㄴ</w>": 16627,
  "ㄷㅏㅈㅓㅅㅡ": 28631,
  "ㅇㅠㅈㅣㅎㅏㄴㅡㄴ</w>": 14098,
  "ㅈㅣㅇㅇㅣ</w>": 15097,
  "lege</w>": 31208,
  "ㅍㅏㄹㅗ</w>": 15570,
  "ㄱㅏㅅㅏㅇㅎㅘㅍㅖ": 23844,
  "ㄱㅔㅅㅣㅍㅏㄴㅇㅡㄹ</w>": 25635,
  "ㅌㅡㄱㅎㅣ": 12633,
  "ㅅㅣㄱㅔㅆㅇㅓㅇㅛ</w>": 31068,
  "PDF": 26435,
  "ㄴㅡㄹㅏ</w>": 12784,
  "Back": 30401,
  "ㅂㅗㄱㅅㅜ": 18241,
  "ㅂㅜㄴㅇㅟㄱㅣㄴㅡㄴ</w>": 23609,
  "ㅎㅐㅇㅚㅈㅜㅁㅜㄴㄷㅗㅅㅓ</w>": 24847,
  "ㅂㅗㄴㅣㄲㅏ</w>": 8829,
  "ㅍㅣㄹㅅㅜ": 5557,
  "ㅇㅘㅇㅣㄴㅇㅡㄹ</w>": 29581,
  "ㅌㅏㄴㅇㅡㄹ</w>": 14362,
  "to</w>": 2272,
  "8ㅇㅣㄹ</w>": 6132,
  "ㅇㅣㅂㅇㅓㅆㄷㅏ</w>": 25010,
  "ㄴㅐㄴㄷㅏ</w>": 12777,
  "PG</w>": 10603,
  "ㅋㅣㅇㅜㄴㅡㄴ</w>": 14119,
  "ㄱㅏㅅㅗㄱ": 12915,
  "ㅁㅜㅎㅏㄴ": 4953,
  "ㅈㅣㅊㅜㄹ": 10776,
  "ㅇㅜㄴㅈㅓㄴ": 4681,
  "ㄱㅏㅅㅡㅁ</w>": 1338,
  "ㅎㅐㅈㅔ</w>": 13332,
  "ㄷㅐㅂㅕㄴ": 8928,
  "ㅇㅝㄹㄱㅏㄴ</w>": 17626,
  "al</w>": 1252,
  "ㅇㅣㄹㄱㅣ": 27221,
  "ㄹㅣㄱ": 2412,
  "ㅅㅏㅎㅚㄱㅗㅇㅎㅓㄴ": 31372,
  "ㅎㅗㅅㅡㅌㅣㅇ": 26447,
  "ㅈㅡㅇㄷㅐ": 25298,
  "ㄱㅣㅁㅈㅏㅇ": 22708,
  "ㄹㅔㅇㅣㅈㅓ</w>": 14551,
  "ㅊㅔㅈㅣㄹ": 23582,
  "ㅈㅜㄹㄱㅣ": 21434,
  "ㄱㅡㄹㅜㅂㅇㅡㄹ</w>": 15585,
  "ㅎㅚㅇㅝㄴㅈㅔ</w>": 32465,
  "ㅇㅣㄷㅗ</w>": 6314,
  "ㅋㅏㅈㅏ": 28771,
  "ㅈㅔㄴㅌㅔㅇㅣ": 13445,
  "ㅂㅓㅁㅇㅣ</w>": 27157,
  "ㅊㅕㄴ": 9687,
  "ㅂㅗㅈㅡㅇㅎㅏㅈㅣ</w>": 5086,
  "ㅅㅏㅁㅅㅓㅇㅇㅡㄴ</w>": 30369,
  "ㅂㅜㅌㅇㅣㄴㅡㄴ</w>": 26866,
  "ㅈㅓㅇㅇㅣ</w>": 2406,
  "ㅋㅡㄱㅣㅇㅘ</w>": 29917,
  "NAS": 21068,
  "ㅅㅜㅇㅛㄱㅏ</w>": 12255,
  "ㅁㅗㄳㅇㅡㄹ</w>": 25756,
  "we": 7331,
  "ㄷㅓㄱㅜㄴㅏ</w>": 19221,
  "ㅁㅏㄹㅎㅏㄴㄷㅏ</w>": 4744,
  "ㅇㅣㄴㅏㅁㅏ</w>": 20321,
  "ㅎㅠㅅㅡㅌㅓㄴ</w>": 27081,
  "200": 1007,
  "ㅅㅓㄲㅇㅓ</w>": 28700,
  "ㅇㅓㅇㅝ": 29149,
  "ㅈㅓㄴㅇㅔㄷㅗ</w>": 19276,
  "ㅊㅜㅊㅓㄴㅋㅗㄷㅡ</w>": 10878,
  "ㄷㅗㅇㅍㅗ</w>": 30341,
  "ㅇㅟㅋㅣ</w>": 18741,
  "ㅇㅏㄴㄴㅕㅇ": 2776,
  "ㅇㅣㄹㅈㅔ</w>": 21706,
  "ㅍㅏㄴㅇㅣ</w>": 9321,
  "ㅅㅏㄴㅅㅣ</w>": 13509,
  "ㄱㅛㅊㅔ": 6907,
  "ㄷㅏㄴㅕㅇㅗ": 21514,
  "ㅇㅏㄹㅇㅏㅂㅗㄴㅡㄴ</w>": 20102,
  "PART</w>": 32453,
  "ㅋㅗㅇㅢ</w>": 11972,
  "ㅂㅣㅍㅏㄴㅇㅡㄹ</w>": 19581,
  "ㅅㅜㄴㄱㅣㄴㅡㅇ</w>": 31488,
  "ㅈㅏㅁㄱㅡㅁ": 29295,
  "Pornhub</w>": 31326,
  "ㅅㅣㅇㄱㅏ": 6912,
  "ㅇㅣㅁㅣㅈㅣ</w>": 3040,
  "ㅇㅣㄴㄷㅔ": 13184,
  "ey": 9240,
  "ㄴㅗㅊㅜㄹ": 5196,
  "ㄹㅣㅁㅕ</w>": 19404,
  "ㄱㅠㅊㅣㄱㅇㅡㄹ</w>": 17519,
  "Io": 10348,
  "ㅅㅣㅍㅇㅡㅅㅣㄴ</w>": 32388,
  "ㅅㅏㄴㅈㅓㅇ</w>": 32127,
  "ㅊㅔㅇㅔ</w>": 7703,
  "Hotel</w>": 7770,
  "ㄱㅗㅇㄱㅏㄴ</w>": 3912,
  "ㅎㅛㄴㅡㅇ</w>": 28060,
  "ㄷㅏㅈㅓㅅㅡㄴㅡㄴ</w>": 29478,
  "ㅊㅟㄹㅡㄹ</w>": 25963,
  "ㅇㅏㄹㅌㅜ": 20072,
  "ㄱㅡㄹㅣㄴ</w>": 6074,
  "ㅂㅔㄹㅡㄹㄹㅣㄴ</w>": 19731,
  "ㅁㅗㅅㅣㄱㅗ</w>": 22686,
  "ㅈㅜㅇㅇㅛ</w>": 10586,
  "ㅁㅗㅇㅏ</w>": 8751,
  "ㄱㅏㅁㅈㅓㅇㅇㅢ</w>": 30203,
  "ㅇㅔㄱㅔㄴㅡㄴ</w>": 3234,
  "ㄴㅗㅍㅇㅕㅆㄷㅏ</w>": 29020,
  "?": 23,
  "ㅇㅗㄹㄹㅣㄱㅗ</w>": 9994,
  "ㅎㅏㅅㅣㄴㅡㄴ</w>": 2563,
  "ㅇㅣㅁㅕㄴㅅㅓ</w>": 10915,
  "ㄱㅗㅇㄱㅡㅂㅇㅡㄹ</w>": 30155,
  "ㅍㅓㅍㅗㅁㅓㄴㅅㅡ</w>": 24833,
  "ㄴㅏㅇㅣㅋㅣ</w>": 26561,
  "ㅍㅡㄱㅏ</w>": 9864,
  "ㅇㅣㅅㅏㄴㅎㅘ": 25442,
  "ㅂㅏㄱㄹㅏㅁㅎㅚ</w>": 13258,
  "ㅎㅏㅇㅔㅅㅓ</w>": 18280,
  "ㄱㅣㄴ": 2372,
  "ㅅㅓㅇㅅㅣㄹㅎㅏㄱㅔ</w>": 30933,
  "ㅂㅏㅇㅂㅓㅂ": 1053,
  "ㅈㅣㄴㅅㅣㄹㅇㅡㄹ</w>": 16126,
  "ㅅㅏㅇㅛㅇㅎㅐㅇㅑ</w>": 15346,
  "ㅂㅏㅇㅁㅜㄴㅎㅏㄱㅣ</w>": 31210,
  "ㅂㅗㄴㅡㄴ</w>": 1435,
  "ㄱㅏㅂㅈㅏㄱㅅㅡㄹㅓㅇㅜㄴ</w>": 28106,
  "ㅅㅏㅇㅇㅛㅇ": 13440,
  "ㅊㅐㄱㅇㅣㅁㅈㅏ</w>": 6264,
  "ink</w>": 19898,
  "ㅅㅣㅁㅣㄴㄷㅡㄹㅇㅡㄴ</w>": 28582,
  "ㅋㅏㅇ": 1521,
  "ㅂㅏㄷㅅㅡㅂㄴㅣㄷㅏ</w>": 10700,
  "ㄱㅡㄹ</w>": 859,
  "ㅁㅏㅈㅣㅁㅏㄱ": 3496,
  "ㅈㅔㅇㅣ": 8953,
  "ㄴㅏㄴㅜㅁㄱㅡㄹㄲㅗㄹㅇㅡㄹ</w>": 23764,
  "ㅇㅣㅃㅡㄴㅇㅣ</w>": 19523,
  "ㄱㅗㅇㅊㅓㄴ": 29499,
  "ㅂㅜㄱㅎㅏㄴㅇㅡㄹ</w>": 22219,
  "ㅊㅏㄹㅖ": 6980,
  "ㄷㅐㅇㅡㅇ": 4331,
  "ㅈㅣㄴㅇㅕㄹ": 27581,
  "ㄱㅗㅇㅑㅇㅇㅣ</w>": 4594,
  "ㅍㅛㅇㅔ</w>": 21712,
  "ㄴㅜㄱㅜㄷㅡㄴㅈㅣ</w>": 23486,
  "ㅂㅏㅇ</w>": 1133,
  "ㅇㅗㄹㅐㅈㅓㄴㅂㅜㅌㅓ</w>": 31128,
  "3": 15,
  "ㅂㅗㄱㅓㄴㅇㅢㄹㅛ": 24681,
  "22</w>": 3823,
  "ㅅㅜㅁㅕㅇㅇㅣ</w>": 29578,
  "ㄹㅗㅇㅜㄴ</w>": 1014,
  "ㄱㅡㄹㅇㅔ</w>": 11881,
  "ㄴㅗㄴㅅㅜㄹ": 30277,
  "ㅍㅔㄴㅅㅕㄴ": 30413,
  "ㅅㅣㄴㅇㅛㅇ</w>": 16726,
  "ㄱㅜㄴㄷㅔ</w>": 12038,
  "ㅅㅐㅊㅏㅇ</w>": 16341,
  "ㅌㅗㄱ</w>": 5497,
  "ㅂㅓㅌㅓ": 27644,
  "ㅅㅏㅁㅕㅇㅇㅡㄹ</w>": 31336,
  "ㄱㅏㄷㅗㄹㅗㄱ</w>": 28259,
  "ㄸㅏㅇ": 2241,
  "ㄱㅘㅇㅇㅡㄹ</w>": 25899,
  "ㅇㅔㅅㅓ": 633,
  "ㄷㅚㄴㄷㅏㄴㅡㄴ</w>": 4129,
  "ㅈㅣㅈㅓㄱㅈㅐㅅㅏㄴ": 18595,
  "ㅎㅐㄱㅕㄹㅎㅐ</w>": 18343,
  "ㅇㅣㄹㅈㅓㅇㅇㅡㄹㅗ</w>": 30449,
  "ㅅㅡㄴㅣㅁ</w>": 15735,
  "ㅅㅣㄴㅂㅏㄹㅇㅡㄹ</w>": 28970,
  "ㄷㅏㅂㄷㅏㅂㅎㅏㄴ</w>": 26976,
  "ㅂㅏㄹㅈㅓㄴ</w>": 5336,
  "ㄴㅐㅇㅛㅇㅇㅡㄹ</w>": 2149,
  "1ㅎㅗ</w>": 12906,
  "ㄴㅡㄴㄱㅜㄴㅇㅛ</w>": 18884,
  "ㅂㅏㄷㅇㅏㄷㅡㄹ": 4404,
  "ㅅㅓㅂㅣㅅㅡㅇㅢ</w>": 5695,
  "ㅅㅗㅅㅡ</w>": 5825,
  "ㄷㅏㅂㅇㅡㄴ</w>": 16041,
  "ㅈㅜㅁㅣㄴㄷㅡㄹㅇㅡㄴ</w>": 25638,
  "ㅈㅗㅅㅣㅁ</w>": 28499,
  "ite</w>": 5884,
  "ㅎㅏㄱㅎㅚ</w>": 6531,
  "ㅇㅕㅇㄷㅡㅇ": 12504,
  "eld</w>": 19377,
  "ㅌㅗㅇㅣㄱ": 29180,
  "ㅇㅣㄱㅇㅡㄴ</w>": 23885,
  "ㅅㅜㅎㅐㅇㅎㅏㄴㅡㄴ</w>": 14385,
  "ㅅㅣㄴㄱㅏㅇㅛ</w>": 7315,
  "SC</w>": 28493,
  "ㅁㅜㄹㅕ": 12335,
  "ㅅㅔㅂㅜ": 9051,
  "ㅇㅕㅁㅕㅇㅇㅢ</w>": 14454,
  "ㄹㅔㅇㅗ</w>": 25085,
  "ㄸㅗㄷㅏㄹㅡㄴ</w>": 15712,
  "ㅇㅠ": 362,
  "ㅗㄹㅇㅣ": 19804,
  "ㅎㅐㄷㅏㅇㅎㅏㄴㅡㄴ</w>": 4112,
  "ㅅㅗㄱㅐㅎㅏㄴㅡㄴ</w>": 17447,
  "ㅈㅗㅇㄹㅠㄴㅡㄴ</w>": 26755,
  "ㅊㅣㄹㅛㅇㅢ</w>": 20793,
  "ㅎㅐㅇㅇㅔ</w>": 21005,
  "ㅍㅏㄱ</w>": 28924,
  "ㅅㅣㄱㅖㄹㅡㄹ</w>": 27962,
  "ㄹㅔ": 559,
  "ㅈㅓㄹㅕㅁㅎㅏㄴ</w>": 4801,
  "oㅇㅔㅅㅓ</w>": 18202,
  "ㅅㅠㅍㅓ": 4599,
  "ㅁㅣㄷㅣㅇㅓ</w>": 3381,
  "ㅋㅗㅋㅏ": 16807,
  "2017</w>": 3439,
  "ㅋㅡㄱㅣ</w>": 7153,
  "ㅂㅜㅅㅣ</w>": 23377,
  "ㅎㅏㅇㅜㅅㅡ": 19512,
  "ㅈㅜㅈㅏㅇㅇㅡㄴ</w>": 21456,
  "ㄹㅑㅇ</w>": 2572,
  "ㅊㅡㄱㅁㅕㄴ</w>": 16810,
  "?'</w>": 8222,
  "5km</w>": 12301,
  "bor": 29210,
  "ㅇㅣㄹㅅㅏㅇ</w>": 8151,
  "ㅎㅘㄱㅈㅓㅇㄷㅚㄴ</w>": 25021,
  "ㅇㅕㅇ</w>": 1015,
  "ㅑㅇ": 482,
  "ㅇㅠㅇㅣㄴ": 24258,
  "ㅅㅏㄹㅣㅂ": 18658,
  "ㄹㅗㅈㅣ</w>": 15666,
  "ㅇㅢㅁㅜㄴ": 12516,
  "ㅈㅓㅇㅅㅓㅇㅇㅡㄹ</w>": 25688,
  "14</w>": 2698,
  "master</w>": 22789,
  "ㅂㅜㅈㅏㄱㅇㅛㅇ": 11091,
  "ㅁㅔㄱㅅㅣ": 6105,
  "ㅎㅡㄹㅡㅁ": 7987,
  "ㅎㅏㄴㅁㅏㄷㅣㄹㅗ</w>": 16389,
  "Vol": 27308,
  "ㅂㅜㄴㅇㅔㄱㅔ</w>": 28469,
  "ㅗㅇㅏ": 9620,
  "ㄷㅏㅇㅇㅝㄴ": 31137,
  "ㅊㅏㅁㄱㅏ": 3045,
  "ㄷㅡㄹㅣㄹ": 9335,
  "ㅈㅓㄴㄹㅏㄱ": 24709,
  "ㅎㅐㅆㄷㅏㅁㅕㄴ</w>": 8869,
  "ㅁㅜㄹㄹㅣ": 4671,
  "ㅇㅣㄹㄴㅕㄴ</w>": 19442,
  "ㅅㅓㄹㅠ": 5753,
  "ㅇㅗㄹㅐ</w>": 3617,
  "ib": 5904,
  "ㅈㅏㅇㅁㅣ</w>": 22938,
  "ㄱㅕㄹㄱㅘㄷㅗ</w>": 32693,
  "ㅈㅣㄹㅁㅜㄴㅇㅡㄴ</w>": 20309,
  "ㄸㅓㄹㅇㅓㅈㅣㄴ</w>": 7122,
  "ㅇㅕㄴㅎㅚ": 32278,
  "kWh": 18182,
  "ㄲㅏㄹㄱㅗ</w>": 31692,
  "ㅁㅔㅇㅣㅈㅓㄴㅗㄹㅇㅣ": 25506,
  "ㅅㅜㄴㅈㅣㄴㅎㅏㄴ</w>": 27466,
  "ㅎㅐㅆㄷㅏ</w>": 535,
  "ㅎㅏㄹㅜㄱㅏ</w>": 17591,
  "ㄱㅓㄹㅏㄱㅗ</w>": 8030,
  "ㄱㅡㄹㅣㅅㅡ</w>": 10144,
  "kg</w>": 7084,
  "ㅇㅣㄴㅈㅗㅇ</w>": 9317,
  "ㅇㅣㄴㄷㅓ": 16636,
  "ㅍㅔㅇㅣㅍㅓ</w>": 29582,
  "ㅁㅏㄹㅡㄴ</w>": 17378,
  "ㅇㅢㅁㅣㄹㅡㄹ</w>": 5866,
  "ㅅㅐㅇㅂㅏㅇㅅㅗㅇ": 29266,
  "ㅗㄹㅡㄹ</w>": 8359,
  "ㅊㅟㅎㅑㅇㅇㅔ</w>": 22281,
  "ㄱㅏㄴㄷㅏㄴ</w>": 23356,
  "ㅁㅏㄴㄷㅡㄹ": 1042,
  "ㅂㅕㅇㅇㅝㄴㅇㅔ</w>": 10961,
  "2ㄴㅕㄴ</w>": 2253,
  "ㅋㅗㄴ</w>": 4499,
  "ㅈㅔㅈㅗㅇㅓㅂ</w>": 24000,
  "ㅈㅓㅇㅅㅣㄴㄱㅘ</w>": 20254,
  "ㅁㅗㄷㅔㄹㅇㅣ</w>": 8680,
  "ㅅㅓㄹㅁㅕㅇ</w>": 3420,
  "VPN</w>": 20779,
  "ㅎㅚㅇㅢ</w>": 2732,
  "eng": 12976,
  "ㅈㅜㅇㅇㅛㅅㅓㅇ</w>": 17830,
  "ㅊㅏㅌㅡㄹㅡㄹ</w>": 29054,
  "ㄱㅖㅇㅑㄱㅇㅔ</w>": 24605,
  "ㅊㅜㅊㅡㄱ": 14924,
  "ㅅㅡㅇㅞ": 5526,
  "5mm</w>": 27127,
  "ㅈㅗㄱㅏ</w>": 10570,
  "ㅅㅐㅇㅅㅓㅇㅎㅏㄴㅡㄴ</w>": 30104,
  "ㅅㅣㅁㄱㅏㄱ": 4450,
  "300ㅁㅏㄴ</w>": 27413,
  "Master</w>": 27230,
  "iving</w>": 28833,
  "ㄱㅣㅅㅏ</w>": 2174,
  "ㅈㅓㄴㄱㅕㄱ</w>": 26548,
  "ㅌㅗㅇㅛㅇㅣㄹ</w>": 9551,
  "ㅎㅏㄴㄱㅜㄱㄱㅘ</w>": 12155,
  "ㄷㅏㅇㅜㄴㄹㅗㄷㅡ": 9441,
  "ㅈㅓㅎㅏ": 23165,
  "ㅎㅐㅈㅕㅆ": 28137,
  "ㅇㅣㄹㅡㅁㅇㅣ</w>": 6973,
  "1ㅇㅣㄴ</w>": 8901,
  "ㅅㅓㄹㅊㅣㅎㅏㄱㅗ</w>": 19275,
  "ㅇㅘㅇ": 1714,
  "ㅅㅜㅊ": 28157,
  "ㄱㅖㅅㅗㄱㅎㅐㅅㅓ</w>": 8109,
  "ㅌㅗㅇㅢ</w>": 14781,
  "4ㅎㅏㄱㄴㅕㄴ</w>": 22483,
  "ㅎㅏㄱㅈㅓㅁ": 17728,
  "ㅅㅏㅇㅣㅌㅡㅇㅔㅅㅓ</w>": 8332,
  "ㅈㅜㅇㅇㅛㅅㅓㅇㅇㅣ</w>": 30464,
  "ㅈㅏㅅㅔㄹㅗ</w>": 20500,
  "ㅅㅣㄱㅍㅜㅁㅇㅢ</w>": 27577,
  "BOX</w>": 28799,
  "29ㅇㅣㄹ</w>": 7947,
  "ag</w>": 23593,
  "ㄷㅐㄷㅏㅅㅜㅇㅢ</w>": 28801,
  "ㅌㅗㄴ": 6469,
  "ㅈㅏㅇㅁㅕㄴㅇㅡㄴ</w>": 23253,
  "ㄷㅏㅎㅐㅇㅎㅣ</w>": 12410,
  "ㅈㅣㄴㅈㅓㅇ": 12442,
  "ㄴㅡㄲㅣㅁㅇㅡㄹㅗ</w>": 23291,
  "ㅂㅡㄹㄹㅣ": 4416,
  "ㅂㅏㅇㅈㅣ": 6286,
  "ㅍㅗㅇㅣㄴ": 2114,
  "CES</w>": 26015,
  "ㅎㅏㄴㅡㄹㅏ</w>": 18486,
  "TO</w>": 12437,
  "ㄴㅜㄹㅡ": 9272,
  "ㅎㅚㅇㅝㄴㄱㅏㅇㅣㅂ": 16110,
  "ㅈㅓㄴㅈㅏㅊㅐㄱ</w>": 20203,
  "zz": 15124,
  "ㅌㅗㄹㅗㄱ</w>": 10260,
  "Dom": 28349,
  "ㅇㅡㄴㄱㅡㄴ": 21375,
  "ㅈㅔ6": 13404,
  "ㅁㅕㄴㅎㅓ</w>": 19349,
  "ㅇㅐㄹㅓㄴ</w>": 29915,
  "ㅇㅣㄹㅗ": 5647,
  "ㅎㅐㅆㄴㅡㄴㄷㅔ</w>": 2032,
  "ㅇㅓㅂㅈㅏ</w>": 29525,
  "10ㅈㅜㄴㅕㄴ</w>": 27536,
  "ㄱㅡㄱㄷㅏㄴ": 13245,
  "ㅍㅣㄱㅗ</w>": 29449,
  "ㅁㅗㅎㅕㅇ": 31889,
  "ㅈㅓㅇㅅㅏㅇㅎㅚㄷㅏㅁㅇㅡㄹ</w>": 15526,
  "ㅁㅗㄷㅜㅇㅔㄱㅔ</w>": 14745,
  "ㅂㅓㅁㅈㅜ</w>": 31876,
  "ㄷㅗㅇㅅㅓㅇ": 6406,
  "ㄷㅡㄹㄹㅣ</w>": 30251,
  "ㄴㅔㅌㅡㅇㅝㅋㅡㅇㅢ</w>": 27811,
  "Station</w>": 20600,
  "ㅇㅕㄱㅅㅏㅈㅓㄱㅇㅡㄹㅗ</w>": 29081,
  "em": 1959,
  "ㅌㅜㅈㅏㅇㅔ</w>": 21500,
  "ㅇㅓㄹㅣㅇ</w>": 8347,
  "10ㅇㅝㄹ</w>": 3068,
  "the</w>": 1275,
  "ㅇㅐㄱㅜㄱ": 20491,
  "ㅍㅗㅇㅣㄴㅌㅡㄱㅏ</w>": 18738,
  "ㅂㅗㅅㅣㄹ</w>": 6809,
  "ㅂㅜㅌㅏㄱ": 2805,
  "ㅇㅣㅆㄷㅗㄹㅗㄱ</w>": 1632,
  "ㅎㅢㄴ</w>": 16896,
  "ㅈㅔㅂㅓㅂ</w>": 14086,
  "ㄱㅐㅂㅏㄹㅈㅏ</w>": 8305,
  "ㄱㅗㄱㅗ": 15621,
  "ㅁㅗㄱㅅㅗㄹㅣ</w>": 14429,
  "ㅇㅗㅌㅗㅂㅏㅇㅣ</w>": 24864,
  "ㅈㅣㅇㅕㄴ</w>": 12266,
  "ㅁㅣㄱㅜㄱㅇㅔ</w>": 12351,
  "ㄱㅗㄷㅐ</w>": 11499,
  "ㅍㅗㅌㅗ</w>": 5138,
  "ㅈㅣㄴㅅㅏㅇ": 16908,
  "ㄹㅏㄱㅇㅡㄹ</w>": 6852,
  "SW</w>": 18247,
  "ㅎㅏㄷㅓㄹㅏ</w>": 21719,
  "ㅅㅗㅈㅐ": 5452,
  "ㅂㅜㄴㅇㅟㄱㅣ</w>": 7606,
  "ㄱㅡㅇㅈㅓㅇㅈㅓㄱㅇㅣㄴ</w>": 10247,
  "ow</w>": 6639,
  "ㄱㅏㅇㅣㅂㅎㅏㄹ</w>": 21699,
  "ㅋㅣㄴㅡㄴ</w>": 8081,
  ".,</w>": 9867,
  "ㅁㅜㅅㅓㄴ": 7694,
  "ㅁㅓㄹㅇㅓ": 17044,
  "ㄹㅕㅇㅇㅡㄹㅗ</w>": 30136,
  "9ㅅㅣㄱㅏㄴ</w>": 30649,
  "ㄷㅐㄱㅜ</w>": 5373,
  "Chiqu": 31286,
  "ㅂㅕㄴㅎㅘㄴ</w>": 11986,
  "ㅁㅏㅊㅏㄴㄱㅏㅈㅣㄷㅏ</w>": 17602,
  "ㅂㅏㄹㅇㅡㅁㅎㅏㄴ</w>": 28491,
  "ㅍㅣㄹㅇㅛㅇㅔ</w>": 16784,
  "ㅎㅠㄷㅐㅍㅗㄴ": 10200,
  "up": 3627,
  "ㄴㅏㅇㅗㄹ": 11037,
  "ㄱㅡㄱㅓㅅㅇㅡㄹㅗ</w>": 32537,
  "ㅇㅔㅇㅓ": 3547,
  "ㅌㅚㄱㅡㄴ": 12393,
  "ㄴㅡㄲㅕ</w>": 26530,
  "ICE</w>": 21890,
  "ㅋㅡㄹㄹㅐㅅㅡㄹㅡㄹ</w>": 25987,
  "ㅎㅚㅇㅝㄴㅇㅣ</w>": 6422,
  "2017ㄴㅕㄴ": 13074,
  "ㅋㅡㄹㄹㅓㅅㅡㅌㅓ</w>": 27257,
  "ㅎㅏㅅㅣㄹ</w>": 1385,
  "ㄱㅏㄴㅡㅇㅎㅏㅁㅕ</w>": 7284,
  "ㄷㅏㅁ": 759,
  "ㅎㅏㄹㅜㄹㅡㄹ</w>": 12491,
  "ㅊㅏㄶ": 2493,
  "ㅇㅣㄴㅇㅕㄴ</w>": 29908,
  "ㅡㄹㅇㅟㅎㅏㄴ</w>": 25956,
  "ㅎㅏㄴㅏㄴㅣㅁ</w>": 5680,
  "ㄷㅗㅇㅅㅣ": 17362,
  "ㅇㅔㄹㅗ": 31888,
  "ㅊㅜㅈㅓㄱ": 11552,
  "spec": 10623,
  "ㄱㅏㄱㅕㄱ</w>": 2503,
  "ㅈㅣㄴㅎㅡㅇ": 5748,
  "ㄱㅓㄹㅇㅡㅁㅇㅡㄹ</w>": 18752,
  "ㅂㅗㄹㅏㄱㅗ</w>": 23861,
  "ㄱㅣ</w>": 351,
  "ㅅㅏㅁㅜㅅㅗ</w>": 12295,
  "ㅂㅗㄱㅅㅜㅇ": 29114,
  "ㄹㅏㅇㅣ": 1211,
  "ㅇㅗㄹㅐㄷㅚㄴ</w>": 6830,
  "ㅌㅜㄹ</w>": 14195,
  "ㄷㅗㅇㅜㄹ</w>": 22802,
  "ㅅㅏㅇㄹㅠ": 30322,
  "ㅈㅏㅈㅏㄱ": 31887,
  "ㅇㅣㄹㅈㅓㄴ</w>": 11069,
  "ㅅㅣㅂㄴㅣㄲㅏ</w>": 32518,
  "function</w>": 32007,
  "ㅌㅓㅅ": 23773,
  "ㅂㅏㅇㅊㅜㄹ</w>": 30200,
  "ㅇㅚㄱㅜㄱㅇㅔㅅㅓ</w>": 30854,
  "ㄱㅏㄹㅡㄹ</w>": 2076,
  "ㅅㅐㄲㅣ": 12286,
  "1950ㄴㅕㄴ</w>": 32749,
  "ㅇㅣㄹㅜㅇㅓㅈㅕㅇㅑ</w>": 28979,
  "()</w>": 7911,
  "ㄴㅏㄴㄱㅏㅁ": 27990,
  "ㄷㅜㄴㅡㄴ</w>": 8664,
  "ㅅㅣㄴ": 376,
  "ㅅㅓㅇㅈㅓㄴㅎㅘㄴㅈㅏ</w>": 32742,
  "ON": 7478,
  "ㅌㅗㅇㅎㅐ</w>": 879,
  "15ㄱㅐ</w>": 20604,
  "ㅂㅓㄹㄱㅡㅁ</w>": 26645,
  "ㅅㅡㅂㄴㅣㄲㅏ</w>": 2310,
  "ㄱㅗㅇㅈㅏ</w>": 28500,
  "ㅇㅣㄷㅡㄹㅇㅔㄱㅔ</w>": 14269,
  "ㄱㅓㄴㅈㅣ</w>": 7359,
  "ㄴㅏㅁㅇㅔ</w>": 31523,
  "ㄱㅡㄱㅔ</w>": 3901,
  "ㅈㅕㅆㄷㅏ</w>": 1838,
  "ㅊㅗㅇㅈㅓㅇㄹㅣ</w>": 29241,
  "ㅅㅡㄴ": 4081,
  "ㅇㅜㄴㅅㅗㅇ": 11321,
  "ㅇㅣㄱㅗㅅㅇㅔㄴㅡㄴ</w>": 25544,
  "ㅎㅏㅇㅁㅜㄴ</w>": 5455,
  "ㄷㅐㅎㅐㅇ": 11614,
  "ㅈㅣㄴㅏㄴㅎㅐ</w>": 3632,
  "ㅇㅕㄴㄱㅜㄱㅐㅂㅏㄹ</w>": 30374,
  "ㅈㅜㄴㅇㅣ</w>": 24769,
  "ㅅㅣㅇㅏ": 17026,
  "ㄸㅟㅇㅓ</w>": 18125,
  "ㄴㅔㅇㅣㅁㄷㅡ": 5171,
  "ㅅㅓㄹㅊㅣㄱㅏ</w>": 17130,
  "ㅇㅕㄴㄱㅜㅎㅏㄴㅡㄴ</w>": 25183,
  "ㅃㅏㄹㄱㅣ</w>": 19290,
  "ㄸㅓㅇㅗㄹㄹㅏㅆㄷㅏ</w>": 28248,
  "ㅍㅡㄹㅗㅇㅑㄱㅜ": 25390,
  "ㅁㅏㄴㅁㅕㅇㅇㅢ</w>": 25454,
  "ㅋㅏㅍㅔㅇㅔㅅㅓ</w>": 18332,
  "ㅃㅏㄹㄹㅣ": 32208,
  "ㄷㅜㄹㄹㅓㅆㅏㄴ</w>": 12576,
  "ㄷㅚㄹㅅㅜ</w>": 18548,
  "ㄴㅣㄷㅏ</w>": 6741,
  "ㅇㅏㄴㅣㄷㅏ</w>": 2025,
  "ㅎㅏㄱㅇㅣ</w>": 31482,
  "ㅇㅏㅆㄷㅓㄴ</w>": 5383,
  "ㅅㅏㅇㅅㅜ</w>": 32653,
  "ㅅㅕㅌㅡㄹ</w>": 11482,
  "ating</w>": 12075,
  "HClips</w>": 29480,
  "pe": 12621,
  "ㅂㅏㄱㅌㅏㄹ": 24826,
  "ㄴㅗㅍㅇㅣㅇㅢ</w>": 30062,
  "ㅂㅏㄲㅜㄹ</w>": 10033,
  "ugh</w>": 26039,
  "ㅇㅣㅅㅜ": 8561,
  "ㅇㅠㄱ</w>": 5344,
  "ㅍㅏㅇㅜㄹ": 24952,
  "ㅍㅔㄹㅣ</w>": 23639,
  "ㅂㅏㄴㄷㅗ</w>": 27406,
  "ㅎㅗㅍㅕㅇㅇㅡㄹ</w>": 27703,
  "lish</w>": 10689,
  "ㅅㅣㄹㅈㅔㄹㅗ</w>": 2595,
  "ㄱㅣㄴㅡㅇㅇㅢ</w>": 18822,
  "ㅁㅝㄴㄱㅏㅇㅛ</w>": 32585,
  "ㅅㅔㄴㅌㅓ</w>": 1428,
  "ㄴㅣㅁㄲㅔㅅㅓ</w>": 5375,
  "ㅅㅡㅌㅗㄹㅣ": 7604,
  "ㅅㅏㄹㅇㅏㅇ": 23484,
  "ㄴㅏㅁㅓㅈㅣㄴㅡㄴ</w>": 20446,
  "ㄱㅕㅇㄱㅗ</w>": 13198,
  "ㅂㅏㄹㅡㅅㅔㄹㄹㅗㄴㅏ</w>": 15982,
  "ㅈㅓㄹㄷㅐㅈㅓㄱㅇㅡㄹㅗ</w>": 19755,
  "ㅗㅈㅣ</w>": 9408,
  "ㅁㅜㄴㅎㅘㅇㅝㄴ</w>": 26485,
  "ㅅㅏㄹㅇㅏㅇㅑ</w>": 15206,
  "ㄱㅐㄹㄹㅓㄹㅣㅇㅔ</w>": 31556,
  "ㄱㅏㅈㅗㄱㄷㅡㄹㅇㅣ</w>": 22604,
  "ㅇㅓㄴㅇㅓㅇㅘ</w>": 29529,
  "ㄷㅓㄴ": 1245,
  "ㅇㅣㄴㄷㅡㄹㅇㅡㄴ</w>": 7693,
  "ㄹㄹㅣㅅㅡ</w>": 18226,
  "ㅅㅐㅇㅈㅗㄴ": 7588,
  "NS": 15392,
  "ㅇㅣㅂㅈㅏㅇ</w>": 8923,
  "ㅂㅏㅇㅂㅓㅂ</w>": 1351,
  "ㅅㅐㄱ": 910,
  "ㅅㅓㄴㅎㅐㅇ": 14776,
  "ㅁㅏㄹㅕㄴㅇㅣㄷㅏ</w>": 22267,
  "home</w>": 29887,
  "ㄱㅘㅌㅐ": 27401,
  "ㅂㅜㄹㄹㅑㅇ</w>": 18972,
  "ㅇㅗㄹㄹㅏ</w>": 7198,
  "ㅇㅘㅆㄷㅓㄴ</w>": 13510,
  "ㅁㅕㄴㅇㅕㄱ": 11340,
  "act</w>": 11639,
  "ㄷㅐㅅㅏㄹㅡㄹ</w>": 29923,
  "ㅅㅟㅂ</w>": 15804,
  "cafe</w>": 28649,
  "ㅇㅣㅀㅇㅓ": 8895,
  "ㅈㅏㅇㄴㅏㄴ": 3578,
  "ㅊㅟㅎㅏㄱㅗ</w>": 17429,
  "You": 8781,
  "ㅡㄱㅔ</w>": 1831,
  "ㅇㅜㄴㅅㅔ</w>": 25928,
  "ㅅㅣㅁㅏ</w>": 13875,
  "ㄸㅏㄹㅇㅡㄴ</w>": 32631,
  "ㅎㅔㅇㅓ</w>": 12328,
  "ㅊㅓㄴㅈㅐ</w>": 29739,
  "ㄴㅡㄲㅣㄱㅔ</w>": 10845,
  "ㄷㅡㄹㅓㄴ": 15238,
  "ㅇㅓㄹㄱㅜㄹㅇㅣ</w>": 12709,
  "ㅎㅏㅁㅕㄴㅅㅓㄷㅗ</w>": 6814,
  "ㄱㅏㅈㅓㅇㅇㅡㄹ</w>": 16835,
  "ㅂㄴㅣ": 297,
  "ㄷㅡㄴㅈㅣ</w>": 3153,
  "ㅅㅣㄱㄷㅏㅇ": 5808,
  "ㅇㅣㅇㅛㅇㅈㅏ</w>": 7875,
  "ㅇㅗㄷㅣㅇㅗ</w>": 8493,
  "ㅈㅣㄱㅗ</w>": 1593,
  "ㄷㅗㄹㅇㅏ": 2136,
  "ㅁㅏㄷㅏㅇ</w>": 16161,
  "ㅊㅓㄴㄱㅜ</w>": 26052,
  "ㅅㅗㅅㅕㄹ": 1740,
  "ㄱㅓㄹㅣㄹㅗ</w>": 19964,
  "ㅓ</w>": 157,
  "Xo": 22174,
  "ㅂㅏㄹㅅㅐㅇㅎㅏㄹ</w>": 6493,
  "ㅎㅏㄱㄴㅕㄴ": 11193,
  "ㅈㅓㅇㅔㄱㅔ</w>": 10750,
  "ㅆㅡㅂ": 22944,
  "ㅋㅡㄹㄹㅣㄱㅎㅏㅅㅣㅂㅅㅣㅇㅗ</w>": 27258,
  "ㄷㅏㅁㅇㅏ</w>": 7088,
  "ㅇㅏㄷㅗㅇㅇㅡㄹ</w>": 31087,
  "ㅌㅏㄱㅣ</w>": 11634,
  "ㅎㅏㄱㅔㅆㅅㅡㅂㄴㅣㄷㅏ</w>": 2425,
  "ㅈㅜㄹㅇㅣㄴㅡㄴ</w>": 18065,
  "ㄴㅗㅍㅇㅣ": 16982,
  "ㅇㅣㄹㅈㅓㅇㄱㅣㄱㅏㄴ</w>": 30466,
  "ㅈㅣㅁㅇㅣ</w>": 29793,
  "ㅇㅏㄱㅁㅏㅇㅢ</w>": 30304,
  "ㅅㅡㅇㅔㅅㅓㄴㅡㄴ</w>": 32497,
  "ㅅㅏㄹㅗㅅㅓ</w>": 23682,
  "ㅅㅓㅇㅂㅕㄹ</w>": 11459,
  "ㄱㅏㅌㅇㅡㄴ</w>": 760,
  "del</w>": 15991,
  "ㅈㅣㄴㅎㅐㅇㄷㅙㅆㄷㅏ</w>": 20721,
  "ㄲㅗㅊㅇㅡㄹ</w>": 12278,
  "37": 5728,
  "ㅇㅠㅊㅣ</w>": 19603,
  "ㅊㅏㅈㅇㅡㄹㅕ</w>": 8430,
  "ㄱㅓㄱㅣㅇㅔㅅㅓ</w>": 28870,
  "hw": 11151,
  "ㄱㅕㅇㅎㅓㅁ": 1864,
  "ㅇㅣㄹㅂㅏㄴㅈㅓㄱㅇㅣㄴ</w>": 5801,
  "os": 2526,
  "ㅈㅐㅈㅓㅇ": 7487,
  "ㅈㅣㅂㅜ</w>": 11432,
  "ㅇㅘㄴㄹㅛㄷㅚㄴ</w>": 23665,
  "ㄷㅏㅇㅜㄴㄹㅗㄷㅡㄹㅡㄹ</w>": 26499,
  "ㅈㅓㅇㅂㅗㄷㅗ</w>": 26309,
  "ㄱㅗㅌㅗㅇ": 4773,
  "ㅋㅡㄴ</w>": 809,
  "ㄹㅠㄹㅇㅡㄹ</w>": 9439,
  "ㅈㅏㄹㅏㄴㅡㄴ</w>": 12290,
  "ㅍㅡㄹㅗㅁㅗㅅ": 8678,
  "ㅏㅁ</w>": 17132,
  "AK": 17795,
  "ㅇㅓㄴㅈㅔㄷㅡㄴ</w>": 18689,
  "ㅇㅓㄹㄱㅜㄹㅇㅔ</w>": 15657,
  "ㅇㅕㅇㅁㅜㄴ": 13842,
  "ㅅㅡㄹㅓ": 2002,
  "ㅛㅌㅗㅇ": 13925,
  "ㅈㅐ</w>": 830,
  "ㅅㅜㅈㅓㅇ</w>": 2468,
  "ㅎㅔㅇㅓ": 6440,
  "ㄷㅗㄱㅗㅇ": 30890,
  "ㄷㅡㅇㄹㅗㄱㅎㅏㄴㅡㄴ</w>": 32187,
  "ㅇㅐㅍㅡㄹ</w>": 6537,
  "ㅅㅟㅂㄷㅏ</w>": 16845,
  "ㄷㅣㄹㄹㅔ": 25359,
  "ㄱㅣㅊㅏㅇㅕㄱ": 30314,
  "OR</w>": 31800,
  "ystem": 20043,
  "ㅇㅜㅅㅜㅎㅏㄴ</w>": 8175,
  "ㄼㅇㅡㄴ</w>": 2414,
  "2ㄴㅕㄴㅅㅐㅇ</w>": 25463,
  "ㅅㅜㅇㅣㅂㅇㅣ</w>": 31226,
  "ㅎㅏㄴㄱㅜㄱㅇㅣㄴㅇㅢ</w>": 22942,
  "ㅇㅗㅁㅕㄴ</w>": 9757,
  "ㅈㅏㄱㅇㅓㅂㅇㅢ</w>": 29588,
  "ㅇㅣㄴㅅㅏㅁ": 26378,
  "ㅎㅣㄴ</w>": 3867,
  "ㅇㅢㅈㅗㄴ": 4513,
  "art</w>": 11646,
  "ㄱㅓㅂㄴㅣㄲㅏ</w>": 23607,
  "ㄱㅣㅁㅏㄴ</w>": 5609,
  "UM</w>": 29961,
  "ㅅㅡㅍㅡㄹㅣㅇ": 11004,
  "ㅊㅔㄱㅖㅇㅢ</w>": 27850,
  "ㅎㅘㄱㄷㅐ": 5126,
  "ㄱㅡㅂㅅㅓㅇ": 30677,
  "ㅇㅕㄱㅐㄱ": 14868,
  "ㄹㅣㄴㅠㅇㅓㄹ</w>": 26240,
  "ㅇㅣㄹㅏㄴㅡㄴ": 31567,
  "ㅇㅏㄴㄱㅗ</w>": 10854,
  "ㅅㅜㅅㅜㄹㅛ</w>": 13499,
  "ㅎㅚ": 385,
  "ㅁㅜㄹㅈㅣㄹ": 4968,
  "ㄹㅠㄱ</w>": 16858,
  "ㅇㅏㄹㅇㅏㅂㅗㄷㅗㄹㅗㄱ</w>": 23401,
  "ㄱㅔㄹㅡ": 29820,
  "rel": 22086,
  "ㄱㅡㄹㅓㄴ</w>": 1246,
  "E</w>": 195,
  "ㄱㅏㅎㅐㅈㅣㄹ</w>": 3291,
  "ㅅㅣㄹㅅㅣㅇㅖ": 30187,
  "ㄷㅏㅇㅡㅁㅈㅜ</w>": 27180,
  "erㄱㅏ</w>": 29585,
  "ㄷㅏㅇㅂㅜㄴㄱㅏㄴ</w>": 23096,
  "ㄴㅗㅍㅇㅣㄱㅣ</w>": 17330,
  "ㅊㅐㄱㅇㅣ</w>": 7023,
  "ㅆㅣㅇ": 18815,
  "ㅇㅣㄹㅎㅏㄱㅗ</w>": 12327,
  "ㅈㅏㄱㅅㅓㅇㅎㅏㄱㅗ</w>": 28866,
  "ㅂㅏㄷㄱㅗ</w>": 1918,
  "ㅉㅓ": 2429,
  "1ㅇㅡㄴ</w>": 22270,
  "lif": 22969,
  "ㄴㅏㅁ</w>": 1654,
  "KBS": 13126,
  "5ㅂㅓㄴ</w>": 23499,
  "ㅈㅜㅇㄷㅗㅇ</w>": 18662,
  "ㅎㅏㄴㅌㅔ": 13572,
  "ㅁㅣㄴㅣ</w>": 6748,
  "ㅇㅓㅂㄷㅔㅇㅣ": 2126,
  "ㄱㅘㄴㄱㅖㅇㅔ</w>": 9957,
  "ㅇㅕㄴㄹㅛ</w>": 22165,
  "2018</w>": 2209,
  "ㅈㅗㅎㅇㅏㅎㅐㅇㅛ</w>": 31506,
  "ㅎㅏㄴㅂㅏㄴ": 5411,
  "ㅌㅡㄱㅈㅓㅇ": 9278,
  "ㅎㅗㅇ": 960,
  "ㅈㅡㄹㄱㅕㅊㅏㅈ": 12772,
  "ㅁㅜㄹㅈㅣㄹㅇㅡㄹ</w>": 17459,
  "ㅅㅗㄴㄴㅣㅁㄷㅡㄹㅇㅣ</w>": 29325,
  "ㅁㅜㄴㅎㅓㄴ</w>": 25763,
  "ㅈㅣㄴㅅㅣㄹㅎㅏㄴ</w>": 31163,
  "ㅇㅕㄱㅇㅢ</w>": 13142,
  "ㅗㅇㅏ</w>": 30419,
  "ㄷㅣㅇㅏ</w>": 9641,
  "Kore": 6726,
  "ㄱㅓㅁㅅㅏ</w>": 4312,
  "LT": 8059,
  "ㅈㅗㅅㅏㄹㅡㄹ</w>": 7253,
  "SK": 3742,
  "ㄴㅏㅁㅇㅏㅇㅣㅆㄴㅡㄴ</w>": 21319,
  "ush": 26816,
  "ㄲㅜㅁㅇㅔ</w>": 27756,
  "ㅈㅣㄱㅅㅓㄴ": 29873,
  "ㅁㅜㄹㅛㅂㅐㅅㅗㅇ</w>": 11019,
  "ㄱㅣㄹㄹㅐ</w>": 10896,
  "ㄸㅐㅁㅏㄷㅏ</w>": 4036,
  "ㅅㅓㄴㅈㅓㄴ": 21948,
  "ㅅㅣㅁㅣㄴㄱㅘ</w>": 32236,
  "ㅁㅗㅅㅡㅂㅇㅣㄷㅏ</w>": 19544,
  "ㄷㅐㅇㅚ": 16671,
  "ㄷㅐㄱㅓ</w>": 19136,
  "ㅊㅜㅊㅓㄴㅇㅡㄹ</w>": 21848,
  "ㅇㅑㅇㅋㅣㅅㅡ</w>": 28105,
  "ㅈㅣㅇㅝㄴㅇㅔ</w>": 23123,
  "ess</w>": 5794,
  "ㄴㅏㅇ": 602,
  "ㅈㅏㄹㅏㄴ": 19942,
  "ㄹㅏㅇㅛ</w>": 20627,
  "ㄸㅓㄹㅇㅓㅈㅕㅅㅓ</w>": 28407,
  "ㅈㅜㅅㅔㅇㅛ</w>": 1709,
  "ㅁㅣㅎㅗㄴ": 20967,
  "ㄱㅕㅇㅎㅓㅁㅇㅡㄹ</w>": 4470,
  "ㅇㅣㅎㅐ</w>": 4201,
  "ㅈㅣㄴㅐㄴ</w>": 27496,
  "ㅍㅡㄹㄹㅐㄱㅡ": 27707,
  "ㅅㅛㄹ": 27394,
  "9ㅅㅣ</w>": 11912,
  "ㅇㅑㄷㅗㅇ</w>": 18853,
  "ㅂㅐㄹㅡㄹ</w>": 5038,
  "ㅎㅗㅌㅔㄹ": 1259,
  "ㅊㅔㄱㅖㄱㅏ</w>": 26342,
  "ㄸㅐㅁㅜㄴㅇㅣㅂㄴㅣㄷㅏ</w>": 4454,
  "ㄱㅣㅈㅓㄱ": 9739,
  "ㅁㅏㄴㄴㅏㅂㅗㄹ</w>": 22666,
  "ㄷㅓㅎㅐ</w>": 21392,
  "ㄷㅐㅊㅜㅇ</w>": 10371,
  "ㅇㅕㅇㅣㄴ</w>": 24311,
  "ㄱㅣㅇㅓㅂㅅㅣㄴㅇㅛㅇ": 11153,
  "ㄹㅛㅇㅘ</w>": 30830,
  "ㅎㅏㄹㅜ</w>": 2466,
  "ㅇㅣㄴㅇㅢ</w>": 1547,
  "ㅅㅏㄴㅐ": 15025,
  "ㅇㅣㅆㅇㅡㅅㅣㅂㄴㅣㄲㅏ</w>": 11355,
  "ㅈㅣㅇㄱㅖ": 26339,
  "ㅊㅓㄹㅎㅏㄱㅇㅢ</w>": 26999,
  "ㅂㅗㄱㅗㄱㅏㄴ": 17483,
  "ㅇㅏㄴㅍㅏㄲ": 24959,
  "ㅈㅏㅁㅅㅣ</w>": 4072,
  "ㅅㅏㅎㅚㅂㅗㄱㅈㅣ": 3655,
  "ㅈㅜㅅㅕㅆㄷㅏ</w>": 31562,
  "ㅕㅆㄷㅓㄴ</w>": 10282,
  "ㅅㅣㄴㅈㅜㅇㅎㅏㄱㅔ</w>": 18731,
  "Str": 13248,
  "ㅍㅏㄴㄷㅏㄴㄷㅚㄴㅡㄴ</w>": 22386,
  "ㅅㅐㅇㄱㅕㅅㅓ</w>": 25330,
  "ㅍㅜㅇㅔㄹㅡ": 27634,
  "ㄱㅐㄴㅕㅁ": 4804,
  "ㅁㅏㄴㄷㅡㄹㅇㅓ": 1846,
  "ㅅㅏㅁㅈㅣㄴ</w>": 15355,
  "ㅂㅕㅇㅇㅝㄴㅇㅢ</w>": 21771,
  "ㅎㅕㄴㅈㅏㅇㅇㅔㅅㅓ</w>": 8008,
  "ㅇㅛ": 334,
  "ㅝㄴ": 545,
  "ㅌㅏㅁㅈㅣ": 31616,
  "ㄹㅓㅇㅢ</w>": 24375,
  "ㅅㅐㅇㅎㅘㄹㅇㅔㅅㅓ</w>": 14369,
  "ㄸㅏㄹㅏ</w>": 915,
  "ㅊㅜㄹㅂㅏㄹ</w>": 5658,
  "3ㄱㅐㅇㅝㄹ</w>": 9320,
  "ral</w>": 25241,
  "FAㅋㅓㅂ</w>": 26580,
  "1ㅎㅗㅁㄹㅓㄴ</w>": 27867,
  "ㄱㅘㅇㅎㅏㄱ</w>": 31872,
  "ㅈㅏㄱㅏ</w>": 963,
  "Av": 16423,
  "Ital": 15348,
  "ㅇㅠㅌㅗㅇ</w>": 11143,
  "ㅈㅗㅅㅏㅎㅏㄱㅗ</w>": 29862,
  "ㅅㅔㄱㅣ</w>": 4435,
  "ㅆㅓㅁ": 10432,
  "ㄱㅡㄹㅏㅇㅜㄴ": 11611,
  "ㅍㅐㅌㅓㄴㅇㅣ</w>": 29324,
  "ㅁㅣㅊㅓ</w>": 22923,
  "9ㅇㅝㄹ</w>": 3210,
  "ㄷㅙ": 964,
  "ㅇㅝㄴㅈㅏㅇ": 20976,
  "mot": 30377,
  "ㅎㅏㄴㅡㄴㄱㅓ</w>": 19978,
  "ㄴㅗㄹㅕㄱㅎㅏㄹ</w>": 22772,
  "ㅍㅏㄱㅣ": 12242,
  "ㅈㅏㅇㄲㅏㅈㅣ</w>": 30737,
  "ㅂㅏㅇㅌㅏㄴㅅㅗㄴㅕㄴㄷㅏㄴ</w>": 16973,
  "ㅇㅐㅊㅏㄱ": 31846,
  "(": 6,
  "ㅂㅓㄹㅇㅣㄱㅗ</w>": 27390,
  "ㄷㅣㄱㅏ</w>": 20619,
  "ㄱㅕㅇㅊㅏㄹㅅㅓ</w>": 20541,
  "ㅅㅐㅇㅁㅜㄹㅎㅏㄱㅈㅓㄱ</w>": 26757,
  "ㅂㅜㄴㅁㅏㄹ</w>": 29601,
  "ㅇㅘㅇㅇㅡㄹ</w>": 25753,
  "10ㅁㅏㄴㅇㅝㄴ</w>": 21571,
  "ㄱㅣㄱㅣㄹㅡㄹ</w>": 15533,
  "CA</w>": 21167,
  "ㅈㅓㅈㅇㅡㄴ</w>": 14115,
  "ㅅㅐㅇㄱㅣㄴㄷㅏ</w>": 18062,
  "ㅇㅣㅆㅇㅡㄴㅣㄲㅏ</w>": 17218,
  "ㅅㅏㅂㅇㅣㅂ": 11188,
  "ㅋㅣㅇㅜㄹ</w>": 26156,
  "ㅁㅏㅅㅡ": 19869,
  "ㅂㅏㅇㅎㅑㅇㅇㅡㄹㅗ</w>": 7355,
  "ㅑㄱㅇㅡㄹ</w>": 20615,
  "ㅇㅕㄷㅡㄹㅡㅁ": 27382,
  "ㅇㅠㅂㅗ": 29837,
  "ㅎㅘㄹㅇㅑㄱ": 8788,
  "ㅉㅏㄴ</w>": 28099,
  "ㅊㅏㅁㅇㅕㅎㅐㅆㄷㅏ</w>": 29918,
  "Co": 6497,
  "ㅈㅔㅈㅓㅇ</w>": 21755,
  "ㅂㅗㅅ": 27428,
  "ue</w>": 6749,
  "ㅎㅢㅁㅏㅇㅇㅣ</w>": 21363,
  "ㄱㅏㅈㅗㄱㅇㅡㄹ</w>": 12677,
  "ㅈㅗㅁ</w>": 1190,
  "ㅂㅓㅈㅓㄴㅇㅡㄴ</w>": 22139,
  "ㅁㅛ": 3763,
  "ㅇㅏㄹㅋㅗㅇㅗㄹ</w>": 22171,
  "ㄴㅓ</w>": 3930,
  "ㅅㅓㅅㅓㅎㅣ</w>": 11669,
  "ㅁㅜㅇㅢㅁㅣ": 28971,
  "ㅅㅡㅌㅏㅇㅣㄹㄹㅗ</w>": 25552,
  "ㅈㅏㅁㄲㅏㄴ": 25524,
  "ㄸㅗㄱㄱㅏㅌㅇㅣ</w>": 11441,
  "ㅇㅜㄹㅕ": 4856,
  "ㅁㅐㄴㅠㅇㅓㄹ</w>": 17171,
  "ㅍㅗㅌㅡㅍㅗㄹㄹㅣ": 16265,
  "ㅎㅏㄱㅅㅐㅇㄷㅡㄹㅇㅔㄱㅔ</w>": 13850,
  "ㅇㅡㅅㅣㄴ</w>": 10681,
  "ㅇㅏㄴㅣㄹ": 16490,
  "icle</w>": 31717,
  "ㅅㅡㅁㅏ": 1452,
  "ㄷㅙㅇㅛ</w>": 13295,
  "ㄴㅠ": 906,
  "ㅇㅓㅇㄸㅜㅇㅎㅏㄴ</w>": 25384,
  "ㅊㅐㄱㅇㅣㅁㅇㅡㄹㅈㅣㅈㅣ</w>": 29628,
  "ㄱㅔㅅㅣㅁㅜㄹㅇㅔ</w>": 25028,
  "ㅇㅣㄴㅅㅓㅇ": 16769,
  "ㄱㅣㅌㅏ</w>": 1528,
  "ㅅㅗㅈㅜㅇㅎㅏㄴ</w>": 5986,
  "ㅇㅟㅎㅐㅅㅓ</w>": 2817,
  "PE": 11534,
  "ㅂㅏㄹㅈㅓㄴㅎㅏㄱㅗ</w>": 31324,
  "ㅊㅜㄹㅎㅕㄴ": 21215,
  "ㅈㅗㅎㄷㅏㄴㅡㄴ</w>": 17880,
  "ㄱㅓㄹㅣㅁㅕ</w>": 19510,
  "1980ㄴㅕㄴㄷㅐ</w>": 29326,
  "//</w>": 2129,
  "ㄷㅏㄴㅊㅔ</w>": 3953,
  "ㅅㅏㅇㅔㄱㅔ</w>": 14316,
  "ㅂㅏㄷㅏㄱㅇㅔ</w>": 12078,
  "ㅈㅣㄹ</w>": 943,
  "1ㅁㅜㄴㅇㅢㄹㅡㄹ</w>": 16961,
  "ㅈㅓㄹㄷㅏㄴ</w>": 29991,
  "ㅊㅟㅅㅗ": 6301,
  "ㄴㅏㄱㅏㅈㅣ</w>": 28670,
  "ㅎㅏㄴㅈㅓㅇ": 6064,
  "ㅌㅔㄴ": 1173,
  "DM</w>": 27456,
  "ㅅㅡㅍㅡㄹㅣㅇ</w>": 21079,
  "ㅇㅑㄱㅇㅣ</w>": 13463,
  "ㄹㅣㄷㅓ": 3974,
  "ㄹㅏㄴ": 1206,
  "ㅊㅐㄴㅓㄹㅇㅡㄹ</w>": 14720,
  "ㅎㅐㅇㅇㅟ</w>": 4492,
  "ㅂㅕㄴㅎㅘ": 1703,
  "ㅈㅗㅁㅏㄴ": 12714,
  "ㅃㅓㄴ": 8349,
  "ㄱㅜㄱㅁㅣㄴㄷㅡㄹㅇㅣ</w>": 17099,
  "ㅂㅜㅁㅗㄱ": 23636,
  "ally</w>": 16651,
  "ㄷㅔㅅㅡ</w>": 17971,
  "ㄱㅣㄴㅈㅏㅇ": 9449,
  "ㅈㅜㅇㅇㅡㄹ</w>": 9301,
  "ㄷㅗㅁㅔㅇㅣㄴ</w>": 11410,
  "ㅎㅑㅇㅅㅏㅇㄷㅚㄴ</w>": 23465,
  "ㅍㅏㄴㅇㅔㅅㅓ</w>": 23066,
  "ㅋㅗㅋㅗ": 20467,
  "(\"</w>": 32120,
  "ㄱㅏㄹㄷㅡㅇ": 13596,
  "ㅇㅗㄴㅡㄹ": 1706,
  "ㅊㅣㄱ</w>": 3797,
  "ㅊㅓㅇㅅㅗㄴㅕㄴㅂㅗㅎㅗㅈㅓㅇㅊㅐㄱ</w>": 24468,
  "ㅇㅣㄴㅅㅐㅇㅇㅡㄹ</w>": 8394,
  "ㄷㅐㅊㅐㄱ": 9652,
  "1997ㄴㅕㄴ</w>": 17792,
  "ㅎㅐㅈㅜㄹ": 20292,
  "ㅈㅗㅇㅇㅓㅂ": 18386,
  "ㅋㅔㅂㅣㄴ</w>": 25551,
  "ㅡ</w>": 155,
  "ㅈㅓㄴㅁㅜㄴ": 1297,
  "ㅇㅕㅈㅏㄹㅡㄹ</w>": 18287,
  "ㄴㅏㅇ</w>": 21929,
  "ㄱㅕㅇㅈㅔㅈㅓㄱㅇㅣㄴ</w>": 20477,
  "ㄹㅏ</w>": 639,
  "ㄷㅗㄹㅇㅏㅇㅘㅆㄷㅏ</w>": 17141,
  "ㄲㅜㅁㅇㅣ</w>": 17181,
  "ㅇㅓㅌㅡ</w>": 18262,
  "ㅎㅡㅌ": 16485,
  "ㅇㅣㅈㅓㄴㅇㅔ</w>": 6540,
  "ㅎㅏㄱㄱㅐㄹㅗㄴ</w>": 25663,
  "ㅅㅓㅇㅈㅏㅇㄱㅘ</w>": 20649,
  "ㅂㅗㅅㅏㅇ</w>": 12434,
  "ㅍㅣㅋㅏ": 29362,
  "ㅎㅘㅅㅏㄹ": 18582,
  "ㅁㅣㄴㅌㅡ</w>": 29717,
  "ㅇㅔㅅㅓㄷㅗ</w>": 1481,
  "ㄲㅗㅊㅇㅢ</w>": 30835,
  "ㅈㅗㅈㅣ": 15388,
  "ㅈㅔ5": 10409,
  "ㅈㅔㄴ": 4437,
  "ㄱㅏㅁㅕㄴㅅㅓ</w>": 6897,
  "ㄱㅘㄴㄹㅣㅈㅏㅇㅢ</w>": 31996,
  "ㄷㅚㄴ</w>": 500,
  "ㄸㅐㄹㅕㄴ": 15509,
  "ㄱㅗㄷㅂㅏㄹㅗ</w>": 12200,
  "ㅁㅜㄹㅛ": 1855,
  "ㅅㅟ</w>": 3994,
  "ㅅㅏㄹㅏㅁㄷㅡㄹㅇㅔㄱㅔㄴㅡㄴ</w>": 29808,
  "ㅈㅜㅇㅇㅛㅎㅏㄱㅔ</w>": 15674,
  "Test</w>": 30528,
  "ㅎㅜㅂㅗㅇㅢ</w>": 25482,
  "ㅅㅛㅌㅡㅌㅡㄹㅐㄱ</w>": 29102,
  "ㅎㅏㄱㅗㄴㅡㄴ</w>": 9475,
  "ㅂㅓㅅㅓㅅ</w>": 17105,
  "ㅅㅡㄹㅍㅡㅁ": 20025,
  "ㄷㅙㅇㅑ</w>": 11631,
  "ㅎㅏㄴㄱㅕㄹ": 12903,
  "ㄷㅙㅆㄷㅏㄴㅡㄴ</w>": 16809,
  "ㅈㅗㅇㅇㅡㄴ</w>": 14932,
  "Book</w>": 10274,
  "ㄱㅐㄷㅡㄹㅣㅂ</w>": 28950,
  "ㄹㅕㅇ": 934,
  "ㅅㅣㄹㅣㅈㅡ</w>": 3636,
  "ㅉㅓㄱ</w>": 9744,
  "ㅈㅜㅇㅓㅆㄷㅏ</w>": 9459,
  "ㄴㅏㄴㅜㄱㅗ</w>": 13866,
  "ㅇㅕㄴㅇㅣ</w>": 25765,
  "ㅂㅟ": 10505,
  "ㅇㅜㅁㄱㅘ</w>": 25499,
  "ㅍㅗㅅㅡㅌㅡ</w>": 9903,
  "ㅂㅗㄱㅇㅝㄴ</w>": 11654,
  "ㅈㅜㅁㅣㄴㅇㅢ</w>": 23063,
  "ㅂㅜㄷㅏㅇ": 15072,
  "ㅎㅏㄱㄴㅕㄴ</w>": 4747,
  "Adobe</w>": 18139,
  "ㅅㅏㅇㅛㅇㅇㅡㄴ</w>": 15461,
  "ㄱㅖㅈㅓㅇㅇㅔ</w>": 24159,
  "ㅂㅜㄱㄱㅜ</w>": 18838,
  "ㅇㅜㅂㅜㄴ": 25912,
  "ㅅㅔㅅㅏㅇㄱㅘ</w>": 29258,
  "ㄹㅑ": 1303,
  "ㅈㅜㅇㅇㅔㅅㅓ</w>": 3807,
  "ㅈㅔㄹㅗ": 22475,
  "ㅇㅣㄴㅊㅓㄴㄱㅘㅇㅇㅕㄱㅅㅣ</w>": 32116,
  "ㅂㅗㄷㅗㅇㅔ</w>": 25746,
  "ㄱㅛㅅㅜ": 4403,
  "ㅇㅠㅇㅏ": 5656,
  "ㅈㅔ22": 30226,
  "ㅁㅏㅇㅇㅣ</w>": 12659,
  "ㅌㅏㅇㅣ": 3332,
  "ㅂㅜㅂㅜ": 8442,
  "ㅇㅣㅂㅅㅜㄹ</w>": 29560,
  "ㅁㅟㄴㅎㅔㄴ</w>": 22161,
  "led</w>": 12449,
  "ㅈㅓㄱㅎㅏㅂ</w>": 31239,
  "GO": 18103,
  "G": 31,
  "ㅌㅓㄴㅡㄴ</w>": 9024,
  "ㄴㅔ": 678,
  "ㅁㅠㅈㅣㄱㅂㅣㄷㅣㅇㅗ</w>": 31493,
  "ㅎㅏㄴㄱㅓ</w>": 19344,
  "ㅇㅣㅇㅛㅇㅈㅏㅇㅢ</w>": 6819,
  "ㄴㅔㅌㅡㅇㅝㅋㅡ</w>": 3877,
  "ㅂㅜㄹㅇㅢ</w>": 30094,
  "ㅟ": 128,
  "ㅅㅡㅋㅗㅇㅓ</w>": 6702,
  "?)</w>": 3061,
  "ㅅㅣㅇㅓ": 14178,
  "ㅅㅔㄱㅖㄹㅡㄹ</w>": 7527,
  "ㅆㅡㄹ</w>": 4205,
  "ㅁㅏㄱ</w>": 1695,
  "ㅅㅣㄱㅂㅕㄹㅎㅏㄹ</w>": 25860,
  "ㄴㅗㅎㅇㅣㄴ</w>": 21634,
  "ㄸㅡㅁ": 27169,
  "ㄱㅘㄱㅓㅇㅢ</w>": 11177,
  "ㄱㅘㅈㅔ": 9499,
  "ㅂㅜㅂㅜㄴㅇㅔ</w>": 5812,
  "ㄷㅗㅇㅎㅐㅇ": 22792,
  "ㄱㅟㅎㅏㄴ</w>": 12492,
  "ㅇㅗㄹㄹㅏㄱㅏㄹ</w>": 25517,
  "ㄱㅣㄹㅇㅡㄹ</w>": 2680,
  "Mot": 23689,
  "ㄱㅡㄹㅐㅍㅣㄱㅋㅏㄷㅡ</w>": 30602,
  "ㅈㅔㄱㅗㅇㅎㅏㄴㄷㅏ</w>": 7647,
  "ㅇㅕㄱㅕ</w>": 28140,
  "ㄴㅏㅁㅍㅕㄴ": 4861,
  "ㅅㅡㅇㅈㅣㄴ": 24305,
  "ㅈㅓㄹㄱㅏㅁ</w>": 24524,
  "ㅂㅡㄹㅗ</w>": 21248,
  "ㅌㅐㄱㅂㅐ</w>": 12342,
  "ㅇㅛㅎㅏㄴ": 14711,
  "ㅈㅜㄴㅣ</w>": 29040,
  "ㅅㅏㅈㅓㅇ</w>": 3482,
  "ㅁㅣㄹㄹㅣㅁㅣㅌㅓ": 3620,
  "ㄹㅔㄱㅣㅇ": 25719,
  "ㅍㅡㄹㅏㅇㅣㅁ": 23348,
  "New</w>": 9362,
  "ㅍㅣㄹㅇㅛㅎㅏㄷㅏ</w>": 4537,
  "ㅈㅣㄴㄹㅗ</w>": 18567,
  "Google</w>": 8378,
  "ㅎㅓㄴ": 2001,
  "ㅁㅏㄶㅇㅣㄷㅡㄹ</w>": 29685,
  "ㅋㅏㄹㅗ</w>": 28269,
  "WD</w>": 29713,
  "ㄴㅔㄱㅅㅓㅅㅡ": 16192,
  "ㄷㅡㄹㅏㅁㅏㄹㅡㄹ</w>": 21253,
  "ㄱㅏㄹㅏㄱ": 17801,
  "ㄲㅗㅇ": 8239,
  "ㄱㅣㅂㅗㄴㅈㅓㄱㅇㅣㄴ</w>": 6501,
  "ㅇㅓㅂㅓ": 30402,
  "ㅇㅏㄹㅇㅏㅂㅗㄱㅣ</w>": 15513,
  "ㅇㅏㄹㅡㄹ</w>": 8363,
  "ㅅㅜㅈㅜㄴㅇㅣ</w>": 13991,
  "ㅍㅜㄹㅇㅣ": 15454,
  "ㄷㅐㅎㅏㄴㅌㅗㅇ": 23983,
  "ㅇㅝㄹㅅㅔ</w>": 30427,
  "ㄱㅓㄹㄹㅣㅈㅣ</w>": 25720,
  "ㅗㅇㅔ</w>": 10354,
  "ㅅㅣㅂ": 2208,
  "ㅈㅣㄹㄹㅓ": 18411,
  "ㄷㅔㅇㅣㅌㅓㅂㅔㅇㅣㅅㅡ</w>": 7105,
  "ㅇㅣㄹㅅㅜㄹㅗㄱ</w>": 15282,
  "udy</w>": 20462,
  "PDF</w>": 10948,
  "2022": 20286,
  "ㅅㅣㄴㅅㅗㄱㅎㅏㄴ</w>": 13723,
  "ㅊㅏㅈㄱㅔ</w>": 22384,
  "ㅍㅐㅅㅡㅇㅝㄷㅡ</w>": 32724,
  "5ㄱㅐㅇㅝㄹ</w>": 28089,
  "ㄷㅗㅇㅇㅣ</w>": 10335,
  "ㅇㅕㅆㅈㅣㅁㅏㄴ</w>": 15717,
  "ㅋㅏㄹㄹㅓ": 29721,
  "ㄱㅡㄹㅆㅔ</w>": 32705,
  "ㅁㅣㄴㅈㅜㄷㅏㅇㅇㅣ</w>": 30040,
  "ㄴㅏㅁㅇㅏㅆ": 26382,
  "ㅂㅡㄹㅐㄴㄷㅡ</w>": 3090,
  "ㅇㅓㄷㄴㅡㄴ</w>": 11082,
  "ㅌㅟ</w>": 25849,
  "ㅅㅐㅇㄱㅣ": 4715,
  "ㄱㅜㄱㄱㅏㅇㅢ</w>": 8080,
  "ㄱㅗㄹㅍㅡㄹㅡㄹ</w>": 30495,
  "ㅅㅕㅅㅓ</w>": 2066,
  "ㅇㅗㄹㄹㅣㄴ": 27752,
  "ㅂㅗㅅㅏㅇ": 8281,
  "230": 30398,
  "ㅇㅕㄱㅓㄴㅇㅣ</w>": 31173,
  "ㅁㅗㅇㅣㅁㅇㅡㄹ</w>": 19849,
  "ㅈㅏㄱㅡㅁ": 7876,
  "ㅂㅣㅅ</w>": 15683,
  "ㅅㅏㄴㅑㅇ": 14516,
  "ㅇㅣㄹㅈㅏ</w>": 9357,
  "ㅅㅏㅁ</w>": 7587,
  "ㅋㅞㅅㅡㅌㅡ</w>": 21702,
  "ㄴㅏㄱㅏㄱㅗ</w>": 14403,
  "ㄴㅏㅇㅛ</w>": 1844,
  "ㄹㅓㅅㅣㅇㅏ</w>": 4646,
  "ㄱㅏㅅ</w>": 12275,
  "ㅎㅕㅂㅈㅓㅇ</w>": 15583,
  "HTTP</w>": 22308,
  "ㅎㅕㅇㄱㅘㅇ": 27178,
  "ㄱㅣㅇㅟㅎㅐ</w>": 24470,
  "ㅇㅔㅇㅣㅅㅡ": 32621,
  "ㅈㅜㅁㅏㄹ": 9859,
  "ㅁㅗㅅㅎㅐㅆㄷㅏ</w>": 5435,
  "ㅊㅗㅇㅅㅓㄴ</w>": 23968,
  "ㅎㅏㅁㅅㅜ</w>": 13338,
  "ㅇㅢㅅㅏㅇㅢ</w>": 21639,
  "ㅇㅚㅈㅏㅇ": 17204,
  "ㅈㅜㅇㅎㅏㄴ</w>": 4055,
  "ㅋㅠ</w>": 7901,
  "19</w>": 3369,
  "ㅇㅕㄴㅂㅕㄴ": 21885,
  "ㄹㅕㅆㄷㅓㄴ</w>": 25801,
  "ㅁㅏㄷㅣ": 15281,
  "ㄴㅕㅇ": 2591,
  "ㅅㅏㅇㅇㅟ": 10198,
  "ㅈㅣㄴㅊㅜㄹㅎㅏㄴ</w>": 24607,
  "ㅇㅏㄲㅣㅈㅣ</w>": 28011,
  "ㅍㅗㄹㅡ": 4683,
  "ㅅㅣㄹㅅㅡㅂ": 9314,
  "ㅇㅚㄱㅜㄱㅇㅓ": 24923,
  "ㅅㅗㅇㅍㅏ": 17674,
  "ㄱㅕㄹㅈㅓㅇㄷㅚㄴ</w>": 29875,
  "ㅂㅗㅈㅡㅇㄱㅡㅁ</w>": 29996,
  "ign": 8249,
  "ㅇㅐㄷㅡㄹㅇㅣ</w>": 25112,
  "ㅌㅏㄹㅏㄱ": 19883,
  "PP</w>": 26103,
  "5ㄴㅕㄴㄱㅏㄴ</w>": 14876,
  "ㅅㅏㅇㅛㅇㄷㅚㅈㅣㅁㅏㄴ</w>": 21820,
  "ㅈㅏㄱㅣㅅㅗㄱㅐ": 5899,
  "ㅎㅚㅇㅢㅅㅣㄹ</w>": 14415,
  "ㅈㅗㅁㅏㄴㄱㅏㄴ</w>": 13431,
  "ㅇㅟㄱㅣㄱㅏ</w>": 25569,
  "10": 640,
  "Bi": 12062,
  "ㄲㅡㄶㅇㅓ": 22644,
  "ㅎㅏㄱㄱㅛㅈㅓㅇㅂㅗ</w>": 5214,
  "ㅎㅗㅁㅍㅔㅇㅣㅈㅣㅇㅔ</w>": 13651,
  "ㅈㅓㅇㅂㅜㅇㅘ</w>": 12550,
  "ㅍㅣㄴㅣ": 17623,
  "sp": 3975,
  "ㅅㅔㅅㅏㅇㅇㅔ</w>": 5564,
  "ㅂㅗㅇㅏㅆㅇㅡㄹ</w>": 23533,
  "1ㅇㅡㄹ</w>": 18230,
  "ㅎㅘㅅㅓㅇ": 14903,
  "ㅋㅡㄹㄹㅓㅂ": 7392,
  "ㅇㅣㄴㅁㅣㄴ": 9136,
  "ㅅㅏㅇㅍㅜㅁㄱㅏㄴㄹㅑㄱㅅㅓㄹㅁㅕㅇ</w>": 31048,
  "ㅂㅐㄹㅗ</w>": 17438,
  "ㅁㅏㅇㅇㅡㄹ</w>": 8158,
  "ㄴㅣㅇㅓㄴ</w>": 16106,
  "ㅁㅏㄴㄱㅣ</w>": 29414,
  "ㅈㅓㄱㅇㅛㅇㅎㅏㄴㅡㄴ</w>": 24354,
  "ㅅㅣㄱㄷㅗ</w>": 26274,
  "ㅂㅗㄹ": 1253,
  "ㄹㅣㅁㅗ": 13418,
  "ㅂㅏㄹㅅㅏ": 14293,
  "ㅋㅐㄹㄹㅣㅍㅗㄴㅣㅇㅏ</w>": 13041,
  "ㅈㅏㄹㅣㅇㅔ</w>": 5089,
  "ㄷㅜㅇㅓㅆㄷㅏ</w>": 32662,
  "ㅅㅡㅍㅡㄹㅣ": 8136,
  "ㅁㅕㄴㅇㅡㄹ</w>": 4171,
  "ㅃㅡㄱㅗ</w>": 15233,
  "ㅂㅏㄹㅍㅛㄹㅡㄹ</w>": 19445,
  "ㄷㅗㅇㅇㅏㄹㅣ": 22337,
  "ㄷㅐㅎㅏㄴㅎㅏㅇㄱㅗㅇ": 27558,
  "ㅈㅜㅁㅜㄹㅡㄱㅣ</w>": 23711,
  "ㅋㅏㄹㅅㅠ": 17055,
  "ㄷㅣㅇㅇㅡㄹ</w>": 15858,
  "ㄱㅡㄴㅇㅠㄱ": 9163,
  "ㅁㅗㄷㅠㄹㅇㅡㄹ</w>": 25440,
  "ㅇㅕㅎㅐㅇㄱㅖㅎㅚㄱ</w>": 21914,
  "ㄱㅘㄴㄱㅖㅇㅓㅄㅇㅣ</w>": 14948,
  "ㄷㅗㅇㅇㅣㄹㅈㅗㄱㅓㄴ": 6194,
  "ㅅㅡㅍㅔㅇㅣㄴㅇㅢ</w>": 18861,
  "ㄱㅏㅇㅢ</w>": 2880,
  "ㅊㅡㄱㅇㅢ</w>": 13629,
  "Data</w>": 13915,
  "ㅅㅐㅇㅇㅡㄹ</w>": 5987,
  "ㅅㅜㅁㅈㅣㄴ</w>": 27917,
  "ㄱㅘㅅㅣ": 21023,
  "ㄷㅟ</w>": 2382,
  "ㄷㅏㅁㅂㅐ</w>": 11928,
  "ㅅㅣㄱㄷㅏㅇㅇㅔㅅㅓ</w>": 22049,
  "ㅅㅐㅇㅅㅓㅇ": 4157,
  "ㅇㅏㅇㅣㅅㅡ": 14618,
  "ㅋㅓㅁㅍㅓ": 32731,
  "32ㅅㅏㄹ</w>": 32317,
  "ㅅㅐㅇㅌㅐ": 9250,
  "ㅎㅐㅆㄷㅏㄱㅗ</w>": 2651,
  "ㄴㅡㄲㅣㄹ</w>": 4666,
  "Cor": 12411,
  "ㅅㅡㅇㅟㅌㅡ</w>": 7225,
  "Muse": 16644,
  "ㅇㅘㅇㅣㄴ</w>": 9117,
  "ㅇㅝㄴㄹㅣ</w>": 10783,
  "ㄲㅡㅌㅇㅔ</w>": 6030,
  "ㄷㅏㅋㅡ</w>": 32303,
  "ㄲㅡㅌ": 1159,
  "ㅍㅣㄱㅅㅡ</w>": 30627,
  "ㅏㅇㅛ</w>": 3453,
  "ㅈㅏㅇ": 343,
  "ㅎㅏㄴㅡㄴㄱㅓㅅㅇㅣ</w>": 22771,
  "ㅋㅗㄷㅣ": 11687,
  "ㄷㅜㄷㅡㄹㅓ": 17685,
  "ㅇㅞㅇㅓㄹㅓ": 25304,
  "ㅇㅏㅇㅣㄷㅣㄷㅏㅇ</w>": 5210,
  "ㄱㅜㄱㅈㅓㅇ": 6273,
  "ㅍㅗㄱㄹㅕㄱㅇㅢ</w>": 30394,
  "ㅇㅣㄴㄷㅡㄹ</w>": 11889,
  "ㄱㅡㄹㅔㅇㅣ": 4082,
  "ㄴㅏㄴㅝ</w>": 16492,
  "ourn": 18027,
  "ㅂㅏㄷㅇㅏㅆㅇㅡㄹ</w>": 19396,
  "ㅎㅕㄴㅎㅘㅇㄱㅘ</w>": 14919,
  "ㅂㅡㄹㄹㅐㄱ</w>": 3367,
  "Geo</w>": 18261,
  "ㅂㅔㅇㅣ</w>": 11047,
  "ㅇㅜㄴㅇㅕㅇㅎㅏㄹ</w>": 22423,
  "ㅅㅏㅇㅛㅇㅈㅏㄴㅡㄴ</w>": 10958,
  "ㅈㅏㅁㄲㅏㄴ</w>": 8570,
  "ㄴㅏㅎㅏㄴㅌㅔ</w>": 19046,
  "ㅅㅏㅇㅌㅐ</w>": 4756,
  "ㄷㅚㄱㅣㄹㅡㄹ</w>": 10978,
  "ㅍㅜㄱ": 31241,
  "ㅇㅢㅅㅏㄴㅡㄴ</w>": 31912,
  "ㅇㅏㅂㅓㅈㅣ": 8547,
  "f": 59,
  "ㄹㅗㄷㅗ</w>": 7738,
  "ㅈㅗㄹㅣ": 7387,
  "220": 20338,
  "ㅂㄴㅣㄷㅏ": 24638,
  "ㅎㅏㅅㅕㄷㅗ</w>": 15235,
  "Ben": 31705,
  "38</w>": 7630,
  "vari": 24243,
  "ㅂㅏㄱㅅㅏㄴㅡㄴ</w>": 22278,
  "ㅈㅜㅂㅏㅇ": 11158,
  "ㅇㅣㄹㄱㅕㅇ": 15257,
  "ㅅㅣㅁㅎㅘ": 19491,
  "ㄴㅗㅎㅇㅡㅁㅕㄴ</w>": 21252,
  "ㄱㅕㅌㅇㅔ</w>": 12726,
  "2ㄷㅏㄴㄱㅖ</w>": 20346,
  "ㄱㅏㄹ": 690,
  "ㅇㅓㅁㅊㅓㅇ</w>": 7261,
  "ㅍㅡㄹㅣㅁㅣㅇㅓㄹㅣㄱㅡ</w>": 20802,
  "ㅇㅠㅎㅐㅇ</w>": 30821,
  "ㄷㅡㄹㅇㅡㅁㅕㄴㅅㅓ</w>": 27116,
  "ㄴㅔㅅ</w>": 5075,
  "ㅇㅜㄴㄷㅗㅇ": 1701,
  "ㅅㅜㄷㅗ</w>": 1278,
  "ㅂㅣㅌㅏㅁㅣㄴ</w>": 11318,
  "ㅅㅗㄴㅇㅡㄹㅗ</w>": 6589,
  "ㅍㅓㅅㅔㄴ": 6039,
  "ㄱㅏㄷㅡㄱ": 5026,
  "ㅈㅓㅈㅏㄱㅁㅜㄹㅇㅡㄴ</w>": 17558,
  "ㅍㅡㄹㄹㅔㅇㅣㅇㅗㅍㅡ</w>": 28375,
  "ㄱㅜㅇㄱㅡㅁㅎㅏㄷㅏ</w>": 22958,
  "ㅅㅐㅇㄱㅏㄱㅎㅐㅇㅑ</w>": 25445,
  "ㅎㅏㄷㅓㄴ": 30439,
  "ㄴㅡㄺㅇㅡㄴ</w>": 12142,
  "ㄷㅏㅇㅊㅗ</w>": 13900,
  "ㅇㅕㄴㅁㅐㅇ": 23065,
  "ㄱㅓㅅㄷㅗ</w>": 1271,
  "ㅁㅗㅌㅓ": 10624,
  "ㅊㅓ</w>": 1644,
  "ㄸㅐㅁㅜㄴㅇㅣㄷㅏ</w>": 1773,
  "ㅆㅣㄴㅡㄴ</w>": 3507,
  "ㅅㅣㅁㅇㅢ": 10690,
  "ㄷㅗㄹㅇㅏㅇㅘ": 31112,
  "ㅔㄷㅗ</w>": 10204,
  "ㄱㅜㅊㅓㅇㅈㅏㅇ</w>": 30043,
  "ㄷㅣㅈㅏㅇㅣㄴㅇㅡㄹ</w>": 10267,
  "ㅈㅓㅂㅎㅏㄴ</w>": 9912,
  "ㅈㅣㄱㅏ</w>": 1711,
  "ㅇㅏㅁㅜㄹㅓㄴ</w>": 6766,
  "Thin": 27346,
  "ㅋㅓㄹㄹㅓㄹㅗ</w>": 31407,
  "ㅂㅓㅂㅁㅜ": 11601,
  "ㅂㅏㅋㅏㄹ": 5296,
  "ㄸㅓㅇㅗㄹㅡㄴㅡㄴ</w>": 16647,
  "3ㅁㅏㄴㅇㅝㄴ</w>": 22732,
  "ㅗㅇㅜ": 23240,
  "ㅎㅐㅆㅇㅓㅇㅑ</w>": 32310,
  "ㅁㅗㅅㅐㄱ": 13936,
  "ㄷㅏㄷㄱㅗ</w>": 28850,
  "ㅋㅡㅈㅣㅇㅏㄶㅇㅡㄴ</w>": 16686,
  "ㄴㅏㅁㅜㅇㅢ</w>": 26068,
  "ㅁㅗㄱㅅㅏㄱㅏ</w>": 23530,
  "ㅅㅡㅇㅔㄱㅔ</w>": 26962,
  "ㅆㅡㅇㅕ": 25537,
  "ㅇㅓㅇㅜㄹㄹㅣㄴㅡㄴ</w>": 12027,
  "65</w>": 13030,
  "ㅈㅏㅊㅟㅂㅏㅇ</w>": 18643,
  "1ㅅㅔㄷㅐ</w>": 28543,
  "ㅁㅏㄴㄷㅡㄹㄱㅗ</w>": 4593,
  "1080": 28578,
  "Tim": 11598,
  "ㅈㅓㄱㄱㅡㄱ</w>": 8535,
  "ㅂㅣㅂㅏㅇ": 4720,
  "ㅎㅏㅁㄷㅗ</w>": 25047,
  "ㄱㅣㄱㅏㄴㄷㅗㅇㅇㅏㄴ</w>": 24322,
  "ok": 7257,
  "ㄴㅡㄴㄱㅓㄴ</w>": 12452,
  "ㅇㅜㅁㅈㅣㄱ": 2806,
  "ㄹㄹㅓㅅㅡ</w>": 30211,
  "ㅇㅣㅎㅜㅇㅢ</w>": 12559,
  "ㅎㅝㄹㅆㅣㄴ</w>": 3324,
  "ㅅㅣㄴㅎㅗ</w>": 13926,
  "ㅁㅜㄴㅈㅔㄱㅏ</w>": 1885,
  "ㄲㅏㄷㅏㄺ": 21664,
  "ㅇㅠㅈㅓㄴㅈㅏ": 28483,
  "ㅇㅣㄹㅏㅂㄴㅣㄷㅏ</w>": 16189,
  "ㅂㅜㄹㄱㅘ</w>": 10358,
  "ㄱㅏㄲㅏㅂㄱㅗ</w>": 30026,
  "ㅊㅏㄱㅇㅛㅇ": 6770,
  "ㄷㅏㅂ</w>": 6359,
  "ㅊㅓㄹㅎㅚ</w>": 15846,
  "ㅈㅜㅇㅇㅛㅅㅓㅇㅇㅡㄹ</w>": 16544,
  "ㅠㄴ</w>": 20059,
  "ㅋㅡㄱㅣㄴㅡㄴ</w>": 17993,
  "Copy": 22153,
  "ㅇㅕㅇㄱㅜ": 12018,
  "ㅇㅔㅇㅓㅂㅣㅇㅐㄴㅂㅣ</w>": 16090,
  "ㄱㅜㄱㅁㅣㄴ</w>": 5875,
  "ㅂㅏㄷㅇㅡㄴㅂㅏ</w>": 9257,
  "ㅇㅖㄹㅡㄹ": 26216,
  "ㅈㅐㅌㅔㅋㅡ</w>": 18909,
  "ㅅㅡㅌㅏㅇㅝ": 27126,
  "ㅅㅡㅋㅔㅊㅣ</w>": 24805,
  "ㅁㅓㄱㅇㅓ": 10167,
  "ㄱㅣㅅㅏㄹㅗ</w>": 32536,
  "ㅂㅐㅌ": 20417,
  "ㅎㅐㄴㅗㅎㄱㅗ</w>": 23850,
  "ㅇㅣㅊㅔ</w>": 18604,
  "ㅈㅓㅁㅈㅓㅁ</w>": 4001,
  "ㅊㅣㄹㅗ</w>": 13749,
  "ㅇㅣㅎㅏㄴ": 30269,
  "pm</w>": 31957,
  "ㄷㅗㅇㅜㅁ</w>": 10468,
  "ㅅㅏㅇㅇㅕㅇ</w>": 32574,
  "ㅌㅔㄱ</w>": 10562,
  "ㄱㅝㄴㄱㅘ</w>": 13849,
  "ㅈㅏㅇㅕㄴㅇㅣ</w>": 31507,
  "lobal</w>": 19785,
  "ㅅㅜㅈㅜㄴㅇㅣㄷㅏ</w>": 25100,
  "ㅇㅕㅇㅇㅑㅇ</w>": 17316,
  "ㅁㅣㅊㅣㄴ</w>": 10540,
  "ions</w>": 28046,
  "ㄱㅏㅇㅅㅜㄹㅑㅇ": 14196,
  "ㅂㅓㄹㄹㅣ": 14959,
  "ㅈㅓㅅ": 30514,
  "ㅌㅏㄴㅇㅏㅂ": 31743,
  "Kn": 23500,
  "ㄱㅘ": 331,
  "medi": 23104,
  "20ㄱㅐ</w>": 26275,
  "ㅈㅏㅂㅗㄴ": 4145,
  "ㅈㅣㅅㅣㄱㄱㅘ</w>": 15743,
  "LCD": 31077,
  "ㄱㅏㅇㅡㄹ": 5220,
  "ㅂㅜㄷㅗㅇㅅㅏㄴ": 7176,
  "ㅇㅕㄴㅎㅏㅂㄴㅠㅅㅡ</w>": 17540,
  "ㅍㅕㅇㅇㅑㅇ</w>": 11945,
  "ㄴㅐㄹㅗ</w>": 15171,
  "ㅇㅕㅇㅜㄴ": 31757,
  "ㅊㅜㅇㄱㅕㄱ": 6520,
  "ㅇㅣㅇㅓㅆㄷㅏㅁㅕㄴ</w>": 27392,
  "ㅇㅟㄱㅣㅇㅔ</w>": 14699,
  "ㄱㅕㅇㅇㅣ</w>": 12364,
  "ㅋㅏㄹㄹㅏ</w>": 19056,
  "ㅅㅓㅇㅊㅜㅎㅐㅇ</w>": 21444,
  "ㄱㅜㅇㅕㄱ": 6663,
  "47": 7867,
  "ㅇㅢㅇㅢ</w>": 7429,
  "ㅎㅏㅇㄱㅗㅇ": 1848,
  "ㄱㅘㄴㄱㅖ": 1213,
  "ㅂㅣㄹㄹㅕ</w>": 21207,
  "ㅈㅣㅁㅏㄴㅇㅛ</w>": 20691,
  "ㄹㅏㄴㅈㅔㄹㅣ</w>": 9932,
  "ㄱㅘㄴㄱㅘ</w>": 8963,
  "ㅅㅣㄴㅂㅣ": 12282,
  "ㅎㅕㅂㅂㅏㄱ": 26998,
  "ㅋㅔㅇㅣㅅㅡㄹㅡㄹ</w>": 27943,
  "ㄴㅏㅁㅏㄴ</w>": 17907,
  "ㅊㅓㅇㅡㅁ": 1928,
  "book": 31582,
  "ㄲㅙ</w>": 4065,
  "ㅅㅜㄴㅅㅓ</w>": 20815,
  "ㅂㅐㄱㅇㅢ</w>": 31223,
  "groupsex</w>": 16855,
  "ㅂㅏㄲㅜㄹ": 21378,
  "ㅎㅏㄹㅂㅜ</w>": 28286,
  "ㅊㅔㅎㅓㅁㅎㅏㄹ</w>": 12920,
  "News</w>": 20256,
  "ㅍㅡㄹㅣㅈㅔㄴㅌㅔㅇㅣ": 26471,
  "ㅅㅜㄴㅈㅗㅇ": 19130,
  "ㅅㅗㄴㅕㄴ": 6095,
  "ㄱㅣㅁㅁㅣ": 25471,
  "ㅅㅏㅇㅅㅣ</w>": 21401,
  "ㅂㅔㄷㅡㄹ": 28625,
  "ㅌㅣㅂㅇㅡㄹ</w>": 24389,
  "ㅈㅓㅇㅂㅗㅇㅔㄴㅡㄴ</w>": 17661,
  "ㅂㅗㅅㅕㅆ": 22435,
  "ㅋㅡㄹㅏㅇㅜㄷㅡ": 24417,
  "ㅎㅐㄱㅕㄹㅎㅏㄹ</w>": 10475,
  "ㅂㅔㅌㅡㄴㅏㅁ</w>": 6902,
  "ㅈㅔㅈㅏㄱㅇㅔ</w>": 28084,
  "ㄹㅗㄸㅗ</w>": 20285,
  "ㅇㅣㄴㅇㅕㄴ": 14107,
  "ㅇㅛㅇㅇㅓㄹㅡㄹ</w>": 19449,
  "30ㅂㅜㄴㅇㅔ</w>": 31921,
  "ㄽ": 94,
  "1ㄱㅐㅇㅝㄹ</w>": 18345,
  "ㅇㅣㄷㅔㅇㅗㄹㄹㅗ": 32419,
  "ㅎㅐㅇㅚ</w>": 3221,
  "km</w>": 2216,
  "ㅈㅗㅈㅓㅇ": 4942,
  "ㅅㅣㄱㅏㄴㄷㅐㄴㅡㄴ</w>": 18484,
  "ㅈㅣㄷㅗㄹㅗㄱ</w>": 23488,
  "ㄷㅡㄷㅗ</w>": 28706,
  "ㄱㅡㄷㅡㄹㅇㅡㄴ</w>": 3112,
  "ㅈㅏㄱㅇㅛㅇ": 3616,
  "ㅈㅜㅇㅢㄴㅡㄴ</w>": 19310,
  "ㅇㅚㅇㅔ</w>": 4333,
  "ㄷㅜㄹㅗ</w>": 17325,
  "ㅆㅡㄱㅗ</w>": 4051,
  "ㅂㅏㄹㅏㅁㅈㅣㄱㅎㅏㄴ</w>": 13677,
  "SALE</w>": 32268,
  "ㅇㅔㄱㅅㅔㄹ</w>": 23540,
  "ㄷㅏㅅㅋㅓㅁ": 15197,
  "ㄱㅕㅆㄷㅏ</w>": 13947,
  "ㅁㅗㄷㅔ": 1330,
  "ㅆ</w>": 213,
  "ㅂㅜㄷㅡㄹㅓㅂㄱㅔ</w>": 17102,
  "ㅈㅜㄴㅣㅁ": 26464,
  "ㄴㅣㅁ": 887,
  "ㅇㅏㄹㄹㅕㅆㄷㅏ</w>": 27825,
  "ㄴㅏㅇㅏㄱㅏㄹ</w>": 20595,
  "ㅅㅓㅅㅓ": 11265,
  "ㅆㅣㅇㅔㄱㅔ</w>": 20990,
  "ㅂㅓㅈ": 11077,
  "ㅁㅣㄹㅎㅣ</w>": 20306,
  "ㅅㅏㅇㅅㅗㄱ": 11399,
  "ㅇㅜㄴㅇㅕㅇㅇㅔ</w>": 14318,
  "ㅇㅕㄱㅏ</w>": 19553,
  "ㅈㅗㅎㅅㅡㅂㄴㅣㄷㅏ</w>": 3024,
  "ㅇㅑㄼㅇㅡㄴ</w>": 11118,
  "ㅂㅐㄱㅎㅏㄴ</w>": 28058,
  "ㅇㅏㅅㅣㅇㅏㅇ": 24129,
  "ㄱㅕㅇㅜㄴ</w>": 21402,
  "ㅌㅔㄱㅅㅏ": 9457,
  "ㄷㅏㅇㅣㄹ": 15244,
  "ization</w>": 19378,
  "ㅅㅣㄱㅡ": 24736,
  "ㅋㅓㄴㅍㅓㄹㅓㄴ": 10752,
  "7ㅇㅝㄹ</w>": 3146,
  "ㄷㅗㄱㅜㄹㅡㄹ</w>": 13897,
  "ㅅㅣㄹㅊㅓㄴ</w>": 13980,
  "ㅎㅕㄴㄷㅐㅈㅓㄱㅇㅣㄴ</w>": 19690,
  "ㅂㅜㅁㅗㄹㅡㄹ</w>": 26602,
  "\\\\'</w>": 30860,
  "15ㄴㅕㄴ</w>": 14575,
  "ㅈㅗㅇㄹㅠㄹㅡㄹ</w>": 23449,
  "OS</w>": 3882,
  "ㄱㅏㅂㅗㄱㅗ</w>": 24968,
  "ㅅㅜㄴㄱㅏㄴ": 4372,
  "100ㅇㅕ</w>": 30785,
  "ㄷㅗㄴㅓㄹ": 12693,
  "House</w>": 18443,
  "ㅊㅐㅇㅜ": 14716,
  "ㅇㅏㄴㅏㅇㅜㄴㅅㅓ</w>": 26529,
  "ㄱㅡㄹㅓㄷㅓㄴ</w>": 21046,
  "ㅇㅓㅄㅇㅓㅇㅑ</w>": 28861,
  "ㅎㅛㄹㅕㄱㅇㅣ</w>": 31374,
  "ㄱㅗㅇㅈㅓㅇ</w>": 15796,
  "ㅇㅕㅇㅇㅡㄹ</w>": 15724,
  "ㅅㅐㅎㅐ</w>": 12944,
  "ㄷㅏㅇㅅㅣㄴㅇㅡㄴ</w>": 3721,
  "ㅇㅝㄴㅎㅘㄹㅎㅏㄱㅔ</w>": 24381,
  "ㄱㅣㄱㅖ</w>": 4017,
  "ㅇㅓㄱㅇㅝㄴㅇㅡㄹ</w>": 15848,
  "Cㅇㅢ</w>": 20956,
  "ㄱㅏㄱㅔㄹㅡㄹ</w>": 30284,
  "ㄱㅏㅈㅕㅇ": 3557,
  "ㅅㅏㅇㅎㅘㅇ</w>": 5046,
  "ㅊㅓㄹㅈㅓㅎㅣ</w>": 11676,
  "ㅈㅏㅇㅁㅕㄴ</w>": 9034,
  "ㅍㅛㅈㅜㄴ</w>": 6867,
  "GN": 24706,
  "ㅊㅜㅇㅂㅜㄴㅎㅏㄴ</w>": 7245,
  "esㅇㅔㅅㅓ</w>": 32466,
  "ㅁㅏㅈㅊㅜㅁㅎㅕㅇ</w>": 10379,
  "ㅂㄴㅣㄲㅏ</w>": 1376,
  "ㅈㅣㅇㅝㄴㅇㅡㄹ</w>": 6205,
  "ㄱㅡㄹㄹㅏㅇㅣㅋㅗㄹ</w>": 31952,
  "ㅂㅗㄴㅐㄱㅗ</w>": 8554,
  "GTX</w>": 27381,
  "ㅡㄹㅏ": 22175,
  "reg": 24097,
  "ㅈㅏㅇㅠ": 1491,
  "ㅎㅏㄴㅁㅏㄷㅣ</w>": 12872,
  "ㅂㅗㅎㅓㅁㅇㅣ</w>": 29046,
  "ㅊㅜㅈㅓㅇ": 9109,
  "ㄷㅏㄹㅋㅗㅁㅎㅏㄴ</w>": 14062,
  "ㅇㅜㄹㅣㄷㅡㄹㅇㅢ</w>": 18085,
  "ㄱㅓㅂㅜ</w>": 12063,
  "ㅇㅗㄴㄱㅏㅈ</w>": 10875,
  "ㄷㅏㄱㅗ</w>": 606,
  "ㅈㅏㄴㄸㅡㄱ</w>": 20605,
  "BMW</w>": 13417,
  "ㅅㅐㅇㅁㅜㄹㅎㅏㄱ</w>": 24586,
  "ㅇㅣㅎㅖ": 31583,
  "ㅎㅕㄴㅈㅏㅇ</w>": 4917,
  "ㅈㅓㅇ": 320,
  "ㅍㅣㅇ": 1256,
  "ㅡㄹㅡ</w>": 30090,
  "ㄱㅜㄱㅈㅓㄱ</w>": 15747,
  "ㅅㅣㅁ": 529,
  "ㅂㅣㄱㅛ": 2004,
  "ㅍㅣㅇ</w>": 3459,
  "ㅅㅔㅅㅏㅇㅇㅡㄹ</w>": 4739,
  "ㅇㅝㄴㅎㅏㄱㅗ</w>": 23579,
  "ㅁㅜㄹㄹㅕ": 17866,
  "ㄷㅜㅈㅣ</w>": 17881,
  "ㅇㅣㄹㅂㅗㄴㅇㅓ</w>": 9299,
  "ㅎㅐㅈㅜㅅㅣㄴ</w>": 11995,
  "ㅅㅣㅍㄷㅏㅁㅕㄴ</w>": 9883,
  "ㅈㅔ14": 26394,
  "ㅅㅜㅈㅣㅂ</w>": 4532,
  "ㅁㅜㄴㅎㅘㅈㅓㄱ</w>": 12366,
  "ㅂㅏㄹㅍㅛㅎㅏㄴ</w>": 10651,
  "ㅁㅐㄱㄹㅏㄱ": 15755,
  "ㄷㅏㅇㅇㅣ</w>": 6637,
  "ㅇㅕㄴㄱㅡㅁ": 7054,
  "ㄱㅘㅇㅣㄹ</w>": 13535,
  "na": 27495,
  "ㅅㅡㅋㅐ": 10614,
  "ㅂㅜㅂㅜㄴㅇㅣㅂㄴㅣㄷㅏ</w>": 18905,
  "ㅊㅏㅁㅈㅗ": 5092,
  "ㄱㅗㅇㅕㅇ": 25412,
  "ㅁㅜㄴㅎㅘㅊㅔㅇㅠㄱ": 18500,
  "ㅁㅗㄹㄹㅏㅆㄷㅏ</w>": 20090,
  "ㅈㅓㄴㅎㅘㅂㅓㄴㅎㅗ</w>": 7037,
  "ㅇㅣㅇㅘ</w>": 3116,
  "ㅂㅡㄹㄹㅓ</w>": 24644,
  "ㅍㅡㄹㅣㄴㅌㅣㅇ</w>": 16656,
  "ㅍㅡㄹㄹㅏㅇㅣ</w>": 20911,
  "ㅎㅏㄴㅈㅜㅇ": 32682,
  "ㅂㅏㄷㅇㅏㄷㅡㄹㅇㅣㄴㅡㄴ</w>": 24553,
  "1ㅇㅓㄱ</w>": 12700,
  "2color</w>": 14027,
  "ㅅㅜㅇㅝㄴ</w>": 9065,
  "ㅈㅐㄱㅜㅅㅓㅇㅇㅡㄴ</w>": 18128,
  "ㅁㅔㅇㅣㄹㅂㅗㄴㅐㄱㅣ</w>": 19185,
  "ㅇㅣㅅㅏㄴ": 24094,
  "ㄱㅗㅈㅓㅇ": 6574,
  "ㅈㅓㄹㅅㅣㄹ": 15960,
  "ㅁㅜㅅㅏ</w>": 24624,
  "ㅇㅕㄹㅁㅐㄹㅡㄹ</w>": 24768,
  "ㅇㅛㅇㄱㅣㄹㅡㄹ</w>": 17349,
  "ㅁㅗㅅㅎㅏㅁㅕㄴ</w>": 14017,
  "ㄷㅚㄱㅗㅈㅏ</w>": 32226,
  "ㅈㅓㅇㄱㅘ</w>": 9197,
  "ㄱㅓㅅㅂㅜㅌㅓ</w>": 29650,
  "ㅎㅏㄷㅏㅂㅗㅁㅕㄴ</w>": 18361,
  "ㄷㅏㅎㅈㅣ</w>": 24587,
  "5ㄴㅕㄴ": 7768,
  "ㅁㅣㄴㅎㅗㅌㅣㅁ</w>": 21558,
  "3ㅈㅏㅇ</w>": 19401,
  "ㅁㅣㄷㅇㅡㅁㅇㅣ</w>": 18998,
  "ㅇㅞㄴ": 11960,
  "ㅁㅣㄴㅈㅜㅎㅘ": 29419,
  "ㅇㅓㄴㄹㅗㄴㅇㅣ</w>": 25316,
  "5ㅊㅓㄴ": 8409,
  "ㅈㅣㅎㅕㅇㅎㅏㄱ</w>": 19205,
  "ak</w>": 16088,
  "ㅈㅗㅇㅑㄱ": 23706,
  "ㅈㅣㅍㅓ</w>": 30116,
  "1ㅂㅓㄴ": 14881,
  "ㄱㅜㄱㅈㅔ</w>": 3848,
  "ㄱㅓㅁㅈㅡㅇ</w>": 13449,
  "ㅂㅏㄴㅏㄴ": 14080,
  "line</w>": 8621,
  "ㅅㅏㅈㅣㄴ</w>": 1494,
  "ㅇㅖㅈㅓㅇ": 2044,
  "ㅈㅓㄴㄴㅡㅇ": 30228,
  "ㄱㅣㅇㅔㄴ</w>": 18940,
  "BC</w>": 6901,
  "ㅇㅠㅎㅕㅇㅇㅡㄹ</w>": 22054,
  "ㅂㅜㅈㅗㄱㅎㅏㄴ</w>": 6476,
  "ㅍㅏㅇㅣㅇㅓㅍㅗㄱㅅㅡ</w>": 23955,
  "20ㅇㅕ</w>": 22898,
  "ㄿ": 96,
  "ㅈㅓㄱㅍㅖ": 23958,
  "ㄱㅐㄴㅕㅁㅇㅡㄴ</w>": 21208,
  "ㅁㅏㄴㅇㅝㄴㅇㅣ</w>": 24854,
  "ㄹㅏㅌㅣ</w>": 22477,
  "ㅇㅏㄶㅇㅡㅁㅕ</w>": 5169,
  "ㅂㅗㅇㅕㅈㅝㅆㄷㅏ</w>": 21772,
  "ㅅㅡㅌㅔㅇㅣㄴㄹㅣㅅㅡ</w>": 25022,
  "ㅁㅏㄴㅣ": 8113,
  "ㅁㅏㄴㄷㅡㄹㅇㅓㄴㅐ": 24828,
  "ㅇㅞㅅㅡㅌㅡ</w>": 20807,
  "ㅊㅣㅇㅢ</w>": 7889,
  "ㅈㅓㄴㄹㅑㄱ</w>": 3193,
  "ock": 11525,
  "ㄴㅏㅁㄱㅕㅆㄷㅏ</w>": 22100,
  "ㅇㅕㅎㅗㅇㅘ": 13788,
  "ㅇㅏㅇㅣㅇㅓㄴ": 26724,
  "ㅈㅓㄴㅁㅜㄴㅇㅣㅁㅕ</w>": 24199,
  "ㅊㅗㅊㅓㅇ": 9520,
  "ㅅㅓㅈㅓㅇ": 24155,
  "Micros": 6379,
  "ㅅㅔㅇㅝㄹㅎㅗ</w>": 8982,
  "400</w>": 17177,
  "ㅅㅔㄱㅣ": 16980,
  "ㅈㅗㅅㅓㅇ": 6494,
  "ㅈㅗㅈㅏㄱ": 6665,
  "ㄷㅡㄹㅔㅇㅣ": 27209,
  "ㅇㅕㄴㄱㅕㄹㄷㅚㅇㅓ</w>": 13444,
  "ㅂㅏㄴㄷㅐ</w>": 8519,
  "ㅇㅝㄴㅎㅏㅅㅣㅁㅕㄴ</w>": 24671,
  "ㄱㅏ</w>": 306,
  "ㄸㅜㄹ": 9127,
  "ㅇㅣㄱㅗㅅㅇㅡㄹ</w>": 16424,
  "ㅅㅣㅅㅜㄹ": 23441,
  "ㄱㅏㄹㅏ</w>": 11474,
  "ㄷㅡㄹㅣㄱㅔㅆㅅㅡㅂㄴㅣㄷㅏ</w>": 2342,
  "ㄷㅗㅇㅈㅏㄱ</w>": 13487,
  "ㄴㅏㅇㅗㅁㅕㄴ</w>": 12598,
  "ㅈㅏㅂㅏㄹ": 12111,
  "ㅊㅑ": 20574,
  "PG": 5891,
  "ㄷㅏㄹㅋㅗㅁ": 10421,
  "ㄷㅐㅎㅏㄱㅇㅣ</w>": 24951,
  "ㅈㅐㅅㅐㅇㅅㅣㄱㅏㄴ</w>": 17748,
  "ㅋㅏㅇㅜㄱㅓㄹ</w>": 13679,
  "ㅈㅣㄱㅡ": 30031,
  "CS</w>": 19612,
  "ㅅㅏㅈㅣㄱ": 27385,
  "ㅂㅜㄷㅣㅈ": 12596,
  "ㅂㅓㄹㄹㅔ</w>": 21964,
  "ㄱㅗㅇㅎㅠㅇㅣㄹ</w>": 17344,
  "ㄱㅣㄴㅈㅏㅇ</w>": 28207,
  "ㅇㅜㅅㅡㅇㅇㅔ</w>": 25723,
  "ㅋㅡㄹㅔ": 7433,
  "ㅈㅏㄹㅁㅗㅅㄷㅚㄴ</w>": 5416,
  "ㅇㅣㄴㄷㅡㄹㅇㅔㄱㅔ</w>": 14161,
  "ㄱㅏㄹㅣㄴㅡㄴ</w>": 29830,
  "ㅈㅜㄴㅂㅣㅎㅏㄹ</w>": 21274,
  "ㅇㅣㅇㅑㄱㅣㄱㅏ</w>": 6711,
  "ㅇㅏㄹㅏㅂ": 15137,
  "ㅈㅓㅇㅅㅣㄱ": 17150,
  "2000ㄴㅕㄴ</w>": 12481,
  "ㅅㅔㄹㅏ": 29501,
  "ㄱㅣㅁㄷㅐ": 9827,
  "2018ㅎㅏㄱㄴㅕㄴㄷㅗ</w>": 22834,
  "ㅇㅣㄹㅇㅓㄴㅏㄹ</w>": 12801,
  "ㅁㅏㅊㅕ": 19594,
  "ㅇㅓㅂㅊㅔㄹㅡㄹ</w>": 19403,
  "Ye": 26653,
  "ㅌㅗㄹㅡㄹ</w>": 19230,
  "ㄴㅡㄴㅈㅣㄴㅡㄴ</w>": 16078,
  "ㅅㅜㄴㅇㅟㄹㅗ</w>": 22526,
  "istory</w>": 17577,
  "ㅈㅐㅁㅣ</w>": 10797,
  "ㅆㅏㅎㅇㅕ": 32242,
  "ㅍㅡㄹㅗ</w>": 4842,
  "VOA</w>": 21507,
  "ㅇㅜㅁㅕㄴ</w>": 26930,
  "ㄹㅗㄸㅗㄷㅏㅇㅊㅓㅁ": 25331,
  "ㅈㅣㄷㅗㅅㅏ</w>": 29458,
  "ㅁㅐㄴ": 1873,
  "ㅈㅔㄹ": 6977,
  "ㅂㅡㄹㅏㅇㅜㅈㅓㅇㅔㅅㅓ</w>": 17394,
  "ㅁㅗㅁㅁㅐ</w>": 23808,
  "ㅌㅡㄱㄹㅖ": 29969,
  "ㅅㅓㄹㅈㅓㅇㅇㅔ</w>": 26292,
  "ㅈㅓㄱㅈㅓㄹㅎㅏㄴ</w>": 5632,
  "ㅋㅏㄷㅡㄹㅗ</w>": 14911,
  "ㅌㅗㅇㅇㅣㄹㅇㅢ</w>": 31059,
  "ㄷㅗㅇㅇㅢㅎㅏㅈㅣ</w>": 22004,
  "ㅁㅏㅁㄷㅐㄹㅗ</w>": 20208,
  "ㅋㅓㄴㅅㅓㄹㅌㅓㄴㅌㅡ</w>": 31836,
  "ㅁㅗㄷㅔㄹㅇㅢ</w>": 17262,
  "ㅅㅐㅇ</w>": 1040,
  "ㅊㅓㅇㅁㅜㄴ": 20235,
  "order</w>": 24167,
  "ㅇㅜㅁㅇㅡㄴ</w>": 29010,
  "ㅅㅐㅇㄱㅕㅆㅅㅡㅂㄴㅣㄷㅏ</w>": 30106,
  "ㄷㅗㅅㅣㅇㅔㅅㅓ</w>": 21219,
  "ㅈㅣㅈㅣㄴ": 13507,
  "vir": 18946,
  "ㄷㅡㄹㄱㅘㅇㅢ</w>": 11561,
  "ㅂㅗㄴㄷㅏㅁㅕㄴ</w>": 13372,
  "ㄲㅐㄱㅗ</w>": 26893,
  "We": 7057,
  "ㅂㅡㄹㅏㅈㅣㄹ</w>": 10762,
  "ㅎㅏㅇㄱㅗㅇㅅㅏ</w>": 11169,
  "ㅇㅣㄴㅍㅡㄹㄹㅔㅇㅣ": 27340,
  "ㅂㅜㅌㅣㅇ": 16781,
  "ㅇㅏㄴㅣㄴㄱㅏㅇㅛ</w>": 17698,
  "ㅆㄷㅏ</w>": 357,
  "ㅅㅔㅈㅗㅇ": 6739,
  "ㄷㅜ</w>": 689,
  "ㄴㅏㅅㅏㅇㅢ</w>": 19346,
  "ㅁㅔㄹㅣ</w>": 24196,
  "ㅇㅏㄷㅡㄹㅇㅣ</w>": 12800,
  "ㄸㅓㄹㅇㅓㅈㅣㄴㄷㅏ</w>": 30703,
  "ㄴㅏㄱㅇㅡㄹ</w>": 32455,
  "ㅂㅏㅇㅅㅏ": 7944,
  "ㅗㄷㅗ</w>": 13864,
  "UA": 14970,
  "ㄺ</w>": 225,
  "ㅅㅜㄴㅡㅇ</w>": 12404,
  "ㄱㅐㅂㅕㄹㅈㅓㄱㅇㅡㄹㅗ</w>": 19552,
  "ㅍㅕㅇㅁㅕㄴ</w>": 11358,
  "ㅈㅜㅇㅇㅛㅎㅏㄷㅏㄴㅡㄴ</w>": 26916,
  "ㅇㅞㅇㅓ</w>": 9121,
  "ㅊㅏㅁㅇㅕㅎㅏㄱㅗ</w>": 18562,
  "ㅅㅓㄴㅁㅜㄹ": 4546,
  "ㅇㅏㅇㅜㄹ": 6605,
  "key": 29813,
  "---</w>": 13330,
  "ㄱㅗㅈㅓㄴ</w>": 14842,
  "ㅅㅗㅅㅗㅇㅇㅡㄹ</w>": 17700,
  "ㅊㅓㄴㅇㅏㄴㅎㅏㅁ</w>": 32029,
  "ㅈㅓㄴㅁㅏㅇ</w>": 4981,
  "ㅂㅗㅇㅏ</w>": 14201,
  "ㅇㅣㄴㅐㅇㅔㄴㅡㄴ</w>": 21370,
  "ㅂㅗㄷㅗㅎㅐㅆㄷㅏ</w>": 12341,
  "ㅇㅟㅎㅓㅁㅎㅏㄴ</w>": 10743,
  "ㅁㅜㅇㅓㅅ": 1310,
  "ㄷㅏㄱ": 5314,
  "ㄱㅏㄹㅡㅊㅣㅁ": 29695,
  "ㄱㅔㅇㅛ</w>": 7519,
  "ㅅㅔㄱㅅㅣㅎㅏㄴㅈㅜㅇㄴㅕㄴㅇㅕㅅㅓㅇ</w>": 5589,
  "ㅊㅏㅊㅡ": 32277,
  "ㄷㅏㅁㅕㄴ</w>": 831,
  "ering</w>": 23698,
  "PI</w>": 27996,
  "ㄷㅣㅈㅏ": 1333,
  "ㅂㅜㄴㄷㅏㅇ": 14343,
  "ㅂㅓㅌㅡㄴㅇㅣ</w>": 20440,
  "ㄴㅏㅁㅈㅏㄷㅡㄹㅇㅣ</w>": 31060,
  "ㄴㅣㄹ": 20176,
  "ㅂㅜㄴㅂㅐ</w>": 31038,
  "ㅇㅠㅅㅏㅇ": 29750,
  "ㄱㅐㅎㅕㄱㅇㅢ</w>": 25218,
  "ㄴㅏㅁㅅㅓㅇㅇㅡㄴ</w>": 31941,
  "ㄱㅜㄱㄱㅏㅇㅏㄴ": 24939,
  "ㅇㅓㅂㅊㅔㅇㅔ</w>": 14553,
  "ㅁㅜㄷㄴㅡㄴ</w>": 11071,
  "ㅈㅗㄱㅖ": 23288,
  "ㅅㅜㅇㅝㄹ": 18564,
  "ㅍㅕㅇㅅㅗㅇ": 25470,
  "ㅍㅣㄹㄹㅣㅂ": 23232,
  "ㄷㅓㄹㅡㄹ</w>": 15786,
  "ㅅㅡㄹㅅㅡㄹ</w>": 22639,
  "ㄱㅘㅇㄱㅗㄱ": 4894,
  "ㄷㅔㄷㅏㄱㅏ</w>": 24540,
  "ㅁㅏㄶㅇㅏ</w>": 7531,
  "ㄱㅏㅇㅇㅢㄹㅡㄹ</w>": 10839,
  "ㅂㅜㅈㅐ": 25842,
  "Jizz": 12737,
  "ㅅㅓㄴㅅㅏ": 11827,
  "ㅎㅜ": 634,
  "ㄸㅗㄹ": 9686,
  "ㅂㅗㅌㅗㅇㅇㅢ</w>": 27244,
  "ham</w>": 32474,
  "ㅅㅡㅋㅣ</w>": 7884,
  "acter": 22917,
  "Pro": 3676,
  "ㅎㅏㄹㅕㅁㅕㄴ</w>": 3358,
  "ㅇㅣㄴㅈㅡㅇㅅㅓ</w>": 19522,
  "ㅊㅜㄱㅏㅎㅏㄹ</w>": 17252,
  "te</w>": 8433,
  "cap": 22070,
  "ㅈㅏㅅㅣㄱㅇㅡㄹ</w>": 29104,
  "ㅇㅕㄹ": 595,
  "ㅈㅔㅎㅏㄴㅇㅣ</w>": 16004,
  "ㅇㅕㅍㅇㅔㅅㅓ</w>": 15425,
  "ㄱㅔㅇㅣ</w>": 7575,
  "ㅎㅡㄴㅈㅓㄱㅇㅣ</w>": 27452,
  "55</w>": 7662,
  "ㅅㅓㄴㅎㅏㄴ</w>": 14613,
  "ㅎㅏㄴㄱㅜㄱㅇㅣ</w>": 15556,
  "ㅅㅗㄱㅇㅣ</w>": 11593,
  "ㄸㅓㄹㄹㅣ": 16745,
  "ㅇㅏㄶㄷㅓㄴ</w>": 26689,
  "ㄷㅐㅈㅜㅇㄱㅛㅌㅗㅇ": 23913,
  "ㄱㅣㅇㅣㅂ": 20635,
  "ㅇㅓㄴ</w>": 1934,
  "ㅅㅏㄹㅛ</w>": 29069,
  "ㄷㅚㄴㅔㅇㅛ</w>": 14821,
  "ㅅㅜㄹㅗ": 30569,
  "ㅅㅣㅍㄷㅏㄱㅗ</w>": 18134,
  "ㅇㅕㄱㅅㅏㄱㅏ</w>": 13631,
  "ㅈㅜㅁㅗㄱㅂㅏㄷㄱㅗ</w>": 28196,
  "ㅅㅗㄴㄱㅏㄹㅏㄱㅇㅡㄹ</w>": 23206,
  "ㅁㅜㄱㅔㄹㅡㄹ</w>": 22132,
  "ㅇㅣㄹㅓㅎㄷㅏ</w>": 23744,
  "AN": 4078,
  "ㅈㅏㅂㅗㄴㅇㅢ</w>": 28294,
  "ㅇㅣㅁㅣㅈㅣ": 10597,
  "ㅂㅏㄷ": 536,
  "ㅇㅣㅎㅐㅎㅏㄱㅣ</w>": 12389,
  "ㅇㅣㅈㅣㅁㅏㄴ</w>": 2369,
  "ㄱㅕㄹㅈㅔㄹㅡㄹ</w>": 25071,
  "ㅈㅣㄴㅣㄱㅗ</w>": 12798,
  "ㅎㅏㄴㅔㅇㅛ</w>": 4249,
  "ㅋㅡㄹㅣㅅㅡㅁㅏ": 5798,
  "ㅈㅓㄴㅈㅔㄹㅗ</w>": 25969,
  "ㄴㅏㅁ": 513,
  "ㅈㅓㅂㄱㅡㄴㅅㅓㅇ</w>": 25426,
  "ㅇㅕㄴㅅㅡㅂ": 4768,
  "ㅇㅖㅅㅜㅇㅢ</w>": 17200,
  "fucking</w>": 9969,
  "ㅅㅓㅁㅅㅔㅎㅏㄴ</w>": 30981,
  "ㅂㅗㅇㅣㅈㅣ</w>": 4645,
  "ㄴㅓㄹㅡㄹ</w>": 6564,
  "AM": 4539,
  "value</w>": 26439,
  "ous</w>": 9570,
  "ㅅㅕㅇㅑ</w>": 8010,
  "ㅂㅜㄹㅡㄹ</w>": 1948,
  "ㅅㅏㅇㅣㄴ": 18881,
  "ㅁㅕㅇㅊㅣㅇ": 16430,
  "ㅏㅇ": 267,
  "ㅈㅔㄴㅣ": 29963,
  "ㅅㅓㅇㅇㅣ</w>": 1448,
  "ad": 1833,
  "ㅇㅣㅅㅜ</w>": 27784,
  "ㄸㅐㄴㅡㄴ</w>": 2112,
  "ㅔㅅㅡ</w>": 19531,
  "ㅊㅟㄱㅡㅂㅂㅏㅇㅊㅣㅁ</w>": 30433,
  "ㅈㅏㅇㄹㅡ</w>": 22336,
  "ㅇㅕㅇㅇㅟ": 27477,
  "ㅂㅗㄱㅗㅅㅓㄴㅡㄴ</w>": 12673,
  "ㅕㄹ</w>": 9750,
  "ㅈㅔㄷㅗ": 8768,
  "ㅁㅗㅅㅎㅏㄱㅗ</w>": 3338,
  "ㅎㅜㄷㅡㅌㅣ</w>": 24091,
  "ㅎㅠㄷㅐ</w>": 24645,
  "ㅍㅏㅋㅡ": 11529,
  "ㄴㅟ": 21134,
  "ㅊㅓㅇㅡㅁㅇㅔ</w>": 10903,
  "5ㄹㅗ</w>": 29647,
  "ㅇㅏㄱㅅㅓㅇ</w>": 18017,
  "hand": 31171,
  "ㅂㅓㄴㅇㅕㄱㄱㅘ</w>": 21030,
  "ㅅㅛㅍㅣㅇ": 2652,
  "ㅇㅡㄹㅗㅁㅏㄴ</w>": 7974,
  "600": 8466,
  "ㅁㅜㄴㅇㅢㅎㅏㅅㅣㄹ</w>": 4972,
  "ww": 2576,
  "ㅇㅞㅂㅎㅏ": 32441,
  "ㅅㅣㅈㅏㄱㄷㅚㄹ</w>": 27344,
  "ㅍㅛㅁㅕㄴ": 16790,
  "193": 12984,
  "ㅇㅖㅅㅏㅇ</w>": 7347,
  "ㅝㄴ</w>": 981,
  "ㄱㅛㅌㅗㅇㅅㅏㄱㅗ</w>": 21926,
  "ㅅㅣㄹㅡㄹ</w>": 4430,
  "ㅈㅓㅇㅁㅣㄹ</w>": 29006,
  "ㅈㅓㄱㄱㅕㄱ": 28547,
  "ㄱㅡㅇㅈㅓㅇㅈㅓㄱ</w>": 18791,
  "ㅏㄴㅇㅔ</w>": 26090,
  "ㅍㅗㅅㅡㅌㅣㅇㅇㅡㄹ</w>": 18153,
  "Ver": 15148,
  "ㅅㅏㄹㄱㅔ</w>": 18608,
  "ㅈㅗㄱㅗㅇ": 31525,
  "ㅁㅜㄴㅇㅢㅎㅐ</w>": 25351,
  "ㅍㅗㅎㅏㅁㅎㅏㄱㅗ</w>": 13729,
  "ㄷㅡㄹㅇㅔ</w>": 2619,
  "ㅍㅣㄹㅇㅛㅎㅏㄱㅗ</w>": 25536,
  "ㅁㅏㄴㄷㅡㄹㅇㅓㄱㅏㄴㅡㄴ</w>": 29490,
  "ㅇㅓㅈㅣ": 4080,
  "ㅁㅜㅇㅓㅅㅇㅡㄹ</w>": 4304,
  "ㄱㅏㄷㅡㄴ": 22756,
  "ㅎㅐㄱㅜㄴ": 26885,
  "ㅁㅗㄱ": 588,
  "ㅎㅏㅇㅣ": 2549,
  "ma</w>": 13558,
  "ㅇㅣㄴㅈㅣ</w>": 1702,
  "ㄱㅡㄹㅓㄴㄷㅔ</w>": 1611,
  "ㄴㅜㄴㅏ</w>": 17292,
  "ㅌㅣㅁㅇㅣㄴ</w>": 25451,
  "ㅎㅐㄱㅏ</w>": 4085,
  "ㅇㅓㅇㅣ": 25978,
  "ㅅㅣㄹㄹㅣ": 7873,
  "ㄹㅠㄹㅡㄹ</w>": 16144,
  "ㅎㅗㅅㅡㅌㅔㄹ</w>": 22021,
  "ㅌㅗㄴㅣ": 13746,
  "ㅌㅡㄷㅚㄴ</w>": 18399,
  "ㅅㅗㄴㄱㅏㄹㅏㄱ</w>": 11066,
  "ㅁㅔ": 645,
  "ㅂㅐㅌㅓㄹㅣ</w>": 7549,
  "ㅇㅏㄱㅇㅛㅇ": 26079,
  "ㄱㅖㅇㅑㄱㅈㅣㄱ</w>": 27063,
  "ㅁㅜㄴㅈㅏㄱㅏ</w>": 29361,
  "ㅂㅘㅆ": 5240,
  "ㅇㅟㅊㅣㅇㅢ</w>": 15063,
  "ㅅㅏㅎㅏㅇㅇㅡㄹㅗ</w>": 31250,
  "@</w>": 244,
  "ㄱㅓㄴㅇㅢ</w>": 9247,
  "ㄷㅡㅇㅇㅢ</w>": 1343,
  "ㄱㅐㅂㅏㄹㄷㅚㄴ</w>": 21784,
  "ㅅㅓㄴㅡㄴ</w>": 923,
  "ㅇㅣㅆㅇㅓㅇㅛ</w>": 2451,
  "win": 31314,
  "ㅇㅣㄹㅓㅎㄱㅔ</w>": 1320,
  "ㅇㅣㄹㅓㄹ": 26723,
  "ㅊㅚㅅㅗㅎㅏㄴㅇㅢ</w>": 12408,
  "ㅅㅠ": 1360,
  "ㅎㅣㅁㅕ</w>": 9651,
  "ㄷㅗㄷㅏㄹ": 9666,
  "ㅁㅓㄴㅌㅡ": 25141,
  "ㄱㅏ": 281,
  "ㅌㅗㅇㅎㅐㅅㅓ</w>": 3417,
  "ㅂㅡㄹㄹㅗㄱㅓ": 11952,
  "ㄷㅡㅅㅎㅏㄷㅏ</w>": 15061,
  "ㅅㅔㄹ</w>": 6645,
  "ㄹㅏㅂㅔㄹ": 20870,
  "ㅁㅜㅈㅏㄱ": 12945,
  "ㅇㅕㄴㅅㅡㅂ</w>": 12786,
  "ㅁㅏㅋㅔㅌㅣㅇㅈㅓㄴㄹㅑㄱ</w>": 22529,
  "ㅊㅓㅇㄱㅜㄱ": 25011,
  "ㅎㅐㅁㅂㅓㄱㅓ</w>": 32372,
  "ㄷㅜㄹㅇㅡㄴ</w>": 18456,
  "ong</w>": 6643,
  "ㅋㅣㄹㄹㅗㅁㅣㅌㅓㅇㅣㄴㅐㄴㅡㄴ</w>": 17764,
  "tre": 21865,
  "ㅂㅓㅌㅡㄴ": 8039,
  "ㄱㅏㄱㅈㅏ</w>": 9500,
  "ㅋㅡㄹㄹㅏㅇㅣㅇㅓㄴㅌㅡ": 27667,
  "ㅏㅇㅘ</w>": 5301,
  "NEWS</w>": 31070,
  "ㅆㅓㄴ": 10183,
  "....</w>": 2107,
  "ㄱㅜㅂㅜㄴ": 4727,
  "ㅇㅠㅁㅕㅇ</w>": 8211,
  "ㅂㅜㄱㅎㅏㄴㅇㅢ</w>": 6691,
  "ㅅㅓㄹㄱㅖㄹㅡㄹ</w>": 22821,
  "ook": 10129,
  "ㄱㅗㄷㅡㅇ</w>": 30887,
  "ㅎㅗㄱㅅㅣ": 31419,
  "ㄱㅗㄱㅐㄱㅇㅡㄹ</w>": 12797,
  "ㅇㅣㅂㅈㅏㅇㅇㅔ</w>": 25467,
  "ㅁㅏㅌㄱㅕ": 25461,
  "ㅍㅡㅅㅡ</w>": 28844,
  "ㅈㅏㅊㅔㄷㅗ</w>": 22847,
  "ㄴㅏㅁㅕ</w>": 10485,
  "ㅎㅠㄷㅐㅈㅓㄴㅎㅘ</w>": 22929,
  "ㄱㅗㅇㄱㅣㅊㅓㅇ": 25164,
  "ㄱㅘㅊㅓㄴ": 28261,
  "GO</w>": 19624,
  "ㄱㅏㅌㅇㅡㅁ</w>": 32356,
  "ㅌㅣ</w>": 1251,
  "ㅇㅣㅎㅜ": 4307,
  "ㅇㅕㅅ": 12537,
  "con": 3357,
  "deepthro": 13394,
  "ㄷㅐㅁㅕㅇ": 19448,
  "ㅅㅣㅈㅏㄱㅎㅏㄱㅗ</w>": 15830,
  "ㅂㅜㅁㅗ</w>": 7125,
  "ㄱㅘㅈㅓㅇㅇㅡㄹ</w>": 3845,
  "ㅇㅣㅈㅓㄴ</w>": 2985,
  "ㅅㅔㄱㅠㄴ": 20231,
  "ㅋㅏㄷㅡㄴㅡㄴ</w>": 18540,
  "ㅍㅗㄴ</w>": 1574,
  "ㅅㅜㄹ</w>": 1226,
  "ic": 951,
  "mi": 15117,
  "ㅇㅣㅆㄷㅏㄱㅏ</w>": 12653,
  "sex": 12844,
  "Ind": 24776,
  "ㅋㅐㅁㅍㅡ</w>": 8372,
  "ㅇㅟㅎㅓㅁ": 2996,
  "ㅁㅗㄴㅗ": 26126,
  "ㅅㅜㄱㅅㅗ": 24278,
  "dic": 28396,
  "..(</w>": 16367,
  "ㅎㅏㄴㄱㅏㅈㅣ</w>": 11953,
  "ur": 1554,
  "ㄱㅡㄴㄹㅗㄱ": 29527,
  "ㅂㅓㅂㄹㅠㄹ</w>": 5456,
  "ond": 9005,
  "ㄷㅡㄹㅐ": 6151,
  "ㅁㅐㄱㅅㅡ</w>": 18675,
  "ㅇㅣㄹㅉㅣㄱ</w>": 5940,
  "ㅁㅏㄱㅇㅏ": 27942,
  "ㅈㅓㅇㄷㅗㄹㅡㄹ</w>": 13845,
  "ㅊㅜㅊㅓㅁ": 18679,
  "ㅅㅓㄴㄱㅛ": 5385,
  "ㄷㅐㅁㅏㄴ</w>": 10946,
  "Fam": 30989,
  "ster</w>": 2459,
  "ㅎㅕㄴㅇㅢ</w>": 13393,
  "Vip": 19372,
  "ㅈㅐㅁㅣㅆㄱㅔ</w>": 18755,
  "ㅇㅟㅊㅣㅎㅏㄱㅗ</w>": 8943,
  "ㅂㅐㄱㅎㅘㅈㅓㅁ": 30615,
  "ㄷㅗㅇㅔ</w>": 3089,
  "ㅊㅜㄹㅍㅜㅁ": 25677,
  "Mess": 29462,
  "EV": 14478,
  "ㅈㅣㅁㅕㄴㅇㅔ</w>": 17135,
  "ㄱㅡㄹㄹㅐ": 14348,
  "ㅇㅗㄹㅏㄱㅅㅣㄹ</w>": 18684,
  "ㅂㅐㄴㄷㅡㅇㅢ</w>": 10290,
  "asy</w>": 27469,
  "ㅍㅕㅇㅎㅘㄹㅡㄹ</w>": 15466,
  "ㅌㅡㄹㅣㅍㅡㄹ": 30869,
  "ㅁㅐㄴㅣㅇㅏ</w>": 30071,
  "ㅁㅏㄹㅇㅡㄹ</w>": 2024,
  "ㅊㅏㄱㅣ</w>": 13054,
  "LL": 10781,
  "ㅁㅓㄱㅌㅟ": 17364,
  "ㄷㅡㄹㅁㅕㄴ</w>": 8156,
  "ㅇㅣㄹㅈㅓㅇㅇㅔ</w>": 21322,
  "ㄱㅣㅅㅜㄹㄱㅘ</w>": 12710,
  "ㅊㅏㄹㅕ": 23982,
  "ㅌㅜㅅㅡ</w>": 8631,
  "nology</w>": 23218,
  "ㅎㅏㅇㅕㅅㅓ</w>": 31461,
  "ㄷㅗㅊㅘㄹ</w>": 16703,
  "ㅎㅘㄴㅈㅏ": 16298,
  "ㄷㅗㅇㅂㅏㄴ</w>": 15917,
  "ㅋㅏㄷㅡㄴㅠㅅㅡ</w>": 16759,
  "ㅇㅕㄴㄱㅖ</w>": 15834,
  "ㄱㅡㄷㅡㄹㅇㅔㄱㅔ</w>": 12084,
  "File</w>": 25624,
  "ㅅㅗㅁㅜㄴㅇㅣ</w>": 22634,
  "ㅇㅣㅁㄱㅣ</w>": 21896,
  "ㅇㅝㄴㄱㅕㄱ</w>": 14285,
  "ㅁㅕㅇㅎㅘㄱ": 5506,
  "ㅂㅏㄲㅇㅔㄷㅗ</w>": 17732,
  "ㅅㅓㅆㄷㅏ</w>": 10774,
  "ㅈㅐㅍㅏㄴ": 4870,
  "ㄹㄹㅓ": 1459,
  "ㅇㅣㅂㄱㅓㄴ": 27986,
  "ㅈㅐㅂㅓㄹ": 17285,
  "Ni": 30667,
  "ㅈㅓㄴㄷㅗ</w>": 14503,
  "ㅇㅠㅅㅏㄴ</w>": 15546,
  "ㅅㅏㅇㄱㅡㅂ": 31478,
  "ㅂㅜㅈㅣ</w>": 24286,
  "ㄹㅏㄷㅣㅇㅗ</w>": 9770,
  "BJ</w>": 31192,
  "ㄴㅐㅇㅈㅏㅇ": 5854,
  "ㅈㅏㄱㅅㅓㅇ</w>": 3889,
  "ㅋㅗㅊㅣ": 21059,
  "ㅈㅣㄴㄱㅘ</w>": 14324,
  "Fig": 22288,
  "ㅇㅣㅆㅇㅡㅁ</w>": 3710,
  "ㅂㅡㄹㄹㅣ</w>": 28519,
  "ㅁㅗㅅㅡㅂㅇㅣ</w>": 4798,
  "ㅌㅔㅇㅣㅂㅡㄹㅇㅔ</w>": 22348,
  "ㅍㅜㅇㅎㅑㅇ</w>": 13564,
  "16ㅋㅣㄹㄹㅗㅁㅣㅌㅓㅇㅣㄴㅐㄴㅡㄴ</w>": 30348,
  "ㅅㅜㅎㅓㅁ": 11246,
  "ㅌㅣㄴㅌㅡㄷㅚㄴ</w>": 19819,
  "ㅈㅏㄹㅏㅇ": 4278,
  "ㄱㅕㅇㅂㅣ</w>": 24816,
  "ㅇㅕㄹㄹㅣㄴ</w>": 3244,
  "ㅍㅡㄹㅗㅇㅑㄱㅜ</w>": 13276,
  "ㅎㅏㅇㅕㄴㅡㄴ</w>": 16638,
  "ㅇㅣㄱㅣㄹ</w>": 16046,
  "ㄴㅗㄴㄹㅣ": 8748,
  "ㅎㅏㅇㅣ</w>": 6567,
  "ㅊㅔㅎㅓㅁ": 3183,
  "ㅇㅡㅇㅁㅗ": 21584,
  "ast": 6598,
  "ㅇㅓㄹㅕㅂㄷㅏㄴㅡㄴ</w>": 22577,
  "ㅇㅣㅇㅛㅇㄱㅘ</w>": 29508,
  "4ㄱㅏㅇ": 28704,
  "ㅎㅏㄴㅡㄴㅣㅁ</w>": 26506,
  "ㅇㅕㄱㅇㅣ</w>": 10171,
  "ㄱㅏㅁㅅㅗㅎㅏㅁㅕ</w>": 28642,
  "ust": 7535,
  "ㄴㅜㄹㅣㄹㅕㅁㅕㄴ</w>": 23472,
  "ㄱㅣㅁㅎㅖ": 18722,
  "ㅂㅏㄹㅎㅟㅎㅏㄹ</w>": 27044,
  "ㄱㅓㄹ</w>": 1412,
  "ㄴㅓㅁㅇㅓㅇㅗㅁ</w>": 25755,
  "ㄷㅔㅇㅣㅌㅓㄹㅗ</w>": 30725,
  "ㄱㅜㅅㅓㅇㅇㅝㄴ": 16395,
  "ㅈㅣㄹㅇㅡㄴ</w>": 13757,
  "ㄱㅣㅊㅗㄹㅗ</w>": 23250,
  "ㄷㅗㅇㅑㄱ": 22321,
  "ㅈㅔㄱㅗㅇㅎㅏㄱㅣ</w>": 12007,
  "compris": 22210,
  "ㅈㅓㅇㄱㅠㅈㅣㄱ": 16032,
  "ㄹㅕㅁ": 3047,
  "ㄷㅗㅇㅅㅣ</w>": 13997,
  "ㄹㅔㅇㅣㅅㅡ</w>": 13610,
  "ㅂㅏㅇㅈㅣㅎㅏㄱㅣ</w>": 21605,
  "ㅅㅏㅈㅣㄴㄱㅘ</w>": 12883,
  "ㅇㅛㄱㅜㅎㅏㄴㅡㄴ</w>": 9701,
  "ㅈㅓㄴㅅㅜ": 19960,
  "AK</w>": 22398,
  "ㅇㅣㅇㅓㅆㅇㅡㅁㅕ</w>": 21888,
  "ㅇㅣㄴㅁㅜㄹ": 6144,
  "ㄷㅏㅈㅜㅇ": 20470,
  "ㅈㅐㅅㅏㄴ</w>": 14901,
  "ㄱㅣㄷㅐㄷㅚㄴㄷㅏ</w>": 18860,
  "ㅅㅏㅁㄴㅡㄴ</w>": 28679,
  "ㅈㅓㅇㅎㅕㅇ": 17820,
  "ㅌㅣㅁㅇㅡㄹ</w>": 8300,
  "ㅁㅣㅇㅑㄴ": 21994,
  "powered</w>": 28718,
  "ㅇㅓㅂㅊㅔㄷㅡㄹㅇㅡㄴ</w>": 25353,
  "ㅈㅏㅅㅏㄴ</w>": 14411,
  "ㄱㅡㅇㅢ</w>": 1692,
  "DH": 26226,
  "ㅊㅗㄱㅣㅎㅘ</w>": 23654,
  "./</w>": 24785,
  "ㅇㅓㅄㄱㅣㅇㅔ</w>": 30033,
  "ㅂㅣㄹㅗ</w>": 11890,
  "ㅍㅕㄹ": 2956,
  "ㄸㅏㅇㅇㅣ</w>": 19466,
  "ㅇㅜㅇ</w>": 8499,
  "200ㅁㅏㄴ</w>": 24426,
  "ㅌㅔㅁ": 7541,
  "4ㄱㅐㅇㅝㄹ</w>": 25530,
  "ㅅㅔㅇㅝㅂㅗㅅㅔㅇㅛ</w>": 22306,
  "ㅂㅏㄹㄹㅔ</w>": 31098,
  "ㅈㅣㅁ": 3853,
  "ㄷㅗㄹㅡ": 19325,
  "ㄷㅚㄱㅔㅆㅅㅡㅂㄴㅣㄷㅏ</w>": 13908,
  "ㄱㅡㄹㅣㅁㅈㅏ</w>": 27810,
  "ㄱㅏㅊㅜㄱ": 25035,
  "Cli": 12998,
  "ㅅㅓㄴㅌㅐㄱㅎㅏㅅㅔㅇㅛ</w>": 18359,
  "goo": 29980,
  "ㄱㅓㄷ": 3540,
  "ㅈㅜㅇㅇㅛ": 1110,
  "ㅅㅏㄱㅈㅔ</w>": 1683,
  "ㅇㅢㅁㅣㅎㅏㄴㄷㅏ</w>": 10242,
  "ㅂㅏㅇㅔㅅㅓ</w>": 15926,
  "ㅁㅏㄴㅈㅗㄱㄷㅗ</w>": 17781,
  "ㅇㅣㅁㅁㅜ": 22638,
  "JS</w>": 30758,
  "ㅇㅣㄴㅐ": 2474,
  "x</w>": 196,
  "ㄱㅏㅂㄴㅣㄷㅏ</w>": 2530,
  "ㅁㅏㄶㄷㅏ</w>": 3448,
  "ㅈㅏㅂㅣ": 31135,
  "ㅅㅔㅇㅣㄴㅌㅡ</w>": 18473,
  "ㄱㅘㄴㄱㅘㅇㅁㅕㅇㅅㅗ": 28612,
  "ㄲㅡㄹㅇㅓㅆㄷㅏ</w>": 25237,
  "ㅕㄹ": 4246,
  "ㅂㅏㄲㅟㄱㅗ</w>": 24598,
  "ㅊㅜㄱㅈㅓㄱ": 6261,
  "ㅂㅡ": 2475,
  "ㅇㅜㅅㄴㅡㄴ</w>": 15974,
  "ㄱㅜㅁㅐㅎㅏㄴㅡㄴ</w>": 24615,
  "ㅁㅏㅈㅈㅣ</w>": 8490,
  "ㅂㅗㅂㅅㅣㄷㅏ</w>": 14148,
  "ㅂㅓㅁㅇㅟㄹㅡㄹ</w>": 12466,
  "82cook</w>": 19012,
  "Er": 22560,
  "ri": 1465,
  "ㄱㅣㄱㅖ": 4277,
  "ㅅㅡㅌㅏㄹㅡㄹ</w>": 31080,
  "ㅂㅗㄴㅊㅔ</w>": 30795,
  "ㄷㅏㅇㅅㅏ</w>": 19724,
  "ㄱㅏㄴㅎㅗㅎㅏㄱ</w>": 17357,
  "ㅃㅜㄴㅇㅣㅇㅓㅆㄷㅏ</w>": 18982,
  "ㄷㅏㅇㅅㅣㅇㅔ</w>": 18459,
  "ㅎㅚㅅㅣㄱ</w>": 25716,
  "ㄴㅏㄹㅋㅏㄹ": 19122,
  "'": 5,
  "1ㅇㅣㄹㅇㅔ</w>": 15310,
  "ㅇㅗㄹㅡㄱㅗ</w>": 27939,
  "Manag": 8752,
  "ㄱㅝㄴㅇㅔㅅㅓ</w>": 27119,
  "ㅅㅐㄹㄹㅓㄷㅡ</w>": 20249,
  "ㅂㅣㅇㅘ</w>": 6720,
  "ㅂㅠ": 3937,
  "ㅂㅣㅇㅐㄴ": 12228,
  "ek": 16576,
  "ㄴㅔㅇㅣㅂㅣ</w>": 17622,
  "ㅌㅏㅇㅗㄹ": 24514,
  "tain": 28087,
  "ㄱㅜㄱㅇㅔ</w>": 7750,
  "ㅂㅜㄹㄲㅗㅊ": 20379,
  "ㄹㄹㅗ": 2045,
  "ㄴㅗㄷㅗㅇㅈㅗㅎㅏㅂ</w>": 23410,
  "20</w>": 2436,
  "ㅊㅏㄹ</w>": 2924,
  "ㅇㅣㄴㄱㅘ": 30886,
  "ㅁㅓㄱㅇㅡㅁㅕ</w>": 31716,
  "TP</w>": 14423,
  "ㅈㅓㄴㄱㅜㄱ</w>": 4108,
  "ㄱㅕㄴㄱㅗ": 29339,
  "ㄱㅓㅁㅅㅐㄱ</w>": 1432,
  "ㅈㅣㅍㅛ</w>": 23239,
  "ㅁㅗㅅ": 718,
  "ㄹㅗㅂㄱㅗ</w>": 10733,
  "ㅅㅓㅇㄴㅡㅇㅇㅣ</w>": 16216,
  "ㅇㅣㄹㅜㅇㅓㅈㅣㄴㄷㅏ</w>": 26664,
  "ㅇㅣㅆㅇㅓㅆㅇㅡㅁㅕㄴ</w>": 16682,
  "ㅍㅐㄴㄷㅡㄹ</w>": 30430,
  "ㅁㅗㄴㅣ": 3157,
  "ㄱㅓㄴㄱㅏㅇㅂㅗㅎㅓㅁ": 12619,
  "ㅋㅔㅇㅣ</w>": 21871,
  "ㅅㅏㄴㅇㅡㄹ</w>": 3751,
  "CR</w>": 30361,
  "ㄱㅣㅈㅡㅇ": 25924,
  "black</w>": 18423,
  "ㅁㅗㅈㅣㅂ": 5749,
  "1ㅈㅜㄴㅕㄴ</w>": 30603,
  "ㅁㅏㄹㅆㅡㅁ": 2287,
  "ㅇㅓㅁㅓㄴㅣ": 4216,
  "ㅅㅓㅇㄱㅕㄱㅇㅣ</w>": 17744,
  "ㄹㅜ</w>": 5678,
  "ㅎㅏㅈㅣㄴㅡㄴ</w>": 6453,
  "ㅂㅗㄱㅣㅇㅔㄴ</w>": 30468,
  "ㅍㅓㅈㅡㄹ": 23616,
  "ㅉㅗㄱㅇㅡㄴ</w>": 10816,
  "dom": 28014,
  "ㅋㅏㅇㅜ": 8694,
  "ㅂㅜㅅㅡㅌㅏㅂㅣㅅㅂㅜㅅㅡㅌㅏㅂㅣㅅ": 7169,
  "od</w>": 8322,
  "ㄹㅗㅇㅜ</w>": 9112,
  "ㄱㅏㄱㅔ</w>": 4520,
  "ㅎㅘㄴ": 644,
  "ㅌ": 109,
  "ㅌㅓㄹㅡㄹ</w>": 4123,
  "Op": 8168,
  "ㅎㅐㅂㅗㄱㅗ</w>": 8904,
  "ㅍㅣㄹㄹㅡㅁ</w>": 12439,
  "ㅁㅔㅅㅣㅈㅣ": 32238,
  "ㅇㅣㄹㅈㅜㅇㅣㄹ": 32668,
  "ㅌㅡㄹㅓㅁ": 3826,
  "ㅎㅐㅇㅑㅇ": 7389,
  "ㅇㅏㄹ": 476,
  "ㅂㅣㅋㅣㄴㅣ</w>": 17954,
  "ㅁㅕㅊㅂㅓㄴ</w>": 26867,
  "ㅅㅏㅇㄷㅐㄱㅏ</w>": 17050,
  "Twit": 23012,
  "der</w>": 9535,
  "L": 36,
  "ㅍㅏㄹㅏ": 7280,
  "ㅈㅏㄱㅅㅓㅇㅇㅣ</w>": 30739,
  "ㅁㅏㄶㄷㅏㄱㅗ</w>": 19637,
  "ㅍㅐㄱㅌㅡ": 19072,
  "ㄱㅕㄹ": 474,
  "ㅈㅔㄱ": 1912,
  "ㅇㅣㄹㅝㅈㅣㄱㅗ</w>": 26295,
  "J": 34,
  "ㅇㅣㄹㅜㅇㅓㅈㅣㄴㅡㄴ</w>": 15092,
  "ㅇㅣㅁㅡㄹㅗ</w>": 6010,
  "ㅇㅟㅈㅏㅇ": 19067,
  "ㅇㅣㅇㅔ</w>": 1878,
  "ve</w>": 2645,
  "ㄴㅕㄴㄱㅘ</w>": 28371,
  "ㅇㅡㅇㅇㅝㄴ": 7401,
  "dro": 27233,
  "come</w>": 23952,
  "ㅂㅏㄲㅟㄹ</w>": 21066,
  "ㅁㅏㅌㄱㅗ</w>": 13719,
  "ㄱㅕㄹㅈㅓㅇㅇㅔ</w>": 19133,
  "OE": 11848,
  "ㅊㅜㄹㄱㅡㄴ": 11462,
  "ㅁㅣㄷㅡ</w>": 25601,
  "ㄱㅕㅇㅇㅕㅇ": 2125,
  "ㅅㅓㅇㅜㄹㄱㅘ</w>": 29608,
  "ㅅㅗㅅ": 12989,
  "ㅂㅣㄴㅏㄴ</w>": 27973,
  "ㅈㅏㅈㅣ": 24361,
  "ㅈㅔㅇㅔ</w>": 5141,
  "ㄴㅏㄴㅗ": 16554,
  "ㅅㅗㄹㅣㄹㅗ</w>": 20033,
  "ㄱㅡㅁㄱㅏㅇ": 13815,
  "ㅈㅓㄴ</w>": 516,
  "ㅅㅣㅁㅇㅢ</w>": 12043,
  "ㅂㅗㄹㅕㅁㅕㄴ</w>": 18083,
  "ㅋㅡㄹㄹㅐㅅㅡ</w>": 9723,
  "ㅅㅓㄴㄱㅡㄹㄹㅏㅅㅡ</w>": 26751,
  "ㄱㅣㄷㅐㅎㅏㄴㅡㄴ</w>": 24583,
  "ㅅㅗㄹㅈㅣㄱㅎㅏㄱㅔ</w>": 28413,
  "pres": 6851,
  "ㅊㅏㅁㅇㅕㅎㅏㄴㅡㄴ</w>": 12978,
  "ㅅㅜㄴㅅㅓㄷㅐㄹㅗ</w>": 20725,
  "ㅂㅜㄹㅂㅓㅂ": 2302,
  "ㄱㅏㅇㅣㄷㅡㄹㅡㄹ</w>": 31675,
  "ㅇㅖㅈㅓㄴ": 14180,
  "ㅍㅗㅁㅐ": 9226,
  "ㅇㅏㄹㄹㅜㅁㅣㄴㅠㅁ</w>": 13446,
  "ㄷㅡㄹㅈㅣ</w>": 10596,
  "ㅇㅓㄸㅓㅎㄱㅔ</w>": 1113,
  "ㅂㅐㄱㅇㅏㄱㄱㅘㄴ</w>": 32301,
  "ㅍㅗㅌㅗㅅㅑㅂ</w>": 24240,
  "ㅅㅡㅌㅡㄹㅣ": 3128,
  "ㅅㅏㅋㅜㄹ": 30587,
  "ㅊㅓㄹㅣㅎㅐ</w>": 3087,
  "kn": 15465,
  "ㅗ": 120,
  "ㄱㅗㄹㄱㅗㄹㅜ</w>": 25073,
  "ㅌㅡㄹㅣ</w>": 9962,
  "ㅂㅓㄹㅇㅓㅈㅣㄴㅡㄴ</w>": 18932,
  "ㄹㅏㅌㅣㄴ": 13585,
  "ㅎㅏㄴㅎㅘ</w>": 14592,
  "bbc</w>": 30752,
  "ㅂㅜㄱㅏㄱㅏㅊㅣ": 26528,
  "Conn": 21397,
  "ㅊㅕㅇ": 31517,
  "ㅈㅓㅇㅊㅣㅇㅔ</w>": 24859,
  "ㅢ": 131,
  "ㅂㅜㅍㅕㅇ": 28230,
  "ㅎㅏㄱㅔㅆ": 6452,
  "ㅇㅣㅇㅚㅇㅔ</w>": 14653,
  "ㅍㅡㄹㅣㄴㅌㅡ</w>": 20227,
  "ㅅㅣㅋ": 9437,
  "ㅅㅏㅇㄷㅐㅂㅏㅇㅇㅢ</w>": 19125,
  "ㄹㅐㅇㅛ</w>": 22707,
  "ㅅㅣㄱㅇㅡㄹ</w>": 1451,
  "ㄷㅚㅁㅕㄴ</w>": 1685,
  "ㅎㅐㅈㅜㅅㅣㄴㅡㄴ</w>": 22760,
  "ㅈㅗㄴㅈㅐㅎㅏㄱㅗ</w>": 22846,
  "ㅗ</w>": 144,
  "ㅇㅜㄴㅇㅣ</w>": 9411,
  "USA</w>": 26768,
  "such</w>": 26488,
  "ㄷㅡㄹㅇㅣ": 8280,
  "ㅂㅗㅁㅜㄹ</w>": 31601,
  "ㅅㅏㅇㅈㅏㅇ": 12125,
  "ㅂㅡㄹㅓ": 17856,
  "ㅎㅐㅅㅓㄱ": 4809,
  "78": 15658,
  "ㅂㅜㄴㄹㅣ": 6187,
  "ㅈㅐㄱㅖ": 18354,
  "ㅇㅣㄹㅡㄴ</w>": 14004,
  "ㅁㅜㅇㅣㅈㅏ</w>": 23931,
  "ㅂㅣㅌㅡㅋㅗㅇㅣㄴ</w>": 14197,
  "'(</w>": 5922,
  "ㅈㅜㄱㅓㄴㅏ</w>": 24439,
  "ㅂㅕㄴㅅㅣㄴ</w>": 22105,
  "ㅂㅏㄹㄷㅏㄹ</w>": 9741,
  "ㅏㄹㅗ</w>": 4932,
  "ㅋㅓㅈㅣㄹ</w>": 27448,
  "ㅈㅓㅈㅣㄴㅡㄴ</w>": 21191,
  "ㅂㅏㄹㅈㅓㄴㅇㅣ</w>": 25315,
  "ㅇㅕㄴㄱㅡㄱ": 10152,
  "ㅈㅐㅇㅏㅇ": 23345,
  "?!</w>": 9603,
  "ㅁㅣㄹㅏ": 32681,
  "ㅇㅟㅅㅓㅇ</w>": 8859,
  "oday</w>": 29707,
  "ㅈㅣㅇㅕㄱㅇㅔㅅㅓ</w>": 8215,
  "state</w>": 29434,
  "ㄱㅏㅈㅗㄱㅇㅢ</w>": 9345,
  "ㄱㅐㅂㅏㄹㅇㅢ</w>": 22762,
  "ㅈㅜㅎㅐㅇ": 9219,
  "ㅁㅔㅋㅓㄴㅣㅈㅡ": 28347,
  "ㄱㅗㅇㅈㅔ": 18282,
  "swot</w>": 28296,
  "ㄱㅗㅁㅜㄴ": 30120,
  "ㅎㅐㅆㅇㅓㅇㅛ</w>": 4394,
  "ㅈㅓㄴㄹㅑㄱ": 3261,
  "ㅊㅓㄹㅈㅓㅎㅏㄴ</w>": 15375,
  "South</w>": 19996,
  "sk": 8683,
  "ㅅㅜㅇㅣㅂㅇㅡㄹ</w>": 28823,
  "ㅇㅠㅊㅜㄹ": 8673,
  "ㅎㅘㄱㅇㅣㄴㄷㅚㄴ</w>": 24353,
  "ㄱㅏㅇㅑ</w>": 4500,
  "ㄹㅜㅌㅡ</w>": 23615,
  "ㅇㅕㄴㅅㅏㄴ</w>": 28357,
  "ㅎㅏㅇㅁㅜㄴㅇㅢ</w>": 6895,
  "ㅎㄱㅔ</w>": 715,
  "ㅁㅗㅅㅎㅏㄴㄷㅏ</w>": 8356,
  "ㅅㅔㄴㅅㅓ</w>": 11658,
  "ㅇㅜㅅㅡ": 21907,
  "ㄱㅡㄹㄹㅏㅅㅡ</w>": 17651,
  "ane</w>": 18620,
  "ㅎㅚㅈㅓㄴ</w>": 14188,
  "ㅇㅔㅇㅣㅈㅓㄴㅌㅡㅅㅗㅍㅡㅌㅡㄱㅏ</w>": 3322,
  "ㅂㅜㅌㅇㅣㄴ</w>": 29950,
  "ㅇㅔㄹ</w>": 6317,
  "ㅈㅓㄱㅣ</w>": 9971,
  "ㅅㅏㅇㅎㅘㅇㅇㅣㅂㄴㅣㄷㅏ</w>": 23700,
  "ㅈㅓㅂㅅㅗㄱ</w>": 7994,
  "ㅈㅜㅊㅏㄴㅡㄴ</w>": 23752,
  "ㅇㅣㅈㅣ</w>": 2921,
  "ㅇㅣㅅㅣㄴ</w>": 16778,
  "ㄲㅏㅁㅏ": 31042,
  "ㄷㅏㄴㄹㅕㄴ": 31100,
  "ㅇㅜㅇㅜㄹㅈㅡㅇ</w>": 20432,
  "ㅇㅣㅇㅕㅆ": 26377,
  "ㅁㅕㅊㅁㅕㅊ</w>": 6790,
  "ㄷㅏㄹㄹㅏㅈㅣㄴㅡㄴ</w>": 26386,
  "ㅆㅇㅓㅇㅛ</w>": 2755,
  "ㅁㅏㄴㅑㅇ</w>": 16052,
  "ㅅㅗㅅㅕㄹㄱㅡㄹㅐㅍㅡ": 2657,
  "ㄱㅘㅇㅇㅑㅇ": 31762,
  "ㄱㅡㄹㅓㅎㄷㅏㅁㅕㄴ</w>": 5306,
  "ㅅㅣㄹㅈㅣㄹㅈㅓㄱㅇㅡㄹㅗ</w>": 20086,
  "ㅁㅏㅅㄷㅗ</w>": 20684,
  "ㅂㅏㄴㅏㄴㅏ</w>": 24265,
  "ㄱㅡㄱㅇㅡㄹ</w>": 11550,
  "ㅁㅗㄱㅇㅡㄹ</w>": 3891,
  "ㄹㅏㅇㅣㅂㅡㄹㅓㄹㅣ</w>": 18309,
  "ㄷㅐㅇㅔ</w>": 3513,
  "6ㄱㅐㅇㅢ</w>": 24692,
  "ㄴㅏㅁㅓㅈㅣ</w>": 5804,
  "ㄱㅓㄴ</w>": 813,
  "ㅇㅜㅇㅢ</w>": 20387,
  "ㅇㅕㄴㄹㅛ": 14718,
  "ㅇㅣㅂㅕㄹ": 14767,
  "ㅇㅝㄹㅇㅛ": 19338,
  "AD": 8498,
  "SS</w>": 9842,
  "ㅈㅗㅎㅇㅏ": 1358,
  "ㄲㅐㄲㅡㅅㅎㅏㄴ</w>": 11929,
  "anc": 7570,
  "10ㄴㅕㄴ": 10405,
  "ㅂㅔㅍㅡㄹ": 31016,
  "ㅁㅏㅇㅡㄹ": 3492,
  "ㄸㅢㄱㅔ</w>": 32369,
  "Cro": 28430,
  "ears</w>": 9892,
  "5": 17,
  "ㅋㅡㄹㅣ": 1124,
  "ㅅㅜㄴㅏㅂ": 16632,
  "ㅊㅐㄱㅈㅓㅇㄷㅚㅂㄴㅣㄷㅏ</w>": 22120,
  "ㅐㄷㅗ</w>": 6874,
  "ㄷㅏㄹㄹㅏㅈㅣㄹ</w>": 13588,
  "ㄱㅛㅎㅚㅇㅘ</w>": 23969,
  "ㅈㅗㅇㄱㅛㅇㅢ</w>": 24689,
  "ㅈㅏㄹㅣㄹㅗ</w>": 25707,
  "ㅈㅏㅇㅣㅈㅏ</w>": 29448,
  "ㅇㅏㄹㅊㅏㄴ": 22857,
  "ㅁㅐㅇㅝㄹ</w>": 12505,
  "ㄴㅗㄷㅗㅇㄷㅏㅇ</w>": 25608,
  "ㅇㅠㅂㅣ": 25970,
  "ㅇㅓㅁㅁㅏ": 4211,
  "ㅈㅣㅅㅣㄹㅡㄹ</w>": 29576,
  "side</w>": 25282,
  "ㄱㅡㄹㅏ": 8077,
  "ㅎㅓㄹㅏㄱㅇㅡㄹ</w>": 30426,
  "ㅅㅡㄹㅓㅂ": 2528,
  "ㅎㅐㅇㄹㅕㄹ": 28419,
  "ipp": 21540,
  "so": 22312,
  "ㅅ</w>": 162,
  "ㅅㅡㅇㅇㅡㄹ</w>": 7117,
  "ㅅㅓㅇㅁㅗ": 15170,
  "ㄲㅓㅂ": 9855,
  "ㅂㅜㄴㄹㅠ</w>": 7223,
  "ㅇㅑㄱㅜ": 5077,
  "ㅂㅜㅌㅇㅕ": 21385,
  "ㅈㅏㅂㄴㅡㄴ</w>": 10449,
  "ㅁㅐㅇ</w>": 7081,
  "ㅎㅘㄱㅅㅣㄹㅎㅣ</w>": 5123,
  "p": 69,
  "ㄱㅘㄴㄹㅣㅈㅏㄱㅏ</w>": 25706,
  "ㄱㅣㄹㅇㅔㅅㅓ</w>": 19147,
  "ㅍㅏㄴ</w>": 1469,
  "ㅅㅜㅁㅕㄴ</w>": 15770,
  "ㄱㅏㄴㅣ</w>": 21262,
  "ㅅㅔㅎㅏㄴ</w>": 17650,
  "ㅎㅏㄱㅅㅜㄹㄷㅐㅎㅚ</w>": 22212,
  "ㅇㅣㄱㅓㅅ": 7803,
  "ㄱㅏㅇㅁㅣㄴ": 27075,
  "ㅎㅘㄴㅅㅏㅇㅈㅓㄱㅇㅣㄴ</w>": 13887,
  "Video</w>": 24483,
  "ㅋㅐㅅㅣ</w>": 19606,
  "ograph": 13648,
  "ㅇㅡㅁㅇㅏㄱㅇㅣ</w>": 18024,
  "ㅁㅔㅅㅔㅈㅣ</w>": 28733,
  "ㅈㅜㄴㅎㅏㄴㅡㄴ</w>": 31158,
  "ㄱㅓㄹㄲㅏ</w>": 10919,
  "Doc": 19613,
  "ㅈㅏㅇㄱㅣㅈㅓㄱㅇㅣㄴ</w>": 24454,
  "2018": 4959,
  "ㅌㅏㄹㅂㅜㄱ": 10970,
  "ㅁㅜㄷㄱㅗ</w>": 19341,
  "ㅇㅏㄶㅇㅏ": 3315,
  "ㄴㅏㅅㅓㄱㅗ</w>": 32027,
  ".....</w>": 6043,
  "ㄱㅘㄴㄹㅏㅁㄱㅐㄱ": 21939,
  "ver": 3428,
  "ㄱㅏㅅㅣ": 9067,
  "ㄴㅣㅁㄷㅗ</w>": 17226,
  "ㅈㅓㄱㅇㅡㄹㅗㄴㅡㄴ</w>": 6007,
  "met": 17586,
  "ㄱㅣㅁㅏㄹ": 29795,
  "ㅎㅏㄱㅣㄹㅗ</w>": 4329,
  "ㄹㅏㅌㅣㄴ</w>": 17035,
  "ㄱㅓㅅㄷㅡㄹ</w>": 10428,
  "ㅅㅏㅁㅗㅍㅓㄴㄷㅡ</w>": 17980,
  "ㅈㅔㅈㅐㄱㅏ</w>": 3144,
  "ㅇㅓㄹㄱㅜㄹㅇㅡㄹ</w>": 8699,
  "ㅁㅜㄹㄷㅗ</w>": 21613,
  "ㅇㅏㄶㅇㅏㅆㄱㅣ</w>": 21338,
  "ㅎㅣㅁㄷㅡㄴ": 23178,
  "ㄱㅣㅊㅗ</w>": 8355,
  "ㅅㅣㅇㅢㅎㅚ</w>": 22271,
  "ㄷㅗㅇㅢ": 12740,
  "?,</w>": 29884,
  "ㅇㅕㄴㅇㅢ</w>": 11981,
  "ㄹㅏㅇㅣㅂㅡㅅㅡㅋㅗㅇㅓ</w>": 20910,
  "ㅋㅡㅁ</w>": 24082,
  "ㅂㅗㅅㅣㄱㅣ</w>": 14802,
  "ㅈㅜㅂㅕㄴㅇㅡㄹ</w>": 19213,
  "ㅂㅓㅁ": 1099,
  "ㅇㅕㅎㅐㅇ": 1166,
  "ㅁㅕㅇㅅㅓㅇ": 29399,
  "ㅁㅗㄴㅅㅡㅌㅓ": 17149,
  "ㅈㅜㅇㅇㅛㅎㅏㅈㅣ</w>": 22390,
  "ㄷㅔㅇㅣㅌㅓㅇㅢ</w>": 14954,
  "ㅒ</w>": 224,
  "ㅁㅏㅌㅣㄴ</w>": 24419,
  "ㅊㅚㄱㅡㄴㅇㅢ</w>": 18193,
  "ㅅㅡㅌㅗㄹ": 2069,
  "ㅎㅘㄴㅈㅏㄱㅏ</w>": 12640,
  "ㅁㅏㄹㄹㅏ": 19565,
  "ㅊㅔㄱㅖ</w>": 8814,
  "ㅇㅕㅎㅏㄱㅅㅐㅇ</w>": 18263,
  "280": 30648,
  "ㅍㅡㄹㅗㄷㅠ": 12350,
  "3km</w>": 16105,
  "ㅅㅡㄹㄹㅗㅅ": 12913,
  "ㅍㅔㅅ</w>": 22759,
  "ㅁㅏㅈㅇㅣㅎㅏㄴ</w>": 32219,
  "ㅁㅗㄱㅍㅛㅇㅔ</w>": 29933,
  "Vol</w>": 12473,
  "ㅍㅐㅇㅢ</w>": 27106,
  "ㄷㅏㄹㅡㄱㅔ</w>": 5985,
  "ㅇㅏㅆㄴㅡㄴㄷㅔ</w>": 15080,
  "ㅇㅕㄹㄹㅣㅁ</w>": 11753,
  "wood</w>": 32744,
  "ㄱㅗㅂㅐㄱ": 11226,
  "ㅊㅣㄷㅏ</w>": 32178,
  "ㅅㅣㅍㅇㅓㅎㅏㄴㅡㄴ</w>": 25504,
  "ㄷㅡㄷㅣㅇㅓ</w>": 6332,
  "ㅅㅜㅇㅕ": 12815,
  "ㅇㅡㅇㅇㅛㅇ</w>": 5976,
  "ㅁㅣㄱ</w>": 18210,
  "ㅅㅓㄱㅣ</w>": 25841,
  "Res": 8169,
  "ㅁㅣㅅㅗㄹㅡㄹ</w>": 19137,
  "FT": 9070,
  "ㅈㅣㅂㅏㅇ</w>": 6479,
  "ㄱㅏㅅㅡ</w>": 8000,
  "ㄱㅓㅇㅔㅇㅛ</w>": 8994,
  "ㅇㅏㅆ</w>": 18651,
  "ㄱㅗㄱㅐㄱㄷㅡㄹㅇㅔㄱㅔ</w>": 31719,
  "ㅁㅗㄹㄷㅜ": 28202,
  "ㅎㅗㅌㅔㄹㅇㅢ</w>": 6552,
  "ㅍㅡㄹㅗㅌㅗㅋㅗㄹ": 18495,
  "ㅎㅐㅂㅗㅈㅏ</w>": 10957,
  "ㅇㅏㅀㄱㅗ</w>": 24784,
  "ㅁㅗㄹㅡㄱㅔ</w>": 10621,
  "ㅁㅜㄱㅣㄹㅡㄹ</w>": 17865,
  "ㅈㅏㄱㅍㅜㅁㅇㅡㄴ</w>": 14838,
  "ㄷㅡㄹㅇㅓㄱㅏ": 6353,
  "77": 7668,
  "ㅅㅗㄱㅎㅣ</w>": 30671,
  "ㅅㅣㄱㅅㅏㅇㅘ</w>": 31179,
  "ㅅㅓㄴㅍㅗ": 15938,
  "ㅎㅢㄴㅅㅐㄱ</w>": 15040,
  "ㅂㅣㅎㅏㄹㅁㅏㄴㅎㅏㄴ</w>": 17163,
  "85</w>": 19294,
  "ㅋㅓㅂ": 4733,
  "ㅈㅣㅎㅏ": 3564,
  "ㅎㅏㄴㅇㅣㄹ": 17588,
  "ㅇㅣㄴㅅㅏㅇㅈㅓㄱㅇㅣㄴ</w>": 23873,
  "ㅇㅖㅈㅓㅇㄷㅚㄴ</w>": 24906,
  "ㅇㅗㅁㅕㄴㅅㅓ</w>": 23094,
  "ㄷㅐㅎㅏㄱㅅㅐㅇ</w>": 9129,
  "ㅅㅔㄴㅌㅡㄹ": 19070,
  "ONE</w>": 22111,
  "ㅎㅏㄷㅡ</w>": 2028,
  "ㅊㅚㅅㅗㅎㅏㄴ</w>": 9462,
  "ㅇㅏㄹㄱㅗㄹㅣㅈㅡㅁ</w>": 18076,
  "ㅇㅔㄹ": 3248,
  "ㅊㅓㅇㅅㅗㄴㅕㄴㄷㅡㄹㅇㅣ</w>": 31656,
  "Alph": 25788,
  "ㄱㅜㄱㄴㅐㅇㅔㅅㅓ</w>": 12427,
  "ㅇㅛㅇㅑㄱㅅㅓㄹㅁㅕㅇ</w>": 14022,
  "ㅇㅠㅇ</w>": 6799,
  "ital</w>": 12332,
  "ㅈㅏㅇㅣㅂㄴㅣㄷㅏ</w>": 18553,
  "ㄸㅓㄹㅇㅓㅈㅕㅆㄷㅏ</w>": 22466,
  "ㄴㅐㄹㅕㄴㅗㅎ": 28657,
  "ㄲㅏㄹㄲㅡㅁ": 6267,
  "ㄱㅖㅅㅏㄴ</w>": 11460,
  "ㅂㅕㄴㄱㅕㅇ</w>": 2878,
  "ㅋㅓㅍㅡㄹ": 8241,
  "ㄱㅘㅇㅔㅅㅓ</w>": 28605,
  "ㅅㅏㅇㅇㅔ</w>": 3982,
  "ㄱㅗㅇㅠ</w>": 24918,
  "ㅍㅏ": 514,
  "ㄱㅡㄴㅁㅜ</w>": 11367,
  "ㅂㅏㅇㅈㅣ</w>": 8020,
  "ㄱㅗㄹㅕㅎㅏㄹ</w>": 20581,
  "ㅎㅏㄴㄱㅜㄱㅇㅔㅅㅓ</w>": 7248,
  "ㅁㅣㅅㅣ": 23352,
  "ㅍㅗㅌㅓㄹ": 12507,
  "ㅇㅠㅇㅣㄱ": 11191,
  "ext</w>": 8911,
  "ㅈㅜㄱㅗ</w>": 2222,
  "ㅈㅔㄹㅡㄹ</w>": 2343,
  "ㄱㅗㄷㅗㅇㅢ</w>": 7686,
  "ㅅㅏㅇㅣㅌㅡㅊㅜㅊㅓㄴ</w>": 10099,
  "av</w>": 10933,
  "200ㅁㅏㄴㅇㅝㄴ</w>": 28737,
  "ㄴㅣㅁㅔㅇㅣ": 5331,
  "ㅂㅣㄴㅜ": 29215,
  "ㄱㅏㄱㅣㄹㅗ</w>": 26178,
  "ㅎㅏㄹㅕㄱㅗ</w>": 3590,
  "ㅇㅑㅇㅢ</w>": 32747,
  "ㅁㅓㅇ": 10185,
  "ㅁㅣㅇㅑ": 12152,
  "ㄴㅏㅁㅜ</w>": 4024,
  "ㅎㅏㅅㅎㅏㄴ</w>": 30840,
  "ㅍㅡㄹㄹㅔㄱ": 30328,
  "ㅅㅡㅇㄹㅣ": 5596,
  "ㅅㅓㄹㅇㅣ</w>": 13575,
  "ㅌㅜㄷㅔㅇㅣ</w>": 10790,
  "ㄹㅛㄴㅡㄴ</w>": 21334,
  "ㅇㅔㄴㅓ": 2499,
  "ㅋㅏㄴㅡㄴ</w>": 19376,
  "ㄱㅜㄱㄱㅏㄴㅡㄴ</w>": 21184,
  "ㅈㅜㄴㅣㅁㄲㅔ</w>": 32125,
  "-": 9,
  "Ass": 15456,
  "time</w>": 11258,
  "ㄷㅐㅇㅑㅇ</w>": 26946,
  "ㄱㅓㅅㅇㅣㄹㅏㄴㅡㄴ</w>": 6397,
  "Re</w>": 18756,
  "ㅅㅜㅂㅜㄴ": 21766,
  "ㄱㅕㄲㅇㅡㄴ</w>": 20324,
  "ㅎㅕㄱㅅㅣㄴㅇㅡㄹ</w>": 17976,
  "ㅇㅣㅂㄴㅣㄷㅏ</w>": 483,
  "ㅈㅓㅇㄷㅏㅂ": 30364,
  "ㅌㅐㄱㅅㅣ": 17546,
  "ㄱㅣㅁㅈㅣ": 14222,
  "ㄱㅓㅂ": 10533,
  "FI": 8189,
  "Saint</w>": 24834,
  "28": 2541,
  "ㅍㅗㄹ": 1082,
  "ㅂㅣㅌㅏㅁㅣㄴ": 11845,
  "ㅇㅚㄱㅜㄱㅇㅣㄴ</w>": 6085,
  "ㄴㅓㄹ": 2427,
  "ㅈㅔ1ㅎㅚ</w>": 19921,
  "ㅡㅈㅣ</w>": 31432,
  "ㄷㅏㅁㄱㅣㄴ</w>": 8973,
  "Leonard": 29146,
  "ㅅㅣㄱㅣㄹㅡㄹ</w>": 10076,
  "ㄹㅗㅈㅡ": 19219,
  "ㅇㅐㄱㅅㅕㄴ": 18397,
  "ㄱㅗㅇㅛㅇ": 4449,
  "ㅇㅏㅋㅡ": 26770,
  "One": 26880,
  "ㄱㅏㄴㅇㅣ</w>": 11761,
  "ㅇㅓㅇㄷㅓㅇㅇㅣ": 26102,
  "ㅋㅗㄴㅓ</w>": 19591,
  "ㄱㅗㅇㅇㅓㅂ": 11984,
  "ㅎㅐㅆ</w>": 11886,
  "ㅍㅏㅇㅣㄹ": 4002,
  "ㅇㅢㅇㅏ": 25853,
  "ㅊㅡㄱㅈㅓㅇㅎㅏㄴㅡㄴ</w>": 30709,
  "ㅁㅓㄱㄴㅡㄴ": 24494,
  "ㄷㅏㄱㅜㄱㅈㅓㄱ</w>": 28379,
  "ㅋㅣㅇㅝ": 5471,
  "ㄱㅕㅇㅈㅐㅇ": 2192,
  "1ㅂㅜㄴ": 26152,
  "ㅂㅏㄹㅅㅐㅇㅅㅣ</w>": 30278,
  "ㅁㅜㄴㅈㅏㅇㅕㄹ": 18441,
  "ㅅㅏㅇㅅㅔㅈㅓㅇㅂㅗ</w>": 31641,
  "ㅁㅏㄴㄷㅡㄹㅇㅓㅇㅑ</w>": 15358,
  "ㄴㅡㅈㅇㅡㄴ</w>": 10769,
  "ㅅㅡㅂㄴㅣㄷㅏㅁㅏㄴ</w>": 7491,
  "ㅅㅡㅌㅣㄴ</w>": 12823,
  "ML</w>": 7170,
  "bab": 15559,
  "ㅇㅏㅇㅣㅌㅔ": 3612,
  "ㅍㅡㅇㅢ</w>": 10227,
  "ㅇㅠㄷㅗㅇ": 13098,
  "ㅌㅏㅇㅣㄹ": 32128,
  "RPG</w>": 23478,
  "ㅁㅏㅈ": 818,
  "ㅊㅏㅁㅇㅡㄹㅗ</w>": 9773,
  "ㅎㅏㄴㄱㅜㄱㅇㅔ</w>": 7760,
  "ㅂㅣㄱㅛㄹㅡㄹ</w>": 22150,
  "ㅋㅐㅂㅅㅠㄹ</w>": 27125,
  "ㄱㅛㅅㅓㅂ": 27533,
  "ㅅㅣㄱㅖ": 7467,
  "ㅈㅏㅇㅊㅣㅇㅢ</w>": 18543,
  "ㅈㅣㅇㅗ": 23283,
  "ㄱㅗㅇㅎㅏㄱ</w>": 6847,
  "ㅈㅜㅇㄷㅏㄴ": 6347,
  "ㅜㄴ</w>": 571,
  "ㄸㅏㄹㅡㄴㅡㄴ</w>": 15297,
  "ㅅㅣㄱㅇㅡㄹㅗ</w>": 3200,
  "ㄷㅟㅅ": 4062,
  "ㅇㅏㅂㅇㅡㄹ</w>": 19699,
  "TV": 2979,
  "ㅈㅣㄱㅁㅜ": 7900,
  "ㄱㅏㅁㅅㅏㅇㅁㅜㄴ</w>": 7383,
  "ㅅㅏㅎㅏㅇㅇㅢ</w>": 31350,
  "ㅇㅜㄹㅣㄴㅏㄹㅏㄴㅡㄴ</w>": 14992,
  "ㅇㅣㅇㅣㄱㅇㅡㄹ</w>": 7837,
  "ㅈㅜㅇㅣㄴ</w>": 10645,
  "ㄷㅜㄹㅣ</w>": 27107,
  "can</w>": 11264,
  "ㅅㅜㄱㅣ</w>": 26845,
  "ㅅㅡㅌㅏㅇㅣㄹ": 8099,
  "DS</w>": 14584,
  "ㄱㅕㅇㅇㅜㅇㅘ</w>": 26954,
  "ㄱㅗㄱㅇㅡㄴ</w>": 21932,
  "ㄱㅏㅆㄷㅏ</w>": 3181,
  "ㅂㅜㅊㅡ</w>": 16230,
  "ㅎㅏㄱㅅㅐㅇㄷㅡㄹㅇㅢ</w>": 9953,
  "ㅈㅏㄱㅅㅓㅇㅎㅏㄴ</w>": 9300,
  "ㅇㅣㅂㅓㄴㅇㅔㄴㅡㄴ</w>": 7754,
  "ㅅㅓㅇㄱㅏ": 30518,
  "ㄱㅏㅁㄷㅗㄱㄱㅘ</w>": 22169,
  "oung</w>": 15562,
  "ㄴㅑ</w>": 7199,
  "ㅎㅏㄹㅜ": 2176,
  "ㅇㅏㅈㅓ": 9035,
  "ㄷㅚㅁㅇㅔ</w>": 17416,
  "ㄱㅘㄴㄹㅕㄴㅎㅐ</w>": 10384,
  "ㅅㅓㄴㅌㅐㄱㅎㅐㅇㅑ</w>": 24904,
  "ㅂㅗㅎㅓㅁㄹㅛㄹㅡㄹ</w>": 31898,
  "ㅁㅜㅅㅓㅇㅝ": 26056,
  "ㅊㅜㄹㅣ": 19507,
  "ㅇㅡㄹㅕㄱㅗ</w>": 13358,
  "ㅇㅓㅄㅅㅡㅂㄴㅣㄷㅏ</w>": 1142,
  "ㅈㅣㅇㅜ": 12584,
  "ㅂㅓㅇㅢ</w>": 31588,
  "ㄸㅐㄱㅏ</w>": 4484,
  "ㅎㅘㅎㅐ": 32707,
  "ㄱㅝㄴㄹㅕㄱ": 12682,
  "ㅈㅣㅈㅜㅇㅎㅐ</w>": 29699,
  "ㅎㅟㄹㅊㅔ": 15987,
  "ㄷㅐㅊㅔㄹㅗ</w>": 12470,
  "ㅇㅣㅂㅁㅏㅅㅇㅔ</w>": 30846,
  "e": 58,
  "ㄷㅟㅈㅣㄴ</w>": 29670,
  "ㄷㅡㄹㄹㅣ": 16522,
  "ㅇㅣㅅㅏㅇㅇㅡㄴ</w>": 14836,
  "ㄱㅡㅁㅏㄴ": 9078,
  "ㄱㅕㄱ</w>": 1289,
  "ㅈㅏㄱㅣㄱㅏ</w>": 8182,
  "ㅈㅣㅅㅏㄱㅏ</w>": 28091,
  "ㅎㅏㄱㅣㄲㅏㅈㅣ</w>": 24606,
  "ㅍㅡㄹㅗㄴㅗㅇㄱㅜ</w>": 23715,
  "ㄱㅕㄹㅈㅓㅇㅇㅡㄹ</w>": 7016,
  "NG": 11714,
  "ㅇㅡ</w>": 7602,
  "ㅎㅕㄴㅅㅣㄹ</w>": 5120,
  "val": 13220,
  "ㅈㅓㄴㅈㅏㄹㅔㅇㅣㄴㅈㅣ</w>": 19380,
  "ㅁㅏㄴㅎㅘ</w>": 7845,
  "ㅂㅗㅌㅐ": 16821,
  "War": 22998,
  "Class": 21604,
  "ㄴㅇㅡㄴ</w>": 20426,
  "ㄱㅜㅊㅔㅈㅓㄱㅇㅣㄴ</w>": 7842,
  "ark</w>": 12802,
  "ㄱㅖㅇㅕㄹㅇㅢ</w>": 30356,
  "ㄹㅕㄱ": 691,
  "ㅇㅣㄹㅂㅗ</w>": 5031,
  "ㅈㅏㄹㄹㅏ</w>": 30967,
  "ㅁㅐㅇㅣㄹㅁㅐㅇㅣㄹ</w>": 23811,
  "ㄱㅡㅁㅏㄴㅋㅡㅁ</w>": 6265,
  "ㅁㅗㄷㅔㄹ": 2162,
  "ㅈㅜㅅㅣㄱㅎㅚㅅㅏ</w>": 13795,
  "ㅌㅗㅂ": 9846,
  "ㅇㅕㅇㅇㅕㄱ</w>": 8825,
  "ㅅㅏㄴ": 486,
  "ㅁㅗㅇㅑㅇ</w>": 11400,
  "ㅈㅓㄴㅌㅜ</w>": 13824,
  "ㅈㅏㄱㅍㅜㅁㅇㅡㄹ</w>": 7688,
  "ㄷㅗㄹㅏ</w>": 30696,
  "The</w>": 2641,
  "ㅇㅐㅍㅡ": 29239,
  "ㅎㅜㄴ": 1716,
  "ack</w>": 5212,
  "ㄹㅏㄹㅗ</w>": 23181,
  "ㅕㄴㅇㅔ</w>": 22572,
  "ㄲㅔㄴㅡㄴ</w>": 27846,
  "ㄴㅏㄹㅏㅇㅘ</w>": 25236,
  "ㅁㅗㅇㅡㄴ": 25981,
  "ㄹㅗㅇㅑ": 13569,
  "ㅅㅜㅈㅔ": 20883,
  "ㅍㅛㅅㅣㅎㅏㄴㅡㄴ</w>": 28995,
  "ㅂㅜㅂㅜㄴㅇㅡㄹ</w>": 4526,
  "fig": 18626,
  "4ㄴㅕㄴ</w>": 2488,
  "ㅇㅣㄹㅜㅇㅓㅈㅣㄹ</w>": 21593,
  "ㄱㅏㄴㅈㅣㄱ": 20031,
  "view</w>": 8759,
  "ㅇㅣㄹㅜ</w>": 23430,
  "ㅁㅗㄱㅅㅏㄴㅣ": 13179,
  "ㅎㅣㅁㄷㅡㄹㅇㅓ": 12207,
  "ㄴㅕㅅㅓㄱㅇㅣ</w>": 26221,
  "ㅅㅣㅀ": 3633,
  "ㅇㅏㅍㅡㄹ</w>": 32598,
  "ㅇㅣㅆㅇㅓㅆㄴㅡㄴㅈㅣ</w>": 28061,
  "ㄲㅐㄲㅡㅅㅎㅏㄱㅗ</w>": 10995,
  "ㅇㅒㄱㅣㄴㅡㄴ</w>": 24829,
  "ㅊㅜㄹㅅㅏㄴ": 12067,
  "enc": 8573,
  "ㅈㅜㅇㅓㅆㅅㅡㅂㄴㅣㄷㅏ</w>": 18142,
  "ㅌㅐㅇㅑㅇㄱㅘㅇ": 27411,
  "ㄷㅏㄹㅅㅓㅇㅎㅏㄱㅣ</w>": 27523,
  "ㄱㅓㅁㅌㅗㅎㅏㄱㅗ</w>": 27052,
  "ㅊㅓㅁㄷㅏㄴ</w>": 12865,
  "ㅆㄷㅏ": 23785,
  "ㅁㅓㄹㄹㅣ": 12734,
  "ㄱㅣㅈㅗㅇ": 18834,
  "III</w>": 17018,
  "ㅈㅏㅅㅔㄹㅡㄹ</w>": 16674,
  "ㅇㅢㅁㅜㄱㅏ</w>": 20255,
  "Active</w>": 31227,
  "ㅇㅣㅈㅓㅁ</w>": 24623,
  "ㄴㅗㅇㄷㅏㄴ</w>": 30125,
  "Bluet": 31072,
  "our</w>": 10601,
  "ㄴㅗㄴㄹㅏㄴㅇㅢ</w>": 31408,
  "ㅂㅜㅅㅜ": 31175,
  "ㅇㅣㄹㅂㅏㄴㅈㅓㄱ</w>": 25291,
  "ㅎㅐㄴㅐㄹ</w>": 26945,
  "ㅁㅣㄹㅎㅏㄱㅔ</w>": 17961,
  "ㅂㅏㄷㅜ": 18991,
  "ㅂㅣㅌㅡㅋㅗ": 6764,
  "ㅂㅜㅂㅜㄴㅇㅡㄹㅗ</w>": 21821,
  "ㅗㄱㅗ</w>": 11372,
  "ㅎㅐㅍㅣㅋㅐㅁㅍㅓㅅㅡㄴㅡㄴ</w>": 5262,
  "ㅈㅏㄹㅗㅅㅓ</w>": 9631,
  "ㄷㅐㅌㅗㅇㄹㅕㅇㅇㅡㄴ</w>": 5972,
  "ㅈㅝㅆㄷㅏ</w>": 8343,
  "ㅎㅐㅇㅚㅂㅐㅅㅗㅇ</w>": 16746,
  "ㅇㅗㄴㅡㄹㅇㅡㄴ</w>": 4392,
  "ㅇㅏㄶㅇㅡㄴㅣ</w>": 9017,
  "ㅂㅗㅅㅡㅌㅓㄴ": 13740,
  "ㅈㅏㄴㅇㅣㄴㅎㅏㄴ</w>": 29365,
  "ㅎㅏㅇㅑㅅㅌㅡ</w>": 29570,
  "ㄹㅏㅇㅣㄴ": 4487,
  "ㅅㅏㄱㅗ</w>": 3396,
  "ㅈㅣㄴㅏㄱㅏㄴ</w>": 27847,
  "ㅇㅜㄴㅇㅕㅇㅈㅏ": 21654,
  "ㅅㅡㅇㄱㅏㅇ": 24948,
  "ㅇㅗㅎㅐ": 15710,
  "ㄱㅖㄹㅡㄹ</w>": 3546,
  "ㅅㅣㄴㅇㅡㄹㅗ</w>": 27605,
  "ㄷㅐㄹㅣㅁ": 31502,
  "ㅁㅏㅈㅊㅝㅅㅓ</w>": 21557,
  "ㄱㅣㄹㅗㄱ": 1483,
  "ㅇㅑㅁㅏㄹㄹㅗ</w>": 11228,
  "ㅇㅜㄹㅜ": 29179,
  "SE": 6222,
  "lor</w>": 5379,
  "ㅋㅡㄹㅏㅇㅜㄴ</w>": 26952,
  "ㅁㅏㄴㅁㅕㅇㅇㅣ</w>": 27923,
  "ㅇㅟㄱㅣ": 11147,
  "ㅇㅡㄹㅗㅅㅓㅇㅢ</w>": 9569,
  "ㄷㅏㄻㅇㅡㄴ</w>": 16652,
  "ㅇㅐㄱㅅㅕㄴ</w>": 11640,
  "ㅇㅏㅇㅣㄷㅡㄹㅇㅢ</w>": 10132,
  "ㅎㅏㅇㅕㅆ": 3240,
  "ㅇㅜㄴㅅㅗㅇ</w>": 18836,
  "ㄱㅗㅅㅐㅇ": 8165,
  "ㅇㅣㄱㅓㄷㅡㄴㅇㅛ</w>": 25946,
  "ㅇㅟㅅ": 12412,
  "ㅁㅣㅌ</w>": 21827,
  "ㄷㅗㄹㅐ": 15965,
  "ㅇㅏㅇㅖ</w>": 6631,
  "ㅈㅔㅂㅗ</w>": 20354,
  "ㅇㅔㄷㅣ": 7719,
  "ㄱㅣㅁㄱㅘㅇ": 16260,
  "ㅎㅕㅂㄹㅕㄱ</w>": 8750,
  "ㄷㅗㅇㅅㅓ": 19323,
  "ㅍㅡㄹㄹㅐㅅ</w>": 31747,
  "Pr": 7661,
  "ㅁㅐㅊㅜㄹㅇㅡㄹ</w>": 25954,
  "ㅇㅣㄴㅅㅡㅌㅓㄴ": 9799,
  "ㅋㅣㄴ": 6121,
  "ㅋㅔㅇㅣㅅㅡ": 21077,
  "ㅂㅏㄴㄷㅐㄹㅗ</w>": 7855,
  "ㅁㅜㄹㅡ": 5150,
  "ㄴㅡㄴ": 411,
  "ㅆㅏㅇㅝ": 18899,
  "ㅂㅜㄴㄱㅣ</w>": 9542,
  "ㅈㅏㅂ</w>": 8248,
  "Pe": 17358,
  "ㅌㅏㅈㅣ</w>": 32107,
  "ㄹㅕㅇㅇㅣ</w>": 23144,
  "50ㅁㅏㄴ</w>": 22739,
  "ㅅㅏㅇㄷㅐㅇㅔㄱㅔ</w>": 26559,
  "ㅊㅐㄱㄱㅘ</w>": 20171,
  "ㅋㅏㄹㄹㅓㅁ": 21519,
  "ㄴㅣㅁㅇㅢ</w>": 1914,
  "ㅇㅣㄹㅊㅔ": 19845,
  "Cent": 8789,
  "12ㅅㅣㄱㅏㄴ</w>": 24742,
  "ㅌㅡㄱㅎㅖ": 31485,
  "ㅇㅔㅇㅣㄴㅈㅓㄹㅅㅡ</w>": 27205,
  "ㅈㅜㅇㄱㅜㄱㅇㅡㄹ</w>": 25257,
  "ㅇㅣㄹㅓㅎㄷㅡㅅ</w>": 21301,
  "ㅗㄱㅔ": 27763,
  "ㅌㅓㄴ</w>": 3764,
  "ㅂㅗㄱㅈㅣ</w>": 4633,
  "ㅇㅣㅌㅏㄹㄹㅣ": 6918,
  "ㄱㅓㅅㅇㅣㄴㅈㅣㄹㅡㄹ</w>": 29645,
  "ㅂㅗㅊㅓㅇ": 32379,
  "ac": 1108,
  "ㅈㅔㄷㅗㄴㅡㄴ</w>": 17283,
  "ㄱㅡㄹㅣㄴㅡㄴ</w>": 17922,
  "ㄹㅕㅅㅓ</w>": 9843,
  "ㅂㅜㅎㅚㅈㅏㅇ</w>": 18357,
  "ㅇㅣㅇㅜㅅ</w>": 14070,
  "ㄷㅏㄴㅣㄷㅓㄴ</w>": 29655,
  "ㅂㅜㄹㅍㅣㄹㅇㅛㅎㅏㄴ</w>": 15597,
  "1ㅁㅏㄴㅇㅝㄴ</w>": 14240,
  "ㅁㅐㄴㅣㅈㅓ</w>": 16563,
  "ㅇㅗㅅㅔ": 19837,
  "G</w>": 187,
  "ㅅㅏㅇㅣㄷㅡ</w>": 7817,
  "ㄱㅘ</w>": 368,
  "2001ㄴㅕㄴ</w>": 13308,
  "ㅇㅕㄴㅅㅗㄱㅇㅡㄹㅗ</w>": 30475,
  "ㄱㅏㅅㅡㅂㄱㅣ</w>": 32321,
  "ㅋㅡㄹㅐ": 5675,
  "ㄹㅜㄱ</w>": 16213,
  "ㄱㅗㅇㅈㅏㅇ</w>": 6393,
  "ㄱㅘㄴㅅㅣㅁ</w>": 5968,
  "ㅎㅘㄴㅇㅠㄹ": 18975,
  "ㅈㅜㅇㅕㄴ": 27699,
  "ㅅㅏㅎㅚㅈㅓㄱ": 12216,
  "mod": 18398,
  "ㅇㅑㄱㄱㅘㄴㅇㅡㄴ</w>": 21493,
  "ㅇㅣㄱㅣ</w>": 2377,
  "ㅅㅐㅅㅏㅁ</w>": 26686,
  "ㅎㅜㄱㅣ</w>": 2848,
  "ㅇㅡㅁㄱㅘ</w>": 19439,
  "ㅌㅓㄴㅏ</w>": 23389,
  "ㅈㅓㅂㅁㅗㄱ": 19652,
  "ㅁㅏㄴㄷㅡㄹㅇㅓㅅㅓ</w>": 13222,
  "ㄱㅣㄱㅘㄴ": 2078,
  "ㅎㅐㅂㅘㅆㄴㅡㄴㄷㅔ</w>": 32326,
  "ㅇㅛㅇㄴㅏㅂ": 25926,
  "0ㅇㅡㄹㅗ</w>": 15992,
  "ㅋㅓㅁㅍㅏㅇㅣㄹ": 19963,
  "49": 6715,
  "ㅇㅏㅅㅣㄴㅏㅇㅛ</w>": 28352,
  "ㅇㅣㅅㅏㅇ</w>": 1233,
  "ㅇㅖㅅㅜㄴㅣㅁㅇㅡㄹ</w>": 14935,
  "ㅁㅏㅁㅜㄹㅣ</w>": 7663,
  "ㅃㅜㄴ": 1404,
  "ㅇㅏㄹㄹㅔㄱㅅㅡ</w>": 22056,
  "ㅅㅣㅁㄹㅣ</w>": 12223,
  "ㅈㅓㄱㅇㅣㅇㅓㅆㄷㅏ</w>": 18616,
  "ㅁㅜㄹㄹㅗㄴ</w>": 1446,
  "ㄱㅓㄴㄱㅏㅇㅂㅗㅎㅓㅁ</w>": 15918,
  "ProPorn</w>": 29935,
  "ㅂㅏㄹㅏㅁㅕ</w>": 19238,
  "ㄷㅐㅅㅏㅇㅈㅏ</w>": 17032,
  "ㄴㅏ</w>": 709,
  "ㅁㅗㄹㅡㄹ": 32130,
  "ㄷㅜㅂㅓㄴㅉㅐ</w>": 9763,
  "ㅁㅕㅇㄷㅗㅇ</w>": 32279,
  "ㅁㅐㅇㅜ</w>": 1425,
  "ㅇㅣㄷㅡㄹ": 25199,
  "ㅎㅕㄴㅎㅐㅇ": 31939,
  "ㅇㅣㅇㅛㅇㅎㅏㄱㅗ</w>": 17063,
  "ㄷㅐㄱㅐ</w>": 13580,
  "ㅇㅣㄴㄱㅜㄱㅏ</w>": 17870,
  "ㅈㅗㄷㅏㄹ": 19626,
  "ㅍㅏㄹㅏㄷㅏㅇㅣㅅㅡ": 28122,
  "ㄷㅏㅅㅡ</w>": 16067,
  "cm": 11032,
  "ㅇㅏㄴㅣㄴㄱㅏ</w>": 5023,
  "ㅁㅓㅁㅊㅜ": 7746,
  "ㅂㅏㄹㅏㅁㅇㅢ</w>": 14133,
  "ㄱㅛㅈㅐ": 23247,
  "ㅅㅔㄱㅖㅇㅔ</w>": 9476,
  "37</w>": 6920,
  "AP</w>": 17603,
  "press": 20173,
  "ㅎㅏㄹㅡㄹ</w>": 15450,
  "ㅅㅡㄹㄹㅏㅇㅣ": 4122,
  "ㅅㅗㄱ": 517,
  "ㄷㅐㄷㅏㄴㅎㅏㄴ</w>": 13121,
  "ㄴㅣㄱ</w>": 7797,
  "en</w>": 2446,
  "ㅂㅓㄴㅡㄴ</w>": 13672,
  "ㅇㅔㄹㅣㄱ": 27267,
  "ㅅㅜㄷㅏㄴㅇㅣ</w>": 26142,
  "ㄱㅡㄱㅓㅅㅇㅣ</w>": 3827,
  "board</w>": 29443,
  "ㅂㅏㅇㅣㄹㅓ": 5935,
  "ㅋㅐㄴㅗㄴ</w>": 25819,
  "ㅊㅜㅊㅓㄴㅎㅏㄴㅡㄴ</w>": 16288,
  "ㅊㅓㄹㅣㅎㅏㅂㄴㅣㄷㅏ</w>": 30771,
  "ㅊㅏㅁㅅㅓㄱㅎㅐ</w>": 18260,
  "ㅎㅕㄴㅈㅏㅇㅇㅡㄹ</w>": 13646,
  "ㅁㅜㅅㅣㄱ": 32306,
  "ㅊㅐㄱ</w>": 1366,
  "ㄱㅣㄴㅕㅁㅍㅜㅁ</w>": 26502,
  "ㅁㅏㄹㄹㅔㅇㅣ": 10979,
  "ㅁㅔㄷㅏㄹ</w>": 16451,
  "ㅎㅚㅎㅘ": 31605,
  "ㅇㅓㅂㅘㅆㄷㅏ</w>": 29819,
  "ㅇㅠㄱㅝㄴ": 15331,
  "ㅇㅝㄴㅈㅏㄹ": 10590,
  "ㄱㅡㅂㅎㅏㄱㅔ</w>": 16797,
  "Pack": 32031,
  "application</w>": 26234,
  "ㄷㅗㅁ</w>": 12972,
  "ㅅㅓㅇㄱㅡㅂㅇㅢ</w>": 22553,
  "SP</w>": 27981,
  "ㅇㅡㅇ": 1028,
  "ㅎㅘㄴㅡㄴ</w>": 7316,
  "ㅉㅣㅈ": 14255,
  "ㅍㅓㅅㅣ": 20073,
  "500ㅁㅏㄴ</w>": 21086,
  "ㅎㅚㅅㅜ": 16603,
  "ㅅㅏㅇㅎㅘㅇㅇㅔㅅㅓㄴㅡㄴ</w>": 31348,
  "ㅅㅓㄹㅁㅜㄴㅈㅗㅅㅏ</w>": 23889,
  "ㅇㅏㄹㄹㅕ": 1591,
  "ㅁㅓㄴㅈㅣㄱㅏ</w>": 31108,
  "ㅈㅏㅇㅇㅡㄹ</w>": 1258,
  "ㄱㅏㄴㄷㅏㄴ": 2471,
  "ㅇㅜㅊㅡㄱ": 32686,
  "JT": 14246,
  "ㅌㅜㅇㅓㄷㅗ</w>": 21035,
  "ㅇㅏㄹㄹㅜㅁㅣㄴ": 10802,
  "ㄹㅔㄱㅗ</w>": 30134,
  "ㄹㅗㅅㅡㅇㅐㄴㅈㅔㄹㄹㅔ": 19529,
  "ㄱㅝㄹ": 22670,
  "ㄷㅏㅅㅜ": 21457,
  "ㅎㅏㅇㅜㅅㅡ</w>": 5034,
  "ㄲㅏㅂㅘ</w>": 16320,
  "ㅎㅘㄴㄱㅕㅇㄱㅘ</w>": 15192,
  "ㅇㅢㅇㅑㄱㅍㅜㅁ</w>": 21013,
  "ㄹㅣㅅㅡㅌㅡ</w>": 6745,
  "ㅇㅘㅆㄷㅏㄴㅡㄴ</w>": 24563,
  "ㅅㅣㅁㅎㅘ</w>": 30593,
  "ㅍㅕㄴㅇㅣㄹㅏ</w>": 28004,
  "ㅘㅆㅅㅡㅂㄴㅣㄷㅏ</w>": 7554,
  "2ㅂㅏㄱ</w>": 27101,
  "fb": 25864,
  "ㅁㅗㄴㅣㅌㅓ</w>": 9559,
  "ans": 6412,
  "ㅇㅒㄱㅣ": 4104,
  "ㅁㅗㄹㅡㄱㅔㅆㅇㅓㅇㅛ</w>": 26729,
  "ACE</w>": 30392,
  "Fi": 5505,
  "ㅂㅏㄲㅜㄴ</w>": 18007,
  "ㅈㅜㅁㅣㄴㅇㅣ</w>": 30499,
  "ㅁㅏㄹㅊㅓㄹㅓㅁ</w>": 23946,
  "ㅎㅏㄴㅏㄴㅣㅁ": 4339,
  "ㅃㅏㅈㅣㄴㅡㄴ</w>": 19900,
  "ㅇㅘㅅㅓ</w>": 4222,
  "SBS</w>": 7859,
  "ㅇㅓㄹㅇㅡㅁ": 23044,
  "ㅁㅕㄴㅡ": 24751,
  "ㄱㅓㅅㅊㅓㄹㅓㅁ</w>": 3297,
  "ㄱㅏㄴㅁㅏㄴㅇㅔ</w>": 27988,
  "CN": 9717,
  "ㅇㅣㄴㅅㅐㅇㅇㅔㅅㅓ</w>": 26176,
  "ㄱㅜㄷㅏㄴ": 24724,
  "ㅁㅜㄴㅎㅏㄱㄱㅘ</w>": 26573,
  "ㄷㅡㅇㄹㅗㄱ": 1476,
  "ㄱㅐㅅㅓㄹ": 10729,
  "ㅈㅣㄱ</w>": 1092,
  "ㅇㅏㅋㅡㄹㅣ": 18800,
  "ㅅㅣㅎㅐㅇㄹㅕㅇ</w>": 20311,
  "ㄷㅡㄹㅕ</w>": 15516,
  "ㅈㅣㄴ</w>": 582,
  "ㅂㅘ": 1194,
  "ㄱㅐㅂㅕㄹ</w>": 7469,
  "ㅂㅏㄹㅇㅡㄹ</w>": 5847,
  "ㅇㅏㄴㅣㅁㅕㄴ</w>": 3414,
  "ae</w>": 19811,
  "ㄴㅗㅇㄷㅏㅁ": 29044,
  "ㅇㅏㅇㅜㅅㅇㅡㄹ</w>": 11835,
  "ㅇㅝㅅㅓ</w>": 8326,
  "ㅋㅔㅅ</w>": 3879,
  "ㅈㅏㅇㄱㅣㅈㅓㄱㅇㅡㄹㅗ</w>": 22373,
  "ㅂㅡㄹㅏㅇㅣ": 13827,
  "Wik": 31424,
  "ㅍㅕㅇㄱㅠㄴㅈㅏㅊㅐㄱㅈㅓㅁ</w>": 27098,
  "ㄱㅜㅅㅔ": 29105,
  "ㅎㅗㅇㅈㅜㄴㅍㅛ</w>": 24533,
  "ㄴㅡㄹㅇㅓㅆㄷㅏ</w>": 27345,
  "ㅁㅏㄷㅏ</w>": 1809,
  "ㅂㅓ</w>": 1614,
  "ㅊㅣㄹㅛㄱㅏ</w>": 17898,
  "ㅇㅣㄴㅌㅓㄴㅔㅅㅇㅢ</w>": 19560,
  "46</w>": 8997,
  "ㅎㅘㄱㅂㅗ</w>": 11423,
  "ㅁㅗㄷㅓㄴ</w>": 25935,
  "ㅅㅜㅈㅗㄱ": 24247,
  "ㅅㅓㄴㅌㅐㄱㅎㅐ</w>": 19424,
  "ㅍㅐ": 686,
  "ㅅㅔㅋㅓㄴ": 26599,
  "ㅎㅐㅇㄷㅗㅇ": 2274,
  "ㄷㅜㄹㄹㅓ</w>": 13145,
  "ㅇㅐㄱㅊㅔ</w>": 28252,
  "ㅅㅓㅇㅑㅇㅇㅢ</w>": 30578,
  "ㅅㅓㄹㄷㅡㄱ": 10407,
  "ㄱㅡㄹㅐㅍㅡㅂㅔㅌㅣㅇ</w>": 12635,
  "ㅇㅗㄻㄱㅕ</w>": 18201,
  "ㅇㅣㄴㄱㅏㄴㅇㅢ</w>": 4447,
  "ㅇㅕㄴ</w>": 1264,
  "ㅇㅣㄴㅁㅕㅇ": 27971,
  "ㅂㅏㄷㅏㅇㅣㅇㅑㄱㅣ": 27198,
  "ㅅㅜㅌ": 25829,
  "ㅁㅔㅌㅏㄹ": 16892,
  "Lev": 27055,
  "ㅁㅕㅇㅁㅜㄴ": 24798,
  "ㄷㅐㅌㅗㅇㄹㅕㅇㅇㅔ</w>": 26662,
  "ㄴㅏㄱㅏㄹ</w>": 7194,
  "ㅊㅏㄱ</w>": 2946,
  "tor": 28544,
  "ㅎㅐㅇㅂㅗㄱㅎㅏㄷㅏ</w>": 31613,
  "ㄱㅡㄸㅐ</w>": 5213,
  "ㅇㅏㄴㅌㅏ</w>": 4602,
  "ㅎㅏㄷㅏㄴ</w>": 18552,
  "ㅁㅣㅅㅕㄴ": 21544,
  "ㅅㅏㄱㅈㅔㄷㅚㄹ</w>": 4212,
  "ㅎㅚㄱㅕㄴ": 11749,
  "ㅇㅏㄶㄴㅡㄴㄷㅏㄴㅡㄴ</w>": 9822,
  "ㅎㅕㅂ": 928,
  "ㅇㅣㄹㅗㄴㅇㅢ</w>": 15548,
  "ㅅㅡㅈㅡ": 29519,
  "ㅇㅣㅇㅠㄴㅡㄴ</w>": 2845,
  "ㅆㅣㅂ": 15462,
  "ㄷㅡㄷ": 1953,
  "ㅂㅏㄷㅇㅡ": 3775,
  "ㅇㅣㄹㄱㅘㅇㅇㅣ</w>": 10305,
  "ㅅㅣㄷㅗㅎㅐ</w>": 14944,
  "ㄱㅟㅇㅕㅁㄷㅜㅇㅇㅣ</w>": 26271,
  "ㅈㅣㅈㅜ": 26060,
  "ㅇㅗㅎㅣㄹㅕ</w>": 2963,
  "ㅛ": 124,
  "SC": 6670,
  "ㅅㅜㅁㅏㄴ</w>": 16891,
  "ㅇㅓㄹㅣㄴㅇㅣㅈㅣㅂ</w>": 10387,
  "ㅈㅓㄱㅇㅛㅇㄷㅚㅈㅣ</w>": 23135,
  "ㅈㅏㅇㅅㅗㄱㅏ</w>": 20224,
  "ㄷㅗㅇㅅㅐㅇㅇㅣ</w>": 21041,
  "ㄱㅓㄱㅣ</w>": 13147,
  "ㅌㅔㅁㅏ": 10917,
  "ㅂㅕㄴㄱㅕㅇㅇㅡㄹ</w>": 20438,
  "ㅅㅣㅈㅏㄱ": 927,
  "ㅇㅣㄹㄹㅗㅂㅜㅌㅓ</w>": 10732,
  "ㅊㅔㅇㅣㄴ": 16123,
  "ㄱㅖㅇㅑㄱㅅㅓ</w>": 22566,
  "ㅈㅓㄱㅇㅣㄱㅗ</w>": 3595,
  "ㄱㅐㅎㅕㄱㅇㅡㄹ</w>": 23434,
  "ㅎㅘㄴㅈㅓㄴ</w>": 20760,
  "Bat": 30666,
  "ㅂㅜㅌㅇㅕㅆㄷㅏ</w>": 32365,
  "ㄷㅐㅇㅜ</w>": 27983,
  "ㅅㅣㅈㅏㄱㄷㅚㄴㄷㅏ</w>": 19010,
  "ㅁㅜㅇㅏㄴ": 28125,
  "ㅅㅗㅈㅏㅇ</w>": 13783,
  "ㄴㅏㄱㅏㄴㄷㅏ</w>": 21707,
  "ㅍㅡㄹㅔㄴㅈㅡ</w>": 27935,
  "ㅈㅗㄹㅠ": 19874,
  "ㅌㅗㅇㅎㅏㅂ": 3274,
  "ㅍㅡㄹㅔㅇㅣㅁㅇㅡㄹ</w>": 29696,
  "ㄸㅜㄲㅓ": 16400,
  "ㅊㅓㄴㅕ": 27057,
  "ㅈㅜㅈㅔㄹㅡㄹ</w>": 14128,
  "12ㅇㅝㄹ</w>": 2751,
  "ㅂㅜㄴㅅㅓㄱㅎㅏㄴㅡㄴ</w>": 25364,
  "ㅈㅗㄱㅡㅁㅁㅏㄴ</w>": 9707,
  "ㅎㅗㄴㅎㅏㅂ</w>": 12243,
  "ㅑ": 114,
  "ㅂㅕㄴㅇㅡㄹ</w>": 18390,
  "ㅇㅛㅇㅅㅏㄴㄱㅜ</w>": 27548,
  "LPG": 24884,
  "ㅇㅣㅇㅠㄱㅏ</w>": 4667,
  "ㅇㅣㄴㅏ</w>": 836,
  "ㅈㅣㄹㅅㅜ</w>": 31083,
  "ㄷㅏㄴㅣㄹ</w>": 13285,
  "Pi": 13467,
  "ㅅㅡㅍㅓ": 20820,
  "ㄱㅡㄹㅓㄴ": 820,
  "ㄱㅏㅁㄷㅗ</w>": 11813,
  "ㄱㅛㅈㅓㅇ</w>": 18133,
  "ㅂㅏㄴㅁㅕㄴ</w>": 4340,
  "ㅈㅓㄱㅎㅏㄴ</w>": 24934,
  "ㅌㅜㅈㅏㅎㅏㄴㅡㄴ</w>": 30949,
  "ㅇㅗㄹㅠㄱㅏ</w>": 9064,
  "CR": 8591,
  "ㅇㅣㅇㅓㅈㅣㄹ</w>": 15871,
  "ㅂㅕㄴㅎㅘㅇㅢ</w>": 15966,
  "ㄹㅓㄱㅅㅕ": 8213,
  "ㄴㅏㄴㅔㅇㅛ</w>": 24660,
  "ㄷㅏㄴㅇㅢ</w>": 4154,
  "na</w>": 23030,
  "SKㅌㅔㄹㄹㅔㅋㅗ": 27365,
  "ㅈㅔㄱㅔ</w>": 19848,
  "ㅅㅐㄱㅇㅔ</w>": 32389,
  "ㅍㅡㄹㄹㅓㅅㅡ": 15826,
  "ㅈㅏㄴㅈㅏㄴ": 16225,
  "ㅁㅗㄱㅇㅛㄱ": 12517,
  "ㅈㅣㄱㄱㅕㄹ": 25399,
  "ㅇㅣㄹㅅㅜ</w>": 31199,
  "ㅁㅏㅅㅣㄴ</w>": 32614,
  "ㅂㅣㅊ": 2171,
  "ㅅㅣㄲㅏㅈㅣ</w>": 8435,
  "oor</w>": 17659,
  "ㄴㅓㄴ": 19868,
  "ㅇㅕㅇㅇㅕㄱㅇㅡㄴ</w>": 29829,
  "ㄱㅕㅇㅜㄹ": 3896,
  "ㅇㅜㄹㅣㄴㅏㄹㅏㄱㅏ</w>": 28389,
  "ㅋㅗㄱ": 12071,
  "ㅅㅏㅇㅅㅔㅎㅏㄱㅔ</w>": 29531,
  "ㅂㅏㄱㅈㅜ": 23562,
  "ㅇㅕㅇㅎㅗㄴㅇㅢ</w>": 30285,
  "ㅂㅏㄹㅏㅂㅗㄴ</w>": 27389,
  "ㄱㅜㅅㅓㅇㅎㅏㄱㅗ</w>": 25402,
  "ㅋㅣㄹㄹㅗㅁㅣㅌㅓㅇㅣㅂㄴㅣㄷㅏ</w>": 19175,
  "ㅎㅏㄴㅇㅡㄹ</w>": 16457,
  "ㅌㅣㅂㅡ</w>": 3960,
  "ㅈㅣㄴㅏㄴㅎㅐ": 10148,
  "ㅂㅗㅇㅣㄴㅔㅇㅛ</w>": 25252,
  "ㅅㅣㄴㅇㅣㅂㅅㅏㅇㅝㄴ</w>": 25642,
  "ㅍㅛㅅㅣㄷㅚㄴ</w>": 13267,
  "ㄴㅡㄲㅣㅁㅇㅡㄴ</w>": 19131,
  "ㅇㅢㅈㅏ</w>": 9544,
  "ㅎㅕㅇㅅㅣㄱㅇㅣ</w>": 27940,
  "ㅅㅓㄴㅁㅕㅇㅎㅏㄴ</w>": 22284,
  "ㅇㅣㅆㅇㅡㅁㅇㅡㄹ</w>": 5731,
  "ㅇㅣㅆㅇㅡㄹㅈㅣ</w>": 10770,
  "wh": 6447,
  "ㄱㅣㅁㅅㅓㅇ": 7579,
  "ㅂㅜㅌㅓㄴㅡㄴ</w>": 3780,
  "ㅇㅏㄴㅈㅓㄴㅇㅡㄹ</w>": 13946,
  "ㅂㅏㅁㅅㅐ</w>": 31328,
  "ㄱㅡㄱㅓㄹ</w>": 6178,
  "ㄷㅐㅂㅜㄱ</w>": 20681,
  "ㅅㅜㅁㄱㅕㅈㅣㄴ</w>": 11413,
  "ㅅㅜㅇ": 7333,
  "ㅇㅕㅇㅠ": 4886,
  "ㅇㅣㄹㅅㅏㄴ</w>": 24080,
  "ㅈㅓㅈㅏㄱㄱㅝㄴㅇㅡㄹ</w>": 3208,
  "ㅅㅏㄱㅈㅔㅎㅏㄴ</w>": 10581,
  "MW": 24941,
  "ㅈㅣㅇㅓ": 13277,
  "ㅅㅓㄴㅇㅓㄴ": 5594,
  "ㅋㅡㄹㅡㄹ</w>": 3303,
  "ㄱㅘㅁㅗㄱㅇㅡㄹ</w>": 24916,
  "ㄱㅕㄹㄱㅘㅇㅘ</w>": 29759,
  "ㅊㅡㅇㅇㅢ</w>": 10843,
  "7ㅇㅣㄹ</w>": 4531,
  "ㅇㅛㄱㅡㅁ": 3665,
  "ㅓㄹㄹㅣ": 11396,
  "3ㄴㅕㄴ": 6014,
  "ㅈㅓㅁㅅㅣㅁ": 11248,
  "ㅇㅏㅂㅏㅌㅏ": 23606,
  "ㅇㅏㄴㅈㅓㅇ": 3149,
  "Google": 10503,
  "ㅅㅡㅌㅡ</w>": 1215,
  "ㄱㅓㅅㄱㅘ</w>": 3363,
  "ㄷㅏㅇㅎㅘㅇ": 10766,
  "ㅎㅜㅋㅜㅇㅗ": 20350,
  "ㅅㅣㅈㅏㄱㅎㅐㅇㅑ</w>": 29586,
  "ㅅㅓㅇㅜㄹ": 1161,
  "ㅂㅏㄴㅎㅏㄴㅡㄴ</w>": 24234,
  "ㅇㅣㅇㅑ": 926,
  "Mi": 25878,
  "ㅍㅔㅇㅣㅈㅣ</w>": 700,
  "ㄷㅡㄹㄹㅕ": 8885,
  "ㅊㅜㄹㅇㅕㄴ</w>": 11200,
  "ㅅㅏㅊㅗㄴ": 30975,
  "ㅇㅗㅌㅗ</w>": 28436,
  "ㅎㅚㅇㅝㄴㅅㅜㅇㅘ</w>": 5221,
  "ㄲㅗㅊㅇㅡㄴ</w>": 21212,
  "ㄹㅣㄹㄹㅣ": 14848,
  "ㅈㅔㅇㅓ": 7546,
  "ㅇㅣㄹㅜ": 1774,
  "count</w>": 27694,
  "ㅅㅏㅇㅓㅂㅇㅡㄴ</w>": 13386,
  "ㅇㅏㄱㅇㅢ</w>": 9606,
  "ㅇㅠㅅㅓㄴ": 20915,
  "ㅅㅏㄱㅓㄴㄱㅘ</w>": 25887,
  "ㅅㅐㅇㄱㅏㄱㅎㅏㄴㅣ</w>": 31487,
  "ㅇㅜㄹㅣㄴㅏㄹ": 2182,
  "ㅈㅕ</w>": 1277,
  "ㅋㅝㄹㄹㅣ": 11449,
  "ㅂㅡㄹㅗ": 7375,
  "ㅅㅏㄴㄱㅘ</w>": 16148,
  "ㅊㅚㅈㅓㄱㅏㄱㅕㄱ</w>": 20110,
  "ㅇㅕㄴㄷㅗ</w>": 23199,
  "ㅇㅣㄹㅂㅜㄹㅡㄹ</w>": 12017,
  "ㄱㅏㄴㄱㅕㄹ": 31940,
  "ㅌㅏㅇㅜㄴ": 10386,
  "ub</w>": 5292,
  "ㅂㅗㅇㅏ": 2367,
  "FAQ</w>": 12458,
  "ation</w>": 2068,
  "ㄱㅗㄱㅐㄱㅇㅔㄱㅔ</w>": 11966,
  "SI</w>": 22531,
  "uc": 2271,
  "ㅈㅔㅍㅜㅁㄱㅘ</w>": 13965,
  "ㅂㅜㄱㅘ</w>": 20415,
  "ㅂㅐㅌㅣㅇ": 14665,
  "ㅇㅣㅁㅇㅔ</w>": 21461,
  "ㄱㅡㄹㅡㅅ</w>": 19756,
  "ㅇㅑㅎㅏㅂㄴㅣㄷㅏ</w>": 19696,
  "ㅂㅕㄴㅎㅘㄹㅡㄹ</w>": 4160,
  "x": 77,
  "ㄱㅗㅇㅈㅏㅇ": 14129,
  "ㅂㅏㅇㅇㅏㄴ": 20837,
  "ㅍㅏㅇㅣㅇㅓ": 11896,
  "34": 5852,
  "ㄷㅐㅅㅏ</w>": 11126,
  "ㅂㅐㅍㅗ": 6513,
  "ㅇㅓㄷㅡㅂㅐㄴ": 22828,
  "ㅇㅏㄶㅇㅏㅆㄷㅏㄴㅡㄴ</w>": 17294,
  "ㅇㅡㄴㅎㅐㅇㅇㅣ</w>": 20421,
  "ㄱㅗㅅㅇㅔ</w>": 2623,
  "ㅈㅓㅇㅎㅏㅇㅕ</w>": 27787,
  "ㅈㅕㅆㄷㅓㄴ</w>": 14844,
  "top</w>": 29982,
  "ㅅㅡㅌㅣㅋㅓ": 20334,
  "ㅌㅡㄴㅏ</w>": 30295,
  "Gener": 18048,
  "ㅂㅜㅈㅣㄴ": 18050,
  "ㅇㅚㄱㅛ</w>": 17994,
  "ㅅㅣㅈㅏㄱㅎㅏㄱㅣ</w>": 19716,
  "ㅅㅏㄴㅐ</w>": 19329,
  "ㅎㅗㅁㅍㅔㅇㅣㅈㅣㄹㅡㄹ</w>": 10891,
  "ㅇㅏㄷㅣㄷㅏㅅㅡ</w>": 26732,
  "ㄱㅐㅂ": 27570,
  "ㄴㅗㄹ": 789,
  "ㅁㅏㅇㅣㅋㅡㄹㅗㅅㅗㅍㅡㅌㅡ": 26040,
  "ㅅㅜㄷㅗㅇㅇㅡㄹㅗ</w>": 26820,
  "ㅎㅘㄱㅅㅣㄹㅎㅏㄱㅔ</w>": 15031,
  "ㅌㅗㅇㅇㅣㄹㅂㅜ</w>": 26949,
  "ㅌㅡㄱㄱㅓㅁ": 26538,
  "ㅋㅏㄹㄹㅗㄹㅣ</w>": 32083,
  "sec": 11107,
  "ㅂㅓㄹㅕㅆㄷㅏ</w>": 8974,
  "ㄴㅗㅎㅇㅡㄴ</w>": 5722,
  "ㅇㅣㄴㅌㅓㄴ</w>": 21276,
  "ㅅㅓㄴㅂㅕㄹ": 19769,
  "ㄷㅏㅇㅣㅇㅏㅁㅗㄴㄷㅡ</w>": 19701,
  "ㄴㅏㅁㄴㅡㄴ</w>": 13080,
  "ㅂㅗㄹㅓ": 30145,
  "CI</w>": 18389,
  "San</w>": 11322,
  "Port</w>": 29672,
  "ㅂㅡㄹㅣㄱ</w>": 31858,
  "ㅌㅏㅇㅣㅌㅡㄹㅇㅡㄹ</w>": 24397,
  "ㅈㅓㅇㅈㅏㄱ</w>": 9818,
  "ㅂㅓㄹㅣㄹ</w>": 11916,
  "ㅍㅗㅋㅓ": 8069,
  "ㅎㅏㅇㅑㄴ</w>": 14597,
  "ㅅㅣㅇㄱㅏㅍㅗㄹ": 9554,
  "ㅂㅏㅂㅔ": 21685,
  "ㅅㅓㅇㅈㅏㅇㅇㅣ</w>": 26873,
  "ㅈㅕㄴ": 7314,
  "ㅇㅝㄹㄷㅡ": 2986,
  "ㅅㅓㅇㅜㄹㄷㅐ": 22324,
  "ㄱㅕㄹㅎㅗㄴㅅㅣㄱㅇㅡㄹ</w>": 32194,
  "ㄱㅕㅇㅎㅓㅁㅎㅏㄴㅡㄴ</w>": 14013,
  "ld": 23029,
  "ents</w>": 7775,
  "ㄹㅣㄹㄹㅔㅇㅣ</w>": 24150,
  "ㅍㅡㄹㄹㅓㄱㅡㅇㅣㄴ</w>": 20854,
  "ㅈㅣㄱㅡㅁㄲㅏㅈㅣㅇㅢ</w>": 25113,
  "ㅍㅕㄴㄱㅕㄴ": 15949,
  "ㅊㅓㅂ</w>": 11833,
  "ㄱㅣㄹㄹㅗ</w>": 11722,
  "ㅎㅛㅇㅠㄹㅇㅡㄹ</w>": 28696,
  "ㅇㅏㄹㅁㅕㄴ</w>": 19786,
  "ㄱㅗㅁㅏㄴ</w>": 19668,
  "ㅈㅏㄱㅍㅜㅁ": 2637,
  "4km</w>": 26699,
  "ㅎㅕㄴㅈㅐㄴㅡㄴ</w>": 9198,
  "ER": 3010,
  "video</w>": 12891,
  "Squ": 28570,
  "ㅅㅗㄹㅣ</w>": 4015,
  "ㅎㅏㄴㄱㅓㅅ</w>": 24300,
  "ㅅㅡㅇㅇㅡㄹㅗ</w>": 31275,
  "ㅍㅗㄱㅅㅡㅂㅏ": 24682,
  "ㅅㅏㅇㅎㅗㄱ": 24765,
  "ㅇㅏㄹㄱㅗ": 5482,
  "ㅇㅟㅅㅐㅇ</w>": 26127,
  "BA</w>": 23163,
  "ㅅㅣㄴㅐ": 7018,
  "ㅂㅔㅌㅣㅇ": 13930,
  "ㅇㅣㄴㅅㅠ": 19577,
  "ㅁㅓㄱ</w>": 22276,
  "ㅍㅛㅅㅣㅎㅏㅂㄴㅣㄷㅏ</w>": 18172,
  "ㅍㅐㄴㅇㅣ</w>": 25403,
  "ㅁㅜㄴㅂㅓㅂ</w>": 18506,
  "ㅅㅏㄴㅁㅜㄹ": 19414,
  "ㅁㅔㅁㅗㄹㅣ": 24114,
  "ㅎㅐㅇㅂㅗㄱㅇㅣ</w>": 30948,
  "ㅂㅔㅇ": 27090,
  "ㅇㅕㄱㅅㅏㅈㅓㄱㅇㅣㄴ</w>": 14846,
  "ㄸㅐㄲㅏㅈㅣ</w>": 4446,
  "ㄱㅏㄴㅍㅕㄴㅎㅏㄴ</w>": 26821,
  "ㅂㅗㄱ</w>": 2087,
  "ㅁㅏㅇㅡㅁㄱㅏㅈㅣ": 25416,
  "ㄱㅓㅅㅇㅣㄴ": 6253,
  "ㅊㅔㅇㅣㄴ</w>": 5200,
  "ㅁㅗㅇㅢ</w>": 4664,
  "OT</w>": 22661,
  "ㅎㅐㅆㅇㅡㄹ": 16836,
  "ㅎㅏㅇㄱㅗㅇㄱㅝㄴ</w>": 5930,
  "ㄷㅏㅅㅣ": 5701,
  "ㅇㅓㅁㅏㅇㅓ": 20313,
  "ㄱㅣㅇㅕ": 4485,
  "ㅂㅣㅊㄱㅘ</w>": 25871,
  "ㅇㅕㅇㅎㅑㅇㄹㅕㄱ</w>": 27559,
  "ㅅㅐㅇㅅㅏㄴㅎㅏㄴ</w>": 24228,
  "ㅂㅗㄱㅅㅏ": 7753,
  "ㅁㅏㄹㅇㅏㅆㄷㅏ</w>": 14529,
  "lin": 9366,
  "ㅎㅓㅁㅇㅡㄹ</w>": 2390,
  "ㄱㅏㅇㅈㅔ": 9906,
  "ㄱㅛㅅㅜㅇㅢ</w>": 18761,
  "ㅇㅏㄴㅁㅕㄴ": 21473,
  "UR": 5436,
  "ㅇㅟㄴㄷㅗㅇㅜ</w>": 5828,
  "Mal": 26769,
  "ㅂㅜㄴㅇㅑㅇㅔ</w>": 8742,
  "ㄱㅓㅁ</w>": 5182,
  "7000": 31599,
  "ㄷㅜㄹㅕㅇㅜㅁ</w>": 29460,
  "ㅅㅜㅁㅕㄴ": 14191,
  "ㅁㅜㅇㅓㅅㅇㅣㄷㅡㄴ</w>": 21944,
  "US</w>": 10232,
  "20ㅍㅔㅇㅣㅈㅣ</w>": 15460,
  "ㅈㅏㅇㄹㅕ": 18079,
  "ㅈㅔㅎㅏㄴㄷㅚㄹ</w>": 29474,
  "ㄴㅐㅇㅓ": 28265,
  "r": 71,
  "ㅂㅜㄴㅇㅡㄴ</w>": 5073,
  "ㅈㅗㅎㅇㅏㅈㅣㄴ</w>": 23509,
  "ㅅㅓㅇㄱㅡㅂ</w>": 5653,
  "ㅈㅣㄹㄷㅗ</w>": 30849,
  "ㅇㅏㅍㅅㅓ": 13400,
  "ㄱㅗㄱㅐㄱㅅㅔㄴㅌㅓ</w>": 3962,
  "ㄷㅓㄹㅏㄱㅗ</w>": 31267,
  "ㄱㅏㄴㅅㅣㄱ": 31607,
  "ife</w>": 12992,
  "ㅌㅔㅇㅣㄴ": 5304,
  "ㅂㅏㄴㄹㅕ": 11840,
  "ㅂㅏㅇㅘ</w>": 11481,
  "ㄱㅕㄱㄹㅣ": 28928,
  "NZ": 29834,
  "ㅎㅗㄴㄷㅏ</w>": 29254,
  "ㅌㅐㅇㅓ": 19288,
  "ㄹㅣㅇㅋㅡ": 6081,
  "ㅇㅓㄷㅣㅅㅓㄴㅏ</w>": 15520,
  "AV": 12371,
  "ㄱㅝㄴㄹㅣ": 11033,
  "UV</w>": 25056,
  "ㅁㅜㄴㅈㅔㅈㅓㅁ</w>": 6908,
  "ㅈㅓㅁㅅㅜㄹㅡㄹ</w>": 9688,
  "ㄱㅏㄲㅏㅇ": 2403,
  "ㄱㅏㄷㅗㅇ": 14739,
  "ㄴㅐㅇㄷㅗㅇ": 19074,
  "ㅁㅜㅅㅏㅇ</w>": 24314,
  "ㄷㅐㅎㅏㄱ": 1046,
  "ㅂㅗㄴㅏ</w>": 19851,
  "ㅇㅏㄶㅇㅡㅁㅕㄴㅅㅓ</w>": 26887,
  "9ㅎㅚ": 22233,
  "ㅂㅜㄴㄷㅡㄹㅇㅣ</w>": 3638,
  "ㅎㅏㅇㄱㅗㅇㅍㅕㄴ</w>": 13892,
  "ㄷㅓㄹㅏㄱㅗㅇㅛ</w>": 7454,
  "ㄴㅐㅇㅛㅇㄷㅡㄹㅇㅡㄹ</w>": 32288,
  "ㅎㅏㄴㄹㅣㅁ": 32402,
  "ㅇㅐㅂㅇㅡㄹ</w>": 8130,
  "ㅈㅏㅇㅝㄴ</w>": 9289,
  "ㅎㅐㅂㅗㄴㅡㄴ</w>": 15077,
  "ㅈㅗㅈㅓㄹㅎㅏㄹ</w>": 22605,
  "ㅇㅠㅎㅏㄱㅅㅐㅇ</w>": 28690,
  "ㅇㅣㅁㅇㅛㅇ": 18954,
  "ㅇㅠㄹㅗ</w>": 8087,
  "ㄱㅣㄹㅇㅣㄱㅏ</w>": 23935,
  "ㄱㅗㅊㅣㄹ</w>": 27732,
  "ㄹㅐㅂ": 10989,
  "ㅊㅜㄱㅅㅗ": 13159,
  "ㅁㅣㄹㅡㄹ</w>": 8103,
  "ㄱㅏㅈㅣ": 827,
  "ㅁㅣㄹㅐ</w>": 5388,
  "ㄷㅡㄹㅕㅆ": 17033,
  "ㅈㅏㄹㅛㄷㅡㄹㅇㅣㅂㄴㅣㄷㅏ</w>": 3179,
  "ㅎㅏㄴㅇㅢ": 20512,
  "ㅇㅣㄹㅏㅁㅕ</w>": 5927,
  "250": 10289,
  "ㅇㅠㄴㅏㅇㅣ": 15746,
  "ㅅㅐㅇㄱㅏㄱㄷㅚㄴㅡㄴ</w>": 22352,
  "Mark</w>": 29864,
  "ㅁㅏㅇㅣㄹㄹㅣㅈㅣ</w>": 20453,
  "ㅅㅣㅍㄷㅏ</w>": 3491,
  "ㄷㅡㄹㅐㄱㅗㄴ</w>": 20710,
  "ㅅㅕㄴㅇㅢ</w>": 7759,
  "ㄱㅕㅇㄹㅕㄱ": 6209,
  "ㅂㅗㅎㅗ": 1647,
  "ㅈㅗㅇㄹㅛ</w>": 7269,
  "ㅂㅣㅈ": 6675,
  "ㄱㅏㅂ": 1933,
  "q": 70,
  "ㅂㅣㅎㅐ</w>": 3602,
  "ㄱㅗㅇㄷㅗㅇㅊㅔㅇㅢ</w>": 24407,
  "ㅁㅇㅓㅄㅇㅣ</w>": 25760,
  "ㄴㅏㅊㅅㅓㄴ</w>": 13534,
  "ㄱㅘㄴ": 391,
  "ㄷㅏㅁㅜㄴㅎㅘ": 15821,
  "ㅂㅗㄱㅗ</w>": 1031,
  "ㄱㅜㅅㅏㅇ": 21211,
  "ㅅㅗㅅㅕㄹㄱㅡㄹㅐㅍㅡㅅㅗㅅㅕㄹㄱㅡㄹㅐㅍㅡ</w>": 13475,
  "ㅁㅐㅊㅜㄴㅂㅜ</w>": 14306,
  "ㅂㅓㄴㅇㅣㄴㅏ</w>": 16842,
  "ㅂㅗㅇㅣㄴ</w>": 10640,
  "ㅎㅛㅇㅠㄹㅅㅓㅇ</w>": 26989,
  "ㄴㅏㅅㅓㄴ</w>": 13103,
  "ㄱㅓㅁㅈㅓㅇ": 12375,
  "ㄱㅗㄹ</w>": 4464,
  "ㅅㅏㅇㅣㅈㅡㄹㅡㄹ</w>": 28906,
  "Fuck</w>": 25175,
  "ㄱㅚㅇㅈㅏㅇ": 3893,
  "ㅁㅕㄴㅈㅔ": 19806,
  "ㅈㅓㅇㄱㅝㄴㅇㅢ</w>": 20471,
  "ㅁㅗㄱㅅㅗㄹㅣㄹㅡㄹ</w>": 11061,
  "5ㄱㅐ": 19084,
  "ㅇㅑㄷㅏㅇ</w>": 29912,
  "ㄷㅡㄹㄱㅔ</w>": 13415,
  "ㄹㅣㄹ": 4930,
  "ㅇㅐ": 560,
  "ㅂㅓㅂㅇㅔ</w>": 4595,
  "ㄱㅐㅅㅓㄴㅎㅏㄱㅣ</w>": 25302,
  "ㅈㅔ2ㅇㅢ</w>": 22503,
  "ㄱㅘㅈㅓㅇㅇㅡㄴ</w>": 10422,
  "ㅂㅐㄱㅕㅇㅇㅡㄹㅗ</w>": 16657,
  "ory</w>": 4711,
  "ㄱㅣㅁㅂㅕㅇ": 14530,
  ")(</w>": 8575,
  "ㅌㅗㅇㅈㅔ": 7788,
  "ㄴㅜㄴ": 990,
  "ㅊㅡㅇ": 2432,
  "ㅈㅓㄴㅎㅜ": 27403,
  "ㅍㅕㄴㅇㅢ": 5061,
  "7ㄱㅏㅈㅣ</w>": 19538,
  "ㅂㅜㄹㄱㅓ": 31634,
  "ㄱㅐㅇㅣㄴㅈㅓㅇㅂㅗㅂㅗㅎㅗ</w>": 20423,
  "ㅂㅓㄹㅇㅓㅈㅣㄱㅗ</w>": 26135,
  "ㅌㅏㅇㅣㅁㅇㅡㄹ</w>": 32206,
  "ㅊㅏㅇㅣ": 3988,
  "ㅇㅕㅈㅏㅍㅡㄹㅗㄱㅗㄹ": 28293,
  "character": 27097,
  "ㅈㅜㄱㅇㅡㄹ</w>": 9402,
  "ㅁㅗㄹㅡㄱㅔㅆㅈㅣㅁㅏㄴ</w>": 9388,
  "School</w>": 28281,
  "ㅈㅗㄹㅣㅂ": 11471,
  "ㄱㅡㄹ": 349,
  "ㄴㅣㅁㄲㅔㅅㅓㄴㅡㄴ</w>": 13091,
  "ㅈㅜㅇㅅㅔ": 25854,
  "ㄴㅐㄱㅏ</w>": 1103,
  "ㅂㅏㄴㅎㅘㄴ</w>": 26264,
  "ㅈㅣㄱㅎㅜ</w>": 13836,
  "ㅈㅡㅁㅇㅢ</w>": 30011,
  "\"</w>": 234,
  ",,,</w>": 11489,
  "ㅅㅣㅈㅏㄱㅎㅏㄹ</w>": 10007,
  "ㄴㅡㄲㅕㅆㄷㅏ</w>": 19204,
  "ㄱㅗㅈㅣ": 9514,
  "ㄱㅣㅃㅡㅁ</w>": 24543,
  "ㄷㅏㅋㅠ": 13667,
  "ㅇㅘㅆㅇㅓㅇㅛ</w>": 19715,
  "ㅇㅢㅎㅐㅅㅓ</w>": 2724,
  "ㅁㅏㄴㄴㅏㄹ</w>": 6619,
  "ㅎㅐㅆㅈㅣㅇㅛ</w>": 24472,
  "ㅏㅇㅗㄴ</w>": 17553,
  "ㅅㅡㅋㅗㅇㅓ": 8780,
  "ㅗㄱ</w>": 642,
  "ㄱㅣㄱㅏㄴㅇㅢ</w>": 24085,
  "ㅇㅣㅆㄱㅣㄷㅗ</w>": 19728,
  "ㄴㅠㅈㅣㄹㄹㅐㄴㄷㅡ</w>": 13907,
  "ㄱㅜㅇㄱㅡㅁㅎㅐ</w>": 25417,
  "ㄹㅗㅇㅔㅅㅓ</w>": 24675,
  "69": 14422,
  "3ㅅㅣㄱㅏㄴ</w>": 19152,
  "ㅈㅜㅇㅅㅣㅁㅇㅔㅅㅓ</w>": 29693,
  "ㅅㅣㄹㄱㅏㅁ": 18212,
  "ㅈㅓㅁㅅㅜㅇㅢ</w>": 17225,
  "ㅇㅣㄹㅇㅡㅋㅣㄱㅗ</w>": 29346,
  "ㅎㅜㄹㅡㄹ</w>": 11483,
  "ㅇㅣㅇㅠㅇㅘ</w>": 31063,
  "ㄹㅗㄹ": 2357,
  "ㄱㅓㅅ</w>": 654,
  "ㅎㅑㅇㅅㅏㅇㅇㅡㄹ</w>": 13747,
  "ㄱㅜㄴㅅㅏㅈㅓㄱ</w>": 23820,
  "ㅈㅣㄴㅣㄴ</w>": 9819,
  "ㅁㅏㅈㅣㅁㅏㄱㄲㅏㅈㅣ</w>": 29954,
  "ㅂㅣㄹㄷㅣㅇ": 17747,
  "ㅊㅏㅁㅅㅓㄱ</w>": 13568,
  "ㅊㅐㅌㅣㅇ</w>": 13084,
  "ㅁㅏㄹㄹㅔㅇㅣㅅㅣㅇㅏ</w>": 16306,
  "Brav": 14289,
  "ㅅㅓㅂㅣㅅㅡㄹ": 12848,
  "ㄱㅡㄹㅗ</w>": 11810,
  "ㅈㅏㅇㅘ</w>": 2331,
  "ㅊㅔㅋㅡㅇㅏㅇㅜㅅ</w>": 23643,
  "ㄴㅗㅇ": 1064,
  "ㅁㅏㅅㅣㅁㅕㄴ</w>": 27497,
  "ㅎㅏㅅㅣㄱㅗ</w>": 5007,
  "ㅅㅏㄱㅗㅇㅘ</w>": 30761,
  "3ㅇㅢ</w>": 16938,
  "ㄱㅕㅇㅊㅏㄹㅊㅓㅇ</w>": 20824,
  "ㄱㅐㄱㅅㅣㄹ": 3018,
  "ㅁㅜㅇㅓㅅㅇㅣㄴㄱㅏㅇㅛ</w>": 16683,
  "ㅎㅘ": 330,
  "ㄹㅓㄴㅊㅣㅇ</w>": 29512,
  "ㅅㅡㅇㅟ": 2686,
  "ㄱㅏㅇㅈㅘ</w>": 10170,
  "ㅇㅡㄴ</w>": 292,
  "ㄱㅏㅈㅕㅆㅅㅡㅂㄴㅣㄷㅏ</w>": 32529,
  "ㄱㅡㄹㅣㅅㅡㄷㅗㄹㅡㄹ</w>": 19134,
  "ㅌㅏㅇㅣㅇㅓ": 15815,
  "ㅇㅕㄴㄱㅕㄹㅇㅣ</w>": 14504,
  "ㄱㅏㅁㅅㅣ</w>": 20939,
  "ㄱㅕㄹㅈㅓㅇ</w>": 6036,
  "ㅅㅏㅈㅏㅇㄴㅣㅁ</w>": 30312,
  "ㅎㅏㅁ</w>": 1284,
  "ㅎㅏㄴㅂㅓㄴㅉㅡㅁ</w>": 30641,
  "ㅅㅏㅇㅅㅐㅇ": 27071,
  "ㅉㅣㄱㅇㅓ": 14031,
  "Man": 6249,
  "ㅈㅓㅈㅣㄹㄹㅓ": 28748,
  "ㅈㅜㄴㅂㅣ</w>": 4904,
  "ㅇㅏㄵㅇㅏ</w>": 6128,
  "ㄱㅕㅇㅈㅔㅎㅏㄱ": 18440,
  "ㅅㅓㅇㅇㅣㄴ": 4439,
  "ㅅㅔㅂ": 4656,
  "ㅊㅜㄹ": 524,
  "mobi": 26227,
  "ㅅㅏㅈㅣㄴㅇㅔ</w>": 16765,
  "Island</w>": 19973,
  "ㅇㅕㄴㅊㅔ": 32203,
  "ㅇㅠㄱㅣ": 6813,
  "ㅊㅜㄹㅈㅏㅇ": 5784,
  "ㅅㅜㅎㅖ": 16448,
  "ㅁㅏㄱㄱㅗ</w>": 17322,
  "ㄴㅜㄱㅜㄴㄱㅏㄴㅡㄴ</w>": 26082,
  "bl": 9527,
  "ㄴㅏㅁㅈㅏㄱㅏ</w>": 10361,
  "ㅅㅓㄹㅁㅕㅇ": 1348,
  "ㅎㅕㅇㅌㅐ</w>": 9619,
  "ㅎㅏㄴㄱㅕㅇ": 29815,
  "ㅇㅠㅅㅏ</w>": 26362,
  "ㅇㅏㄴㅐㄴㅡㄴ</w>": 12390,
  "ㄴㅐㄱㅣ</w>": 8538,
  "ㅂㅐㄹㅕ</w>": 30966,
  "ㄱㅓㄹㄹㅣㅂㄴㅣㄷㅏ</w>": 30064,
  "ㄱㅜㅁㅐㅈㅏㅇㅢ</w>": 5076,
  "umb": 30928,
  "ㅍㅐㄴㄷㅡㄹㅇㅡㄹ</w>": 26012,
  "ㅇㅣㅎㅜ</w>": 1478,
  "ㅅㅏㄹㅍㅕㅂㅗㄷㅗㄹㅗㄱ</w>": 29026,
  "ide</w>": 9376,
  "ㅅㅗㅂㅣㅈㅏㅇㅢ</w>": 10300,
  "ㅅㅗㅇㅛㄷㅚㅂㄴㅣㄷㅏ</w>": 24793,
  "ㄴㅏㅌㅏㄴㅏ": 3413,
  "ㅎㅏㄱㄱㅣ": 18376,
  "ㅅㅓㅇㅍㅗㄱㄹㅕㄱ</w>": 14463,
  "ㅅㅜㄱㅓ": 26395,
  "ㅇㅏㄹㅇㅡㄹ</w>": 28370,
  "ㄷㅔㅇㅣㄹ</w>": 21532,
  "ㅌㅣㄴㅡㄴ</w>": 18269,
  "ㄱㅏㅇㄹㅡㅇ</w>": 22095,
  "ㅇㅏㄷㅡㄹㅇㅡㄹ</w>": 15929,
  "ㅇㅣㄴㄱㅗㅇ</w>": 23918,
  "ㅅㅓㄴㅌㅐㄱㅇㅔ</w>": 20668,
  "4ㄱㅐㅇㅢ</w>": 13023,
  "ㄱㅗㄱㅣㄴㅡㄴ</w>": 31480,
  "ㅁㅏㄴㅇㅢ</w>": 2603,
  "ㅂㅏㄱㅅㅏㅎㅏㄱ": 26656,
  "ㄷㅐㅅㅏㅇㅇㅢ</w>": 26542,
  "ㅊㅡㄴㅡㄴ</w>": 19498,
  "ㅇㅏㅈㅜ</w>": 1679,
  "ㅅㅏㄹㅇㅏㅇㅣㅆㄴㅡㄴ</w>": 15707,
  "ㅅㅡㅇㅟㅇ</w>": 21038,
  "ㄱㅗㄷㅗㄱ": 20205,
  "ㅈㅔㅅㅣㅎㅏㄴㅡㄴ</w>": 20404,
  "ㅊㅔㅈㅔ": 12852,
  "ㅂㅣㄴㅡㄴ</w>": 5027,
  "ㅅㅣㅋㅣㄴ</w>": 7163,
  "ㅊㅜㄹㄹㅕㄱㅇㅡㄹ</w>": 27480,
  "ㅍㅓㅈㅡㄹ</w>": 19617,
  "ㄱㅓㄴㅈㅗ</w>": 19918,
  "MS": 6563,
  "65": 7325,
  "ㅈㅔㅈㅗ</w>": 6736,
  "ㅃㅜㄴㅇㅣㅂㄴㅣㄷㅏ</w>": 10299,
  "ㅆ": 103,
  "ㅇㅣㄱㅣㄴㅡㄴ</w>": 15250,
  "ㅎㅏㄷㅡㅅㅇㅣ</w>": 19655,
  "ㄱㅜㅈㅗㅈㅗㅈㅓㅇ</w>": 25858,
  "ㅜ</w>": 146,
  "ㄴㅗㅁㅜㅎㅕㄴ</w>": 9970,
  "ㅇㅓㄹㅁㅏㄷㅡㄴㅈㅣ</w>": 15017,
  "sm": 11800,
  "Le</w>": 28184,
  "ㅁㅜㅊㅓㄱㅇㅣㄴㅏ</w>": 26489,
  "ㅌㅐㅇㅑㅇㅇㅣㄹ</w>": 19255,
  "ㄱㅜㄴㅇㅡㄴ</w>": 8443,
  "ella</w>": 25303,
  "set": 18579,
  "ㅈㅗㅅㅣㅁㅅㅡㄹㅓㅂㄱㅔ</w>": 25528,
  "ㅂㅣㅈㅡㄴㅣㅅㅡ</w>": 3604,
  "ㅅㅗㄴㅇㅣ</w>": 10037,
  "ㅇㅢㅎㅚ</w>": 8932,
  "ㅈㅐㅎㅘㄹ</w>": 23788,
  "ㅎㅕㅇㅑ</w>": 29544,
  "ㄲㅣㄹㅣ": 30906,
  "ㅁㅗㄱㅇㅛ": 28078,
  "ㅈㅓㄴㅅㅗㅇ</w>": 8092,
  "ㅇㅔㅇㅣㅈㅓㄴ": 2879,
  "ㄷㅗㄷㅏ</w>": 20141,
  "ㅁㅐㄱㅅㅡ": 32001,
  "ㅅㅡㄴㅣㅋㅓ": 27306,
  "ㅇㅡㅁㅁㅗ</w>": 19241,
  "ㅇㅖㅋㅓㄴㄷㅐ</w>": 23311,
  "ㄷㅗㄹㅗㄱ</w>": 886,
  "ㄱㅗㅇ": 353,
  "ㅁㅗㄱㅈㅓㄱㅇㅡㄹㅗㄷㅗ</w>": 17333,
  "ㄹㅣㅍㅗ": 14873,
  "ㄱㅓㄴㄱㅏㅇㅇㅔ</w>": 11398,
  "MER": 6247,
  "ㅈㅜㅇㅣㄴㄱㅗㅇ": 5881,
  "\"'</w>": 13697,
  "ㅈㅓㄴㄱㅘ</w>": 8311,
  "ㅇㅘㅇㅣ": 3997,
  "ㄲㅡㅁㅉㅣㄱ": 16011,
  "ㅅㅏㅇㅣㅇㅔㄴㅡㄴ</w>": 27484,
  "ㅂㅜㅁㅗ": 2728,
  "ㄱㅓㄹㅡㄹ</w>": 15946,
  "lex": 18300,
  "ㅂㅓㅁㅇㅟㄱㅏ</w>": 21934,
  "ㅇㅏㅍㅏㅌㅡ": 6653,
  "ㅅㅡㅌㅏㅇㅣㄹㄹㅣㅇ</w>": 32371,
  "ㅈㅓㄴㅎㅘㄴㅇㅣ</w>": 30084,
  "ㅅㅣㄴㅔㅁㅏ</w>": 25066,
  "ㄱㅣㄱㅏㄴ": 2062,
  "ㅁㅕㅇㅇㅣㄴ</w>": 20860,
  "ㅁㅗㄳ": 11128,
  "ㅇㅣㄹㄷㅏㄴ</w>": 2689,
  "Bravo": 15715,
  "ㅌㅐㅇㅓㄴㅏㅆㄷㅏ</w>": 28394,
  "ㄴㅓㅁㅜㄴ": 4266,
  "ㅑㅇㅢ</w>": 25583,
  "ㄷㅏㄴ": 450,
  "z</w>": 217,
  "ㅅㅗㅇㅠㅎㅏㄱㅗ</w>": 27412,
  "ㅇㅣㄹㅈㅓㅇㅎㅏㅁㅕ</w>": 14011,
  "ㅁㅣㅅㅔㅁㅓㄴ": 8955,
  "9km</w>": 29960,
  "ㅎㅐㅆㄷㅓㄴㅣ</w>": 12715,
  "ㅊㅣㅁㅕㅇㅈㅓㄱㅇㅣㄴ</w>": 21669,
  "ㅂㅔㅅ": 9595,
  "70</w>": 8909,
  "ㅁㅕㅇㅇㅖㅎㅞㅅㅗㄴ</w>": 3056,
  "ㅗㅇㅘ</w>": 12928,
  "ㅈㅜㄴㄱㅗㅇ": 28884,
  "ㅇㅐㅇㅘㄴ": 14582,
  "ㅈㅗㄹㅖ</w>": 21049,
  "us": 1892,
  "ㅁㅗㅎㅗ": 19004,
  "ㅊㅜㄱㅏㅎㅏㄴㅡㄴ</w>": 26934,
  "ㅋㅓㄴㄷㅐ</w>": 17717,
  "ㅊㅏㄹㅖㄹㅗ</w>": 22960,
  "ㅇㅝㄴㅈㅏㄱ</w>": 32079,
  "ㅊㅜㄹㅅㅣ</w>": 5070,
  "ㅇㅓㅂㅇㅢ</w>": 18265,
  "ㄴㅓㄷㅗ</w>": 17696,
  "ㅁㅏㄶㅇㅏㅇㅛ</w>": 20167,
  "ㅍㅛㅎㅕㄴㅎㅏㄴㅡㄴ</w>": 16097,
  "ㄱㅏㄱㅕㄱㄱㅘ</w>": 25012,
  "ㄴㅏㅇㅣㄹㅗ</w>": 27946,
  "ㅈㅓㄴㅈㅣ": 16987,
  "ㄱㅣㄷㅏㄹㅣ": 2964,
  "ㅈㅗㅇㄹㅠ</w>": 5198,
  "ㅍㅣㅇㅜ": 31988,
  "ㄹㅓㅅㅣㅇㅏ": 16993,
  "ㄱㅔㅆㄷㅏ</w>": 2430,
  "ㄸㅡㄹ</w>": 23107,
  "ㅁㅏㅋㅔㅅ": 14754,
  "ㅇㅝㄴㄹㅐ</w>": 4289,
  "MB": 3688,
  "ㄴㅏㄹㅏㄱㅏ</w>": 9997,
  "ㄱㅜㅊㅜㄱㅇㅡㄹ</w>": 24695,
  "ㄹㅏㄴㅎㅏㄴ</w>": 21029,
  "ㅅㅏㅇㄱㅘㄴ": 5646,
  "KE": 12979,
  "ㄱㅘㄴㄱㅘㅇ</w>": 5087,
  "ㅊㅣㅁㅕㄴㅅㅓ</w>": 26535,
  "ㅋㅐㅍㅣㅌㅏㄹ": 28703,
  "ㅅㅏㅁㅇㅣㄴㅈㅗ</w>": 12919,
  "ㄹㅣㄴㅏ</w>": 18903,
  "ㅂㅓㄹㅆㅓ": 25751,
  "ㅈㅓㄱㅇㅣㅈㅣㅁㅏㄴ</w>": 29599,
  "ㄸㅏ</w>": 13702,
  "ㅗㅎ": 4186,
  "ㅇㅕㄴㅕㄴ</w>": 26719,
  "ㅎㅏㄱㅅㅏㄹ": 31178,
  "ㄴㅏㅇㅔ</w>": 20838,
  "ㅍㅛㅎㅕㄴ</w>": 8234,
  "ㅅㅓㅇㅜㄹㄷㅐ</w>": 14030,
  "DrTuber</w>": 14863,
  "ㄹㅣㄴㅣ": 19729,
  "ㄷㅗㅈㅏㅇ</w>": 22009,
  "ㅊㅔㅇㅠㄱㄱㅘㄴ</w>": 25595,
  "elf</w>": 23586,
  "2ㅊㅡㅇ</w>": 9423,
  "ㅇㅕㄱㅣㅇㅔㅅㅓ</w>": 11806,
  "ㅅㅣㅇㅢ": 27747,
  "K": 35,
  "ㅇㅣㅆㅇㅡㅅㅣㅁㅕㄴ</w>": 21153,
  "ㄱㅏㅈㅗㄱㅇㅔㄱㅔ</w>": 30465,
  "ㅂㅏㅂㅇㅡㄴ</w>": 28507,
  "-(</w>": 19685,
  "ㅍㅣㅇㅋㅡ</w>": 7460,
  "APIㄹㅡㄹ</w>": 28542,
  "Step</w>": 28409,
  "ㅂㅐㅇ</w>": 19556,
  "ㅇㅏㄱㅇㅡㄹ</w>": 19163,
  "ㄷㅡㄹㅓㄴㅏㅆㄷㅏ</w>": 24994,
  "ㅁㅓㅅ": 2341,
  "ㅇㅢㅁㅜㄹㅡㄹ</w>": 15943,
  "ㅅㅏㄹㅏㅁㄷㅡㄹㅇㅡㄹ</w>": 4976,
  "ㅎㅘㄹㅇㅛㅇㅎㅏㅁㅕㄴ</w>": 28994,
  "ㅇㅔㄹㅓ</w>": 25535,
  "ㄱㅣㅁㅇㅣㄴ": 30409,
  "ㅈㅗㅎㅇㅏㅇㅛ</w>": 4837,
  "ㅎㅗㅌㅔㄹㅇㅡㄹ</w>": 5931,
  "ㄴㅐㄹㅕ</w>": 9985,
  "ㅅㅣㄱㅁㅣㄴ": 11703,
  "ㅈㅏㅅㅜ</w>": 14891,
  "ㅂㅣㅇㅛㅇㄱㅘ</w>": 29473,
  "ax</w>": 27324,
  "ㄷㅐㅂㅜㅂㅜㄴㅇㅡㄹ</w>": 27362,
  "ㅁㅜㄴㅎㅘㅊㅔㅇㅠㄱㄱㅘㄴㄱㅘㅇㅂㅜ</w>": 30579,
  "ㄱㅣㄹㅗㄱㅎㅏㄴㅡㄴ</w>": 22500,
  "ㅂㅣㄱㅛㅎㅏㅇㅕ</w>": 19783,
  "ㄴㅏㅁㅜㅇㅔ</w>": 32443,
  "ㅎㅐㅇㅂㅗㄱㅎㅐ</w>": 30705,
  "ㄷㅏㄹㄹㅏㅆㄷㅏ</w>": 23411,
  "ㄴㅗㅌㅡㅂㅜㄱ": 11428,
  "ㄲㅡㄶ": 3283,
  "ㄱㅜㅊㅔ": 3683,
  "ㅅㅏㅇ</w>": 523,
  "ㅅㅣㄴㅂㅜㄴ</w>": 23757,
  "ㅇㅕㄹㄹㅣㅈㅣ</w>": 30782,
  "ㄱㅡㄹㄹㅓㅂㅡ</w>": 32521,
  "ㅅㅓㅇㄱㅗㅇㅇㅢ</w>": 22968,
  "ㄱㅣㄷㅗㅎㅏㅂㄴㅣㄷㅏ</w>": 26697,
  "ㅇㅕㄱㅣㄲㅏㅈㅣ</w>": 17539,
  "ㄷㅏㅇㅅㅏㅈㅏㄱㅏ</w>": 23916,
  "ㅇㅕㅇㅁㅜㄴ</w>": 11075,
  "ㅁㅓㄱㅈㅣ</w>": 11791,
  "ㅌㅔㅁㅍㅡㄹㄹㅣ": 13337,
  "ㅂㅓㄹㅆㅓㅂㅜㅌㅓ</w>": 29279,
  "ㅎㅏㅁㅡㄹㅗ</w>": 6795,
  "ㅎㅕㅇㅅㅏ": 8976,
  "ㄱㅕㅇㅇㅕㅇ</w>": 4242,
  "ㄷㅔㅇㅣㅌㅓㄹㅡㄹ</w>": 3844,
  "ㅂㅏㅇ": 414,
  "ㅈㅕㅆㅇㅡㄹ</w>": 14287,
  "ㅎㅗㅁㅅㅛㅍㅣㅇ</w>": 23267,
  "ㅇㅣㅇㅑㄱㅣㄴㅡㄴ</w>": 10329,
  "ㅂㅜㅊㅓ</w>": 19959,
  "ㄱㅡㄹㅓㄴㄷㅔㄷㅗ</w>": 22988,
  "ㄴㅏㅌㅏㄴㅏ</w>": 14990,
  "ㅈㅗㅎㅕㄴ": 18858,
  "ㄲㅡㄴ</w>": 10626,
  "ㄷㅏㅁㄷㅏㅇㅎㅏㄱㅗ</w>": 21657,
  "ㅇㅔㄴㅌㅓㅌㅔㅇㅣㄴ": 7747,
  "ㅎㅗㄴㅏㅁ": 13286,
  "ㅅㅜㅊㅓㄴ</w>": 22624,
  "ㅅㅗㅂㅣ</w>": 14514,
  "tra</w>": 29972,
  "ㅎㅘㄱㅇㅣㄴㅅㅓ</w>": 31306,
  "ㅐㄹ</w>": 28705,
  "ㅇㅠㅈㅐ": 14276,
  "ㅇㅠㅊㅜㄹ</w>": 11307,
  "ㅅㅏㅇㄷㅏㅇㅇㅢ</w>": 20776,
  "ㄱㅣㅁㄱㅕㅇㅅㅜ</w>": 26071,
  "BravoTube</w>": 15844,
  "ㄱㅣㅂㅜㄴㅇㅣ</w>": 7298,
  "ㅎㅏㅁㅕ</w>": 833,
  "ㅂㅕㄴㅎㅕㅇ</w>": 24349,
  "ㅇㅓㄲㅐ</w>": 14865,
  "ㄱㅜㄱㅅㅏㄴ</w>": 17091,
  "ㄱㅗㄹㅕ</w>": 14975,
  "ㅇㅣㅇㅗㄴ": 23480,
  "ㄱㅕㅇㄱㅣㄷㅗ": 16515,
  "ita</w>": 26310,
  "ㅎㅗㅁㅍㅔㅇㅣㅈㅣ": 8416,
  "De": 8266,
  "ㅍㅏㄴㅁㅐㅈㅏㅇㅔㄱㅔ</w>": 5043,
  "ㅌㅜㄴ": 12334,
  "ㅅㅡㅍㅣㅋㅓ</w>": 10480,
  "ㅅㅛㅌㅡ": 22780,
  "ㅇㅛㄱㅇㅣ</w>": 26064,
  "ㅂㅜㄴㅅㅓㄱㅇㅣ</w>": 23761,
  "ㅇㅣㅇㅓㅇㅑ</w>": 11572,
  "ㅎㅚㅅㅏㅇㅘ</w>": 17918,
  "ㅈㅛ</w>": 991,
  "ㅈㅔㄱㅗㅇㅎㅏㅂㄴㅣㄷㅏ</w>": 3085,
  "ㅅㅖㅇㅓㄹㅣㅇ</w>": 30505,
  "ㅈㅏㅇㅝㄴㅂㅗㅇㅅㅏ": 11180,
  "ㅎㅘㄱㅇㅣㄴㅇㅣ</w>": 13315,
  "ㄱㅣㄹㅇㅣㄴㅡㄴ</w>": 7618,
  "ㅎㅏㄴㅅㅏㅇ": 27729,
  "ㅎㅘㄴㅇㅝㄴ": 28360,
  "ㄷㅏㄱㅏㄷㅗ</w>": 25065,
  "to": 10138,
  "ㅍㅣㅎㅐ": 2573,
  "ㅍㅕㅇㅎㅘㅇㅢ</w>": 18745,
  "ㅋㅏㅋㅏㅇㅗ": 5382,
  "ㄷㅏㄴㅎㅐㅇ": 23211,
  "ㅌㅗㅇㅇㅛㅇ": 32058,
  "ip": 5433,
  "3ㄷㅐ": 25714,
  "ㄴㅐㄴㅗㅎㅇㅡㄴ</w>": 23516,
  "ㄷㅣㄹㅓㄱㅅㅡ</w>": 27270,
  "ㅅㅣㄴㅊㅓㅇㅅㅓ</w>": 13230,
  "ㅁㅗㄷㅔㄹㄹㅗ</w>": 14829,
  "ㄱㅓㄹㅇㅣ</w>": 10141,
  "ㅈㅜㅇㄱㅜ</w>": 12618,
  "ㅂㅣㄴㅣ": 11411,
  "YouTube</w>": 25918,
  "ㅇㅏㄹㅇㅏㅂㅗㄹ</w>": 19091,
  "ㄹㅏㅇㅣ</w>": 23641,
  "ㄱㅔㅆㅇㅓ</w>": 25831,
  "ㅇㅓㅉㅐㅆ": 8602,
  "ㅇㅝㄴㅅㅣ": 31220,
  "ㄷㅗㅅㅣㄱㅏ</w>": 25525,
  "Yob": 32010,
  "ㄷㅏㅇㄱㅜㄱㅇㅣ</w>": 31736,
  "ㄱㅕㅇㄱㅣㄴㅡㄴ</w>": 14632,
  "ㅇㅓㄷㅣㅅㅓ</w>": 7830,
  "ㄱㅐㅅㅓㄹ</w>": 21809,
  "ㅇㅣㄹㅗㄴㅈㅓㄱ</w>": 18338,
  "ㄷㅐㅅㅏㅇㅇㅔㅅㅓ</w>": 32189,
  "ㅅㅕㅆㄱㅗ</w>": 21633,
  "ㅅㅔㄱㅖㅈㅓㄱ</w>": 20020,
  "ㄱㅜㄹㅡㄹ</w>": 2489,
  "ㅇㅜㅅㅡㅇㅇㅡㄹ</w>": 8980,
  "ㄱㅗㄹㄷㅡㄴㅅㅡㅌㅔㅇㅣ": 19234,
  "ㅌㅏㅇㅔ</w>": 25129,
  "ㅎㅘㄱㅅㅣㄴㅇㅡㄹ</w>": 30095,
  "ㅇㅣㄴㅁㅜㄴㅎㅏㄱ</w>": 23340,
  "ㅁㅏㅅ": 1187,
  "ㄹㅡㄷㅣ": 28809,
  "ㅅㅣㅈㅏㄱㅎㅏㅈㅣ</w>": 21298,
  "ㅈㅏㅊㅣ</w>": 21016,
  "ㅇㅔㅁㅏㄴ</w>": 3521,
  "ㄴㅠ</w>": 8273,
  "ㅇㅣㄹㅈㅏㄹㅣ": 15404,
  "ㅇㅏㅍㅡㄱㅏㄴㅣ": 32167,
  "ㅈㅗㅈㅣㄱ": 2332,
  "ㄱㅣㄱㅘㄴㄱㅘ</w>": 23313,
  "ㅇㅏㅇㅔ</w>": 9359,
  "ㄷㅡㅇㄷㅡㅇ</w>": 6366,
  "ㅈㅜㅇㅣㄹ</w>": 11013,
  "09</w>": 4947,
  "ana</w>": 15306,
  "ㅁㅓㄱㅇㅓ</w>": 17697,
  "ㅎㅏㄱㅓㄴㅏ</w>": 1460,
  "ㄱㅏㅁㄱㅏㄱㅇㅡㄹ</w>": 21393,
  "ㅇㅜㄹㅣㄷㅡㄹㅇㅡㄴ</w>": 27514,
  "ㅂㅣㄱㅜㄹ": 29748,
  "Gal": 24222,
  "ㅅㅔㄱㅖㄴㅡㄴ</w>": 17787,
  "ㅍㅗㄷㅡ</w>": 16415,
  "ㄷㅐㅎㅏㄱㄱㅛㅇㅔㅅㅓ</w>": 24341,
  "ㄴㅗㄹㅏㄴㅅㅐㄱ</w>": 30754,
  "ㅝㄴㅇㅣ</w>": 31014,
  "ㄱㅏㅇㅕㄹ": 24750,
  "ㅊㅔㄹㅗ</w>": 13584,
  "ㅇㅗㄹㅐ": 2180,
  "ㅅㅣㄱㅔ</w>": 30935,
  "trans": 12289,
  "ㅇㅘㅇㅈㅘ": 27795,
  "5cm</w>": 17246,
  "3ㅇㅣㄴ": 28875,
  "ㄴㅕ</w>": 4140,
  "ㅈㅣㄹㅣ": 8743,
  "ㅅㅓㅇㄴㅡㅇㅇㅡㄹ</w>": 9445,
  "ED": 18140,
  "ㅇㅟㅇㅝㄴㅎㅚㅇㅔㅅㅓ</w>": 23928,
  "ㅅㅡㅌㅏㄷㅣㅇㅜㅁㅇㅔㅅㅓ</w>": 17734,
  "CO": 4172,
  "ㅊㅐㄴㅓㄹㅇㅣ</w>": 31446,
  "ㅊㅓㄴㄱㅜㄱ</w>": 16829,
  "EA</w>": 14440,
  "ㅇㅓㄹㅡㄴㅇㅣ</w>": 24895,
  "ㅂㅐㅅ": 8719,
  "iPhone</w>": 11456,
  "ㅇㅗㄹ": 540,
  "ㅅㅗㄱㅐ</w>": 2913,
  "ㅅㅏㅇㅣㅈㅡㅇㅢ</w>": 31052,
  "67": 9254,
  "ㅎㅚㄱㅐ": 18566,
  "app</w>": 30186,
  "ㅇㅣㄴ": 315,
  "ㄱㅖㅅㅣㅂㄴㅣㄷㅏ</w>": 23466,
  "ㅎㅏㅇㅑ": 7076,
  "ㅇㅖㅂㅣ": 6960,
  "ㅂㅔㄷㅡ</w>": 18640,
  "ㅂㅣㄴㅏㄴ": 7806,
  "ㄱㅝㄴㄹㅣㄴㅡㄴ</w>": 28675,
  "ㅂㅡㄹㄹㅗㄱ</w>": 13821,
  "ㅎㅏㅂ</w>": 1650,
  "ㄴㅗㄴ</w>": 13895,
  "ㅈㅜㄴㄷㅏㄴㅡㄴ</w>": 15775,
  "ㄱㅛㅇㅠㄱㅇㅡㄴ</w>": 12634,
  "ㅅㅣㅌㅡ": 25625,
  "16ㄱㅐ</w>": 27393,
  "ㅌㅗㅇㅢㅎㅏㅂㄴㅣㄷㅏ</w>": 19249,
  "ㄴㅡㄲㅣㅁㅕ</w>": 29435,
  "Des": 8661,
  "ㅁㅏㄴㅡㄹ</w>": 22008,
  "prot": 28964,
  "ㅍㅗㄹㄹㅣ": 5102,
  "ㅇㅏㅍㅇㅔㄴㅡㄴ</w>": 30572,
  "ㅇㅗㄹㄹㅣㄴㅡㄴ</w>": 9830,
  "ㅋㅗㄹ": 1649,
  "ㄱㅜㅇㅢ</w>": 5530,
  "ㅇㅏㄴㄷㅡㄹㅗ": 3967,
  "ne": 12783,
  "ㅁㅗㄱㄱㅕㄱ": 16297,
  "EBS</w>": 18091,
  "ㅈㅣㄱㅡㅂㄷㅚㄴ</w>": 28508,
  "la</w>": 18993,
  "ㅋㅡㄷㅏ</w>": 10785,
  "ㅊㅓㅁㅂㅜㄷㅚㄴ</w>": 32397,
  "ㄴㅗㅇㅊㅗㄴ": 12722,
  "ㅊㅐㅁㅍㅣㅇㅓㄴ</w>": 17765,
  "ㅅㅓㅅ</w>": 4816,
  "ㅈㅗㅇㅁㅗㄱ": 7438,
  "ㅁㅏㄴ": 396,
  "ㅅㅜㅈㅣㅂㄷㅚㄴ</w>": 3042,
  "ㅇㅣㄹㅗㄴㅇㅡㄴ</w>": 24892,
  "ㅇㅣㄴㅣㅇ</w>": 6061,
  "ㄴㅏㅂㅊㅣ": 28274,
  "ㄱㅏㄹㄹㅏ": 13403,
  "ㄴㄷㅏㄱㅗ</w>": 11641,
  "Med": 23670,
  "ㄱㅓㄹㅊㅕ</w>": 7045,
  "ㄱㅘㅈㅓㅇ": 1652,
  "ㅂㅔㅋㅣ": 30122,
  "ㄱㅜㄱㅁㅣㄴㅇㅢ": 16642,
  "ㅇㅣㄹㅡㅁ": 2083,
  "ㅋㅗㄷㅣㅇ": 14875,
  "On": 5846,
  "ㄱㅣㅍㅇㅡㄴㅁㅗㄱㄱㅜㅁㅓㅇ</w>": 21550,
  "ㅊㅏㅈㅇㅏㅇ": 5519,
  "RS</w>": 23567,
  "ㅈㅓㄴㅕㄱ</w>": 4164,
  "ㅍㅕㄴㅇㅣㄴㄷㅔ</w>": 29076,
  "ㄷㅐㅅㅓㄴ</w>": 10291,
  "ㄱㅘㅇㄱㅗㅇㅘ</w>": 32109,
  "ㅅㅗㄱㄷㅗㄱㅏ</w>": 10025,
  "ㅇㅗㅇㅘ</w>": 18136,
  "ISA</w>": 32241,
  "ㅂㅓㄹㅕㅆㅅㅡㅂㄴㅣㄷㅏ</w>": 22480,
  "ㄷㅐㅈㅜㅇㅈㅓㄱㅇㅣㄴ</w>": 32604,
  "ㅇㅜㄹㅣㄴㅡㄴ</w>": 1341,
  "ㅌㅏㅁㅎㅓㅁ": 22627,
  "ㅂㅏㅇㅇㅢ</w>": 8299,
  "ㅎㅏㅁㅇㅢ</w>": 18154,
  "9ㅍㅔㅇㅣㅈㅣ</w>": 6076,
  "ㄷㅓㅂㅡㄹㄹㅜ": 20977,
  "ㅍㅛㅎㅕㄴㅇㅡㄴ</w>": 29859,
  "ㅈㅣㄱㅣ</w>": 6045,
  "ies</w>": 7721,
  "ㅊㅣㅂ": 12611,
  "ㄱㅜㄱㅌㅗㄱ": 19306,
  "ㅇㅣㄴㄱㅏㄴㅇㅡㄴ</w>": 9585,
  "ㄴㅔㅇㅣㅁㄷㅡㅅㅏㅇㅣㅌㅡ</w>": 21799,
  "ㄱㅡㄹㅣㅁㅊㅐㄱ</w>": 30283,
  "ㅅㅜㅊㅜㄹ": 6262,
  "ㅎㅏㄴㄱㅏㅇㅛ</w>": 19345,
  "ㅅㅣㄴㅇㅣㄴ</w>": 15332,
  "FRE": 28169,
  "ㅔ": 117,
  "ㅈㅜㅁㅓㄱ": 13348,
  "ㄱㅗㅇㄱㅏㄴㅇㅡㄴ</w>": 21103,
  "ㅈㅗㅎㄷㅏㄱㅗ</w>": 9781,
  "ize</w>": 13523,
  "1ㄷㅡㅇ</w>": 13945,
  "ㅇㅣㄹㅇㅣㄴㅈㅣ</w>": 28329,
  "ㅇㅣㄹㅇㅔㅅㅓ</w>": 20702,
  "ㄱㅜㄱㅇㅔㅅㅓ</w>": 8839,
  "AWS</w>": 12214,
  "ㅂㅜㅂㅜㅇㅢ</w>": 17509,
  "ㅇㅣㅎㅏㄹㅗ</w>": 23137,
  "ㅍㅕㄴㅇㅣㅂㄴㅣㄷㅏ</w>": 17634,
  "SKㅋㅔㅁㅣ": 18930,
  "ㄱㅓㄹㅣㅇㅔㄴㅡㄴ</w>": 14248,
  "ㅅㅏㅅㅣㄹㅇㅣ</w>": 8082,
  "ㅇㅏㅁㅔㄹㅣㅋㅏ</w>": 17806,
  "ㅎㅑㅇㄱㅣ</w>": 18968,
  "ㅇㅣㄴㅊㅓㄴ</w>": 5674,
  "ㅂㅓㅂㄹㅕㅇㅇㅔ</w>": 11377,
  "eㅇㅢ</w>": 8639,
  "ㄱㅏㄱㅈㅜ</w>": 30941,
  "ㅈㅔㅂㅣ</w>": 28397,
  "ㅋㅓㄹㅣ</w>": 12864,
  "ㅆㄴㅡㄴㅈㅣ</w>": 10448,
  "ㄹㅐㅇ": 5028,
  "ㅈㅣㄴㅎㅐㅇㅎㅏㄱㅗ</w>": 9605,
  "ㄱㅐㄴㅕㅁ</w>": 4489,
  "ㅅㅡㅋㅔㅊㅣ": 32490,
  "ㅎㅟㅂㅏㄹ": 23103,
  "ㅇㅓㅇㅔㅅㅓ</w>": 13560,
  "ㄷㅏㅇㅡㅁㅇㅡㄴ</w>": 10338,
  "ㅇㅕㅅ</w>": 8382,
  "ㅅㅡㅋㅡㄹㅣ": 2727,
  "20ㄴㅕㄴ</w>": 8089,
  "ㅈㅔ7": 11251,
  "ㅇㅓㅄㄷㅏㄱㅗ</w>": 4281,
  "ㅌㅡㄱㅅㅓㅇ</w>": 6307,
  "ㅅㅔㅇㅣㄹ</w>": 15185,
  "ㅅㅣㅎㅐㅇㄱㅠㅊㅣㄱ</w>": 28980,
  "ㅊㅜㄹㅅㅣㅎㅏㄴ</w>": 25566,
  "!)</w>": 7398,
  "ㅊㅚㅊㅗㄹㅗ</w>": 7093,
  "ㅇㅏㄹㅇㅏㅆ": 6420,
  "]'</w>": 17990,
  "ㅇㅔㄴㄷㅣㅇ": 32733,
  "ㄲㅗㅊㅇㅣ</w>": 11874,
  "ㄱㅡㄴㄷㅐ": 14120,
  "ㅍㅡㄹㅗㄱㅡㄹㅐㅁㅇㅣ</w>": 8074,
  "ㅎㅘㄴㄱㅕㅇㅇㅢ</w>": 13416,
  "ㅊㅓㅇㅊㅟ": 19432,
  "AD</w>": 18442,
  "ㅇㅚㄱㅜㄱㅇㅣㄴ": 10423,
  "ㅇㅏㄴㅏ</w>": 15847,
  "ㄴㅡㅇㄹㅕㄱㅇㅣ</w>": 7711,
  "ㅇㅝㄴㅈㅏ": 32656,
  "ㄷㅣㄹㅓㄱ": 31962,
  "ㅈㅜㄴㅣㅁㅇㅣ</w>": 26346,
  "2012": 16560,
  "ㅇㅕㅆㅇㅓㅇㅛ</w>": 22133,
  "Gen": 25249,
  "ㅅㅡㅌㅏㄹㄹㅣㄴ": 32119,
  "ㄱㅓㄴㅈㅓㄴ": 24871,
  "ㅁㅣㄹㅇㅑㅇ": 32336,
  "ㅇㅣㄹㅏㄱㅗㄴㅡㄴ</w>": 25415,
  "ㄷㅏㅁㅕ</w>": 5792,
  "ㅇㅣㄴㄱㅣㅇㅣㅆㄴㅡㄴ</w>": 19311,
  "ㅉㅏㄱ</w>": 3211,
  "young</w>": 22495,
  "ㄱㅗㅇㅟ": 8174,
  "ㅅㅐㅇㄱㅏㄱㅇㅣㄷㅏ</w>": 22012,
  "ㄱㅘㄴㅇㅔ</w>": 5420,
  "ㅌㅏㅇㅢ</w>": 11117,
  "ㄷㅏㄴㄷㅏㄴ": 8308,
  "ㅋㅐㄹㅣㄱㅌㅓ</w>": 6649,
  "ㄱㅜㄱ</w>": 581,
  "ㅇㅟㅎㅕㅂ": 6274,
  "ㅎㅏㄴㅡㄴㄱㅏ</w>": 6438,
  "oun": 4754,
  "ㅆㅗㄷㅇㅏ": 9338,
  "Ser": 16582,
  "ㅅㅏㄹㅏㅈㅕ": 30699,
  "ㅌㅐㅂ": 11683,
  "ㄹㅣㄴㅡㄴ</w>": 1185,
  "ㅅㅐㄱㄱㅘ</w>": 18290,
  "ㅇㅓㅂㅔㄴㅈㅕ": 30565,
  "ㅂㅗㄹㅣ": 17388,
  "ㄴㅏㄱㅏㅅㅓ</w>": 17955,
  "ㄱㅏㄴㄷㅏㄴㅡㄴ</w>": 14396,
  "ㄷㅗㄱㅏ</w>": 1798,
  "ㄱㅏㄹㅡ": 3214,
  "ㅂㅜㅈㅓㅇ</w>": 13166,
  "ㅎㅘㅈㅔㅇㅢ</w>": 29541,
  "ㅎㅗㄱㅇㅡㄴ</w>": 2119,
  "SET</w>": 30665,
  "ㄷㅗㅂㅏㄱ</w>": 5558,
  "SY": 31664,
  "ㅂㅗㄴㅇㅣㄴㅇㅡㄴ</w>": 22029,
  "ㅇㅣㄴㄷㅔㄷㅗ</w>": 18803,
  "ㅇㅗㄹㅣㅇㅔㄴ": 20554,
  "ㅎㅘㄴㄱㅡㅂ": 16138,
  "ㄴㅡㄲ": 20018,
  "ㅇㅝㄷㅡ</w>": 7064,
  "ME": 12190,
  "23ㅇㅣㄹ</w>": 7825,
  "ㄷㅏㄱㅏㅇㅗㄹ</w>": 27710,
  "ㅅㅐㅇㄱㅣㅈㅣ</w>": 26745,
  "ㅂㅜㅊㅐ": 13984,
  "ㅎㅏ": 264,
  "ㅇㅓㄹㅕㅇㅝ</w>": 21815,
  "ㅇㅣㄹㄷㅐ": 21372,
  "ㄱㅘㄴㅇㅏㄱ": 23130,
  "ㅁㅕㅇㄹㅕㅇ</w>": 13275,
  "ㄷㅗㄹㅍㅏ</w>": 17673,
  "ㅈㅓㄴㅈㅏ": 2378,
  "ㅅㅏㄹㅏㅇㅎㅏㄹ</w>": 21759,
  "Restaurant</w>": 30920,
  "ㅅㅏㄱㅗㅇㅔ</w>": 22703,
  "own": 10002,
  "ㄴㅠㅇㅛㄱ": 6633,
  "ㄹㅈㅣ</w>": 21795,
  "ㄸㅜ": 2248,
  "ㅈㅜㅅㅗ</w>": 1441,
  "ㅈㅓㄴㅇㅣㄴ</w>": 17520,
  "ㅅㅏㅇㅓㅂㅈㅏ": 11173,
  "ㄱㅗㅅㅇㅔㅅㅓ</w>": 3053,
  "ㄴㅜㄴㄷㅗㅇ": 30098,
  "ㅇㅗㅇㅕㅁ</w>": 11661,
  "ㅈㅣㅅㅣㄱㅇㅢ</w>": 24585,
  "ㅌㅐㅇㅏ": 25180,
  "ㅁㅣㄱㅅㅡ</w>": 15160,
  "ㅈㅜㅇㅈㅓㅁㅇㅡㄹ</w>": 20294,
  "ㅍㅜㅁ": 617,
  "art": 6077,
  "html</w>": 21065,
  "ra": 3253,
  "ㅂㅗㅅㅡ</w>": 17052,
  "ㅇㅕㅇㅎㅘ</w>": 1665,
  "ㅁㅗㅂ": 18925,
  "ㅇㅣㄷㅗㅇ": 2106,
  "ㅎㅚㅇ": 7953,
  "ㅅㅔㄷㅐㄱㅏ</w>": 25340,
  "ㅇㅣㅆㅇㅓㅅㅓ</w>": 1876,
  "ㅂㅜㄹㄱㅏㅍㅣㅎㅏㄴ</w>": 30313,
  "ㅇㅓㄱㅏ</w>": 3931,
  "ㅇㅏㄹㄹㅕㅈㅣㄴ</w>": 7581,
  "ㄷㅏㅇㄴㅛ</w>": 29966,
  "ㄴㅡㄲㅕㅈㅣㅂㄴㅣㄷㅏ</w>": 30664,
  "ㄴㅐㅇㅛㅇㅇㅣㅂㄴㅣㄷㅏ</w>": 23381,
  "ㅇㅡㄴㅎㅐㅇ</w>": 3594,
  "ㅈㅗㄱㅡㅁ": 2773,
  "ㅎㅏㄱㄱㅛㅍㅗㄱㄹㅕㄱ</w>": 32185,
  "ㅈㅣㄹㅣ</w>": 13249,
  "ㅊㅟㄱㅡㅂ": 5333,
  "ㅍㅏㄹ": 1098,
  "ㅎㅚㅇㅝㄴㅇㅢ</w>": 6139,
  "ㅇㅏㄴㄴㅏ": 29799,
  "ㅇㅣㅈㅓㄱ</w>": 28156,
  "ㅎㅕㅇ</w>": 950,
  "GT</w>": 28492,
  "ㄴㅏㅁㅅㅓㅇ</w>": 4862,
  "ㄹㅗㅇㅣㄷㅡ</w>": 31155,
  "ㅅㅜㄷㅏ</w>": 16865,
  "ㅈㅓㄴㅈㅓㄱㅇㅡㄹㅗ</w>": 17480,
  "ㅈㅗㅊㅣㅇㅔ</w>": 20312,
  "ㅇㅏㅇㅣㅋㅗㄴ": 9515,
  "ㅅㅏㅇㅌㅐㄹㅗ</w>": 6788,
  "ㅈㅓㅇㄹㅕㄹ": 16413,
  "ㄱㅣㄴ</w>": 1312,
  "ㄱㅕㄹㅇㅢ</w>": 27355,
  "ㄱㅏㅌㄴㅔㅇㅛ</w>": 8022,
  "ㅂㅏㄲ</w>": 23173,
  "Ice": 23440,
  "ㅎㅐㅅㅗ": 9915,
  "ㄲㅗㄹㅣ": 26496,
  "ㅊㅜㄴ</w>": 10800,
  "ㅋㅣㄴ</w>": 7967,
  "ㅅㅣㄹㅂㅣㅂㅗㅎㅓㅁ</w>": 25944,
  "ㅈㅓㄹㅇㅑㄱ": 11592,
  "ㅊㅚㅅㅣㄴ": 9291,
  "ㅋㅓㄷㅏㄹㅏㄴ</w>": 9145,
  "ㅇㅏㅌㅡㄹ": 18288,
  "ㅇㅔㄴㅌㅓㅌㅔㅇㅣㄴㅁㅓㄴ": 15152,
  "ㄱㅗㅎㅕㄹㅇㅏㅂ": 27524,
  "ㅈㅓㅇㅊㅣㄹㅡㄹ</w>": 18743,
  "ㅅㅡㅌㅠㄷㅣㅇㅗ</w>": 9339,
  "ㅎㅑㅇ</w>": 1735,
  "ㄱㅜㅁㅐㅎㅏㄹ</w>": 14630,
  "ㅅㅏㄴㅡㄴ": 21517,
  "ㅇㅠㅍㅗ": 18607,
  "ㅅㅜㅇㅘ</w>": 3272,
  "ㅅㅐㅇㅅㅐㅇㅎㅏㄴ</w>": 18943,
  "ㅈㅏㅈ": 24683,
  "ㅍㅡㄹㅗㅈㅔㄱㅌㅡ</w>": 3349,
  "ㅂㅏㅌㅣ": 26736,
  "ale</w>": 10390,
  "ㄴㅏㄹㄹㅕ": 16238,
  "ㄱㅖㅇㅕㄹ</w>": 12813,
  "ㅎㅜㅈㅏㅇ</w>": 7172,
  "ㅅㅓㄹㅊㅣㅎㅏㄴ</w>": 21911,
  "Hell": 21158,
  "ㄱㅣㄷㅐ": 1820,
  "ㅂㅣㅁㅣㄹ</w>": 8688,
  "Char": 20119,
  "ㄱㅏㅇㅇㅜㄹㅑㅇㅇㅡㄴ</w>": 14198,
  "ㅅㅓㄴㅅㅜㄹㅡㄹ</w>": 18498,
  "ㅈㅏㅇㅠㄹㅗㅇㅜㄴ</w>": 12937,
  "ㅉㅣㄱㅇㅡㄴ</w>": 7951,
  "3ㅎㅚ": 4701,
  "ㅌㅡㄱㅅㅓㅇㅅㅏㅇ</w>": 11930,
  "ㅆㄷㅏㄱㅏ</w>": 14916,
  "ㄱㅜㄱㄱㅏㄹㅡㄹ</w>": 17557,
  "ㅅㅣㄴㅇㅢ</w>": 5487,
  "ㄴㅐㄷㅣㄷ": 31890,
  "ㄷㅏㄴㅡㄴ</w>": 564,
  "ㄷㅏㅇㅅㅣㄴㅇㅔㄱㅔ</w>": 12698,
  "ㅅㅏㅁㅅㅓㅇ</w>": 4518,
  "ㅈㅐㅎㅘ</w>": 12965,
  "ㅈㅣㄱㅏㄱ": 20164,
  "anna</w>": 30646,
  "ㄱㅏㄷㅗㅇ</w>": 28589,
  "ㅈㅓㅁ</w>": 853,
  "ㄱㅜㅅㅓㅇㅎㅐ</w>": 32439,
  "ㄱㅜㅁㅐㅅㅣ</w>": 17726,
  "ㅅㅓㅂㅓㅇㅔㅅㅓ</w>": 25209,
  "ㅇㅓㄸㅐ</w>": 28495,
  "ㅇㅜㄴㄷㅏ</w>": 12837,
  "Daum</w>": 19513,
  "ㅁㅗㄴ": 2770,
  "ㅎㅣㄹㄹㅣㅇ</w>": 23684,
  "ㅇㅛㅇㅇㅕㄱ": 25982,
  "ㅅㅜㅇㅛㅇㅣㄹ</w>": 11407,
  "ㄱㅖㄱㅗㄱ": 20270,
  "ㅅㅓㅇㅇㅣㄴ</w>": 6437,
  "ㅊㅜㄹㅁㅏ</w>": 30631,
  "ㅇㅓㅄㄴㅡㄴ</w>": 808,
  "ㅊㅏㄹㅣ": 8104,
  "sl": 26960,
  "ㅅㅜㄴㄱㅏㄴㅂㅜㅌㅓ</w>": 25696,
  "ㅇㅝㄴㅅㅜㅇ": 29503,
  "ㅋㅗㄷㅡ": 10984,
  "ㅎㅘㅈㅣㄹ</w>": 12268,
  "ㅅㅓㄴㅂㅗㅇㅣㄴㄷㅏ</w>": 28805,
  "ㅌㅏㄱㅗ</w>": 3555,
  "ㅅㅔㄱㅖ": 1178,
  "ㅇㅏㄴㅂㅗ</w>": 20961,
  "ㅇㅣㄴㅣ</w>": 4230,
  "ㄱㅜㅁㅓ": 5614,
  "ㅌㅗㅅㅣ</w>": 27431,
  "ㅁㅏㄴㅋㅡㅁㅇㅣㄴㅏ</w>": 17771,
  "ㅂㅜㄷㅏㅁㅇㅣ</w>": 11974,
  "ㄹㅓㄴㅣㅇ</w>": 15113,
  "ㅈㅣㅊㅣㄴ</w>": 21894,
  "ㅅㅓㄹㅠㄹㅡㄹ</w>": 16432,
  "ㅌㅏㅇㅠㄹㅇㅡㄴ</w>": 31778,
  "ㅊㅗㅈㅓㅁㅇㅡㄹ</w>": 11140,
  "ㅅㅣㄱㅔ": 3890,
  "ㅂㅜㅎㅡㅇ": 17693,
  "ㅇㅣㅅㅡ</w>": 9958,
  "ㄴㅏㅊ": 8144,
  "ㅅㅓㄹㄱㅛ": 10241,
  "ㄸㅏㄹㅇㅣ</w>": 12044,
  "ㅈㅓㄴㅡㄴ</w>": 1461,
  "ㅎㅏㅂㅊㅏㅇ": 16117,
  "ㄴㅗㅌㅐ": 32659,
  "ㄷㅐㅎㅘ</w>": 6507,
  "ㄷㅗㅇㅇㅢㅎㅏㄴㅡㄴ</w>": 24480,
  "Cr": 13090,
  "ㄴㅗㄹㅕㄱㅇㅡㄴ</w>": 27613,
  "ㅂㅜㄴㅁㅕㅇㅎㅣ</w>": 6468,
  "ㅅㅓㅇㅂㅜㄴ": 24546,
  "ㅅㅡㅌㅔㅍㅏㄴ</w>": 24754,
  "ㅇㅠㅅㅓㄴ</w>": 16476,
  "ㅂㅣㅎㅏㅁㅕㄴ</w>": 20080,
  "ㅇㅔㄴㅓㅈㅣㅇㅢ</w>": 31085,
  "ㅅㅗㅇㄴㅕㄴ": 30520,
  "ㅅㅏㄴㅣㅁ</w>": 17393,
  "ㅈㅐㅅㅐㅇㅅㅜ</w>": 7379,
  "ㅇㅘㄴㅅㅓㅇ": 4116,
  "ㅂㅕㄴ": 586,
  "ㄱㅜㄱㅁㅣㄴ": 1588,
  "ㅅㅏㄹㄷㅓㄴ</w>": 21903,
  "mㅇㅢ</w>": 25165,
  "ㅈㅓㅎㅢㄷㅡㄹㅇㅣ</w>": 32240,
  "ㄹㅕㄹㅎㅏㄴ</w>": 12029,
  "ㄱㅜㄱㄱㅏ</w>": 3787,
  "ㅈㅏㄹㅛㅇㅣㅂㄴㅣㄷㅏ</w>": 15663,
  "ㅁㅜㄴㅎㅘㅈㅐㄷㅏㄴ</w>": 23642,
  "ㄱㅓㅁ": 707,
  "ㅅㅜㄷㅗㅅ": 32345,
  "ㄱㅏㄱㄱㅣ</w>": 15005,
  "ㅈㅓㅇㅊㅣㅇㅢ</w>": 21063,
  "ㅂㅗㄱㅗㅈㅏ</w>": 11719,
  "ㅌㅏㅈㅏ</w>": 13525,
  "ㅂㅐㅇㅜㅈㅏ</w>": 27041,
  "ㅎㅏㅅㅣㅂㅅㅣㅇㅗ</w>": 2221,
  "((</w>": 28013,
  "ㄱㅣㅂㅗㄴㅈㅓㄱ</w>": 29317,
  "Mㅇㅢ</w>": 27033,
  "ㄲㅔ": 1886,
  "ㅅㅏㅇㅎㅘㅇㅇㅔㅅㅓ</w>": 4973,
  "ㅍㅣㅈㅏ</w>": 13252,
  "ㄱㅓㅅㅡㄹㄹㅓ</w>": 29535,
  "ㅌㅜㅈㅐㅇ": 8828,
  "ㅈㅜㄹㅇㅔ</w>": 22888,
  "ㅈㅣㄱㅜ</w>": 5686,
  "ㅇㅜㅈㅓㅇ</w>": 26831,
  "ㄹㅑㅇㄱㅘ</w>": 27844,
  "ㅌㅐㅇㅓㄴㅏ": 8302,
  "ㅌㅔㄹㅡ": 19703,
  "ㅍㅕㄴㅈㅣ</w>": 11817,
  "69</w>": 15066,
  "ㅈㅜㅈㅔㅇㅔ</w>": 15820,
  "mail</w>": 6672,
  "ㅌㅔㄱㅅㅏㅅㅡ": 30711,
  "ㄱㅜㅂㅜㄴ</w>": 10671,
  "ㄹㅣㄹㅡㄹ</w>": 1242,
  "ㅂㅣㄹㅗㄱ</w>": 6933,
  "cent": 27565,
  "ㅈㅓㅇㅅㅏㅇㅈㅓㄱㅇㅡㄹㅗ</w>": 9909,
  "HTML</w>": 12755,
  "ㅇㅏㄴㅅㅣㄱ": 20844,
  "Ask": 17663,
  "ㅆㅣㅅ": 9333,
  "ㅂㅏㄱㅇㅝㄴㅅㅜㄴ</w>": 26164,
  "ㅇㅑㄱㅇㅡㄹ</w>": 2691,
  "ㅍㅛㅊㅜㄹ": 25678,
  "ㅂㅏㄹㅅㅗㅇㄷㅚㅂㄴㅣㄷㅏ</w>": 20458,
  "ㅈㅏㅊㅟ": 9086,
  "ㅁㅣㅌㅜ</w>": 24894,
  "ㄴㅗㄹㅇㅣㅌㅓ</w>": 8096,
  "ㄹㅕ": 407,
  "ㅇㅓㄴㅇㅓㅇㅢ</w>": 19246,
  "ㅇㅕㄹㅡㅁㅇㅡㄹ</w>": 28693,
  "ㄴㅏㅇㅣㅇㅔ</w>": 15215,
  "ㅋㅡㄹㅣㅁ": 8613,
  "ㅂㅏㄷㅏ</w>": 5886,
  "ㅈㅓㅇㅎㅘㄱㅎㅏㄱㅗ</w>": 32212,
  "ㅁㅏㅇㅡㅁㅇㅡㄹㅗ</w>": 6392,
  "tri": 30196,
  "ㄷㅏㅇㅅㅓㄴ</w>": 23071,
  "ㄱㅜㄱㅈㅔㅈㅓㄱ</w>": 23829,
  "ㄲㅡㄴ": 5964,
  "ㅁㅐㅋㅡㄹㅗ</w>": 30656,
  "ㅎㅣㅂㅎㅏㅂ": 25150,
  "ㅇㅕㅎㅐㅇㅇㅣ</w>": 17816,
  "ㄹㅣㅅ</w>": 12359,
  "8ㅍㅔㅇㅣㅈㅣ</w>": 5664,
  "ㅁㅏㅇㅡㅁㅇㅢ</w>": 9373,
  "ㄷㅣㅌㅔ": 14028,
  "ㅁㅗㄱㅇㅔ</w>": 14113,
  "ible</w>": 17541,
  "ㅁㅜㄴㅎㅘㅇㅔ</w>": 14907,
  "ㅅㅕㄴㅇㅡㄹㅗ</w>": 13798,
  "ㄱㅘㄴㄹㅕㄴㄱㅣㅅㅏ</w>": 31654,
  "ㄴㅗㄴㅈㅐㅇ": 13001,
  "ㅈㅣㅎㅑㅇ</w>": 25799,
  "ㄴㅗㄷㅗㅇ": 1969,
  "ㅁㅜㄱㅜㅇ": 18530,
  "ㅋㅣ": 505,
  "ㅍㅣㄱㅗㄴ": 10075,
  "ㅅㅐㅇㅎㅘㄹㅇㅢ</w>": 11582,
  "ㅇㅡㅁㅈㅜㅇㅜㄴ": 23736,
  "ㅅㅜㄷㅗㄱ": 9582,
  "ㅁㅜㅇㅓㅅㅇㅣㄴㅈㅣ</w>": 8582,
  "ㅇㅏㄴㅣㄴ</w>": 1653,
  "ㅈㅜㄴㅡㄴ</w>": 1325,
  "ㅌㅗㅇㅊㅏㄹ": 17350,
  "ㅇㅏㄴㅈㅓㅇㅇㅡㄹ</w>": 21480,
  "ㅅㅣㅁㅣㄴㄷㅡㄹㅇㅢ</w>": 18542,
  "Pㅇㅢ</w>": 27337,
  "ㅗㄱㅣ</w>": 7079,
  "ㅇㅕㅇㅅㅏㅇㅇㅔ</w>": 32603,
  "ㄱㅏㅇㅣㄷㅡㄹㅏ": 20756,
  "TVㅇㅘ</w>": 28867,
  "ㅊㅗㅇㅝㄹ": 15168,
  "ㄷㅗㅅㅣㅁㅇㅔㅅㅓ</w>": 12487,
  "ㅈㅜㅁㅗㄱ</w>": 20985,
  "ㅋㅡㄹㅗㅇㅏㅌㅣㅇㅏ</w>": 29712,
  "ㅋㅝ": 4296,
  "ㅈㅣㄴㄷㅏㅁㅕㄴ</w>": 14637,
  "ㅂㅏㄴㅂㅏㄹ": 17633,
  "ㅇㅏㄴ</w>": 663,
  "ㅇㅓㄴㄴㅣㄱㅏ</w>": 31015,
  "ㅁㅜㅇㅓㅅㅇㅣㄴ": 10577,
  "10ㅂㅜㄴ": 16739,
  "ㅇㅜㅅㅡㅇ": 3903,
  "ㅈㅗㅇㅈㅗㄱ": 22665,
  "ley</w>": 13659,
  "ㅐㄴ": 1083,
  "ㅍㅡㄹㄹㅐㅌㅣ": 30082,
  "ㅇㅕㅇㅇㅓㄹㅗ</w>": 12568,
  "ㅇㅓㄷㅣㄱㅏ</w>": 24131,
  "ㅈㅜㄹㅇㅣㄹ</w>": 11136,
  "ㅅㅏㅅㅣㄹ": 1381,
  "ㅅㅏㅇㅛㅇㅂㅓㅂ</w>": 17775,
  "ㄹㅣㅊㅣㅍㅡㄹㄹㅓㅅㅡ</w>": 8122,
  "ㄱㅖㅈㅓㅇ": 18144,
  "35</w>": 5990,
  "ㅈㅓㄱㅇㅛㅇㅎㅏㄴ</w>": 22558,
  "ㄱㅕㄴㅎㅐㄹㅡㄹ</w>": 27360,
  "101</w>": 14614,
  "ㄱㅏㅇㅜㄴㄷㅔ": 9215,
  "ㅈㅣㅇㅝㄴㅇㅡㄴ</w>": 24428,
  "ik": 7622,
  "ㅎㅚㄱㅖ": 6967,
  "ㄷㅏㄷㄴㅡㄴ</w>": 15481,
  "ㅊㅗㅇㄱㅖㅁㅏㄴㅇㅣ</w>": 16600,
  "ㅁㅗㄹㅡㄴㅡㄴ</w>": 4352,
  "RT": 17647,
  "ㅋㅏㄴ</w>": 7757,
  "ㅁㅗㄷㅡ": 16930,
  "ㄱㅕㅇㅜㄹㅇㅔ</w>": 20319,
  "ㅅㅣㅈㅏㄱㅇㅡㄹㅗ</w>": 9295,
  "ㅎㅏㄴㅁㅏ": 6156,
  "5ㅇㅣㄹ": 18840,
  "ㅍㅣㄱㅗ": 14981,
  "ㅎㅏㄴㅡㄹㅇㅔ</w>": 20480,
  "ㅁㅣㄴㅈㅜ": 2199,
  "ㅈㅐㄱㅜㅅㅓㅇㅎㅏㄹ</w>": 17794,
  "ㅇㅣㅇㅜㅅ": 7296,
  "ㅌㅏㄹㅊㅜㄹ</w>": 17838,
  "ㅍㅣㄴ": 4572,
  "......</w>": 10554,
  "ㄱㅘㄴㅎㅐㅅㅓ</w>": 26687,
  "ㄱㅛㅇㅠㄱㄱㅘㅈㅓㅇ</w>": 11793,
  "il</w>": 3870,
  "China</w>": 28341,
  "ㄹㅗㅇㅜ": 5536,
  "ㅇㅣㅇㅣㅆㄴㅡㄴ</w>": 24267,
  "ㄲㅐㄷㅏㄹ": 7557,
  "ㄷㅗㅇㅇㅣㄹㅈㅗㄱㅓㄴㅂㅕㄴㄱㅕㅇ": 6202,
  "ㅈㅗㅊㅏ</w>": 5166,
  "ㅅㅔㅇㅜㄹ</w>": 25546,
  "ㅈㅜㅇㅣㄹ": 16210,
  "ㅇㅚㅂㅜ": 7886,
  "ㅇㅏㅂㅓㅈㅣㄴㅡㄴ</w>": 14045,
  "1boon</w>": 32612,
  "ㅇㅣㅇㅛㅇㅈㅏ": 27022,
  "ㅎㅐㄷㅏㅇㄷㅚㄴㅡㄴ</w>": 4064,
  "Single</w>": 18056,
  "/</w>": 223,
  "ㅇㅕㄴㄱㅜㄱㅐ": 16113,
  "ㅇㅓㅄㄱㅗ</w>": 2675,
  "ㅅㅓㄹㅏㄷㅗ</w>": 25069,
  "ㅕㅅㅓ</w>": 18906,
  "ㅁㅗㄱㅈㅓㄱㅇㅢ</w>": 27960,
  "ㄴㅏㄱㅣ</w>": 20656,
  "ㅍㅕㄹㅊㅣㄴ</w>": 30747,
  "ㅂㅗㅎㅓㅁㄱㅡㅁ</w>": 31721,
  "ㅅㅜㄴㅡㅇ": 13047,
  "ure": 8255,
  "ㅍㅗㅅㅡㅌㅡㅅㅣㅈㅡㄴ</w>": 22884,
  "AlphaPorno</w>": 32626,
  "ㅇㅕㄹㅓㅂㅜㄴㄲㅔ</w>": 19391,
  "ㄱㅏㄷㅡ</w>": 20175,
  "ㅂㅏㄺㅎㅣㄴ</w>": 12575,
  "ㅁㅏㄴㅅㅓㅇ</w>": 24887,
  "ㅇㅜㅇㅈㅣㄴ": 30931,
  "ㅈㅜㅇㅢ": 1430,
  "ㅅㅏㄴㅇㅓㅂㅇㅡㄹ</w>": 19808,
  "ㅂㅏㄷㅇㅡㅁㅕㄴ</w>": 12924,
  "ㄹㅏㅇㅣㄴㅇㅡㄹ</w>": 17630,
  "ㅇㅔㄴㅡㄴ": 15431,
  "ㅈㅓㅇㅈㅓㄱ</w>": 32147,
  "ㅈㅗㅈㅓㅇㅎㅏㄹ</w>": 25014,
  "ㅈㅓㅇㅇㅡㄹ</w>": 1174,
  "ㅈㅐㄱㅜㅅㅓㅇㅇㅔ</w>": 10525,
  "ㅈㅏㄷㅡㄹㅇㅣ</w>": 2284,
  "ㅎㅓㄴㅣ": 19509,
  "ㅇㅣㅈㅏ": 19908,
  "ㅍㅏㅇㅣㅌㅣㅇ</w>": 32089,
  "ㅅㅣㄹㅇㅔㅅㅓ</w>": 6098,
  "ㅅㅣㅅㅏ": 8333,
  "Mag": 19382,
  "ㅇㅕㅎㅐㅇㅈㅣㅇㅔㅅㅓ</w>": 20308,
  "ㅌㅡㄹㄹㅣㄴ</w>": 15822,
  "ㅍㅣㄹㅈㅏㄴㅡㄴ</w>": 16132,
  "ㅅㅜㅇㅛㅇㅇㅡㄹ</w>": 29250,
  "ㄱㅘㄴㄱㅗㅇ": 27461,
  "ㅇㅕㅇㅎㅑㅇ</w>": 8161,
  "ㄴㅗㅇㅝㄴ": 25242,
  "ㄷㅏ": 310,
  "ful</w>": 28819,
  "ㅅㅜㄷㅏㄴㅇㅡㄹㅗ</w>": 17855,
  "ㅍㅏㅇㅔ</w>": 18889,
  "ㅇㅡㄹ": 704,
  "ㄹㅔㄴㅈㅡㄹㅡㄹ</w>": 29186,
  "ㅇㅡㅁㅂㅏㄴ": 21185,
  "ㅅㅡㅋㅞㅇㅓ</w>": 16586,
  "Got": 15886,
  "ㄷㅡㄴㅡㄴ</w>": 1362,
  "ㅎㅕㄴㅅㅏㅇㅇㅔ</w>": 28160,
  "ㄱㅜㄱㅇㅓ</w>": 9152,
  "ㅅㅏㅇㅛㅇㅎㅏㅈㅣ</w>": 7087,
  "ㅅㅏㄹㅖㄹㅗ</w>": 26921,
  "ㅆㅏㅇㅣ": 12546,
  "ㄷㅔㄹ</w>": 13203,
  "ㅅㅗㅍㅡㅌㅡㄱㅏ</w>": 3258,
  "ㅌㅣㅇ": 1575,
  "International</w>": 17386,
  "ㅌㅏㅇㅣㅂ</w>": 9777,
  "ㅇㅕㅎㅐㅇㄱㅐㄱ": 15895,
  "ㅊㅔㅈㅔㄹㅗ</w>": 32205,
  "ㅎㅜㄴㅇㅢ</w>": 25857,
  "tion</w>": 4022,
  "ㅈㅗㄱㅡㅁㅏㄴ</w>": 27965,
  "land</w>": 11303,
  "ㅅㅏㅇㅈㅓㅁ": 29377,
  "ㅂㅏㄴㅊㅏㄴ": 16697,
  "ㅅㅏㅇㅇㅡㄴ</w>": 4836,
  "Aㅇㅢ</w>": 21399,
  "ㄱㅐㅈㅓㅇ": 4901,
  "wit": 5108,
  "object</w>": 26958,
  "ㄷㅏㅁㅏㄴ</w>": 1978,
  "Black</w>": 15307,
  "ㅅㅓㅅㄷㅏ": 26991,
  "ㅍㅕ": 1375,
  "ㅅㅏㄷㅡㄹㄷㅗ</w>": 32652,
  "ㄱㅏㅇㅇㅕㄴ</w>": 17199,
  "ㅈㅓㄹㅊㅏㄹㅡㄹ</w>": 8549,
  "ㅇㅕㄱㅕ": 8697,
  "hamster</w>": 23164,
  "ㄴㅏㅂㄴㅣㄷㅏ</w>": 11590,
  "ㅇㅕㅎㅗㅇㅘㅇㅢ</w>": 27202,
  "ㅇㅐㄱㅅㅔㅅㅡ</w>": 12620,
  "ㄱㅔㅇㅣㅁㅓ": 25052,
  "ㅇㅟㅇㅝㄴ</w>": 7744,
  "ㄱㅓㄷㅡㅂ": 9213,
  "ㅇㅑㅇㅇㅡㄴ</w>": 15950,
  "ㄴㅜㄹㅡㄴ</w>": 27361,
  "ㄱㅖㅇㅢ</w>": 5374,
  "ㄷㅗㅂㅏㄱㅇㅡㄹ</w>": 21260,
  "ㅅㅡㅇㄱㅐㄱ": 16565,
  "ㅅㅏㄹㅏㅇㅇㅣ</w>": 8806,
  "ㅂㅜㄹㅓㅂ": 19431,
  "ㅁㅏㄶㄷㅏㄴㅡㄴ</w>": 17086,
  "ㅇㅣㄹㅇㅣㅈㅣㅁㅏㄴ</w>": 27459,
  "RedTube</w>": 29678,
  "ㅇㅡㄹㅅㅜ</w>": 8057,
  "3ㄱㅐㅇㅢ</w>": 12876,
  "ppt</w>": 21155,
  "di</w>": 30089,
  "ㄴㅛ</w>": 16834,
  "ㅇㅣㄱㅓㅅㅇㅣ</w>": 4490,
  "ㅇㅖㅁㅜㄴ</w>": 23111,
  "MO": 6744,
  "ㅅㅐㅁㅍㅡㄹ</w>": 13913,
  "ㄱㅣㅁㅇㅕㅇ": 5679,
  "ㅅㅓㄴㄱㅓㅇㅔㅅㅓ</w>": 19737,
  "ㅂㅔㄹㅗㄴㅣ": 20621,
  "ㅅㅗㄴㅅㅣㄹㅇㅣ</w>": 30207,
  "ㅎㅛㄱㅘㄱㅏ</w>": 5365,
  "ㅁㅏㄴㅁㅕㅇ</w>": 16664,
  "ㄷㅐㅍㅛㄴㅡㄴ</w>": 7547,
  "ㄱㅏㅁㅎㅣ</w>": 18886,
  "ㅆㅏㅇ": 2952,
  "res": 2909,
  "ㅇㅛㅎㅏㄴ</w>": 20407,
  "ㅇㅓㅎㅏㄱ": 5640,
  "ㅎㅘㄱㅈㅏㅇㅈㅏㄴㅡㄴ</w>": 32548,
  "ㅂㅏㅇㅅㅣㄱㅇㅡㄹㅗ</w>": 4914,
  "ㅇㅞㅂㅅㅏㅇㅣㅌㅡㄱㅏ</w>": 16124,
  "ㅅㅏㅇㅓㅂㄱㅘ</w>": 25128,
  "400": 6487,
  "ㅅㅗㄹㄹㅗ</w>": 9678,
  "ㅇㅣㅂㄹㅕㄱㅎㅏㄴ</w>": 20041,
  "ild</w>": 29741,
  "ㅈㅜㅇㅛㅎㅏㄴ</w>": 23414,
  "ㅎㅕㅇㅈㅔ</w>": 14081,
  "ㅈㅣㄹㅎㅘㄴㅇㅔ</w>": 29809,
  "Ne": 14681,
  "ㅇㅓㄷㅣ</w>": 7635,
  "ㅇㅗㄴㄷㅗㄴㅡㄴ</w>": 27148,
  "ㄱㅠㄴㅎㅕㅇ</w>": 16575,
  "Hotel": 15897,
  "POP": 31472,
  "ㅇㅣㄹㅅㅣ": 9042,
  "ㅎㅏㄴㅏㄷㅗ</w>": 9851,
  "ㅎㅏㅅㅣㄹㅕㅁㅕㄴ</w>": 23934,
  "ㅇㅕㅆㄱㅗ</w>": 11904,
  "ㄱㅏㅈㅓㄴ": 16951,
  "ㅁㅏㄴㄴㅏㄱㅔ</w>": 13355,
  "ㅎㅑㅇㅇㅣ</w>": 4799,
  "ㅅㅏㅇㅊㅓ": 9122,
  "ㄸㅟㅇㅓㄴㅏㄴ</w>": 5645,
  "ㅁㅏㅁ</w>": 9948,
  "ㅇㅗㅍㅡ": 3586,
  "ㅂㅗㄱㅈㅏㅂㅎㅏㄱㅗ</w>": 29709,
  "ㅎㅏㄷㅗㄹㅗㄱ</w>": 2366,
  "ㄱㅡㄷㅡㄹ": 21958,
  "ㄷㅗㅇㅘ": 4039,
  "ㅌㅗㅇㅑㅇ": 16857,
  "Cafe</w>": 16832,
  "ㅍㅣㄹㅇㅛㅎㅏㄹ</w>": 9505,
  "ㅎㅘㅍㅖ": 8779,
  "lect": 15997,
  "ㅋㅐㄴ</w>": 23893,
  "ying</w>": 29425,
  "ㅇㅣㅇㅓㅆㄱㅗ</w>": 8267,
  "ㅍㅛㅈㅓㅇ</w>": 22844,
  "ㄱㅡㄹㅓㅎㄱㅔ</w>": 1661,
  "Dan</w>": 19858,
  "ㄴㅗㅍㄱㅗ</w>": 16687,
  "GIF": 25120,
  "ㅅㅡㅌㅏㄹ</w>": 19357,
  "ㅂㅕㄴㅎㅗㅅㅏ": 30105,
  "resp": 21380,
  "ㅇㅓㅉㅓㄷㅏ</w>": 23953,
  "ant</w>": 8906,
  "ㅈㅓㅇㅇㅢㅎㅏㄹ</w>": 31188,
  "ㅈㅓㅇㅇㅝㄴ": 16059,
  "ㅊㅓㅇㅅㅗㄱㅣ</w>": 20696,
  "ㅊㅜㄹㅊㅓㄱㅏ</w>": 23213,
  "ㄱㅣㄴㅕㅁ": 3421,
  "ㅅㅣㅋㅣㅁㅕㄴ</w>": 20599,
  "ㄱㅐㅇ": 5688,
  "ㅅㅜㅅㅜ</w>": 16890,
  "ㄷㅏㅂㄱㅔ</w>": 8746,
  "ㅅㅏㄹㅇㅏㄴㅏ": 17613,
  "17ㅇㅣㄹ</w>": 6280,
  "ㅅㅏㅇㅇㅛㅇ</w>": 8078,
  "ㅂㅏㄹ</w>": 942,
  "ㅍㅏㄴㅁㅐㅎㅏㄱㅗ</w>": 22090,
  "ㅇㅜㄹㅣ": 661,
  "ㅈㅜㅇㅈㅐ": 15101,
  "ㅈㅣㅁㅕ</w>": 10474,
  "ㄴㅗㄱㅗㄹ": 31109,
  "ㅅㅣㅁㅇㅡㄹ</w>": 2099,
  "ㄴㅗㄴㄹㅏㄴㅇㅔ</w>": 26422,
  "ㅇㅑㄱㅍㅜㅁ</w>": 31082,
  "ㅇㅏㅇㅣㅍㅐㄷㅡ</w>": 14354,
  "ㅂㅗㅇㅣ": 1896,
  "PPT": 32093,
  "ㄱㅏㄴㅡㅇㅎㅏㄹ</w>": 13628,
  "ㅅㅓㄴㅈㅓㅇㄷㅚㄴ</w>": 19020,
  "ㅊㅗㅇㅈㅏㅇ</w>": 13005,
  "ㅂㅏㄷㄱㅣ</w>": 5786,
  "ㄱㅗㅇㅇㅠㅎㅏㄱㅣ</w>": 14991,
  "ㅊㅓㅇㅅㅗㄴㅕㄴㅂㅗㅎㅗ": 13067,
  "sign": 18863,
  "ㅎㅏㄱㅣㅇㅔ</w>": 5961,
  "ㅅㅏㄷㅡ</w>": 21843,
  "ㅂㅜㅇㅘ</w>": 7189,
  "ㄷㅡㄹㅇㅓ</w>": 1927,
  "ㅅㅏㅎㅕㅇ": 24943,
  "bin": 27909,
  "ㅇㅕㄴㄹㅏㄱㅇㅡㄹ</w>": 12009,
  "ㄱㅖㅈㅓㅇㅇㅣ</w>": 25009,
  "ㅈㅜㅇㄱㅏㄴ": 6517,
  "ㄷㅗㄹㄹㅣㄱㅗ</w>": 23803,
  "ㅎㅐㅆㅇㅡㄹ</w>": 2795,
  "Open</w>": 24076,
  "aㅇㅢ</w>": 10705,
  "ㅇㅈㅏㅇ": 2557,
  "CPU</w>": 11706,
  "ㅌㅚ</w>": 7156,
  "2000ㄴㅕㄴㄷㅐ</w>": 28527,
  "Link</w>": 27562,
  "ㅂㅏㄷㅇㅏㄷㅡㄹㅇㅣㄹ</w>": 21658,
  "ㅁㅜㅅㅓㅇ": 8252,
  "ㅅㅏㅎㅚㄹㅗ</w>": 28019,
  "ㄷㅏㅁㄴㅡㄴ</w>": 32021,
  "ㅆㅣㄱ": 13518,
  "ㅅㅏㅁㅜㄹㅇㅣㄴㅌㅓㄴㅔㅅ</w>": 20629,
  "ㅈㅏㄱㄴㅕㄴㅇㅔ</w>": 14833,
  "44</w>": 8216,
  "SHO": 27641,
  "ㅂㅏㄷㅣ</w>": 12749,
  "ㅈㅜㄱㅣㄷㅗ</w>": 21610,
  "ㅍㅏㄹㅣ</w>": 7518,
  "ㅈㅣㅇㅕㄱ": 1116,
  "4p</w>": 28257,
  "ㄱㅏㄴㅣ": 10159,
  "1ㄱㅐㄹㅡㄹ</w>": 21021,
  "ㅈㅓㄴㅇㅡㄴ</w>": 8423,
  "ㅎㅏㄴㅇㅣㄴ</w>": 14520,
  "ㅇㅟㅊㅣㅇㅔㅅㅓ</w>": 8886,
  "ㅇㅏㄴㄷㅏ</w>": 15179,
  "ㄲㅣ": 890,
  "ㅅㅜㅈㅣㄱ": 20368,
  "ㄱㅜㄱㅈㅓㄱ": 21071,
  "ㅈㅡㅇㄱㅝㄴ": 8315,
  "ㅇㅛㅇㅅㅏㄴ": 13939,
  "IT": 3724,
  "ㅊㅓㄴㅈㅜ": 18412,
  "ㅇㅣㅆㄱㅔㅆㅅㅡㅂㄴㅣㄷㅏ</w>": 22234,
  "ㅈㅜㅈㅏㅇㅎㅐㅆㄷㅏ</w>": 12664,
  "ㅈㅏㄹㅣㅈㅏㅂㄱㅗ</w>": 23424,
  "ㄷㅐㅅㅏㅇㅇㅡㄹㅗ</w>": 3909,
  "ㅌㅗㅇㅈㅔㄹㅡㄹ</w>": 29913,
  "ㅅㅇㅢ</w>": 7507,
  "ㅇㅏㅇㅣㅍㅗㄴ</w>": 4791,
  "ㄴㅏㅆㅅㅡㅂㄴㅣㄷㅏ</w>": 26844,
  "ㅍㅛㅈㅓㅇ": 28213,
  "ㅂㅗㅍㅕㄴ": 9817,
  "ㅊㅣㄴㄱㅜㅇㅘ</w>": 11523,
  "ㅁㅗㄷㅜㄴㅡㄴ</w>": 28388,
  "ㄱㅜㄷㅗㄱㅎㅏㄱㅣ</w>": 24204,
  "ㅁㅏㄱㅅㅏㅇ</w>": 12841,
  "ㅈㅗㅇㅇㅡㄹㅗ</w>": 21600,
  "em</w>": 6221,
  "ㅁㅔㅁ": 4070,
  "ㅈㅏㄱㄴㅕㄴ</w>": 7303,
  "ㄱㅐㄱㅅㅣㄹㅇㅣ</w>": 8646,
  "ㅅㅏㄴㄷㅏ</w>": 14065,
  "2": 14,
  "ㅊㅜㅇㄱㅕㄱㅇㅡㄹ</w>": 13822,
  "ㅈㅜㅁㅜㄴ</w>": 4174,
  "ㅈㅏㄱㅇㅓㅂ": 1726,
  "ㅅㅡㅇㅘㅇㅢ</w>": 20936,
  "ㄷㅡㄹㅇㅣㄹ</w>": 28633,
  "Hamster</w>": 3108,
  "ㅂㅣㅌㅏ": 6442,
  "ㅎㅐㅅ": 5325,
  "ㅈㅏㅇㅂㅣ": 10221,
  "ㅊㅚㅈㅗㅇㅎㅏㅂ": 29129,
  "ㅇㅜㄹㅣㅈㅣㅂ</w>": 26835,
  "ㅂㅓㅅㅡㄴㅡㄴ</w>": 28498,
  "ㅍㅡㄹㅏㄴㅅㅣ": 9060,
  "ㄷㅐㅍㅣ": 25957,
  "ㅂㅏㄱㅇㅛㅇ": 28057,
  "ㅂㅏㄹㅅㅐㅇㅎㅐㅆㄷㅏ</w>": 20188,
  "ㅈㅗㅇㅢ</w>": 5698,
  "ㅇㅗㄹㅗ": 21309,
  "59</w>": 8918,
  "ㅇㅕㄴㅂㅏㅇ</w>": 20008,
  "ㄱㅜㅅㅓㅇ": 1395,
  "ㅁㅗㅁㅇㅡㄴ</w>": 17812,
  "ㅎㅏ</w>": 1220,
  "8ㄱㅐㅇㅝㄹ</w>": 26532,
  "ㅈㅏㅇㅇㅔㄱㅔ</w>": 27568,
  "ㅅㅗㄴㅕㄴ</w>": 7254,
  "ㅇㅘㅇㅜ</w>": 25099,
  "ㄴㅏㅇㅘㅇㅑ</w>": 31769,
  "ㄷㅐㅅㄱㅡㄹㅇㅣ</w>": 8224,
  "4ㅇㅝㄹ": 7576,
  "ION</w>": 17948,
  "ㅅㅣㅇㅏㅇㅢ</w>": 32353,
  "ㅍㅗㅌㅡㅍㅗㄹㄹㅣㅇㅗ</w>": 23633,
  "ㅎㅘㅇㅇㅡㄹ</w>": 22003,
  "ㅇㅕㅇㅇㅜㅇ</w>": 16142,
  "ㅇㅑㄱㄱㅘㄴ</w>": 6608,
  "ㅆㅡㄷㅓㄴ</w>": 25550,
  "ㄷㅜㅅㅏㄴㅇㅡㄴ</w>": 29364,
  "ㅁㅗㄱㅅㅏㅇㅢ</w>": 22147,
  "ㄴㅕㄴㅈㅓㄴ</w>": 23316,
  "ㅈㅔㅊㅓㄹ</w>": 31802,
  "ㅎㅜㅂㅐ": 13294,
  "ㄱㅘㅇㅇㅕㄱ": 10936,
  "ㅊㅚㅇㅜㅅㅜ": 20361,
  "ㅋㅡㅇㅢ</w>": 9889,
  "ㅊㅗㄱㅘㅎㅏㄱㅓㄴㅏ</w>": 9153,
  "ㅇㅣㅁㅇㅣ</w>": 16131,
  "play": 14627,
  "ㅈㅜㅈㅏㅇㅇㅡㄹ</w>": 11564,
  "Tal": 24534,
  "ㅈㅐㅁㅣㅆ": 7772,
  "inter": 10122,
  "ㅇㅢㅈㅣ</w>": 21314,
  "ㄱㅓㅅㅇㅣㄴㅏ</w>": 19914,
  "ner</w>": 15618,
  "ㅇㅕㅇㅅㅏㅇㅇㅡㄹㅗ</w>": 27197,
  "ㄷㅙㅆㄷㅓㄴ</w>": 15240,
  "ㅁㅏㄹㅕㄴ": 1825,
  "ㄱㅣㅂㅏㄴ</w>": 4871,
  "ㅡㄴ</w>": 461,
  "ㅇㅣㅅㅡㅇ": 6976,
  "ㅂㅓㄴㄱㅓ": 17097,
  "ㅊㅓㅇㅇㅘㄷㅐ</w>": 7853,
  "ㅅㅣㅋㅣㄱㅣ</w>": 8854,
  "ㅇㅕㄹㅓㅂㅜㄴㅇㅔㄱㅔ</w>": 24938,
  "ㅇㅝㄴㅇㅡㄴ</w>": 2837,
  "ㅈㅣㅇㅣㄴ": 26154,
  "ㅂㅜㄷㅡㄹㅓㅂㄱㅗ</w>": 22690,
  "Z</w>": 215,
  "Explor": 20552,
  "ㅌㅗㅇㅊㅣ": 15364,
  "ㅂㅜㅊㅏㄱ": 11898,
  "ade": 21920,
  "ㅅㅔㅇㅜ": 9428,
  "form</w>": 16555,
  "ㅁㅗㄹ": 782,
  "...": 9124,
  "ㄸㅟㅇㅓㄴㅓㅁ": 16635,
  "racial</w>": 30884,
  "ㅎㅏㄱㅣㄴ</w>": 8899,
  "ㅅㅜㄴㅅㅜ</w>": 19172,
  "ㅅㅗㄴ</w>": 2052,
  "ㅈㅔㄴㄷㅓ</w>": 26014,
  "ㅅㅣㄴㄹㅚ</w>": 20875,
  "ㅇㅣㄹㅎㅏㄴ</w>": 20914,
  "ㅈㅓㅇㅇㅐㄱ</w>": 4622,
  "ㅍㅜㅁㅈㅣㄹ": 4921,
  "ㄹㅣㅂ": 907,
  "ㅂㅡㄹㅔ": 8042,
  "ㅋㅓ</w>": 2585,
  "ㅊㅏㅁㅅㅓㄱ": 3883,
  "ㅎㅏㄴㅊㅏㅇ</w>": 23109,
  "ㅇㅠㅇㅎㅏㅂ</w>": 23840,
  "ㄱㅗㅇㅠㅎㅏㄴ</w>": 24205,
  "ㅈㅓㅎㅏ</w>": 26320,
  "LTE</w>": 16121,
  "ㅁㅏㅊㅣㄴ</w>": 11457,
  "ㅅㅓㅇㄹㅕㅇ": 7532,
  "ㅈㅜㄴㅇㅢ</w>": 21912,
  "ㅇㅜㅇㅏㅎㅏㄴ</w>": 24149,
  "ㄴㅕㅇㅢ</w>": 22208,
  "ㅈㅣㄴㅈㅣ": 10934,
  "ㅁㅏㄹㅁㅣ": 15908,
  "ㅇㅏㄹㄹㅕㅈㅜ": 27768,
  "ㅈㅓㄹㄷㅐㅈㅓㄱㅇㅣㄴ</w>": 26122,
  "ㅇㅑㄱㄱㅘㄴ": 27422,
  "ㅈㅣㅂㅇㅡㄹㅗ</w>": 7667,
  "1kg</w>": 23254,
  "ㄹㅐㅇㅢ</w>": 18556,
  "blog</w>": 18893,
  "ㅕㅇㅘ</w>": 11867,
  "ㅅㅣㄴㄱㅠ": 8787,
  "2012ㄴㅕㄴ": 28233,
  "ㅈㅜㅇㅅㅣㅁ": 1785,
  "ㅅㅗㄹㄹㅜㅅㅕㄴ": 21424,
  "it</w>": 3318,
  "ㅅㅣㄹㅅㅣㅎㅏㄴㅡㄴ</w>": 25030,
  "ㄷㅗㅇㅁㅜㄹ": 4379,
  "ㄴㅏㅁㄱㅘ</w>": 24780,
  "ㅅㅡㅌㅡㄱㅏ</w>": 17862,
  "ㄷㅏㄷㄷㅓㄹㅏㄷㅗ</w>": 21139,
  "ㅇㅓㅄㅇㅓㅆㅈㅣㅁㅏㄴ</w>": 21832,
  "ㄱㅡㄹㅓㄴㅏ</w>": 1163,
  "Mil": 15023,
  "ㅇㅏㄹㅋㅗㅇ": 13099,
  "Cont": 8202,
  "ㅇㅓㄹㄱㅜㄹ</w>": 5060,
  "ㄱㅘㅁㅗㄱ": 8383,
  "ㅇㅣㅇㅑㄱㅣㄷㅗ</w>": 19460,
  "ㅊㅔ": 489,
  "ㄱㅓㄴㅁㅜㄹ": 7654,
  "ㄱㅕㅇㅇㅜㅇㅔㄴ</w>": 24212,
  "ㅇㅣㄹㄱㅕㅇㄲㅏㅈㅣ</w>": 26391,
  "OT": 9835,
  "ㅋㅓㄴㅌㅡㄹㅗㄹ": 7388,
  "ㅇㅔㅇㅢ</w>": 10814,
  "iver</w>": 25567,
  "ㄷㅡㄹㅔㅅㅡ</w>": 12068,
  "ㅅㅏㅋㅣ</w>": 28378,
  "ㅂㅓㄹㅏㅇㅣ": 31803,
  "ㄱㅡㄹㄲㅗㄹ": 10548,
  "ㄱㅏㅁㄷㅗㅇ": 8285,
  "ㅇㅏㄴㅣㅈㅛ</w>": 25312,
  "ㅁㅗㅁㅇㅔㅅㅓ</w>": 31793,
  "ㅇㅣㅆㄷㅏㄴㅡㄴ": 28245,
  "ㅁㅏㅇㅡㅁ</w>": 4182,
  "ㅎㅗㄹ</w>": 5788,
  "ㅇㅜㅅㅇㅡㅁㅕㄴㅅㅓ</w>": 30018,
  "ㅍㅡㄹㄹㅏㅇㅝ</w>": 20853,
  "ㅆㅇㅡㄹ": 22784,
  "ㅇㅖㅈㅓㄴㅇㅔㄴㅡㄴ</w>": 19742,
  "ㅅㅣㅈㅏㄱㅎㅏㅁㅕㄴㅅㅓ</w>": 25563,
  "ㅅㅓㄴㅎㅗ": 6606,
  "ㅎㅗㄹㄹㅗ</w>": 10281,
  "ㅈㅏㄹㅣㅇㅔㅅㅓ</w>": 7796,
  "120</w>": 20348,
  "ㄱㅔㅈㅐ</w>": 20062,
  "ㄱㅓㄴㄱㅏㅇㅎㅏㄴ</w>": 7230,
  "ㄱㅘㅇㅁㅕㅇ": 19764,
  "ㄷㅏㅅㅋㅓㅁ</w>": 7063,
  "ㅁㅗㅅㅎㅏㅂㄴㅣㄷㅏ</w>": 15778,
  "eting</w>": 28774,
  "SO": 11685,
  "ㅈㅗㄱㅡㅁㅇㅣㄴㅏㅁㅏ</w>": 26636,
  "ㅇㅏㅅㅟㅂ": 8071,
  "ㅅㅏㄹㅇㅣㄴ": 12454,
  "ㅇㅕㅇㅇㅝㄴㅎㅣ</w>": 10353,
  "ㄱㅏㅇㅇㅜㄹㅑㅇ</w>": 18158,
  "ㄷㅗㅇㅇㅑㅇㅇㅢ</w>": 17903,
  "ㅈㅣㄱㅈㅓㅂ</w>": 1322,
  "ㅇㅑㄱㅜ</w>": 7816,
  "ㄱㅜㅊㅓㅇ": 12069,
  "ㅋㅗㅇㅗㄹ": 32067,
  "ㅍㅛㅎㅕㄴ": 2108,
  "ㅎㅏㄱㅅㅐㅇㄷㅡㄹ</w>": 12549,
  "ㅈㅏㅋㅔㅅ</w>": 13341,
  "ㅎㅐㅅㅏㅇㄷㅗ</w>": 18388,
  "ㅇㅣㄹㅈㅓㅇ": 4461,
  "ㄷㅏㄴㅂㅐㄱ": 8374,
  "ㅍㅣㅌㅡㄴㅣㅅㅡ</w>": 9521,
  "ㅇㅟㅅㅐㅇ": 11905,
  "ㅈㅚㅇㅢ</w>": 23984,
  "ㅂㅣㅁㅣㄹㅂㅓㄴ": 24365,
  "ㅇㅣㄹㅈㅓㅇㅇㅡㄹ</w>": 11260,
  "ㅁㅜㄴㅅㅣㄴ</w>": 12839,
  "ㅅㅓㄴㅈㅓㅇㅎㅏㄴ</w>": 25156,
  "ㅇㅢㅁㅣㅇㅘ</w>": 20566,
  "ㅅㅣㅈㅏㄱ</w>": 2973,
  "ㅝㄹ": 2505,
  "ㅈㅣㅇㅕㄴ": 8488,
  "ㅅㅜㅅㅏ": 7621,
  "Tri": 28859,
  "ㄱㅡㄹㅓㄴㅣㄲㅏ</w>": 6949,
  "ㅈㅐㄷㅏㄴ</w>": 5969,
  "ㄴㅡㄲㅣㅁ": 5669,
  "ㅂㅜㄴㅅㅓㄱㄱㅘ</w>": 14798,
  "ㅌㅏㅇㅝ": 12753,
  "ㄱㅣㅍㅇㅡㄴ": 17159,
  "ㄷㅗㅇㄱㅣㅎㅘ</w>": 24457,
  "ㄱㅟㅎㅏㄱㅏ</w>": 15407,
  "Jav": 9919,
  "ㄴㅏㄲㅅㅣ": 10004,
  "ㅈㅏ</w>": 440,
  "ㅎㅐㅆㅇㅡㄴㅏ</w>": 7263,
  "Per": 10414,
  "ㄱㅜㄱㄷㅗ</w>": 26047,
  "ㅇㅣㅆ</w>": 7013,
  "ㅈㅓㅇㅊㅐㄱㅇㅡㄴ</w>": 14458,
  "ㅋㅡㄹㅗㄴ": 17739,
  "ㄱㅣㄱㅏㄱ": 29172,
  "ㅇㅏㄴㅇㅔㄴㅡㄴ</w>": 16170,
  "63</w>": 15492,
  "ㅌㅗㅇㅅㅏㄴ</w>": 11553,
  "ㅌㅓㄹㅗ</w>": 9841,
  "ㅍㅗㅇㅢ</w>": 12579,
  "ㅅㅟㅂㄱㅔ</w>": 1602,
  "ㄴㅗㄴㄹㅏㄴㅇㅡㄹ</w>": 25724,
  "ㅅㅑㅅ</w>": 8550,
  "ㄸㅏㅇㅇㅡㄹ</w>": 13721,
  "ㅅㄱㅏㄹ": 11968,
  "ㅉㅗㅊ": 7702,
  "ㅍㅣㄹㅇㅛㅅㅓㅇㅇㅡㄹ</w>": 19734,
  "ㄱㅕㅇㅊㅏㄹㅅㅓㄴㅡㄴ</w>": 26956,
  "6ㄱㅐ": 30088,
  "ㅊㅝ": 3733,
  "ㅂㅔㄹㅂㅔㅅ</w>": 25383,
  "2500": 31944,
  "Wi": 4258,
  "ㄱㅐㅇㅣㄴㅇㅣ</w>": 13411,
  "ㅎㅘㄱㅅㅣㄴ": 12129,
  "ㄱㅓㅅㅇㅣㄴㅈㅣ</w>": 6278,
  "ㅎㅐㅇㅢ</w>": 13190,
  "ㅎㅐㅈㅜㅈㅣ</w>": 24352,
  "ㅇㅝㄴㄱㅏ": 29412,
  "ㅇㅚㄱㅜㄱㅇㅓ</w>": 19843,
  "ㅁㅏㅅㅇㅔ</w>": 18718,
  "oper": 18714,
  "ㅋㅡ": 578,
  "ㅗㅇㅜ</w>": 20097,
  "ㅎㅏㅁㄲㅔ": 3599,
  "ㅇㅕㄹㅇㅓㅆㄷㅏ</w>": 15813,
  "ㅋㅐㅁㅍㅓㅅㅡ</w>": 9791,
  "ㅅㅡㅌㅏㄹ": 11444,
  "ㄷㅔㅇㅣㅂㅣㄷㅡ</w>": 24459,
  "ㅅㅗㄹㅣㅇㅔ</w>": 23146,
  "ㄴㅏㅁㅈㅏㄴㅡㄴ</w>": 12569,
  "ㅁㅗㄱㅅㅗㄹㅣㄹㅗ</w>": 23161,
  "ㅃㅗㅂ": 4032,
  "ㅁㅓㄹㄹㅣ</w>": 6134,
  "ㅇㅠ</w>": 1272,
  "ㅅㅏㅇㅇㅓㅂㅈㅓㄱㅇㅣㄴ</w>": 30728,
  "5ㅍㅣㅌㅡ": 28325,
  "ㄷㅐㅇㅔㅅㅓ</w>": 6169,
  "ㅈㅗㅈㅣㄱ</w>": 5691,
  "inf": 16589,
  "ㅌㅐㄱ</w>": 1655,
  "1ㅂㅏㄱ": 16463,
  "ㅅㅏㅇㅛㅇㅈㅏㄹㅡㄹ</w>": 17423,
  "ㄱㅛㅅㅏ</w>": 6191,
  "ㄷㅐㅎㅘㄹㅡㄹ</w>": 7669,
  "ㅎㅐㅈㅜㅅㅣ": 29842,
  "ㅅㅓㅂㅡ</w>": 24810,
  "ㅅㅣㅁㅍㅡㄹ</w>": 32710,
  "Previous</w>": 29141,
  "ㅁㅏㄴㄴㅏㄴ": 26859,
  "SK</w>": 10315,
  "ㄱㅣㄹ": 880,
  "ㅎㅏㅅㅣㅂㄴㅣㄲㅏ</w>": 10225,
  "ㄷㅗㅇㅁㅐㅇ</w>": 30693,
  "ㅎㅔㄷㅡ": 8432,
  "ㅇㅣㅎㅏㅇㅣㄴ</w>": 16159,
  "cp": 28787,
  "].</w>": 16648,
  "ㅅㅏㅎㅚㅎㅏㄱ</w>": 19853,
  "ㅇㅠㅋㅙㅎㅏㄴ</w>": 26289,
  "ㅇㅠㅂㅏㅇ</w>": 32499,
  "ㅅㅣㅇㅝㄴ": 5295,
  "ㅊㅣㄱ": 2711,
  "ㅇㅓㅉㅐㅆㄷㅡㄴ</w>": 9785,
  "9</w>": 163,
  "ㅇㅏㅁㅅㅣㄷㅚㄴ</w>": 19694,
  "ㄱㅏㄱㅗ</w>": 2210,
  "ㅅㅣㅇㅏㄴ": 30005,
  "ㅇㅏㅈㅣㄱㄲㅏㅈㅣ</w>": 12299,
  "ㅎㅣㅌㅡㄹ": 29894,
  "ㅇㅏㄶㄱㅔ</w>": 4375,
  "ㄱㅣㅁㅍㅗ": 31273,
  "ㅈㅜㅁㅜㄴㅇㅡㄴ</w>": 31924,
  "ㅇㅣㅁㅅㅏㄴ": 21632,
  "ㅅㅡㄹㅓㅇㅝ": 9913,
  "ㅌㅣㅇㅇㅣ</w>": 12117,
  "ㅊㅜㄹㅎㅕㄹ": 21545,
  "et</w>": 1985,
  "ㅂㅗㅇㅣㄱㅣㄷㅗ</w>": 23320,
  "ㅌㅜㅈㅐㅇ</w>": 22158,
  "ㅇㅝ": 324,
  "ㅅㅣㄴㅇㅏㅇㅇㅡㄹ</w>": 26452,
  "ㅕㄴ": 314,
  "ㅂㅏㄱㄱㅡㄴ": 4238,
  "ㅈㅣㅍㅇㅓ": 26698,
  "ㄹㅗㅂㅈㅣ</w>": 28747,
  "ㅃㅓㄴ</w>": 23635,
  "ㅅㅏㅎㅡㄹ": 29773,
  "ㅂㅗㅇㅕㅈㅜㄹ</w>": 15417,
  "ㅅㅔㄹㅕㄱㅇㅣ</w>": 22274,
  "Outlook</w>": 31388,
  "ㄱㅕㅇㅇㅜㅇㅔ</w>": 5313,
  "ㅅㅏㄴㅇㅣ</w>": 8294,
  "ㅂㅣㅈㅇㅡㄹ</w>": 21693,
  "ㅍㅏㅇㅝ": 4282,
  "ㅎㅜㄱㅏ</w>": 28955,
  "ㅁㅜㄴㅈㅔㄷㅡㄹㅇㅡㄹ</w>": 23112,
  "ㅁㅕㅇㅇㅔ</w>": 6763,
  "ㄷㅓㄱㅜㄴㄷㅏㄴㅏ</w>": 26440,
  "ㅊㅏㄹㅑㅇ</w>": 5158,
  "ㄴㅏㅁㅇㅏㅆㄷㅏ</w>": 23537,
  "ew": 3197,
  "n</w>": 169,
  "ㄷㅟㅈㅣㅂㅇㅓ</w>": 31816,
  "sta": 19782,
  "ㅅㅡㅌㅣㅋㅓ</w>": 13890,
  "ㅊㅏㅈㅇㅡㄹ</w>": 3746,
  "ㅓㄹ</w>": 3220,
  "ㄷㅣㅇㅗ</w>": 2384,
  "od": 3803,
  "ㅇㅣㅁㅈㅗㅇ": 26862,
  "ㅂㅜㅌㅓㅇㅢ</w>": 11217,
  "unc": 13068,
  "ㅅㅏㅇㅎㅘㅇㅇㅡㄴ</w>": 13087,
  "ㅎㅏㅅㅣ": 837,
  "ㅇㅣㄷㅓ": 13874,
  "el": 1470,
  "ㅁㅕㅇㅁㅕㅇ": 31786,
  "ㄱㅓㅅㅇㅔ</w>": 2654,
  "td</w>": 27642,
  "ㄱㅏㅅㅡ": 1078,
  "ㅁㅜㅎㅛ": 18514,
  "ㅈㅏㄹㅎㅏㄴㅡㄴㅂㅓㅂ</w>": 32106,
  "USD</w>": 19674,
  "ㄱㅗㅇㄷㅗㅇㅊㅔㄹㅡㄹ</w>": 26799,
  "ㄹㅣㄷㅡ</w>": 17774,
  "ㅂㅏㅇㅅㅗㅇㅇㅔ</w>": 21690,
  "ㅁㅗㅇㅣㄴㅡㄴ</w>": 30198,
  "ㅎㅐㄷㅏㄹㄹㅏㄱㅗ</w>": 22320,
  "ㅂㅏㅇㅅㅗㅇ</w>": 2760,
  "ㅌㅣㅁ": 2184,
  "ㅂㅗㅈㅣㄷㅗ</w>": 29393,
  "ㅈㅓㄴㅅㅏ": 32176,
  "ㅂㅣㄹㅗㅅㅎㅏㅇㅕ</w>": 17161,
  "ㅍㅏㅅㅗㄴ": 26114,
  "1ㄷㅏㄴㄱㅖ</w>": 22949,
  "ㅇㅝㄴㄹㅣㄹㅡㄹ</w>": 17002,
  "93</w>": 23450,
  "ㅅㅐㄱㄲㅏㄹㅇㅣ</w>": 31904,
  "ㅎㅘㅎㅏㄴㅡㄴ</w>": 12224,
  "end</w>": 13488,
  "ㄱㅏㅆㅇㅡㄹ</w>": 18953,
  "ATA</w>": 26281,
  "ㅆㅏㅇㅕ</w>": 29229,
  "ㅇㅜㄹㄹㅣ": 26112,
  "ㅌㅡㄱㅈㅓㅇ</w>": 2599,
  "ㅅㅏㅇㅣㅌㅡㅇㅣㅂㄴㅣㄷㅏ</w>": 32440,
  "ㅇㅠㄴㅡㄴ</w>": 26587,
  "ㄱㅣㅈㅜㄴㅇㅡㄴ</w>": 17383,
  "ㄷㅜㄹㅕㅇㅜ": 17594,
  "ㅎㅐㅇㅇㅟㄴㅡㄴ</w>": 16047,
  "ㄹㅕㄱㅗ</w>": 2937,
  "ㅂㅣㅁㅏㄴ": 23536,
  "ㅋㅣㅅ": 22547,
  "big": 15042,
  "8ㅎㅚ": 25934,
  "ㅅㅣㄹㅣㅈㅡㄱㅏ</w>": 31331,
  "ㅇㅡㄹㅈㅣㄷㅗ</w>": 26796,
  "ㅅㅏㅎㅚㅇㅘ</w>": 13019,
  "ㅍㅡㄹㅗㅇㅣ": 30979,
  "ㄷㅗㅇㄹㅕㄱ</w>": 32575,
  "ㅌㅜㅇ": 16808,
  "ㄷㅣㅇㅢ</w>": 25718,
  "ㄱㅏㄱㅂㅕㄹ": 22822,
  "2ㄴㅡㄴ</w>": 19610,
  "ㄹㅔㄴㅣ": 23601,
  "ㅂㅜㅎㅏ": 27800,
  "ㄱㅐㅂㅏㄹㅎㅏㄴㅡㄴ</w>": 22549,
  "ㄷㅔㄹㄹㅣ": 27446,
  "ㄷㅡㅇㅈㅏㅇㅎㅏㄴ</w>": 14957,
  "ㄴㅗㄹㅣㄴㅡㄴ</w>": 22637,
  "ㄱㅝㄴㅇㅢ</w>": 6200,
  "ㄱㅏㅈㅕㅇㅗㄱㅗ</w>": 27426,
  "ㄷㅏㄹㅅㅓㅇㅎㅏㄹ</w>": 32698,
  "ㅎㅗㅈㅓㄴ": 31785,
  "ㅊㅜㄹㅍㅏㄴㅅㅏ</w>": 12604,
  "ㅍㅔㅇㅣㅈㅣㄴㅡㄴ</w>": 18432,
  "ㅈㅏㅇㅠㅎㅏㄴㄱㅜㄱㄷㅏㅇ</w>": 15374,
  "ㅈㅣㅂㅎㅚ": 32258,
  "ㅇㅣㅇㅔ": 13797,
  "ㅈㅗㅅㅏ</w>": 3026,
  "ㅇㅒㄱㅣㄹㅡㄹ</w>": 7590,
  "ㅇㅣㄹㅇㅣㄹ": 21331,
  "ㅇㅕㄱㄲㅏㅈㅣ</w>": 27212,
  "ㅇㅣㅆㅇㅡㄴㅣㄲㅏㅇㅛ</w>": 28778,
  "ㄱㅡㅇㅑㅁㅏㄹㄹㅗ</w>": 12780,
  "ㄷㅐㅅㅏㅇㅇㅔ</w>": 24515,
  "ㄴㅡㄲㅕㅈㅣㄹ</w>": 24819,
  "ㅇㅕㅁㅕㅇㅇㅣ</w>": 15480,
  "ㅂㅜㄷㅡㄹ": 9328,
  "ㅅㅡㅍㅗㅊㅡ</w>": 2405,
  "ㅁㅕㄴㅈㅓㅂ</w>": 7906,
  "ㄱㅐㅇㅣㄴㅈㅓㅇㅂㅗㅊㅟㄱㅡㅂ": 15100,
  "ㅂㅏㄱㅇㅝㄴ": 18010,
  "ㅈㅗㅂㅕㄹ": 22228,
  "ㅊㅏㅈㅇㅏㅆㄷㅏ</w>": 16199,
  "ㄱㅔㄹ</w>": 29154,
  "ㄱㅏㅇㅈㅔㄹㅗ</w>": 20216,
  "ㄷㅗㅊㅏㄱㅎㅐㅆㅇㅡㄹ</w>": 32025,
  "ㅂㅜㅂㅜㄱㅡㅁ": 29880,
  "ㄱㅏㄲㅏㅇㅝ": 14631,
  "Tables</w>": 18877,
  "ㅈㅗㅅㅓㅇ</w>": 15609,
  "ㅇㅖㅇㅑㄱㅇㅣ</w>": 21241,
  "ㅈㅡㅇㅅㅏㅇ": 17484,
  "ㄴㅏㄴㄷㅏ</w>": 7699,
  "ㄴㅠㅇㅛㄱ</w>": 7481,
  "ㅇㅚㅁㅕㄴ": 16506,
  "ㅇㅣㅅㅠㄱㅏ</w>": 17301,
  "ㅅㅜ</w>": 344,
  "ㄱㅏㅌㅇㅏㅆ": 32764,
  "ㅅㅡㄴㅇㅢ</w>": 17899,
  "ㅗㄹㅗ</w>": 22921,
  "ㅅㅡㄹㄹㅗㅅ</w>": 27283,
  "ㅅㅏㄹㅏㅁㄷㅡㄹㅇㅢ</w>": 4314,
  "te": 4556,
  "ㄱㅗㄷ": 7594,
  "ㅅㅐㅇㅓㅁㅁㅏ</w>": 23042,
  "ㅈㅔㅍㅜㅁㅇㅣㅂㄴㅣㄷㅏ</w>": 16733,
  "ㄱㅜㄱㅇㅚ</w>": 26061,
  "ㅌㅏㄴㅎㅐㄱ</w>": 24262,
  "ㄸㅏㅁ": 10613,
  "ㅂㅗㅇㅕㅈㅜㄱㅣ</w>": 28146,
  "ㅅㅣㅅㅡㅌㅔㅁㅇㅡㄹㅗ</w>": 20769,
  "ㅡㄹㅓ": 6276,
  "ㅊㅕㅆㄷㅏ</w>": 5042,
  "ㅇㅕㅎㅐㅇㄱㅖㅎㅚㄱㅇㅡㄹ</w>": 21974,
  "yㄴㅡㄴ</w>": 28765,
  "vers": 9077,
  "ere</w>": 11064,
  "ㅂㅏㅂ</w>": 4625,
  "ㅂㅜㄹㄱㅏㄴㅡㅇㅎㅏㄷㅏ</w>": 21074,
  "ㄴㅏㅁㅍㅕㄴㄱㅘ</w>": 19609,
  "ON</w>": 7029,
  "ㄷㅏㄴㅇㅓ": 12051,
  "ㅁㅏㅈㅣㅁㅏㄱ</w>": 2536,
  "ㅁㅕㄴㅎㅓ": 11754,
  "ㅎㅘㅈㅏㅇ": 2663,
  "ㅊㅣㅁㅐ": 14263,
  "ㅡㅌㅡ</w>": 13325,
  "ㅅㅐㅇㅅㅏㄴㅎㅏㄴㅡㄴ</w>": 20040,
  "ㅈㅏㅁㅜㄴ": 12654,
  "ㅈㅗㅇㄹㅠㅇㅢ</w>": 6533,
  "ㅇㅖㅇㅑㄱㅎㅏㅁㅕㄴ</w>": 26280,
  "ㅊㅓㅇㅅㅗ</w>": 10019,
  "ㄱㅏㅄㅇㅔ</w>": 22220,
  "ㅂㅜㄴㅅㅏㄴ": 14109,
  "ㅂㅜㄷㅏㅁ</w>": 9466,
  "ㅋㅗㅁㅣㄷㅣ</w>": 29292,
  "ㅇㅑㅊㅐ": 18204,
  "ㅇㅑㅇㅚ": 10364,
  "ㅇㅡㄴㅇㅢ</w>": 32385,
  "ㅈㅏㄱㅇㅡㄹㅗ</w>": 29802,
  "ㅅㅜㅈㅣㅂㅎㅏㄴ</w>": 26356,
  "ㅂㅏㅃㅡ": 17172,
  "ㅈㅣㄹㄹㅗ</w>": 18108,
  "JizzBunker</w>": 12826,
  "ㅅㅜㅁㅕㅇ</w>": 30075,
  "ㅅㅏㅇㅛㅇㅈㅏㄷㅡㄹㅇㅡㄴ</w>": 29075,
  "ㅅㅓㅇㄱㅕㅇ": 4846,
  "ㄱㅣㅃㅡㄴ</w>": 21599,
  "John</w>": 22753,
  "ㅍㅡㄹㅣ": 1344,
  "ㄴㅜㄹㅏㄱ</w>": 30610,
  "ㅇㅕㄴㅅㅏㄴ": 15259,
  "ㄱㅡㄱㅂㅗㄱㅎㅏㄹ</w>": 29476,
  "ine": 13896,
  "ㅎㅕㅂㅎㅚㄱㅏ</w>": 29643,
  "ㄴㅗㄴㅡㄴ</w>": 14111,
  "ㅈㅐㅁ</w>": 32057,
  "ㄷㅡㄹㅇㅔㄱㅔㄷㅗ</w>": 16447,
  "gle</w>": 28588,
  "ffer": 28047,
  "ㅅㅜㅂㅏㄴ": 19889,
  "35": 4417,
  "ㄱㅏㅌㅇㅏㅆㅅㅡㅂㄴㅣㄷㅏ</w>": 26483,
  "ㅎㅏㅇㅣㄴ": 14461,
  "ㅂㅏㄺㅎㅣㄴㅡㄴ</w>": 26525,
  "ㄱㅘㅎㅏㄱㅇㅣ</w>": 32602,
  "ㅋㅏㅈㅣㄴㅗㄱ": 29742,
  "ㅇㅣㄱㅗㅇ": 27671,
  "ㅋㅓㄴㅌㅔㄴㅊㅡㄱㅏ</w>": 28645,
  "porn": 24907,
  "ㄱㅘㄷㅐㅎㅏㄱ</w>": 21987,
  "ㄱㅏㄴㅎㅐㅇ": 29803,
  "ㄱㅡㄹㅣㅁㅇㅢ</w>": 31207,
  "ic</w>": 3250,
  "ㅇㅏㅁㅎㅗㅎㅘ</w>": 14204,
  "ㄱㅐㅂㅕㄹ": 7644,
  "ㅇㅓㅄㅇㅡ": 12535,
  "ㅂㅏㄴㅉㅏㄱ": 16841,
  "light</w>": 22669,
  "ㅇㅏㄶㅇㅏㅆㄴㅡㄴㄷㅔ</w>": 20486,
  "ㅇㅓㅂㄱㅖㅇㅢ</w>": 17367,
  "Lee</w>": 21470,
  "ㅅㅣㅁㄹㅣㅎㅏㄱ</w>": 10556,
  "ㅇㅢㅁㅣㅎㅏㄴㅡㄴ</w>": 15030,
  "per</w>": 17826,
  "ㄴㅏㅁㅈㅏㅇㅢ</w>": 12761,
  "ㅋㅓㅋㅓㄹ": 21812,
[...]
