{
  "version": "1.0",
  "truncation": null,
  "padding": null,
  "added_tokens": [],
  "normalizer": null,
  "pre_tokenizer": {
    "type": "Whitespace"
  },
  "post_processor": null,
  "decoder": null,
  "model": {
    "type": "BPE",
    "dropout": null,
    "unk_token": null,
    "continuing_subword_prefix": null,
    "end_of_word_suffix": "</w>",
    "fuse_unk": false,
    "byte_fallback": false,
    "ignore_merges": false,
    "vocab": {
      "\u001c": 0,
      "\u001d": 1,
      "\u001e": 2,
      "\u001f": 3,
      "!": 4,
      "\"": 5,
      "'": 6,
      "(": 7,
      ")": 8,
      ",": 9,
      "-": 10,
      ".": 11,
      "/": 12,
      "0": 13,
      "1": 14,
      "2": 15,
      "3": 16,
      "4": 17,
      "5": 18,
      "6": 19,
      "7": 20,
      "8": 21,
      "9": 22,
      ":": 23,
      "?": 24,
      "@": 25,
      "A": 26,
      "B": 27,
      "C": 28,
      "D": 29,
      "E": 30,
      "F": 31,
      "G": 32,
      "H": 33,
      "I": 34,
      "J": 35,
      "K": 36,
      "L": 37,
      "M": 38,
      "N": 39,
      "O": 40,
      "P": 41,
      "Q": 42,
      "R": 43,
      "S": 44,
      "T": 45,
      "U": 46,
      "V": 47,
      "W": 48,
      "X": 49,
      "Y": 50,
      "Z": 51,
      "[": 52,
      "\\": 53,
      "]": 54,
      "a": 55,
      "b": 56,
      "c": 57,
      "d": 58,
      "e": 59,
      "f": 60,
      "g": 61,
      "h": 62,
      "i": 63,
      "j": 64,
      "k": 65,
      "l": 66,
      "m": 67,
      "n": 68,
      "o": 69,
      "p": 70,
      "q": 71,
      "r": 72,
      "s": 73,
      "t": 74,
      "u": 75,
      "v": 76,
      "w": 77,
      "x": 78,
      "y": 79,
      "z": 80,
      "{": 81,
      "}": 82,
      "가": 83,
      "각": 84,
      "갂": 85,
      "갃": 86,
      "간": 87,
      "갅": 88,
      "갇": 89,
      "갈": 90,
      "갉": 91,
      "갊": 92,
      "갋": 93,
      "갌": 94,
      "갏": 95,
      "감": 96,
      "갑": 97,
      "값": 98,
      "갓": 99,
      "갔": 100,
      "강": 101,
      "갖": 102,
      "갗": 103,
      "갘": 104,
      "같": 105,
      "갚": 106,
      "갛": 107,
      "개": 108,
      "객": 109,
      "갞": 110,
      "갠": 111,
      "갣": 112,
      "갤": 113,
      "갨": 114,
      "갬": 115,
      "갭": 116,
      "갯": 117,
      "갰": 118,
      "갱": 119,
      "갲": 120,
      "갴": 121,
      "갶": 122,
      "갷": 123,
      "갸": 124,
      "갹": 125,
      "갻": 126,
      "갼": 127,
      "걀": 128,
      "걁": 129,
      "걈": 130,
      "걉": 131,
      "걋": 132,
      "걌": 133,
      "걍": 134,
      "걑": 135,
      "걒": 136,
      "걔": 137,
      "걕": 138,
      "걘": 139,
      "걜": 140,
      "거": 141,
      "걱": 142,
      "걲": 143,
      "걳": 144,
      "건": 145,
      "걷": 146,
      "걸": 147,
      "걺": 148,
      "걿": 149,
      "검": 150,
      "겁": 151,
      "겂": 152,
      "것": 153,
      "겄": 154,
      "겅": 155,
      "겆": 156,
      "겇": 157,
      "겈": 158,
      "겉": 159,
      "겊": 160,
      "겋": 161,
      "게": 162,
      "겍": 163,
      "겎": 164,
      "겐": 165,
      "겓": 166,
      "겔": 167,
      "겜": 168,
      "겝": 169,
      "겟": 170,
      "겠": 171,
      "겡": 172,
      "겤": 173,
      "겥": 174,
      "겧": 175,
      "겨": 176,
      "격": 177,
      "겪": 178,
      "견": 179,
      "겮": 180,
      "겯": 181,
      "결": 182,
      "겱": 183,
      "겶": 184,
      "겷": 185,
      "겸": 186,
      "겹": 187,
      "겺": 188,
      "겻": 189,
      "겼": 190,
      "경": 191,
      "겿": 192,
      "곀": 193,
      "곁": 194,
      "곂": 195,
      "곃": 196,
      "계": 197,
      "곅": 198,
      "곈": 199,
      "곌": 200,
      "곕": 201,
      "곗": 202,
      "곘": 203,
      "곙": 204,
      "곚": 205,
      "고": 206,
      "곡": 207,
      "곤": 208,
      "곧": 209,
      "골": 210,
      "곪": 211,
      "곫": 212,
      "곬": 213,
      "곯": 214,
      "곰": 215,
      "곱": 216,
      "곳": 217,
      "공": 218,
      "곶": 219,
      "곷": 220,
      "곸": 221,
      "곹": 222,
      "곺": 223,
      "곻": 224,
      "과": 225,
      "곽": 226,
      "곾": 227,
      "관": 228,
      "괃": 229,
      "괄": 230,
      "괆": 231,
      "괌": 232,
      "괍": 233,
      "괏": 234,
      "괐": 235,
      "광": 236,
      "괒": 237,
      "괕": 238,
      "괘": 239,
      "괙": 240,
      "괜": 241,
      "괞": 242,
      "괬": 243,
      "괭": 244,
      "괯": 245,
      "괴": 246,
      "괵": 247,
      "괸": 248,
      "괺": 249,
      "괼": 250,
      "굄": 251,
      "굅": 252,
      "굇": 253,
      "굈": 254,
      "굉": 255,
      "교": 256,
      "굑": 257,
      "굔": 258,
      "굗": 259,
      "굘": 260,
      "굚": 261,
      "굛": 262,
      "굠": 263,
      "굡": 264,
      "굣": 265,
      "굥": 266,
      "굨": 267,
      "굩": 268,
      "굫": 269,
      "구": 270,
      "국": 271,
      "굮": 272,
      "굯": 273,
      "군": 274,
      "굳": 275,
      "굴": 276,
      "굵": 277,
      "굶": 278,
      "굷": 279,
      "굻": 280,
      "굼": 281,
      "굽": 282,
      "굿": 283,
      "궁": 284,
      "궂": 285,
      "궃": 286,
      "궄": 287,
      "궅": 288,
      "궆": 289,
      "궇": 290,
      "궈": 291,
      "궉": 292,
      "권": 293,
      "궍": 294,
      "궐": 295,
      "궑": 296,
      "궕": 297,
      "궘": 298,
      "궛": 299,
      "궜": 300,
      "궝": 301,
      "궢": 302,
      "궤": 303,
      "궥": 304,
      "궨": 305,
      "궬": 306,
      "궭": 307,
      "궯": 308,
      "궲": 309,
      "궴": 310,
      "궶": 311,
      "궷": 312,
      "궸": 313,
      "궼": 314,
      "궿": 315,
      "귀": 316,
      "귁": 317,
      "귄": 318,
      "귈": 319,
      "귐": 320,
      "귑": 321,
      "귓": 322,
      "귔": 323,
      "귕": 324,
      "귖": 325,
      "귗": 326,
      "규": 327,
      "귝": 328,
      "균": 329,
      "귤": 330,
      "귪": 331,
      "귬": 332,
      "귯": 333,
      "귱": 334,
      "그": 335,
      "극": 336,
      "귺": 337,
      "귻": 338,
      "근": 339,
      "귽": 340,
      "귾": 341,
      "귿": 342,
      "글": 343,
      "긁": 344,
      "긂": 345,
      "긃": 346,
      "긇": 347,
      "금": 348,
      "급": 349,
      "긋": 350,
      "긌": 351,
      "긍": 352,
      "긎": 353,
      "긐": 354,
      "긑": 355,
      "긓": 356,
      "긔": 357,
      "긕": 358,
      "긘": 359,
      "긜": 360,
      "긧": 361,
      "긩": 362,
      "기": 363,
      "긱": 364,
      "긴": 365,
      "긷": 366,
      "길": 367,
      "긹": 368,
      "긺": 369,
      "긾": 370,
      "긿": 371,
      "김": 372,
      "깁": 373,
      "깂": 374,
      "깃": 375,
      "깄": 376,
      "깅": 377,
      "깆": 378,
      "깇": 379,
      "깈": 380,
      "깉": 381,
      "깊": 382,
      "깋": 383,
      "까": 384,
      "깍": 385,
      "깎": 386,
      "깐": 387,
      "깓": 388,
      "깔": 389,
      "깖": 390,
      "깛": 391,
      "깜": 392,
      "깝": 393,
      "깞": 394,
      "깟": 395,
      "깠": 396,
      "깡": 397,
      "깢": 398,
      "깥": 399,
      "깦": 400,
      "깧": 401,
      "깨": 402,
      "깩": 403,
      "깪": 404,
      "깬": 405,
      "깯": 406,
      "깰": 407,
      "깵": 408,
      "깸": 409,
      "깹": 410,
      "깻": 411,
      "깼": 412,
      "깽": 413,
      "꺄": 414,
      "꺅": 415,
      "꺆": 416,
      "꺈": 417,
      "꺌": 418,
      "꺔": 419,
      "꺗": 420,
      "꺘": 421,
      "꺙": 422,
      "꺛": 423,
      "꺠": 424,
      "꺢": 425,
      "꺤": 426,
      "꺨": 427,
      "꺳": 428,
      "꺴": 429,
      "꺵": 430,
      "꺼": 431,
      "꺽": 432,
      "꺾": 433,
      "껀": 434,
      "껄": 435,
      "껌": 436,
      "껍": 437,
      "껏": 438,
      "껐": 439,
      "껑": 440,
      "껒": 441,
      "껔": 442,
      "껗": 443,
      "께": 444,
      "껙": 445,
      "껜": 446,
      "껟": 447,
      "껠": 448,
      "껨": 449,
      "껩": 450,
      "껫": 451,
      "껬": 452,
      "껭": 453,
      "껴": 454,
      "껵": 455,
      "껶": 456,
      "껸": 457,
      "껼": 458,
      "꼄": 459,
      "꼅": 460,
      "꼇": 461,
      "꼈": 462,
      "꼉": 463,
      "꼍": 464,
      "꼐": 465,
      "꼔": 466,
      "꼠": 467,
      "꼤": 468,
      "꼩": 469,
      "꼬": 470,
      "꼭": 471,
      "꼮": 472,
      "꼰": 473,
      "꼱": 474,
      "꼲": 475,
      "꼳": 476,
      "꼴": 477,
      "꼻": 478,
      "꼼": 479,
      "꼽": 480,
      "꼿": 481,
      "꽁": 482,
      "꽂": 483,
      "꽃": 484,
      "꽅": 485,
      "꽆": 486,
      "꽇": 487,
      "꽈": 488,
      "꽉": 489,
      "꽊": 490,
      "꽌": 491,
      "꽐": 492,
      "꽙": 493,
      "꽛": 494,
      "꽜": 495,
      "꽝": 496,
      "꽤": 497,
      "꽥": 498,
      "꽨": 499,
      "꽶": 500,
      "꽹": 501,
      "꾀": 502,
      "꾁": 503,
      "꾄": 504,
      "꾈": 505,
      "꾐": 506,
      "꾑": 507,
      "꾕": 508,
      "꾜": 509,
      "꾝": 510,
      "꾭": 511,
      "꾯": 512,
      "꾱": 513,
      "꾲": 514,
      "꾳": 515,
      "꾸": 516,
      "꾹": 517,
      "꾼": 518,
      "꾾": 519,
      "꾿": 520,
      "꿀": 521,
      "꿁": 522,
      "꿂": 523,
      "꿅": 524,
      "꿇": 525,
      "꿈": 526,
      "꿉": 527,
      "꿋": 528,
      "꿍": 529,
      "꿎": 530,
      "꿏": 531,
      "꿑": 532,
      "꿓": 533,
      "꿔": 534,
      "꿕": 535,
      "꿘": 536,
      "꿜": 537,
      "꿧": 538,
      "꿨": 539,
      "꿩": 540,
      "꿰": 541,
      "꿱": 542,
      "꿴": 543,
      "꿸": 544,
      "꿿": 545,
      "뀀": 546,
      "뀃": 547,
      "뀄": 548,
      "뀌": 549,
      "뀍": 550,
      "뀐": 551,
      "뀔": 552,
      "뀕": 553,
      "뀜": 554,
      "뀝": 555,
      "뀠": 556,
      "뀨": 557,
      "뀬": 558,
      "뀰": 559,
      "뀹": 560,
      "뀽": 561,
      "끁": 562,
      "끄": 563,
      "끅": 564,
      "끈": 565,
      "끉": 566,
      "끊": 567,
      "끋": 568,
      "끌": 569,
      "끍": 570,
      "끎": 571,
      "끓": 572,
      "끔": 573,
      "끕": 574,
      "끗": 575,
      "끘": 576,
      "끙": 577,
      "끚": 578,
      "끛": 579,
      "끝": 580,
      "끟": 581,
      "끠": 582,
      "끤": 583,
      "끨": 584,
      "끰": 585,
      "끸": 586,
      "끼": 587,
      "끽": 588,
      "낀": 589,
      "낄": 590,
      "낌": 591,
      "낍": 592,
      "낏": 593,
      "낑": 594,
      "낒": 595,
      "나": 596,
      "낙": 597,
      "낚": 598,
      "낛": 599,
      "난": 600,
      "낞": 601,
      "낟": 602,
      "날": 603,
      "낡": 604,
      "낢": 605,
      "낣": 606,
      "낧": 607,
      "남": 608,
      "납": 609,
      "낫": 610,
      "났": 611,
      "낭": 612,
      "낮": 613,
      "낯": 614,
      "낰": 615,
      "낱": 616,
      "낲": 617,
      "낳": 618,
      "내": 619,
      "낵": 620,
      "낸": 621,
      "낹": 622,
      "낻": 623,
      "낼": 624,
      "냄": 625,
      "냅": 626,
      "냇": 627,
      "냈": 628,
      "냉": 629,
      "냊": 630,
      "냍": 631,
      "냎": 632,
      "냏": 633,
      "냐": 634,
      "냑": 635,
      "냔": 636,
      "냘": 637,
      "냛": 638,
      "냠": 639,
      "냡": 640,
      "냣": 641,
      "냤": 642,
      "냥": 643,
      "냬": 644,
      "냰": 645,
      "냴": 646,
      "넀": 647,
      "너": 648,
      "넉": 649,
      "넊": 650,
      "넋": 651,
      "넌": 652,
      "넎": 653,
      "널": 654,
      "넑": 655,
      "넒": 656,
      "넓": 657,
      "넖": 658,
      "넗": 659,
      "넘": 660,
      "넙": 661,
      "넚": 662,
      "넛": 663,
      "넜": 664,
      "넝": 665,
      "넞": 666,
      "넟": 667,
      "넠": 668,
      "넡": 669,
      "넢": 670,
      "넣": 671,
      "네": 672,
      "넥": 673,
      "넧": 674,
      "넨": 675,
      "넫": 676,
      "넬": 677,
      "넭": 678,
      "넮": 679,
      "넯": 680,
      "넰": 681,
      "넴": 682,
      "넵": 683,
      "넷": 684,
      "넸": 685,
      "넹": 686,
      "넺": 687,
      "넻": 688,
      "넼": 689,
      "넽": 690,
      "넾": 691,
      "녀": 692,
      "녁": 693,
      "녂": 694,
      "녃": 695,
      "년": 696,
      "녅": 697,
      "녇": 698,
      "녈": 699,
      "녉": 700,
      "녋": 701,
      "념": 702,
      "녑": 703,
      "녓": 704,
      "녔": 705,
      "녕": 706,
      "녘": 707,
      "녙": 708,
      "녛": 709,
      "녜": 710,
      "녠": 711,
      "녤": 712,
      "녯": 713,
      "노": 714,
      "녹": 715,
      "녺": 716,
      "논": 717,
      "녿": 718,
      "놀": 719,
      "놂": 720,
      "놃": 721,
      "놆": 722,
      "놈": 723,
      "놉": 724,
      "놋": 725,
      "놌": 726,
      "농": 727,
      "놎": 728,
      "놏": 729,
      "놐": 730,
      "놑": 731,
      "높": 732,
      "놓": 733,
      "놔": 734,
      "놕": 735,
      "놘": 736,
      "놧": 737,
      "놨": 738,
      "놩": 739,
      "놯": 740,
      "놰": 741,
      "뇌": 742,
      "뇐": 743,
      "뇔": 744,
      "뇟": 745,
      "뇡": 746,
      "뇨": 747,
      "뇩": 748,
      "뇬": 749,
      "뇰": 750,
      "뇸": 751,
      "뇹": 752,
      "뇻": 753,
      "뇽": 754,
      "눁": 755,
      "눂": 756,
      "누": 757,
      "눅": 758,
      "눇": 759,
      "눈": 760,
      "눉": 761,
      "눋": 762,
      "눌": 763,
      "눍": 764,
      "눔": 765,
      "눕": 766,
      "눗": 767,
      "눙": 768,
      "눚": 769,
      "눝": 770,
      "눞": 771,
      "눟": 772,
      "눠": 773,
      "눤": 774,
      "눨": 775,
      "눳": 776,
      "눴": 777,
      "눵": 778,
      "눶": 779,
      "눼": 780,
      "뉄": 781,
      "뉍": 782,
      "뉘": 783,
      "뉙": 784,
      "뉜": 785,
      "뉠": 786,
      "뉨": 787,
      "뉩": 788,
      "뉭": 789,
      "뉴": 790,
      "뉵": 791,
      "뉸": 792,
      "뉼": 793,
      "늄": 794,
      "늅": 795,
      "늇": 796,
      "늉": 797,
      "늍": 798,
      "느": 799,
      "늑": 800,
      "늒": 801,
      "는": 802,
      "늕": 803,
      "늖": 804,
      "늗": 805,
      "늘": 806,
      "늙": 807,
      "늚": 808,
      "늟": 809,
      "늠": 810,
      "늡": 811,
      "늣": 812,
      "능": 813,
      "늦": 814,
      "늧": 815,
      "늨": 816,
      "늩": 817,
      "늪": 818,
      "늫": 819,
      "늬": 820,
      "늰": 821,
      "늴": 822,
      "늼": 823,
      "늿": 824,
      "닁": 825,
      "니": 826,
      "닉": 827,
      "닊": 828,
      "닌": 829,
      "닏": 830,
      "닐": 831,
      "닑": 832,
      "닒": 833,
      "님": 834,
      "닙": 835,
      "닛": 836,
      "닜": 837,
      "닝": 838,
      "닞": 839,
      "닟": 840,
      "닠": 841,
      "닡": 842,
      "닢": 843,
      "닣": 844,
      "다": 845,
      "닥": 846,
      "닦": 847,
      "단": 848,
      "닩": 849,
      "닪": 850,
      "닫": 851,
      "달": 852,
      "닭": 853,
      "닮": 854,
      "닯": 855,
      "닲": 856,
      "닳": 857,
      "담": 858,
      "답": 859,
      "닶": 860,
      "닷": 861,
      "닸": 862,
      "당": 863,
      "닺": 864,
      "닻": 865,
      "닼": 866,
      "닽": 867,
      "닾": 868,
      "닿": 869,
      "대": 870,
      "댁": 871,
      "댄": 872,
      "댇": 873,
      "댈": 874,
      "댐": 875,
      "댑": 876,
      "댓": 877,
      "댔": 878,
      "댕": 879,
      "댖": 880,
      "댚": 881,
      "댛": 882,
      "댜": 883,
      "댝": 884,
      "댠": 885,
      "댤": 886,
      "댬": 887,
      "댭": 888,
      "댯": 889,
      "댱": 890,
      "댸": 891,
      "덋": 892,
      "덍": 893,
      "더": 894,
      "덕": 895,
      "덖": 896,
      "덗": 897,
      "던": 898,
      "덙": 899,
      "덚": 900,
      "덛": 901,
      "덜": 902,
      "덞": 903,
      "덟": 904,
      "덢": 905,
      "덣": 906,
      "덤": 907,
      "덥": 908,
      "덦": 909,
      "덧": 910,
      "덨": 911,
      "덩": 912,
      "덪": 913,
      "덫": 914,
      "덬": 915,
      "덭": 916,
      "덮": 917,
      "덯": 918,
      "데": 919,
      "덱": 920,
      "덴": 921,
      "덷": 922,
      "델": 923,
      "뎀": 924,
      "뎁": 925,
      "뎃": 926,
      "뎄": 927,
      "뎅": 928,
      "뎆": 929,
      "뎇": 930,
      "뎈": 931,
      "뎉": 932,
      "뎊": 933,
      "뎌": 934,
      "뎍": 935,
      "뎐": 936,
      "뎔": 937,
      "뎗": 938,
      "뎜": 939,
      "뎠": 940,
      "뎡": 941,
      "뎢": 942,
      "뎦": 943,
      "뎨": 944,
      "뎬": 945,
      "뎶": 946,
      "뎼": 947,
      "뎽": 948,
      "돃": 949,
      "도": 950,
      "독": 951,
      "돈": 952,
      "돋": 953,
      "돌": 954,
      "돍": 955,
      "돎": 956,
      "돐": 957,
      "돓": 958,
      "돔": 959,
      "돕": 960,
      "돗": 961,
      "동": 962,
      "돚": 963,
      "돛": 964,
      "돜": 965,
      "돝": 966,
      "돞": 967,
      "돟": 968,
      "돠": 969,
      "돡": 970,
      "돤": 971,
      "돨": 972,
      "돰": 973,
      "돱": 974,
      "돳": 975,
      "돴": 976,
      "돵": 977,
      "돸": 978,
      "돼": 979,
      "됀": 980,
      "됄": 981,
      "됌": 982,
      "됍": 983,
      "됏": 984,
      "됐": 985,
      "됑": 986,
      "되": 987,
      "됙": 988,
      "된": 989,
      "됟": 990,
      "될": 991,
      "됢": 992,
      "됨": 993,
      "됩": 994,
      "됫": 995,
      "됬": 996,
      "됭": 997,
      "됮": 998,
      "됴": 999,
      "됸": 1000,
      "둁": 1001,
      "둉": 1002,
      "둏": 1003,
      "두": 1004,
      "둑": 1005,
      "둒": 1006,
      "둔": 1007,
      "둗": 1008,
      "둘": 1009,
      "둚": 1010,
      "둟": 1011,
      "둠": 1012,
      "둡": 1013,
      "둣": 1014,
      "둥": 1015,
      "둨": 1016,
      "둬": 1017,
      "둭": 1018,
      "둰": 1019,
      "둴": 1020,
      "둿": 1021,
      "뒀": 1022,
      "뒁": 1023,
      "뒈": 1024,
      "뒙": 1025,
      "뒜": 1026,
      "뒝": 1027,
      "뒤": 1028,
      "뒥": 1029,
      "뒨": 1030,
      "뒫": 1031,
      "뒬": 1032,
      "뒵": 1033,
      "뒷": 1034,
      "뒹": 1035,
      "뒺": 1036,
      "듀": 1037,
      "듁": 1038,
      "듄": 1039,
      "듈": 1040,
      "듐": 1041,
      "듑": 1042,
      "듕": 1043,
      "드": 1044,
      "득": 1045,
      "듞": 1046,
      "든": 1047,
      "듡": 1048,
      "듣": 1049,
      "들": 1050,
      "듥": 1051,
      "듦": 1052,
      "듧": 1053,
      "듩": 1054,
      "듫": 1055,
      "듬": 1056,
      "듭": 1057,
      "듯": 1058,
      "등": 1059,
      "듲": 1060,
      "듳": 1061,
      "듴": 1062,
      "듵": 1063,
      "듶": 1064,
      "듷": 1065,
      "듸": 1066,
      "듼": 1067,
      "딃": 1068,
      "딈": 1069,
      "딉": 1070,
      "딋": 1071,
      "디": 1072,
      "딕": 1073,
      "딘": 1074,
      "딛": 1075,
      "딜": 1076,
      "딝": 1077,
      "딤": 1078,
      "딥": 1079,
      "딧": 1080,
      "딨": 1081,
      "딩": 1082,
      "딪": 1083,
      "딫": 1084,
      "딬": 1085,
      "딭": 1086,
      "딮": 1087,
      "딯": 1088,
      "따": 1089,
      "딱": 1090,
      "딲": 1091,
      "딴": 1092,
      "딷": 1093,
      "딸": 1094,
      "딹": 1095,
      "딻": 1096,
      "딿": 1097,
      "땀": 1098,
      "땁": 1099,
      "땃": 1100,
      "땄": 1101,
      "땅": 1102,
      "땆": 1103,
      "땈": 1104,
      "땋": 1105,
      "때": 1106,
      "땍": 1107,
      "땐": 1108,
      "땔": 1109,
      "땗": 1110,
      "땜": 1111,
      "땝": 1112,
      "땟": 1113,
      "땠": 1114,
      "땡": 1115,
      "땧": 1116,
      "땨": 1117,
      "땰": 1118,
      "땽": 1119,
      "떄": 1120,
      "떅": 1121,
      "떈": 1122,
      "떌": 1123,
      "떔": 1124,
      "떗": 1125,
      "떘": 1126,
      "떙": 1127,
      "떠": 1128,
      "떡": 1129,
      "떢": 1130,
      "떤": 1131,
      "떦": 1132,
      "떧": 1133,
      "떨": 1134,
      "떪": 1135,
      "떫": 1136,
      "떯": 1137,
      "떰": 1138,
      "떱": 1139,
      "떳": 1140,
      "떴": 1141,
      "떵": 1142,
      "떻": 1143,
      "떼": 1144,
      "떽": 1145,
      "떾": 1146,
      "뗀": 1147,
      "뗄": 1148,
      "뗇": 1149,
      "뗌": 1150,
      "뗍": 1151,
      "뗏": 1152,
      "뗐": 1153,
      "뗑": 1154,
      "뗗": 1155,
      "뗘": 1156,
      "뗙": 1157,
      "뗜": 1158,
      "뗠": 1159,
      "뗫": 1160,
      "뗬": 1161,
      "뗳": 1162,
      "뗴": 1163,
      "뗵": 1164,
      "뗸": 1165,
      "뗼": 1166,
      "똇": 1167,
      "똈": 1168,
      "또": 1169,
      "똑": 1170,
      "똒": 1171,
      "똔": 1172,
      "똗": 1173,
      "똘": 1174,
      "똟": 1175,
      "똠": 1176,
      "똣": 1177,
      "똥": 1178,
      "똫": 1179,
      "똬": 1180,
      "똭": 1181,
      "똮": 1182,
      "똻": 1183,
      "똿": 1184,
      "뙁": 1185,
      "뙇": 1186,
      "뙈": 1187,
      "뙌": 1188,
      "뙤": 1189,
      "뙨": 1190,
      "뚀": 1191,
      "뚁": 1192,
      "뚓": 1193,
      "뚔": 1194,
      "뚕": 1195,
      "뚜": 1196,
      "뚝": 1197,
      "뚞": 1198,
      "뚠": 1199,
      "뚤": 1200,
      "뚥": 1201,
      "뚦": 1202,
      "뚧": 1203,
      "뚫": 1204,
      "뚬": 1205,
      "뚭": 1206,
      "뚯": 1207,
      "뚱": 1208,
      "뚵": 1209,
      "뚷": 1210,
      "뚸": 1211,
      "뛀": 1212,
      "뛇": 1213,
      "뛋": 1214,
      "뛔": 1215,
      "뛩": 1216,
      "뛰": 1217,
      "뛱": 1218,
      "뛴": 1219,
      "뛸": 1220,
      "뜀": 1221,
      "뜁": 1222,
      "뜃": 1223,
      "뜅": 1224,
      "뜌": 1225,
      "뜍": 1226,
      "뜐": 1227,
      "뜔": 1228,
      "뜛": 1229,
      "뜜": 1230,
      "뜝": 1231,
      "뜡": 1232,
      "뜨": 1233,
      "뜩": 1234,
      "뜬": 1235,
      "뜯": 1236,
      "뜰": 1237,
      "뜱": 1238,
      "뜶": 1239,
      "뜷": 1240,
      "뜸": 1241,
      "뜹": 1242,
      "뜻": 1243,
      "뜼": 1244,
      "뜽": 1245,
      "뜾": 1246,
      "뜿": 1247,
      "띁": 1248,
      "띃": 1249,
      "띄": 1250,
      "띅": 1251,
      "띈": 1252,
      "띌": 1253,
      "띔": 1254,
      "띕": 1255,
      "띙": 1256,
      "띠": 1257,
      "띡": 1258,
      "띤": 1259,
      "띨": 1260,
      "띰": 1261,
      "띱": 1262,
      "띳": 1263,
      "띵": 1264,
      "띺": 1265,
      "라": 1266,
      "락": 1267,
      "띾": 1268,
      "란": 1269,
      "랃": 1270,
      "랄": 1271,
      "랅": 1272,
      "랆": 1273,
      "람": 1274,
      "랍": 1275,
      "랎": 1276,
      "랏": 1277,
      "랐": 1278,
      "랑": 1279,
      "랒": 1280,
      "랓": 1281,
      "랔": 1282,
      "랖": 1283,
      "랗": 1284,
      "래": 1285,
      "랙": 1286,
      "랜": 1287,
      "랟": 1288,
      "랠": 1289,
      "랡": 1290,
      "랦": 1291,
      "램": 1292,
      "랩": 1293,
      "랫": 1294,
      "랬": 1295,
      "랭": 1296,
      "랮": 1297,
      "랰": 1298,
      "랲": 1299,
      "랳": 1300,
      "랴": 1301,
      "략": 1302,
      "랸": 1303,
      "랼": 1304,
      "랽": 1305,
      "럄": 1306,
      "럅": 1307,
      "럇": 1308,
      "럈": 1309,
      "량": 1310,
      "럏": 1311,
      "럐": 1312,
      "럠": 1313,
      "럣": 1314,
      "럤": 1315,
      "러": 1316,
      "럭": 1317,
      "럮": 1318,
      "럯": 1319,
      "런": 1320,
      "럱": 1321,
      "럲": 1322,
      "럳": 1323,
      "럴": 1324,
      "럵": 1325,
      "럶": 1326,
      "럷": 1327,
      "럸": 1328,
      "럻": 1329,
      "럼": 1330,
      "럽": 1331,
      "럾": 1332,
      "럿": 1333,
      "렀": 1334,
      "렁": 1335,
      "렃": 1336,
      "렇": 1337,
      "레": 1338,
      "렉": 1339,
      "렌": 1340,
      "렍": 1341,
      "렏": 1342,
      "렐": 1343,
      "렘": 1344,
      "렙": 1345,
      "렛": 1346,
      "렜": 1347,
      "렝": 1348,
      "렞": 1349,
      "렠": 1350,
      "렡": 1351,
      "렢": 1352,
      "려": 1353,
      "력": 1354,
      "렦": 1355,
      "련": 1356,
      "렫": 1357,
      "렬": 1358,
      "렴": 1359,
      "렵": 1360,
      "렶": 1361,
      "렷": 1362,
      "렸": 1363,
      "령": 1364,
      "렺": 1365,
      "렼": 1366,
      "렾": 1367,
      "렿": 1368,
      "례": 1369,
      "롁": 1370,
      "롄": 1371,
      "롑": 1372,
      "롓": 1373,
      "로": 1374,
      "록": 1375,
      "롞": 1376,
      "롟": 1377,
      "론": 1378,
      "롣": 1379,
      "롤": 1380,
      "롬": 1381,
      "롭": 1382,
      "롯": 1383,
      "롱": 1384,
      "롲": 1385,
      "롴": 1386,
      "롵": 1387,
      "롶": 1388,
      "롷": 1389,
      "롸": 1390,
      "롹": 1391,
      "롼": 1392,
      "뢀": 1393,
      "뢈": 1394,
      "뢉": 1395,
      "뢋": 1396,
      "뢌": 1397,
      "뢍": 1398,
      "뢔": 1399,
      "뢘": 1400,
      "뢥": 1401,
      "뢰": 1402,
      "뢱": 1403,
      "뢴": 1404,
      "뢸": 1405,
      "뢾": 1406,
      "뢿": 1407,
      "룀": 1408,
      "룁": 1409,
      "룃": 1410,
      "룅": 1411,
      "료": 1412,
      "룍": 1413,
      "룏": 1414,
      "룐": 1415,
      "룑": 1416,
      "룔": 1417,
      "룕": 1418,
      "룖": 1419,
      "룜": 1420,
      "룝": 1421,
      "룟": 1422,
      "룡": 1423,
      "룦": 1424,
      "루": 1425,
      "룩": 1426,
      "룬": 1427,
      "룰": 1428,
      "룳": 1429,
      "룸": 1430,
      "룹": 1431,
      "룻": 1432,
      "룽": 1433,
      "룾": 1434,
      "뤀": 1435,
      "뤂": 1436,
      "뤃": 1437,
      "뤄": 1438,
      "뤈": 1439,
      "뤌": 1440,
      "뤗": 1441,
      "뤘": 1442,
      "뤙": 1443,
      "뤠": 1444,
      "뤡": 1445,
      "뤤": 1446,
      "뤨": 1447,
      "뤩": 1448,
      "뤫": 1449,
      "뤱": 1450,
      "뤼": 1451,
      "뤽": 1452,
      "륀": 1453,
      "륄": 1454,
      "륌": 1455,
      "륍": 1456,
      "륏": 1457,
      "륑": 1458,
      "류": 1459,
      "륙": 1460,
      "륚": 1461,
      "륜": 1462,
      "률": 1463,
      "륨": 1464,
      "륩": 1465,
      "륫": 1466,
      "륭": 1467,
      "륮": 1468,
      "륲": 1469,
      "륳": 1470,
      "르": 1471,
      "륵": 1472,
      "른": 1473,
      "륻": 1474,
      "를": 1475,
      "륽": 1476,
      "륾": 1477,
      "륿": 1478,
      "릀": 1479,
      "릂": 1480,
      "릃": 1481,
      "름": 1482,
      "릅": 1483,
      "릆": 1484,
      "릇": 1485,
      "릈": 1486,
      "릉": 1487,
      "릊": 1488,
      "릋": 1489,
      "릌": 1490,
      "릍": 1491,
      "릎": 1492,
      "릏": 1493,
      "릐": 1494,
      "릔": 1495,
      "릘": 1496,
      "릠": 1497,
      "릡": 1498,
      "릥": 1499,
      "릫": 1500,
      "리": 1501,
      "릭": 1502,
      "릮": 1503,
      "린": 1504,
      "릱": 1505,
      "릲": 1506,
      "릳": 1507,
      "릴": 1508,
      "릵": 1509,
      "림": 1510,
      "립": 1511,
      "릾": 1512,
      "릿": 1513,
      "맀": 1514,
      "링": 1515,
      "맂": 1516,
      "맃": 1517,
      "맄": 1518,
      "맅": 1519,
      "맆": 1520,
      "맇": 1521,
      "마": 1522,
      "막": 1523,
      "맊": 1524,
      "맋": 1525,
      "만": 1526,
      "맍": 1527,
      "많": 1528,
      "맏": 1529,
      "말": 1530,
      "맑": 1531,
      "맒": 1532,
      "맓": 1533,
      "맔": 1534,
      "맕": 1535,
      "맗": 1536,
      "맘": 1537,
      "맙": 1538,
      "맛": 1539,
      "맜": 1540,
      "망": 1541,
      "맞": 1542,
      "맟": 1543,
      "맠": 1544,
      "맡": 1545,
      "맢": 1546,
      "맣": 1547,
      "매": 1548,
      "맥": 1549,
      "맦": 1550,
      "맨": 1551,
      "맫": 1552,
      "맬": 1553,
      "맴": 1554,
      "맵": 1555,
      "맷": 1556,
      "맸": 1557,
      "맹": 1558,
      "맺": 1559,
      "맻": 1560,
      "맼": 1561,
      "맽": 1562,
      "맿": 1563,
      "먀": 1564,
      "먁": 1565,
      "먄": 1566,
      "먈": 1567,
      "먐": 1568,
      "먕": 1569,
      "먖": 1570,
      "먗": 1571,
      "먜": 1572,
      "먠": 1573,
      "머": 1574,
      "먹": 1575,
      "먺": 1576,
      "먻": 1577,
      "먼": 1578,
      "먽": 1579,
      "먾": 1580,
      "먿": 1581,
      "멀": 1582,
      "멂": 1583,
      "멄": 1584,
      "멅": 1585,
      "멈": 1586,
      "멉": 1587,
      "멊": 1588,
      "멋": 1589,
      "멌": 1590,
      "멍": 1591,
      "멎": 1592,
      "멏": 1593,
      "멐": 1594,
      "멑": 1595,
      "멒": 1596,
      "멓": 1597,
      "메": 1598,
      "멕": 1599,
      "멘": 1600,
      "멜": 1601,
      "멤": 1602,
      "멥": 1603,
      "멧": 1604,
      "멨": 1605,
      "멩": 1606,
      "멪": 1607,
      "멫": 1608,
      "멬": 1609,
      "멭": 1610,
      "멮": 1611,
      "며": 1612,
      "멱": 1613,
      "면": 1614,
      "멵": 1615,
      "멶": 1616,
      "멷": 1617,
      "멸": 1618,
      "몀": 1619,
      "몃": 1620,
      "몄": 1621,
      "명": 1622,
      "몆": 1623,
      "몇": 1624,
      "몈": 1625,
      "몉": 1626,
      "몊": 1627,
      "몋": 1628,
      "몌": 1629,
      "몐": 1630,
      "몔": 1631,
      "몜": 1632,
      "몟": 1633,
      "몠": 1634,
      "모": 1635,
      "목": 1636,
      "몪": 1637,
      "몫": 1638,
      "몬": 1639,
      "몮": 1640,
      "몯": 1641,
      "몰": 1642,
      "몱": 1643,
      "몲": 1644,
      "몴": 1645,
      "몵": 1646,
      "몸": 1647,
      "몹": 1648,
      "못": 1649,
      "몼": 1650,
      "몽": 1651,
      "몾": 1652,
      "몿": 1653,
      "뫁": 1654,
      "뫂": 1655,
      "뫃": 1656,
      "뫄": 1657,
      "뫅": 1658,
      "뫈": 1659,
      "뫌": 1660,
      "뫔": 1661,
      "뫘": 1662,
      "뫙": 1663,
      "뫜": 1664,
      "뫠": 1665,
      "뫤": 1666,
      "뫼": 1667,
      "묀": 1668,
      "묄": 1669,
      "묏": 1670,
      "묘": 1671,
      "묙": 1672,
      "묜": 1673,
      "묠": 1674,
      "묨": 1675,
      "묫": 1676,
      "묭": 1677,
      "묯": 1678,
      "무": 1679,
      "묵": 1680,
      "묶": 1681,
      "묷": 1682,
      "문": 1683,
      "묹": 1684,
      "묺": 1685,
      "묻": 1686,
      "물": 1687,
      "묽": 1688,
      "묾": 1689,
      "뭃": 1690,
      "뭄": 1691,
      "뭅": 1692,
      "뭇": 1693,
      "뭈": 1694,
      "뭉": 1695,
      "뭊": 1696,
      "뭋": 1697,
      "뭌": 1698,
      "뭍": 1699,
      "뭎": 1700,
      "뭏": 1701,
      "뭐": 1702,
      "뭑": 1703,
      "뭔": 1704,
      "뭗": 1705,
      "뭘": 1706,
      "뭠": 1707,
      "뭡": 1708,
      "뭣": 1709,
      "뭤": 1710,
      "뭥": 1711,
      "뭩": 1712,
      "뭬": 1713,
      "뭰": 1714,
      "뭴": 1715,
      "뭽": 1716,
      "뮈": 1717,
      "뮌": 1718,
      "뮐": 1719,
      "뮘": 1720,
      "뮙": 1721,
      "뮝": 1722,
      "뮤": 1723,
      "뮥": 1724,
      "뮦": 1725,
      "뮨": 1726,
      "뮬": 1727,
      "뮴": 1728,
      "뮹": 1729,
      "므": 1730,
      "믁": 1731,
      "믄": 1732,
      "믈": 1733,
      "믐": 1734,
      "믑": 1735,
      "믓": 1736,
      "믕": 1737,
      "믖": 1738,
      "믙": 1739,
      "믛": 1740,
      "믜": 1741,
      "믠": 1742,
      "믤": 1743,
      "믱": 1744,
      "미": 1745,
      "믹": 1746,
      "믺": 1747,
      "믻": 1748,
      "민": 1749,
      "믾": 1750,
      "믿": 1751,
      "밀": 1752,
      "밁": 1753,
      "밂": 1754,
      "밃": 1755,
      "밈": 1756,
      "밉": 1757,
      "밊": 1758,
      "밋": 1759,
      "밌": 1760,
      "밍": 1761,
      "밎": 1762,
      "및": 1763,
      "밐": 1764,
      "밑": 1765,
      "밒": 1766,
      "밓": 1767,
      "바": 1768,
      "박": 1769,
      "밖": 1770,
      "밗": 1771,
      "반": 1772,
      "밙": 1773,
      "밚": 1774,
      "받": 1775,
      "발": 1776,
      "밝": 1777,
      "밞": 1778,
      "밟": 1779,
      "밠": 1780,
      "밡": 1781,
      "밢": 1782,
      "밣": 1783,
      "밤": 1784,
      "밥": 1785,
      "밧": 1786,
      "밨": 1787,
      "방": 1788,
      "밪": 1789,
      "밫": 1790,
      "밬": 1791,
      "밭": 1792,
      "밮": 1793,
      "밯": 1794,
      "배": 1795,
      "백": 1796,
      "밲": 1797,
      "밴": 1798,
      "밷": 1799,
      "밸": 1800,
      "밹": 1801,
      "뱀": 1802,
      "뱁": 1803,
      "뱃": 1804,
      "뱄": 1805,
      "뱅": 1806,
      "뱆": 1807,
      "뱇": 1808,
      "뱉": 1809,
      "뱋": 1810,
      "뱌": 1811,
      "뱍": 1812,
      "뱎": 1813,
      "뱐": 1814,
      "뱔": 1815,
      "뱜": 1816,
      "뱝": 1817,
      "뱟": 1818,
      "뱡": 1819,
      "뱶": 1820,
      "뱽": 1821,
      "버": 1822,
      "벅": 1823,
      "벆": 1824,
      "번": 1825,
      "벋": 1826,
      "벌": 1827,
      "벎": 1828,
      "벏": 1829,
      "벒": 1830,
      "범": 1831,
      "법": 1832,
      "벗": 1833,
      "벘": 1834,
      "벙": 1835,
      "벚": 1836,
      "벛": 1837,
      "벜": 1838,
      "벝": 1839,
      "벞": 1840,
      "벟": 1841,
      "베": 1842,
      "벡": 1843,
      "벤": 1844,
      "벧": 1845,
      "벨": 1846,
      "벩": 1847,
      "벫": 1848,
      "벰": 1849,
      "벱": 1850,
      "벳": 1851,
      "벴": 1852,
      "벵": 1853,
      "벹": 1854,
      "벺": 1855,
      "벻": 1856,
      "벼": 1857,
      "벽": 1858,
      "벾": 1859,
      "변": 1860,
      "볁": 1861,
      "볂": 1862,
      "볃": 1863,
      "별": 1864,
      "볅": 1865,
      "볌": 1866,
      "볍": 1867,
      "볏": 1868,
      "볐": 1869,
      "병": 1870,
      "볒": 1871,
      "볓": 1872,
      "볔": 1873,
      "볕": 1874,
      "볗": 1875,
      "볘": 1876,
      "볜": 1877,
      "볠": 1878,
      "볧": 1879,
      "볱": 1880,
      "보": 1881,
      "복": 1882,
      "볶": 1883,
      "볷": 1884,
      "본": 1885,
      "볹": 1886,
      "볻": 1887,
      "볼": 1888,
      "볽": 1889,
      "볾": 1890,
      "볿": 1891,
      "봄": 1892,
      "봅": 1893,
      "봇": 1894,
      "봈": 1895,
      "봉": 1896,
      "봊": 1897,
      "봌": 1898,
      "봍": 1899,
      "봏": 1900,
      "봐": 1901,
      "봑": 1902,
      "봒": 1903,
      "봔": 1904,
      "봘": 1905,
      "봙": 1906,
      "봠": 1907,
      "봡": 1908,
      "봣": 1909,
      "봤": 1910,
      "봥": 1911,
      "봫": 1912,
      "봬": 1913,
      "봰": 1914,
      "봴": 1915,
      "봷": 1916,
      "봽": 1917,
      "뵀": 1918,
      "뵈": 1919,
      "뵉": 1920,
      "뵌": 1921,
      "뵐": 1922,
      "뵘": 1923,
      "뵙": 1924,
      "뵜": 1925,
      "뵞": 1926,
      "뵠": 1927,
      "뵤": 1928,
      "뵥": 1929,
      "뵨": 1930,
      "뵬": 1931,
      "뵷": 1932,
      "뵹": 1933,
      "부": 1934,
      "북": 1935,
      "붂": 1936,
      "분": 1937,
      "붅": 1938,
      "붆": 1939,
      "붇": 1940,
      "불": 1941,
      "붉": 1942,
      "붊": 1943,
      "붌": 1944,
      "붎": 1945,
      "붐": 1946,
      "붑": 1947,
      "붓": 1948,
      "붕": 1949,
      "붖": 1950,
      "붗": 1951,
      "붘": 1952,
      "붙": 1953,
      "붚": 1954,
      "붛": 1955,
      "붜": 1956,
      "붠": 1957,
      "붤": 1958,
      "붰": 1959,
      "붱": 1960,
      "붴": 1961,
      "붸": 1962,
      "붹": 1963,
      "뷀": 1964,
      "뷁": 1965,
      "뷃": 1966,
      "뷄": 1967,
      "뷉": 1968,
      "뷔": 1969,
      "뷕": 1970,
      "뷘": 1971,
      "뷜": 1972,
      "뷧": 1973,
      "뷩": 1974,
      "뷰": 1975,
      "뷱": 1976,
      "뷴": 1977,
      "뷸": 1978,
      "뷹": 1979,
      "븀": 1980,
      "븃": 1981,
      "븅": 1982,
      "븉": 1983,
      "브": 1984,
      "븍": 1985,
      "븐": 1986,
      "븓": 1987,
      "블": 1988,
      "븕": 1989,
      "븘": 1990,
      "븛": 1991,
      "븜": 1992,
      "븝": 1993,
      "븟": 1994,
      "븡": 1995,
      "븥": 1996,
      "븧": 1997,
      "븨": 1998,
      "븬": 1999,
      "븸": 2000,
      "븽": 2001,
      "비": 2002,
      "빅": 2003,
      "빆": 2004,
      "빇": 2005,
      "빈": 2006,
      "빋": 2007,
      "빌": 2008,
      "빍": 2009,
      "빎": 2010,
      "빔": 2011,
      "빕": 2012,
      "빗": 2013,
      "빙": 2014,
      "빚": 2015,
      "빛": 2016,
      "빜": 2017,
      "빝": 2018,
      "빟": 2019,
      "빠": 2020,
      "빡": 2021,
      "빢": 2022,
      "빣": 2023,
      "빤": 2024,
      "빧": 2025,
      "빨": 2026,
      "빩": 2027,
      "빪": 2028,
      "빰": 2029,
      "빱": 2030,
      "빳": 2031,
      "빴": 2032,
      "빵": 2033,
      "빻": 2034,
      "빼": 2035,
      "빽": 2036,
      "뺀": 2037,
      "뺃": 2038,
      "뺄": 2039,
      "뺅": 2040,
      "뺌": 2041,
      "뺍": 2042,
      "뺏": 2043,
      "뺐": 2044,
      "뺑": 2045,
      "뺒": 2046,
      "뺕": 2047,
      "뺘": 2048,
      "뺙": 2049,
      "뺜": 2050,
      "뺨": 2051,
      "뺩": 2052,
      "뺭": 2053,
      "뺴": 2054,
      "뺵": 2055,
      "뺸": 2056,
      "뺼": 2057,
      "뻇": 2058,
      "뻈": 2059,
      "뻉": 2060,
      "뻐": 2061,
      "뻑": 2062,
      "뻒": 2063,
      "뻔": 2064,
      "뻗": 2065,
      "뻘": 2066,
      "뻠": 2067,
      "뻡": 2068,
      "뻣": 2069,
      "뻤": 2070,
      "뻥": 2071,
      "뻩": 2072,
      "뻬": 2073,
      "뻭": 2074,
      "뻰": 2075,
      "뻴": 2076,
      "뻿": 2077,
      "뼀": 2078,
      "뼁": 2079,
      "뼈": 2080,
      "뼉": 2081,
      "뼊": 2082,
      "뼌": 2083,
      "뼏": 2084,
      "뼐": 2085,
      "뼑": 2086,
      "뼘": 2087,
      "뼙": 2088,
      "뼛": 2089,
      "뼜": 2090,
      "뼝": 2091,
      "뼡": 2092,
      "뼤": 2093,
      "뽀": 2094,
      "뽁": 2095,
      "뽂": 2096,
      "뽄": 2097,
      "뽇": 2098,
      "뽈": 2099,
      "뽉": 2100,
      "뽐": 2101,
      "뽑": 2102,
      "뽓": 2103,
      "뽕": 2104,
      "뽜": 2105,
      "뽝": 2106,
      "뽠": 2107,
      "뽤": 2108,
      "뽱": 2109,
      "뽷": 2110,
      "뾃": 2111,
      "뾔": 2112,
      "뾰": 2113,
      "뾱": 2114,
      "뾲": 2115,
      "뾵": 2116,
      "뾸": 2117,
      "뿁": 2118,
      "뿅": 2119,
      "뿌": 2120,
      "뿍": 2121,
      "뿐": 2122,
      "뿓": 2123,
      "뿔": 2124,
      "뿕": 2125,
      "뿜": 2126,
      "뿝": 2127,
      "뿟": 2128,
      "뿠": 2129,
      "뿡": 2130,
      "뿥": 2131,
      "뿧": 2132,
      "뿨": 2133,
      "뿩": 2134,
      "쀄": 2135,
      "쀅": 2136,
      "쀍": 2137,
      "쀠": 2138,
      "쀼": 2139,
      "쁀": 2140,
      "쁄": 2141,
      "쁌": 2142,
      "쁍": 2143,
      "쁘": 2144,
      "쁙": 2145,
      "쁜": 2146,
      "쁠": 2147,
      "쁡": 2148,
      "쁨": 2149,
      "쁩": 2150,
      "쁭": 2151,
      "쁹": 2152,
      "삉": 2153,
      "삐": 2154,
      "삑": 2155,
      "삒": 2156,
      "삔": 2157,
      "삗": 2158,
      "삘": 2159,
      "삠": 2160,
      "삡": 2161,
      "삣": 2162,
      "삤": 2163,
      "삥": 2164,
      "삧": 2165,
      "사": 2166,
      "삭": 2167,
      "삮": 2168,
      "삯": 2169,
      "산": 2170,
      "삲": 2171,
      "삳": 2172,
      "살": 2173,
      "삵": 2174,
      "삶": 2175,
      "삷": 2176,
      "삺": 2177,
      "삻": 2178,
      "삼": 2179,
      "삽": 2180,
      "삿": 2181,
      "샀": 2182,
      "상": 2183,
      "샂": 2184,
      "샃": 2185,
      "샄": 2186,
      "샅": 2187,
      "샆": 2188,
      "샇": 2189,
      "새": 2190,
      "색": 2191,
      "샊": 2192,
      "샌": 2193,
      "샏": 2194,
      "샐": 2195,
      "샓": 2196,
      "샘": 2197,
      "샙": 2198,
      "샛": 2199,
      "샜": 2200,
      "생": 2201,
      "샠": 2202,
      "샡": 2203,
      "샣": 2204,
      "샤": 2205,
      "샥": 2206,
      "샨": 2207,
      "샬": 2208,
      "샴": 2209,
      "샵": 2210,
      "샷": 2211,
      "샸": 2212,
      "샹": 2213,
      "샼": 2214,
      "샾": 2215,
      "섀": 2216,
      "섁": 2217,
      "섄": 2218,
      "섈": 2219,
      "섏": 2220,
      "섐": 2221,
      "섕": 2222,
      "서": 2223,
      "석": 2224,
      "섞": 2225,
      "섟": 2226,
      "선": 2227,
      "섢": 2228,
      "섣": 2229,
      "설": 2230,
      "섥": 2231,
      "섦": 2232,
      "섧": 2233,
      "섩": 2234,
      "섫": 2235,
      "섬": 2236,
      "섭": 2237,
      "섮": 2238,
      "섯": 2239,
      "섰": 2240,
      "성": 2241,
      "섲": 2242,
      "섳": 2243,
      "섴": 2244,
      "섵": 2245,
      "섶": 2246,
      "섷": 2247,
      "세": 2248,
      "섹": 2249,
      "섺": 2250,
      "섻": 2251,
      "센": 2252,
      "섿": 2253,
      "셀": 2254,
      "셂": 2255,
      "셈": 2256,
      "셉": 2257,
      "셋": 2258,
      "셌": 2259,
      "셍": 2260,
      "셎": 2261,
      "셐": 2262,
      "셑": 2263,
      "셒": 2264,
      "셓": 2265,
      "셔": 2266,
      "셕": 2267,
      "셖": 2268,
      "션": 2269,
      "셜": 2270,
      "셤": 2271,
      "셥": 2272,
      "셧": 2273,
      "셨": 2274,
      "셩": 2275,
      "셯": 2276,
      "셰": 2277,
      "셱": 2278,
      "셳": 2279,
      "셴": 2280,
      "셸": 2281,
      "솀": 2282,
      "솁": 2283,
      "솃": 2284,
      "솄": 2285,
      "솅": 2286,
      "솊": 2287,
      "소": 2288,
      "속": 2289,
      "솎": 2290,
      "손": 2291,
      "솓": 2292,
      "솔": 2293,
      "솜": 2294,
      "솝": 2295,
      "솟": 2296,
      "송": 2297,
      "솣": 2298,
      "솤": 2299,
      "솥": 2300,
      "솦": 2301,
      "솨": 2302,
      "솩": 2303,
      "솬": 2304,
      "솰": 2305,
      "솹": 2306,
      "솼": 2307,
      "솽": 2308,
      "쇄": 2309,
      "쇅": 2310,
      "쇈": 2311,
      "쇌": 2312,
      "쇗": 2313,
      "쇘": 2314,
      "쇙": 2315,
      "쇟": 2316,
      "쇠": 2317,
      "쇡": 2318,
      "쇤": 2319,
      "쇨": 2320,
      "쇪": 2321,
      "쇫": 2322,
      "쇰": 2323,
      "쇱": 2324,
      "쇳": 2325,
      "쇴": 2326,
      "쇵": 2327,
      "쇼": 2328,
      "쇽": 2329,
      "숀": 2330,
      "숄": 2331,
      "숌": 2332,
      "숍": 2333,
      "숏": 2334,
      "숑": 2335,
      "숔": 2336,
      "숖": 2337,
      "수": 2338,
      "숙": 2339,
      "숚": 2340,
      "순": 2341,
      "숟": 2342,
      "술": 2343,
      "숢": 2344,
      "숤": 2345,
      "숧": 2346,
      "숨": 2347,
      "숩": 2348,
      "숫": 2349,
      "숭": 2350,
      "숮": 2351,
      "숯": 2352,
      "숱": 2353,
      "숲": 2354,
      "숳": 2355,
      "숴": 2356,
      "숸": 2357,
      "숼": 2358,
      "쉄": 2359,
      "쉅": 2360,
      "쉇": 2361,
      "쉈": 2362,
      "쉐": 2363,
      "쉑": 2364,
      "쉒": 2365,
      "쉔": 2366,
      "쉘": 2367,
      "쉠": 2368,
      "쉡": 2369,
      "쉣": 2370,
      "쉥": 2371,
      "쉨": 2372,
      "쉪": 2373,
      "쉬": 2374,
      "쉭": 2375,
      "쉰": 2376,
      "쉴": 2377,
      "쉼": 2378,
      "쉽": 2379,
      "쉿": 2380,
      "슁": 2381,
      "슄": 2382,
      "슆": 2383,
      "슈": 2384,
      "슉": 2385,
      "슌": 2386,
      "슏": 2387,
      "슐": 2388,
      "슑": 2389,
      "슘": 2390,
      "슙": 2391,
      "슛": 2392,
      "슝": 2393,
      "슡": 2394,
      "슢": 2395,
      "스": 2396,
      "슥": 2397,
      "슦": 2398,
      "슨": 2399,
      "슫": 2400,
      "슬": 2401,
      "슭": 2402,
      "슮": 2403,
      "슯": 2404,
      "슲": 2405,
      "슴": 2406,
      "습": 2407,
      "슶": 2408,
      "슷": 2409,
      "슸": 2410,
      "승": 2411,
      "슺": 2412,
      "슼": 2413,
      "슽": 2414,
      "슾": 2415,
      "슿": 2416,
      "싀": 2417,
      "싄": 2418,
      "싈": 2419,
      "싑": 2420,
      "싕": 2421,
      "시": 2422,
      "식": 2423,
      "싞": 2424,
      "싟": 2425,
      "신": 2426,
      "싡": 2427,
      "싢": 2428,
      "싣": 2429,
      "실": 2430,
      "싥": 2431,
      "싦": 2432,
      "싧": 2433,
      "싨": 2434,
      "싩": 2435,
      "싪": 2436,
      "싫": 2437,
      "심": 2438,
      "십": 2439,
      "싮": 2440,
      "싯": 2441,
      "싰": 2442,
      "싱": 2443,
      "싲": 2444,
      "싳": 2445,
      "싴": 2446,
      "싵": 2447,
      "싶": 2448,
      "싷": 2449,
      "싸": 2450,
      "싹": 2451,
      "싺": 2452,
      "싻": 2453,
      "싼": 2454,
      "싾": 2455,
      "싿": 2456,
      "쌀": 2457,
      "쌂": 2458,
      "쌇": 2459,
      "쌈": 2460,
      "쌉": 2461,
      "쌋": 2462,
      "쌌": 2463,
      "쌍": 2464,
      "쌑": 2465,
      "쌒": 2466,
      "쌓": 2467,
      "쌔": 2468,
      "쌕": 2469,
      "쌘": 2470,
      "쌜": 2471,
      "쌤": 2472,
      "쌥": 2473,
      "쌧": 2474,
      "쌨": 2475,
      "쌩": 2476,
      "쌰": 2477,
      "쌱": 2478,
      "쌴": 2479,
      "쌸": 2480,
      "썀": 2481,
      "썁": 2482,
      "썅": 2483,
      "썊": 2484,
      "썌": 2485,
      "썐": 2486,
      "썜": 2487,
      "썠": 2488,
      "썡": 2489,
      "써": 2490,
      "썩": 2491,
      "썪": 2492,
      "썬": 2493,
      "썯": 2494,
      "썰": 2495,
      "썲": 2496,
      "썸": 2497,
      "썹": 2498,
      "썻": 2499,
      "썼": 2500,
      "썽": 2501,
      "쎃": 2502,
      "쎄": 2503,
      "쎅": 2504,
      "쎆": 2505,
      "쎈": 2506,
      "쎌": 2507,
      "쎔": 2508,
      "쎕": 2509,
      "쎗": 2510,
      "쎘": 2511,
      "쎙": 2512,
      "쎠": 2513,
      "쎤": 2514,
      "쎨": 2515,
      "쎰": 2516,
      "쎴": 2517,
      "쎵": 2518,
      "쎼": 2519,
      "쎾": 2520,
      "쏀": 2521,
      "쏍": 2522,
      "쏘": 2523,
      "쏙": 2524,
      "쏚": 2525,
      "쏜": 2526,
      "쏟": 2527,
      "쏠": 2528,
      "쏨": 2529,
      "쏩": 2530,
      "쏫": 2531,
      "쏬": 2532,
      "쏭": 2533,
      "쏮": 2534,
      "쏱": 2535,
      "쏳": 2536,
      "쏴": 2537,
      "쏵": 2538,
      "쏸": 2539,
      "쏼": 2540,
      "쐄": 2541,
      "쐇": 2542,
      "쐈": 2543,
      "쐉": 2544,
      "쐏": 2545,
      "쐐": 2546,
      "쐤": 2547,
      "쐬": 2548,
      "쐰": 2549,
      "쐴": 2550,
      "쐼": 2551,
      "쐽": 2552,
      "쑀": 2553,
      "쑈": 2554,
      "쑌": 2555,
      "쑙": 2556,
      "쑛": 2557,
      "쑝": 2558,
      "쑤": 2559,
      "쑥": 2560,
      "쑦": 2561,
      "쑨": 2562,
      "쑬": 2563,
      "쑴": 2564,
      "쑵": 2565,
      "쑷": 2566,
      "쑹": 2567,
      "쑻": 2568,
      "쑽": 2569,
      "쒀": 2570,
      "쒄": 2571,
      "쒈": 2572,
      "쒔": 2573,
      "쒛": 2574,
      "쒜": 2575,
      "쒯": 2576,
      "쒰": 2577,
      "쒱": 2578,
      "쒴": 2579,
      "쒸": 2580,
      "쒹": 2581,
      "쒼": 2582,
      "쓀": 2583,
      "쓉": 2584,
      "쓍": 2585,
      "쓑": 2586,
      "쓔": 2587,
      "쓕": 2588,
      "쓤": 2589,
      "쓥": 2590,
      "쓩": 2591,
      "쓰": 2592,
      "쓱": 2593,
      "쓲": 2594,
      "쓴": 2595,
      "쓷": 2596,
      "쓸": 2597,
      "쓺": 2598,
      "쓽": 2599,
      "쓿": 2600,
      "씀": 2601,
      "씁": 2602,
      "씃": 2603,
      "씄": 2604,
      "씅": 2605,
      "씈": 2606,
      "씉": 2607,
      "씋": 2608,
      "씌": 2609,
      "씐": 2610,
      "씔": 2611,
      "씜": 2612,
      "씝": 2613,
      "씟": 2614,
      "씡": 2615,
      "씨": 2616,
      "씩": 2617,
      "씪": 2618,
      "씬": 2619,
      "씯": 2620,
      "씰": 2621,
      "씸": 2622,
      "씹": 2623,
      "씻": 2624,
      "씼": 2625,
      "씽": 2626,
      "씾": 2627,
      "앁": 2628,
      "앂": 2629,
      "앃": 2630,
      "아": 2631,
      "악": 2632,
      "앆": 2633,
      "안": 2634,
      "앉": 2635,
      "않": 2636,
      "앋": 2637,
      "알": 2638,
      "앍": 2639,
      "앎": 2640,
      "앏": 2641,
      "앒": 2642,
      "앓": 2643,
      "암": 2644,
      "압": 2645,
      "앖": 2646,
      "앗": 2647,
      "았": 2648,
      "앙": 2649,
      "앚": 2650,
      "앜": 2651,
      "앝": 2652,
      "앞": 2653,
      "앟": 2654,
      "애": 2655,
      "액": 2656,
      "앢": 2657,
      "앤": 2658,
      "앧": 2659,
      "앨": 2660,
      "앫": 2661,
      "앰": 2662,
      "앱": 2663,
      "앲": 2664,
      "앳": 2665,
      "앴": 2666,
      "앵": 2667,
      "앸": 2668,
      "앹": 2669,
      "앺": 2670,
      "앻": 2671,
      "야": 2672,
      "약": 2673,
      "앿": 2674,
      "얀": 2675,
      "얂": 2676,
      "얃": 2677,
      "얄": 2678,
      "얅": 2679,
      "얆": 2680,
      "얇": 2681,
      "얉": 2682,
      "얊": 2683,
      "얋": 2684,
      "얌": 2685,
      "얍": 2686,
      "얏": 2687,
      "얐": 2688,
      "양": 2689,
      "얓": 2690,
      "얔": 2691,
      "얕": 2692,
      "얖": 2693,
      "얗": 2694,
      "얘": 2695,
      "얙": 2696,
      "얜": 2697,
      "얠": 2698,
      "얨": 2699,
      "얩": 2700,
      "얪": 2701,
      "얫": 2702,
      "얬": 2703,
      "얭": 2704,
      "어": 2705,
      "억": 2706,
      "얶": 2707,
      "얷": 2708,
      "언": 2709,
      "얹": 2710,
      "얺": 2711,
      "얻": 2712,
      "얼": 2713,
      "얽": 2714,
      "얾": 2715,
      "얿": 2716,
      "엃": 2717,
      "엄": 2718,
      "업": 2719,
      "없": 2720,
      "엇": 2721,
      "었": 2722,
      "엉": 2723,
      "엊": 2724,
      "엋": 2725,
      "엌": 2726,
      "엍": 2727,
      "엎": 2728,
      "엏": 2729,
      "에": 2730,
      "엑": 2731,
      "엓": 2732,
      "엔": 2733,
      "엗": 2734,
      "엘": 2735,
      "엙": 2736,
      "엚": 2737,
      "엝": 2738,
      "엠": 2739,
      "엡": 2740,
      "엣": 2741,
      "엤": 2742,
      "엥": 2743,
      "엦": 2744,
      "엧": 2745,
      "엨": 2746,
      "엩": 2747,
      "엪": 2748,
      "여": 2749,
      "역": 2750,
      "엮": 2751,
      "연": 2752,
      "엱": 2753,
      "엲": 2754,
      "엳": 2755,
      "열": 2756,
      "엵": 2757,
      "엶": 2758,
      "엷": 2759,
      "엸": 2760,
      "엹": 2761,
      "엻": 2762,
      "염": 2763,
      "엽": 2764,
      "엾": 2765,
      "엿": 2766,
      "였": 2767,
      "영": 2768,
      "옂": 2769,
      "옃": 2770,
      "옄": 2771,
      "옅": 2772,
      "옆": 2773,
      "옇": 2774,
      "예": 2775,
      "옉": 2776,
      "옌": 2777,
      "옏": 2778,
      "옐": 2779,
      "옘": 2780,
      "옙": 2781,
      "옛": 2782,
      "옜": 2783,
      "옝": 2784,
      "옞": 2785,
      "옢": 2786,
      "오": 2787,
      "옥": 2788,
      "옦": 2789,
      "온": 2790,
      "옫": 2791,
      "올": 2792,
      "옭": 2793,
      "옮": 2794,
      "옯": 2795,
      "옰": 2796,
      "옲": 2797,
      "옳": 2798,
      "옴": 2799,
      "옵": 2800,
      "옶": 2801,
      "옷": 2802,
      "옸": 2803,
      "옹": 2804,
      "옺": 2805,
      "옻": 2806,
      "옼": 2807,
      "옽": 2808,
      "옾": 2809,
      "옿": 2810,
      "와": 2811,
      "왁": 2812,
      "왂": 2813,
      "완": 2814,
      "왇": 2815,
      "왈": 2816,
      "왐": 2817,
      "왑": 2818,
      "왓": 2819,
      "왔": 2820,
      "왕": 2821,
      "왘": 2822,
      "왚": 2823,
      "왜": 2824,
      "왝": 2825,
      "왠": 2826,
      "왤": 2827,
      "왬": 2828,
      "왭": 2829,
      "왯": 2830,
      "왰": 2831,
      "왱": 2832,
      "외": 2833,
      "왹": 2834,
      "왼": 2835,
      "욀": 2836,
      "욈": 2837,
      "욉": 2838,
      "욋": 2839,
      "욌": 2840,
      "욍": 2841,
      "요": 2842,
      "욕": 2843,
      "욖": 2844,
      "욘": 2845,
      "욛": 2846,
      "욜": 2847,
      "욤": 2848,
      "욥": 2849,
      "욧": 2850,
      "욨": 2851,
      "용": 2852,
      "욪": 2853,
      "욫": 2854,
      "욬": 2855,
      "욭": 2856,
      "욮": 2857,
      "욯": 2858,
      "우": 2859,
      "욱": 2860,
      "욲": 2861,
      "욳": 2862,
      "운": 2863,
      "욵": 2864,
      "욷": 2865,
      "울": 2866,
      "욹": 2867,
      "욺": 2868,
      "욻": 2869,
      "욽": 2870,
      "욾": 2871,
      "움": 2872,
      "웁": 2873,
      "웂": 2874,
      "웃": 2875,
      "웄": 2876,
      "웅": 2877,
      "웇": 2878,
      "웈": 2879,
      "웊": 2880,
      "웋": 2881,
      "워": 2882,
      "웍": 2883,
      "웎": 2884,
      "웏": 2885,
      "원": 2886,
      "웑": 2887,
      "웒": 2888,
      "웓": 2889,
      "월": 2890,
      "웕": 2891,
      "웗": 2892,
      "웚": 2893,
      "웛": 2894,
      "웜": 2895,
      "웝": 2896,
      "웟": 2897,
      "웠": 2898,
      "웡": 2899,
      "웢": 2900,
      "웣": 2901,
      "웤": 2902,
      "웥": 2903,
      "웧": 2904,
      "웨": 2905,
      "웩": 2906,
      "웬": 2907,
      "웯": 2908,
      "웰": 2909,
      "웱": 2910,
      "웳": 2911,
      "웷": 2912,
      "웸": 2913,
      "웹": 2914,
      "웻": 2915,
      "웽": 2916,
      "윁": 2917,
      "위": 2918,
      "윅": 2919,
      "윈": 2920,
      "윌": 2921,
      "윔": 2922,
      "윕": 2923,
      "윗": 2924,
      "윘": 2925,
      "윙": 2926,
      "윛": 2927,
      "윜": 2928,
      "윝": 2929,
      "윟": 2930,
      "유": 2931,
      "육": 2932,
      "윢": 2933,
      "윣": 2934,
      "윤": 2935,
      "윦": 2936,
      "윧": 2937,
      "율": 2938,
      "윪": 2939,
      "윫": 2940,
      "윯": 2941,
      "윰": 2942,
      "윱": 2943,
      "윳": 2944,
      "융": 2945,
      "윶": 2946,
      "윷": 2947,
      "윸": 2948,
      "윺": 2949,
      "윻": 2950,
      "으": 2951,
      "윽": 2952,
      "윾": 2953,
      "은": 2954,
      "읁": 2955,
      "읂": 2956,
      "읃": 2957,
      "을": 2958,
      "읅": 2959,
      "읆": 2960,
      "읇": 2961,
      "읈": 2962,
      "읉": 2963,
      "읊": 2964,
      "읋": 2965,
      "음": 2966,
      "읍": 2967,
      "읎": 2968,
      "읏": 2969,
      "읐": 2970,
      "응": 2971,
      "읒": 2972,
      "읓": 2973,
      "읔": 2974,
      "읕": 2975,
      "읖": 2976,
      "읗": 2977,
      "의": 2978,
      "읙": 2979,
      "읜": 2980,
      "읠": 2981,
      "읨": 2982,
      "읪": 2983,
      "읫": 2984,
      "읭": 2985,
      "읮": 2986,
      "읱": 2987,
      "이": 2988,
      "익": 2989,
      "읶": 2990,
      "읷": 2991,
      "인": 2992,
      "읹": 2993,
      "읺": 2994,
      "읻": 2995,
      "일": 2996,
      "읽": 2997,
      "읾": 2998,
      "읿": 2999,
      "잀": 3000,
      "잂": 3001,
      "잃": 3002,
      "임": 3003,
      "입": 3004,
      "잆": 3005,
      "잇": 3006,
      "있": 3007,
      "잉": 3008,
      "잊": 3009,
      "잋": 3010,
      "잌": 3011,
      "잍": 3012,
      "잎": 3013,
      "잏": 3014,
      "자": 3015,
      "작": 3016,
      "잒": 3017,
      "잓": 3018,
      "잔": 3019,
      "잖": 3020,
      "잗": 3021,
      "잘": 3022,
      "잙": 3023,
      "잚": 3024,
      "잛": 3025,
      "잟": 3026,
      "잠": 3027,
      "잡": 3028,
      "잢": 3029,
      "잣": 3030,
      "잤": 3031,
      "장": 3032,
      "잦": 3033,
      "잧": 3034,
      "잨": 3035,
      "잩": 3036,
      "잪": 3037,
      "잫": 3038,
      "재": 3039,
      "잭": 3040,
      "잰": 3041,
      "잴": 3042,
      "잶": 3043,
      "잸": 3044,
      "잼": 3045,
      "잽": 3046,
      "잿": 3047,
      "쟀": 3048,
      "쟁": 3049,
      "쟂": 3050,
      "쟆": 3051,
      "쟇": 3052,
      "쟈": 3053,
      "쟉": 3054,
      "쟌": 3055,
      "쟎": 3056,
      "쟏": 3057,
      "쟐": 3058,
      "쟘": 3059,
      "쟙": 3060,
      "쟛": 3061,
      "쟜": 3062,
      "쟝": 3063,
      "쟞": 3064,
      "쟠": 3065,
      "쟣": 3066,
      "쟤": 3067,
      "쟨": 3068,
      "쟬": 3069,
      "쟸": 3070,
      "쟹": 3071,
      "저": 3072,
      "적": 3073,
      "젂": 3074,
      "젃": 3075,
      "전": 3076,
      "젅": 3077,
      "젆": 3078,
      "젇": 3079,
      "절": 3080,
      "젉": 3081,
      "젊": 3082,
      "젋": 3083,
      "젏": 3084,
      "점": 3085,
      "접": 3086,
      "젒": 3087,
      "젓": 3088,
      "젔": 3089,
      "정": 3090,
      "젖": 3091,
      "젗": 3092,
      "젙": 3093,
      "젚": 3094,
      "젛": 3095,
      "제": 3096,
      "젝": 3097,
      "젠": 3098,
      "젣": 3099,
      "젤": 3100,
      "젨": 3101,
      "젬": 3102,
      "젭": 3103,
      "젯": 3104,
      "젰": 3105,
      "젱": 3106,
      "젲": 3107,
      "젳": 3108,
      "젴": 3109,
      "젵": 3110,
      "젷": 3111,
      "져": 3112,
      "젹": 3113,
      "젺": 3114,
      "젼": 3115,
      "젿": 3116,
      "졀": 3117,
      "졂": 3118,
      "졈": 3119,
      "졉": 3120,
      "졋": 3121,
      "졌": 3122,
      "졍": 3123,
      "졎": 3124,
      "졏": 3125,
      "졔": 3126,
      "졘": 3127,
      "졥": 3128,
      "조": 3129,
      "족": 3130,
      "졲": 3131,
      "존": 3132,
      "졷": 3133,
      "졸": 3134,
      "졺": 3135,
      "졻": 3136,
      "졽": 3137,
      "졿": 3138,
      "좀": 3139,
      "좁": 3140,
      "좃": 3141,
      "종": 3142,
      "좆": 3143,
      "좇": 3144,
      "좉": 3145,
      "좊": 3146,
      "좋": 3147,
      "좌": 3148,
      "좍": 3149,
      "좐": 3150,
      "좔": 3151,
      "좟": 3152,
      "좡": 3153,
      "좢": 3154,
      "좥": 3155,
      "좦": 3156,
      "좨": 3157,
      "좬": 3158,
      "좭": 3159,
      "좸": 3160,
      "좼": 3161,
      "좽": 3162,
      "죄": 3163,
      "죈": 3164,
      "죌": 3165,
      "죔": 3166,
      "죕": 3167,
      "죗": 3168,
      "죘": 3169,
      "죙": 3170,
      "죠": 3171,
      "죡": 3172,
      "죤": 3173,
      "죧": 3174,
      "죨": 3175,
      "죰": 3176,
      "죱": 3177,
      "죳": 3178,
      "죵": 3179,
      "죶": 3180,
      "죷": 3181,
      "죻": 3182,
      "주": 3183,
      "죽": 3184,
      "준": 3185,
      "줃": 3186,
      "줄": 3187,
      "줅": 3188,
      "줆": 3189,
      "줇": 3190,
      "줊": 3191,
      "줌": 3192,
      "줍": 3193,
      "줎": 3194,
      "줏": 3195,
      "중": 3196,
      "줒": 3197,
      "줓": 3198,
      "줕": 3199,
      "줖": 3200,
      "줗": 3201,
      "줘": 3202,
      "줚": 3203,
      "줜": 3204,
      "줠": 3205,
      "줫": 3206,
      "줬": 3207,
      "줭": 3208,
      "줮": 3209,
      "줳": 3210,
      "줴": 3211,
      "줵": 3212,
      "줸": 3213,
      "줼": 3214,
      "쥅": 3215,
      "쥇": 3216,
      "쥉": 3217,
      "쥐": 3218,
      "쥑": 3219,
      "쥔": 3220,
      "쥘": 3221,
      "쥠": 3222,
      "쥡": 3223,
      "쥣": 3224,
      "쥤": 3225,
      "쥥": 3226,
      "쥬": 3227,
      "쥭": 3228,
      "쥰": 3229,
      "쥴": 3230,
      "쥶": 3231,
      "쥼": 3232,
      "쥽": 3233,
      "쥿": 3234,
      "즁": 3235,
      "즇": 3236,
      "즈": 3237,
      "즉": 3238,
      "즌": 3239,
      "즏": 3240,
      "즐": 3241,
      "즘": 3242,
      "즙": 3243,
      "즛": 3244,
      "증": 3245,
      "즞": 3246,
      "즣": 3247,
      "즤": 3248,
      "즥": 3249,
      "즨": 3250,
      "즩": 3251,
      "즬": 3252,
      "즵": 3253,
      "지": 3254,
      "직": 3255,
      "짂": 3256,
      "진": 3257,
      "짅": 3258,
      "짆": 3259,
      "짇": 3260,
      "질": 3261,
      "짊": 3262,
      "짋": 3263,
      "짍": 3264,
      "짏": 3265,
      "짐": 3266,
      "집": 3267,
      "짒": 3268,
      "짓": 3269,
      "짔": 3270,
      "징": 3271,
      "짖": 3272,
      "짗": 3273,
      "짘": 3274,
      "짙": 3275,
      "짚": 3276,
      "짛": 3277,
      "짜": 3278,
      "짝": 3279,
      "짞": 3280,
      "짠": 3281,
      "짢": 3282,
      "짤": 3283,
      "짥": 3284,
      "짦": 3285,
      "짧": 3286,
      "짩": 3287,
      "짪": 3288,
      "짫": 3289,
      "짬": 3290,
      "짭": 3291,
      "짮": 3292,
      "짯": 3293,
      "짰": 3294,
      "짱": 3295,
      "짲": 3296,
      "짴": 3297,
      "짷": 3298,
      "째": 3299,
      "짹": 3300,
      "짼": 3301,
      "쨀": 3302,
      "쨈": 3303,
      "쨉": 3304,
      "쨋": 3305,
      "쨌": 3306,
      "쨍": 3307,
      "쨎": 3308,
      "쨓": 3309,
      "쨔": 3310,
      "쨕": 3311,
      "쨘": 3312,
      "쨜": 3313,
      "쨟": 3314,
      "쨤": 3315,
      "쨥": 3316,
      "쨩": 3317,
      "쨰": 3318,
      "쨱": 3319,
      "쨴": 3320,
      "쩀": 3321,
      "쩁": 3322,
      "쩃": 3323,
      "쩄": 3324,
      "쩅": 3325,
      "쩋": 3326,
      "쩌": 3327,
      "쩍": 3328,
      "쩐": 3329,
      "쩔": 3330,
      "쩖": 3331,
      "쩗": 3332,
      "쩜": 3333,
      "쩝": 3334,
      "쩟": 3335,
      "쩠": 3336,
      "쩡": 3337,
      "쩣": 3338,
      "쩧": 3339,
      "쩨": 3340,
      "쩬": 3341,
      "쩰": 3342,
      "쩸": 3343,
      "쩻": 3344,
      "쩼": 3345,
      "쩽": 3346,
      "쪄": 3347,
      "쪅": 3348,
      "쪈": 3349,
      "쪌": 3350,
      "쪕": 3351,
      "쪗": 3352,
      "쪘": 3353,
      "쪙": 3354,
      "쪠": 3355,
      "쪼": 3356,
      "쪽": 3357,
      "쪾": 3358,
      "쫀": 3359,
      "쫄": 3360,
      "쫌": 3361,
      "쫍": 3362,
      "쫏": 3363,
      "쫑": 3364,
      "쫒": 3365,
      "쫓": 3366,
      "쫗": 3367,
      "쫘": 3368,
      "쫙": 3369,
      "쫜": 3370,
      "쫠": 3371,
      "쫩": 3372,
      "쫫": 3373,
      "쫭": 3374,
      "쫳": 3375,
      "쫴": 3376,
      "쫼": 3377,
      "쬈": 3378,
      "쬐": 3379,
      "쬔": 3380,
      "쬘": 3381,
      "쬠": 3382,
      "쬡": 3383,
      "쬬": 3384,
      "쬭": 3385,
      "쬰": 3386,
      "쬲": 3387,
      "쬼": 3388,
      "쭁": 3389,
      "쭈": 3390,
      "쭉": 3391,
      "쭌": 3392,
      "쭐": 3393,
      "쭘": 3394,
      "쭙": 3395,
      "쭛": 3396,
      "쭝": 3397,
      "쭣": 3398,
      "쭤": 3399,
      "쭵": 3400,
      "쭸": 3401,
      "쮀": 3402,
      "쮜": 3403,
      "쮝": 3404,
      "쮠": 3405,
      "쮸": 3406,
      "쮹": 3407,
      "쯀": 3408,
      "쯉": 3409,
      "쯍": 3410,
      "쯔": 3411,
      "쯕": 3412,
      "쯘": 3413,
      "쯜": 3414,
      "쯤": 3415,
      "쯥": 3416,
      "쯧": 3417,
      "쯩": 3418,
      "쯪": 3419,
      "쯰": 3420,
      "쯱": 3421,
      "찌": 3422,
      "찍": 3423,
      "찎": 3424,
      "찐": 3425,
      "찓": 3426,
      "찔": 3427,
      "찖": 3428,
      "찗": 3429,
      "찜": 3430,
      "찝": 3431,
      "찟": 3432,
      "찡": 3433,
      "찢": 3434,
      "찣": 3435,
      "찥": 3436,
      "찦": 3437,
      "찧": 3438,
      "차": 3439,
      "착": 3440,
      "찪": 3441,
      "찬": 3442,
      "찭": 3443,
      "찮": 3444,
      "찯": 3445,
      "찰": 3446,
      "찱": 3447,
      "참": 3448,
      "찹": 3449,
      "찻": 3450,
      "찼": 3451,
      "창": 3452,
      "찾": 3453,
      "찿": 3454,
      "챀": 3455,
      "챁": 3456,
      "챂": 3457,
      "챃": 3458,
      "채": 3459,
      "책": 3460,
      "챈": 3461,
      "챋": 3462,
      "챌": 3463,
      "챍": 3464,
      "챔": 3465,
      "챕": 3466,
      "챗": 3467,
      "챘": 3468,
      "챙": 3469,
      "챚": 3470,
      "챛": 3471,
      "챜": 3472,
      "챝": 3473,
      "챞": 3474,
      "챟": 3475,
      "챠": 3476,
      "챡": 3477,
      "챤": 3478,
      "챦": 3479,
      "챨": 3480,
      "챰": 3481,
      "챱": 3482,
      "챳": 3483,
      "챴": 3484,
      "챵": 3485,
      "챸": 3486,
      "챺": 3487,
      "챼": 3488,
      "첀": 3489,
      "첌": 3490,
      "처": 3491,
      "척": 3492,
      "첚": 3493,
      "천": 3494,
      "첝": 3495,
      "첞": 3496,
      "첟": 3497,
      "철": 3498,
      "첡": 3499,
      "첨": 3500,
      "첩": 3501,
      "첫": 3502,
      "첬": 3503,
      "청": 3504,
      "첮": 3505,
      "첯": 3506,
      "첰": 3507,
      "첳": 3508,
      "체": 3509,
      "첵": 3510,
      "첸": 3511,
      "첼": 3512,
      "쳀": 3513,
      "쳄": 3514,
      "쳅": 3515,
      "쳇": 3516,
      "쳉": 3517,
      "쳌": 3518,
      "쳐": 3519,
      "쳑": 3520,
      "쳔": 3521,
      "쳘": 3522,
      "쳠": 3523,
      "쳡": 3524,
      "쳣": 3525,
      "쳤": 3526,
      "쳥": 3527,
      "쳦": 3528,
      "쳬": 3529,
      "쳰": 3530,
      "쳴": 3531,
      "초": 3532,
      "촉": 3533,
      "촋": 3534,
      "촌": 3535,
      "촏": 3536,
      "촐": 3537,
      "촘": 3538,
      "촙": 3539,
      "촛": 3540,
      "총": 3541,
      "촞": 3542,
      "촟": 3543,
      "촣": 3544,
      "촤": 3545,
      "촥": 3546,
      "촨": 3547,
      "촬": 3548,
      "촵": 3549,
      "촹": 3550,
      "쵀": 3551,
      "쵄": 3552,
      "쵈": 3553,
      "쵔": 3554,
      "최": 3555,
      "쵝": 3556,
      "쵠": 3557,
      "쵤": 3558,
      "쵬": 3559,
      "쵭": 3560,
      "쵯": 3561,
      "쵱": 3562,
      "쵸": 3563,
      "쵹": 3564,
      "쵼": 3565,
      "춀": 3566,
      "춈": 3567,
      "춉": 3568,
      "춋": 3569,
      "춌": 3570,
      "춍": 3571,
      "춓": 3572,
      "추": 3573,
      "축": 3574,
      "춗": 3575,
      "춘": 3576,
      "춛": 3577,
      "출": 3578,
      "춝": 3579,
      "춡": 3580,
      "춢": 3581,
      "춣": 3582,
      "춤": 3583,
      "춥": 3584,
      "춧": 3585,
      "충": 3586,
      "춪": 3587,
      "춫": 3588,
      "춬": 3589,
      "춮": 3590,
      "춯": 3591,
      "춰": 3592,
      "춴": 3593,
      "춸": 3594,
      "췁": 3595,
      "췃": 3596,
      "췄": 3597,
      "췅": 3598,
      "췌": 3599,
      "췍": 3600,
      "췐": 3601,
      "췝": 3602,
      "췟": 3603,
      "췡": 3604,
      "췤": 3605,
      "취": 3606,
      "췩": 3607,
      "췬": 3608,
      "췰": 3609,
      "췸": 3610,
      "췹": 3611,
      "췻": 3612,
      "츄": 3613,
      "츅": 3614,
      "츈": 3615,
      "츋": 3616,
      "츌": 3617,
      "츔": 3618,
      "츕": 3619,
      "츙": 3620,
      "츠": 3621,
      "측": 3622,
      "츤": 3623,
      "츧": 3624,
      "츨": 3625,
      "츰": 3626,
      "츱": 3627,
      "츳": 3628,
      "층": 3629,
      "츶": 3630,
      "츻": 3631,
      "츼": 3632,
      "치": 3633,
      "칙": 3634,
      "칚": 3635,
      "친": 3636,
      "칞": 3637,
      "칟": 3638,
      "칠": 3639,
      "칡": 3640,
      "칢": 3641,
      "침": 3642,
      "칩": 3643,
      "칫": 3644,
      "칬": 3645,
      "칭": 3646,
      "칮": 3647,
      "칯": 3648,
      "칰": 3649,
      "칱": 3650,
      "칲": 3651,
      "칳": 3652,
      "카": 3653,
      "칵": 3654,
      "칸": 3655,
      "칻": 3656,
      "칼": 3657,
      "캄": 3658,
      "캅": 3659,
      "캆": 3660,
      "캇": 3661,
      "캉": 3662,
      "캊": 3663,
      "캌": 3664,
      "캍": 3665,
      "캎": 3666,
      "캐": 3667,
      "캑": 3668,
      "캔": 3669,
      "캗": 3670,
      "캘": 3671,
      "캙": 3672,
      "캠": 3673,
      "캡": 3674,
      "캢": 3675,
      "캣": 3676,
      "캤": 3677,
      "캥": 3678,
      "캨": 3679,
      "캩": 3680,
      "캪": 3681,
      "캬": 3682,
      "캭": 3683,
      "캰": 3684,
      "캴": 3685,
      "캵": 3686,
      "캽": 3687,
      "컁": 3688,
      "컄": 3689,
      "컈": 3690,
      "컌": 3691,
      "컘": 3692,
      "커": 3693,
      "컥": 3694,
      "컨": 3695,
      "컫": 3696,
      "컬": 3697,
      "컱": 3698,
      "컳": 3699,
      "컴": 3700,
      "컵": 3701,
      "컷": 3702,
      "컸": 3703,
      "컹": 3704,
      "컼": 3705,
      "컽": 3706,
      "컾": 3707,
      "케": 3708,
      "켁": 3709,
      "켄": 3710,
      "켇": 3711,
      "켈": 3712,
      "켐": 3713,
      "켑": 3714,
      "켓": 3715,
      "켔": 3716,
      "켕": 3717,
      "켘": 3718,
      "켙": 3719,
      "켚": 3720,
      "켛": 3721,
      "켜": 3722,
      "켝": 3723,
      "켠": 3724,
      "켣": 3725,
      "켤": 3726,
      "켬": 3727,
      "켭": 3728,
      "켯": 3729,
      "켰": 3730,
      "켱": 3731,
      "켵": 3732,
      "켸": 3733,
      "켼": 3734,
      "코": 3735,
      "콕": 3736,
      "콘": 3737,
      "콛": 3738,
      "콜": 3739,
      "콤": 3740,
      "콥": 3741,
      "콧": 3742,
      "콩": 3743,
      "콫": 3744,
      "콬": 3745,
      "콭": 3746,
      "콮": 3747,
      "콰": 3748,
      "콱": 3749,
      "콴": 3750,
      "콸": 3751,
      "쾀": 3752,
      "쾁": 3753,
      "쾃": 3754,
      "쾅": 3755,
      "쾌": 3756,
      "쾍": 3757,
      "쾡": 3758,
      "쾨": 3759,
      "쾬": 3760,
      "쾰": 3761,
      "쾽": 3762,
      "쿄": 3763,
      "쿅": 3764,
      "쿇": 3765,
      "쿈": 3766,
      "쿔": 3767,
      "쿙": 3768,
      "쿠": 3769,
      "쿡": 3770,
      "쿤": 3771,
      "쿧": 3772,
      "쿨": 3773,
      "쿰": 3774,
      "쿱": 3775,
      "쿳": 3776,
      "쿵": 3777,
      "쿸": 3778,
      "쿼": 3779,
      "쿽": 3780,
      "퀀": 3781,
      "퀄": 3782,
      "퀌": 3783,
      "퀏": 3784,
      "퀐": 3785,
      "퀑": 3786,
      "퀘": 3787,
      "퀙": 3788,
      "퀜": 3789,
      "퀠": 3790,
      "퀣": 3791,
      "퀩": 3792,
      "퀭": 3793,
      "퀴": 3794,
      "퀵": 3795,
      "퀸": 3796,
      "퀼": 3797,
      "큁": 3798,
      "큄": 3799,
      "큅": 3800,
      "큇": 3801,
      "큉": 3802,
      "큌": 3803,
      "큐": 3804,
      "큑": 3805,
      "큔": 3806,
      "큗": 3807,
      "큘": 3808,
      "큠": 3809,
      "큡": 3810,
      "큣": 3811,
      "큥": 3812,
      "큨": 3813,
      "크": 3814,
      "큭": 3815,
      "큰": 3816,
      "클": 3817,
      "큻": 3818,
      "큼": 3819,
      "큽": 3820,
      "큿": 3821,
      "킁": 3822,
      "킂": 3823,
      "킄": 3824,
      "킅": 3825,
      "킈": 3826,
      "킉": 3827,
      "킌": 3828,
      "킐": 3829,
      "킙": 3830,
      "키": 3831,
      "킥": 3832,
      "킨": 3833,
      "킬": 3834,
      "킮": 3835,
      "킴": 3836,
      "킵": 3837,
      "킷": 3838,
      "킸": 3839,
      "킹": 3840,
      "킻": 3841,
      "킼": 3842,
      "킽": 3843,
      "킾": 3844,
      "킿": 3845,
      "타": 3846,
      "탁": 3847,
      "탂": 3848,
      "탄": 3849,
      "탆": 3850,
      "탇": 3851,
      "탈": 3852,
      "탉": 3853,
      "탐": 3854,
      "탑": 3855,
      "탒": 3856,
      "탓": 3857,
      "탔": 3858,
      "탕": 3859,
      "탖": 3860,
      "탘": 3861,
      "탙": 3862,
      "탚": 3863,
      "태": 3864,
      "택": 3865,
      "탞": 3866,
      "탟": 3867,
      "탠": 3868,
      "탣": 3869,
      "탤": 3870,
      "탬": 3871,
      "탭": 3872,
      "탯": 3873,
      "탰": 3874,
      "탱": 3875,
      "탴": 3876,
      "탵": 3877,
      "탶": 3878,
      "탸": 3879,
      "탹": 3880,
      "탼": 3881,
      "턀": 3882,
      "턉": 3883,
      "턍": 3884,
      "턔": 3885,
      "턣": 3886,
      "터": 3887,
      "턱": 3888,
      "턴": 3889,
      "털": 3890,
      "턻": 3891,
      "텀": 3892,
      "텁": 3893,
      "텃": 3894,
      "텄": 3895,
      "텅": 3896,
      "텆": 3897,
      "텉": 3898,
      "텊": 3899,
      "텋": 3900,
      "테": 3901,
      "텍": 3902,
      "텐": 3903,
      "텓": 3904,
      "텔": 3905,
      "텖": 3906,
      "템": 3907,
      "텝": 3908,
      "텟": 3909,
      "텡": 3910,
      "텢": 3911,
      "텤": 3912,
      "텥": 3913,
      "텦": 3914,
      "텧": 3915,
      "텨": 3916,
      "텩": 3917,
      "텬": 3918,
      "텰": 3919,
      "텸": 3920,
      "텻": 3921,
      "텼": 3922,
      "텽": 3923,
      "톄": 3924,
      "톈": 3925,
      "토": 3926,
      "톡": 3927,
      "톤": 3928,
      "톧": 3929,
      "톨": 3930,
      "톩": 3931,
      "톰": 3932,
      "톱": 3933,
      "톳": 3934,
      "통": 3935,
      "톷": 3936,
      "톸": 3937,
      "톹": 3938,
      "톺": 3939,
      "톻": 3940,
      "톼": 3941,
      "퇀": 3942,
      "퇄": 3943,
      "퇗": 3944,
      "퇘": 3945,
      "퇫": 3946,
      "퇬": 3947,
      "퇴": 3948,
      "퇵": 3949,
      "퇸": 3950,
      "퇼": 3951,
      "툇": 3952,
      "툉": 3953,
      "툏": 3954,
      "툐": 3955,
      "툑": 3956,
      "툠": 3957,
      "툥": 3958,
      "투": 3959,
      "툭": 3960,
      "툰": 3961,
      "툴": 3962,
      "툼": 3963,
      "툽": 3964,
      "툿": 3965,
      "퉁": 3966,
      "퉅": 3967,
      "퉈": 3968,
      "퉍": 3969,
      "퉐": 3970,
      "퉜": 3971,
      "퉝": 3972,
      "퉤": 3973,
      "퉬": 3974,
      "퉯": 3975,
      "퉷": 3976,
      "튀": 3977,
      "튁": 3978,
      "튄": 3979,
      "튈": 3980,
      "튐": 3981,
      "튑": 3982,
      "튓": 3983,
      "튕": 3984,
      "튘": 3985,
      "튜": 3986,
      "튝": 3987,
      "튠": 3988,
      "튤": 3989,
      "튬": 3990,
      "튭": 3991,
      "튱": 3992,
      "트": 3993,
      "특": 3994,
      "튺": 3995,
      "튼": 3996,
      "튽": 3997,
      "튿": 3998,
      "틀": 3999,
      "틂": 4000,
      "틃": 4001,
      "틈": 4002,
      "틉": 4003,
      "틋": 4004,
      "틍": 4005,
      "틎": 4006,
      "틐": 4007,
      "틑": 4008,
      "틒": 4009,
      "틓": 4010,
      "틔": 4011,
      "틕": 4012,
      "틘": 4013,
      "틜": 4014,
      "틤": 4015,
      "틥": 4016,
      "틧": 4017,
      "틩": 4018,
      "티": 4019,
      "틱": 4020,
      "틲": 4021,
      "틴": 4022,
      "틷": 4023,
      "틸": 4024,
      "팀": 4025,
      "팁": 4026,
      "팃": 4027,
      "팅": 4028,
      "팆": 4029,
      "팉": 4030,
      "팊": 4031,
      "파": 4032,
      "팍": 4033,
      "팎": 4034,
      "팏": 4035,
      "판": 4036,
      "팑": 4037,
      "팒": 4038,
      "팔": 4039,
      "팖": 4040,
      "팜": 4041,
      "팝": 4042,
      "팟": 4043,
      "팠": 4044,
      "팡": 4045,
      "팢": 4046,
      "팣": 4047,
      "팤": 4048,
      "팥": 4049,
      "팦": 4050,
      "패": 4051,
      "팩": 4052,
      "팬": 4053,
      "팭": 4054,
      "팯": 4055,
      "팰": 4056,
      "팸": 4057,
      "팹": 4058,
      "팻": 4059,
      "팼": 4060,
      "팽": 4061,
      "퍀": 4062,
      "퍁": 4063,
      "퍄": 4064,
      "퍅": 4065,
      "퍆": 4066,
      "퍈": 4067,
      "퍌": 4068,
      "퍔": 4069,
      "퍙": 4070,
      "퍝": 4071,
      "퍠": 4072,
      "퍼": 4073,
      "퍽": 4074,
      "펀": 4075,
      "펄": 4076,
      "펌": 4077,
      "펍": 4078,
      "펏": 4079,
      "펐": 4080,
      "펑": 4081,
      "펓": 4082,
      "펔": 4083,
      "페": 4084,
      "펙": 4085,
      "펜": 4086,
      "펠": 4087,
      "펢": 4088,
      "펨": 4089,
      "펩": 4090,
      "펫": 4091,
      "펭": 4092,
      "펰": 4093,
      "펱": 4094,
      "펲": 4095,
      "펴": 4096,
      "펵": 4097,
      "편": 4098,
      "펺": 4099,
      "펼": 4100,
      "폁": 4101,
      "폄": 4102,
      "폅": 4103,
      "폇": 4104,
      "폈": 4105,
      "평": 4106,
      "폋": 4107,
      "폎": 4108,
      "폐": 4109,
      "폔": 4110,
      "폘": 4111,
      "폠": 4112,
      "폡": 4113,
      "포": 4114,
      "폭": 4115,
      "폮": 4116,
      "폯": 4117,
      "폰": 4118,
      "폴": 4119,
      "폼": 4120,
      "폽": 4121,
      "폿": 4122,
      "퐁": 4123,
      "퐅": 4124,
      "퐈": 4125,
      "퐉": 4126,
      "퐌": 4127,
      "퐐": 4128,
      "퐑": 4129,
      "퐗": 4130,
      "퐝": 4131,
      "퐤": 4132,
      "푀": 4133,
      "푁": 4134,
      "푄": 4135,
      "푈": 4136,
      "표": 4137,
      "푝": 4138,
      "푠": 4139,
      "푤": 4140,
      "푭": 4141,
      "푯": 4142,
      "푱": 4143,
      "푶": 4144,
      "푷": 4145,
      "푸": 4146,
      "푹": 4147,
      "푼": 4148,
      "푿": 4149,
      "풀": 4150,
      "풂": 4151,
      "풇": 4152,
      "품": 4153,
      "풉": 4154,
      "풋": 4155,
      "풍": 4156,
      "풒": 4157,
      "풓": 4158,
      "풔": 4159,
      "풜": 4160,
      "풠": 4161,
      "풤": 4162,
      "풰": 4163,
      "풱": 4164,
      "풸": 4165,
      "퓁": 4166,
      "퓌": 4167,
      "퓍": 4168,
      "퓐": 4169,
      "퓑": 4170,
      "퓒": 4171,
      "퓔": 4172,
      "퓡": 4173,
      "퓨": 4174,
      "퓩": 4175,
      "퓬": 4176,
      "퓯": 4177,
      "퓰": 4178,
      "퓸": 4179,
      "퓹": 4180,
      "퓽": 4181,
      "프": 4182,
      "픅": 4183,
      "픈": 4184,
      "플": 4185,
      "픍": 4186,
      "픒": 4187,
      "픔": 4188,
      "픕": 4189,
      "픗": 4190,
      "픙": 4191,
      "픝": 4192,
      "픞": 4193,
      "픠": 4194,
      "픨": 4195,
      "피": 4196,
      "픽": 4197,
      "핀": 4198,
      "핃": 4199,
      "필": 4200,
      "핊": 4201,
      "핌": 4202,
      "핍": 4203,
      "핏": 4204,
      "핑": 4205,
      "핓": 4206,
      "핔": 4207,
      "핕": 4208,
      "핖": 4209,
      "핗": 4210,
      "하": 4211,
      "학": 4212,
      "핚": 4213,
      "핛": 4214,
      "한": 4215,
      "핝": 4216,
      "핞": 4217,
      "핟": 4218,
      "할": 4219,
      "핡": 4220,
      "핢": 4221,
      "핣": 4222,
      "핤": 4223,
      "핥": 4224,
      "핧": 4225,
      "함": 4226,
      "합": 4227,
      "핫": 4228,
      "핬": 4229,
      "항": 4230,
      "핮": 4231,
      "핰": 4232,
      "핱": 4233,
      "핲": 4234,
      "핳": 4235,
      "해": 4236,
      "핵": 4237,
      "핷": 4238,
      "핸": 4239,
      "핻": 4240,
      "핼": 4241,
      "햄": 4242,
      "햅": 4243,
      "햇": 4244,
      "했": 4245,
      "행": 4246,
      "햊": 4247,
      "햋": 4248,
      "햌": 4249,
      "햏": 4250,
      "햐": 4251,
      "햑": 4252,
      "햔": 4253,
      "햘": 4254,
      "햛": 4255,
      "햝": 4256,
      "햞": 4257,
      "햟": 4258,
      "햠": 4259,
      "햡": 4260,
      "햣": 4261,
      "햤": 4262,
      "향": 4263,
      "햩": 4264,
      "햬": 4265,
      "햿": 4266,
      "헀": 4267,
      "헁": 4268,
      "허": 4269,
      "헉": 4270,
      "헌": 4271,
      "헐": 4272,
      "헑": 4273,
      "헒": 4274,
      "헔": 4275,
      "헕": 4276,
      "헗": 4277,
      "험": 4278,
      "헙": 4279,
      "헛": 4280,
      "헜": 4281,
      "헝": 4282,
      "헠": 4283,
      "헡": 4284,
      "헣": 4285,
      "헤": 4286,
      "헥": 4287,
      "헨": 4288,
      "헫": 4289,
      "헬": 4290,
      "헮": 4291,
      "헲": 4292,
      "헳": 4293,
      "헴": 4294,
      "헵": 4295,
      "헷": 4296,
      "헸": 4297,
      "헹": 4298,
      "헼": 4299,
      "헿": 4300,
      "혀": 4301,
      "혁": 4302,
      "혂": 4303,
      "현": 4304,
      "혅": 4305,
      "혆": 4306,
      "혇": 4307,
      "혈": 4308,
      "혌": 4309,
      "혐": 4310,
      "협": 4311,
      "혓": 4312,
      "혔": 4313,
      "형": 4314,
      "혖": 4315,
      "혛": 4316,
      "혜": 4317,
      "혠": 4318,
      "혤": 4319,
      "혬": 4320,
      "혭": 4321,
      "혯": 4322,
      "혱": 4323,
      "호": 4324,
      "혹": 4325,
      "혼": 4326,
      "혿": 4327,
      "홀": 4328,
      "홁": 4329,
      "홈": 4330,
      "홉": 4331,
      "홋": 4332,
      "홍": 4333,
      "홐": 4334,
      "홑": 4335,
      "홒": 4336,
      "홓": 4337,
      "화": 4338,
      "확": 4339,
      "홖": 4340,
      "홗": 4341,
      "환": 4342,
      "홛": 4343,
      "활": 4344,
      "홝": 4345,
      "홠": 4346,
      "홡": 4347,
      "홣": 4348,
      "홤": 4349,
      "홥": 4350,
      "홧": 4351,
      "홨": 4352,
      "황": 4353,
      "홪": 4354,
      "홫": 4355,
      "홮": 4356,
      "홯": 4357,
      "홰": 4358,
      "홱": 4359,
      "홴": 4360,
      "횃": 4361,
      "횄": 4362,
      "횅": 4363,
      "회": 4364,
      "획": 4365,
      "횎": 4366,
      "횐": 4367,
      "횔": 4368,
      "횝": 4369,
      "횟": 4370,
      "횡": 4371,
      "횢": 4372,
      "횧": 4373,
      "효": 4374,
      "횩": 4375,
      "횬": 4376,
      "횰": 4377,
      "횸": 4378,
      "횻": 4379,
      "횽": 4380,
      "횾": 4381,
      "훃": 4382,
      "후": 4383,
      "훅": 4384,
      "훆": 4385,
      "훈": 4386,
      "훋": 4387,
      "훌": 4388,
      "훍": 4389,
      "훎": 4390,
      "훏": 4391,
      "훑": 4392,
      "훒": 4393,
      "훓": 4394,
      "훔": 4395,
      "훕": 4396,
      "훗": 4397,
      "훘": 4398,
      "훙": 4399,
      "훜": 4400,
      "훝": 4401,
      "훟": 4402,
      "훠": 4403,
      "훡": 4404,
      "훤": 4405,
      "훨": 4406,
      "훪": 4407,
      "훰": 4408,
      "훳": 4409,
      "훴": 4410,
      "훵": 4411,
      "훻": 4412,
      "훼": 4413,
      "훽": 4414,
      "휀": 4415,
      "휄": 4416,
      "휅": 4417,
      "휇": 4418,
      "휌": 4419,
      "휍": 4420,
      "휏": 4421,
      "휐": 4422,
      "휑": 4423,
      "휗": 4424,
      "휘": 4425,
      "휙": 4426,
      "휜": 4427,
      "휠": 4428,
      "휨": 4429,
      "휩": 4430,
      "휫": 4431,
      "휭": 4432,
      "휴": 4433,
      "휵": 4434,
      "휸": 4435,
      "휼": 4436,
      "흄": 4437,
      "흇": 4438,
      "흉": 4439,
      "흋": 4440,
      "흐": 4441,
      "흑": 4442,
      "흔": 4443,
      "흕": 4444,
      "흗": 4445,
      "흘": 4446,
      "흙": 4447,
      "흝": 4448,
      "흟": 4449,
      "흠": 4450,
      "흡": 4451,
      "흣": 4452,
      "흥": 4453,
      "흨": 4454,
      "흩": 4455,
      "흫": 4456,
      "희": 4457,
      "흭": 4458,
      "흰": 4459,
      "흴": 4460,
      "흼": 4461,
      "흽": 4462,
      "흿": 4463,
      "힁": 4464,
      "힇": 4465,
      "히": 4466,
      "힉": 4467,
      "힌": 4468,
      "힏": 4469,
      "힐": 4470,
      "힘": 4471,
      "힙": 4472,
      "힛": 4473,
      "힜": 4474,
      "힝": 4475,
      "힞": 4476,
      "힠": 4477,
      "힡": 4478,
      "힢": 4479,
      "힣": 4480,
      "요</w>": 4481,
      "와</w>": 4482,
      "다</w>": 4483,
      "게</w>": 4484,
      "함</w>": 4485,
      "스</w>": 4486,
      "서</w>": 4487,
      "에</w>": 4488,
      "만</w>": 4489,
      "를</w>": 4490,
      "론</w>": 4491,
      "냐</w>": 4492,
      "고</w>": 4493,
      "중</w>": 4494,
      "로</w>": 4495,
      "g</w>": 4496,
      "h</w>": 4497,
      "8</w>": 4498,
      "도</w>": 4499,
      "건</w>": 4500,
      "면</w>": 4501,
      "치</w>": 4502,
      "수</w>": 4503,
      "n</w>": 4504,
      "라</w>": 4505,
      "2</w>": 4506,
      "바</w>": 4507,
      "가</w>": 4508,
      "는</w>": 4509,
      "승</w>": 4510,
      "내</w>": 4511,
      "의</w>": 4512,
      "터</w>": 4513,
      "니</w>": 4514,
      "허</w>": 4515,
      "럼</w>": 4516,
      "어</w>": 4517,
      "업</w>": 4518,
      "개</w>": 4519,
      "d</w>": 4520,
      "너</w>": 4521,
      "오</w>": 4522,
      "이</w>": 4523,
      "자</w>": 4524,
      "집</w>": 4525,
      "D</w>": 4526,
      "과</w>": 4527,
      "을</w>": 4528,
      "r</w>": 4529,
      "닝</w>": 4530,
      "줭</w>": 4531,
      "측</w>": 4532,
      "들</w>": 4533,
      "회</w>": 4534,
      "석</w>": 4535,
      "랑</w>": 4536,
      "까</w>": 4537,
      "s</w>": 4538,
      "장</w>": 4539,
      "공</w>": 4540,
      "0</w>": 4541,
      "한</w>": 4542,
      "며</w>": 4543,
      "미</w>": 4544,
      "점</w>": 4545,
      "우</w>": 4546,
      "텔</w>": 4547,
      "지</w>": 4548,
      "버</w>": 4549,
      "인</w>": 4550,
      "기</w>": 4551,
      "칸</w>": 4552,
      "야</w>": 4553,
      "설</w>": 4554,
      "률</w>": 4555,
      "진</w>": 4556,
      "급</w>": 4557,
      "은</w>": 4558,
      "천</w>": 4559,
      "켜</w>": 4560,
      "나</w>": 4561,
      "별</w>": 4562,
      "즈</w>": 4563,
      "용</w>": 4564,
      "사</w>": 4565,
      "판</w>": 4566,
      "쓰</w>": 4567,
      "속</w>": 4568,
      "분</w>": 4569,
      "억</w>": 4570,
      "즘</w>": 4571,
      "대</w>": 4572,
      "택</w>": 4573,
      "등</w>": 4574,
      "록</w>": 4575,
      "디</w>": 4576,
      "호</w>": 4577,
      "있</w>": 4578,
      "둥</w>": 4579,
      "세</w>": 4580,
      "죠</w>": 4581,
      "형</w>": 4582,
      "던</w>": 4583,
      "것</w>": 4584,
      "램</w>": 4585,
      "량</w>": 4586,
      "튼</w>": 4587,
      "e</w>": 4588,
      "적</w>": 4589,
      "계</w>": 4590,
      "생</w>": 4591,
      "란</w>": 4592,
      "일</w>": 4593,
      "비</w>": 4594,
      "데</w>": 4595,
      "제</w>": 4596,
      "시</w>": 4597,
      "츠</w>": 4598,
      "말</w>": 4599,
      "동</w>": 4600,
      "외</w>": 4601,
      "산</w>": 4602,
      "구</w>": 4603,
      "리</w>": 4604,
      "F</w>": 4605,
      "S</w>": 4606,
      "든</w>": 4607,
      "질</w>": 4608,
      "트</w>": 4609,
      "님</w>": 4610,
      "}</w>": 4611,
      "책</w>": 4612,
      "밋</w>": 4613,
      "켓</w>": 4614,
      "갈</w>": 4615,
      "드</w>": 4616,
      "께</w>": 4617,
      "품</w>": 4618,
      "경</w>": 4619,
      "i</w>": 4620,
      "담</w>": 4621,
      "길</w>": 4622,
      "년</w>": 4623,
      "N</w>": 4624,
      "울</w>": 4625,
      "후</w>": 4626,
      "국</w>": 4627,
      "쿠</w>": 4628,
      "겐</w>": 4629,
      "l</w>": 4630,
      "봐</w>": 4631,
      "원</w>": 4632,
      "5</w>": 4633,
      "될</w>": 4634,
      "듯</w>": 4635,
      "흥</w>": 4636,
      "해</w>": 4637,
      "콜</w>": 4638,
      "귀</w>": 4639,
      "H</w>": 4640,
      "된</w>": 4641,
      "당</w>": 4642,
      "전</w>": 4643,
      "보</w>": 4644,
      "랫</w>": 4645,
      "4</w>": 4646,
      "텍</w>": 4647,
      "A</w>": 4648,
      "펜</w>": 4649,
      "신</w>": 4650,
      "루</w>": 4651,
      "째</w>": 4652,
      "차</w>": 4653,
      "B</w>": 4654,
      "음</w>": 4655,
      "a</w>": 4656,
      "성</w>": 4657,
      "육</w>": 4658,
      "y</w>": 4659,
      "브</w>": 4660,
      "닷</w>": 4661,
      "식</w>": 4662,
      "하</w>": 4663,
      "체</w>": 4664,
      "환</w>": 4665,
      "꺼</w>": 4666,
      "링</w>": 4667,
      "화</w>": 4668,
      "법</w>": 4669,
      "부</w>": 4670,
      "C</w>": 4671,
      "위</w>": 4672,
      "술</w>": 4673,
      "웠</w>": 4674,
      "온</w>": 4675,
      "져</w>": 4676,
      "c</w>": 4677,
      "려</w>": 4678,
      "감</w>": 4679,
      "1</w>": 4680,
      "단</w>": 4681,
      "소</w>": 4682,
      "관</w>": 4683,
      "닉</w>": 4684,
      "렐</w>": 4685,
      "w</w>": 4686,
      "골</w>": 4687,
      "f</w>": 4688,
      "렌</w>": 4689,
      "약</w>": 4690,
      "노</w>": 4691,
      "낸</w>": 4692,
      "실</w>": 4693,
      "프</w>": 4694,
      "권</w>": 4695,
      "섭</w>": 4696,
      "방</w>": 4697,
      "임</w>": 4698,
      "v</w>": 4699,
      "거</w>": 4700,
      "삔</w>": 4701,
      "격</w>": 4702,
      "정</w>": 4703,
      "주</w>": 4704,
      "팀</w>": 4705,
      "민</w>": 4706,
      "쮸</w>": 4707,
      "운</w>": 4708,
      "각</w>": 4709,
      "O</w>": 4710,
      "재</w>": 4711,
      "t</w>": 4712,
      "색</w>": 4713,
      "선</w>": 4714,
      "쯤</w>": 4715,
      "틴</w>": 4716,
      "킷</w>": 4717,
      "o</w>": 4718,
      "꽃</w>": 4719,
      "획</w>": 4720,
      "팝</w>": 4721,
      "새</w>": 4722,
      "득</w>": 4723,
      "씨</w>": 4724,
      "두</w>": 4725,
      "홀</w>": 4726,
      "올</w>": 4727,
      "멘</w>": 4728,
      "밥</w>": 4729,
      "3</w>": 4730,
      "익</w>": 4731,
      "행</w>": 4732,
      "m</w>": 4733,
      "x</w>": 4734,
      "증</w>": 4735,
      "창</w>": 4736,
      "6</w>": 4737,
      "메</w>": 4738,
      "걸</w>": 4739,
      "문</w>": 4740,
      "콤</w>": 4741,
      "k</w>": 4742,
      "컷</w>": 4743,
      "매</w>": 4744,
      "케</w>": 4745,
      "합</w>": 4746,
      "직</w>": 4747,
      "칭</w>": 4748,
      "z</w>": 4749,
      "물</w>": 4750,
      "앱</w>": 4751,
      "롬</w>": 4752,
      "널</w>": 4753,
      "험</w>": 4754,
      "열</w>": 4755,
      "조</w>": 4756,
      "렘</w>": 4757,
      "교</w>": 4758,
      "긴</w>": 4759,
      "키</w>": 4760,
      "여</w>": 4761,
      "크</w>": 4762,
      "련</w>": 4763,
      "Y</w>": 4764,
      "써</w>": 4765,
      "또</w>": 4766,
      "안</w>": 4767,
      "알</w>": 4768,
      "학</w>": 4769,
      "봇</w>": 4770,
      "림</w>": 4771,
      "때</w>": 4772,
      "뇰</w>": 4773,
      "션</w>": 4774,
      "무</w>": 4775,
      "엔</w>": 4776,
      "큼</w>": 4777,
      "역</w>": 4778,
      "능</w>": 4779,
      "통</w>": 4780,
      "복</w>": 4781,
      "뻔</w>": 4782,
      "북</w>": 4783,
      "패</w>": 4784,
      "타</w>": 4785,
      "뒤</w>": 4786,
      "느</w>": 4787,
      "p</w>": 4788,
      "언</w>": 4789,
      "아</w>": 4790,
      "곡</w>": 4791,
      "러</w>": 4792,
      "굴</w>": 4793,
      "b</w>": 4794,
      "R</w>": 4795,
      "쏘</w>": 4796,
      "상</w>": 4797,
      "번</w>": 4798,
      "명</w>": 4799,
      "슬</w>": 4800,
      "됨</w>": 4801,
      "쁜</w>": 4802,
      "향</w>": 4803,
      "땅</w>": 4804,
      "찬</w>": 4805,
      "접</w>": 4806,
      "령</w>": 4807,
      "짱</w>": 4808,
      "V</w>": 4809,
      "존</w>": 4810,
      "혜</w>": 4811,
      "린</w>": 4812,
      "숙</w>": 4813,
      "략</w>": 4814,
      "악</w>": 4815,
      "9</w>": 4816,
      "냉</w>": 4817,
      "류</w>": 4818,
      "굄</w>": 4819,
      "출</w>": 4820,
      "췌</w>": 4821,
      "옥</w>": 4822,
      "근</w>": 4823,
      "폰</w>": 4824,
      "왕</w>": 4825,
      "극</w>": 4826,
      "완</w>": 4827,
      "꼰</w>": 4828,
      "녕</w>": 4829,
      "철</w>": 4830,
      "냄</w>": 4831,
      "준</w>": 4832,
      "딩</w>": 4833,
      "잔</w>": 4834,
      "뿐</w>": 4835,
      "율</w>": 4836,
      "머</w>": 4837,
      "청</w>": 4838,
      "띠</w>": 4839,
      "킹</w>": 4840,
      "르</w>": 4841,
      "섬</w>": 4842,
      "녀</w>": 4843,
      "할</w>": 4844,
      "넨</w>": 4845,
      "코</w>": 4846,
      "런</w>": 4847,
      "포</w>": 4848,
      "둔</w>": 4849,
      "붓</w>": 4850,
      "표</w>": 4851,
      "초</w>": 4852,
      "7</w>": 4853,
      "웃</w>": 4854,
      "종</w>": 4855,
      "T</w>": 4856,
      "좀</w>": 4857,
      "템</w>": 4858,
      "습</w>": 4859,
      "더</w>": 4860,
      "찌</w>": 4861,
      "젤</w>": 4862,
      "간</w>": 4863,
      "되</w>": 4864,
      "훽</w>": 4865,
      "탁</w>": 4866,
      "칙</w>": 4867,
      "떄</w>": 4868,
      "톡</w>": 4869,
      "몰</w>": 4870,
      "강</w>": 4871,
      "영</w>": 4872,
      "줄</w>": 4873,
      "곳</w>": 4874,
      "I</w>": 4875,
      "E</w>": 4876,
      "앗</w>": 4877,
      "마</w>": 4878,
      "테</w>": 4879,
      "모</w>": 4880,
      "플</w>": 4881,
      "착</w>": 4882,
      "유</w>": 4883,
      "규</w>": 4884,
      "커</w>": 4885,
      "티</w>": 4886,
      "죄</w>": 4887,
      "양</w>": 4888,
      "반</w>": 4889,
      "겡</w>": 4890,
      "및</w>": 4891,
      "벌</w>": 4892,
      "발</w>": 4893,
      "금</w>": 4894,
      "히</w>": 4895,
      "그</w>": 4896,
      "u</w>": 4897,
      "날</w>": 4898,
      "본</w>": 4899,
      "친</w>": 4900,
      "뇨</w>": 4901,
      "군</w>": 4902,
      "락</w>": 4903,
      "혈</w>": 4904,
      "밴</w>": 4905,
      "셋</w>": 4906,
      "광</w>": 4907,
      "태</w>": 4908,
      "팅</w>": 4909,
      "벨</w>": 4910,
      "침</w>": 4911,
      "저</w>": 4912,
      "송</w>": 4913,
      "블</w>": 4914,
      "병</w>": 4915,
      "독</w>": 4916,
      "즐</w>": 4917,
      "펙</w>": 4918,
      "Q</w>": 4919,
      "P</w>": 4920,
      "윙</w>": 4921,
      "즌</w>": 4922,
      "애</w>": 4923,
      "례</w>": 4924,
      "샵</w>": 4925,
      "휘</w>": 4926,
      "축</w>": 4927,
      "뇸</w>": 4928,
      "돈</w>": 4929,
      "심</w>": 4930,
      "픽</w>": 4931,
      "랩</w>": 4932,
      "닌</w>": 4933,
      "곤</w>": 4934,
      "희</w>": 4935,
      "콩</w>": 4936,
      "섯</w>": 4937,
      "글</w>": 4938,
      "M</w>": 4939,
      "뭇</w>": 4940,
      "봉</w>": 4941,
      "네</w>": 4942,
      "렬</w>": 4943,
      "편</w>": 4944,
      "움</w>": 4945,
      "탈</w>": 4946,
      "월</w>": 4947,
      "엣</w>": 4948,
      "젼</w>": 4949,
      "밀</w>": 4950,
      "쇼</w>": 4951,
      "웅</w>": 4952,
      "닛</w>": 4953,
      "럽</w>": 4954,
      "족</w>": 4955,
      "볕</w>": 4956,
      "틱</w>": 4957,
      "씩</w>": 4958,
      "핏</w>": 4959,
      "틸</w>": 4960,
      "입</w>": 4961,
      "Z</w>": 4962,
      "쟁</w>": 4963,
      "혼</w>": 4964,
      "순</w>": 4965,
      "염</w>": 4966,
      "캔</w>": 4967,
      "잘</w>": 4968,
      "[</w>": 4969,
      "홍</w>": 4970,
      "돼</w>": 4971,
      "G</w>": 4972,
      "촉</w>": 4973,
      "름</w>": 4974,
      "료</w>": 4975,
      "킨</w>": 4976,
      "즙</w>": 4977,
      "래</w>": 4978,
      "컬</w>": 4979,
      "K</w>": 4980,
      "남</w>": 4981,
      "맛</w>": 4982,
      "층</w>": 4983,
      "액</w>": 4984,
      "탄</w>": 4985,
      "룹</w>": 4986,
      "떨</w>": 4987,
      "탑</w>": 4988,
      "L</w>": 4989,
      "슈</w>": 4990,
      "딜</w>": 4991,
      "변</w>": 4992,
      "턴</w>": 4993,
      "듀</w>": 4994,
      "촌</w>": 4995,
      "파</w>": 4996,
      "낼</w>": 4997,
      "목</w>": 4998,
      "넣</w>": 4999,
      "센</w>": 5000,
      "X</w>": 5001,
      "예</w>": 5002,
      "투</w>": 5003,
      "땐</w>": 5004,
      "른</w>": 5005,
      "페</w>": 5006,
      "낄</w>": 5007,
      "넥</w>": 5008,
      "달</w>": 5009,
      "꼬</w>": 5010,
      "맨</w>": 5011,
      "앵</w>": 5012,
      "픈</w>": 5013,
      "협</w>": 5014,
      "연</w>": 5015,
      "맹</w>": 5016,
      "톤</w>": 5017,
      "박</w>": 5018,
      "룬</w>": 5019,
      "젠</w>": 5020,
      "팩</w>": 5021,
      "뱅</w>": 5022,
      "항</w>": 5023,
      "레</w>": 5024,
      "몬</w>": 5025,
      "싱</w>": 5026,
      "쪽</w>": 5027,
      "킬</w>": 5028,
      "채</w>": 5029,
      "절</w>": 5030,
      "슨</w>": 5031,
      "백</w>": 5032,
      "꼴</w>": 5033,
      "봄</w>": 5034,
      "넷</w>": 5035,
      "작</w>": 5036,
      "혁</w>": 5037,
      "카</w>": 5038,
      "암</w>": 5039,
      "람</w>": 5040,
      "뽑</w>": 5041,
      "취</w>": 5042,
      "찰</w>": 5043,
      "죽</w>": 5044,
      "립</w>": 5045,
      "범</w>": 5046,
      "받</w>": 5047,
      "력</w>": 5048,
      "엘</w>": 5049,
      "짐</w>": 5050,
      "묘</w>": 5051,
      "척</w>": 5052,
      "피</w>": 5053,
      "릴</w>": 5054,
      "핑</w>": 5055,
      "쿨</w>": 5056,
      "짜</w>": 5057,
      "워</w>": 5058,
      "텝</w>": 5059,
      "붐</w>": 5060,
      "토</w>": 5061,
      "빈</w>": 5062,
      "끼</w>": 5063,
      "배</w>": 5064,
      "캠</w>": 5065,
      "뼘</w>": 5066,
      "델</w>": 5067,
      "륙</w>": 5068,
      "춘</w>": 5069,
      "릿</w>": 5070,
      "쉐</w>": 5071,
      "먼</w>": 5072,
      "읍</w>": 5073,
      "불</w>": 5074,
      "똑</w>": 5075,
      "처</w>": 5076,
      "컴</w>": 5077,
      "셜</w>": 5078,
      "솔</w>": 5079,
      "잩</w>": 5080,
      "삭</w>": 5081,
      "현</w>": 5082,
      "랴</w>": 5083,
      "릭</w>": 5084,
      "렁</w>": 5085,
      "콘</w>": 5086,
      "펌</w>": 5087,
      "응</w>": 5088,
      "맘</w>": 5089,
      "막</w>": 5090,
      "풀</w>": 5091,
      "컵</w>": 5092,
      "셈</w>": 5093,
      "검</w>": 5094,
      "볼</w>": 5095,
      "참</w>": 5096,
      "퍼</w>": 5097,
      "뎅</w>": 5098,
      "떼</w>": 5099,
      "밍</w>": 5100,
      "딱</w>": 5101,
      "값</w>": 5102,
      "김</w>": 5103,
      "낌</w>": 5104,
      "윤</w>": 5105,
      "좌</w>": 5106,
      "쨩</w>": 5107,
      "괴</w>": 5108,
      "걔</w>": 5109,
      "특</w>": 5110,
      "W</w>": 5111,
      "팡</w>": 5112,
      "폭</w>": 5113,
      "펏</w>": 5114,
      "헌</w>": 5115,
      "풍</w>": 5116,
      "닐</w>": 5117,
      "썰</w>": 5118,
      "으</w>": 5119,
      "잠</w>": 5120,
      "뇬</w>": 5121,
      "념</w>": 5122,
      "탱</w>": 5123,
      "롱</w>": 5124,
      "줘</w>": 5125,
      "효</w>": 5126,
      "졍</w>": 5127,
      "벽</w>": 5128,
      "쉬</w>": 5129,
      "씀</w>": 5130,
      "겟</w>": 5131,
      "추</w>": 5132,
      "징</w>": 5133,
      "j</w>": 5134,
      ")</w>": 5135,
      "뚱</w>": 5136,
      "결</w>": 5137,
      "맵</w>": 5138,
      "q</w>": 5139,
      "찮</w>": 5140,
      "황</w>": 5141,
      "팁</w>": 5142,
      "견</w>": 5143,
      "윗</w>": 5144,
      "짓</w>": 5145,
      "얼</w>": 5146,
      "팸</w>": 5147,
      "휠</w>": 5148,
      "젯</w>": 5149,
      "퀴</w>": 5150,
      "쉘</w>": 5151,
      "꾼</w>": 5152,
      "뷰</w>": 5153,
      "망</w>": 5154,
      "쳐</w>": 5155,
      "롤</w>": 5156,
      "챌</w>": 5157,
      "낯</w>": 5158,
      "!</w>": 5159,
      "냥</w>": 5160,
      "훈</w>": 5161,
      "탕</w>": 5162,
      "옹</w>": 5163,
      "맥</w>": 5164,
      "팔</w>": 5165,
      "겨</w>": 5166,
      "땡</w>": 5167,
      "난</w>": 5168,
      "셀</w>": 5169,
      "엠</w>": 5170,
      "U</w>": 5171,
      "총</w>": 5172,
      "흐</w>": 5173,
      "균</w>": 5174,
      "활</w>": 5175,
      "넬</w>": 5176,
      "딸</w>": 5177,
      "윈</w>": 5178,
      "켠</w>": 5179,
      "쥬</w>": 5180,
      "쇄</w>": 5181,
      "삼</w>": 5182,
      "팍</w>": 5183,
      "밈</w>": 5184,
      "랜</w>": 5185,
      "껫</w>": 5186,
      "첨</w>": 5187,
      "슴</w>": 5188,
      "놈</w>": 5189,
      "깐</w>": 5190,
      "쌤</w>": 5191,
      "룸</w>": 5192,
      "랙</w>": 5193,
      "졸</w>": 5194,
      "벳</w>": 5195,
      "엄</w>": 5196,
      "필</w>": 5197,
      "첼</w>": 5198,
      "덜</w>": 5199,
      "캣</w>": 5200,
      "닭</w>": 5201,
      "렛</w>": 5202,
      "놀</w>": 5203,
      "돔</w>": 5204,
      "샤</w>": 5205,
      "욱</w>": 5206,
      "납</w>": 5207,
      "섶</w>": 5208,
      "앤</w>": 5209,
      "욕</w>": 5210,
      "찡</w>": 5211,
      "빵</w>": 5212,
      "떡</w>": 5213,
      "렴</w>": 5214,
      "옷</w>": 5215,
      "댈</w>": 5216,
      "찜</w>": 5217,
      "탓</w>": 5218,
      "꾸</w>": 5219,
      "녁</w>": 5220,
      "팟</w>": 5221,
      "덕</w>": 5222,
      "팬</w>": 5223,
      "힐</w>": 5224,
      "겸</w>": 5225,
      "십</w>": 5226,
      "숴</w>": 5227,
      "클</w>": 5228,
      "낀</w>": 5229,
      "딘</w>": 5230,
      "폼</w>": 5231,
      "햅</w>": 5232,
      "빽</w>": 5233,
      "낙</w>": 5234,
      "믹</w>": 5235,
      "빗</w>": 5236,
      "릉</w>": 5237,
      "덤</w>": 5238,
      "닥</w>": 5239,
      "눔</w>": 5240,
      "탠</w>": 5241,
      "듈</w>": 5242,
      "핛</w>": 5243,
      "웰</w>": 5244,
      "랄</w>": 5245,
      "깔</w>": 5246,
      "죵</w>": 5247,
      "륜</w>": 5248,
      "킴</w>": 5249,
      "띵</w>": 5250,
      "샷</w>": 5251,
      "빌</w>": 5252,
      "튀</w>": 5253,
      "탭</w>": 5254,
      "슘</w>": 5255,
      "끄</w>": 5256,
      "캡</w>": 5257,
      "웡</w>": 5258,
      "즁</w>": 5259,
      "뜨</w>": 5260,
      "돌</w>": 5261,
      "덧</w>": 5262,
      "밭</w>": 5263,
      "딕</w>": 5264,
      "털</w>": 5265,
      "칩</w>": 5266,
      "넛</w>": 5267,
      "랍</w>": 5268,
      "뿜</w>": 5269,
      "듣</w>": 5270,
      "녹</w>": 5271,
      "흔</w>": 5272,
      "텐</w>": 5273,
      "젃</w>": 5274,
      "흠</w>": 5275,
      "푸</w>": 5276,
      "쩍</w>": 5277,
      "썬</w>": 5278,
      "@</w>": 5279,
      "쿡</w>": 5280,
      ".</w>": 5281,
      "롯</w>": 5282,
      "싹</w>": 5283,
      "멍</w>": 5284,
      "몹</w>": 5285,
      "쌀</w>": 5286,
      "끔</w>": 5287,
      "없</w>": 5288,
      "뮬</w>": 5289,
      "휴</w>": 5290,
      "밠</w>": 5291,
      "객</w>": 5292,
      "룩</w>": 5293,
      "따</w>": 5294,
      "최</w>": 5295,
      "엽</w>": 5296,
      "뽀</w>": 5297,
      "툰</w>": 5298,
      "훗</w>": 5299,
      "했</w>": 5300,
      "읕</w>": 5301,
      "덴</w>": 5302,
      "똥</w>": 5303,
      "샨</w>": 5304,
      "욤</w>": 5305,
      "늄</w>": 5306,
      "큰</w>": 5307,
      "댕</w>": 5308,
      "튠</w>": 5309,
      "둠</w>": 5310,
      "흑</w>": 5311,
      "J</w>": 5312,
      "궁</w>": 5313,
      "빙</w>": 5314,
      "싼</w>": 5315,
      "베</w>": 5316,
      "칼</w>": 5317,
      "늘</w>": 5318,
      "덩</w>": 5319,
      "멀</w>": 5320,
      "묵</w>": 5321,
      "쬬</w>": 5322,
      "찍</w>": 5323,
      "햇</w>": 5324,
      "궤</w>": 5325,
      "얌</w>": 5326,
      "핀</w>": 5327,
      "폿</w>": 5328,
      "칠</w>": 5329,
      "숏</w>": 5330,
      "밑</w>": 5331,
      "앞</w>": 5332,
      "딴</w>": 5333,
      "충</w>": 5334,
      "큐</w>": 5335,
      "툴</w>": 5336,
      "륨</w>": 5337,
      "쥐</w>": 5338,
      "왈</w>": 5339,
      "젝</w>": 5340,
      "첫</w>": 5341,
      "혀</w>": 5342,
      "핫</w>": 5343,
      "평</w>": 5344,
      "릇</w>": 5345,
      "픔</w>": 5346,
      "홈</w>": 5347,
      "끈</w>": 5348,
      "샘</w>": 5349,
      "밤</w>": 5350,
      "콧</w>": 5351,
      "잇</w>": 5352,
      "븐</w>": 5353,
      "댜</w>": 5354,
      "럴</w>": 5355,
      "렉</w>": 5356,
      "(</w>": 5357,
      "논</w>": 5358,
      "몽</w>": 5359,
      "댄</w>": 5360,
      "듐</w>": 5361,
      "곰</w>": 5362,
      "셔</w>": 5363,
      "펫</w>": 5364,
      "훌</w>": 5365,
      "펑</w>": 5366,
      "잭</w>": 5367,
      "누</w>": 5368,
      "냅</w>": 5369,
      "둑</w>": 5370,
      "돠</w>": 5371,
      "룡</w>": 5372,
      "춸</w>": 5373,
      "눈</w>": 5374,
      "옌</w>": 5375,
      "짤</w>": 5376,
      "덬</w>": 5377,
      "쩡</w>": 5378,
      "핵</w>": 5379,
      "줌</w>": 5380,
      "갬</w>": 5381,
      "굿</w>": 5382,
      "빠</w>": 5383,
      "잖</w>": 5384,
      "/</w>": 5385,
      "손</w>": 5386,
      "폴</w>": 5387,
      "룻</w>": 5388,
      "짝</w>": 5389,
      "닞</w>": 5390,
      "솜</w>": 5391,
      "톰</w>": 5392,
      "캥</w>": 5393,
      "싶</w>": 5394,
      "둘</w>": 5395,
      "뉴</w>": 5396,
      "넹</w>": 5397,
      "뮘</w>": 5398,
      "숑</w>": 5399,
      "껀</w>": 5400,
      "죤</w>": 5401,
      "퀀</w>": 5402,
      "킵</w>": 5403,
      "빛</w>": 5404,
      "옮</w>": 5405,
      "뭐</w>": 5406,
      "앟</w>": 5407,
      "므</w>": 5408,
      "펍</w>": 5409,
      "퇘</w>": 5410,
      "첩</w>": 5411,
      "헬</w>": 5412,
      "웹</w>": 5413,
      "쳬</w>": 5414,
      "겜</w>": 5415,
      "셧</w>": 5416,
      "뢰</w>": 5417,
      "춤</w>": 5418,
      "갑</w>": 5419,
      "빼</w>": 5420,
      "쥴</w>": 5421,
      "툼</w>": 5422,
      "첵</w>": 5423,
      "압</w>": 5424,
      "슐</w>": 5425,
      "켄</w>": 5426,
      "츄</w>": 5427,
      "빨</w>": 5428,
      "\"</w>": 5429,
      "썸</w>": 5430,
      "벡</w>": 5431,
      "빅</w>": 5432,
      "껏</w>": 5433,
      "끗</w>": 5434,
      "챈</w>": 5435,
      "헤</w>": 5436,
      "믄</w>": 5437,
      "덱</w>": 5438,
      "촬</w>": 5439,
      "숲</w>": 5440,
      "셨</w>": 5441,
      "살</w>": 5442,
      "힌</w>": 5443,
      "갓</w>": 5444,
      "멸</w>": 5445,
      "빔</w>": 5446,
      "츳</w>": 5447,
      "숍</w>": 5448,
      "쓴</w>": 5449,
      "섹</w>": 5450,
      "탴</w>": 5451,
      "삽</w>": 5452,
      "쏙</w>": 5453,
      "넌</w>": 5454,
      "켙</w>": 5455,
      "뚤</w>": 5456,
      "펠</w>": 5457,
      "갤</w>": 5458,
      "퀘</w>": 5459,
      "욜</w>": 5460,
      "몀</w>": 5461,
      "텟</w>": 5462,
      "톱</w>": 5463,
      "욧</w>": 5464,
      "됐</w>": 5465,
      "뀌</w>": 5466,
      "쉽</w>": 5467,
      "힘</w>": 5468,
      "컥</w>": 5469,
      "폐</w>": 5470,
      "퇴</w>": 5471,
      "얀</w>": 5472,
      "답</w>": 5473,
      "햄</w>": 5474,
      "늬</w>": 5475,
      "쌰</w>": 5476,
      "깨</w>": 5477,
      "겔</w>": 5478,
      "흡</w>": 5479,
      "숨</w>": 5480,
      "얏</w>": 5481,
      "곱</w>": 5482,
      "꿈</w>": 5483,
      "잡</w>": 5484,
      "욉</w>": 5485,
      "농</w>": 5486,
      "틀</w>": 5487,
      "앰</w>": 5488,
      "엉</w>": 5489,
      "꽤</w>": 5490,
      "섰</w>": 5491,
      "긁</w>": 5492,
      "챠</w>": 5493,
      "?</w>": 5494,
      "뉨</w>": 5495,
      "턱</w>": 5496,
      "잉</w>": 5497,
      "싸</w>": 5498,
      "왑</w>": 5499,
      "젬</w>": 5500,
      "캬</w>": 5501,
      "욥</w>": 5502,
      "읜</w>": 5503,
      "앙</w>": 5504,
      "럭</w>": 5505,
      "댑</w>": 5506,
      "웬</w>": 5507,
      "륵</w>": 5508,
      "융</w>": 5509,
      "괄</w>": 5510,
      "-</w>": 5511,
      "헴</w>": 5512,
      "칵</w>": 5513,
      "챤</w>": 5514,
      "윅</w>": 5515,
      "쭉</w>": 5516,
      "쇳</w>": 5517,
      "낭</w>": 5518,
      "]</w>": 5519,
      "툭</w>": 5520,
      "웜</w>": 5521,
      "쉿</w>": 5522,
      "솥</w>": 5523,
      "멧</w>": 5524,
      ",</w>": 5525,
      "졌</w>": 5526,
      "딤</w>": 5527,
      "떤</w>": 5528,
      "텅</w>": 5529,
      "촵</w>": 5530,
      "렵</w>": 5531,
      "빰</w>": 5532,
      "뎁</w>": 5533,
      "쇽</w>": 5534,
      "엥</w>": 5535,
      "껌</w>": 5536,
      "껄</w>": 5537,
      "쁨</w>": 5538,
      "푼</w>": 5539,
      "꿍</w>": 5540,
      "멉</w>": 5541,
      "읨</w>": 5542,
      "혹</w>": 5543,
      "퇀</w>": 5544,
      "왜</w>": 5545,
      "춰</w>": 5546,
      "옴</w>": 5547,
      "쌍</w>": 5548,
      "싫</w>": 5549,
      "쿤</w>": 5550,
      "잎</w>": 5551,
      "훔</w>": 5552,
      "'</w>": 5553,
      "쪙</w>": 5554,
      "쾅</w>": 5555,
      "괘</w>": 5556,
      "긔</w>": 5557,
      "쪄</w>": 5558,
      "팜</w>": 5559,
      "쳑</w>": 5560,
      "얄</w>": 5561,
      "옆</w>": 5562,
      "뜰</w>": 5563,
      "꾹</w>": 5564,
      "튜</w>": 5565,
      "었</w>": 5566,
      "핌</w>": 5567,
      "캉</w>": 5568,
      "멈</w>": 5569,
      "걱</w>": 5570,
      "훕</w>": 5571,
      "뚝</w>": 5572,
      "뜸</w>": 5573,
      "쑥</w>": 5574,
      "귄</w>": 5575,
      "쨈</w>": 5576,
      "캄</w>": 5577,
      "꼭</w>": 5578,
      "빡</w>": 5579,
      "붕</w>": 5580,
      "긋</w>": 5581,
      "뇌</w>": 5582,
      "쳥</w>": 5583,
      "꼽</w>": 5584,
      "놔</w>": 5585,
      "읗</w>": 5586,
      "렸</w>": 5587,
      "듬</w>": 5588,
      "삶</w>": 5589,
      "덷</w>": 5590,
      "겠</w>": 5591,
      "롸</w>": 5592,
      "였</w>": 5593,
      "뼈</w>": 5594,
      "떰</w>": 5595,
      "퀸</w>": 5596,
      "뷔</w>": 5597,
      "렷</w>": 5598,
      "뀜</w>": 5599,
      "룰</w>": 5600,
      "딧</w>": 5601,
      "뫜</w>": 5602,
      "멫</w>": 5603,
      "횡</w>": 5604,
      "쇠</w>": 5605,
      "랭</w>": 5606,
      "흘</w>": 5607,
      "낵</w>": 5608,
      "숀</w>": 5609,
      "셑</w>": 5610,
      "굽</w>": 5611,
      "힉</w>": 5612,
      "딥</w>": 5613,
      "뺅</w>": 5614,
      "눴</w>": 5615,
      "깅</w>": 5616,
      "셉</w>": 5617,
      "쓸</w>": 5618,
      "쁙</w>": 5619,
      "냑</w>": 5620,
      "롭</w>": 5621,
      "눅</w>": 5622,
      "댐</w>": 5623,
      "닼</w>": 5624,
      "랏</w>": 5625,
      "뱐</w>": 5626,
      "뺘</w>": 5627,
      "왁</w>": 5628,
      "뜬</w>": 5629,
      "롄</w>": 5630,
      "춧</w>": 5631,
      "헐</w>": 5632,
      "엡</w>": 5633,
      "윌</w>": 5634,
      "삿</w>": 5635,
      "쯔</w>": 5636,
      "펭</w>": 5637,
      "풋</w>": 5638,
      "톈</w>": 5639,
      "웨</w>": 5640,
      "겹</w>": 5641,
      "덥</w>": 5642,
      "쿵</w>": 5643,
      "몸</w>": 5644,
      "녜</w>": 5645,
      "쿄</w>": 5646,
      "삐</w>": 5647,
      "꿜</w>": 5648,
      "컨</w>": 5649,
      "펄</w>": 5650,
      "눕</w>": 5651,
      "닾</w>": 5652,
      "왠</w>": 5653,
      "좋</w>": 5654,
      "몇</w>": 5655,
      "좡</w>": 5656,
      "띡</w>": 5657,
      "쩐</w>": 5658,
      "잼</w>": 5659,
      "같</w>": 5660,
      "멋</w>": 5661,
      "늣</w>": 5662,
      "껴</w>": 5663,
      "곽</w>": 5664,
      "갱</w>": 5665,
      "댓</w>": 5666,
      "뜻</w>": 5667,
      "쭁</w>": 5668,
      "셸</w>": 5669,
      "낫</w>": 5670,
      "헠</w>": 5671,
      "삥</w>": 5672,
      "틧</w>": 5673,
      "헨</w>": 5674,
      "땀</w>": 5675,
      "톨</w>": 5676,
      "슝</w>": 5677,
      "퉁</w>": 5678,
      "렙</w>": 5679,
      "틈</w>": 5680,
      "읭</w>": 5681,
      "빚</w>": 5682,
      "확</w>": 5683,
      "벗</w>": 5684,
      "끝</w>": 5685,
      "뎀</w>": 5686,
      "늑</w>": 5687,
      "높</w>": 5688,
      "듭</w>": 5689,
      "냔</w>": 5690,
      "뫼</w>": 5691,
      "뱀</w>": 5692,
      "텡</w>": 5693,
      "헙</w>": 5694,
      "숯</w>": 5695,
      "얖</w>": 5696,
      "콕</w>": 5697,
      "쌈</w>": 5698,
      "꽈</w>": 5699,
      "댁</w>": 5700,
      "찹</w>": 5701,
      "캇</w>": 5702,
      "벤</w>": 5703,
      "퀄</w>": 5704,
      "쿱</w>": 5705,
      "됴</w>": 5706,
      "밧</w>": 5707,
      "샹</w>": 5708,
      "펀</w>": 5709,
      "씬</w>": 5710,
      "샾</w>": 5711,
      "륌</w>": 5712,
      "폄</w>": 5713,
      "숭</w>": 5714,
      "꽂</w>": 5715,
      "캅</w>": 5716,
      "먄</w>": 5717,
      "늪</w>": 5718,
      "겆</w>": 5719,
      "땜</w>": 5720,
      "힝</w>": 5721,
      "갖</w>": 5722,
      "셰</w>": 5723,
      "끉</w>": 5724,
      "뒷</w>": 5725,
      "캑</w>": 5726,
      "긿</w>": 5727,
      "탐</w>": 5728,
      "벵</w>": 5729,
      "쵹</w>": 5730,
      "휏</w>": 5731,
      "둬</w>": 5732,
      "뚠</w>": 5733,
      "엑</w>": 5734,
      "쟈</w>": 5735,
      "쉰</w>": 5736,
      "텀</w>": 5737,
      "쟌</w>": 5738,
      "혐</w>": 5739,
      "웁</w>": 5740,
      "쉔</w>": 5741,
      "왔</w>": 5742,
      "젓</w>": 5743,
      "쿰</w>": 5744,
      "뻐</w>": 5745,
      "먹</w>": 5746,
      "끽</w>": 5747,
      "콰</w>": 5748,
      "쁠</w>": 5749,
      "즉</w>": 5750,
      "떪</w>": 5751,
      "꼐</w>": 5752,
      ":</w>": 5753,
      "쵸</w>": 5754,
      "쌩</w>": 5755,
      "닙</w>": 5756,
      "못</w>": 5757,
      "튐</w>": 5758,
      "샬</w>": 5759,
      "좆</w>": 5760,
      "헝</w>": 5761,
      "꿀</w>": 5762,
      "짹</w>": 5763,
      "쏴</w>": 5764,
      "썽</w>": 5765,
      "첸</w>": 5766,
      "옻</w>": 5767,
      "귤</w>": 5768,
      "뽕</w>": 5769,
      "썩</w>": 5770,
      "넘</w>": 5771,
      "퐁</w>": 5772,
      "뮤</w>": 5773,
      "믈</w>": 5774,
      "꼼</w>": 5775,
      "쎄</w>": 5776,
      "쫌</w>": 5777,
      "켈</w>": 5778,
      "껑</w>": 5779,
      "껜</w>": 5780,
      "췰</w>": 5781,
      "{</w>": 5782,
      "륭</w>": 5783,
      "굳</w>": 5784,
      "퀵</w>": 5785,
      "켘</w>": 5786,
      "았</w>": 5787,
      "냠</w>": 5788,
      "쥔</w>": 5789,
      "갸</w>": 5790,
      "깡</w>": 5791,
      "갔</w>": 5792,
      "픙</w>": 5793,
      "\\</w>": 5794,
      "콥</w>": 5795,
      "쳄</w>": 5796,
      "춯</w>": 5797,
      "솝</w>": 5798,
      "쿼</w>": 5799,
      "칻</w>": 5800,
      "궐</w>": 5801,
      "룽</w>": 5802,
      "뻡</w>": 5803,
      "먀</w>": 5804,
      "헉</w>": 5805,
      "켐</w>": 5806,
      "늉</w>": 5807,
      "쳔</w>": 5808,
      "뤄</w>": 5809,
      "맏</w>": 5810,
      "냈</w>": 5811,
      "캐</w>": 5812,
      "챂</w>": 5813,
      "짭</w>": 5814,
      "렝</w>": 5815,
      "뎔</w>": 5816,
      "셴</w>": 5817,
      "엇</w>": 5818,
      "깃</w>": 5819,
      "쉭</w>": 5820,
      "렞</w>": 5821,
      "휩</w>": 5822,
      "럿</w>": 5823,
      "텨</w>": 5824,
      "맬</w>": 5825,
      "닏</w>": 5826,
      "챕</w>": 5827,
      "릍</w>": 5828,
      "헑</w>": 5829,
      "킥</w>": 5830,
      "긕</w>": 5831,
      "잍</w>": 5832,
      "헿</w>": 5833,
      "듸</w>": 5834,
      "햐</w>": 5835,
      "챔</w>": 5836,
      "볜</w>": 5837,
      "묜</w>": 5838,
      "곧</w>": 5839,
      "틂</w>": 5840,
      "썹</w>": 5841,
      "뭄</w>": 5842,
      "벼</w>": 5843,
      "짠</w>": 5844,
      "탤</w>": 5845,
      "됩</w>": 5846,
      "녘</w>": 5847,
      "헣</w>": 5848,
      "튬</w>": 5849,
      "돋</w>": 5850,
      "뎃</w>": 5851,
      "쳇</w>": 5852,
      "쁘</w>": 5853,
      "뱃</w>": 5854,
      "멜</w>": 5855,
      "젖</w>": 5856,
      "넵</w>": 5857,
      "봤</w>": 5858,
      "겄</w>": 5859,
      "곬</w>": 5860,
      "졔</w>": 5861,
      "쫑</w>": 5862,
      "쉑</w>": 5863,
      "슛</w>": 5864,
      "듦</w>": 5865,
      "젹</w>": 5866,
      "뇽</w>": 5867,
      "긱</w>": 5868,
      "쉼</w>": 5869,
      "굼</w>": 5870,
      "돝</w>": 5871,
      "튄</w>": 5872,
      "깁</w>": 5873,
      "샌</w>": 5874,
      "뚬</w>": 5875,
      "팽</w>": 5876,
      "꼿</w>": 5877,
      "욹</w>": 5878,
      "뻑</w>": 5879,
      "닢</w>": 5880,
      "벅</w>": 5881,
      "쟝</w>": 5882,
      "잌</w>": 5883,
      "겊</w>": 5884,
      "꽁</w>": 5885,
      "멕</w>": 5886,
      "쑤</w>": 5887,
      "녔</w>": 5888,
      "뚜</w>": 5889,
      "뎌</w>": 5890,
      "쪼</w>": 5891,
      "빤</w>": 5892,
      "셤</w>": 5893,
      "뽐</w>": 5894,
      "꿔</w>": 5895,
      "뿔</w>": 5896,
      "옵</w>": 5897,
      "낮</w>": 5898,
      "곁</w>": 5899,
      "엿</w>": 5900,
      "틑</w>": 5901,
      "괌</w>": 5902,
      "뤼</w>": 5903,
      "훅</w>": 5904,
      "쭈</w>": 5905,
      "꼳</w>": 5906,
      "흰</w>": 5907,
      "깥</w>": 5908,
      "찢</w>": 5909,
      "켰</w>": 5910,
      "갉</w>": 5911,
      "맷</w>": 5912,
      "꽝</w>": 5913,
      "엾</w>": 5914,
      "샙</w>": 5915,
      "쑈</w>": 5916,
      "갯</w>": 5917,
      "뵈</w>": 5918,
      "븜</w>": 5919,
      "돟</w>": 5920,
      "믜</w>": 5921,
      "팻</w>": 5922,
      "넓</w>": 5923,
      "츰</w>": 5924,
      "귺</w>": 5925,
      "쩨</w>": 5926,
      "듡</w>": 5927,
      "뷸</w>": 5928,
      "욘</w>": 5929,
      "긍</w>": 5930,
      "슭</w>": 5931,
      "궈</w>": 5932,
      "훼</w>": 5933,
      "훤</w>": 5934,
      "릐</w>": 5935,
      "솨</w>": 5936,
      "않</w>": 5937,
      "흉</w>": 5938,
      "겅</w>": 5939,
      "웍</w>": 5940,
      "팹</w>": 5941,
      "맙</w>": 5942,
      "츈</w>": 5943,
      "꼔</w>": 5944,
      "밖</w>": 5945,
      "앨</w>": 5946,
      "챗</w>": 5947,
      "돨</w>": 5948,
      "탬</w>": 5949,
      "뿍</w>": 5950,
      "쌋</w>": 5951,
      "뱌</w>": 5952,
      "뮌</w>": 5953,
      "둡</w>": 5954,
      "퀜</w>": 5955,
      "잴</w>": 5956,
      "삑</w>": 5957,
      "셍</w>": 5958,
      "홋</w>": 5959,
      "휀</w>": 5960,
      "쩁</w>": 5961,
      "깟</w>": 5962,
      "퓨</w>": 5963,
      "궍</w>": 5964,
      "홉</w>": 5965,
      "뮈</w>": 5966,
      "밸</w>": 5967,
      "뺨</w>": 5968,
      "쫏</w>": 5969,
      "빟</w>": 5970,
      "몫</w>": 5971,
      "렠</w>": 5972,
      "홧</w>": 5973,
      "츨</w>": 5974,
      "쏭</w>": 5975,
      "랐</w>": 5976,
      "찐</w>": 5977,
      "넽</w>": 5978,
      "봅</w>": 5979,
      "죱</w>": 5980,
      "앉</w>": 5981,
      "읠</w>": 5982,
      "돚</w>": 5983,
      "릅</w>": 5984,
      "앜</w>": 5985,
      "켑</w>": 5986,
      "텁</w>": 5987,
      "곻</w>": 5988,
      "웟</w>": 5989,
      "흙</w>": 5990,
      "쎈</w>": 5991,
      "핍</w>": 5992,
      "싯</w>": 5993,
      "엮</w>": 5994,
      "륏</w>": 5995,
      "숩</w>": 5996,
      "틔</w>": 5997,
      "밒</w>": 5998,
      "릎</w>": 5999,
      "똘</w>": 6000,
      "믐</w>": 6001,
      "깊</w>": 6002,
      "찔</w>": 6003,
      "괏</w>": 6004,
      "쳘</w>": 6005,
      "촤</w>": 6006,
      "밪</w>": 6007,
      "쫓</w>": 6008,
      "짘</w>": 6009,
      "굵</w>": 6010,
      "쌕</w>": 6011,
      "뤱</w>": 6012,
      "벙</w>": 6013,
      "뉼</w>": 6014,
      "읶</w>": 6015,
      "눌</w>": 6016,
      "슥</w>": 6017,
      "맠</w>": 6018,
      "됀</w>": 6019,
      "뷴</w>": 6020,
      "뷜</w>": 6021,
      "곶</w>": 6022,
      "늦</w>": 6023,
      "끁</w>": 6024,
      "놉</w>": 6025,
      "탯</w>": 6026,
      "랬</w>": 6027,
      "싿</w>": 6028,
      "씰</w>": 6029,
      "퓸</w>": 6030,
      "윰</w>": 6031,
      "띨</w>": 6032,
      "샥</w>": 6033,
      "됬</w>": 6034,
      "붊</w>": 6035,
      "잰</w>": 6036,
      "읻</w>": 6037,
      "뎈</w>": 6038,
      "쐰</w>": 6039,
      "쫙</w>": 6040,
      "쒜</w>": 6041,
      "뿡</w>": 6042,
      "갇</w>": 6043,
      "땍</w>": 6044,
      "쳉</w>": 6045,
      "뻭</w>": 6046,
      "꺽</w>": 6047,
      "돕</w>": 6048,
      "깍</w>": 6049,
      "띤</w>": 6050,
      "쉴</w>": 6051,
      "슽</w>": 6052,
      "쑨</w>": 6053,
      "씹</w>": 6054,
      "쥘</w>": 6055,
      "갗</w>": 6056,
      "곺</w>": 6057,
      "쥰</w>": 6058,
      "큅</w>": 6059,
      "씽</w>": 6060,
      "돗</w>": 6061,
      "쐄</w>": 6062,
      "쭐</w>": 6063,
      "퀼</w>": 6064,
      "큘</w>": 6065,
      "잊</w>": 6066,
      "춓</w>": 6067,
      "갠</w>": 6068,
      "쨰</w>": 6069,
      "팎</w>": 6070,
      "뉘</w>": 6071,
      "덞</w>": 6072,
      "뻘</w>": 6073,
      "넰</w>": 6074,
      "졉</w>": 6075,
      "맣</w>": 6076,
      "힛</w>": 6077,
      "놋</w>": 6078,
      "쳤</w>": 6079,
      "밟</w>": 6080,
      "듕</w>": 6081,
      "칡</w>": 6082,
      "룀</w>": 6083,
      "뮨</w>": 6084,
      "넴</w>": 6085,
      "잣</w>": 6086,
      "틍</w>": 6087,
      "띈</w>": 6088,
      "셩</w>": 6089,
      "댤</w>": 6090,
      "챰</w>": 6091,
      "잦</w>": 6092,
      "뇐</w>": 6093,
      "묀</w>": 6094,
      "뎬</w>": 6095,
      "퓩</w>": 6096,
      "윽</w>": 6097,
      "얶</w>": 6098,
      "땠</w>": 6099,
      "슌</w>": 6100,
      "빕</w>": 6101,
      "놨</w>": 6102,
      "햑</w>": 6103,
      "깝</w>": 6104,
      "찼</w>": 6105,
      "왇</w>": 6106,
      "훘</w>": 6107,
      "핸</w>": 6108,
      "휼</w>": 6109,
      "쓱</w>": 6110,
      "컹</w>": 6111,
      "눼</w>": 6112,
      "삵</w>": 6113,
      "뮴</w>": 6114,
      "삘</w>": 6115,
      "샴</w>": 6116,
      "엌</w>": 6117,
      "뻥</w>": 6118,
      "룟</w>": 6119,
      "켕</w>": 6120,
      "퓒</w>": 6121,
      "툥</w>": 6122,
      "춈</w>": 6123,
      "렏</w>": 6124,
      "뻬</w>": 6125,
      "쭙</w>": 6126,
      "뺄</w>": 6127,
      "냬</w>": 6128,
      "힙</w>": 6129,
      "씃</w>": 6130,
      "쉥</w>": 6131,
      "짚</w>": 6132,
      "눗</w>": 6133,
      "녤</w>": 6134,
      "퉤</w>": 6135,
      "꺄</w>": 6136,
      "훟</w>": 6137,
      "욭</w>": 6138,
      "떈</w>": 6139,
      "칫</w>": 6140,
      "낚</w>": 6141,
      "쎗</w>": 6142,
      "쿽</w>": 6143,
      "쾌</w>": 6144,
      "왓</w>": 6145,
      "뺼</w>": 6146,
      "뢴</w>": 6147,
      "횽</w>": 6148,
      "텃</w>": 6149,
      "겁</w>": 6150,
      "풤</w>": 6151,
      "뜽</w>": 6152,
      "뿌</w>": 6153,
      "쵭</w>": 6154,
      "됑</w>": 6155,
      "옼</w>": 6156,
      "룔</w>": 6157,
      "둣</w>": 6158,
      "켱</w>": 6159,
      "뒬</w>": 6160,
      "쯕</w>": 6161,
      "첬</w>": 6162,
      "큔</w>": 6163,
      "욮</w>": 6164,
      "핳</w>": 6165,
      "꿩</w>": 6166,
      "띔</w>": 6167,
      "뵙</w>": 6168,
      "렢</w>": 6169,
      "팃</w>": 6170,
      "쌌</w>": 6171,
      "\u001d</w>": 6172,
      "뭉</w>": 6173,
      "횔</w>": 6174,
      "숖</w>": 6175,
      "믓</w>": 6176,
      "껍</w>": 6177,
      "뎜</w>": 6178,
      "뵌</w>": 6179,
      "훨</w>": 6180,
      "캘</w>": 6181,
      "얍</w>": 6182,
      "낟</w>": 6183,
      "읃</w>": 6184,
      "숫</w>": 6185,
      "앋</w>": 6186,
      "왐</w>": 6187,
      "꽇</w>": 6188,
      "롴</w>": 6189,
      "폽</w>": 6190,
      "뵉</w>": 6191,
      "났</w>": 6192,
      "컫</w>": 6193,
      "꿨</w>": 6194,
      "쫀</w>": 6195,
      "닦</w>": 6196,
      "좔</w>": 6197,
      "떠</w>": 6198,
      "켸</w>": 6199,
      "넉</w>": 6200,
      "왼</w>": 6201,
      "뺑</w>": 6202,
      "햔</w>": 6203,
      "걀</w>": 6204,
      "샛</w>": 6205,
      "펢</w>": 6206,
      "웻</w>": 6207,
      "빎</w>": 6208,
      "눠</w>": 6209,
      "촨</w>": 6210,
      "캪</w>": 6211,
      "녈</w>": 6212,
      "뀨</w>": 6213,
      "훙</w>": 6214,
      "밉</w>": 6215,
      "쾍</w>": 6216,
      "줗</w>": 6217,
      "훍</w>": 6218,
      "끌</w>": 6219,
      "돐</w>": 6220,
      "듼</w>": 6221,
      "곹</w>": 6222,
      "볻</w>": 6223,
      "윕</w>": 6224,
      "슷</w>": 6225,
      "걁</w>": 6226,
      "얘</w>": 6227,
      "뭘</w>": 6228,
      "뽤</w>": 6229,
      "갼</w>": 6230,
      "얐</w>": 6231,
      "쑻</w>": 6232,
      "큥</w>": 6233,
      "튁</w>": 6234,
      "줆</w>": 6235,
      "볶</w>": 6236,
      "놓</w>": 6237,
      "뺌</w>": 6238,
      "혬</w>": 6239,
      "핚</w>": 6240,
      "끅</w>": 6241,
      "쁍</w>": 6242,
      "킄</w>": 6243,
      "헷</w>": 6244,
      "붑</w>": 6245,
      "섺</w>": 6246,
      "줍</w>": 6247,
      "혿</w>": 6248,
      "뉜</w>": 6249,
      "렀</w>": 6250,
      "앎</w>": 6251,
      "딪</w>": 6252,
      "꿱</w>": 6253,
      "큇</w>": 6254,
      "뺏</w>": 6255,
      "엏</w>": 6256,
      "짼</w>": 6257,
      "픝</w>": 6258,
      "갭</w>": 6259,
      "읽</w>": 6260,
      "삣</w>": 6261,
      "깜</w>": 6262,
      "씸</w>": 6263,
      "뫔</w>": 6264,
      "뗄</w>": 6265,
      "죈</w>": 6266,
      "촹</w>": 6267,
      "챙</w>": 6268,
      "깎</w>": 6269,
      "쇫</w>": 6270,
      "궂</w>": 6271,
      "쓕</w>": 6272,
      "뚕</w>": 6273,
      "빴</w>": 6274,
      "컼</w>": 6275,
      "됌</w>": 6276,
      "웤</w>": 6277,
      "멤</w>": 6278,
      "쫴</w>": 6279,
      "깽</w>": 6280,
      "촐</w>": 6281,
      "듄</w>": 6282,
      "떳</w>": 6283,
      "댖</w>": 6284,
      "휑</w>": 6285,
      "쌔</w>": 6286,
      "꺵</w>": 6287,
      "읷</w>": 6288,
      "붙</w>": 6289,
      "욷</w>": 6290,
      "쭌</w>": 6291,
      "욯</w>": 6292,
      "랸</w>": 6293,
      "욋</w>": 6294,
      "뢱</w>": 6295,
      "븍</w>": 6296,
      "쥭</w>": 6297,
      "깞</w>": 6298,
      "헹</w>": 6299,
      "룖</w>": 6300,
      "뵀</w>": 6301,
      "섦</w>": 6302,
      "힢</w>": 6303,
      "쥑</w>": 6304,
      "솟</w>": 6305,
      "켁</w>": 6306,
      "챱</w>": 6307,
      "봥</w>": 6308,
      "쏠</w>": 6309,
      "퓌</w>": 6310,
      "흫</w>": 6311,
      "뺐</w>": 6312,
      "겉</w>": 6313,
      "뭔</w>": 6314,
      "뒨</w>": 6315,
      "팥</w>": 6316,
      "햣</w>": 6317,
      "삳</w>": 6318,
      "앳</w>": 6319,
      "겼</w>": 6320,
      "즤</w>": 6321,
      "쓔</w>": 6322,
      "롣</w>": 6323,
      "갂</w>": 6324,
      "숄</w>": 6325,
      "룁</w>": 6326,
      "곌</w>": 6327,
      "큄</w>": 6328,
      "뇔</w>": 6329,
      "맡</w>": 6330,
      "빝</w>": 6331,
      "겓</w>": 6332,
      "뛸</w>": 6333,
      "겍</w>": 6334,
      "븟</w>": 6335,
      "릏</w>": 6336,
      "짯</w>": 6337,
      "걈</w>": 6338,
      "믕</w>": 6339,
      "넝</w>": 6340,
      "욬</w>": 6341,
      "뀍</w>": 6342,
      "츤</w>": 6343,
      "훠</w>": 6344,
      "튱</w>": 6345,
      "썜</w>": 6346,
      "뿅</w>": 6347,
      "큭</w>": 6348,
      "쮜</w>": 6349,
      "킐</w>": 6350,
      "쏜</w>": 6351,
      "휭</w>": 6352,
      "쒸</w>": 6353,
      "뤂</w>": 6354,
      "홫</w>": 6355,
      "쨋</w>": 6356,
      "셕</w>": 6357,
      "칰</w>": 6358,
      "꽉</w>": 6359,
      "짇</w>": 6360,
      "뽓</w>": 6361,
      "륀</w>": 6362,
      "펨</w>": 6363,
      "좁</w>": 6364,
      "잫</w>": 6365,
      "뼛</w>": 6366,
      "냣</w>": 6367,
      "뱜</w>": 6368,
      "벎</w>": 6369,
      "홖</w>": 6370,
      "눇</w>": 6371,
      "넋</w>": 6372,
      "퍝</w>": 6373,
      "눝</w>": 6374,
      "샀</w>": 6375,
      "껭</w>": 6376,
      "뵤</w>": 6377,
      "꽥</w>": 6378,
      "믿</w>": 6379,
      "뺀</w>": 6380,
      "뎐</w>": 6381,
      "짖</w>": 6382,
      "뽈</w>": 6383,
      "펴</w>": 6384,
      "쾃</w>": 6385,
      "헛</w>": 6386,
      "풉</w>": 6387,
      "쬐</w>": 6388,
      "뜯</w>": 6389,
      "챀</w>": 6390,
      "셥</w>": 6391,
      "돍</w>": 6392,
      "뗘</w>": 6393,
      "킁</w>": 6394,
      "킂</w>": 6395,
      "휙</w>": 6396,
      "튈</w>": 6397,
      "밌</w>": 6398,
      "좃</w>": 6399,
      "뙇</w>": 6400,
      "봔</w>": 6401,
      "졈</w>": 6402,
      "딮</w>": 6403,
      "쭘</w>": 6404,
      "깬</w>": 6405,
      "넫</w>": 6406,
      "닫</w>": 6407,
      "쥠</w>": 6408,
      "걒</w>": 6409,
      "멩</w>": 6410,
      "읋</w>": 6411,
      "됄</w>": 6412,
      "\u001c</w>": 6413,
      "엶</w>": 6414,
      "륻</w>": 6415,
      "훓</w>": 6416,
      "꿋</w>": 6417,
      "톳</w>": 6418,
      "캤</w>": 6419,
      "닮</w>": 6420,
      "읖</w>": 6421,
      "밎</w>": 6422,
      "좇</w>": 6423,
      "왝</w>": 6424,
      "촥</w>": 6425,
      "밨</w>": 6426,
      "릳</w>": 6427,
      "잽</w>": 6428,
      "뉠</w>": 6429,
      "뫄</w>": 6430,
      "푠</w>": 6431,
      "벧</w>": 6432,
      "똔</w>": 6433,
      "퓬</w>": 6434,
      "꿉</w>": 6435,
      "혛</w>": 6436,
      "쿳</w>": 6437,
      "큠</w>": 6438,
      "쩔</w>": 6439,
      "낳</w>": 6440,
      "뗀</w>": 6441,
      "깹</w>": 6442,
      "묭</w>": 6443,
      "죌</w>": 6444,
      "띄</w>": 6445,
      "밷</w>": 6446,
      "긷</w>": 6447,
      "꽛</w>": 6448,
      "볌</w>": 6449,
      "흣</w>": 6450,
      "붇</w>": 6451,
      "슁</w>": 6452,
      "맑</w>": 6453,
      "츅</w>": 6454,
      "칲</w>": 6455,
      "쥉</w>": 6456,
      "줏</w>": 6457,
      "휜</w>": 6458,
      "돵</w>": 6459,
      "쩝</w>": 6460,
      "쯪</w>": 6461,
      "팰</w>": 6462,
      "즛</w>": 6463,
      "릌</w>": 6464,
      "뀐</w>": 6465,
      "큉</w>": 6466,
      "굶</w>": 6467,
      "흄</w>": 6468,
      "씐</w>": 6469,
      "옐</w>": 6470,
      "쩰</w>": 6471,
      "엎</w>": 6472,
      "쟐</w>": 6473,
      "왱</w>": 6474,
      "쒄</w>": 6475,
      "콱</w>": 6476,
      "뤌</w>": 6477,
      "헥</w>": 6478,
      "닒</w>": 6479,
      "쟤</w>": 6480,
      "윔</w>": 6481,
      "깩</w>": 6482,
      "탹</w>": 6483,
      "뗴</w>": 6484,
      "쌉</w>": 6485,
      "쐴</w>": 6486,
      "흨</w>": 6487,
      "쇰</w>": 6488,
      "벱</w>": 6489,
      "몃</w>": 6490,
      "롵</w>": 6491,
      "췬</w>": 6492,
      "깪</w>": 6493,
      "럐</w>": 6494,
      "쑝</w>": 6495,
      "꺅</w>": 6496,
      "걍</w>": 6497,
      "찟</w>": 6498,
      "뇩</w>": 6499,
      "잿</w>": 6500,
      "얕</w>": 6501,
      "늠</w>": 6502,
      "붉</w>": 6503,
      "쏨</w>": 6504,
      "콴</w>": 6505,
      "웩</w>": 6506,
      "읏</w>": 6507,
      "콬</w>": 6508,
      "푹</w>": 6509,
      "쯧</w>": 6510,
      "켬</w>": 6511,
      "퍅</w>": 6512,
      "럠</w>": 6513,
      "컾</w>": 6514,
      "꼄</w>": 6515,
      "뵐</w>": 6516,
      "뱉</w>": 6517,
      "랠</w>": 6518,
      "먕</w>": 6519,
      "쎙</w>": 6520,
      "낍</w>": 6521,
      "햏</w>": 6522,
      "씅</w>": 6523,
      "퐌</w>": 6524,
      "띰</w>": 6525,
      "엙</w>": 6526,
      "굔</w>": 6527,
      "떽</w>": 6528,
      "묽</w>": 6529,
      "룍</w>": 6530,
      "쑌</w>": 6531,
      "뤽</w>": 6532,
      "씁</w>": 6533,
      "쟙</w>": 6534,
      "쥿</w>": 6535,
      "괙</w>": 6536,
      "뢸</w>": 6537,
      "늩</w>": 6538,
      "퍽</w>": 6539,
      "퀠</w>": 6540,
      "턣</w>": 6541,
      "굘</w>": 6542,
      "귈</w>": 6543,
      "뗑</w>": 6544,
      "잢</w>": 6545,
      "겝</w>": 6546,
      "캗</w>": 6547,
      "씟</w>": 6548,
      "귿</w>": 6549,
      "쭤</w>": 6550,
      "뽄</w>": 6551,
      "돓</w>": 6552,
      "딨</w>": 6553,
      "꽌</w>": 6554,
      "큿</w>": 6555,
      "쀠</w>": 6556,
      "졀</w>": 6557,
      "띱</w>": 6558,
      "쩌</w>": 6559,
      "푱</w>": 6560,
      "틩</w>": 6561,
      "켚</w>": 6562,
      "륩</w>": 6563,
      "볽</w>": 6564,
      "찾</w>": 6565,
      "뀔</w>": 6566,
      "댠</w>": 6567,
      "덪</w>": 6568,
      "샐</w>": 6569,
      "씯</w>": 6570,
      "껼</w>": 6571,
      "둉</w>": 6572,
      "돤</w>": 6573,
      "엳</w>": 6574,
      "좐</w>": 6575,
      "츌</w>": 6576,
      "맊</w>": 6577,
      "틋</w>": 6578,
      "뻤</w>": 6579,
      "깋</w>": 6580,
      "싀</w>": 6581,
      "퓍</w>": 6582,
      "눙</w>": 6583,
      "핼</w>": 6584,
      "쩬</w>": 6585,
      "쾡</w>": 6586,
      "싞</w>": 6587,
      "쟉</w>": 6588,
      "쿸</w>": 6589,
      "맸</w>": 6590,
      "쯩</w>": 6591,
      "뛔</w>": 6592,
      "쵝</w>": 6593,
      "즞</w>": 6594,
      "굻</w>": 6595,
      "닽</w>": 6596,
      "뽁</w>": 6597,
      "삯</w>": 6598,
      "셱</w>": 6599,
      "홱</w>": 6600,
      "뚫</w>": 6601,
      "쎼</w>": 6602,
      "넼</w>": 6603,
      "뮐</w>": 6604,
      "퐉</w>": 6605,
      "맂</w>": 6606,
      "쎰</w>": 6607,
      "흼</w>": 6608,
      "댱</w>": 6609,
      "곯</w>": 6610,
      "넙</w>": 6611,
      "맍</w>": 6612,
      "줬</w>": 6613,
      "곷</w>": 6614,
      "볏</w>": 6615,
      "슾</w>": 6616,
      "똣</w>": 6617,
      "뜁</w>": 6618,
      "줓</w>": 6619,
      "룜</w>": 6620,
      "잗</w>": 6621,
      "굉</w>": 6622,
      "앻</w>": 6623,
      "꿴</w>": 6624,
      "맴</w>": 6625,
      "눞</w>": 6626,
      "엨</w>": 6627,
      "옾</w>": 6628,
      "끓</w>": 6629,
      "녙</w>": 6630,
      "뜩</w>": 6631,
      "찻</w>": 6632,
      "뾱</w>": 6633,
      "옛</w>": 6634,
      "켤</w>": 6635,
      "홰</w>": 6636,
      "햡</w>": 6637,
      "얔</w>": 6638,
      "걋</w>": 6639,
      "맇</w>": 6640,
      "뉸</w>": 6641,
      "읒</w>": 6642,
      "빢</w>": 6643,
      "헗</w>": 6644,
      "룐</w>": 6645,
      "핰</w>": 6646,
      "쩀</w>": 6647,
      "횐</w>": 6648,
      "슼</w>": 6649,
      "뜹</w>": 6650,
      "픠</w>": 6651,
      "뱇</w>": 6652,
      "묶</w>": 6653,
      "썼</w>": 6654,
      "얽</w>": 6655,
      "뭏</w>": 6656,
      "뻗</w>": 6657,
      "텓</w>": 6658,
      "봊</w>": 6659,
      "촘</w>": 6660,
      "덫</w>": 6661,
      "뎨</w>": 6662,
      "놘</w>": 6663,
      "넮</w>": 6664,
      "늕</w>": 6665,
      "읈</w>": 6666,
      "놕</w>": 6667,
      "븀</w>": 6668,
      "많</w>": 6669,
      "딲</w>": 6670,
      "췻</w>": 6671,
      "럱</w>": 6672,
      "맞</w>": 6673,
      "폈</w>": 6674,
      "씔</w>": 6675,
      "휄</w>": 6676,
      "쪕</w>": 6677,
      "쳡</w>": 6678,
      "쌘</w>": 6679,
      "뢉</w>": 6680,
      "릮</w>": 6681,
      "윳</w>": 6682,
      "펩</w>": 6683,
      "붗</w>": 6684,
      "뉩</w>": 6685,
      "볘</w>": 6686,
      "괍</w>": 6687,
      "쏚</w>": 6688,
      "꺨</w>": 6689,
      "겋</w>": 6690,
      "닻</w>": 6691,
      "픕</w>": 6692,
      "눤</w>": 6693,
      "낱</w>": 6694,
      "챵</w>": 6695,
      "흽</w>": 6696,
      "땃</w>": 6697,
      "얹</w>": 6698,
      "욈</w>": 6699,
      "췐</w>": 6700,
      "쟀</w>": 6701,
      "닿</w>": 6702,
      "줴</w>": 6703,
      "뱍</w>": 6704,
      "맄</w>": 6705,
      "슙</w>": 6706,
      "닠</w>": 6707,
      "얇</w>": 6708,
      "쾀</w>": 6709,
      "횻</w>": 6710,
      "쫄</w>": 6711,
      "뵘</w>": 6712,
      "씻</w>": 6713,
      "잏</w>": 6714,
      "튕</w>": 6715,
      "솓</w>": 6716,
      "죰</w>": 6717,
      "홓</w>": 6718,
      "끕</w>": 6719,
      "쎌</w>": 6720,
      "퀭</w>": 6721,
      "앖</w>": 6722,
      "잆</w>": 6723,
      "맃</w>": 6724,
      "륑</w>": 6725,
      "춍</w>": 6726,
      "뫈</w>": 6727,
      "낏</w>": 6728,
      "빳</w>": 6729,
      "붜</w>": 6730,
      "뷁</w>": 6731,
      "뛴</w>": 6732,
      "짢</w>": 6733,
      "쵠</w>": 6734,
      "밯</w>": 6735,
      "섐</w>": 6736,
      "늗</w>": 6737,
      "웝</w>": 6738,
      "쇪</w>": 6739,
      "댚</w>": 6740,
      "쪾</w>": 6741,
      "꿇</w>": 6742,
      "갹</w>": 6743,
      "갊</w>": 6744,
      "믛</w>": 6745,
      "겻</w>": 6746,
      "몪</w>": 6747,
      "곕</w>": 6748,
      "샆</w>": 6749,
      "볐</w>": 6750,
      "윾</w>": 6751,
      "텬</w>": 6752,
      "떅</w>": 6753,
      "붸</w>": 6754,
      "랗</w>": 6755,
      "짛</w>": 6756,
      "욲</w>": 6757,
      "럾</w>": 6758,
      "왯</w>": 6759,
      "녠</w>": 6760,
      "륫</w>": 6761,
      "뻴</w>": 6762,
      "솽</w>": 6763,
      "콸</w>": 6764,
      "텧</w>": 6765,
      "뜀</w>": 6766,
      "뙁</w>": 6767,
      "씪</w>": 6768,
      "슉</w>": 6769,
      "짬</w>": 6770,
      "뤈</w>": 6771,
      "뒈</w>": 6772,
      "뭩</w>": 6773,
      "뼁</w>": 6774,
      "꺢</w>": 6775,
      "숌</w>": 6776,
      "녅</w>": 6777,
      "탉</w>": 6778,
      "윷</w>": 6779,
      "쏍</w>": 6780,
      "혔</w>": 6781,
      "쫒</w>": 6782,
      "핟</w>": 6783,
      "썅</w>": 6784,
      "칟</w>": 6785,
      "댸</w>": 6786,
      "쉨</w>": 6787,
      "깧</w>": 6788,
      "랲</w>": 6789,
      "튑</w>": 6790,
      "텦</w>": 6791,
      "렡</w>": 6792,
      "혠</w>": 6793,
      "욫</w>": 6794,
      "졽</w>": 6795,
      "닲</w>": 6796,
      "쨍</w>": 6797,
      "쬘</w>": 6798,
      "퍄</w>": 6799,
      "돰</w>": 6800,
      "쪠</w>": 6801,
      "캍</w>": 6802,
      "쑹</w>": 6803,
      "봏</w>": 6804,
      "퓰</w>": 6805,
      "랖</w>": 6806,
      "깸</w>": 6807,
      "벝</w>": 6808,
      "싻</w>": 6809,
      "헫</w>": 6810,
      "뱁</w>": 6811,
      "꾀</w>": 6812,
      "핲</w>": 6813,
      "싣</w>": 6814,
      "쨔</w>": 6815,
      "냘</w>": 6816,
      "솩</w>": 6817,
      "휵</w>": 6818,
      "됭</w>": 6819,
      "즨</w>": 6820,
      "밝</w>": 6821,
      "뼉</w>": 6822,
      "샅</w>": 6823,
      "퇫</w>": 6824,
      "츙</w>": 6825,
      "뵹</w>": 6826,
      "챁</w>": 6827,
      "쥥</w>": 6828,
      "둰</w>": 6829,
      "젗</w>": 6830,
      "젂</w>": 6831,
      "흭</w>": 6832,
      "묻</w>": 6833,
      "쿙</w>": 6834,
      "췟</w>": 6835,
      "췹</w>": 6836,
      "퇼</w>": 6837,
      "궜</w>": 6838,
      "뭬</w>": 6839,
      "춥</w>": 6840,
      "옄</w>": 6841,
      "몆</w>": 6842,
      "찝</w>": 6843,
      "얩</w>": 6844,
      "쇅</w>": 6845,
      "찣</w>": 6846,
      "죗</w>": 6847,
      "읅</w>": 6848,
      "툽</w>": 6849,
      "쩜</w>": 6850,
      "냇</w>": 6851,
      "탔</w>": 6852,
      "룝</w>": 6853,
      "탸</w>": 6854,
      "끎</w>": 6855,
      "훰</w>": 6856,
      "섻</w>": 6857,
      "쟘</w>": 6858,
      "퐑</w>": 6859,
      "렇</w>": 6860,
      "뗼</w>": 6861,
      "밐</w>": 6862,
      "쨉</w>": 6863,
      "춉</w>": 6864,
      "귐</w>": 6865,
      "쳌</w>": 6866,
      "삠</w>": 6867,
      "쓩</w>": 6868,
      "곗</w>": 6869,
      "눁</w>": 6870,
      "뷱</w>": 6871,
      "뒝</w>": 6872,
      "뎊</w>": 6873,
      "쩗</w>": 6874,
      "맆</w>": 6875,
      "늅</w>": 6876,
      "핮</w>": 6877,
      "뻣</w>": 6878,
      "맜</w>": 6879,
      "읎</w>": 6880,
      "쏵</w>": 6881,
      "걜</w>": 6882,
      "잟</w>": 6883,
      "쩽</w>": 6884,
      "썁</w>": 6885,
      "쫍</w>": 6886,
      "렦</w>": 6887,
      "쀼</w>": 6888,
      "뀬</w>": 6889,
      "묾</w>": 6890,
      "넜</w>": 6891,
      "곪</w>": 6892,
      "뱡</w>": 6893,
      "굚</w>": 6894,
      "멱</w>": 6895,
      "툉</w>": 6896,
      "벋</w>": 6897,
      "묏</w>": 6898,
      "꿕</w>": 6899,
      "롹</w>": 6900,
      "괸</w>": 6901,
      "짊</w>": 6902,
      "뜝</w>": 6903,
      "떻</w>": 6904,
      "벜</w>": 6905,
      "곅</w>": 6906,
      "겥</w>": 6907,
      "궉</w>": 6908,
      "빜</w>": 6909,
      "껸</w>": 6910,
      "뺸</w>": 6911,
      "볓</w>": 6912,
      "븅</w>": 6913,
      "룑</w>": 6914,
      "젔</w>": 6915,
      "걘</w>": 6916,
      "쐏</w>": 6917,
      "닁</w>": 6918,
      "뾸</w>": 6919,
      "첟</w>": 6920,
      "횝</w>": 6921,
      "떵</w>": 6922,
      "댝</w>": 6923,
      "싰</w>": 6924,
      "띌</w>": 6925,
      "횃</w>": 6926,
      "숔</w>": 6927,
      "븨</w>": 6928,
      "쐐</w>": 6929,
      "읿</w>": 6930,
      "굛</w>": 6931,
      "돛</w>": 6932,
      "횬</w>": 6933,
      "핡</w>": 6934,
      "쬰</w>": 6935,
      "췄</w>": 6936,
      "췩</w>": 6937,
      "쯜</w>": 6938,
      "틤</w>": 6939,
      "옜</w>": 6940,
      "벚</w>": 6941,
      "끙</w>": 6942,
      "핥</w>": 6943,
      "셐</w>": 6944,
      "웣</w>": 6945,
      "낑</w>": 6946,
      "졺</w>": 6947,
      "덟</w>": 6948,
      "쥼</w>": 6949,
      "솀</w>": 6950,
      "뽱</w>": 6951,
      "멎</w>": 6952,
      "츔</w>": 6953,
      "닺</w>": 6954,
      "헵</w>": 6955,
      "\u001f</w>": 6956,
      "쭝</w>": 6957,
      "쪅</w>": 6958,
      "섄</w>": 6959,
      "쫘</w>": 6960,
      "힁</w>": 6961,
      "씌</w>": 6962,
      "댇</w>": 6963,
      "몔</w>": 6964,
      "켭</w>": 6965,
      "괵</w>": 6966,
      "꾜</w>": 6967,
      "냰</w>": 6968,
      "컄</w>": 6969,
      "뛰</w>": 6970,
      "탼</w>": 6971,
      "쵬</w>": 6972,
      "옫</w>": 6973,
      "솊</w>": 6974,
      "깻</w>": 6975,
      "컸</w>": 6976,
      "횟</w>": 6977,
      "핧</w>": 6978,
      "싴</w>": 6979,
      "젭</w>": 6980,
      "섁</w>": 6981,
      "푯</w>": 6982,
      "쾁</w>": 6983,
      "쏼</w>": 6984,
      "틉</w>": 6985,
      "꾄</w>": 6986,
      "껩</w>": 6987,
      "꿘</w>": 6988,
      "럸</w>": 6989,
      "딛</w>": 6990,
      "챘</w>": 6991,
      "롼</w>": 6992,
      "엗</w>": 6993,
      "쬔</w>": 6994,
      "뒀</w>": 6995,
      "훜</w>": 6996,
      "뚯</w>": 6997,
      "옿</w>": 6998,
      "뗏</w>": 6999,
      "쑴</w>": 7000,
      "뤘</w>": 7001,
      "잨</w>": 7002,
      "퐐</w>": 7003,
      "젵</w>": 7004,
      "녑</w>": 7005,
      "쨥</w>": 7006,
      "쉪</w>": 7007,
      "궶</w>": 7008,
      "캭</w>": 7009,
      "깰</w>": 7010,
      "컁</w>": 7011,
      "뎡</w>": 7012,
      "씜</w>": 7013,
      "땔</w>": 7014,
      "쒴</w>": 7015,
      "븝</w>": 7016,
      "뀝</w>": 7017,
      "섣</w>": 7018,
      "괼</w>": 7019,
      "읁</w>": 7020,
      "뮥</w>": 7021,
      "뜐</w>": 7022,
      "쁩</w>": 7023,
      "봌</w>": 7024,
      "짰</w>": 7025,
      "쐇</w>": 7026,
      "엦</w>": 7027,
      "귁</w>": 7028,
      "팯</w>": 7029,
      "힣</w>": 7030,
      "갛</w>": 7031,
      "솦</w>": 7032,
      "륾</w>": 7033,
      "얗</w>": 7034,
      "앚</w>": 7035,
      "젆</w>": 7036,
      "읫</w>": 7037,
      "옃</w>": 7038,
      "륄</w>": 7039,
      "뗌</w>": 7040,
      "귝</w>": 7041,
      "멪</w>": 7042,
      "샂</w>": 7043,
      "몌</w>": 7044,
      "첯</w>": 7045,
      "햬</w>": 7046,
      "튭</w>": 7047,
      "뎠</w>": 7048,
      "킈</w>": 7049,
      "갘</w>": 7050,
      "붅</w>": 7051,
      "툇</w>": 7052,
      "읾</w>": 7053,
      "횢</w>": 7054,
      "뭋</w>": 7055,
      "툐</w>": 7056,
      "쬠</w>": 7057,
      "췍</w>": 7058,
      "쒀</w>": 7059,
      "앸</w>": 7060,
      "팭</w>": 7061,
      "쳰</w>": 7062,
      "죳</w>": 7063,
      "듲</w>": 7064,
      "걷</w>": 7065,
      "쓿</w>": 7066,
      "쫩</w>": 7067,
      "뙈</w>": 7068,
      "칳</w>": 7069,
      "곈</w>": 7070,
      "썯</w>": 7071,
      "킽</w>": 7072,
      "뎄</w>": 7073,
      "욀</w>": 7074,
      "줫</w>": 7075,
      "섟</w>": 7076,
      "힡</w>": 7077,
      "춴</w>": 7078,
      "읓</w>": 7079,
      "킼</w>": 7080,
      "봰</w>": 7081,
      "햌</w>": 7082,
      "옳</w>": 7083,
      "껨</w>": 7084,
      "땨</w>": 7085,
      "쾨</w>": 7086,
      "얻</w>": 7087,
      "잙</w>": 7088,
      "뉵</w>": 7089,
      "앆</w>": 7090,
      "똮</w>": 7091,
      "팠</w>": 7092,
      "떴</w>": 7093,
      "멥</w>": 7094,
      "숱</w>": 7095,
      "캽</w>": 7096,
      "뵷</w>": 7097,
      "깢</w>": 7098,
      "좍</w>": 7099,
      "봬</w>": 7100,
      "퉝</w>": 7101,
      "썻</w>": 7102,
      "츕</w>": 7103,
      "팤</w>": 7104,
      "덣</w>": 7105,
      "놩</w>": 7106,
      "늙</w>": 7107,
      "텥</w>": 7108,
      "뽝</w>": 7109,
      "뀰</w>": 7110,
      "죙</w>": 7111,
      "돳</w>": 7112,
      "굮</w>": 7113,
      "큻</w>": 7114,
      "팦</w>": 7115,
      "놑</w>": 7116,
      "앏</w>": 7117,
      "웧</w>": 7118,
      "앍</w>": 7119,
      "똻</w>": 7120,
      "숼</w>": 7121,
      "싷</w>": 7122,
      "꺙</w>": 7123,
      "룅</w>": 7124,
      "귓</w>": 7125,
      "쟬</w>": 7126,
      "칮</w>": 7127,
      "펐</w>": 7128,
      "솤</w>": 7129,
      "혓</w>": 7130,
      "뭣</w>": 7131,
      "촙</w>": 7132,
      "슆</w>": 7133,
      "붘</w>": 7134,
      "틐</w>": 7135,
      "쀅</w>": 7136,
      "셂</w>": 7137,
      "큁</w>": 7138,
      "럄</w>": 7139,
      "끊</w>": 7140,
      "옯</w>": 7141,
      "줜</w>": 7142,
      "땄</w>": 7143,
      "빱</w>": 7144,
      "쑵</w>": 7145,
      "챨</w>": 7146,
      "횅</w>": 7147,
      "뺭</w>": 7148,
      "녓</w>": 7149,
      "싈</w>": 7150,
      "캎</w>": 7151,
      "웷</w>": 7152,
      "쉅</w>": 7153,
      "졋</w>": 7154,
      "엷</w>": 7155,
      "빪</w>": 7156,
      "맟</w>": 7157,
      "귑</w>": 7158,
      "듧</w>": 7159,
      "쌜</w>": 7160,
      "랽</w>": 7161,
      "놏</w>": 7162,
      "뵨</w>": 7163,
      "랃</w>": 7164,
      "콭</w>": 7165,
      "뢀</w>": 7166,
      "횰</w>": 7167,
      "똭</w>": 7168,
      "덮</w>": 7169,
      "뇻</w>": 7170,
      "큽</w>": 7171,
      "쬼</w>": 7172,
      "퐅</w>": 7173,
      "튺</w>": 7174,
      "폮</w>": 7175,
      "탘</w>": 7176,
      "놂</w>": 7177,
      "뗜</w>": 7178,
      "휗</w>": 7179,
      "솃</w>": 7180,
      "쩅</w>": 7181,
      "흴</w>": 7182,
      "푿</w>": 7183,
      "짞</w>": 7184,
      "땈</w>": 7185,
      "귱</w>": 7186,
      "깠</w>": 7187,
      "슏</w>": 7188,
      "긂</w>": 7189,
      "섞</w>": 7190,
      "돞</w>": 7191,
      "쮹</w>": 7192,
      "꺾</w>": 7193,
      "턍</w>": 7194,
      "떢</w>": 7195,
      "풰</w>": 7196,
      "홥</w>": 7197,
      "쐬</w>": 7198,
      "톄</w>": 7199,
      "뤃</w>": 7200,
      "꾳</w>": 7201,
      "땋</w>": 7202,
      "꼈</w>": 7203,
      "꾝</w>": 7204,
      "깵</w>": 7205,
      "쵔</w>": 7206,
      "눉</w>": 7207,
      "됢</w>": 7208,
      "줊</w>": 7209,
      "컱</w>": 7210,
      "앓</w>": 7211,
      "샏</w>": 7212,
      "싵</w>": 7213,
      "햘</w>": 7214,
      "픅</w>": 7215,
      "폘</w>": 7216,
      "퓹</w>": 7217,
      "럇</w>": 7218,
      "춛</w>": 7219,
      "톼</w>": 7220,
      "꺠</w>": 7221,
      "쫜</w>": 7222,
      "굣</w>": 7223,
      "몯</w>": 7224,
      "덍</w>": 7225,
      "읹</w>": 7226,
      "옘</w>": 7227,
      "낰</w>": 7228,
      "뎽</w>": 7229,
      "옽</w>": 7230,
      "긘</w>": 7231,
      "볹</w>": 7232,
      "짙</w>": 7233,
      "껟</w>": 7234,
      "쭛</w>": 7235,
      "헒</w>": 7236,
      "롞</w>": 7237,
      "욍</w>": 7238,
      "뭥</w>": 7239,
      "뻰</w>": 7240,
      "퉈</w>": 7241,
      "띙</w>": 7242,
      "궝</w>": 7243,
      "팖</w>": 7244,
      "뤙</w>": 7245,
      "핻</w>": 7246,
      "쵼</w>": 7247,
      "꿏</w>": 7248,
      "쌥</w>": 7249,
      "벰</w>": 7250,
      "벞</w>": 7251,
      "볍</w>": 7252,
      "섢</w>": 7253,
      "챡</w>": 7254,
      "뜜</w>": 7255,
      "옰</w>": 7256,
      "퀙</w>": 7257,
      "쨀</w>": 7258,
      "젊</w>": 7259,
      "뷘</w>": 7260,
      "잚</w>": 7261,
      "렫</w>": 7262,
      "첮</w>": 7263,
      "벺</w>": 7264,
      "젴</w>": 7265,
      "홑</w>": 7266,
      "뗐</w>": 7267,
      "첌</w>": 7268,
      "죔</w>": 7269,
      "엪</w>": 7270,
      "몋</w>": 7271,
      "렍</w>": 7272,
      "럵</w>": 7273,
      "꺆</w>": 7274,
      "퍈</w>": 7275,
      "읮</w>": 7276,
      "껠</w>": 7277,
      "넸</w>": 7278,
      "좸</w>": 7279,
      "얜</w>": 7280,
      "뤠</w>": 7281,
      "캌</w>": 7282,
      "턔</w>": 7283,
      "봘</w>": 7284,
      "앴</w>": 7285,
      "닯</w>": 7286,
      "쏫</w>": 7287,
      "첡</w>": 7288,
      "됙</w>": 7289,
      "옝</w>": 7290,
      "밗</w>": 7291,
      "몱</w>": 7292,
      "퓁</w>": 7293,
      "솁</w>": 7294,
      "궴</w>": 7295,
      "셌</w>": 7296,
      "똿</w>": 7297,
      "앝</w>": 7298,
      "눵</w>": 7299,
      "꽐</w>": 7300,
      "닳</w>": 7301,
      "띳</w>": 7302,
      "쌓</w>": 7303,
      "뾵</w>": 7304,
      "땁</w>": 7305,
      "싦</w>": 7306,
      "돡</w>": 7307,
      "꿿</w>": 7308,
      "쎤</w>": 7309,
      "랒</w>": 7310,
      "쀍</w>": 7311,
      "끰</w>": 7312,
      "쌱</w>": 7313,
      "쵀</w>": 7314,
      "뭃</w>": 7315,
      "왹</w>": 7316,
      "덛</w>": 7317,
      "쯍</w>": 7318,
      "츋</w>": 7319,
      "펱</w>": 7320,
      "릈</w>": 7321,
      "숸</w>": 7322,
      "먠</w>": 7323,
      "젱</w>": 7324,
      "듞</w>": 7325,
      "틲</w>": 7326,
      "풔</w>": 7327,
      "썪</w>": 7328,
      "롷</w>": 7329,
      "놰</w>": 7330,
      "삷</w>": 7331,
      "륽</w>": 7332,
      "츼</w>": 7333,
      "꽅</w>": 7334,
      "빇</w>": 7335,
      "벹</w>": 7336,
      "윦</w>": 7337,
      "뭑</w>": 7338,
      "띾</w>": 7339,
      "웽</w>": 7340,
      "웏</w>": 7341,
      "붚</w>": 7342,
      "짧</w>": 7343,
      "쏩</w>": 7344,
      "굨</w>": 7345,
      "꺌</w>": 7346,
      "훑</w>": 7347,
      "뼝</w>": 7348,
      "꼉</w>": 7349,
      "귬</w>": 7350,
      "꿰</w>": 7351,
      "꺗</w>": 7352,
      "죨</w>": 7353,
      "윸</w>": 7354,
      "닣</w>": 7355,
      "먈</w>": 7356,
      "쒼</w>": 7357,
      "쇙</w>": 7358,
      "줠</w>": 7359,
      "듴</w>": 7360,
      "캵</w>": 7361,
      "쎘</w>": 7362,
      "쟛</w>": 7363,
      "뉍</w>": 7364,
      "탶</w>": 7365,
      "퀏</w>": 7366,
      "췸</w>": 7367,
      "퐝</w>": 7368,
      "똠</w>": 7369,
      "짂</w>": 7370,
      "젣</w>": 7371,
      "릂</w>": 7372,
      "윧</w>": 7373,
      "잤</w>": 7374,
      "괭</w>": 7375,
      "몉</w>": 7376,
      "흩</w>": 7377,
      "엍</w>": 7378,
      "겯</w>": 7379,
      "왘</w>": 7380,
      "팊</w>": 7381,
      "됫</w>": 7382,
      "돴</w>": 7383,
      "뭅</w>": 7384,
      "욺</w>": 7385,
      "쨘</w>": 7386,
      "떙</w>": 7387,
      "퍀</w>": 7388,
      "닸</w>": 7389,
      "멒</w>": 7390,
      "휫</w>": 7391,
      "벒</w>": 7392,
      "읊</w>": 7393,
      "낢</w>": 7394,
      "휍</w>": 7395,
      "춝</w>": 7396,
      "젨</w>": 7397,
      "풂</w>": 7398,
      "뱔</w>": 7399,
      "뽷</w>": 7400,
      "킾</w>": 7401,
      "옦</w>": 7402,
      "숤</w>": 7403,
      "쎔</w>": 7404,
      "릃</w>": 7405,
      "뀕</w>": 7406,
      "릱</w>": 7407,
      "퓐</w>": 7408,
      "댯</w>": 7409,
      "힞</w>": 7410,
      "섀</w>": 7411,
      "횾</w>": 7412,
      "쇤</w>": 7413,
      "쓺</w>": 7414,
      "섧</w>": 7415,
      "윻</w>": 7416,
      "쿈</w>": 7417,
      "뚀</w>": 7418,
      "뭍</w>": 7419,
      "섕</w>": 7420,
      "볷</w>": 7421,
      "옂</w>": 7422,
      "쮠</w>": 7423,
      "늒</w>": 7424,
      "슮</w>": 7425,
      "쩟</w>": 7426,
      "웎</w>": 7427,
      "뗇</w>": 7428,
      "쏀</w>": 7429,
      "톧</w>": 7430,
      "껬</w>": 7431,
      "쳅</w>": 7432,
      "맺</w>": 7433,
      "탚</w>": 7434,
      "뫙</w>": 7435,
      "궘</w>": 7436,
      "좬</w>": 7437,
      "휅</w>": 7438,
      "엩</w>": 7439,
      "밂</w>": 7440,
      "쪌</w>": 7441,
      "귽</w>": 7442,
      "윯</w>": 7443,
      "녇</w>": 7444,
      "읔</w>": 7445,
      "퇗</w>": 7446,
      "싑</w>": 7447,
      "꿎</w>": 7448,
      "젇</w>": 7449,
      "햊</w>": 7450,
      "똒</w>": 7451,
      "먜</w>": 7452,
      "촛</w>": 7453,
      "랓</w>": 7454,
      "솅</w>": 7455,
      "톺</w>": 7456,
      "콛</w>": 7457,
      "몈</w>": 7458,
      "튿</w>": 7459,
      "옭</w>": 7460,
      "댔</w>": 7461,
      "걕</w>": 7462,
      "깼</w>": 7463,
      "튤</w>": 7464,
      "펼</w>": 7465,
      "갰</w>": 7466,
      "쎠</w>": 7467,
      "퇸</w>": 7468,
      "짅</w>": 7469,
      "푀</w>": 7470,
      "뤩</w>": 7471,
      "벴</w>": 7472,
      "삡</w>": 7473,
      "꽹</w>": 7474,
      "픗</w>": 7475,
      "굩</w>": 7476,
      "퐈</w>": 7477,
      "봷</w>": 7478,
      "홒</w>": 7479,
      "옇</w>": 7480,
      "챃</w>": 7481,
      "뗙</w>": 7482,
      "퀌</w>": 7483,
      "썡</w>": 7484,
      "텉</w>": 7485,
      "춪</w>": 7486,
      "\u001e</w>": 7487,
      "옅</w>": 7488,
      "늨</w>": 7489,
      "큗</w>": 7490,
      "튘</w>": 7491,
      "릋</w>": 7492,
      "븃</w>": 7493,
      "뀽</w>": 7494,
      "넾</w>": 7495,
      "꽊</w>": 7496,
      "늰</w>": 7497,
      "볁</w>": 7498,
      "긇</w>": 7499,
      "뾰</w>": 7500,
      "싟</w>": 7501,
      "윱</w>": 7502,
      "욛</w>": 7503,
      "튝</w>": 7504,
      "됏</w>": 7505,
      "쟎</w>": 7506,
      "쐉</w>": 7507,
      "펲</w>": 7508,
      "쎅</w>": 7509,
      "꿁</w>": 7510,
      "윛</w>": 7511,
      "멭</w>": 7512,
      "졷</w>": 7513,
      "쨌</w>": 7514,
      "뺴</w>": 7515,
      "맽</w>": 7516,
      "죡</w>": 7517,
      "퓡</w>": 7518,
      "뽂</w>": 7519,
      "괬</w>": 7520,
      "쉠</w>": 7521,
      "릘</w>": 7522,
      "똬</w>": 7523,
      "퓔</w>": 7524,
      "뿧</w>": 7525,
      "곸</w>": 7526,
      "샓</w>": 7527,
      "쁀</w>": 7528,
      "듑</w>": 7529,
      "몲</w>": 7530,
      "빋</w>": 7531,
      "휸</w>": 7532,
      "뒥</w>": 7533,
      "넠</w>": 7534,
      "뒹</w>": 7535,
      "촣</w>": 7536,
      "얭</w>": 7537,
      "짦</w>": 7538,
      "쓑</w>": 7539,
      "뀹</w>": 7540,
      "헡</w>": 7541,
      "녂</w>": 7542,
      "긎</w>": 7543,
      "찓</w>": 7544,
      "켛</w>": 7545,
      "뎗</w>": 7546,
      "믻</w>": 7547,
      "둴</w>": 7548,
      "퉷</w>": 7549,
      "쎵</w>": 7550,
      "뫅</w>": 7551,
      "쓷</w>": 7552,
      "뎆</w>": 7553,
      "춢</w>": 7554,
      "띁</w>": 7555,
      "딬</w>": 7556,
      "밙</w>": 7557,
      "떱</w>": 7558,
      "쵤</w>": 7559,
      "첰</w>": 7560,
      "꾯</w>": 7561,
      "섈</w>": 7562,
      "솰</w>": 7563,
      "삲</w>": 7564,
      "톸</w>": 7565,
      "밊</w>": 7566,
      "꾁</w>": 7567,
      "쑬</w>": 7568,
      "눨</w>": 7569,
      "굥</w>": 7570,
      "겈</w>": 7571,
      "쇨</w>": 7572,
      "뜔</w>": 7573,
      "쫭</w>": 7574,
      "쯥</w>": 7575,
      "븡</w>": 7576,
      "뺵</w>": 7577,
      "혱</w>": 7578,
      "꼍</w>": 7579,
      "옙</w>": 7580,
      "앒</w>": 7581,
      "먁</w>": 7582,
      "윣</w>": 7583,
      "샊</w>": 7584,
      "굡</w>": 7585,
      "췅</w>": 7586,
      "핱</w>": 7587,
      "썀</w>": 7588,
      "앹</w>": 7589,
      "웕</w>": 7590,
      "챺</w>": 7591,
      "콫</w>": 7592,
      "틘</w>": 7593,
      "샜</w>": 7594,
      "왬</w>": 7595,
      "빻</w>": 7596,
      "끠</w>": 7597,
      "퍠</w>": 7598,
      "겪</w>": 7599,
      "껐</w>": 7600,
      "풒</w>": 7601,
      "푄</w>": 7602,
      "끨</w>": 7603,
      "샇</w>": 7604,
      "겿</w>": 7605,
      "멵</w>": 7606,
      "맒</w>": 7607,
      "틜</w>": 7608,
      "쪈</w>": 7609,
      "밓</w>": 7610,
      "툠</w>": 7611,
      "킅</w>": 7612,
      "읱</w>": 7613,
      "췁</w>": 7614,
      "갌</w>": 7615,
      "쾰</w>": 7616,
      "궥</w>": 7617,
      "멏</w>": 7618,
      "잛</w>": 7619,
      "퇄</w>": 7620,
      "쩻</w>": 7621,
      "뽜</w>": 7622,
      "섴</w>": 7623,
      "뫘</w>": 7624,
      "삉</w>": 7625,
      "쬭</w>": 7626,
      "흗</w>": 7627,
      "쓍</w>": 7628,
      "텄</w>": 7629,
      "뎇</w>": 7630,
      "넞</w>": 7631,
      "슦</w>": 7632,
      "뺍</w>": 7633,
      "겂</w>": 7634,
      "웱</w>": 7635,
      "팼</w>": 7636,
      "댛</w>": 7637,
      "윺</w>": 7638,
      "쨜</w>": 7639,
      "궨</w>": 7640,
      "뾃</w>": 7641,
      "돎</w>": 7642,
      "뉄</w>": 7643,
      "믾</w>": 7644,
      "멬</w>": 7645,
      "딹</w>": 7646,
      "먐</w>": 7647,
      "릀</w>": 7648,
      "뢋</w>": 7649,
      "귪</w>": 7650,
      "뻠</w>": 7651,
      "냡</w>": 7652,
      "핕</w>": 7653,
      "띅</w>": 7654,
      "닡</w>": 7655,
      "쏟</w>": 7656,
      "넡</w>": 7657,
      "갅</w>": 7658,
      "뒺</w>": 7659,
      "썲</w>": 7660,
      "뒜</w>": 7661,
      "핤</w>": 7662,
      "웚</w>": 7663,
      "훃</w>": 7664,
      "갚</w>": 7665,
      "텆</w>": 7666,
      "맅</w>": 7667,
      "쉡</w>": 7668,
      "샡</w>": 7669,
      "찧</w>": 7670,
      "흇</w>": 7671,
      "싳</w>": 7672,
      "뱄</w>": 7673,
      "펔</w>": 7674,
      "삧</w>": 7675,
      "꼩</w>": 7676,
      "븬</w>": 7677,
      "몄</w>": 7678,
      "늴</w>": 7679,
      "괜</w>": 7680,
      "쾽</w>": 7681,
      "솬</w>": 7682,
      "쯘</w>": 7683,
      "땧</w>": 7684,
      "핔</w>": 7685,
      "켯</w>": 7686,
      "즩</w>": 7687,
      "웈</w>": 7688,
      "셒</w>": 7689,
      "뉭</w>": 7690,
      "숟</w>": 7691,
      "봴</w>": 7692,
      "뭴</w>": 7693,
      "퓽</w>": 7694,
      "몐</w>": 7695,
      "깆</w>": 7696,
      "괆</w>": 7697,
      "놐</w>": 7698,
      "꾐</w>": 7699,
      "깈</w>": 7700,
      "싄</w>": 7701,
      "쿧</w>": 7702,
      "틥</w>": 7703,
      "쟣</w>": 7704,
      "찎</w>": 7705,
      "촏</w>": 7706,
      "륲</w>": 7707,
      "긾</w>": 7708,
      "횩</w>": 7709,
      "봣</w>": 7710,
      "뷕</w>": 7711,
      "걺</w>": 7712,
      "펵</w>": 7713,
      "뵬</w>": 7714,
      "쐈</w>": 7715,
      "쬲</w>": 7716,
      "쏸</w>": 7717,
      "쩖</w>": 7718,
      "쟨</w>": 7719,
      "롁</w>": 7720,
      "홗</w>": 7721,
      "웋</w>": 7722,
      "덖</w>": 7723,
      "긺</w>": 7724,
      "궛</w>": 7725,
      "왂</w>": 7726,
      "탇</w>": 7727,
      "퀑</w>": 7728,
      "릊</w>": 7729,
      "붹</w>": 7730,
      "묷</w>": 7731,
      "핞</w>": 7732,
      "툿</w>": 7733,
      "굗</w>": 7734,
      "깓</w>": 7735,
      "젙</w>": 7736,
      "겮</w>": 7737,
      "밬</w>": 7738,
      "퍔</w>": 7739,
      "퀩</w>": 7740,
      "킻</w>": 7741,
      "즵</w>": 7742,
      "얠</w>": 7743,
      "셯</w>": 7744,
      "뭡</w>": 7745,
      "혖</w>": 7746,
      "휨</w>": 7747,
      "땝</w>": 7748,
      "늍</w>": 7749,
      "밫</w>": 7750,
      "붴</w>": 7751,
      "쨕</w>": 7752,
      "쒱</w>": 7753,
      "밞</w>": 7754,
      "멂</w>": 7755,
      "춫</w>": 7756,
      "뗸</w>": 7757,
      "쭵</w>": 7758,
      "칯</w>": 7759,
      "컽</w>": 7760,
      "볅</w>": 7761,
      "큨</w>": 7762,
      "앁</w>": 7763,
      "챟</w>": 7764,
      "뙤</w>": 7765,
      "굑</w>": 7766,
      "굅</w>": 7767,
      "떫</w>": 7768,
      "웸</w>": 7769,
      "똗</w>": 7770,
      "얾</w>": 7771,
      "붆</w>": 7772,
      "잋</w>": 7773,
      "뒁</w>": 7774,
      "뢔</w>": 7775,
      "샸</w>": 7776,
      "웊</w>": 7777,
      "팣</w>": 7778,
      "벩</w>": 7779,
      "틷</w>": 7780,
      "퉐</w>": 7781,
      "퓑</w>": 7782,
      "샣</w>": 7783,
      "텤</w>": 7784,
      "땗</w>": 7785,
      "왭</w>": 7786,
      "뼑</w>": 7787,
      "됮</w>": 7788,
      "쫳</w>": 7789,
      "꼮</w>": 7790,
      "갏</w>": 7791,
      "꿸</w>": 7792,
      "홴</w>": 7793,
      "뛩</w>": 7794,
      "볾</w>": 7795,
      "봙</w>": 7796,
      "먗</w>": 7797,
      "붂</w>": 7798,
      "킿</w>": 7799,
      "썐</w>": 7800,
      "쯀</w>": 7801,
      "탰</w>": 7802,
      "쟇</w>": 7803,
      "낡</w>": 7804,
      "엊</w>": 7805,
      "븘</w>": 7806,
      "뿝</w>": 7807,
      "츱</w>": 7808,
      "둁</w>": 7809,
      "꾱</w>": 7810,
      "헼</w>": 7811,
      "멮</w>": 7812,
      "잃</w>": 7813,
      "뱝</w>": 7814,
      "늼</w>": 7815,
      "풱</w>": 7816,
      "맻</w>": 7817,
      "땆</w>": 7818,
      "릲</w>": 7819,
      "얃</w>": 7820,
      "헕</w>": 7821,
      "뙨</w>": 7822,
      "릔</w>": 7823,
      "붌</w>": 7824,
      "럅</w>": 7825,
      "젛</w>": 7826,
      "릫</w>": 7827,
      "쒯</w>": 7828,
      "잂</w>": 7829,
      "짴</w>": 7830,
      "뢿</w>": 7831,
      "싺</w>": 7832,
      "쉣</w>": 7833,
      "윜</w>": 7834,
      "랼</w>": 7835,
      "휇</w>": 7836,
      "몴</w>": 7837,
      "랟</w>": 7838,
      "췡</w>": 7839,
      "끸</w>": 7840,
      "니다</w>": 7841,
      "습니다</w>": 7842,
      "으로</w>": 7843,
      "에서</w>": 7844,
      "하는</w>": 7845,
      "..</w>": 7846,
      "하고</w>": 7847,
      "있는</w>": 7848,
      "...</w>": 7849,
      "있습니다</w>": 7850,
      "합니다</w>": 7851,
      "이다</w>": 7852,
      "20": 7853,
      "있다</w>": 7854,
      "입니다</w>": 7855,
      "지만</w>": 7856,
      "한다</w>": 7857,
      "했다</w>": 7858,
      "들이</w>": 7859,
      "하여</w>": 7860,
      "사람": 7861,
      "사용": 7862,
      "적인</w>": 7863,
      "다는</w>": 7864,
      "하게</w>": 7865,
      "에는</w>": 7866,
      "에게</w>": 7867,
      "페이": 7868,
      "in": 7869,
      "는데</w>": 7870,
      "대한</w>": 7871,
      "다고</w>": 7872,
      "었다</w>": 7873,
      "201": 7874,
      "에서": 7875,
      "이라": 7876,
      "적으로</w>": 7877,
      "10": 7878,
      "까지</w>": 7879,
      "생각": 7880,
      "하지</w>": 7881,
      "사이": 7882,
      "리고</w>": 7883,
      "들은</w>": 7884,
      "우리": 7885,
      "정보": 7886,
      "서비": 7887,
      "아니": 7888,
      "해서</w>": 7889,
      "아이": 7890,
      "다른</w>": 7891,
      "때문": 7892,
      "부터</w>": 7893,
      "er": 7894,
      "프로": 7895,
      "되는</w>": 7896,
      "페이지</w>": 7897,
      "이용": 7898,
      "or": 7899,
      "an": 7900,
      "것이</w>": 7901,
      "그래": 7902,
      "하기</w>": 7903,
      "됩니다</w>": 7904,
      "경우</w>": 7905,
      "것은</w>": 7906,
      "으며</w>": 7907,
      "세요</w>": 7908,
      "면서</w>": 7909,
      "모든</w>": 7910,
      "가능": 7911,
      "시간": 7912,
      "많은</w>": 7913,
      "한국": 7914,
      "들의</w>": 7915,
      "같은</w>": 7916,
      "제공": 7917,
      "00": 7918,
      "하나": 7919,
      "하면</w>": 7920,
      "그리고</w>": 7921,
      "기를</w>": 7922,
      "들을</w>": 7923,
      "ar": 7924,
      "그러": 7925,
      "가장</w>": 7926,
      "at": 7927,
      "문제": 7928,
      "on": 7929,
      "것이다</w>": 7930,
      "것을</w>": 7931,
      "er</w>": 7932,
      "en": 7933,
      "되어</w>": 7934,
      "필요": 7935,
      "위해</w>": 7936,
      "정보</w>": 7937,
      "들어": 7938,
      "없는</w>": 7939,
      "라이": 7940,
      "함께</w>": 7941,
      "다면</w>": 7942,
      "으로": 7943,
      "지는</w>": 7944,
      "하며</w>": 7945,
      "st": 7946,
      "또는</w>": 7947,
      "이나</w>": 7948,
      "19": 7949,
      "하지만</w>": 7950,
      "데이": 7951,
      "좋은</w>": 7952,
      "자신": 7953,
      "보다</w>": 7954,
      "에서는</w>": 7955,
      "인터": 7956,
      "위한</w>": 7957,
      "때문에</w>": 7958,
      "가지": 7959,
      "해야</w>": 7960,
      "th": 7961,
      "레이": 7962,
      "사회": 7963,
      "된다</w>": 7964,
      "통해</w>": 7965,
      "라고</w>": 7966,
      "거나</w>": 7967,
      "도록</w>": 7968,
      "나는</w>": 7969,
      "스타": 7970,
      "co": 7971,
      "대로</w>": 7972,
      "스트": 7973,
      "on</w>": 7974,
      "라는</w>": 7975,
      "시간</w>": 7976,
      "많이</w>": 7977,
      "되었": 7978,
      "개인": 7979,
      "서비스</w>": 7980,
      "하시": 7981,
      "re": 7982,
      "내용": 7983,
      "하다</w>": 7984,
      "따라</w>": 7985,
      "교육": 7986,
      "이야": 7987,
      "시작": 7988,
      "렇게</w>": 7989,
      "없이</w>": 7990,
      "다양": 7991,
      "ic": 7992,
      "어요</w>": 7993,
      "기도</w>": 7994,
      "보기</w>": 7995,
      "에도</w>": 7996,
      "다시</w>": 7997,
      "이는</w>": 7998,
      "기에</w>": 7999,
      "또한</w>": 8000,
      "대해</w>": 8001,
      "있었": 8002,
      "어떤</w>": 8003,
      "ro": 8004,
      "자가</w>": 8005,
      "으면</w>": 8006,
      "it": 8007,
      "경우": 8008,
      "리는</w>": 8009,
      "서는</w>": 8010,
      "리를</w>": 8011,
      "12": 8012,
      "al": 8013,
      "니까</w>": 8014,
      "로운</w>": 8015,
      "저작": 8016,
      "하였": 8017,
      "서비스": 8018,
      "자료": 8019,
      "부분": 8020,
      "있으며</w>": 8021,
      "이라고</w>": 8022,
      "이런</w>": 8023,
      "200": 8024,
      "호텔</w>": 8025,
      "가지</w>": 8026,
      "자의</w>": 8027,
      "다양한</w>": 8028,
      "네요</w>": 8029,
      "어서</w>": 8030,
      "확인": 8031,
      "우리</w>": 8032,
      "되고</w>": 8033,
      "해주": 8034,
      "았다</w>": 8035,
      "보고</w>": 8036,
      "동안</w>": 8037,
      "가는</w>": 8038,
      "모두</w>": 8039,
      "처럼</w>": 8040,
      "상품": 8041,
      "만들": 8042,
      "방법": 8043,
      "ing</w>": 8044,
      "),</w>": 8045,
      "마음": 8046,
      "지를</w>": 8047,
      "이고</w>": 8048,
      "11": 8049,
      "대학": 8050,
      "되지</w>": 8051,
      "사랑": 8052,
      "내가</w>": 8053,
      "어떻": 8054,
      "프로그": 8055,
      "감사": 8056,
      "시스": 8057,
      "것으로</w>": 8058,
      "기가</w>": 8059,
      "기업": 8060,
      "아니라</w>": 8061,
      "바로</w>": 8062,
      "지원": 8063,
      "겠습니다</w>": 8064,
      "..": 8065,
      "ac": 8066,
      "자는</w>": 8067,
      "사를</w>": 8068,
      "연구": 8069,
      "어떻게</w>": 8070,
      "30": 8071,
      "중요": 8072,
      "지역": 8073,
      "등을</w>": 8074,
      "le": 8075,
      "선택": 8076,
      "회원": 8077,
      "제가</w>": 8078,
      "am": 8079,
      "새로운</w>": 8080,
      "이상": 8081,
      "것입니다</w>": 8082,
      "전에</w>": 8083,
      "관리": 8084,
      "이며</w>": 8085,
      "지난</w>": 8086,
      "했습니다</w>": 8087,
      "여행": 8088,
      "사는</w>": 8089,
      "없습니다</w>": 8090,
      "기는</w>": 8091,
      "기술": 8092,
      "이라는</w>": 8093,
      "게임</w>": 8094,
      "하는": 8095,
      "그러나</w>": 8096,
      "가지고</w>": 8097,
      "사업": 8098,
      "서울": 8099,
      "문화": 8100,
      "학교": 8101,
      "다음": 8102,
      "있을</w>": 8103,
      "너무</w>": 8104,
      "정말</w>": 8105,
      "정을</w>": 8106,
      "게임": 8107,
      "없다</w>": 8108,
      "같이</w>": 8109,
      "관련</w>": 8110,
      "the</w>": 8111,
      "세계": 8112,
      "성을</w>": 8113,
      "제품": 8114,
      "15": 8115,
      "정도": 8116,
      "있고</w>": 8117,
      "보면</w>": 8118,
      "케이": 8119,
      "진행": 8120,
      "ion</w>": 8121,
      "게시": 8122,
      "고객": 8123,
      "일을</w>": 8124,
      "당신": 8125,
      "10</w>": 8126,
      "as": 8127,
      "관계": 8128,
      "il": 8129,
      "구매": 8130,
      "자동": 8131,
      "스트</w>": 8132,
      "위치": 8133,
      "않는</w>": 8134,
      "사이트</w>": 8135,
      "ou": 8136,
      "이를</w>": 8137,
      "현재</w>": 8138,
      "이상</w>": 8139,
      "그런</w>": 8140,
      "이러": 8141,
      "들에게</w>": 8142,
      "기능": 8143,
      "사이트": 8144,
      "스포": 8145,
      "al</w>": 8146,
      "립니다</w>": 8147,
      "is": 8148,
      "일본": 8149,
      "하세요</w>": 8150,
      "개발": 8151,
      "것도</w>": 8152,
      "장을</w>": 8153,
      "es": 8154,
      "다가</w>": 8155,
      "수도</w>": 8156,
      "상을</w>": 8157,
      "운영": 8158,
      "관련": 8159,
      "좋아": 8160,
      "랍니다</w>": 8161,
      "그래서</w>": 8162,
      "호텔": 8163,
      "이었": 8164,
      "상황": 8165,
      "이유": 8166,
      "그런": 8167,
      "지도</w>": 8168,
      "않습니다</w>": 8169,
      "최근</w>": 8170,
      "사진": 8171,
      "전문": 8172,
      "오는</w>": 8173,
      "력을</w>": 8174,
      "하면서</w>": 8175,
      "위원": 8176,
      "화를</w>": 8177,
      "oo": 8178,
      "무엇": 8179,
      "이렇게</w>": 8180,
      "했던</w>": 8181,
      "포함": 8182,
      "책임": 8183,
      "대표": 8184,
      "리가</w>": 8185,
      "미국</w>": 8186,
      "로그": 8187,
      "해당</w>": 8188,
      "주는</w>": 8189,
      "저작권": 8190,
      "점을</w>": 8191,
      "수가</w>": 8192,
      "직접</w>": 8193,
      "는다</w>": 8194,
      "이어": 8195,
      "가슴</w>": 8196,
      "있었다</w>": 8197,
      "모습": 8198,
      "바랍니다</w>": 8199,
      "디자": 8200,
      "설명": 8201,
      "섹스</w>": 8202,
      "특히</w>": 8203,
      "우리는</w>": 8204,
      "드는</w>": 8205,
      "라도</w>": 8206,
      "ed</w>": 8207,
      "ag": 8208,
      "스토": 8209,
      "다음</w>": 8210,
      "방법</w>": 8211,
      "등의</w>": 8212,
      "발생": 8213,
      "자신의</w>": 8214,
      "대통": 8215,
      "lo": 8216,
      "않은</w>": 8217,
      "in</w>": 8218,
      "미국": 8219,
      "님의</w>": 8220,
      "지금": 8221,
      "자를</w>": 8222,
      "18": 8223,
      "다운": 8224,
      "물을</w>": 8225,
      "있어</w>": 8226,
      "그렇": 8227,
      "사실": 8228,
      "드립니다</w>": 8229,
      "16": 8230,
      "분석</w>": 8231,
      "하실</w>": 8232,
      "구성": 8233,
      "준비": 8234,
      "이번</w>": 8235,
      "환경": 8236,
      "들과</w>": 8237,
      "않고</w>": 8238,
      "있으": 8239,
      "인터넷</w>": 8240,
      "생활": 8241,
      "경제": 8242,
      "한국</w>": 8243,
      "어야</w>": 8244,
      "주의": 8245,
      "활동": 8246,
      "는지</w>": 8247,
      "관한</w>": 8248,
      "여러</w>": 8249,
      "et": 8250,
      "학생": 8251,
      "까요</w>": 8252,
      "모르": 8253,
      "특별": 8254,
      "므로</w>": 8255,
      "지금</w>": 8256,
      "매우</w>": 8257,
      "검색</w>": 8258,
      ").</w>": 8259,
      "이러한</w>": 8260,
      "사의</w>": 8261,
      "일이</w>": 8262,
      "스마": 8263,
      "결과": 8264,
      "에서도</w>": 8265,
      "보는</w>": 8266,
      "사가</w>": 8267,
      "물론</w>": 8268,
      "도움": 8269,
      "정보를</w>": 8270,
      "드리": 8271,
      "센터</w>": 8272,
      "시장": 8273,
      "성이</w>": 8274,
      "그래프": 8275,
      "식을</w>": 8276,
      "스를</w>": 8277,
      "ri": 8278,
      "el": 8279,
      "리에</w>": 8280,
      "영상</w>": 8281,
      "하거나</w>": 8282,
      "나타": 8283,
      "였다</w>": 8284,
      "주소</w>": 8285,
      "무료</w>": 8286,
      "저는</w>": 8287,
      "시오</w>": 8288,
      "되었다</w>": 8289,
      "an</w>": 8290,
      "데요</w>": 8291,
      "관리</w>": 8292,
      "트를</w>": 8293,
      "le</w>": 8294,
      "돌아": 8295,
      "중에</w>": 8296,
      "es</w>": 8297,
      "정부": 8298,
      "번째</w>": 8299,
      "이해": 8300,
      "개의</w>": 8301,
      "등록": 8302,
      "com</w>": 8303,
      "에이": 8304,
      "대한": 8305,
      "ec": 8306,
      "사진</w>": 8307,
      "14": 8308,
      "있다는</w>": 8309,
      "사람</w>": 8310,
      "이후</w>": 8311,
      "의미": 8312,
      "아무": 8313,
      "기록": 8314,
      "시면</w>": 8315,
      "이었다</w>": 8316,
      "아시": 8317,
      "교육</w>": 8318,
      "보호": 8319,
      "산업": 8320,
      "안전": 8321,
      "ur": 8322,
      "프로그램": 8323,
      "필요한</w>": 8324,
      "여러": 8325,
      "따라": 8326,
      "기로</w>": 8327,
      "나라": 8328,
      "보여": 8329,
      "역시</w>": 8330,
      "13": 8331,
      "십시오</w>": 8332,
      "국가": 8333,
      "사항": 8334,
      "이라</w>": 8335,
      "주의</w>": 8336,
      "시키": 8337,
      "거의</w>": 8338,
      "상태": 8339,
      "에게": 8340,
      "친구": 8341,
      "하려": 8342,
      "사람이</w>": 8343,
      "하는데</w>": 8344,
      "un": 8345,
      "작은</w>": 8346,
      "등이</w>": 8347,
      "인이</w>": 8348,
      "기타</w>": 8349,
      "소프": 8350,
      "경험": 8351,
      "학교</w>": 8352,
      "이제</w>": 8353,
      "추가": 8354,
      "스크": 8355,
      "보고": 8356,
      "or</w>": 8357,
      "처리": 8358,
      "여행</w>": 8359,
      "건강": 8360,
      "데이터": 8361,
      "인간": 8362,
      "적용": 8363,
      "감사합니다</w>": 8364,
      "50": 8365,
      "계획": 8366,
      "어려": 8367,
      "베이": 8368,
      "컴퓨": 8369,
      "인의</w>": 8370,
      "자료</w>": 8371,
      "개월</w>": 8372,
      "받은</w>": 8373,
      "해도</w>": 8374,
      "댓글": 8375,
      "이름": 8376,
      "판매": 8377,
      "세계</w>": 8378,
      "하나</w>": 8379,
      "자에게</w>": 8380,
      "알려": 8381,
      "지고</w>": 8382,
      "우리가</w>": 8383,
      "자세": 8384,
      "그는</w>": 8385,
      "온라": 8386,
      "쉽게</w>": 8387,
      "그런데</w>": 8388,
      "정도</w>": 8389,
      "일반": 8390,
      "테이": 8391,
      "그리": 8392,
      "됐다</w>": 8393,
      "!!</w>": 8394,
      "국민": 8395,
      "소개": 8396,
      "추천</w>": 8397,
      "나요</w>": 8398,
      "만큼</w>": 8399,
      "가족": 8400,
      "영화": 8401,
      "메이": 8402,
      "로그</w>": 8403,
      "도를</w>": 8404,
      "있도록</w>": 8405,
      "수는</w>": 8406,
      "이미": 8407,
      "평균</w>": 8408,
      "청소": 8409,
      "알아": 8410,
      "중국": 8411,
      "17": 8412,
      "지역</w>": 8413,
      "일본</w>": 8414,
      "보니</w>": 8415,
      "사용</w>": 8416,
      "이용</w>": 8417,
      "보험": 8418,
      "바이": 8419,
      "스는</w>": 8420,
      "찾아": 8421,
      "같습니다</w>": 8422,
      "이미</w>": 8423,
      "24": 8424,
      "이벤": 8425,
      "그렇게</w>": 8426,
      "아닌</w>": 8427,
      "과정": 8428,
      "있게</w>": 8429,
      "최고": 8430,
      "보내": 8431,
      "관심": 8432,
      "운동": 8433,
      "않았": 8434,
      "영화</w>": 8435,
      "경기": 8436,
      "여성": 8437,
      "자유": 8438,
      "사람들이</w>": 8439,
      "그냥</w>": 8440,
      "드를</w>": 8441,
      "가격": 8442,
      "이야기</w>": 8443,
      "브랜": 8444,
      "시에</w>": 8445,
      ".\"</w>": 8446,
      "제품</w>": 8447,
      "변경": 8448,
      "참여": 8449,
      "아마": 8450,
      "아주</w>": 8451,
      "하였다</w>": 8452,
      "되면</w>": 8453,
      "문의": 8454,
      "소프트": 8455,
      "변화": 8456,
      "밖에</w>": 8457,
      "그의</w>": 8458,
      "설치": 8459,
      "모바": 8460,
      "오늘": 8461,
      "되었습니다</w>": 8462,
      "오늘</w>": 8463,
      "어느</w>": 8464,
      "ig": 8465,
      "시기</w>": 8466,
      "명의</w>": 8467,
      "마지": 8468,
      "인지</w>": 8469,
      "을까</w>": 8470,
      "카지": 8471,
      "중요한</w>": 8472,
      "om": 8473,
      "해서는</w>": 8474,
      "지의</w>": 8475,
      "주세요</w>": 8476,
      "지가</w>": 8477,
      "사용할</w>": 8478,
      "서울</w>": 8479,
      "먼저</w>": 8480,
      "인데</w>": 8481,
      "아요</w>": 8482,
      "of</w>": 8483,
      "작업": 8484,
      "ad": 8485,
      "시설": 8486,
      "신청": 8487,
      "있는데</w>": 8488,
      "얼마": 8489,
      "활용": 8490,
      "정치": 8491,
      "행복": 8492,
      "가능한</w>": 8493,
      "있다고</w>": 8494,
      "국제": 8495,
      "아름": 8496,
      "삭제</w>": 8497,
      "원을</w>": 8498,
      "100": 8499,
      "효과": 8500,
      "중심": 8501,
      "지원</w>": 8502,
      "수를</w>": 8503,
      "도의</w>": 8504,
      "상품</w>": 8505,
      "해당": 8506,
      "성공": 8507,
      "정책": 8508,
      "8년</w>": 8509,
      "자연": 8510,
      "제공됩니다</w>": 8511,
      "장이</w>": 8512,
      "마케": 8513,
      "더욱</w>": 8514,
      "대통령": 8515,
      "발견": 8516,
      "ch": 8517,
      "한다는</w>": 8518,
      "제로</w>": 8519,
      "기본": 8520,
      "방문": 8521,
      "광고": 8522,
      "인가</w>": 8523,
      "떨어": 8524,
      "계속</w>": 8525,
      "때문이다</w>": 8526,
      "국내</w>": 8527,
      "들도</w>": 8528,
      "해결": 8529,
      "위에</w>": 8530,
      "ol": 8531,
      "시는</w>": 8532,
      "마다</w>": 8533,
      "이가</w>": 8534,
      "인을</w>": 8535,
      "지요</w>": 8536,
      "높은</w>": 8537,
      "스의</w>": 8538,
      "시스템": 8539,
      "알고</w>": 8540,
      "보이": 8541,
      "다운로": 8542,
      "번호</w>": 8543,
      "여기": 8544,
      "de": 8545,
      "아래": 8546,
      "ti": 8547,
      "표시": 8548,
      "대상": 8549,
      "하고": 8550,
      "이루": 8551,
      "항공": 8552,
      "같다</w>": 8553,
      "력이</w>": 8554,
      "전자": 8555,
      ".)</w>": 8556,
      "분석": 8557,
      "뉴스</w>": 8558,
      "일에</w>": 8559,
      "자기</w>": 8560,
      "평가": 8561,
      "문서": 8562,
      "겠다</w>": 8563,
      "안내</w>": 8564,
      "말씀": 8565,
      "프리": 8566,
      "만들어": 8567,
      "여자</w>": 8568,
      "가입": 8569,
      "결정": 8570,
      "어린": 8571,
      "마련": 8572,
      "추가</w>": 8573,
      "사실</w>": 8574,
      "결과</w>": 8575,
      "기대": 8576,
      "서비스를</w>": 8577,
      "us": 8578,
      "연결": 8579,
      "ow": 8580,
      "소셜": 8581,
      "있어서</w>": 8582,
      "ht": 8583,
      "일어": 8584,
      "조건": 8585,
      "크리": 8586,
      "졌다</w>": 8587,
      "Th": 8588,
      "치는</w>": 8589,
      "전체</w>": 8590,
      "중국</w>": 8591,
      "무료": 8592,
      "ap": 8593,
      "존재": 8594,
      "소비": 8595,
      "의해</w>": 8596,
      "이에</w>": 8597,
      "점이</w>": 8598,
      "복지": 8599,
      "가능</w>": 8600,
      "발전": 8601,
      "있는": 8602,
      "문제가</w>": 8603,
      "1일</w>": 8604,
      "방송": 8605,
      "미터": 8606,
      "있지만</w>": 8607,
      "St": 8608,
      "나의</w>": 8609,
      "명이</w>": 8610,
      "영향": 8611,
      "누구": 8612,
      "추천": 8613,
      "ab": 8614,
      "현대": 8615,
      "코어</w>": 8616,
      "12</w>": 8617,
      "시간이</w>": 8618,
      "마이": 8619,
      "11</w>": 8620,
      "em": 8621,
      "들어</w>": 8622,
      "노동": 8623,
      "그녀": 8624,
      "장애": 8625,
      "라우": 8626,
      "모델": 8627,
      "치를</w>": 8628,
      "미디": 8629,
      "내용</w>": 8630,
      "문제</w>": 8631,
      "인터넷": 8632,
      "아서</w>": 8633,
      "시스템</w>": 8634,
      "로는</w>": 8635,
      "언제": 8636,
      "25": 8637,
      "다운</w>": 8638,
      "기업</w>": 8639,
      "장은</w>": 8640,
      "받고</w>": 8641,
      "나오": 8642,
      "프로그램</w>": 8643,
      "정한</w>": 8644,
      "안에</w>": 8645,
      "ot": 8646,
      "위를</w>": 8647,
      "에서의</w>": 8648,
      "처음": 8649,
      "정상": 8650,
      "도가</w>": 8651,
      "수집": 8652,
      "시장</w>": 8653,
      "and</w>": 8654,
      "리아</w>": 8655,
      "경기</w>": 8656,
      "음을</w>": 8657,
      "서도</w>": 8658,
      "개발</w>": 8659,
      "가요</w>": 8660,
      "전히</w>": 8661,
      "검색": 8662,
      "시대": 8663,
      "대한민": 8664,
      "한다고</w>": 8665,
      "조금</w>": 8666,
      "ir": 8667,
      "가능합니다</w>": 8668,
      "데이터</w>": 8669,
      "해외": 8670,
      "세상": 8671,
      "모두": 8672,
      "자체": 8673,
      "공간": 8674,
      "et</w>": 8675,
      "만에</w>": 8676,
      "작성": 8677,
      "다만</w>": 8678,
      "콘텐": 8679,
      "살아": 8680,
      "어디": 8681,
      "리의</w>": 8682,
      "여성</w>": 8683,
      "따라서</w>": 8684,
      "받을</w>": 8685,
      "해보": 8686,
      "정확": 8687,
      "포르": 8688,
      "ation</w>": 8689,
      "문의</w>": 8690,
      "도시": 8691,
      "치료": 8692,
      "어를</w>": 8693,
      "기자</w>": 8694,
      "과학": 8695,
      "적이</w>": 8696,
      "스마트": 8697,
      "민주": 8698,
      "기간</w>": 8699,
      "말을</w>": 8700,
      "지에</w>": 8701,
      "했고</w>": 8702,
      "삭제": 8703,
      "비교": 8704,
      "계약": 8705,
      "원의</w>": 8706,
      "예정": 8707,
      "000": 8708,
      "않을</w>": 8709,
      "부를</w>": 8710,
      "아직</w>": 8711,
      "투자": 8712,
      "시설</w>": 8713,
      "요구": 8714,
      "프로젝": 8715,
      "운영</w>": 8716,
      "아니다</w>": 8717,
      "군요</w>": 8718,
      "회를</w>": 8719,
      "사회</w>": 8720,
      "이메": 8721,
      "르게</w>": 8722,
      "시간을</w>": 8723,
      "지난": 8724,
      "해야": 8725,
      "문을</w>": 8726,
      "av": 8727,
      "참고": 8728,
      "어도</w>": 8729,
      "사에</w>": 8730,
      "했는데</w>": 8731,
      "관광": 8732,
      "ub": 8733,
      "왔다</w>": 8734,
      "기간": 8735,
      "이란</w>": 8736,
      "기술</w>": 8737,
      "7년</w>": 8738,
      "상대": 8739,
      "구조": 8740,
      "기의</w>": 8741,
      "음식": 8742,
      "하드</w>": 8743,
      "스가</w>": 8744,
      "회원</w>": 8745,
      "방식": 8746,
      "원이</w>": 8747,
      "to</w>": 8748,
      "의를</w>": 8749,
      "경영": 8750,
      "....</w>": 8751,
      "기관": 8752,
      "결국</w>": 8753,
      "셔서</w>": 8754,
      "선수": 8755,
      "위하여</w>": 8756,
      "표현": 8757,
      "성에</w>": 8758,
      "때는</w>": 8759,
      "40": 8760,
      "플레이": 8761,
      "//</w>": 8762,
      "포인": 8763,
      "하나님": 8764,
      "공개": 8765,
      "이어</w>": 8766,
      "기억": 8767,
      "하신</w>": 8768,
      "정신": 8769,
      "대하여</w>": 8770,
      "아버": 8771,
      "네이": 8772,
      "업데이": 8773,
      "이동": 8774,
      "혹은</w>": 8775,
      "스포츠": 8776,
      "시리": 8777,
      "여자": 8778,
      "궁금": 8779,
      "유지": 8780,
      "발표": 8781,
      "하루": 8782,
      "게시물</w>": 8783,
      "말했다</w>": 8784,
      "확인</w>": 8785,
      "설정": 8786,
      "주변</w>": 8787,
      "분야": 8788,
      "is</w>": 8789,
      "받아": 8790,
      "배우": 8791,
      "최대</w>": 8792,
      "스로</w>": 8793,
      "가운": 8794,
      "느낌": 8795,
      "분이</w>": 8796,
      "기준": 8797,
      "내용을</w>": 8798,
      "부모": 8799,
      "었습니다</w>": 8800,
      "도로</w>": 8801,
      "아파": 8802,
      "ent": 8803,
      "한번</w>": 8804,
      "명을</w>": 8805,
      "신고": 8806,
      "정보는</w>": 8807,
      "5년</w>": 8808,
      "제공</w>": 8809,
      "내에</w>": 8810,
      "충분": 8811,
      "지나": 8812,
      "제대로</w>": 8813,
      "모바일</w>": 8814,
      "으로는</w>": 8815,
      "TV</w>": 8816,
      "ent</w>": 8817,
      "처음</w>": 8818,
      "1년</w>": 8819,
      "In": 8820,
      "기사</w>": 8821,
      "얼마나</w>": 8822,
      "만원</w>": 8823,
      "하이": 8824,
      "구요</w>": 8825,
      "기다": 8826,
      "공유": 8827,
      "22": 8828,
      "li": 8829,
      "항상</w>": 8830,
      "di": 8831,
      "지지</w>": 8832,
      "하여": 8833,
      "크게</w>": 8834,
      "2018</w>": 8835,
      "예약": 8836,
      "통신": 8837,
      "음악": 8838,
      "두고</w>": 8839,
      "경쟁": 8840,
      "드가</w>": 8841,
      "생산": 8842,
      "서로</w>": 8843,
      "로부터</w>": 8844,
      "이번": 8845,
      "일부</w>": 8846,
      "역할": 8847,
      "이벤트</w>": 8848,
      "카드</w>": 8849,
      "가고</w>": 8850,
      "주고</w>": 8851,
      "부분</w>": 8852,
      "글을</w>": 8853,
      "밝혔": 8854,
      "거래": 8855,
      "과의</w>": 8856,
      "사무": 8857,
      "교회": 8858,
      "지방": 8859,
      "네트": 8860,
      "올라": 8861,
      "가까": 8862,
      "결제</w>": 8863,
      "소를</w>": 8864,
      "하십시오</w>": 8865,
      "그룹</w>": 8866,
      "르면</w>": 8867,
      "사업</w>": 8868,
      "사람은</w>": 8869,
      "199": 8870,
      "도움이</w>": 8871,
      "대학교</w>": 8872,
      "우리의</w>": 8873,
      "km</w>": 8874,
      "수준": 8875,
      "행동": 8876,
      "kr</w>": 8877,
      "작품": 8878,
      "의료": 8879,
      "싶은</w>": 8880,
      "부스타": 8881,
      "시민": 8882,
      "스러": 8883,
      "가진</w>": 8884,
      "Por": 8885,
      "회사</w>": 8886,
      "받는</w>": 8887,
      "댓글</w>": 8888,
      "형태": 8889,
      "2년</w>": 8890,
      "따른</w>": 8891,
      "있기</w>": 8892,
      "간의</w>": 8893,
      "북한": 8894,
      "나라</w>": 8895,
      "렸다</w>": 8896,
      "3년</w>": 8897,
      "것이": 8898,
      "니스</w>": 8899,
      "주문": 8900,
      "바람": 8901,
      "연구</w>": 8902,
      "가져": 8903,
      "vi": 8904,
      "온라인</w>": 8905,
      "려고</w>": 8906,
      "com": 8907,
      "다음과</w>": 8908,
      "습니까</w>": 8909,
      "않는다</w>": 8910,
      "노력": 8911,
      "6년</w>": 8912,
      "일은</w>": 8913,
      "더라도</w>": 8914,
      "미래": 8915,
      "카지노</w>": 8916,
      "오후</w>": 8917,
      "조직": 8918,
      "비밀": 8919,
      "고민": 8920,
      "았습니다</w>": 8921,
      "uc": 8922,
      "문화</w>": 8923,
      "상당": 8924,
      "내는</w>": 8925,
      "자기": 8926,
      "정의</w>": 8927,
      "최고의</w>": 8928,
      "불법": 8929,
      "전체": 8930,
      "만한</w>": 8931,
      "불편": 8932,
      "상품명</w>": 8933,
      "업체": 8934,
      "당시</w>": 8935,
      "상의</w>": 8936,
      "등에</w>": 8937,
      "00</w>": 8938,
      "프레": 8939,
      "en</w>": 8940,
      "만들어</w>": 8941,
      "후에</w>": 8942,
      "있지</w>": 8943,
      "htt": 8944,
      "파일</w>": 8945,
      "책을</w>": 8946,
      "인다</w>": 8947,
      "외국": 8948,
      "했지만</w>": 8949,
      "대학</w>": 8950,
      "르는</w>": 8951,
      "장에서</w>": 8952,
      "께서</w>": 8953,
      "으나</w>": 8954,
      "리아": 8955,
      "거운</w>": 8956,
      "자들이</w>": 8957,
      "사용하는</w>": 8958,
      "가를</w>": 8959,
      "보다는</w>": 8960,
      "프랑": 8961,
      "ut": 8962,
      "os": 8963,
      "제를</w>": 8964,
      "나이": 8965,
      "원하는</w>": 8966,
      "네트워": 8967,
      "블로그</w>": 8968,
      "경제</w>": 8969,
      "선을</w>": 8970,
      "드라": 8971,
      "경우에는</w>": 8972,
      "제작": 8973,
      "하도록</w>": 8974,
      "삼성": 8975,
      "앞으로</w>": 8976,
      "at</w>": 8977,
      "역사": 8978,
      "이야기": 8979,
      "아이디": 8980,
      "즉시</w>": 8981,
      "디오</w>": 8982,
      "사항</w>": 8983,
      "현실": 8984,
      "로서</w>": 8985,
      "하겠습니다</w>": 8986,
      "만나": 8987,
      "재미": 8988,
      "연락": 8989,
      "진다</w>": 8990,
      "개인정보": 8991,
      "만든</w>": 8992,
      "://</w>": 8993,
      "아래</w>": 8994,
      "지속": 8995,
      "정이</w>": 8996,
      "않았다</w>": 8997,
      "자세한</w>": 8998,
      "나를</w>": 8999,
      "20</w>": 9000,
      "중앙": 9001,
      "되며</w>": 9002,
      "서를</w>": 9003,
      "되어": 9004,
      "지도": 9005,
      "으니</w>": 9006,
      "감을</w>": 9007,
      "레이</w>": 9008,
      "수의</w>": 9009,
      "머니": 9010,
      "공동": 9011,
      "업무": 9012,
      "드리겠습니다</w>": 9013,
      "년에</w>": 9014,
      "뿐만</w>": 9015,
      "인은</w>": 9016,
      "회사": 9017,
      "스포츠</w>": 9018,
      "시즌</w>": 9019,
      "영상": 9020,
      "ster</w>": 9021,
      "기능</w>": 9022,
      "겁니다</w>": 9023,
      "글로": 9024,
      "명예": 9025,
      "생각이</w>": 9026,
      "그래도</w>": 9027,
      "내용은</w>": 9028,
      "ex": 9029,
      "입력": 9030,
      "사전</w>": 9031,
      "자리": 9032,
      "리그</w>": 9033,
      "60": 9034,
      "에너": 9035,
      "디자인</w>": 9036,
      "다니": 9037,
      "홈페이지</w>": 9038,
      "있어요</w>": 9039,
      "Ch": 9040,
      "가서</w>": 9041,
      "밝혔다</w>": 9042,
      "가운데</w>": 9043,
      "ay</w>": 9044,
      "ul": 9045,
      "마케팅</w>": 9046,
      "80": 9047,
      "모습을</w>": 9048,
      "간단": 9049,
      "인정": 9050,
      "드러": 9051,
      "있다면</w>": 9052,
      "성장": 9053,
      "다이": 9054,
      "개인</w>": 9055,
      "사건": 9056,
      "수정</w>": 9057,
      "하루</w>": 9058,
      "전화": 9059,
      "별로</w>": 9060,
      "센터": 9061,
      "저도</w>": 9062,
      "기능을</w>": 9063,
      "18</w>": 9064,
      "회의": 9065,
      "선생": 9066,
      "점은</w>": 9067,
      "감독": 9068,
      "라운": 9069,
      "디지": 9070,
      "전을</w>": 9071,
      "이지만</w>": 9072,
      "만드는</w>": 9073,
      "플러": 9074,
      "정책</w>": 9075,
      "고요</w>": 9076,
      "ter": 9077,
      "보이는</w>": 9078,
      "한다면</w>": 9079,
      "해요</w>": 9080,
      "금융": 9081,
      "겠지만</w>": 9082,
      "토토": 9083,
      "행정": 9084,
      "인해</w>": 9085,
      "동영상</w>": 9086,
      "An": 9087,
      "15</w>": 9088,
      "스럽": 9089,
      "동일": 9090,
      "23": 9091,
      "::</w>": 9092,
      "TA": 9093,
      "스터": 9094,
      "가격</w>": 9095,
      "재가</w>": 9096,
      "피해": 9097,
      "원은</w>": 9098,
      "바라": 9099,
      "4년</w>": 9100,
      "드시</w>": 9101,
      "기본</w>": 9102,
      "실제</w>": 9103,
      "아름다운</w>": 9104,
      "주요</w>": 9105,
      "하시는</w>": 9106,
      "수행": 9107,
      "얼굴": 9108,
      "으로써</w>": 9109,
      "물이</w>": 9110,
      "마지막</w>": 9111,
      "부족": 9112,
      "정도로</w>": 9113,
      "Re": 9114,
      "사고": 9115,
      "이상의</w>": 9116,
      "자와</w>": 9117,
      "쓰기</w>": 9118,
      "28": 9119,
      "시에는</w>": 9120,
      "속에</w>": 9121,
      "드의</w>": 9122,
      "있을": 9123,
      "반드시</w>": 9124,
      "내려": 9125,
      "그림": 9126,
      "목적": 9127,
      "국내": 9128,
      "국의</w>": 9129,
      "ww": 9130,
      "엉덩": 9131,
      "으로도</w>": 9132,
      "그대로</w>": 9133,
      "자신이</w>": 9134,
      "이기</w>": 9135,
      "자동차</w>": 9136,
      "목표": 9137,
      "과정</w>": 9138,
      "2018년</w>": 9139,
      "라면</w>": 9140,
      "요청": 9141,
      "요일</w>": 9142,
      "었던</w>": 9143,
      "어렵": 9144,
      "실제로</w>": 9145,
      "경찰": 9146,
      "27": 9147,
      "카메": 9148,
      "ve</w>": 9149,
      "못한</w>": 9150,
      "영어</w>": 9151,
      "고려": 9152,
      "만의</w>": 9153,
      "리지</w>": 9154,
      "갑니다</w>": 9155,
      "부터": 9156,
      "하셨": 9157,
      "들에</w>": 9158,
      "제는</w>": 9159,
      "랜드</w>": 9160,
      "The</w>": 9161,
      "비용": 9162,
      "공부": 9163,
      "판단": 9164,
      "이야기를</w>": 9165,
      "26": 9166,
      "13</w>": 9167,
      "장의</w>": 9168,
      "대해서</w>": 9169,
      "거리</w>": 9170,
      "특정</w>": 9171,
      "이루어": 9172,
      "크로": 9173,
      "금을</w>": 9174,
      "분쟁": 9175,
      "이름</w>": 9176,
      "im": 9177,
      "님이</w>": 9178,
      "올해</w>": 9179,
      "예약</w>": 9180,
      "대부분": 9181,
      "트가</w>": 9182,
      "전혀</w>": 9183,
      "시고</w>": 9184,
      "곳에</w>": 9185,
      "화장": 9186,
      "현재": 9187,
      "시험": 9188,
      "모델</w>": 9189,
      "것에</w>": 9190,
      "드로</w>": 9191,
      "단계": 9192,
      "치고</w>": 9193,
      "추어</w>": 9194,
      "um": 9195,
      "성과</w>": 9196,
      "위험": 9197,
      "저장": 9198,
      "PC": 9199,
      "제주": 9200,
      "일반</w>": 9201,
      "회의</w>": 9202,
      "단체": 9203,
      "학습": 9204,
      "14</w>": 9205,
      "영향을</w>": 9206,
      "했다고</w>": 9207,
      "권을</w>": 9208,
      "정치</w>": 9209,
      "쇼핑": 9210,
      "분위": 9211,
      "el</w>": 9212,
      "일의</w>": 9213,
      "느끼": 9214,
      "방향": 9215,
      "매일</w>": 9216,
      "비슷": 9217,
      "일단</w>": 9218,
      "의견": 9219,
      "대표</w>": 9220,
      "비즈": 9221,
      "제한": 9222,
      "스터</w>": 9223,
      "질문": 9224,
      "상담": 9225,
      "메시": 9226,
      "길을</w>": 9227,
      "만족": 9228,
      "없고</w>": 9229,
      "생각을</w>": 9230,
      "www</w>": 9231,
      "사람들은</w>": 9232,
      "그것은</w>": 9233,
      "같아요</w>": 9234,
      "공격": 9235,
      "타이": 9236,
      "관련된</w>": 9237,
      "머니</w>": 9238,
      "회가</w>": 9239,
      "위치한</w>": 9240,
      "각종</w>": 9241,
      "와의</w>": 9242,
      "갖고</w>": 9243,
      "부탁": 9244,
      "결혼": 9245,
      "차를</w>": 9246,
      "개인정보</w>": 9247,
      "예술": 9248,
      "자로</w>": 9249,
      "동시에</w>": 9250,
      "부담": 9251,
      "해질</w>": 9252,
      "가치": 9253,
      "자주</w>": 9254,
      "보세요</w>": 9255,
      "확실": 9256,
      "보인다</w>": 9257,
      "컴퓨터": 9258,
      "롭게</w>": 9259,
      "선택</w>": 9260,
      "컴퓨터</w>": 9261,
      "에요</w>": 9262,
      "광고</w>": 9263,
      "번호": 9264,
      "가족</w>": 9265,
      "LE": 9266,
      "ay": 9267,
      "전자</w>": 9268,
      "교회</w>": 9269,
      "블로그": 9270,
      "마음을</w>": 9271,
      "여러분": 9272,
      "다운로드</w>": 9273,
      "대를</w>": 9274,
      "증가": 9275,
      "장에</w>": 9276,
      "관을</w>": 9277,
      "주민": 9278,
      "주로</w>": 9279,
      "se": 9280,
      "이메일</w>": 9281,
      "은데</w>": 9282,
      "포르노</w>": 9283,
      "션을</w>": 9284,
      ".(</w>": 9285,
      "거리": 9286,
      "에게는</w>": 9287,
      "보험</w>": 9288,
      "스페": 9289,
      "봅니다</w>": 9290,
      "가기</w>": 9291,
      "화면": 9292,
      "엄마": 9293,
      "안녕": 9294,
      "조금": 9295,
      "있었습니다</w>": 9296,
      "대한민국</w>": 9297,
      "por": 9298,
      "페이지": 9299,
      "문제를</w>": 9300,
      "기준</w>": 9301,
      "http</w>": 9302,
      "배송": 9303,
      "21": 9304,
      "진짜</w>": 9305,
      "pl": 9306,
      "요소</w>": 9307,
      "co</w>": 9308,
      "대회</w>": 9309,
      "12월</w>": 9310,
      "이드</w>": 9311,
      "학생</w>": 9312,
      "실행": 9313,
      "아닌": 9314,
      "예상": 9315,
      "하시면</w>": 9316,
      "수록</w>": 9317,
      "ing": 9318,
      "ma": 9319,
      "움직": 9320,
      "했을</w>": 9321,
      "환경</w>": 9322,
      "de</w>": 9323,
      "살펴": 9324,
      "트는</w>": 9325,
      "스티": 9326,
      "하우": 9327,
      "정부</w>": 9328,
      "전략": 9329,
      "스피": 9330,
      "친구</w>": 9331,
      "ind": 9332,
      "아시아</w>": 9333,
      "일부터</w>": 9334,
      "축구": 9335,
      "없었다</w>": 9336,
      "단지</w>": 9337,
      "양이</w>": 9338,
      "이유는</w>": 9339,
      "16</w>": 9340,
      "요즘</w>": 9341,
      "교보": 9342,
      "방송</w>": 9343,
      "res": 9344,
      "방법을</w>": 9345,
      "US": 9346,
      "클릭": 9347,
      "구입": 9348,
      "부산": 9349,
      "명한</w>": 9350,
      "하다고</w>": 9351,
      "대의</w>": 9352,
      "무슨</w>": 9353,
      "보증": 9354,
      "하던</w>": 9355,
      "도는</w>": 9356,
      "경우가</w>": 9357,
      "이유</w>": 9358,
      "필요가</w>": 9359,
      "위해서</w>": 9360,
      "직원": 9361,
      "와서</w>": 9362,
      "아닙": 9363,
      "제외": 9364,
      "남자</w>": 9365,
      "아는</w>": 9366,
      "오전</w>": 9367,
      "웨어</w>": 9368,
      "만들기</w>": 9369,
      "올림": 9370,
      "활동</w>": 9371,
      "에이전": 9372,
      "설치</w>": 9373,
      "25</w>": 9374,
      "4월</w>": 9375,
      "시아</w>": 9376,
      "전문</w>": 9377,
      "29": 9378,
      "놓고</w>": 9379,
      "하기도</w>": 9380,
      "후기</w>": 9381,
      "변경</w>": 9382,
      "소셜그래프": 9383,
      "났다</w>": 9384,
      "드로": 9385,
      "특별한</w>": 9386,
      "함을</w>": 9387,
      "의해서</w>": 9388,
      "이라면</w>": 9389,
      "장소": 9390,
      "단순": 9391,
      "영어": 9392,
      "체험": 9393,
      "조사": 9394,
      "어나": 9395,
      "의한</w>": 9396,
      "드라이": 9397,
      "머리</w>": 9398,
      "포함</w>": 9399,
      "속에서</w>": 9400,
      "하나의</w>": 9401,
      "토토</w>": 9402,
      ".[</w>": 9403,
      "점에서</w>": 9404,
      "상이</w>": 9405,
      "생활</w>": 9406,
      "먹을</w>": 9407,
      "이면</w>": 9408,
      "예수": 9409,
      "amster</w>": 9410,
      "따르면</w>": 9411,
      "개선": 9412,
      "TV": 9413,
      "개념": 9414,
      "월드": 9415,
      "집중": 9416,
      "휴대": 9417,
      "만이</w>": 9418,
      "들입니다</w>": 9419,
      "소개</w>": 9420,
      "아침</w>": 9421,
      "편집</w>": 9422,
      "서의</w>": 9423,
      "원에</w>": 9424,
      "아직": 9425,
      "통한</w>": 9426,
      "청소년": 9427,
      "있던</w>": 9428,
      "는데요</w>": 9429,
      "05</w>": 9430,
      "확인할</w>": 9431,
      "스에</w>": 9432,
      "참가": 9433,
      "밀리": 9434,
      "시즌": 9435,
      "객실</w>": 9436,
      "아동": 9437,
      "나무": 9438,
      "답변": 9439,
      "뮤니": 9440,
      "사례": 9441,
      "오히": 9442,
      "구매한</w>": 9443,
      "제공하는</w>": 9444,
      "신청</w>": 9445,
      "심히</w>": 9446,
      "재생": 9447,
      "당신의</w>": 9448,
      "침해</w>": 9449,
      "그룹": 9450,
      "법적인</w>": 9451,
      "ion": 9452,
      "',</w>": 9453,
      "배우</w>": 9454,
      "오히려</w>": 9455,
      "1월</w>": 9456,
      "남자": 9457,
      "oc": 9458,
      "위의</w>": 9459,
      "정의": 9460,
      "트리": 9461,
      "나와</w>": 9462,
      "커뮤니": 9463,
      "레스토": 9464,
      "말이</w>": 9465,
      "인생": 9466,
      "임을</w>": 9467,
      "하나님의</w>": 9468,
      "신용": 9469,
      "교보문": 9470,
      "엉덩이</w>": 9471,
      "리뷰</w>": 9472,
      "나누": 9473,
      "종합": 9474,
      "코드</w>": 9475,
      "있으면</w>": 9476,
      "활성": 9477,
      "부동": 9478,
      "언론": 9479,
      "구매</w>": 9480,
      "위로</w>": 9481,
      "종류": 9482,
      "접근": 9483,
      "빠른</w>": 9484,
      "르고</w>": 9485,
      "정에</w>": 9486,
      "ER": 9487,
      "안녕하세요</w>": 9488,
      "등은</w>": 9489,
      "사람을</w>": 9490,
      "Sh": 9491,
      "좋습니다</w>": 9492,
      "주변": 9493,
      "눈에</w>": 9494,
      "잘못": 9495,
      "이전</w>": 9496,
      "진행</w>": 9497,
      "먹고</w>": 9498,
      "자격": 9499,
      "인공": 9500,
      "이미지</w>": 9501,
      "괜찮": 9502,
      "시작</w>": 9503,
      "말로</w>": 9504,
      "조선": 9505,
      "그가</w>": 9506,
      "사람의</w>": 9507,
      "도서": 9508,
      "교통": 9509,
      "한편</w>": 9510,
      "안을</w>": 9511,
      "정리": 9512,
      "돈을</w>": 9513,
      "년간</w>": 9514,
      "][</w>": 9515,
      "해주시면</w>": 9516,
      "ak": 9517,
      "량을</w>": 9518,
      "?)</w>": 9519,
      "은행": 9520,
      "들고</w>": 9521,
      "op": 9522,
      "화이": 9523,
      "정은</w>": 9524,
      "조사</w>": 9525,
      "곳에서</w>": 9526,
      "아닙니다</w>": 9527,
      "31</w>": 9528,
      "언제나</w>": 9529,
      "카테": 9530,
      "담당": 9531,
      "포트</w>": 9532,
      "3월</w>": 9533,
      "전달": 9534,
      "캐릭": 9535,
      "당연": 9536,
      "이지</w>": 9537,
      "학과</w>": 9538,
      "부는</w>": 9539,
      "주장": 9540,
      "30</w>": 9541,
      "관계</w>": 9542,
      "준다</w>": 9543,
      "고에서</w>": 9544,
      "받아</w>": 9545,
      "린다</w>": 9546,
      "위치</w>": 9547,
      "객실": 9548,
      "하였습니다</w>": 9549,
      "Hamster</w>": 9550,
      "브랜드</w>": 9551,
      "대부분</w>": 9552,
      "ar</w>": 9553,
      "어진</w>": 9554,
      "sh": 9555,
      "규모": 9556,
      "소녀</w>": 9557,
      "킬로": 9558,
      "위원회</w>": 9559,
      "공식</w>": 9560,
      "만약</w>": 9561,
      "페이스": 9562,
      "학교정보": 9563,
      "비를</w>": 9564,
      "그들은</w>": 9565,
      "개를</w>": 9566,
      "없을</w>": 9567,
      "기존</w>": 9568,
      "하니</w>": 9569,
      "제공합니다</w>": 9570,
      "희망": 9571,
      "빨리</w>": 9572,
      "17</w>": 9573,
      "대상</w>": 9574,
      "안정": 9575,
      "앞에</w>": 9576,
      "하겠": 9577,
      "진실": 9578,
      "트의</w>": 9579,
      "ver": 9580,
      "제시": 9581,
      "카테고": 9582,
      "사례</w>": 9583,
      "이와</w>": 9584,
      "법적</w>": 9585,
      "어려운</w>": 9586,
      "01</w>": 9587,
      "디스": 9588,
      "고등": 9589,
      "제재가</w>": 9590,
      "하자</w>": 9591,
      "중인</w>": 9592,
      "미리</w>": 9593,
      "선거": 9594,
      "기반": 9595,
      "10월</w>": 9596,
      "식이</w>": 9597,
      "건축": 9598,
      "가입</w>": 9599,
      "맞는</w>": 9600,
      "훼손</w>": 9601,
      "구를</w>": 9602,
      "성의</w>": 9603,
      "엄마</w>": 9604,
      "가르": 9605,
      "con": 9606,
      "젊은</w>": 9607,
      "섹시": 9608,
      "계속": 9609,
      "아마추어</w>": 9610,
      "업을</w>": 9611,
      "스스로</w>": 9612,
      "ce</w>": 9613,
      "대통령</w>": 9614,
      "5월</w>": 9615,
      "공개</w>": 9616,
      "산업</w>": 9617,
      "달라": 9618,
      "인한</w>": 9619,
      "좋아하는</w>": 9620,
      "하라</w>": 9621,
      "위해서는</w>": 9622,
      "과는</w>": 9623,
      "이날</w>": 9624,
      "자에</w>": 9625,
      "든지</w>": 9626,
      "일로</w>": 9627,
      "KB": 9628,
      "사랑</w>": 9629,
      "등장": 9630,
      "않다</w>": 9631,
      "70": 9632,
      "해외</w>": 9633,
      "자들의</w>": 9634,
      "에이전트": 9635,
      "통합": 9636,
      "배송</w>": 9637,
      "충분히</w>": 9638,
      "문제는</w>": 9639,
      "려면</w>": 9640,
      "식으로</w>": 9641,
      "저작권을</w>": 9642,
      "it</w>": 9643,
      "예를</w>": 9644,
      "6월</w>": 9645,
      "열심히</w>": 9646,
      "ew": 9647,
      "갔다</w>": 9648,
      "이론": 9649,
      "요소": 9650,
      "미터</w>": 9651,
      "우선</w>": 9652,
      "스러운</w>": 9653,
      "만을</w>": 9654,
      "실시": 9655,
      "넘어": 9656,
      "역할을</w>": 9657,
      "가슴": 9658,
      "전통": 9659,
      "콘텐츠": 9660,
      "7월</w>": 9661,
      "수영": 9662,
      "더라": 9663,
      "아의</w>": 9664,
      "파이": 9665,
      "계획</w>": 9666,
      "ic</w>": 9667,
      "자들은</w>": 9668,
      "그리스": 9669,
      "하고자</w>": 9670,
      "저작물을</w>": 9671,
      "어떠": 9672,
      "서핑": 9673,
      "일까지</w>": 9674,
      "찾기</w>": 9675,
      "있는지</w>": 9676,
      "스타</w>": 9677,
      "시대</w>": 9678,
      "판매</w>": 9679,
      "되기</w>": 9680,
      "게이": 9681,
      "처리</w>": 9682,
      "비롯": 9683,
      "버전": 9684,
      "시행": 9685,
      "소프트가</w>": 9686,
      "ity</w>": 9687,
      "공연": 9688,
      "열린</w>": 9689,
      "사용자</w>": 9690,
      "ra": 9691,
      "있으니</w>": 9692,
      "여전히</w>": 9693,
      "전략</w>": 9694,
      "프라": 9695,
      "불법적으로</w>": 9696,
      "9월</w>": 9697,
      "클래": 9698,
      "당신이</w>": 9699,
      "사진을</w>": 9700,
      "도시</w>": 9701,
      "줍니다</w>": 9702,
      "계를</w>": 9703,
      "목록</w>": 9704,
      "브라우": 9705,
      "후보": 9706,
      "이게</w>": 9707,
      "간에</w>": 9708,
      "나오는</w>": 9709,
      "대중": 9710,
      "유럽": 9711,
      "11월</w>": 9712,
      "여기서</w>": 9713,
      "없었": 9714,
      "플라": 9715,
      "위키": 9716,
      "가해질</w>": 9717,
      "pro": 9718,
      "500": 9719,
      "교보문고에서</w>": 9720,
      "하기": 9721,
      "8월</w>": 9722,
      "스테": 9723,
      "2017년</w>": 9724,
      "로를</w>": 9725,
      "for": 9726,
      "IN": 9727,
      "계산": 9728,
      "움을</w>": 9729,
      "06</w>": 9730,
      "제3": 9731,
      "저렴": 9732,
      "전시": 9733,
      "수집된</w>": 9734,
      "조건</w>": 9735,
      "19</w>": 9736,
      "이용시에는</w>": 9737,
      "등으로</w>": 9738,
      "심리": 9739,
      "활동을</w>": 9740,
      "저희": 9741,
      "가면</w>": 9742,
      "평가</w>": 9743,
      "것처럼</w>": 9744,
      "명예훼손</w>": 9745,
      "문서검색</w>": 9746,
      "중심으로</w>": 9747,
      "에이전트소프트가</w>": 9748,
      "부의</w>": 9749,
      "캠퍼": 9750,
      "추진": 9751,
      "훨씬</w>": 9752,
      "가정": 9753,
      "병원</w>": 9754,
      "공급": 9755,
      "전기": 9756,
      "메뉴": 9757,
      "일정</w>": 9758,
      "부가</w>": 9759,
      "ob": 9760,
      "좋다</w>": 9761,
      "hd</w>": 9762,
      "나지</w>": 9763,
      "최고</w>": 9764,
      "촬영": 9765,
      "이후": 9766,
      "운동</w>": 9767,
      "그들의</w>": 9768,
      "시키는</w>": 9769,
      "침에</w>": 9770,
      "ice</w>": 9771,
      "블랙</w>": 9772,
      "사라": 9773,
      "by</w>": 9774,
      "내의</w>": 9775,
      "IS": 9776,
      "처리해</w>": 9777,
      "수와</w>": 9778,
      "뛰어": 9779,
      "비가</w>": 9780,
      "못하고</w>": 9781,
      "받으": 9782,
      "특징": 9783,
      "적절": 9784,
      "이라도</w>": 9785,
      "거리에</w>": 9786,
      "노래": 9787,
      "으로서</w>": 9788,
      "보장": 9789,
      "08</w>": 9790,
      "하려면</w>": 9791,
      "기념": 9792,
      "ang": 9793,
      "제출": 9794,
      "원에서</w>": 9795,
      "24</w>": 9796,
      "프로젝트</w>": 9797,
      "다르": 9798,
      "것과</w>": 9799,
      "나온</w>": 9800,
      "금액": 9801,
      "온라인": 9802,
      "선수</w>": 9803,
      "받았": 9804,
      "보호</w>": 9805,
      "9년</w>": 9806,
      "업체</w>": 9807,
      "내고</w>": 9808,
      "반응": 9809,
      "있었던</w>": 9810,
      "힘들": 9811,
      "마사": 9812,
      "는게</w>": 9813,
      "기존": 9814,
      "사항은</w>": 9815,
      "고는</w>": 9816,
      "나도</w>": 9817,
      "erv": 9818,
      "역사</w>": 9819,
      "감이</w>": 9820,
      "는가</w>": 9821,
      "대신</w>": 9822,
      "업데이트</w>": 9823,
      "이동</w>": 9824,
      "1위</w>": 9825,
      "에어": 9826,
      "출시": 9827,
      "지정": 9828,
      "사고</w>": 9829,
      "가가</w>": 9830,
      "사와</w>": 9831,
      "고도</w>": 9832,
      "도착": 9833,
      "qu": 9834,
      "이것은</w>": 9835,
      "자료들은</w>": 9836,
      "하다는</w>": 9837,
      "완료</w>": 9838,
      "편집": 9839,
      "근거": 9840,
      "기와</w>": 9841,
      "화가</w>": 9842,
      "아니면</w>": 9843,
      "물의</w>": 9844,
      "글로벌</w>": 9845,
      "면서도</w>": 9846,
      "인기</w>": 9847,
      "ff": 9848,
      "그럼</w>": 9849,
      "쓰는</w>": 9850,
      "발견시</w>": 9851,
      "주차": 9852,
      "마련되어</w>": 9853,
      "등록</w>": 9854,
      "뉴스": 9855,
      "기획": 9856,
      "인과</w>": 9857,
      "윈도": 9858,
      "따뜻": 9859,
      "저작권침해</w>": 9860,
      "법을</w>": 9861,
      "애플": 9862,
      "세트</w>": 9863,
      "서핑에</w>": 9864,
      "자동차": 9865,
      "소리": 9866,
      "완벽": 9867,
      "심을</w>": 9868,
      "자료들입니다</w>": 9869,
      "너무": 9870,
      "미디어</w>": 9871,
      "통해서</w>": 9872,
      "신고해주시면</w>": 9873,
      "분쟁요소</w>": 9874,
      "언어": 9875,
      "결제": 9876,
      "age</w>": 9877,
      "도에</w>": 9878,
      "사실을</w>": 9879,
      "하늘": 9880,
      "50</w>": 9881,
      "플랫": 9882,
      "사용하여</w>": 9883,
      "에만</w>": 9884,
      "2017</w>": 9885,
      "신뢰": 9886,
      "마지막": 9887,
      "자전": 9888,
      "분에</w>": 9889,
      "대가</w>": 9890,
      "설정</w>": 9891,
      "스코": 9892,
      "있어야</w>": 9893,
      "마을": 9894,
      "지로</w>": 9895,
      "이전": 9896,
      "편안": 9897,
      "모니": 9898,
      "브라": 9899,
      "id": 9900,
      "사정</w>": 9901,
      "와이": 9902,
      "마찬": 9903,
      "공무": 9904,
      "결과를</w>": 9905,
      "주시기</w>": 9906,
      "그것을</w>": 9907,
      "이하": 9908,
      "비교</w>": 9909,
      "제도</w>": 9910,
      "누가</w>": 9911,
      "36": 9912,
      "씨는</w>": 9913,
      "많다</w>": 9914,
      "효율": 9915,
      "us</w>": 9916,
      "서버": 9917,
      "경을</w>": 9918,
      "북한</w>": 9919,
      "혼자</w>": 9920,
      "싶다</w>": 9921,
      "물에</w>": 9922,
      "이자</w>": 9923,
      "멋진</w>": 9924,
      "더니</w>": 9925,
      "설명</w>": 9926,
      "없어</w>": 9927,
      "로그인</w>": 9928,
      "미디어": 9929,
      "메모": 9930,
      "전쟁": 9931,
      "SN": 9932,
      "02</w>": 9933,
      "상업": 9934,
      "기타": 9935,
      "른다</w>": 9936,
      "이죠</w>": 9937,
      "주택": 9938,
      "인증": 9939,
      "대에</w>": 9940,
      "다리": 9941,
      "식사</w>": 9942,
      "자리</w>": 9943,
      "iz": 9944,
      "기독": 9945,
      "듯이</w>": 9946,
      "주간</w>": 9947,
      "직원</w>": 9948,
      "보고서</w>": 9949,
      "않으면</w>": 9950,
      "부스타빗": 9951,
      "1개</w>": 9952,
      "스타일</w>": 9953,
      "공공": 9954,
      "eb": 9955,
      "못하는</w>": 9956,
      "실험": 9957,
      "오르": 9958,
      "싶습니다</w>": 9959,
      "2016년</w>": 9960,
      "년도</w>": 9961,
      "회사는</w>": 9962,
      "강조": 9963,
      "부에</w>": 9964,
      "포인트</w>": 9965,
      "나서</w>": 9966,
      "콘텐츠</w>": 9967,
      "07</w>": 9968,
      "수정": 9969,
      "ed": 9970,
      "기관</w>": 9971,
      "스트레": 9972,
      "본다</w>": 9973,
      "청소년</w>": 9974,
      "느껴": 9975,
      "함께": 9976,
      "고객</w>": 9977,
      "점에</w>": 9978,
      "버튼": 9979,
      "적을</w>": 9980,
      "타고</w>": 9981,
      "회는</w>": 9982,
      "적이고</w>": 9983,
      "빠르게</w>": 9984,
      "하려고</w>": 9985,
      "적은</w>": 9986,
      "해주세요</w>": 9987,
      "로의</w>": 9988,
      "가의</w>": 9989,
      "영역": 9990,
      "?\"</w>": 9991,
      "다가": 9992,
      "밀리미터": 9993,
      "ES": 9994,
      "이하</w>": 9995,
      "사람들</w>": 9996,
      "회장</w>": 9997,
      "성은</w>": 9998,
      "ine</w>": 9999,
      "삶을</w>": 10000,
      "으로부터</w>": 10001,
      "대출": 10002,
      "만들</w>": 10003,
      "집니다</w>": 10004,
      "않아</w>": 10005,
      "21</w>": 10006,
      "indow": 10007,
      "지하": 10008,
      "먹는</w>": 10009,
      "하시기</w>": 10010,
      "최근": 10011,
      "up": 10012,
      "디지털</w>": 10013,
      "분들이</w>": 10014,
      "마음에</w>": 10015,
      "장난": 10016,
      "실패": 10017,
      "바로": 10018,
      "요금": 10019,
      "안내": 10020,
      "리그": 10021,
      "번역": 10022,
      "비해</w>": 10023,
      "태양": 10024,
      "문재": 10025,
      "AS": 10026,
      "보통</w>": 10027,
      "우는</w>": 10028,
      "모양": 10029,
      "여름": 10030,
      "우수": 10031,
      "조합": 10032,
      "냈다</w>": 10033,
      "되어야</w>": 10034,
      "집에</w>": 10035,
      "오래</w>": 10036,
      "전망": 10037,
      "트에</w>": 10038,
      "지금은</w>": 10039,
      "비즈니스</w>": 10040,
      "IC": 10041,
      "개최": 10042,
      "카드": 10043,
      "의사": 10044,
      "라이브": 10045,
      "입장": 10046,
      "미술": 10047,
      "이탈": 10048,
      "32</w>": 10049,
      "시청": 10050,
      "관심을</w>": 10051,
      "기초": 10052,
      "더군요</w>": 10053,
      "언급": 10054,
      "은행</w>": 10055,
      "MB": 10056,
      "시간에</w>": 10057,
      "수많은</w>": 10058,
      "인식": 10059,
      "교수</w>": 10060,
      "당한</w>": 10061,
      "당신은</w>": 10062,
      "음식</w>": 10063,
      "각각</w>": 10064,
      "크를</w>": 10065,
      "씨가</w>": 10066,
      "올리": 10067,
      "최적": 10068,
      "작용": 10069,
      "스탠": 10070,
      "ate</w>": 10071,
      "제품을</w>": 10072,
      "동의": 10073,
      "하기를</w>": 10074,
      "하여야</w>": 10075,
      "제일</w>": 10076,
      "토론": 10077,
      "없다는</w>": 10078,
      "전화</w>": 10079,
      "브랜드": 10080,
      "어린이": 10081,
      "지구": 10082,
      "한국의</w>": 10083,
      "말고</w>": 10084,
      "구하고</w>": 10085,
      "나고</w>": 10086,
      "음악</w>": 10087,
      "and": 10088,
      "파일을</w>": 10089,
      "프로그램을</w>": 10090,
      "능력": 10091,
      "사회복지": 10092,
      "도움을</w>": 10093,
      "구성</w>": 10094,
      "훌륭": 10095,
      "초등": 10096,
      "단계</w>": 10097,
      "최소": 10098,
      "생명": 10099,
      "쉬운</w>": 10100,
      "있음</w>": 10101,
      "커피": 10102,
      "지난해</w>": 10103,
      "건설": 10104,
      "??</w>": 10105,
      "기고</w>": 10106,
      "지켜": 10107,
      "대해서는</w>": 10108,
      "강화": 10109,
      "Pro": 10110,
      "사회적</w>": 10111,
      "2월</w>": 10112,
      "스위": 10113,
      "사까": 10114,
      "구체": 10115,
      "나가": 10116,
      "신문</w>": 10117,
      "질을</w>": 10118,
      "IT": 10119,
      "미니": 10120,
      "여기에</w>": 10121,
      "가까운</w>": 10122,
      "od": 10123,
      "표시</w>": 10124,
      "스와</w>": 10125,
      "시험</w>": 10126,
      "장기": 10127,
      "목을</w>": 10128,
      "놀이": 10129,
      "오버": 10130,
      "플레이</w>": 10131,
      "이기도</w>": 10132,
      "찾을</w>": 10133,
      "cm</w>": 10134,
      "바꾸": 10135,
      "훈련": 10136,
      "198": 10137,
      "시리즈</w>": 10138,
      "OS": 10139,
      "마음이</w>": 10140,
      "책임을</w>": 10141,
      "자원": 10142,
      "부터는</w>": 10143,
      "둘러": 10144,
      "었는데</w>": 10145,
      "인천": 10146,
      "산을</w>": 10147,
      "아기</w>": 10148,
      "자지</w>": 10149,
      "제작</w>": 10150,
      "생각합니다</w>": 10151,
      "이름을</w>": 10152,
      "이었습니다</w>": 10153,
      "달러</w>": 10154,
      "이건</w>": 10155,
      "ep": 10156,
      "무료로</w>": 10157,
      "국가</w>": 10158,
      "as</w>": 10159,
      "컨텐": 10160,
      "아야</w>": 10161,
      "아이</w>": 10162,
      "했다는</w>": 10163,
      "달리</w>": 10164,
      "중에서</w>": 10165,
      "오래": 10166,
      "of": 10167,
      "참석": 10168,
      "작업을</w>": 10169,
      "네트워크</w>": 10170,
      "ad</w>": 10171,
      "AP": 10172,
      "생각</w>": 10173,
      "Window": 10174,
      "있나요</w>": 10175,
      "SK": 10176,
      "온다</w>": 10177,
      "아니고</w>": 10178,
      "자신을</w>": 10179,
      "(?)</w>": 10180,
      "Ap": 10181,
      "나아": 10182,
      "AR": 10183,
      "버스</w>": 10184,
      "지식": 10185,
      "지금까지</w>": 10186,
      "업무</w>": 10187,
      "예요</w>": 10188,
      "편의</w>": 10189,
      "완전": 10190,
      "22</w>": 10191,
      "지니": 10192,
      "과정을</w>": 10193,
      "박물": 10194,
      "주셔서</w>": 10195,
      "자리를</w>": 10196,
      "도전": 10197,
      "데이터를</w>": 10198,
      "이용할</w>": 10199,
      "하드": 10200,
      "국제</w>": 10201,
      "Vi": 10202,
      "평화": 10203,
      "트럼": 10204,
      "함으로써</w>": 10205,
      "대는</w>": 10206,
      "더불": 10207,
      "해피": 10208,
      "발표</w>": 10209,
      "제의</w>": 10210,
      "마찬가지": 10211,
      "기자": 10212,
      "과정에서</w>": 10213,
      "파악": 10214,
      "질문</w>": 10215,
      "상담</w>": 10216,
      "tr": 10217,
      "미국의</w>": 10218,
      "여행을</w>": 10219,
      "il</w>": 10220,
      "인사": 10221,
      "힘을</w>": 10222,
      "어떠한</w>": 10223,
      "선정": 10224,
      "IT</w>": 10225,
      "행사</w>": 10226,
      "설계": 10227,
      "분을</w>": 10228,
      "겨울": 10229,
      "저희</w>": 10230,
      "그녀의</w>": 10231,
      "Pl": 10232,
      "받지</w>": 10233,
      "그것이</w>": 10234,
      "아도</w>": 10235,
      "파트": 10236,
      "보유": 10237,
      "현황</w>": 10238,
      "최저": 10239,
      "마치</w>": 10240,
      "그게</w>": 10241,
      "차이": 10242,
      "기도": 10243,
      "간호": 10244,
      "아니</w>": 10245,
      "xHamster</w>": 10246,
      "일까</w>": 10247,
      "독일</w>": 10248,
      "내용의</w>": 10249,
      "우리나라": 10250,
      "이스": 10251,
      "OS</w>": 10252,
      "디오": 10253,
      "기기</w>": 10254,
      "모집</w>": 10255,
      "영국</w>": 10256,
      "ew</w>": 10257,
      "체를</w>": 10258,
      "집에서</w>": 10259,
      "찾아</w>": 10260,
      "인터뷰</w>": 10261,
      "여기</w>": 10262,
      "갤러": 10263,
      "um</w>": 10264,
      "상에</w>": 10265,
      "for</w>": 10266,
      "수술": 10267,
      "디자인": 10268,
      "완전히</w>": 10269,
      "간다</w>": 10270,
      "블랙": 10271,
      "즐길</w>": 10272,
      "과연</w>": 10273,
      "화된</w>": 10274,
      "기록</w>": 10275,
      "교수": 10276,
      "체육": 10277,
      "지적": 10278,
      "레즈": 10279,
      "회담": 10280,
      "연합": 10281,
      "어가</w>": 10282,
      "작성</w>": 10283,
      "사항을</w>": 10284,
      "그림</w>": 10285,
      "sp": 10286,
      "치료</w>": 10287,
      "대상으로</w>": 10288,
      "측정": 10289,
      "감소": 10290,
      "있을까</w>": 10291,
      "보지</w>": 10292,
      "사까시</w>": 10293,
      "안에서</w>": 10294,
      "굉장": 10295,
      "입을</w>": 10296,
      "주소": 10297,
      "지와</w>": 10298,
      "유럽</w>": 10299,
      "거든": 10300,
      "Con": 10301,
      "것이라고</w>": 10302,
      "통하여</w>": 10303,
      "법의</w>": 10304,
      "보도": 10305,
      "차지": 10306,
      "공간</w>": 10307,
      "리케이": 10308,
      "Porn": 10309,
      "책임은</w>": 10310,
      "보건": 10311,
      "체의</w>": 10312,
      "왔습니다</w>": 10313,
      "노트": 10314,
      "관이</w>": 10315,
      "종교": 10316,
      "료를</w>": 10317,
      "리더": 10318,
      "가능성이</w>": 10319,
      "03</w>": 10320,
      "나무</w>": 10321,
      "강한</w>": 10322,
      "숙박</w>": 10323,
      "보유</w>": 10324,
      "영업": 10325,
      "대부분의</w>": 10326,
      "거든요</w>": 10327,
      "one</w>": 10328,
      "문학": 10329,
      "소재</w>": 10330,
      "아파트</w>": 10331,
      "TAG</w>": 10332,
      "혁신": 10333,
      "어린이</w>": 10334,
      "안드로": 10335,
      "최초": 10336,
      "Ad": 10337,
      "강력": 10338,
      "따로</w>": 10339,
      "분명": 10340,
      "인도": 10341,
      "전환": 10342,
      "였습니다</w>": 10343,
      "편리": 10344,
      "23</w>": 10345,
      "근데</w>": 10346,
      "제조": 10347,
      "보자</w>": 10348,
      "쪽으로</w>": 10349,
      "Tub": 10350,
      "tion</w>": 10351,
      "문학</w>": 10352,
      "하느": 10353,
      "부정": 10354,
      "년을</w>": 10355,
      "님은</w>": 10356,
      "건강</w>": 10357,
      "쓰고</w>": 10358,
      "성장</w>": 10359,
      "수익": 10360,
      "행사": 10361,
      "PC</w>": 10362,
      "플러스</w>": 10363,
      "받았다</w>": 10364,
      "시킬</w>": 10365,
      "점점</w>": 10366,
      "포트": 10367,
      "접속": 10368,
      "연속</w>": 10369,
      "할수</w>": 10370,
      "공항": 10371,
      "리뷰": 10372,
      "소유": 10373,
      "그동안</w>": 10374,
      "구축": 10375,
      "소득": 10376,
      "프랑스</w>": 10377,
      "레즈비": 10378,
      "누구나</w>": 10379,
      "변화가</w>": 10380,
      "2차</w>": 10381,
      "태그</w>": 10382,
      "AN": 10383,
      "깊은</w>": 10384,
      "시도": 10385,
      "새로</w>": 10386,
      "개가</w>": 10387,
      "소리</w>": 10388,
      "댓글을</w>": 10389,
      "때마다</w>": 10390,
      "놀라": 10391,
      "투어</w>": 10392,
      "카지노": 10393,
      "회에</w>": 10394,
      "제1": 10395,
      "지급": 10396,
      "개월": 10397,
      "지게</w>": 10398,
      "부산</w>": 10399,
      "비슷한</w>": 10400,
      "공항</w>": 10401,
      "기업의</w>": 10402,
      "세대</w>": 10403,
      "우승": 10404,
      "ia</w>": 10405,
      "물은</w>": 10406,
      "식품": 10407,
      "티브</w>": 10408,
      "단을</w>": 10409,
      "인지": 10410,
      "스테이": 10411,
      "사랑을</w>": 10412,
      "중한</w>": 10413,
      "답니다</w>": 10414,
      "년이</w>": 10415,
      "그러면</w>": 10416,
      "그래프</w>": 10417,
      "알게</w>": 10418,
      "파일": 10419,
      "해가</w>": 10420,
      "상당히</w>": 10421,
      "리조": 10422,
      "반영": 10423,
      "읽고</w>": 10424,
      "면을</w>": 10425,
      "원으로</w>": 10426,
      "04</w>": 10427,
      "카오": 10428,
      "발달": 10429,
      "보안</w>": 10430,
      "잠시</w>": 10431,
      "작업</w>": 10432,
      "뜨거운</w>": 10433,
      "듣고</w>": 10434,
[...]
