{
  "시장에서</w>": 13151,
  "쁄": 2141,
  "춯</w>": 5797,
  "수입</w>": 14379,
  "없어": 12466,
  "섺": 2250,
  "선배": 14631,
  "마지막": 9887,
  "모듈": 15334,
  "읁</w>": 7020,
  "인": 2992,
  "뮐": 1719,
  "자들</w>": 12638,
  "쟇</w>": 7803,
  "향한</w>": 14983,
  "쩧": 3339,
  "가리": 13082,
  "퀩</w>": 7740,
  "퐅": 4124,
  "쨈</w>": 5576,
  "형태": 8889,
  "비롯": 9683,
  "겸": 186,
  "련</w>": 4763,
  "서비스는</w>": 12308,
  "댠": 885,
  "읎</w>": 6880,
  "ext": 14362,
  "메뉴</w>": 12093,
  "형사": 14455,
  "ch</w>": 10518,
  "사이의</w>": 12321,
  "자기": 8926,
  "건조": 13277,
  "판매자에게</w>": 11400,
  "미니": 10120,
  "가지는</w>": 14097,
  "닑": 832,
  "팰</w>": 6462,
  "근</w>": 4823,
  "오프": 16369,
  "않았던</w>": 16115,
  "탈</w>": 4946,
  "여전히</w>": 9693,
  "뻰": 2075,
  "궕": 297,
  "US</w>": 15881,
  "튄</w>": 5872,
  "3개월</w>": 15287,
  "EP": 16009,
  "느끼고</w>": 16214,
  "뤠</w>": 7281,
  "저작자": 12186,
  "먼": 1578,
  "개의</w>": 8301,
  "세월": 11595,
  "개인정보": 8991,
  "읽고</w>": 10424,
  "뀔": 552,
  "10일</w>": 11787,
  "딛</w>": 6990,
  "깐": 387,
  "뿍</w>": 5950,
  "감사드립니다</w>": 12271,
  "명으로</w>": 12211,
  "뤃</w>": 7200,
  "섁</w>": 6981,
  "땡</w>": 5167,
  "부터": 9156,
  "메인</w>": 11801,
  "썯": 2494,
  "이죠</w>": 9937,
  "기존</w>": 9568,
  "톨</w>": 5676,
  "혛": 4316,
  "주시": 10672,
  "덜": 902,
  "아": 2631,
  "보증": 9354,
  "봌</w>": 7024,
  "깓</w>": 7735,
  "뽄": 2097,
  "민의</w>": 16040,
  "11": 8049,
  "지만": 12150,
  "이내에</w>": 11302,
  "이라</w>": 8335,
  "CD</w>": 11467,
  "흽": 4462,
  "봇</w>": 4770,
  "픗": 4190,
  "검사": 12593,
  "압축": 15688,
  "리지</w>": 9154,
  "섰": 2240,
  "운용": 14660,
  "진화": 14149,
  "멈추": 15008,
  "득": 1045,
  "샜</w>": 7594,
  "피를</w>": 14545,
  "29일</w>": 14182,
  "봘": 1905,
  "쓉": 2584,
  "테크</w>": 14298,
  "뻿": 2077,
  "니가</w>": 12901,
  "때문": 7892,
  "솔직히</w>": 12983,
  "챔피언": 11804,
  "성능</w>": 12734,
  "기회": 12722,
  "오버": 10130,
  "몹": 1648,
  "헌법": 16110,
  "의학": 14733,
  "폮": 4116,
  "틂": 4000,
  "놑</w>": 7116,
  "왯</w>": 6759,
  "시간과</w>": 14372,
  "뢸": 1405,
  "생각도</w>": 15795,
  "동일조건변경허락</w>": 12542,
  "끅": 564,
  "떨": 1134,
  "각종</w>": 9241,
  "쑤</w>": 5887,
  "소를</w>": 8864,
  "멌": 1590,
  "좋았습니다</w>": 13489,
  "TA": 9093,
  "요즘": 11762,
  "예약": 8836,
  "레이": 7962,
  "웤": 2902,
  "규</w>": 4884,
  "쏟</w>": 7656,
  "냥": 643,
  "다": 845,
  "렬": 1358,
  "깽</w>": 6280,
  "방은</w>": 14011,
  "외부": 12427,
  "궜</w>": 6838,
  "제가</w>": 8078,
  "쬈": 3378,
  "쪼</w>": 5891,
  "보육": 13434,
  "꼭": 471,
  "옘</w>": 7227,
  "이어서</w>": 13031,
  "그리스": 9669,
  "잍": 3012,
  "힢": 4479,
  "죳": 3178,
  "초대": 13599,
  "조건변경": 12510,
  "LED": 16147,
  "모습이</w>": 11083,
  "누가</w>": 9911,
  "권의</w>": 11709,
  "기": 363,
  "이트</w>": 14275,
  "큼</w>": 4777,
  "아이콘": 15324,
  "쫫": 3373,
  "6": 19,
  "롤": 1380,
  "캵": 3686,
  "벆": 1824,
  "멩": 1606,
  "캣": 3676,
  "나이든": 12801,
  "퉬": 3974,
  "한다</w>": 7857,
  "속도를</w>": 15608,
  "굗": 259,
  "붆</w>": 7772,
  "드에</w>": 10842,
  "고자</w>": 10477,
  "스트리": 12857,
  "븝": 1993,
  "2011</w>": 15148,
  "녙</w>": 6630,
  "밀리미터를</w>": 14535,
  "삶이</w>": 16284,
  "왠": 2826,
  "먹": 1575,
  "데</w>": 4595,
  "허": 4269,
  "세탁</w>": 15787,
  "썯</w>": 7071,
  "츧": 3624,
  "중": 3196,
  "호텔에</w>": 14722,
  "제휴</w>": 16072,
  "콛": 3738,
  "얼마나</w>": 8822,
  "샌</w>": 5874,
  "쓀": 2583,
  "추가로</w>": 13511,
  "활성화</w>": 12775,
  "닣</w>": 7355,
  "눇</w>": 6371,
  "왑</w>": 5499,
  "민감": 14858,
  "빻": 2034,
  "군요</w>": 8718,
  "배려": 14613,
  "요금</w>": 11527,
  "섐": 2221,
  "힞": 4476,
  "뿝": 2127,
  "렙</w>": 5679,
  "몀": 1619,
  "그들을</w>": 13937,
  "원이</w>": 8747,
  "뮐</w>": 6604,
  "뗀</w>": 6441,
  "국민</w>": 12151,
  "주도": 12490,
  "벗어나": 15373,
  "튱": 3992,
  "나라": 8328,
  "뵠": 1927,
  "정보의</w>": 13300,
  "렉스</w>": 15729,
  "um</w>": 10264,
  "쭁": 3389,
  "숱</w>": 7095,
  "국이</w>": 12497,
  "콤": 3740,
  "덧</w>": 5262,
  "홨": 4352,
  "말씀": 8565,
  "믻</w>": 7547,
  "쿠": 3769,
  "하기에</w>": 12066,
  "남성</w>": 11300,
  "되면서</w>": 10605,
  "톰": 3932,
  "리치플러스</w>": 13961,
  "쒱": 2578,
  "감이</w>": 9820,
  "사전에</w>": 13186,
  "종료</w>": 13334,
  "2018</w>": 8835,
  "보수</w>": 14252,
  "좋았다</w>": 15646,
  "이번에는</w>": 13680,
  "저희는</w>": 15336,
  "얻": 2712,
  "명의</w>": 8467,
  "시상": 15854,
  "욲": 2861,
  "세포": 12019,
  "븨</w>": 6928,
  "친절": 10479,
  "욧</w>": 5464,
  "에겐</w>": 13984,
  "푱</w>": 6560,
  "시키": 8337,
  "ex": 9029,
  "지난해": 15748,
  "겐": 165,
  "씅</w>": 6523,
  "빝": 2018,
  "제5": 15978,
  "하나는</w>": 12105,
  "앗</w>": 4877,
  "눉": 761,
  "킅</w>": 7612,
  "섰</w>": 5491,
  "텉": 3898,
  "무기": 14390,
  "보이": 8541,
  "조리": 13825,
  "탭": 3872,
  "사항": 8334,
  "업무</w>": 10187,
  "RA</w>": 11767,
  "라이언": 11629,
  "창조": 10750,
  "보다</w>": 7954,
  "뢌": 1397,
  "이네요</w>": 13306,
  "쇼핑몰": 13793,
  "돚</w>": 5983,
  "입은</w>": 11989,
  "뻐</w>": 5745,
  "소년": 12562,
  "신뢰": 9886,
  "븡": 1995,
  "인간의</w>": 10807,
  "분양": 15860,
  "섢</w>": 7253,
  "뛴": 1219,
  "동을</w>": 14584,
  "떤": 1131,
  "처를</w>": 11920,
  "켣": 3725,
  "민": 1749,
  "력을</w>": 8174,
  "체": 3509,
  "장": 3032,
  "제안</w>": 13369,
  "쐴": 2550,
  "대선</w>": 16130,
  "스타일": 12351,
  "오늘": 8461,
  "탰": 3874,
  "낀</w>": 5229,
  "윈도": 9858,
  "긱</w>": 5868,
  "죶": 3180,
  "게시판": 11786,
  "끌": 569,
  "끼리</w>": 13739,
  "니아": 15870,
  "뿟": 2128,
  "정하는</w>": 15751,
  "인물</w>": 15043,
  "의미": 8312,
  "께": 444,
  "훰": 4408,
  "모바일</w>": 8814,
  "쇫": 2322,
  "웈</w>": 7688,
  "읹": 2993,
  "샤워</w>": 14692,
  "영원히</w>": 15987,
  "언제": 8636,
  "엄청</w>": 13176,
  "쓕</w>": 6272,
  "뺑</w>": 6202,
  "하고자</w>": 9670,
  "얃</w>": 7820,
  "뱶": 1820,
  "약관을</w>": 11819,
  "속도가</w>": 15628,
  "려고</w>": 8906,
  "탐": 3854,
  "깞</w>": 6298,
  "타입</w>": 15485,
  "인은</w>": 9016,
  "앍": 2639,
  "없다는</w>": 10078,
  "상태</w>": 10980,
  "싩": 2435,
  "쬰</w>": 6935,
  "겟": 170,
  "킷": 3838,
  "혱": 4323,
  "ey": 14914,
  "셔야</w>": 10455,
  "냤": 642,
  "뵉</w>": 6191,
  "ory</w>": 10967,
  "거주": 12826,
  "페티쉬</w>": 15609,
  "ion": 9452,
  "진정한</w>": 11670,
  "헒": 4274,
  "폯": 4117,
  "떽": 1145,
  "계</w>": 4590,
  "뿐": 2122,
  "덨": 911,
  "곳": 217,
  "즐": 3241,
  "읎": 2968,
  "3D</w>": 11041,
  "줃": 3186,
  "ess": 11385,
  "밯": 1794,
  "몸에</w>": 12491,
  "중단": 12533,
  "뽓</w>": 6361,
  "즈는</w>": 15134,
  "수정": 9969,
  "귝": 328,
  "신청": 8487,
  "페이지부터는</w>": 13327,
  "하나요</w>": 12467,
  "분</w>": 4569,
  "피트니스</w>": 15641,
  "샇</w>": 7604,
  "0에</w>": 12546,
  "커플</w>": 13285,
  "at": 7927,
  "선택</w>": 9260,
  "뾃": 2111,
  "국민": 8395,
  "땝</w>": 7748,
  "쿨</w>": 5056,
  "fi": 13856,
  "름": 1482,
  ":</w>": 5753,
  "돌이</w>": 16035,
  "켬</w>": 6511,
  "현지": 10717,
  "잴": 3042,
  "조사": 9394,
  "지원하는</w>": 13747,
  "촥": 3546,
  "쐴</w>": 6486,
  "그를</w>": 10698,
  "특징</w>": 11539,
  "예정이다</w>": 11154,
  "스웨": 12356,
  "와는</w>": 10930,
  "광고": 8522,
  "읖": 2976,
  "아침에</w>": 13845,
  "츤</w>": 6343,
  "짞": 3280,
  "300": 10531,
  "아가": 11506,
  "핑크</w>": 13372,
  "걕</w>": 7462,
  "de": 8545,
  "가능</w>": 8600,
  "이미지</w>": 9501,
  "결론": 12496,
  "다음": 8102,
  "es": 8154,
  "에는</w>": 7866,
  "int</w>": 12590,
  "뵉": 1920,
  "넘어</w>": 13545,
  "켇": 3711,
  "끸</w>": 7840,
  "자에게</w>": 8380,
  "볠": 1878,
  "니까</w>": 8014,
  "숫": 2349,
  "콘텐": 8679,
  "구": 270,
  "이의</w>": 10569,
  "100": 8499,
  "최초": 10336,
  "넎": 653,
  "뾰</w>": 7500,
  "행동</w>": 13054,
  "릊</w>": 7729,
  "그리</w>": 11380,
  "고요</w>": 9076,
  "불": 1941,
  "군사": 12653,
  "진행</w>": 9497,
  "땧": 1116,
  "질환</w>": 13701,
  "처벌": 12811,
  "바르": 12089,
  "꿩</w>": 6166,
  "전력</w>": 16159,
  "(</w>": 5357,
  "싶어요</w>": 13271,
  "펩": 4090,
  "추가</w>": 8573,
  "얻</w>": 7087,
  "아이폰</w>": 10920,
  "송": 2297,
  "츋</w>": 7319,
  "곚": 205,
  "즐겨": 12823,
  "믱": 1744,
  "튭</w>": 7047,
  "누구나</w>": 10379,
  "왭": 2829,
  "츕</w>": 7103,
  "과연</w>": 10273,
  "돌려": 14263,
  "다를</w>": 11829,
  "칵</w>": 5513,
  "자녀": 10537,
  "실</w>": 4693,
  "씐": 2610,
  "헵</w>": 6955,
  "공개</w>": 9616,
  "훌</w>": 5365,
  "형성": 10919,
  "연장": 13882,
  "하이</w>": 12685,
  "괃": 229,
  "제품은</w>": 12334,
  "넋": 651,
  "일하는</w>": 14331,
  "2</w>": 4506,
  "맻": 1560,
  "롬</w>": 4752,
  "터치</w>": 16380,
  "녁</w>": 5220,
  "내게</w>": 11716,
  "랙": 1286,
  "대충</w>": 16029,
  "보드": 14849,
  "에서는</w>": 7955,
  "법령": 12117,
  "셩": 2275,
  "알고": 11474,
  "먄</w>": 5717,
  "뛰어": 9779,
  "계정을</w>": 15745,
  "옆에</w>": 12223,
  "go</w>": 16075,
  "윣</w>": 7583,
  "향": 4263,
  "쵠": 3557,
  "un</w>": 12193,
  "힞</w>": 7410,
  "랐다</w>": 10697,
  "것은</w>": 7906,
  "당은</w>": 13947,
  "삭제될</w>": 10651,
  "빨간": 15071,
  "엵": 2757,
  "멥</w>": 7094,
  "라스</w>": 12243,
  "태양</w>": 10973,
  "집행": 13197,
  "때마다</w>": 10390,
  "머물": 13518,
  "긎</w>": 7543,
  "K": 36,
  "여러분": 9272,
  "테이블</w>": 11630,
  "자동": 8131,
  "췰</w>": 5781,
  "자마자</w>": 14797,
  "들었다</w>": 11003,
  "아름다운</w>": 9104,
  "가지를</w>": 14687,
  "소의</w>": 11636,
  "잣</w>": 6086,
  "멤버": 11710,
  "뭎": 1700,
  "무언": 13827,
  "삭제</w>": 8497,
  "펲</w>": 7508,
  "뼛</w>": 6366,
  "팍": 4033,
  "호텔은</w>": 11769,
  "화를</w>": 8177,
  "소식을</w>": 13283,
  "낰": 615,
  "드라마</w>": 10644,
  "발언": 12743,
  "드리고</w>": 12436,
  "줭</w>": 4531,
  "몇": 1624,
  "딱</w>": 5101,
  "배우는</w>": 15214,
  "마무리": 14269,
  "흿": 4463,
  "리와</w>": 10730,
  "졘": 3127,
  "쟬</w>": 7126,
  "숮": 2351,
  "무단</w>": 11317,
  "팯": 4055,
  "뀕": 553,
  "땈</w>": 7185,
  "넌": 652,
  "녓": 704,
  "골프</w>": 11941,
  "데이터베이스</w>": 13403,
  "덤</w>": 5238,
  "렶": 1361,
  "가해질</w>": 9717,
  "눙</w>": 6583,
  "벎</w>": 6369,
  "일과</w>": 12744,
  "코트</w>": 15356,
  "end": 11617,
  "뱆": 1807,
  "IN</w>": 16209,
  "옏": 2778,
  "ip": 11633,
  "렷</w>": 5598,
  "ul": 9045,
  "건강한</w>": 13171,
  "깈": 380,
  "않는</w>": 8134,
  "fuc": 11756,
  "제도</w>": 9910,
  "맞지</w>": 14403,
  "흰": 4459,
  "불가</w>": 14220,
  "소속</w>": 13800,
  "맜": 1540,
  "뿐만</w>": 9015,
  "쉡": 2369,
  "은행": 9520,
  "3가지</w>": 14558,
  "있어": 11282,
  "넥</w>": 5008,
  "엾</w>": 5914,
  "슘</w>": 5255,
  "흭</w>": 6832,
  "팃": 4027,
  "1문의": 10879,
  "되며</w>": 9002,
  "리아": 8955,
  "볅": 1865,
  "짗": 3273,
  "옇": 2774,
  "생활</w>": 9406,
  "실패": 10017,
  "및": 1763,
  "뷰</w>": 5153,
  "예정</w>": 12226,
  "쯔": 3411,
  "LE</w>": 15126,
  "몲": 1644,
  "토록</w>": 16001,
  "FA</w>": 15376,
  "텡</w>": 5693,
  "율</w>": 4836,
  "봐야</w>": 10778,
  "le</w>": 8294,
  "ics</w>": 10900,
  "안이</w>": 12585,
  "햤": 4262,
  "껐": 439,
  "계시": 11958,
  "sk": 14251,
  "대표자</w>": 15437,
  "눤</w>": 6693,
  "부드러": 14483,
  "컹": 3704,
  "샐</w>": 6569,
  "좋지</w>": 11508,
  "사까": 10114,
  "포토": 12287,
  "엙": 2736,
  "솟</w>": 6305,
  "쒯": 2576,
  "노래": 9787,
  "보지</w>": 10292,
  "영원": 11606,
  "여성": 8437,
  "힣</w>": 7030,
  "선으로</w>": 16289,
  "싀</w>": 6581,
  "중인</w>": 9592,
  "쑈": 2554,
  "통한</w>": 9426,
  "늬": 820,
  "좁</w>": 6364,
  "저작권과</w>": 11520,
  "나서": 13120,
  "디스": 9588,
  "료</w>": 4975,
  "mm</w>": 10894,
  "u</w>": 4897,
  "상기</w>": 10735,
  "띌</w>": 6925,
  "뵞": 1926,
  "큁</w>": 7138,
  "NE": 10773,
  "헤드": 13815,
  "팔</w>": 5165,
  "는데</w>": 7870,
  "무슨</w>": 9353,
  "싀": 2417,
  "el": 8279,
  "튺": 3995,
  "ew</w>": 10257,
  "우리나라</w>": 10445,
  "같습니다</w>": 8422,
  "려면</w>": 9640,
  "하였고</w>": 12178,
  "완</w>": 4827,
  "줆</w>": 6235,
  "트렌": 11895,
  "CA": 12177,
  "CP": 11586,
  "펠": 4087,
  "금발</w>": 11736,
  "오른쪽</w>": 13832,
  "대부분": 9181,
  "알려": 8381,
  "쏚": 2525,
  "어디에</w>": 14990,
  "방사": 14482,
  "놈</w>": 5189,
  "공간을</w>": 13163,
  "벵": 1853,
  "욬": 2855,
  "여겨": 15746,
  "훴": 4410,
  "수의</w>": 9009,
  "생각이</w>": 9026,
  "브루</w>": 10713,
  "언론</w>": 14922,
  "얔</w>": 6638,
  "쉿</w>": 5522,
  "jpg</w>": 10972,
  "렫</w>": 7262,
  "윌</w>": 5634,
  "럈": 1309,
  "대전</w>": 10800,
  "로그</w>": 8403,
  "탓</w>": 5218,
  "뇔": 744,
  "럴</w>": 5355,
  "큗": 3807,
  "능": 813,
  "엌": 2726,
  "잧": 3034,
  ")": 8,
  "뱐</w>": 5626,
  "이뤄": 10890,
  "걋": 132,
  "운전</w>": 14943,
  "안보": 15487,
  "온라인": 9802,
  "프린": 10435,
  "털": 3890,
  "i</w>": 4620,
  "챤</w>": 5514,
  "겉</w>": 6313,
  "지속적으로</w>": 12544,
  "전화</w>": 10079,
  "굑": 257,
  "읫": 2984,
  "선을</w>": 8970,
  "졈</w>": 6402,
  "주셨": 12524,
  "댠</w>": 6567,
  "이번</w>": 8235,
  "도</w>": 4499,
  "컬러</w>": 10954,
  "부문</w>": 12712,
  "챡": 3477,
  "지불": 12146,
  "찱": 3447,
  "류": 1459,
  "텓</w>": 6658,
  "얹</w>": 6698,
  "양": 2689,
  "하시겠습니까</w>": 13219,
  "뤌</w>": 6477,
  "률": 1463,
  "에서의</w>": 8648,
  "위": 2918,
  "몃": 1620,
  "냉장고</w>": 14581,
  "쌴": 2479,
  "둠": 1012,
  "랜드": 11592,
  "센": 2252,
  "로우": 13905,
  "돃": 949,
  "졋": 3121,
  "Is": 16354,
  "참조": 11211,
  "볓": 1872,
  "숴": 2356,
  "해주는</w>": 10690,
  "남을</w>": 12872,
  "!!": 16136,
  "땅에</w>": 15683,
  "된다는</w>": 10485,
  "트</w>": 4609,
  "뮥</w>": 7021,
  "님을</w>": 10553,
  "붸": 1962,
  "씨의</w>": 11956,
  "브레이": 14069,
  "초에</w>": 13681,
  "탴</w>": 5451,
  "등급</w>": 13406,
  "납": 609,
  "릘</w>": 7522,
  "곱": 216,
  "커다란</w>": 15089,
  "교</w>": 4758,
  "..</w>": 7846,
  "구매한</w>": 9443,
  "떈</w>": 6139,
  "위</w>": 4672,
  "에너지": 13516,
  "for": 9726,
  "리얼</w>": 14446,
  "단을</w>": 10409,
  "SM": 10970,
  "롭고</w>": 15653,
  "소프트가</w>": 9686,
  "있기</w>": 8892,
  "눈</w>": 5374,
  "우승을</w>": 15139,
  "감사": 8056,
  "중개": 15068,
  "앋": 2637,
  "뭩": 1712,
  "직장</w>": 15955,
  "기록을</w>": 12363,
  "냥</w>": 5160,
  "돎": 956,
  "속의</w>": 11731,
  "챤": 3478,
  "www</w>": 9231,
  "즥": 3249,
  "페이지</w>": 7897,
  "텓": 3904,
  "똠": 1176,
  "ian</w>": 15247,
  "뺀</w>": 6380,
  "금은</w>": 13143,
  "디오": 10253,
  "크리스마": 12010,
  "녅</w>": 6777,
  "숑": 2335,
  "깩": 403,
  "캑": 3668,
  "친절한</w>": 16111,
  "살아</w>": 13955,
  "쎈": 2506,
  "컄": 3689,
  "쯪": 3419,
  "쑵": 2565,
  "싴": 2446,
  "궁</w>": 5313,
  "있는지</w>": 9676,
  "뚓": 1193,
  "후반": 15600,
  "자리를</w>": 10196,
  "필요</w>": 10495,
  "쌋": 2462,
  "읊</w>": 7393,
  "준수": 14303,
  "뼏": 2084,
  "쨱": 3319,
  ".)</w>": 8556,
  "이제</w>": 8353,
  "중고": 11472,
  "했습니다</w>": 8087,
  "표시됩니다</w>": 10793,
  "궤": 303,
  "쩰</w>": 6471,
  "교보문고에서</w>": 9720,
  "팼": 4060,
  "짮": 3292,
  "커먼": 12039,
  "쩍": 3328,
  "쁭": 2151,
  "리를</w>": 8011,
  "푠</w>": 6431,
  "허용": 11323,
  "작동": 10855,
  "정의</w>": 8927,
  "까지도</w>": 12942,
  "북한이</w>": 15569,
  "픝": 4192,
  "기본</w>": 9102,
  "재료": 12390,
  "퓐</w>": 7408,
  "퓁</w>": 7293,
  "됩</w>": 5846,
  "편리하게</w>": 16236,
  "컼</w>": 6275,
  "단의</w>": 10475,
  "횅</w>": 7147,
  "뺸": 2056,
  "숳": 2355,
  "잰</w>": 6036,
  "깟</w>": 5962,
  "꿱": 542,
  "윦</w>": 7337,
  "중이다</w>": 13110,
  "덍": 893,
  "기에는</w>": 11822,
  "영이</w>": 16085,
  "죈</w>": 6266,
  "먖": 1570,
  "불과": 13967,
  "조차</w>": 11407,
  "짧</w>": 7343,
  "몽": 1651,
  "벳": 1851,
  "방해": 14911,
  "이면</w>": 9408,
  "mp": 11886,
  "얿": 2716,
  "출장": 12063,
  "가격을</w>": 15294,
  "홧": 4351,
  "뮈</w>": 5966,
  "확장</w>": 15390,
  "흐": 4441,
  "궂</w>": 6271,
  "뷸</w>": 5928,
  "스터</w>": 9223,
  "쁨</w>": 5538,
  "볽</w>": 6564,
  "절차</w>": 13633,
  "Ma": 11036,
  "ath": 13278,
  "우리의</w>": 8873,
  "뎀</w>": 5686,
  "햅": 4243,
  "상담을</w>": 16141,
  "e를</w>": 15541,
  "선수": 8755,
  "펔</w>": 7674,
  "맥주</w>": 15315,
  "2천": 14640,
  "내고</w>": 9808,
  "뗼": 1166,
  "휇</w>": 7836,
  "옿": 2810,
  "온</w>": 4675,
  "해당되는</w>": 10478,
  "찼": 3451,
  "이유로</w>": 11044,
  "시설을</w>": 14084,
  "힙</w>": 6129,
  "사망": 10898,
  "뎠</w>": 7048,
  "독특한</w>": 13097,
  "죌": 3165,
  "던": 898,
  "슲": 2405,
  "샤</w>": 5205,
  "빅</w>": 5432,
  "슾": 2415,
  "잆</w>": 6723,
  "팖</w>": 7244,
  "슼": 2413,
  "맞춰</w>": 12799,
  "쒀</w>": 7059,
  "그런데</w>": 8388,
  "가지": 7959,
  "긋</w>": 5581,
  "단일</w>": 15977,
  "횃</w>": 6926,
  "듑": 1042,
  "IG": 15638,
  "발휘": 13983,
  "떢": 1130,
  "읖</w>": 6421,
  "장면": 15018,
  "완벽한</w>": 12322,
  "녜": 710,
  "콬</w>": 6508,
  "굳이</w>": 12419,
  "색상</w>": 12989,
  "뭥": 1711,
  "지역을</w>": 15905,
  "벌써</w>": 12404,
  "셔도</w>": 13629,
  "맄</w>": 6705,
  "늚": 808,
  "유아": 11057,
  "번호</w>": 8543,
  "뭉</w>": 6173,
  "위키": 9716,
  "DB</w>": 16264,
  "발전을</w>": 14463,
  "철</w>": 4830,
  "씻</w>": 6713,
  "즛": 3244,
  "언제</w>": 10832,
  "볃": 1863,
  "됑</w>": 6155,
  "쟐</w>": 6473,
  "그들은</w>": 9565,
  "옘": 2780,
  "솤": 2299,
  "다니는</w>": 13017,
  "짞</w>": 7184,
  "ma": 9319,
  "게": 162,
  "spec": 16089,
  "옾": 2809,
  "높은</w>": 8537,
  "설계</w>": 11743,
  "벹": 1854,
  "영": 2768,
  "얍</w>": 6182,
  "췰": 3609,
  "me": 10781,
  "하세요</w>": 8150,
  "늑</w>": 5687,
  "청년</w>": 15223,
  "2km</w>": 16058,
  "PG": 12157,
  "기회가</w>": 11842,
  "부분": 8020,
  "않도록</w>": 11184,
  "ack": 11985,
  "럽</w>": 4954,
  "첵</w>": 5423,
  "늼</w>": 7815,
  "관광</w>": 11345,
  "1년</w>": 8819,
  "분석을</w>": 15980,
  "핍</w>": 5992,
  "노트</w>": 15191,
  "뿠": 2129,
  "뀠": 556,
  "뎶": 946,
  "텄</w>": 7629,
  "있었지만</w>": 13826,
  "긂</w>": 7189,
  "분은</w>": 11263,
  "앳</w>": 6319,
  "사진이</w>": 14443,
  "굯": 273,
  "we": 13299,
  "명예훼손</w>": 9745,
  "체의</w>": 10312,
  "혈": 4308,
  "IB": 15941,
  "병</w>": 4915,
  "슉</w>": 6769,
  "뭘</w>": 6228,
  "뚤": 1200,
  "씟": 2614,
  "환경을</w>": 12619,
  "똗": 1173,
  "하신</w>": 8768,
  "탑": 3855,
  "쪄</w>": 5558,
  "실습": 15182,
  "조언": 14063,
  "자들": 12420,
  "시간당</w>": 12139,
  "높": 732,
  "안은</w>": 13168,
  "눝": 770,
  "따": 1089,
  "꼿</w>": 5877,
  "했는데</w>": 8731,
  "예요</w>": 10188,
  "뒁</w>": 7774,
  "쥔": 3220,
  "지도": 9005,
  "매</w>": 4744,
  "2010년</w>": 12681,
  "어드": 10609,
  "an": 7900,
  "기존의</w>": 11749,
  "쌔</w>": 6286,
  "메리": 10913,
  "porn</w>": 13513,
  "가지가</w>": 15719,
  "굽</w>": 5611,
  "미래를</w>": 13050,
  "유통": 11182,
  "나라를</w>": 15693,
  "텐": 3903,
  "세상에서</w>": 14138,
  "헐</w>": 5632,
  "접</w>": 4806,
  "섢": 2228,
  "위해서": 15577,
  "랃": 1270,
  "대상": 8549,
  "엗": 2734,
  "된다면</w>": 12132,
  "분": 1937,
  "시험": 9188,
  "햇": 4244,
  "엑": 2731,
  "퇘": 3945,
  "듼": 1067,
  "이자</w>": 9923,
  "사용하기</w>": 13914,
  "늬</w>": 5475,
  "보유하고</w>": 15244,
  "낑</w>": 6946,
  "가끔</w>": 12326,
  "숍</w>": 5448,
  "젤</w>": 4862,
  "쓍</w>": 7628,
  "홋</w>": 5959,
  "부러": 16117,
  "스타</w>": 9677,
  "se</w>": 11082,
  "민주": 8698,
  "읋</w>": 6411,
  "엠</w>": 5170,
  "사용하는</w>": 8958,
  "퀀</w>": 5402,
  "2": 15,
  "풍속": 13148,
  "쌑": 2465,
  "커뮤니": 9463,
  "시키고</w>": 11642,
  "시각": 10507,
  "유대": 15067,
  "댇": 873,
  "땧</w>": 7684,
  "묄": 1669,
  "나라는</w>": 14336,
  "셴</w>": 5817,
  "잊": 3009,
  "받게</w>": 12310,
  "만들어진</w>": 13417,
  "아이를</w>": 13570,
  "취재": 16016,
  "쪼": 3356,
  "TripAdvisor</w>": 15218,
  "3년": 12408,
  "물류": 15594,
  "밗": 1771,
  "룳": 1429,
  "듯": 1058,
  "잢</w>": 6545,
  "떡</w>": 5213,
  "식으로</w>": 9641,
  "퓨</w>": 5963,
  "th</w>": 10968,
  "관에</w>": 11619,
  "편이</w>": 15062,
  "겇": 157,
  "됏</w>": 7505,
  "주가</w>": 11343,
  "땄": 1101,
  "35": 10718,
  "죵": 3179,
  "그녀가</w>": 15494,
  "럵": 1325,
  "싺</w>": 7832,
  "꿈": 526,
  "상대적으로</w>": 14417,
  "됑": 986,
  "콤</w>": 4741,
  "짭": 3291,
  "큉</w>": 6466,
  "옐": 2779,
  "놰</w>": 7330,
  "겹": 187,
  "떡": 1129,
  "it": 8007,
  "쑴": 2564,
  "낮</w>": 5898,
  "뢀": 1393,
  "널리</w>": 14610,
  "일본어</w>": 15702,
  "듧</w>": 7159,
  "일": 2996,
  "긿</w>": 5727,
  "IE": 14357,
  "녕": 706,
  "카드": 10043,
  "근육": 13368,
  "Fi</w>": 11198,
  "펀": 4075,
  "딪</w>": 6252,
  "랓</w>": 7454,
  "이가</w>": 8534,
  "찓": 3426,
  "속으로</w>": 11962,
  "1차": 14842,
  "대통령의</w>": 13237,
  "솅": 2286,
  "대표는</w>": 13602,
  "카지노</w>": 8916,
  "오류</w>": 14035,
  "1만": 15300,
  "미를</w>": 14223,
  "혼란": 14746,
  "셳": 2279,
  "낯</w>": 5158,
  "길": 367,
  "2층</w>": 15055,
  "줫": 3206,
  "@</w>": 5279,
  "스크": 8355,
  "자동차": 9865,
  "보관": 10682,
  "참고로</w>": 12374,
  "캢": 3675,
  "읱": 2987,
  "생활": 8241,
  "쭵</w>": 7758,
  "슁</w>": 6452,
  "냡": 640,
  "지면</w>": 12145,
  "오르": 9958,
  "홒": 4336,
  "머리를</w>": 13604,
  "마주": 14440,
  "눶": 779,
  "싾": 2455,
  "놏": 729,
  "07</w>": 9968,
  "밒": 1766,
  "미치는</w>": 12788,
  "챕": 3466,
  "꺅</w>": 6496,
  "됐습니다</w>": 14671,
  "맒</w>": 7607,
  "쌰": 2477,
  "롷": 1389,
  "표": 4137,
  "옽</w>": 7230,
  "새로": 15474,
  "전통": 9659,
  "당일</w>": 14402,
  "똿</w>": 7297,
  "68": 16160,
  "열심히</w>": 9646,
  "로마</w>": 13994,
  "젔": 3089,
  "주</w>": 4704,
  "법이</w>": 12556,
  "엏": 2729,
  "포토</w>": 11416,
  "짏": 3265,
  "접속</w>": 14001,
  "웧": 2904,
  "연을</w>": 13607,
  "남북": 10595,
  "특수": 11485,
  "곫": 212,
  "차라리</w>": 15907,
  "상위": 16170,
  "샴</w>": 6116,
  "쉔</w>": 5741,
  "랗": 1284,
  "이": 2988,
  "에게": 8340,
  "기</w>": 4551,
  "갱신": 15352,
  "틓": 4010,
  "곗</w>": 6869,
  "좃</w>": 6399,
  "삷</w>": 7331,
  "심을</w>": 9868,
  "식은</w>": 12973,
  "뤩": 1448,
  "어린이집</w>": 16250,
  "왝": 2825,
  "자연스럽게</w>": 13716,
  "전망": 10037,
  "돌아</w>": 15293,
  "결국</w>": 8753,
  "좐": 3150,
  "뇨</w>": 4901,
  "가격": 8442,
  "Sup": 16098,
  "돳</w>": 7112,
  "큭": 3815,
  "흑인": 16208,
  "영어</w>": 9151,
  "comp": 15525,
  "핗": 4210,
  "전부터</w>": 11796,
  "랡": 1290,
  "We": 13003,
  "상태": 8339,
  "장착": 12715,
  "니스</w>": 8899,
  "뽇": 2098,
  "연애": 12986,
  "치료</w>": 10287,
  "랩</w>": 4932,
  "인을</w>": 8535,
  "트립": 10621,
  "줗</w>": 6217,
  "땜</w>": 5720,
  "걒</w>": 6409,
  "뒨</w>": 6315,
  "베이</w>": 15674,
  "인식</w>": 13249,
  "제작</w>": 10150,
  "수술</w>": 12115,
  "대화를</w>": 13609,
  "됭</w>": 6819,
  "롣</w>": 6323,
  "세계적으로</w>": 16175,
  "핧</w>": 6978,
  "갑니다</w>": 9155,
  "옯</w>": 7141,
  "블": 1988,
  "봘</w>": 7284,
  "때부터</w>": 12192,
  "회": 4364,
  "크로</w>": 13002,
  "찾으려</w>": 14845,
  "윷": 2947,
  "츠</w>": 4598,
  "닏": 830,
  "훻": 4412,
  "먕": 1569,
  "UR": 11623,
  "림": 1510,
  "사용되는</w>": 13634,
  "iss": 14734,
  "수준의</w>": 13010,
  "꾳": 515,
  "인도": 10341,
  "뗑": 1154,
  "마자</w>": 14050,
  "즏": 3240,
  "러시아": 13255,
  "짷": 3298,
  "좆</w>": 5760,
  "았던</w>": 11089,
  "네": 672,
  "쟣</w>": 7704,
  "롸": 1390,
  "슁": 2381,
  "ut": 8962,
  "선보": 15979,
  "기간에</w>": 13808,
  "뻣</w>": 6878,
  "쥭</w>": 6297,
  "변경</w>": 9382,
  "드로": 9385,
  "진실성에</w>": 11598,
  "퀜": 3789,
  "둰</w>": 6829,
  "해보고</w>": 14625,
  "올리는</w>": 15030,
  "예술</w>": 12929,
  "큉": 3802,
  "침에</w>": 9770,
  "ash": 15862,
  "윧": 2937,
  "풋</w>": 5638,
  "맬": 1553,
  "쨉": 3304,
  "쏬": 2532,
  "윢": 2933,
  "존재하는</w>": 14962,
  "반영": 10423,
  "왐": 2817,
  "것으로</w>": 8058,
  "자들에게</w>": 12008,
  "슢": 2395,
  "횾": 4381,
  "있을": 9123,
  "첝": 3495,
  "렇</w>": 6860,
  "감동": 12465,
  "퐝</w>": 7368,
  "촤": 3545,
  "소셜": 8581,
  "적어도</w>": 12305,
  "힘": 4471,
  "ord": 12001,
  "59": 14742,
  "용량</w>": 15734,
  "대표</w>": 9220,
  "췹": 3611,
  "인상</w>": 15564,
  "줒": 3197,
  "곱</w>": 5482,
  "쵬</w>": 6972,
  "밬</w>": 7738,
  "흙</w>": 5990,
  "위하여</w>": 8756,
  "돗": 961,
  "가치가</w>": 11918,
  "릊": 1488,
  "적응": 12403,
  "향상": 11955,
  "슼</w>": 6649,
  "중간에</w>": 15189,
  "끙": 577,
  "퇼</w>": 6837,
  "쟎</w>": 7506,
  "om": 8473,
  "RA": 13125,
  "귺</w>": 5925,
  "옺": 2805,
  "캐나다</w>": 12312,
  "떙</w>": 7387,
  "근데</w>": 10346,
  "곤": 208,
  "수집된</w>": 9734,
  "볻": 1887,
  "거리가</w>": 13436,
  "견": 179,
  "일로</w>": 9627,
  "써": 2490,
  "퇸": 3950,
  "만나</w>": 11951,
  "9년</w>": 9806,
  "껗": 443,
  "그래프토토</w>": 15473,
  "수립": 15459,
  "시대의</w>": 12201,
  "꾱</w>": 7810,
  "퀙</w>": 7257,
  "여름": 10030,
  "뫈</w>": 6727,
  "여러": 8325,
  "잩": 3036,
  "으": 2951,
  "찿": 3454,
  "봣": 1909,
  "섹시한": 10995,
  "홓": 4337,
  "댓</w>": 5666,
  "해선</w>": 15377,
  "임신": 14947,
  "닥": 846,
  "화</w>": 4668,
  "요": 2842,
  "봤다</w>": 12735,
  "연금": 13411,
  "껍": 437,
  "뀌</w>": 5466,
  "근거": 9840,
  "ol</w>": 13818,
  "메디": 16267,
  "깈</w>": 7700,
  "듴": 1062,
  "주문이</w>": 15354,
  "돛": 964,
  "춪": 3587,
  "리아</w>": 8655,
  "윽</w>": 6097,
  "야</w>": 4553,
  "쩨</w>": 5926,
  "쯍": 3410,
  "쁍</w>": 6242,
  "맞이": 12936,
  "철학</w>": 14313,
  "청와대</w>": 13912,
  "meth": 15261,
  "모": 1635,
  "췤": 3605,
  "성": 2241,
  "샸</w>": 7776,
  "뱔": 1815,
  "시는</w>": 8532,
  "냐": 634,
  "순</w>": 4965,
  "디렉": 13840,
  "밀</w>": 4950,
  "척": 3492,
  "다가</w>": 8155,
  "쒄</w>": 6475,
  "교육을</w>": 10895,
  "늧": 815,
  "도를</w>": 8404,
  "주요</w>": 9105,
  "Pre": 15382,
  "챌</w>": 5157,
  "돴</w>": 7383,
  "혆": 4306,
  "보</w>": 4644,
  "얼굴": 9108,
  "키</w>": 4760,
  "띡": 1258,
  "엃": 2717,
  "비판": 10622,
  "렝": 1348,
  "가상</w>": 16206,
  "믿음": 13805,
  "법률": 10984,
  "삧</w>": 7675,
  "않았지만</w>": 15940,
  "녉": 700,
  "주목": 11062,
  "탙": 3862,
  "담당</w>": 14630,
  "존</w>": 4810,
  "캬</w>": 5501,
  "와": 2811,
  "셨</w>": 5441,
  "도": 950,
  "Be": 11759,
  "춈</w>": 6123,
  "시킬</w>": 10365,
  "싡": 2427,
  "농</w>": 5486,
  "날씨</w>": 12736,
  "경험을</w>": 10813,
  "일입니다</w>": 13971,
  "핬": 4229,
  "금</w>": 4894,
  "때": 1106,
  "쌕": 2469,
  "릫": 1500,
  "솨</w>": 5936,
  "파일</w>": 8945,
  "생활에</w>": 15796,
  "매매": 13986,
  "프</w>": 4694,
  "봤습니다</w>": 13532,
  "넫": 676,
  "뀍</w>": 6342,
  "재밌": 12610,
  "룻": 1432,
  "확인해</w>": 14652,
  "싶": 2448,
  "뉸</w>": 6641,
  "이렇게</w>": 8180,
  "구매": 8130,
  "느": 799,
  "줭": 3208,
  "겤": 173,
  "렀": 1334,
  "얂": 2676,
  "붛": 1955,
  "퀼": 3797,
  "곽": 226,
  "넽": 690,
  "졌다</w>": 8587,
  "틩</w>": 6561,
  "뎔": 937,
  "조금씩</w>": 12525,
  "그래프사이트</w>": 13858,
  ".\"</w>": 8446,
  "보자</w>": 10348,
  "바로가기</w>": 12359,
  "쪽으로</w>": 10349,
  "프로": 7895,
  "븀": 1980,
  "우는</w>": 10028,
  "우기</w>": 15157,
  "챰": 3481,
  "-</w>": 5511,
  "거리": 9286,
  "묾</w>": 6890,
  "돔</w>": 5204,
  "셯</w>": 7744,
  "프로모": 14601,
  "예상": 9315,
  "깼</w>": 7463,
  "th": 7961,
  "솔</w>": 5079,
  "끽</w>": 5747,
  "5개</w>": 14004,
  "St": 8608,
  "작품</w>": 11428,
  "낵</w>": 5608,
  "바람이</w>": 13149,
  "00</w>": 8938,
  "권리를</w>": 14427,
  "짼</w>": 6257,
  "스위트</w>": 13473,
  "피부": 11362,
  "뤈": 1439,
  "위해서는</w>": 9622,
  "헝": 4282,
  "뽈</w>": 6383,
  "챋": 3462,
  "뵨": 1930,
  "회장</w>": 9997,
  "찻</w>": 6632,
  "눉</w>": 7207,
  "얠": 2698,
  "죗": 3168,
  "희망을</w>": 16350,
  "뜨</w>": 5260,
  "씔</w>": 6675,
  "투쟁": 14654,
  "lec": 12306,
  "산업</w>": 9617,
  "올바른</w>": 13483,
  "힝": 4475,
  "혼</w>": 4964,
  "압": 2645,
  "!)</w>": 13405,
  "국내</w>": 8527,
  "ond": 15720,
  "브랜": 8444,
  "한글": 11947,
  "같았다</w>": 16247,
  "쵤</w>": 7559,
  "퇗": 3944,
  "스페셜</w>": 15323,
  "35</w>": 12096,
  "미네": 16133,
  "심하게</w>": 15865,
  "원과</w>": 11879,
  "600": 14350,
  "깜짝</w>": 15084,
  "욾": 2871,
  "읓": 2973,
  "믓</w>": 6176,
  "있지</w>": 8943,
  "볾": 1890,
  "않는": 10450,
  "어머니": 10640,
  "57</w>": 15867,
  "탹": 3880,
  "가격이</w>": 12393,
  "핵</w>": 5379,
  "요일</w>": 9142,
  "곪</w>": 6892,
  "룩</w>": 5293,
  "덬": 915,
  "포인트</w>": 9965,
  "8": 21,
  "붴": 1961,
  "십니다</w>": 11980,
  "젃": 3075,
  "횩": 4375,
  "웠다</w>": 11475,
  "궍": 294,
  "빌": 2008,
  "촥</w>": 6425,
  "이야기를</w>": 9165,
  "위치하고</w>": 15013,
  ".'</w>": 12723,
  "뤌": 1440,
  "리티</w>": 14710,
  "졂": 3118,
  "뚤</w>": 5456,
  "구체적으로</w>": 14728,
  "12": 8012,
  "껶": 456,
  "갔</w>": 5792,
  "꺨": 427,
  "진행": 8120,
  "솅</w>": 7455,
  "쎔</w>": 7404,
  "체는</w>": 13696,
  "HP</w>": 15434,
  "행복한</w>": 10787,
  "경제": 8242,
  "벼": 1857,
  "과는</w>": 9623,
  "Tag": 16127,
  "관에서</w>": 12313,
  "자들이</w>": 8957,
  "권이</w>": 12646,
  "서양": 14661,
  "륌</w>": 5712,
  "데이</w>": 10454,
  "리어": 14690,
  "gro": 14529,
  "덋": 892,
  "줓": 3198,
  "이요</w>": 15240,
  "뇰</w>": 4773,
  "기간": 8735,
  "용으로</w>": 13465,
  "가득": 11260,
  "커뮤니케이": 12441,
  "답변을</w>": 13006,
  "셈</w>": 5093,
  "짥": 3284,
  "틸</w>": 4960,
  "책": 3460,
  "태국</w>": 15119,
  "택배": 15732,
  "채택": 15180,
  "박스</w>": 11341,
  "낫</w>": 5670,
  "뱽": 1821,
  "FA": 11692,
  "u": 75,
  "횻</w>": 6710,
  "생각에</w>": 15580,
  "욈</w>": 6699,
  "개인정보를</w>": 11432,
  "왠</w>": 5653,
  "뱍</w>": 6704,
  "꺙": 422,
  "빋</w>": 7531,
  "눁</w>": 6870,
  "쿧</w>": 7702,
  "끔</w>": 5287,
  "기자": 10212,
  "마지막</w>": 9111,
  "가로": 12863,
  "마찬가지": 10211,
  "ob": 9760,
  "됴</w>": 5706,
  "월부터</w>": 13268,
  "머</w>": 4837,
  "감사</w>": 12291,
  "꾸준히</w>": 11931,
  "뢋</w>": 7649,
  "병원</w>": 9754,
  "있고</w>": 8117,
  "ies</w>": 13740,
  "굘": 260,
  "솀</w>": 6950,
  "ans": 12389,
  "보여줍니다</w>": 13429,
  "백": 1796,
  "쵱": 3562,
  "톤": 3928,
  "아무": 8313,
  "해결": 8529,
  "땟": 1113,
  "컥": 3694,
  "29": 9378,
  "그리": 8392,
  "가진</w>": 8884,
  "환상": 15506,
  "선에서</w>": 15925,
  "입장을</w>": 14139,
  "댭": 888,
  "리더": 10318,
  "숢": 2344,
  "임": 3003,
  "청</w>": 4838,
  "것": 153,
  "아기": 15210,
  "뼜": 2090,
  "나머지</w>": 11997,
  "쥇": 3216,
  "챺</w>": 7591,
  "아이템": 11718,
  "대형": 14500,
  "궶</w>": 7008,
  "숫</w>": 6185,
  "쉬</w>": 5129,
  "하며</w>": 7945,
  "받으며</w>": 15936,
  "글": 343,
  "70": 9632,
  "쥠</w>": 6408,
  "얌": 2685,
  "뭐</w>": 5406,
  "사상": 15989,
  "학과": 15903,
  "공동체</w>": 15898,
  "까</w>": 4537,
  "있음</w>": 10101,
  "케</w>": 4745,
  "좀</w>": 4857,
  "유튜브</w>": 15257,
  "c</w>": 4677,
  "비록</w>": 13005,
  "잿": 3047,
  "자체": 8673,
  "박물": 10194,
  "23일</w>": 13852,
  "동네</w>": 13973,
  "귺": 337,
  "인민": 15260,
  "땆</w>": 7818,
  "대화": 10535,
  "세요</w>": 7908,
  "월드": 9415,
  "탯": 3873,
  "두는</w>": 14459,
  "팝</w>": 4721,
  "혈</w>": 4904,
  "웊": 2880,
  "래도</w>": 12664,
  "특성": 13076,
  "궂": 285,
  "?'</w>": 14163,
  "퓸</w>": 6030,
  "먗": 1571,
  "뗘</w>": 6393,
  "패러": 14875,
  "납니다</w>": 12174,
  "오면</w>": 12713,
  "소녀</w>": 9557,
  "떨어진</w>": 13133,
  "시작할</w>": 15909,
  "껴</w>": 5663,
  "리버": 14666,
  "듐": 1041,
  "으면서</w>": 11727,
  "마을</w>": 10503,
  "aceb": 15944,
  "주차</w>": 11559,
  "퍼</w>": 5097,
  "신청</w>": 9445,
  "공연을</w>": 16268,
  "ure": 14015,
  "커플": 14116,
  "비상": 15550,
  "자연": 8510,
  "요인</w>": 15816,
  "아이템</w>": 13223,
  "껵": 455,
  "이벤": 8425,
  "훍</w>": 6218,
  "엨</w>": 6627,
  "딮</w>": 6403,
  "랴": 1301,
  "납</w>": 5207,
  "번호를</w>": 11625,
  "H</w>": 4640,
  "겶": 184,
  "맞은</w>": 13980,
  "빱</w>": 7144,
  "장은</w>": 8640,
  "치료": 8692,
  "9</w>": 4816,
  "프로그램": 8323,
  "선호": 12558,
  "빼": 2035,
  "빌</w>": 5252,
  "캌</w>": 7282,
  "핰</w>": 6646,
  "콩</w>": 4936,
  "햠": 4259,
  "꽂": 483,
  "투어</w>": 10392,
  "횃": 4361,
  "카오": 10428,
  "덩": 912,
  "득</w>": 4723,
  "혁명": 15923,
  "햟": 4258,
  "캐</w>": 5812,
  "손쉽게</w>": 16184,
  "하는지</w>": 10628,
  "줗": 3201,
  "?": 24,
  "찗": 3429,
  "뎈</w>": 6038,
  "브라": 9899,
  "못한</w>": 9150,
  "거든요</w>": 10327,
  "논</w>": 5358,
  "려서</w>": 12262,
  "욻": 2869,
  "뺍</w>": 7633,
  "안타": 10845,
  "아내</w>": 11004,
  "웻</w>": 6207,
  "주는</w>": 8189,
  "방법으로</w>": 10940,
  "샹</w>": 5708,
  "밋</w>": 4613,
  "보고</w>": 8036,
  "없기</w>": 12950,
  "있으며</w>": 8021,
  "뒈": 1024,
  "터치": 15946,
  "맞추": 12655,
  "마치고</w>": 13992,
  "전까지</w>": 13698,
  "스로</w>": 8793,
  "졸업": 10784,
  "구성": 8233,
  "씡": 2615,
  "곯": 214,
  "쟙</w>": 6534,
  "출시</w>": 11324,
  "혿": 4327,
  "즘</w>": 4571,
  "규정에</w>": 14347,
  "쨴": 3320,
  "샂</w>": 7043,
  "곕</w>": 6748,
  "곶": 219,
  "통계</w>": 13298,
  "꽜": 495,
  "er": 7894,
  "가게</w>": 11069,
  "영상": 9020,
  "폰</w>": 4824,
  "서를</w>": 9003,
  "댤": 886,
  "끰</w>": 7312,
  "먹어": 14686,
  "하십시오</w>": 8865,
  "털이</w>": 13252,
  "샬": 2208,
  "찾아": 8421,
  "내셔": 14288,
  "파운": 15019,
  "괬": 243,
  "몇몇</w>": 12804,
  "셀프</w>": 13329,
  "리눅": 15617,
  "확정": 13294,
  "놉</w>": 6025,
  "어르": 16371,
  "기다리": 16335,
  "굅": 252,
  "종일</w>": 15034,
  "씪</w>": 6768,
  "포함하여</w>": 14364,
  "른": 1473,
  "떵": 1142,
  "오를</w>": 13137,
  "000": 8708,
  "볕</w>": 4956,
  "뒷</w>": 5725,
  "적용</w>": 10950,
  "옵": 2800,
  "둘러": 10144,
  "배치": 12202,
  "제일</w>": 10076,
  "개발": 8151,
  "캠</w>": 5065,
  "김</w>": 5103,
  "탱</w>": 5123,
  "좬": 3158,
  "넣</w>": 4999,
  "쨥</w>": 7006,
  "10": 7878,
  "대는</w>": 10206,
  "월</w>": 4947,
  "효</w>": 5126,
  "돍": 955,
  "괒": 237,
  "샄": 2186,
  "붆": 1939,
  "워서</w>": 11966,
  "구글": 12069,
  "낙": 597,
  "에디": 13579,
  "기계</w>": 10486,
  "있을</w>": 8103,
  "저축": 15643,
  "섯</w>": 4937,
  "지식을</w>": 14475,
  "줸": 3213,
  "긑": 355,
  "아마</w>": 10705,
  "였": 2767,
  "겨": 176,
  "보실</w>": 12853,
  "문서를</w>": 12924,
  "ational</w>": 14868,
  "럮": 1318,
  "개념": 9414,
  "웕</w>": 7590,
  "친구가</w>": 12584,
  "깓": 388,
  "좋": 3147,
  "입장": 10046,
  "몸": 1647,
  "블로그": 9270,
  "펢": 4088,
  "하다가</w>": 11068,
  "슶": 2408,
  "Fl": 14249,
  "번의</w>": 12810,
  "운동</w>": 9767,
  "책은</w>": 11483,
  "갇": 89,
  "영상</w>": 8281,
  "행사</w>": 10226,
  "여기": 8544,
  "엔터": 11663,
  "가능": 7911,
  "워낙</w>": 15222,
  "가을</w>": 12101,
  "커뮤니티": 14248,
  "해보세요</w>": 13500,
  "유도": 14940,
  "핧": 4225,
  "맷</w>": 5912,
  "상황에서</w>": 11205,
  "yn": 12907,
  "만들었다</w>": 16176,
  "하지": 14769,
  "ud": 12281,
  "정부는</w>": 12504,
  "팀</w>": 4705,
  "졉": 3120,
  "텼": 3922,
  "하지도</w>": 15901,
  "극</w>": 4826,
  "휴대폰": 14542,
  "가면</w>": 9742,
  "목록</w>": 9704,
  "줴": 3211,
  "줴</w>": 6703,
  "쵼": 3565,
  "뷀": 1964,
  "BC</w>": 13036,
  "진": 3257,
  "녛": 709,
  "컱</w>": 7210,
  "쑝</w>": 6495,
  "인에게</w>": 11950,
  "퍠": 4072,
  "욱</w>": 5206,
  "호</w>": 4577,
  "시와</w>": 15897,
  "덯": 918,
  "츌</w>": 6576,
  "쌓</w>": 7303,
  "챀</w>": 6390,
  "젺": 3114,
  "혖": 4315,
  "국가": 8333,
  "턱</w>": 5496,
  "불편": 8932,
  "흝": 4448,
  "메이": 8402,
  "윱": 2943,
  "분야": 8788,
  "리그</w>": 9033,
  "떳": 1140,
  "기에서</w>": 13835,
  "덞": 903,
  "당한</w>": 10061,
  "듡": 1048,
  "아울러</w>": 15790,
  "혼자": 12740,
  "제외한</w>": 13644,
  "클라우": 11286,
  "칸</w>": 4552,
  "없어요</w>": 12974,
  "적극적으로</w>": 13774,
  "사람들에게</w>": 11496,
  "예쁘": 13822,
  "세상": 8671,
  "연주": 13229,
  "로그인": 14639,
  "카메라": 11493,
  "돈": 952,
  "미디어": 9929,
  "우리에게</w>": 12052,
  "느낌이</w>": 11245,
  "공간이</w>": 14563,
  "콛</w>": 7457,
  "비슷": 9217,
  "꿴</w>": 6624,
  "47": 13672,
  "알려졌다</w>": 15209,
  "쟨</w>": 7719,
  "하면서</w>": 8175,
  "면접": 11230,
  "다음은</w>": 16168,
  "자의</w>": 8027,
  "즩</w>": 7687,
  "스포": 8145,
  "엶</w>": 6414,
  "lu": 10564,
  "중이": 14835,
  "요청": 9141,
  "증상이</w>": 16265,
  "갯</w>": 5917,
  "빻</w>": 7596,
  "났다</w>": 9384,
  "뜌": 1225,
  "열을</w>": 13510,
  "풇": 4152,
  "쳦": 3528,
  "사용한</w>": 13450,
  "꾕": 508,
  "웚": 2893,
  "세대</w>": 10403,
  "실질": 13561,
  "음부</w>": 15460,
  "뜰": 1237,
  "수수": 10577,
  "지배": 11156,
  "집중": 9416,
  "배송</w>": 9637,
  "쩰": 3342,
  "선택한</w>": 13338,
  "래": 1285,
  "긇</w>": 7499,
  "기술적</w>": 15956,
  "디지": 9070,
  "뎐</w>": 6381,
  "뽑": 2102,
  "총": 3541,
  "닁</w>": 6918,
  "유로</w>": 14272,
  "5월": 15069,
  "있게</w>": 8429,
  "훌륭한</w>": 11136,
  "복사": 13296,
  "지시": 15342,
  "주의의</w>": 14562,
  "없을</w>": 9567,
  "pres": 12680,
  "뤙": 1443,
  "꽛": 494,
  "엄</w>": 5196,
  "끨</w>": 7603,
  "만으로도</w>": 14190,
  "젊": 3082,
  "틎": 4006,
  "축하": 12450,
  "에서도</w>": 8265,
  "나온다</w>": 12449,
  "탼": 3881,
  "이사": 11203,
  "사모": 13867,
  "책이</w>": 13047,
  "퀩": 3792,
  "계획을</w>": 11433,
  "넼</w>": 6603,
  "쪄": 3347,
  "공지</w>": 10519,
  "뀨</w>": 6213,
  "GB</w>": 12566,
  "불법": 8929,
  "바뀌": 10525,
  "아서</w>": 8633,
  "계절": 12126,
  "넗": 659,
  "풉": 4154,
  "특히</w>": 8203,
  "저작자표시</w>": 12222,
  "증이</w>": 12464,
  "습니다</w>": 7842,
  "뜡": 1232,
  "서비스가</w>": 12372,
  "쬬</w>": 5322,
  "밂</w>": 7440,
  "눞": 771,
  "차례": 13012,
  "형제": 15415,
  "밐</w>": 6862,
  "드립니다</w>": 8229,
  "췡</w>": 7839,
  "시스템</w>": 8634,
  "과</w>": 4527,
  "발달</w>": 15584,
  "맽</w>": 7516,
  "Me": 12937,
  "얇": 2681,
  "!": 4,
  "제공되는</w>": 12947,
  "김태": 14907,
  "높아": 11439,
  "웹</w>": 5413,
  "게시물</w>": 8783,
  "외에</w>": 10657,
  "넟": 667,
  "숤": 2345,
  "올해": 11166,
  "컥</w>": 5469,
  "서비스의</w>": 11831,
  "aph": 15615,
  "깊이</w>": 12856,
  "1일</w>": 8604,
  "쳐": 3519,
  "똬</w>": 7523,
  "럅</w>": 7825,
  "쪠</w>": 6801,
  "둥": 1015,
  "용품</w>": 11817,
  "심장": 15232,
  "려는</w>": 11064,
  "라리</w>": 14966,
  "5층</w>": 12765,
  "겠네요</w>": 12362,
  "음을</w>": 8657,
  "랭</w>": 5606,
  "셕</w>": 6357,
  "99": 13619,
  "의의</w>": 13196,
  "오늘은</w>": 10636,
  "캇</w>": 5702,
  "버리": 12461,
  "푼</w>": 5539,
  "대답": 11938,
  "괙</w>": 6536,
  "젨": 3101,
  "om</w>": 13723,
  "자유": 8438,
  "ER</w>": 13884,
  "Android</w>": 16233,
  "튁": 3978,
  "크": 3814,
  "윸</w>": 7354,
  "개최": 10042,
  "곧": 209,
  "얼": 2713,
  "트립어드바이": 12538,
  "ov": 11312,
  "실에서</w>": 12309,
  "혜택</w>": 13847,
  "삽</w>": 5452,
  "샘": 2197,
  "량을</w>": 9518,
  "무조건</w>": 12535,
  "쌍</w>": 5548,
  "도움": 8269,
  "힡": 4478,
  "확인하세요</w>": 16370,
  "중에는</w>": 13851,
  "개가</w>": 10387,
  "힣": 4480,
  "홑": 4335,
  "풰": 4163,
  "사항</w>": 8983,
  "뢾": 1406,
  "옮</w>": 5405,
  "볅</w>": 7761,
  "마케팅</w>": 9046,
  "럐": 1312,
  "is": 8148,
  "꼮": 472,
  "을수</w>": 14083,
  "힌": 4468,
  "보인다</w>": 9257,
  "사람은</w>": 8869,
  "해서": 10791,
  "날이</w>": 11691,
  "제도의</w>": 15976,
  "핚</w>": 6240,
  "학교에</w>": 14112,
  "룰</w>": 5600,
  "실험": 9957,
  "아니고</w>": 10178,
  "종류</w>": 11339,
  "독일의</w>": 15934,
  "만화</w>": 13580,
  "잌": 3011,
  "쨈": 3303,
  "나옵니다</w>": 15791,
  "자신이</w>": 9134,
  "빤": 2024,
  "쏙</w>": 5453,
  "촬영": 9765,
  "총</w>": 5172,
  "비난": 13679,
  "쉈": 2362,
  "졔</w>": 5861,
  "ur": 8322,
  "랦": 1291,
  "촬": 3548,
  "LG</w>": 11719,
  "릋</w>": 7492,
  "죡</w>": 7517,
  "츤": 3623,
  "경력": 12528,
  "켭": 3728,
  "싣</w>": 6814,
  "졽</w>": 6795,
  "멉</w>": 5541,
  "관계를</w>": 10645,
  "04</w>": 10427,
  "떠</w>": 6198,
  "일광": 14731,
  "뷄": 1967,
  "빌딩</w>": 12102,
  "거리</w>": 9170,
  "본인의</w>": 13416,
  "하의</w>": 16286,
  "함을</w>": 9387,
  "당": 863,
  "보다": 11273,
  "많아서</w>": 15026,
  "춰</w>": 5546,
  "텅</w>": 5529,
  "져</w>": 4676,
  "성격": 10511,
  "PC</w>": 10362,
  "쟆": 3051,
  "섀": 2216,
  "://</w>": 8993,
  "발전</w>": 11596,
  "흡</w>": 5479,
  "쵬": 3559,
  "백분": 13362,
  "꾯</w>": 7561,
  "찢": 3434,
  "뎽": 948,
  "htt": 8944,
  "D": 29,
  "있죠</w>": 13385,
  "가능성이</w>": 10319,
  "성장을</w>": 15659,
  "슌": 2386,
  "탞": 3866,
  "옶": 2801,
  "님</w>": 4610,
  "딪": 1083,
  "pro": 9718,
  "컼": 3705,
  "세인": 14195,
  "있": 3007,
  "즐거": 11443,
  "하에</w>": 14075,
  "뺭": 2053,
  "흫</w>": 6311,
  "닶": 860,
  "밥": 1785,
  "섫": 2235,
  "삲": 2171,
  "씐</w>": 6469,
  "말까지</w>": 15255,
  "호를</w>": 16102,
  "강력": 10338,
  "5": 18,
  "pl": 9306,
  "얘</w>": 6227,
  "em": 8621,
  "pos": 13727,
  "땗": 1110,
  "스턴": 11243,
  "펀</w>": 5709,
  "di": 8831,
  "어려울</w>": 15722,
  "스스로</w>": 9612,
  "철저": 15205,
  "벜</w>": 6905,
  "그렇": 8227,
  "메시": 9226,
  "잡을</w>": 14423,
  "도심": 13630,
  ".....</w>": 12263,
  "어디서</w>": 13821,
  "벅</w>": 5881,
  "폴더": 14161,
  "실을</w>": 11741,
  "bo": 10877,
  "씁": 2602,
  "작품을</w>": 13728,
  "챼": 3488,
  "떫": 1136,
  "없다</w>": 8108,
  "격을</w>": 13245,
  "는다</w>": 8194,
  "안드로": 10335,
  "주시고</w>": 15665,
  "아무리</w>": 10632,
  "끁": 562,
  "쵀": 3551,
  "제는</w>": 9159,
  "건": 145,
  "쯍</w>": 7318,
  "으면</w>": 8006,
  "조": 3129,
  "하도록</w>": 8974,
  "괌</w>": 5902,
  "했다는</w>": 10163,
  "씩": 2617,
  "하나가</w>": 12286,
  "중독": 13623,
  "장과</w>": 11125,
  "않": 2636,
  "맠</w>": 6018,
  "쓰는</w>": 9850,
  "쳄": 3514,
  "팤</w>": 7104,
  "웊</w>": 7777,
  "슷": 2409,
  "몪": 1637,
  "과": 225,
  "늪</w>": 5718,
  "인간</w>": 11637,
  "크라": 16095,
  "up": 10012,
  "탑</w>": 4988,
  "굔": 258,
  "판단": 9164,
  "면이</w>": 12180,
  "봐요</w>": 15725,
  "더라": 9663,
  "띾</w>": 7339,
  "것과</w>": 9799,
  "뢱": 1403,
  "시대": 8663,
  "공간</w>": 10307,
  "팰": 4056,
  "자신</w>": 15949,
  "나의</w>": 8609,
  "흨": 4454,
  "볼수</w>": 16255,
  "의혹": 14977,
  "흡": 4451,
  "최적의</w>": 12796,
  "기간을</w>": 14311,
  "페이지에</w>": 13653,
  "t": 74,
  "특별</w>": 13889,
  "게이</w>": 13874,
  "앳": 2665,
  "라이": 7940,
  "바</w>": 4507,
  "하였으며</w>": 14099,
  "틃": 4001,
  "밀리미터이하": 15802,
  "곳을</w>": 10896,
  "과제": 15195,
  "ge</w>": 12191,
  "런": 1320,
  "궤</w>": 5325,
  "신규</w>": 11968,
  "2018": 11252,
  "첚": 3493,
  "윝": 2929,
  "뀨": 557,
  "3월</w>": 9533,
  "호텔을</w>": 12120,
  "묏</w>": 6898,
  "EC": 15511,
  "핔": 4207,
  "그것을</w>": 9907,
  "!!!</w>": 10618,
  "목을</w>": 10128,
  "모니터</w>": 15518,
  "{": 81,
  "늕</w>": 6665,
  "륭": 1467,
  "거래를</w>": 16262,
  "비밀</w>": 14635,
  "넚": 662,
  "묭": 1677,
  "츰": 3626,
  "ent": 8803,
  "뢋": 1396,
  "룅</w>": 7124,
  "수업을</w>": 15402,
  "혖</w>": 7746,
  "호텔</w>": 8025,
  "결과</w>": 8575,
  "올림픽": 11832,
  "등록</w>": 9854,
  "덤": 907,
  "iPh": 15319,
  "만드": 13732,
  "블리": 14721,
  "어깨": 15341,
  "낏": 593,
  "생각해": 13067,
  "반환": 16239,
  "일을</w>": 8124,
  "사회복지</w>": 16322,
  "궨": 305,
  "솦</w>": 7032,
  "봐</w>": 4631,
  "횰": 4377,
  "긾": 370,
  "uc": 8922,
  "낍": 592,
  "이수": 14700,
  "벌": 1827,
  "뵹": 1933,
  "교회의</w>": 14167,
  "겆</w>": 5719,
  "켓</w>": 4614,
  "짭</w>": 5814,
  "사실이다</w>": 16108,
  "킬": 3834,
  "같은</w>": 7916,
  "액": 2656,
  "꿔</w>": 5895,
  "팝": 4042,
  "방지": 12460,
  "도시의</w>": 16063,
  "한데</w>": 10833,
  "컨텐츠": 11549,
  "연맹</w>": 15286,
  "경우에는</w>": 8972,
  "튝": 3987,
  "욕": 2843,
  "조각": 14682,
  "바랍니다</w>": 8199,
  "욍": 2841,
  "릫</w>": 7827,
  "게스트": 16153,
  "자치": 11095,
  "쿳": 3776,
  "팠": 4044,
  "죘": 3169,
  "릭": 1502,
  "무리": 14192,
  "읠": 2981,
  "추": 3573,
  "꿑": 532,
  "좋았": 12627,
  "낵": 620,
  "전형": 11540,
  "매일</w>": 9216,
  "봐야": 13754,
  "나리": 13830,
  "핛</w>": 5243,
  "졺</w>": 6947,
  "oc": 9458,
  "곗": 202,
  "뵐</w>": 6516,
  "궝</w>": 7243,
  "이란</w>": 8736,
  "8일</w>": 12522,
  "확": 4339,
  "뚭": 1206,
  "랜</w>": 5185,
  "볻</w>": 6223,
  "체계</w>": 14844,
  "늨</w>": 7489,
  "찢</w>": 5909,
  "가격</w>": 9095,
  "남녀": 14628,
  "쳡</w>": 6678,
  "연수</w>": 15784,
  "타</w>": 4785,
  "도덕": 13661,
  "웍</w>": 5940,
  "가능합니다</w>": 8668,
  "ome</w>": 13020,
  "최고</w>": 9764,
  "매매</w>": 15586,
  "란</w>": 4592,
  "테이": 8391,
  "포장": 13536,
  "웸": 2913,
  "덙": 899,
  "붸</w>": 6754,
  "쿠키</w>": 14838,
  "그룹": 9450,
  "Off": 13651,
  "갈</w>": 4615,
  "겠습니까</w>": 10514,
  "떱</w>": 7558,
  "놂": 720,
  "설정": 8786,
  "취득": 12955,
  "빔</w>": 5446,
  "플</w>": 4881,
  "어버": 11009,
  "헔": 4275,
  "핕": 4208,
  "뭈": 1694,
  "컴퓨": 8369,
  "긁": 344,
  "오른</w>": 14324,
  "와서</w>": 9362,
  "잗": 3021,
  "뚧": 1203,
  "해석": 10725,
  "푁": 4134,
  "췸": 3610,
  "닦</w>": 6196,
  "힘이</w>": 11555,
  "뗸": 1165,
  "샼": 2214,
  "미리": 14199,
  "건축": 9598,
  "진흥": 11887,
  "늅": 795,
  "포커": 13573,
  "죗</w>": 6847,
  "보안</w>": 10430,
  "부의</w>": 9749,
  "197": 11641,
  "검은</w>": 12086,
  "신</w>": 4650,
  "아메리": 13081,
  "됢": 992,
  "풍부": 12565,
  "쉣": 2370,
  "렢": 1352,
  "췟</w>": 6835,
  "Mon": 14900,
  "돛</w>": 6932,
  "플": 4185,
  "잌</w>": 5883,
  "의를</w>": 8749,
  "혁신": 10333,
  "쒜</w>": 6041,
  "놨": 738,
  "공지사항</w>": 16254,
  "밷</w>": 6446,
  "Mus": 15685,
  "저희가</w>": 14264,
  "유로": 16223,
  "봤</w>": 5858,
  "절</w>": 5030,
  "왇": 2815,
  "묾": 1689,
  "추가적인</w>": 11738,
  "컬러": 12051,
  "쐇</w>": 7026,
  "예측": 11351,
  "릿": 1513,
  "맹</w>": 5016,
  "섭취": 13396,
  "숚": 2340,
  "퓑": 4170,
  "아도</w>": 10235,
  "켁": 3709,
  "런</w>": 4847,
  "복잡": 10847,
  "기분이</w>": 13254,
  "맢": 1546,
  "저녁": 11657,
  "ML</w>": 13390,
  "킨": 3833,
  "양의</w>": 11564,
  "74</w>": 12251,
  "뮬</w>": 5289,
  "보장</w>": 13778,
  "옵션</w>": 12327,
  "좀더</w>": 13668,
  "멥": 1603,
  "떘": 1126,
  "쬔</w>": 6994,
  "AN": 10383,
  "뭽": 1716,
  "축적": 12385,
  "해결할</w>": 16060,
  "명을</w>": 8805,
  "따</w>": 5294,
  "꿜": 537,
  "다운": 8224,
  "문제로</w>": 13439,
  "보증하지</w>": 11448,
  "꾜</w>": 6967,
  "떤</w>": 5528,
  "제이": 13763,
  "욀": 2836,
  "겄</w>": 5859,
  "볧": 1879,
  "욕</w>": 5210,
  "이정": 14432,
  "사건": 9056,
  "있습니까</w>": 13744,
  "제1": 10395,
  "우편</w>": 15866,
  "씨를</w>": 15357,
  "통해</w>": 7965,
  "도서</w>": 10861,
  "개인적으로</w>": 12152,
  "구요</w>": 8825,
  "꼈": 462,
  "고기</w>": 11427,
  "쓽": 2599,
  "등록": 8302,
  "좼": 3161,
  "븜": 1992,
  "넺": 687,
  "쫄": 3360,
  "볍": 1867,
  "뇽</w>": 5867,
  "장애": 8625,
  "준비되어</w>": 15981,
  "찾기</w>": 9675,
  "큨": 3813,
  "13일</w>": 12270,
  "칯": 3648,
  "만은</w>": 13391,
  "뽱": 2109,
  "항해</w>": 16006,
  "헡</w>": 7541,
  "반려": 14791,
  "톺</w>": 7456,
  "날아": 15686,
  "쎼": 2519,
  "위성</w>": 14701,
  "인생을</w>": 14485,
  "삥</w>": 5672,
  "턣": 3886,
  "퐉": 4126,
  "인한</w>": 9619,
  "Th": 8588,
  "도와</w>": 10608,
  "입금": 14179,
  "놂</w>": 7177,
  "응답": 14993,
  "조선</w>": 12836,
  "하려면</w>": 9791,
  "as": 8127,
  "확보": 10575,
  "받습니다</w>": 16307,
  "77": 14059,
  "사실": 8228,
  "사이트의</w>": 13307,
  "스트</w>": 8132,
  "짛</w>": 6756,
  "서에</w>": 11833,
  "계를</w>": 9703,
  "아들</w>": 11892,
  "연속": 14637,
  "ake</w>": 14245,
  "켘": 3718,
  "쐼": 2551,
  "담고</w>": 15146,
  "자신의</w>": 8214,
  "쑨": 2562,
  "플랫": 9882,
  "흥미": 11013,
  "욬</w>": 6341,
  "획득": 12852,
  "살펴": 9324,
  "셩</w>": 6089,
  "쐰": 2549,
  "채": 3459,
  "겯</w>": 7379,
  "서</w>": 4487,
  "꾀</w>": 6812,
  "품질</w>": 12622,
  "엸": 2760,
  "지적": 10278,
  "갈색</w>": 13765,
  "늰": 821,
  "멕시코</w>": 14738,
  "궘": 298,
  "페스티": 14098,
  "풰</w>": 7196,
  "꺅": 415,
  "잪": 3037,
  "차별": 10747,
  "판이</w>": 15850,
  "샓": 2196,
  "인생</w>": 14261,
  "빟</w>": 5970,
  "혿</w>": 6248,
  "퀸": 3796,
  "녘": 707,
  "었어요</w>": 14819,
  "mar": 12654,
  "막을</w>": 12438,
  "큘</w>": 6065,
  "파워": 10752,
  "따르면</w>": 9411,
  "소화": 12674,
  "세로</w>": 15160,
  "mer": 15230,
  "짐을</w>": 15658,
  "@": 25,
  "꽃</w>": 4719,
  "거죠</w>": 11998,
  "명한</w>": 9350,
  "임금": 15417,
  "전공": 11488,
  "결정을</w>": 12971,
  "필요합니다</w>": 13035,
  "튜</w>": 5565,
  "햞": 4257,
  "깦": 400,
  "렸습니다</w>": 10924,
  "마운": 13512,
  "로를</w>": 9725,
  "쏫</w>": 7287,
  "있을까요</w>": 12185,
  "Inter": 12234,
  "방법": 8043,
  "챙겨": 15822,
  "홈": 4330,
  "쥥</w>": 6828,
  "지역": 8073,
  "되었다</w>": 8289,
  "파티</w>": 11898,
  "훋": 4387,
  "kg</w>": 13140,
  "제주도</w>": 14754,
  "y</w>": 4659,
  "구현": 11147,
  "맞춤": 11979,
  "딕</w>": 5264,
  "잢": 3029,
  "몸을</w>": 10952,
  "선물</w>": 11305,
  "적합한</w>": 13996,
  "룾": 1434,
  "확실": 9256,
  "뜨": 1233,
  "퀏</w>": 7366,
  "킹": 3840,
  "이용하여</w>": 10604,
  "뮈": 1717,
  "롤</w>": 5156,
  "건데</w>": 15161,
  "에서부터</w>": 14029,
  "개를</w>": 9566,
  "꼄": 459,
  "국립": 11404,
  "충분한</w>": 13242,
  "언제든지</w>": 13762,
  "긁</w>": 5492,
  "쏮": 2534,
  "쓤": 2589,
  "곃": 196,
  "웜</w>": 5521,
  "주택": 9938,
  "ity</w>": 9687,
  "녹": 715,
  "이라는</w>": 8093,
  "펌</w>": 5087,
  "껼": 458,
  "위기</w>": 14090,
  "뾸": 2117,
  "곧</w>": 5839,
  "햝": 4256,
  "프로세": 10541,
  "다루": 11201,
  "덣": 906,
  "벡": 1843,
  "펱</w>": 7320,
  "하자</w>": 9591,
  "흙": 4447,
  "궢": 302,
  "달콤": 16363,
  "툐</w>": 7056,
  "얻은</w>": 14378,
  "홁": 4329,
  "릴": 1508,
  "꿁</w>": 7510,
  "감상": 10438,
  "냉장": 12118,
  "폭발": 14521,
  "제목": 12447,
  "봷": 1916,
  "그에</w>": 11354,
  "지금까지</w>": 10186,
  "렿": 1368,
  "이</w>": 4523,
  "뛰</w>": 6970,
  "케이": 8119,
  "서와</w>": 14899,
  "찪": 3441,
  "중앙": 9001,
  "가시": 13675,
  "사이</w>": 12014,
  "꿏": 531,
  "시작": 7988,
  "뭩</w>": 6773,
  "ion</w>": 8121,
  "마찬가지로</w>": 12399,
  "폼</w>": 5231,
  "칭": 3646,
  "헑": 4273,
  "비방글</w>": 11560,
  "선생님</w>": 12781,
  "거부": 10582,
  "라": 1266,
  "뙈": 1187,
  "뫙": 1663,
  "누군": 10510,
  "소비": 8595,
  "쓑": 2586,
  "14일</w>": 11996,
  "증가": 9275,
  "읻": 2995,
  "업그레이드</w>": 15682,
  "휍</w>": 7395,
  "점심</w>": 13841,
  "똻</w>": 7120,
  "쥰</w>": 6058,
  "닸</w>": 7389,
  "치의</w>": 13998,
  "깪</w>": 6493,
  "앿": 2674,
  "릱": 1505,
  "로드": 12027,
  "괵": 247,
  "엉</w>": 5489,
  "?)</w>": 9519,
  "호텔에는</w>": 13534,
  "스마트": 8697,
  "숀": 2330,
  "쮸": 3406,
  "Res": 14145,
  "즐길</w>": 10272,
  "문서는</w>": 11491,
  "제어</w>": 13055,
  "출발</w>": 11463,
  "눼</w>": 6112,
  "덪</w>": 6568,
  "의존": 10771,
  "노래</w>": 13051,
  "스키": 11219,
  "반대로</w>": 13920,
  "촌</w>": 4995,
  "네요</w>": 8029,
  "킈</w>": 7049,
  "똥": 1178,
  "학생</w>": 9312,
  "뽜</w>": 7622,
  "압</w>": 5424,
  "었": 2722,
  "갃": 86,
  "방에서</w>": 14846,
  "뮤지": 11899,
  "사업자": 15990,
  "몫</w>": 5971,
  "작업": 8484,
  "한국어</w>": 14373,
  "륩": 1465,
  "끌고</w>": 15588,
  "쯩": 3418,
  "앎</w>": 6251,
  "뭥</w>": 7239,
  "유기": 12742,
  "인공": 9500,
  "륙": 1460,
  "언어</w>": 11002,
  "덩</w>": 5319,
  "세계의</w>": 12060,
  "르고</w>": 9485,
  "화려": 11913,
  "으로도</w>": 9132,
  "잀": 3000,
  "뽕": 2104,
  "쪗": 3352,
  "한인": 14480,
  "이론</w>": 10668,
  "헙</w>": 5694,
  "욤</w>": 5305,
  "리게</w>": 12866,
  "몈</w>": 7458,
  "책</w>": 4612,
  "자원": 10142,
  "정원</w>": 12352,
  "꼩</w>": 7676,
  "트랙백</w>": 15640,
  "모를</w>": 12141,
  "훔": 4395,
  "행정</w>": 14057,
  "썼": 2500,
  "시작한</w>": 12171,
  "주기</w>": 12144,
  "챘": 3468,
  "롁": 1370,
  "ik": 13363,
  "실천": 10693,
  "탼</w>": 6971,
  "11</w>": 8620,
  "화": 4338,
  "슡": 2394,
  "섯": 2239,
  "땁": 1099,
  "천천히</w>": 14410,
  "요금": 10019,
  "페이스북": 14191,
  "소설</w>": 12750,
  "말해</w>": 13969,
  "잘</w>": 4968,
  "미터</w>": 9651,
  "볍</w>": 7252,
  "콧": 3742,
  "도박": 12040,
  "전": 3076,
  "자바": 13114,
  "마르": 11798,
  "통": 3935,
  "콜</w>": 4638,
  "제공하고</w>": 12182,
  "마이": 8619,
  "엤": 2742,
  "설립": 11078,
  "졌습니다</w>": 11847,
  "대상이</w>": 14766,
  "여러분</w>": 12341,
  "1문의하기를</w>": 11557,
  "퀏": 3784,
  "어린이</w>": 10334,
  "댕": 879,
  "쩬": 3341,
  "컹</w>": 6111,
  "어로</w>": 11120,
  "유형</w>": 12288,
  "않으면</w>": 9950,
  "튤": 3989,
  "삵</w>": 6113,
  "다며</w>": 13347,
  "눌</w>": 6016,
  "HO": 11884,
  "웓": 2889,
  "쌩</w>": 5755,
  "써</w>": 4765,
  "2016년</w>": 9960,
  "준다</w>": 9543,
  "뻠</w>": 7651,
  "녤": 712,
  "슛": 2392,
  "젗</w>": 6830,
  "교사</w>": 12292,
  "뎽</w>": 7229,
  "aver</w>": 14523,
  "쌱</w>": 7313,
  "긍</w>": 5930,
  "디스플레이</w>": 14325,
  "꽐": 492,
  "a": 55,
  "사진</w>": 8307,
  "쟹": 3071,
  "칚": 3635,
  "킸": 3839,
  "계정</w>": 12879,
  "꽌</w>": 6554,
  "애</w>": 4923,
  "린</w>": 4812,
  "인쇄</w>": 14747,
  "전용</w>": 11071,
  "7": 20,
  "콭</w>": 7165,
  "항상</w>": 8830,
  "여자": 8778,
  "mon": 11859,
  "줜": 3204,
  "볓</w>": 6912,
  "쫄</w>": 6711,
  "피부</w>": 12900,
  "교보": 9342,
  "옛날</w>": 15710,
  "눌러</w>": 16368,
  "등을</w>": 8074,
  "뒥": 1029,
  "패턴": 13025,
  "클럽": 12148,
  "읫</w>": 7037,
  "기사를</w>": 13803,
  "썁": 2482,
  "틜": 4014,
  "뤃": 1437,
  "정리": 9512,
  "몈": 1625,
  "신분": 15058,
  "훙": 4399,
  "빗": 2013,
  "멪</w>": 7042,
  "간절": 16277,
  "퀄": 3782,
  "경우를</w>": 13960,
  "룜": 1420,
  "뤡": 1445,
  "밖으로</w>": 14758,
  "하락": 15785,
  "교회</w>": 9269,
  "등에서</w>": 13424,
  "관심이</w>": 10580,
  "죽": 3184,
  "레스토랑": 11470,
  "띁": 1248,
  "현장": 12025,
  "손님": 13556,
  "세미": 11335,
  "있나요</w>": 10175,
  "듄</w>": 6282,
  "떽</w>": 6528,
  "에</w>": 4488,
  "펼쳐": 11942,
  "욷": 2865,
  "캵</w>": 7361,
  "실행": 9313,
  "이야": 7987,
  "기관": 8752,
  "툥</w>": 6122,
  "듐</w>": 5361,
  "net</w>": 10532,
  "껐</w>": 7600,
  "킙": 3830,
  "본부</w>": 14198,
  "블로그</w>": 8968,
  "앴": 2666,
  "뎐": 936,
  "걁</w>": 6226,
  "지구</w>": 11963,
  "성인": 10823,
  "즐겁게</w>": 14506,
  "날": 603,
  "M</w>": 4939,
  "숍": 2333,
  "때에</w>": 12253,
  "은혜": 14206,
  "늑": 800,
  "해주세요</w>": 9987,
  "성에</w>": 8758,
  "닙</w>": 5756,
  "퓯": 4177,
  "차단": 13227,
  "모든</w>": 7910,
  "문의</w>": 8690,
  "번</w>": 4798,
  "izz": 16181,
  "번역</w>": 12762,
  "쏫": 2531,
  "out</w>": 15241,
  "얀</w>": 5472,
  "제거</w>": 13336,
  "탤": 3870,
  "튼</w>": 4587,
  "해피캠퍼": 10955,
  "틍</w>": 6087,
  "툉</w>": 6896,
  "회담</w>": 12050,
  "자꾸</w>": 13039,
  "자와</w>": 9117,
  "궐</w>": 5801,
  "켜": 3722,
  "이지</w>": 9537,
  "정책을</w>": 12706,
  "뚜": 1196,
  "과도": 15527,
  "자유</w>": 13072,
  "너를</w>": 12033,
  "니트</w>": 15772,
  "쁡": 2148,
  "좇": 3144,
  "대부분</w>": 9552,
  "첌</w>": 7268,
  "브루": 11725,
  "씔": 2611,
  "브루넷</w>": 14538,
  "햬</w>": 7046,
  "국내": 9128,
  "랭": 1296,
  "기업</w>": 8639,
  "인터넷</w>": 8240,
  "폐기": 15225,
  "잘못": 9495,
  "볷": 1884,
  "화려한</w>": 13810,
  "쐄</w>": 6062,
  "쫴": 3376,
  "약을</w>": 10566,
  "st</w>": 13472,
  "읜": 2980,
  "진출": 10927,
  "완": 2814,
  "석이</w>": 13615,
  "가운</w>": 15143,
  "깅</w>": 5616,
  "반복": 10571,
  "논문": 16171,
  "내용에</w>": 12944,
  "모르겠지만</w>": 15020,
  "잙</w>": 7088,
  "껠": 448,
  "쎠": 2513,
  "티브": 15718,
  "뻡</w>": 5803,
  "얨": 2699,
  "출신": 14938,
  "애플": 9862,
  "펱": 4094,
  "민족": 10530,
  "거시기</w>": 13048,
  "핀": 4198,
  "쒛": 2574,
  "궸": 313,
  "no": 15151,
  "오랫": 13164,
  "깩</w>": 6482,
  "동생": 13610,
  "상에</w>": 10265,
  "중심의</w>": 15803,
  "자인</w>": 12554,
  "이름은</w>": 13554,
  "그때</w>": 11361,
  "인생의</w>": 15961,
  "분평로</w>": 13962,
  "엍": 2727,
  "땨": 1117,
  "조성": 12437,
  "사와</w>": 9831,
  "체크</w>": 13150,
  "병원": 12303,
  "퍼센트</w>": 14517,
  "ep": 10156,
  "탴": 3876,
  "찐": 3425,
  "유럽": 9711,
  "휄": 4416,
  "찦": 3437,
  "아들": 12235,
  "골드": 16199,
  "화로</w>": 16071,
  "A</w>": 4648,
  "보이고</w>": 11604,
  "과정에</w>": 14897,
  "닒</w>": 6479,
  "뫜</w>": 5602,
  "버튼을</w>": 11306,
  "츨</w>": 5974,
  "화학</w>": 14718,
  "봙": 1906,
  "내가</w>": 8053,
  "몱": 1643,
  "낛": 599,
  "뷱": 1976,
  "ight": 15370,
  "쯤</w>": 4715,
  "Man": 12273,
  "강우": 12794,
  "자고</w>": 11682,
  "빵</w>": 5212,
  "내년</w>": 12395,
  "ay</w>": 9044,
  "큡": 3810,
  "사건을</w>": 15701,
  "수로</w>": 10964,
  "힛</w>": 6077,
  "해주": 8034,
  "이혼": 15413,
  "거리에</w>": 9786,
  "짅": 3258,
  "mat": 15823,
  "숏": 2334,
  "뽁": 2095,
  "방송</w>": 9343,
  "륫</w>": 6761,
  "뾃</w>": 7641,
  "쵭": 3560,
  "Pl": 10232,
  "닥</w>": 5239,
  "말이</w>": 9465,
  "솓": 2292,
  "2위</w>": 15135,
  "안": 2634,
  "n": 68,
  "신고</w>": 11020,
  "띳</w>": 7302,
  ":": 23,
  "팹": 4058,
  "시내</w>": 14935,
  "핥</w>": 6943,
  "듣는</w>": 13935,
  "min": 12315,
  "뼈": 2080,
  "메모리</w>": 12682,
  "쉑": 2364,
  "사운": 13192,
  "밎</w>": 6422,
  "베팅</w>": 12336,
  "럇</w>": 7218,
  "18</w>": 9064,
  "데이터": 8361,
  "ig": 8465,
  "을때</w>": 13386,
  "푤": 4140,
  "소서</w>": 12492,
  "발생하는</w>": 12104,
  "났": 611,
  "아파트": 12055,
  "나가</w>": 13194,
  "갞": 110,
  "가죽</w>": 15672,
  "혱</w>": 7578,
  "결과가</w>": 12266,
  "숸</w>": 7322,
  "댇</w>": 6963,
  "넣": 671,
  "드럽": 15910,
  "전반": 10857,
  "굉</w>": 6622,
  "길은</w>": 15774,
  "안전하게</w>": 15372,
  "레이</w>": 9008,
  "챃": 3458,
  "나가": 10116,
  "닌": 829,
  "쫙</w>": 6040,
  "넷의</w>": 10617,
  "Di": 13058,
  "투스</w>": 14216,
  "현황": 13799,
  "udi": 13322,
  "곙": 204,
  "있다": 11900,
  "껙": 445,
  "보호를</w>": 10724,
  "rig": 14100,
  "수용": 11768,
  "셈": 2256,
  "역을</w>": 11988,
  "싪": 2436,
  "법인": 13590,
  "뻔": 2064,
  "지식</w>": 14088,
  "개인</w>": 9055,
  "눴</w>": 5615,
  "쟇": 3052,
  "되었고</w>": 10840,
  "곰</w>": 5362,
  "직</w>": 4747,
  "18": 8223,
  "쀍</w>": 7311,
  "기록했다</w>": 13972,
  "뻥</w>": 6118,
  "뱇</w>": 6652,
  "도대체</w>": 14405,
  "꿰</w>": 7351,
  "갖추고</w>": 13921,
  "문이</w>": 11761,
  "갏</w>": 7791,
  "(?)</w>": 10180,
  "욘</w>": 5929,
  "뗇</w>": 7428,
  "통해서</w>": 9872,
  "목": 1636,
  "기지</w>": 15136,
  "아래": 8546,
  "욯</w>": 6292,
  "굅</w>": 7767,
  "죽을</w>": 15080,
  "휫": 4431,
  "듄": 1039,
  "고": 206,
  "으로는</w>": 8815,
  "시원": 11605,
  "퍈</w>": 7275,
  "30": 8071,
  "더블": 12468,
  "샛": 2199,
  "SA": 13177,
  "검사</w>": 10671,
  "사랑을</w>": 10412,
  "꾄</w>": 6986,
  "갷": 123,
  "뉜</w>": 6249,
  "고마": 14626,
  "얩": 2700,
  "11월</w>": 9712,
  "쥐</w>": 5338,
  "도착": 9833,
  "요소</w>": 9307,
  "벴": 1852,
  "뭴": 1715,
  "쵭</w>": 6154,
  "춧": 3585,
  "소식</w>": 11889,
  "릀</w>": 7648,
  "캉": 3662,
  "이라도</w>": 9785,
  "롴</w>": 6189,
  "랄": 1271,
  "하게</w>": 7865,
  "댸</w>": 6786,
  "해야</w>": 7960,
  "반대": 10998,
  "보시면</w>": 14540,
  "멩</w>": 6410,
  "가운데</w>": 9043,
  "석은</w>": 14400,
  "욪": 2853,
  "호주</w>": 13517,
  "하나님의</w>": 9468,
  "오는</w>": 8173,
  "뒹</w>": 7535,
  "기만</w>": 11753,
  "렢</w>": 6169,
  "정도가</w>": 14739,
  "깝</w>": 6104,
  "헹</w>": 6299,
  "멱</w>": 6895,
  "잃</w>": 7813,
  "먈</w>": 7356,
  "돞</w>": 7191,
  "용": 2852,
  "그렇지만</w>": 14756,
  "시에는</w>": 9120,
  "낄": 590,
  "원래</w>": 10599,
  "보내고</w>": 14476,
  "풍경": 14801,
  "원을</w>": 8498,
  "쨔": 3310,
  "튽": 3997,
  "55</w>": 13451,
  "똔</w>": 6433,
  "ed</w>": 8207,
  "묽</w>": 6529,
  "나타": 8283,
  "된</w>": 4641,
  "사용하여</w>": 9883,
  "닛</w>": 4953,
  "오버워": 12949,
  "31일</w>": 14081,
  "종교": 10316,
  "옙</w>": 7580,
  "lis": 13095,
  "체에</w>": 13809,
  "렏": 1342,
  "획": 4365,
  "퐐</w>": 7003,
  "EX": 16026,
  "작가</w>": 12316,
  "퀼</w>": 6064,
  "휀</w>": 5960,
  "ree</w>": 12483,
  "솩</w>": 6817,
  "정리</w>": 10983,
  "벫": 1848,
  "장</w>": 4539,
  "소수": 15369,
  "수는</w>": 8406,
  "즉</w>": 5750,
  "저작권법의</w>": 13123,
  "뉼</w>": 6014,
  "갣": 112,
  "평창": 14056,
  "콘서": 12163,
  "맃</w>": 6724,
  "스크립": 11216,
  "않습니다</w>": 8169,
  "기억이</w>": 13913,
  "틴": 4022,
  "땀</w>": 5675,
  "떳</w>": 6283,
  "봬</w>": 7100,
  "탄생": 12839,
  "아프리": 12581,
  "아닌가</w>": 11187,
  "최대</w>": 8792,
  "없으며</w>": 11577,
  "중고</w>": 15279,
  "늘</w>": 5318,
  "몪</w>": 6747,
  "밬": 1791,
  "18일</w>": 12136,
  "성기</w>": 15583,
  "데리고</w>": 16103,
  "개념</w>": 10762,
  "개정": 11030,
  "el</w>": 9212,
  "로봇": 13453,
  "처음": 8649,
  "개최</w>": 10529,
  "것이고</w>": 11173,
  "크게</w>": 8834,
  "톩": 3931,
  "정규직</w>": 14862,
  "눟": 772,
  "구체": 10115,
  "횽": 4380,
  "챰</w>": 6091,
  "췌": 3599,
  "볗": 1875,
  "맙</w>": 5942,
  "싢": 2428,
  "22</w>": 10191,
  "샷</w>": 5251,
  "외교": 13375,
  "ww": 9130,
  "쮠</w>": 7423,
  "됭": 997,
  "없었다</w>": 9336,
  "올림픽</w>": 11152,
  "곯</w>": 6610,
  "령</w>": 4807,
  "겊": 160,
  "HD</w>": 10558,
  "꽆": 486,
  "원하는</w>": 8966,
  "자도</w>": 13435,
  "람</w>": 5040,
  "깔</w>": 5246,
  "귪": 331,
  "분들이</w>": 10014,
  "즈를</w>": 13746,
  "녅": 697,
  "푹</w>": 6509,
  "트에</w>": 10038,
  "숲</w>": 5440,
  "인조</w>": 14595,
  "ation": 10761,
  "뻘</w>": 6073,
  "푈": 4136,
  "쉅": 2360,
  "남겨주세요</w>": 14704,
  "경기를</w>": 11159,
  "않아서</w>": 13855,
  "쵯": 3561,
  "싕": 2421,
  "곸": 221,
  "에만</w>": 9884,
  "썲": 2496,
  "헴": 4294,
  "귀": 316,
  "풍속은</w>": 15514,
  "사람들</w>": 9996,
  "중에서</w>": 10165,
  "고객의</w>": 13224,
  "착한</w>": 16256,
  "최근": 10011,
  "밐": 1764,
  "힜": 4474,
  "호텔로</w>": 15155,
  "세의</w>": 14333,
  "형식": 15950,
  "겠어요</w>": 12477,
  "춢": 3581,
  "라면</w>": 9140,
  "서핑": 9673,
  "긷": 366,
  "느낌을</w>": 12941,
  "빙</w>": 5314,
  "펨": 4089,
  "1일부터</w>": 15407,
  "꺆</w>": 7274,
  "in</w>": 8218,
  "는건</w>": 15256,
  "벤": 1844,
  "륜": 1462,
  "모습은</w>": 15538,
  "아이들의</w>": 16032,
  "웝</w>": 6738,
  "호는</w>": 15767,
  "홫</w>": 6355,
  "부과": 15479,
  "욛</w>": 7503,
  "쏠</w>": 6309,
  "성한</w>": 15389,
  "붇": 1940,
  "쁌": 2142,
  "느냐</w>": 11776,
  "하기로</w>": 10658,
  "갘": 104,
  "축구": 9335,
  "중</w>": 4494,
  "아래에</w>": 15273,
  "번": 1825,
  "않아</w>": 10005,
  "처리": 8358,
  "믿을</w>": 14590,
  "이니</w>": 11146,
  "소요": 12614,
  "시</w>": 4597,
  "좋게</w>": 13694,
  "퓁": 4166,
  "힌</w>": 5443,
  "그와</w>": 14867,
  "넾</w>": 7495,
  "쭈": 3390,
  "유료": 15626,
  "하는데</w>": 8344,
  "강화": 10109,
  "물을</w>": 8225,
  "표현</w>": 14243,
  "중요한</w>": 8472,
  "복사</w>": 11179,
  "He": 15490,
  "역대</w>": 12474,
  "봐도</w>": 11575,
  "쯔</w>": 5636,
  "근로": 10501,
  "먹고</w>": 9498,
  "구체적인</w>": 13743,
  "댓": 877,
  "단": 848,
  "수준</w>": 12851,
  "촞": 3542,
  "켈": 3712,
  "곈": 199,
  "카드</w>": 8849,
  "엘</w>": 5049,
  "료가</w>": 11775,
  "탰</w>": 7802,
  "같</w>": 5660,
  "없고</w>": 9229,
  "일요일</w>": 15884,
  "얘기를</w>": 13470,
  "슬": 2401,
  "]</w>": 5519,
  "싈</w>": 7150,
  "궨</w>": 7640,
  "설</w>": 4554,
  "축적된</w>": 13834,
  "아저": 14920,
  "헫</w>": 6810,
  "켸": 3733,
  "앎": 2640,
  "법을</w>": 9861,
  "A": 26,
  "콥</w>": 5795,
  "ill": 11543,
  "IF": 12969,
  "품": 4153,
  "남자가</w>": 15973,
  "기원": 15972,
  "그리고</w>": 7921,
  "개인정보의</w>": 13131,
  "뀄": 548,
  "카메라</w>": 10638,
  "코": 3735,
  "마인": 15590,
  "떧": 1133,
  "이거나</w>": 12812,
  "댛": 882,
  "켸</w>": 6199,
  "있으면</w>": 9476,
  "쀠": 2138,
  "젹</w>": 5866,
  "조작": 12716,
  "붓</w>": 4850,
  "뎊": 933,
  "uss": 15104,
  "섥": 2231,
  "오류": 11104,
  "샘</w>": 5349,
  "스턴</w>": 13286,
  "이탈리아</w>": 13111,
  "프의</w>": 16022,
  "프리": 8566,
  "계층": 15468,
  "Car": 15855,
  "yrics</w>": 13321,
  "셜": 2270,
  "저희</w>": 10230,
  "뮴</w>": 6114,
  "욯": 2858,
  "큿": 3821,
  "녂</w>": 7542,
  "랖": 1283,
  "쥽": 3233,
  "꼴": 477,
  "녜</w>": 5645,
  "정보": 7886,
  "쒸": 2580,
  "빚</w>": 5682,
  "땔": 1109,
  "저기</w>": 15657,
  "그레이</w>": 16104,
  "그렇다면</w>": 11492,
  "논란</w>": 15234,
  "쉴</w>": 6051,
  "소프트웨": 11813,
  "퀄</w>": 5704,
  "여부</w>": 11904,
  "창</w>": 4736,
  "셯": 2276,
  "눚": 769,
  "ie</w>": 13719,
  "란다</w>": 11924,
  "킁": 3822,
  "변경": 8448,
  "전국": 10453,
  "챦": 3479,
  "드리겠습니다</w>": 9013,
  "슸": 2410,
  "즞</w>": 6594,
  "상세": 10797,
  "1": 14,
  "숔": 2336,
  "잡아": 12864,
  "뫂": 1655,
  "팼</w>": 7636,
  "없어</w>": 9927,
  "꿍": 529,
  "드</w>": 4616,
  "비가</w>": 9780,
  "왐</w>": 6187,
  "읁": 2955,
  "뉄</w>": 7643,
  "원인이</w>": 15637,
  "쭌": 3392,
  "캙": 3672,
  "챔</w>": 5836,
  "씽</w>": 6060,
  "한번": 10480,
  "뷰": 1975,
  "하신": 12241,
  "사이트</w>": 8135,
  "사로": 15887,
  "궃": 286,
  "공인": 13259,
  "똒": 1171,
  "푸</w>": 5276,
  "했던</w>": 8181,
  "바카라</w>": 15964,
  "노동": 8623,
  "홈</w>": 5347,
  "들과</w>": 8237,
  "탄</w>": 4985,
  "인간이</w>": 14174,
  "봣</w>": 7710,
  "항에</w>": 13671,
  "쏸</w>": 7717,
  "아웃</w>": 11536,
  "윷</w>": 6779,
  "벰": 1849,
  "의해서</w>": 9388,
  "헥</w>": 6478,
  "퍀": 4062,
  "셑</w>": 5610,
  "구의</w>": 11794,
  "아웃": 10686,
  "인물": 12228,
  "부분은</w>": 11232,
  "뭘": 1706,
  "쎰</w>": 6607,
  "페이스": 9562,
  "MER": 12339,
  "뚬": 1205,
  "의미합니다</w>": 16152,
  "볘": 1876,
  "Lyrics</w>": 13359,
  "칲</w>": 6455,
  "시각</w>": 14694,
  "식물": 14262,
  "일에는</w>": 15127,
  "in": 7869,
  "시스템": 8539,
  "결혼": 9245,
  "탁": 3847,
  "벙": 1835,
  "킾</w>": 7401,
  "않을</w>": 8709,
  "쎤</w>": 7309,
  "관계가</w>": 12948,
  "스에</w>": 9432,
  "재생</w>": 14194,
  "궉</w>": 6908,
  "깵": 408,
  "영양": 11721,
  "IT": 10119,
  "촘</w>": 6660,
  "들도</w>": 8528,
  "죳</w>": 7063,
  "셒</w>": 7689,
  "훕": 4396,
  "손흥": 15846,
  "트랙": 11086,
  "붕</w>": 5580,
  "파이": 9665,
  "꿜</w>": 5648,
  "곳이</w>": 10467,
  "1회</w>": 12000,
  "DA": 14290,
  "덷": 922,
  "룬": 1427,
  "보니</w>": 8415,
  "렦": 1355,
  "하셨습니다</w>": 14565,
  "블록체인</w>": 16119,
  "ual</w>": 14927,
  "보세요</w>": 9255,
  "퍀</w>": 7388,
  "무려</w>": 13479,
  "저는</w>": 8287,
  "벚": 1836,
  "옌</w>": 5375,
  "뭴</w>": 7693,
  "식에</w>": 13210,
  "훽": 4414,
  "적당": 14008,
  "솼": 2307,
  "또</w>": 4766,
  "템</w>": 4858,
  "띈": 1252,
  "영국": 11221,
  "롲": 1385,
  "선": 2227,
  "희": 4457,
  "가지고</w>": 8097,
  "벅": 1823,
  "편안": 9897,
  "인기</w>": 9847,
  "4년": 13895,
  "멷": 1617,
  "희망": 9571,
  "주문": 8900,
  "킻</w>": 7741,
  "려": 1353,
  "그럼": 13480,
  "앗": 2647,
  "와인</w>": 14820,
  "ear": 11055,
  "에요</w>": 9262,
  "셔</w>": 5363,
  "밪</w>": 6007,
  "찮</w>": 5140,
  "수음</w>": 12112,
  "아무래도</w>": 13381,
  "취소</w>": 11042,
  "마시기</w>": 15624,
  "어지": 11040,
  "관</w>": 4683,
  "젆": 3078,
  "끗</w>": 5434,
  "의한</w>": 9396,
  "늩": 817,
  "청주시</w>": 13236,
  "장기": 10127,
  "젭": 3103,
  "댛</w>": 7637,
  "낲": 617,
  "귬</w>": 7350,
  "떦": 1132,
  "시키기</w>": 14767,
  "밨": 1787,
  "팅을</w>": 11728,
  "괌": 232,
  "닠</w>": 6707,
  "여기에</w>": 10121,
  "쐐": 2546,
  "소개": 8396,
  "inter": 15700,
  "곻</w>": 5988,
  "당</w>": 4642,
  "시에</w>": 8445,
  "즁</w>": 5259,
  "어의</w>": 11079,
  "선언": 11730,
  "질을</w>": 10118,
  "휼": 4436,
  "티켓</w>": 13606,
  "잨": 3035,
  "텁": 3893,
  "쇼핑</w>": 12577,
  "혹": 4325,
  "아이디당</w>": 11563,
  "받침": 15486,
  "둟": 1011,
  "뤼": 1451,
  "꾼</w>": 5152,
  "홣": 4348,
  "핻</w>": 7246,
  "옂": 2769,
  "종합</w>": 12822,
  "셋</w>": 4906,
  "아야</w>": 10161,
  "ong</w>": 12774,
  "젆</w>": 7036,
  "컘": 3692,
  "빇</w>": 7335,
  "Jo": 15660,
  "참고하십시오</w>": 12534,
  "볶</w>": 6236,
  "Tube</w>": 11656,
  "변호사</w>": 16064,
  "수영": 9662,
  "렁</w>": 5085,
  "안타까": 16332,
  "냅": 626,
  "긴</w>": 4759,
  "AI": 15036,
  "솁</w>": 7294,
  "꿋": 528,
  "들지</w>": 16188,
  "쩟": 3335,
  "모습</w>": 11455,
  "상품": 8041,
  "읽어": 11528,
  "계획서</w>": 15438,
  "수준": 8875,
  "랽": 1305,
  "휴가</w>": 13829,
  "겱": 183,
  "것들</w>": 16156,
  "됫</w>": 7382,
  "참가</w>": 13772,
  "색을</w>": 14187,
  "대하여</w>": 8770,
  "칠</w>": 5329,
  "뗴</w>": 6484,
  "장비": 14764,
  "랼": 1304,
  "호의</w>": 12512,
  "못할</w>": 12062,
  "쯜": 3414,
  "옜</w>": 6940,
  "싸": 2450,
  "광고</w>": 9263,
  "이상한</w>": 13328,
  "9페이지</w>": 12392,
  "가까": 8862,
  "에의</w>": 16309,
  "렴": 1359,
  "혁": 4302,
  "로그": 8187,
  "해소": 15194,
  "겧": 175,
  "없다면</w>": 15103,
  "감각": 15346,
  "리라</w>": 11170,
  "묠": 1674,
  "전파": 15826,
  "뷱</w>": 6871,
  "윛": 2927,
  "챜": 3472,
  "하나": 7919,
  "ave</w>": 16012,
  "경쟁</w>": 14638,
  "겺": 188,
  "본": 1885,
  "궭": 307,
  "가요</w>": 8660,
  "저지": 14359,
  "어리": 13807,
  "턉": 3883,
  "자료를</w>": 11074,
  "주관": 14027,
  "형태로</w>": 12038,
  "예방": 10738,
  "빜</w>": 6909,
  "뚝</w>": 5572,
  "솥</w>": 5523,
  "푯</w>": 6982,
  "투입": 14928,
  "복잡한</w>": 14361,
  "냇": 627,
  "56</w>": 15671,
  "뮘": 1720,
  "\u001e</w>": 7487,
  "등도</w>": 15332,
  "쩨": 3340,
  "스러": 8883,
  "틜</w>": 7608,
  "일어난</w>": 16200,
  "팃</w>": 6170,
  "믈</w>": 5774,
  "프레임": 14996,
  "아울": 13687,
  "딤</w>": 5527,
  "d</w>": 4520,
  "쏟": 2527,
  "내리": 14826,
  "뚠": 1199,
  "view</w>": 14719,
  "쏘</w>": 4796,
  "휸</w>": 7532,
  "저작권침해</w>": 9860,
  "사실을</w>": 9879,
  "탸</w>": 6854,
  "옭": 2793,
  "깢</w>": 7098,
  "위치를</w>": 13115,
  "SS": 10727,
  "신선한</w>": 16306,
  "년도</w>": 9961,
  "적이다</w>": 12360,
  "얐</w>": 6231,
  "앞에</w>": 9576,
  "산에</w>": 15156,
  "걷": 146,
  "솨": 2302,
  "껩</w>": 6987,
  "\u001f": 3,
  "덧": 910,
  "현대": 8615,
  "중에서도</w>": 14774,
  "싿</w>": 6028,
  "자격</w>": 13720,
  "됸": 1000,
  "en": 7933,
  "r</w>": 4529,
  "럄</w>": 7139,
  "어울": 11290,
  "즐기실</w>": 15072,
  "챁</w>": 6827,
  "쨜</w>": 7639,
  "3대</w>": 15778,
  "큥</w>": 6233,
  "별로</w>": 9060,
  "밀한</w>": 15766,
  "엌</w>": 6117,
  "직원들이</w>": 16362,
  "수익": 10360,
  "쫜</w>": 7222,
  "레벨</w>": 16178,
  "구역": 13103,
  "탶</w>": 7365,
  "공화": 12699,
  "이처럼</w>": 13335,
  "꺆": 416,
  "씜": 2612,
  "럇": 1308,
  "추구": 13009,
  "완벽": 9867,
  "망": 1541,
  "20": 7853,
  "맞춤형</w>": 16044,
  "뿐이다</w>": 11803,
  "굗</w>": 7734,
  "쀠</w>": 6556,
  "카테고": 9582,
  "편을</w>": 15118,
  "꿂": 523,
  "0": 13,
  "퐤": 4132,
  "먁": 1565,
  "살아가는</w>": 14103,
  "라이브</w>": 12632,
  "바다</w>": 12109,
  "님께</w>": 12059,
  "바라": 9099,
  "폭력</w>": 16043,
  "쫭": 3374,
  "검토</w>": 14052,
  "\u001c</w>": 6413,
  "활용할</w>": 14524,
  "로</w>": 4495,
  "쏨</w>": 6504,
  "긺</w>": 7724,
  "귬": 332,
  "퀸</w>": 5596,
  "섴</w>": 7623,
  "띨</w>": 6032,
  "잿</w>": 6500,
  "객관": 14383,
  "대신</w>": 9822,
  "펼</w>": 7465,
  "저녁</w>": 10534,
  "빛": 2016,
  "맹": 1558,
  "곺</w>": 6057,
  "방어": 15343,
  "야": 2672,
  "올리": 10067,
  "37": 11903,
  "횰</w>": 7167,
  "섳": 2243,
  "전국</w>": 10484,
  "ice</w>": 9771,
  "굄</w>": 4819,
  "쩬</w>": 6585,
  "살아": 8680,
  "뿧</w>": 7525,
  "커": 3693,
  "찬</w>": 4805,
  "묏": 1670,
  "말도</w>": 12887,
  "뭌": 1698,
  "참고</w>": 11061,
  "버스": 14237,
  "붙</w>": 6289,
  "세계": 8112,
  "공공": 9954,
  "쐰</w>": 6039,
  "갠": 111,
  "체험</w>": 12342,
  "통계": 12282,
  "틘</w>": 7593,
  "렁": 1335,
  "갲": 120,
  "아시아": 10854,
  "받아야</w>": 13493,
  "뿡": 2130,
  "고객</w>": 9977,
  "엶": 2758,
  "jo": 15233,
  "며": 1612,
  "대구": 10515,
  "럠": 1313,
  "넮": 679,
  "당뇨": 15400,
  "췻</w>": 6671,
  "소송": 12442,
  "욹</w>": 5878,
  "짯": 3293,
  "리로</w>": 10974,
  "녋": 701,
  "구성된</w>": 14864,
  "배포": 12127,
  "역시</w>": 8330,
  "분수</w>": 14705,
  "초</w>": 4852,
  "땋</w>": 7202,
  "테스트": 11288,
  "해를</w>": 10711,
  "어</w>": 4517,
  "략</w>": 4814,
  "읂": 2956,
  "에게서</w>": 12418,
  "옵션": 14548,
  "당첨": 12240,
  "꼉</w>": 7349,
  "신": 2426,
  "뗏": 1152,
  "룟": 1422,
  "바꾸": 10135,
  "나왔": 11294,
  "증명": 10882,
  "춣": 3582,
  "지난달</w>": 14202,
  "발생한</w>": 11901,
  "회의": 9065,
  "쿅": 3764,
  "캠퍼": 9750,
  "랒</w>": 7310,
  "라인</w>": 11289,
  "고에서</w>": 9544,
  "쑹": 2567,
  "것처럼</w>": 9744,
  "잫": 3038,
  "괜": 241,
  "빇": 2005,
  "위의</w>": 9459,
  "쓿</w>": 7066,
  "빋": 2007,
  "윔</w>": 6481,
  "지역에서</w>": 14131,
  "쩻": 3344,
  "비방": 11106,
  "맦": 1550,
  "코드</w>": 9475,
  "성공": 8507,
  "중심": 8501,
  "햑": 4252,
  "옛": 2782,
  "몉</w>": 7376,
  "쟀</w>": 6701,
  "ta": 13820,
  "붂": 1936,
  "2009년</w>": 13495,
  "쉐</w>": 5071,
  "유리": 11265,
  "워싱": 13957,
  "방문</w>": 10817,
  "쏠": 2528,
  "날은</w>": 11375,
  "지닌</w>": 15613,
  "주인</w>": 16241,
  "큁": 3798,
  "옰": 2796,
  "킨다</w>": 14180,
  "ears</w>": 15409,
  "헛</w>": 6386,
  "빩": 2027,
  "댐</w>": 5623,
  "순": 2341,
  "p": 70,
  "귱": 334,
  "횧": 4373,
  "릲</w>": 7819,
  "씽": 2626,
  "증권": 15081,
  "16": 8230,
  "종합": 9474,
  "하시": 7981,
  "소통</w>": 16138,
  "덗": 897,
  "사람</w>": 8310,
  "상태에서</w>": 12845,
  "돈이</w>": 12065,
  "다시": 10691,
  "하나님": 8764,
  "으로의</w>": 14698,
  "처음</w>": 8818,
  "9일</w>": 12031,
  "머리</w>": 9398,
  "푯": 4142,
  "고객센터</w>": 10447,
  "쀼</w>": 6888,
  "늍</w>": 7749,
  "똟": 1175,
  "원장</w>": 15137,
  "하는법</w>": 13866,
  "길이</w>": 10603,
  "험</w>": 4754,
  "뻘": 2066,
  "퀘": 3787,
  "뉍": 782,
  "쓴": 2595,
  "캔</w>": 4967,
  "현대</w>": 10567,
  "짖</w>": 6382,
  "ir": 8667,
  "방명": 13582,
  "프": 4182,
  "짋": 3263,
  "쫓</w>": 6008,
  "앓": 2643,
  "읕": 2975,
  "땜": 1111,
  "폭</w>": 5113,
  "버튼": 9979,
  "쌱": 2478,
  "업</w>": 4518,
  "를</w>": 4490,
  "신고해주시면</w>": 9873,
  "파일": 10419,
  "홐": 4334,
  "적극</w>": 14533,
  "이스라": 11631,
  "일본": 8149,
  "띕": 1255,
  "하거나</w>": 8282,
  "KT": 13257,
  "퐈": 4125,
  "니다</w>": 7841,
  "포기": 11197,
  "지역은</w>": 14957,
  "쑝": 2558,
  "긋": 350,
  "내부</w>": 11121,
  "맂": 1516,
  "어쨌든</w>": 15567,
  "신용": 9469,
  "힙": 4472,
  "밧": 1786,
  "굨</w>": 7345,
  "밴": 1798,
  "쨰": 3318,
  "땍</w>": 6044,
  "다만</w>": 8678,
  "학의</w>": 11846,
  "금을</w>": 9174,
  "뵘": 1923,
  "필요가</w>": 9359,
  "90</w>": 11396,
  "웹캠</w>": 14789,
  "찟": 3432,
  "귱</w>": 7186,
  "웱</w>": 7635,
  "종": 3142,
  "어에</w>": 13764,
  "쿠</w>": 4628,
  "맛</w>": 4982,
  "타인의</w>": 13313,
  "전공</w>": 13990,
  "대부분의</w>": 10326,
  "텤": 3912,
  "쏵": 2538,
  "커</w>": 4885,
  "s": 73,
  "엗</w>": 6993,
  "운전": 10942,
  "웃": 2875,
  "팦</w>": 7115,
  "들</w>": 4533,
  "방식으로</w>": 11117,
  "다이어": 10504,
  "룀": 1408,
  "기울": 12169,
  "중을</w>": 15512,
  "전과</w>": 14286,
  "없습니다</w>": 8090,
  "컾</w>": 6514,
  "함께하는</w>": 13601,
  "뺐": 2044,
  "en</w>": 8940,
  "몯": 1641,
  "쩁</w>": 5961,
  "림이</w>": 15873,
  "훽</w>": 4865,
  "뒷": 1034,
  "믓": 1736,
  "붰": 1959,
  "기반의</w>": 16375,
  "버</w>": 4549,
  "여러가지</w>": 12871,
  "얜</w>": 7280,
  "궥": 304,
  "디지털</w>": 10013,
  "앧": 2659,
  "켓": 3715,
  "쏍": 2522,
  "민들레</w>": 13218,
  "갑자기</w>": 10611,
  "톈": 3925,
  "퐑": 4129,
  "전략</w>": 9694,
  "Q</w>": 4919,
  "it</w>": 9643,
  "교수</w>": 10060,
  "좋다고</w>": 15712,
  "썜</w>": 6346,
  "가치": 9253,
  "적립": 11812,
  "온라인</w>": 8905,
  "띠</w>": 4839,
  "발": 1776,
  "긩": 362,
  "토론": 10077,
  "쒸</w>": 6353,
  "얬": 2703,
  "끎": 571,
  "썠": 2488,
  "이해": 8300,
  "치면</w>": 15179,
  "솔": 2293,
  "단순한</w>": 13995,
  "슈</w>": 4990,
  "뿨": 2133,
  "서초": 15918,
  "힛": 4473,
  "밃": 1755,
  "엔": 2733,
  "높이</w>": 14305,
  "작성</w>": 10283,
  "일자</w>": 15015,
  "룍</w>": 6530,
  "오디오</w>": 14278,
  "새": 2190,
  "경우가</w>": 9357,
  "기회</w>": 16128,
  "갭": 116,
  "쒴</w>": 7015,
  "듞</w>": 7325,
  "정상회담": 12367,
  "MB</w>": 13447,
  "틸": 4024,
  "por": 9298,
  "법적인</w>": 9451,
  "그린": 13360,
  "thro": 15047,
  "쎵</w>": 7550,
  "욖": 2844,
  "에이전트": 9635,
  "샨": 2207,
  "만약</w>": 9561,
  "친</w>": 4900,
  "낡</w>": 7804,
  "녀": 692,
  "두번째</w>": 15470,
  "되어</w>": 7934,
  "것이라고</w>": 10302,
  "틱": 4020,
  "들어</w>": 8622,
  "졍": 3123,
  "밠": 1780,
  "윅": 2919,
  "곡을</w>": 15633,
  "씌</w>": 6962,
  "긿": 371,
  "근처": 11554,
  "vers": 14905,
  "캩": 3680,
  "새벽": 14592,
  "함께</w>": 7941,
  "괏</w>": 6004,
  "럐</w>": 6494,
  "우선</w>": 9652,
  "잘": 3022,
  "돋": 953,
  "띄": 1250,
  "물건": 11178,
  "단이</w>": 11322,
  "있었는데</w>": 11298,
  "없</w>": 5288,
  "불법</w>": 11109,
  "춉": 3568,
  "닞": 839,
  "쳠": 3523,
  "꺗": 420,
  "켕": 3717,
  "워드</w>": 11584,
  "짇</w>": 6360,
  "킹</w>": 4840,
  "롣": 1379,
  "콴</w>": 6505,
  "핤": 4223,
  "vent": 15092,
  "낻": 623,
  "있었습니다</w>": 9296,
  "ed": 9970,
  "듧": 1053,
  "뺵</w>": 7577,
  "썸</w>": 5430,
  "오피": 12688,
  "사이에서</w>": 15206,
  "헡": 4284,
  "제품에</w>": 15274,
  "썽": 2501,
  "쫑</w>": 5862,
  "회원은</w>": 13708,
  "뎨</w>": 6662,
  "가지로</w>": 15888,
  "옹": 2804,
  "퀘</w>": 5459,
  "스럽": 9089,
  "뀝": 555,
  "훌": 4388,
  "쵔": 3554,
  "수산": 15551,
  "섈</w>": 7562,
  "울</w>": 4625,
  "엷</w>": 7155,
  "모델을</w>": 15250,
  "밓": 1767,
  "부여": 11223,
  "렡": 1351,
  "씬": 2619,
  "ep</w>": 14884,
  "춀": 3566,
  "뭔</w>": 6314,
  "앞에서</w>": 10497,
  "겡</w>": 4890,
  "파이</w>": 11476,
  "꽉</w>": 6359,
  "낫": 610,
  "낸": 621,
  "09</w>": 11091,
  "뿡</w>": 6042,
  "헉</w>": 5805,
  "SC": 13330,
  "지급</w>": 14474,
  "터미": 14647,
  "읿": 2999,
  "간": 87,
  "LT": 13770,
  "첫째</w>": 13519,
  "겋": 161,
  "슝</w>": 5677,
  "이랑</w>": 12661,
  "콕</w>": 5697,
  "재미있는</w>": 13603,
  "캰": 3684,
  "건너": 15207,
  "학생들의</w>": 15971,
  "곳에서</w>": 9526,
  "쐬</w>": 7198,
  "리스트</w>": 11816,
  "뺍": 2042,
  "성을</w>": 8113,
  "지휘": 15843,
  "움": 2872,
  "단지</w>": 9337,
  "김기": 15215,
  "쟏": 3057,
  "고의</w>": 15383,
  "쇼": 2328,
  "쯪</w>": 6461,
  "un": 8345,
  "공부": 9163,
  "E</w>": 4876,
  "캐릭": 9535,
  "네이": 8772,
  "ew": 9647,
  "쨕": 3311,
  "짱": 3295,
  "젤": 3100,
  "숼": 2358,
  "함은</w>": 14091,
  "곶</w>": 6022,
  "복음": 13444,
  "쐽": 2552,
  "인천</w>": 11876,
  "단체</w>": 10516,
  "읐": 2970,
  "겂": 152,
  "볼</w>": 5095,
  "바란다</w>": 13715,
  "뻬": 2073,
  "축": 3574,
  "열린</w>": 9689,
  "좋은</w>": 7952,
  "al": 8013,
  "기본적으로</w>": 12386,
  "릠": 1497,
  "제에</w>": 11395,
  "그들</w>": 15603,
  "뼝</w>": 7348,
  "이동</w>": 9824,
  "우수한</w>": 14076,
  "돼": 979,
  "뜜</w>": 7255,
  "드려": 13007,
  "있었다</w>": 8197,
  "31</w>": 9528,
  "감사합니다</w>": 8364,
  "펍</w>": 5409,
  "장소": 9390,
  "빠져": 12588,
  "Ge": 11308,
  "문서검색</w>": 9746,
  "닻": 865,
  "21</w>": 10006,
  "궐": 295,
  "날인</w>": 16222,
  "읍</w>": 5073,
  "윺</w>": 7638,
  "댱": 890,
  "......</w>": 16118,
  "맆": 1520,
  "헨": 4288,
  "그</w>": 4896,
  "읜</w>": 5503,
  "윳": 2944,
  "콕": 3736,
  "ight</w>": 13086,
  "아니": 7888,
  "토토</w>": 9402,
  "릍</w>": 5828,
  "탈": 3852,
  "Windows</w>": 10456,
  "뤨": 1447,
  "하시오</w>": 15763,
  "둴": 1020,
  "토요": 14597,
  "리얼": 13714,
  "최</w>": 5295,
  "쩌</w>": 6559,
  "컬렉": 15445,
  "관련된</w>": 9237,
  "긂": 345,
  "입학": 13464,
  "해석</w>": 12701,
  "부와</w>": 13481,
  "/</w>": 5385,
  "롭</w>": 5621,
  "Or": 14669,
  "았고</w>": 15926,
  "ec": 8306,
  "달라고</w>": 12780,
  "면서</w>": 7909,
  "륳": 1470,
  "펄": 4076,
  "2페이지</w>": 11231,
  "정책</w>": 9075,
  "듁": 1038,
  "15분</w>": 15959,
  "넜": 664,
  "달리</w>": 10164,
  "입력": 9030,
  "햊</w>": 7450,
  "렛</w>": 5202,
  "눵</w>": 7299,
  "왂": 2813,
  "er</w>": 7932,
  "없는": 14667,
  "이상으로</w>": 15819,
  "해요</w>": 9080,
  "쎗</w>": 6142,
  "빈</w>": 5062,
  "DS": 13443,
  "이미</w>": 8423,
  "증을</w>": 11022,
  "목표를</w>": 13812,
  "VP": 16319,
  "되었": 7978,
  "co": 7971,
  "겼</w>": 6320,
  "댝": 884,
  "분리": 12378,
  "연구소</w>": 12002,
  "화학": 12381,
  "웷</w>": 7152,
  "뉴</w>": 5396,
  "능</w>": 4779,
  "공급</w>": 13487,
  "얭": 2704,
  "쌥": 2473,
  "밝혔": 8854,
  "뛰어난</w>": 11871,
  "제주</w>": 11964,
  "경쟁": 8840,
  "권</w>": 4695,
  "26": 9166,
  "멏</w>": 7618,
  "첟": 3497,
  "쏘": 2523,
  "디자이": 12583,
  "all</w>": 11624,
  "갖": 102,
  "장관</w>": 15648,
  "욛": 2846,
  "사람이</w>": 8343,
  "것도</w>": 8152,
  "잔</w>": 4834,
  "갖는</w>": 13939,
  "쾍": 3757,
  "공무원</w>": 12440,
  "캍</w>": 6802,
  "닞</w>": 5390,
  "롯": 1383,
  "딉": 1070,
  "웨이": 11285,
  "헕</w>": 7821,
  "어떨": 13892,
  "나왔다</w>": 12678,
  "즐겁": 12259,
  "렍": 1341,
  "키는</w>": 12407,
  "Lo": 13861,
  "발표했다</w>": 15385,
  "왹</w>": 7316,
  "춴": 3593,
  "촉</w>": 4973,
  ".</w>": 5281,
  "De": 14074,
  "대상으로</w>": 10288,
  "결과에</w>": 14991,
  "랮": 1297,
  "걍</w>": 6497,
  "뮙": 1721,
  "감독</w>": 11127,
  "전자상": 15197,
  "떅</w>": 6753,
  "두": 1004,
  "언제나</w>": 9529,
  "그의</w>": 8458,
  "았다</w>": 8035,
  "믤": 1743,
  "횻": 4379,
  "로에</w>": 15023,
  "굴": 276,
  "이루": 8551,
  "경기가</w>": 15340,
  "꺴": 429,
  "늗</w>": 6737,
  "로부터</w>": 8844,
  "편의</w>": 10189,
  "생각합니다</w>": 10151,
  "현재는</w>": 15091,
  "첵": 3510,
  "대상</w>": 9574,
  "소설": 10728,
  ")(</w>": 14235,
  "켛</w>": 7545,
  "폭력": 12107,
  "쇰": 2323,
  "시가</w>": 12154,
  "6페이지</w>": 11200,
  "쟈</w>": 5735,
  "100</w>": 12142,
  "뱅</w>": 5022,
  "게재": 12579,
  "성폭": 13041,
  "본다</w>": 9973,
  "으므로</w>": 15753,
  "텦": 3914,
  "스</w>": 4486,
  "핼</w>": 6584,
  "잉</w>": 5497,
  "디자인": 10268,
  "확장": 10694,
  "이하</w>": 9995,
  "호주": 15353,
  "리케이": 10308,
  "뇡": 746,
  "럣": 1314,
  "스의</w>": 8538,
  "브랜드명</w>": 13139,
  "저작": 8016,
  "식품": 10407,
  "졸업</w>": 14442,
  "하려</w>": 13022,
  "션을</w>": 9284,
  "썻": 2499,
  "관광": 8732,
  "지어</w>": 10889,
  "사이즈</w>": 11800,
  "잉글": 15238,
  "부장": 14079,
  "이제": 12294,
  "암": 2644,
  "촙": 3539,
  "의견</w>": 13042,
  "쵸": 3563,
  "스케": 11132,
  "곹": 222,
  "없지만</w>": 11478,
  "되어서</w>": 14796,
  "졋</w>": 7154,
  "196": 12283,
  "핸</w>": 6108,
  "릔</w>": 7823,
  "켈</w>": 5778,
  "엳": 2755,
  "파는</w>": 13691,
  "이들이</w>": 11669,
  "뻠": 2067,
  "컨트": 11284,
  "주요": 11992,
  "삽": 2180,
  "프로그램의</w>": 15283,
  "컨설": 12056,
  "엲": 2754,
  "중지": 16143,
  "붜": 1956,
  "놀이": 10129,
  "경찰</w>": 13208,
  "}": 82,
  "쿰</w>": 5744,
  "이벤트</w>": 8848,
  "앂": 2629,
  "OS</w>": 10252,
  "포구</w>": 15253,
  "옃": 2770,
  "차량": 10542,
  "놀</w>": 5203,
  "보통</w>": 10027,
  "삠</w>": 6867,
  "만든</w>": 8992,
  "잼</w>": 5659,
  "퉈</w>": 7241,
  "폐": 4109,
  "귔": 323,
  "같아</w>": 11917,
  "다리</w>": 11259,
  "쑬</w>": 7568,
  "큅</w>": 6059,
  "공통": 13091,
  "lin": 15335,
  "씨": 2616,
  "옷": 2802,
  "여야</w>": 14157,
  "친": 3636,
  "뱀</w>": 5692,
  "따라</w>": 7985,
  "겈</w>": 7571,
  "심각한</w>": 13471,
  "룕": 1418,
  "훘": 4398,
  "건강을</w>": 15516,
  "죌</w>": 6444,
  "상당한</w>": 12248,
  "릿</w>": 5070,
  "선거</w>": 12032,
  "자위</w>": 11925,
  "느끼는</w>": 13461,
  "나고</w>": 10086,
  "큰</w>": 5307,
  "비싸": 14418,
  "하셔야</w>": 12844,
  "ade</w>": 16205,
  "이탈": 10048,
  "락을</w>": 12990,
  "남편</w>": 12550,
  "쿡": 3770,
  "연구": 8069,
  "비는</w>": 11272,
  "인생": 9466,
  "쀍": 2137,
  "own": 15827,
  "주장": 9540,
  "쎼</w>": 6602,
  "궈</w>": 5932,
  "덟": 904,
  "찍</w>": 5323,
  "혔</w>": 6781,
  "프로그램을</w>": 10090,
  "듈": 1040,
  "븅": 1982,
  "욽": 2870,
  "돌아": 8295,
  "맟</w>": 7157,
  "는</w>": 4509,
  "r": 72,
  "쳣": 3525,
  "TAG</w>": 10332,
  "짚</w>": 6132,
  "빨리</w>": 9572,
  "조치": 12865,
  "팁": 4026,
  "효과가</w>": 11569,
  "판결": 14615,
  "기술이</w>": 14450,
  "겿</w>": 7605,
  "샀</w>": 6375,
  "날</w>": 4898,
  "섐</w>": 6736,
  "조절": 11303,
  "밥을</w>": 14258,
  "유": 2931,
  "그녀의</w>": 10231,
  "서야</w>": 15644,
  "집에서</w>": 10259,
  "큽": 3820,
  "릃</w>": 7405,
  "챔피": 11016,
  "소": 2288,
  "율": 2938,
  "공격": 9235,
  "뗙</w>": 7482,
  "달성": 11446,
  "다운로": 8542,
  "동반": 14428,
  "고도의</w>": 13690,
  "븬</w>": 7677,
  "몼": 1650,
  "선진": 15040,
  "가벼운</w>": 15327,
  "걳": 144,
  "FC</w>": 13528,
  "글은</w>": 10934,
  "밁": 1753,
  "만나": 8987,
  "성경</w>": 15761,
  "학교를</w>": 15168,
  "충전": 12694,
  "color</w>": 12434,
  "뽂</w>": 7519,
  "햬": 4265,
  "전해": 14013,
  "바꿀</w>": 15848,
  "놓고</w>": 9379,
  "두려": 11266,
  "쳴": 3531,
  "낍</w>": 6521,
  "잸": 3044,
  "ant</w>": 14433,
  "읽을</w>": 15002,
  "맔": 1534,
  "뀜": 554,
  "느낌": 8795,
  "뜱": 1238,
  "럄": 1306,
  "손가": 12195,
  "뱝</w>": 7814,
  "ut</w>": 14032,
  "나누어</w>": 15217,
  "들어가": 12246,
  "탣": 3869,
  "our": 11453,
  "야외</w>": 10837,
  "ht</w>": 11567,
  "배우</w>": 9454,
  "두고</w>": 8839,
  "솔직": 11162,
  "님의</w>": 8220,
  "잨</w>": 7002,
  "해지": 10509,
  "리포": 12415,
  "대한</w>": 7871,
  "룍": 1413,
  "시민": 8882,
  "모든": 13878,
  "귄": 318,
  "균</w>": 5174,
  "폘": 4111,
  "부가": 14188,
  "킥": 3832,
  "뿐입니다</w>": 16210,
  "백</w>": 5032,
  "하기도</w>": 9380,
  "셂</w>": 7137,
  "더라</w>": 12658,
  "퓌</w>": 6310,
  "홝": 4345,
  "자취": 14851,
  "똮</w>": 7091,
  "띈</w>": 6088,
  "일상</w>": 14065,
  "절약</w>": 15351,
  "대중</w>": 16024,
  "져야</w>": 12957,
  "붖": 1950,
  "신의</w>": 11723,
  "컽</w>": 7760,
  "문제는</w>": 9639,
  "궶": 311,
  "숄": 2331,
  "지수</w>": 16327,
  "제공한다</w>": 13901,
  "해변": 13656,
  "사</w>": 4565,
  "으로서</w>": 9788,
  "쌘</w>": 6679,
  "햘</w>": 7214,
  "농": 727,
  "주": 3183,
  "이름</w>": 9176,
  "릎</w>": 5999,
  "걸": 147,
  "룑": 1416,
  "풜": 4160,
  "로그인</w>": 9928,
  "뚞": 1198,
  "놎": 728,
  "복귀": 13670,
  "칳": 3652,
  "섻</w>": 6857,
  "싴</w>": 6979,
  "뷕</w>": 7711,
  "찣": 3435,
  "낣": 606,
  "쭛": 3396,
  "벘": 1834,
  "밖의</w>": 13626,
  "보겠습니다</w>": 15997,
  "섹시한</w>": 14012,
  "ting</w>": 14096,
  "V": 47,
  "적어": 15750,
  "상업성</w>": 11514,
  "관련": 8159,
  "됩": 994,
  "덧붙였다</w>": 14550,
  "선거": 9594,
  "섦": 2232,
  "뢴": 1404,
  "해상": 13243,
  "찝": 3431,
  "듵": 1063,
  "던데</w>": 14596,
  "쩻</w>": 7621,
  "어떤": 12668,
  "관": 228,
  "차": 3439,
  "가입": 8569,
  "갖게</w>": 14968,
  "II</w>": 12597,
  "않으며</w>": 11353,
  "삐": 2154,
  "핼": 4241,
  "시대를</w>": 14499,
  "3월": 14107,
  "win</w>": 14337,
  "방문": 8521,
  "슦": 2398,
  "자주": 15037,
  "목사</w>": 12499,
  "텔": 3905,
  "캎</w>": 7151,
  "닳</w>": 7301,
  "채용</w>": 11053,
  "무서": 13550,
  "az": 13323,
  "사람들을</w>": 11239,
  "Tub": 10350,
  "시간이</w>": 8618,
  "휼</w>": 6109,
  "세탁": 14171,
  "탕": 3859,
  "훍": 4389,
  "보면</w>": 8118,
  "파</w>": 4996,
  "샐": 2195,
  "흫": 4456,
  "모습으로</w>": 16135,
  "사장": 13806,
  "행동": 8876,
  "셖": 2268,
  "드디어</w>": 12471,
  "혜": 4317,
  "맘": 1537,
  "즙</w>": 4977,
  "댖": 880,
  "하면</w>": 7920,
  "안타</w>": 11165,
  "샣": 2204,
  "내려</w>": 15593,
  "캬": 3682,
  "약": 2673,
  "av</w>": 16106,
  "수출": 12320,
  "딴</w>": 5333,
  "롷</w>": 7329,
  "랏</w>": 5625,
  "훠": 4403,
  "적으로</w>": 7877,
  "쏀": 2521,
  "똘</w>": 6000,
  "뉄": 781,
  "긍정": 11740,
  "전부</w>": 11870,
  "소유": 10373,
  "않기</w>": 13160,
  "귀하": 10748,
  "펙</w>": 4918,
  "흐름": 11229,
  "전체를</w>": 16028,
  "당연히</w>": 11207,
  "연계": 14507,
  "기도": 10243,
  "8년</w>": 8509,
  "준비</w>": 11138,
  "ks</w>": 12488,
  "제와</w>": 12961,
  "체육": 10277,
  "못": 1649,
  "고지": 15094,
  "Cont": 14122,
  "굉": 255,
  "감과</w>": 15863,
  "껠</w>": 7277,
  "안되": 13945,
  "년": 696,
  "폔": 4110,
  "쓥": 2590,
  "뉴욕": 12748,
  "규정</w>": 13379,
  "계속해서</w>": 14031,
  "킾": 3844,
  "횟</w>": 6977,
  "지금도</w>": 12493,
  "때문</w>": 15824,
  "입</w>": 4961,
  "굻</w>": 6595,
  "딧</w>": 5601,
  "ros": 11024,
  "뭣": 1709,
  "손</w>": 5386,
  "힘든</w>": 10932,
  "as</w>": 10159,
  "늇": 796,
  "톨": 3930,
  "교보문": 9470,
  "양성": 14404,
  "섲": 2242,
  "엑스": 16345,
  "핞</w>": 7732,
  "마감</w>": 16333,
  "n</w>": 4504,
  "다음에</w>": 11835,
  "페이": 7868,
  "퉷": 3976,
  "ata</w>": 11973,
  "예비": 12899,
  "챘</w>": 6991,
  "전개": 14376,
  "뀐": 551,
  "긘": 359,
  "단순": 9391,
  "휅</w>": 7438,
  "오니</w>": 14227,
  "와의</w>": 9242,
  "뜸</w>": 5573,
  "10월</w>": 9596,
  "훡": 4404,
  "곤</w>": 4934,
  "짐</w>": 5050,
  "상담</w>": 10216,
  "기존": 9814,
  "함에</w>": 11310,
  "끝난</w>": 14822,
  "쐈": 2543,
  "뉵</w>": 7089,
  "옜": 2783,
  "짛": 3277,
  "칻</w>": 5800,
  "꽈</w>": 5699,
  "슾</w>": 6616,
  "끟": 581,
  "출력": 12817,
  "Y</w>": 4764,
  "표현": 8757,
  "쌜": 2471,
  "것이죠</w>": 15891,
  "왓</w>": 6145,
  "태그의</w>": 11777,
  "의견을</w>": 11698,
  "만족": 9228,
  "쩜</w>": 6850,
  "갌": 94,
  "...)</w>": 14770,
  "\"(</w>": 13272,
  "꺽": 432,
  "었습니다</w>": 8800,
  "자동으로</w>": 10831,
  "링크</w>": 10804,
  "청소": 8409,
  "해야": 8725,
  "쩋": 3326,
  "걜</w>": 6882,
  "돕</w>": 6048,
  "쏴</w>": 5764,
  "oo": 8178,
  "하나씩</w>": 15943,
  "벩</w>": 7779,
  "많아": 13494,
  "뼛": 2089,
  "발송": 12396,
  "령": 1364,
  "딸</w>": 5177,
  "핔</w>": 7685,
  "웇": 2878,
  "할머니</w>": 12551,
  "쳘": 3522,
  "롬": 1381,
  "레즈비언</w>": 10527,
  "주었다</w>": 15320,
  "닿</w>": 6702,
  "코스": 11778,
  "녙": 708,
  "깬": 405,
  "독서": 14026,
  "뢸</w>": 6537,
  "게시": 8122,
  "천연": 15616,
  "이지": 15138,
  "둡</w>": 5954,
  "회원수와</w>": 11576,
  "좡</w>": 5656,
  "경기에서</w>": 12693,
  "동향</w>": 12708,
  "뭄": 1691,
  "슴": 2406,
  "봰": 1914,
  "마련": 8572,
  "잡아</w>": 15386,
  "욜": 2847,
  "뎔</w>": 5816,
  "TE": 10960,
  "충": 3586,
  "답</w>": 5473,
  "본인": 14221,
  "썊": 2484,
  "음성</w>": 15833,
  "갏": 95,
  "팆": 4029,
  "부르는</w>": 16197,
  "쫭</w>": 7574,
  "사용": 7862,
  "통화": 14201,
  "시킨</w>": 13276,
  "프란": 13228,
  "갖추": 10767,
  "꿸": 544,
  "고용": 10710,
  "노력을</w>": 12487,
  "흥미로운</w>": 16281,
  "봡": 1908,
  "문재인</w>": 10659,
  "믿고</w>": 12350,
  "먹기</w>": 14785,
  "발매": 15532,
  "통합": 9636,
  "한다면</w>": 9079,
  "학교정보가</w>": 11578,
  "꿀</w>": 5762,
  "나이": 8965,
  "믁": 1731,
  "닢</w>": 5880,
  "무선</w>": 10734,
  "마켓</w>": 15578,
  "닫</w>": 6407,
  "이미지": 16162,
  "녈</w>": 6212,
  "Wor": 12919,
  "보여주고</w>": 15480,
  "아이의</w>": 15105,
  "홋": 4332,
  "툇</w>": 7052,
  "으</w>": 5119,
  "덮": 917,
  "기준</w>": 9301,
  "쥘": 3221,
  "망을</w>": 13959,
  "일자리</w>": 15122,
  "롼": 1392,
  "텢": 3911,
  "줓</w>": 6619,
  "보급": 15183,
  "팉": 4030,
  "기계": 10587,
  "어두": 13553,
  "LO": 12111,
  "소셜그래프</w>": 11278,
  "었을</w>": 13486,
  "늗": 805,
  "오랜</w>": 11702,
  "명에</w>": 12830,
  "셧</w>": 5416,
  "첀": 3489,
  "촛</w>": 7453,
  "빕": 2012,
  "민간": 13459,
  "기자</w>": 8694,
  "굛</w>": 6931,
  "캘리포": 15021,
  "30일</w>": 11651,
  "젚": 3094,
  "픞": 4193,
  "받아</w>": 9545,
  "캡": 3674,
  "럱": 1321,
  "샙</w>": 5915,
  "념</w>": 5122,
  "iz": 9944,
  "붑": 1947,
  "샊</w>": 7584,
  "쳰</w>": 7062,
  "맛이</w>": 12337,
  "점으로</w>": 11128,
  "텀</w>": 5737,
  "긾</w>": 7708,
  "퓩</w>": 6096,
  "넧": 674,
  "울산": 14014,
  "펠</w>": 5457,
  "출입": 16005,
  "사까시</w>": 10293,
  "빈": 2006,
  "무료</w>": 8286,
  "앨</w>": 5946,
  "뎼": 947,
  "협회</w>": 10460,
  "ist": 11256,
  "쉽</w>": 5467,
  "쇗": 2313,
  "폁": 4101,
  "쨀": 3302,
  "턣</w>": 6541,
  "냈다</w>": 10033,
  "슭</w>": 5931,
  "하니</w>": 9569,
  "각</w>": 4709,
  "홖": 4340,
  "의사</w>": 12119,
  "냔": 636,
  "샨</w>": 5304,
  "활약": 14891,
  "잃": 3002,
  "사다리": 11390,
  "아무튼</w>": 15552,
  "킬로미터": 10798,
  "각각의</w>": 11984,
  "쓿": 2600,
  "헫": 4289,
  "흉</w>": 5938,
  "떠나</w>": 15635,
  "제목</w>": 10886,
  "녈": 699,
  "찾아</w>": 10260,
  "맛있는</w>": 11541,
  "생생": 14961,
  "맿": 1563,
  "뷔</w>": 5597,
  "킻": 3841,
  "지키": 10568,
  "인터넷을</w>": 12462,
  "am</w>": 10988,
  "읈</w>": 6666,
  "꾿": 520,
  "남아</w>": 11098,
  "그가</w>": 9506,
  "배당": 15116,
  "뒤</w>": 4786,
  "돔": 959,
  "방침</w>": 14857,
  "보조": 13207,
  "봊": 1897,
  "묶</w>": 6653,
  "첟</w>": 6920,
  "몋</w>": 7271,
  "아래와</w>": 11143,
  "드리는</w>": 14123,
  "기와</w>": 9841,
  "꺤": 426,
  "밝": 1777,
  "이곳에</w>": 16183,
  "냅</w>": 5369,
  "릉": 1487,
  "혔": 4313,
  "GM": 14843,
  "차량</w>": 11477,
  "뿔": 2124,
  "맊": 1524,
  "지에</w>": 8701,
  "드릴</w>": 12797,
  "굣": 265,
  "냄새": 13839,
  "오늘날</w>": 14384,
  "맘</w>": 5089,
  "시오</w>": 8288,
  "맍</w>": 6612,
  "퍈": 4067,
  "스테이": 10411,
  "환": 4342,
  "보라</w>": 15721,
  "h</w>": 4497,
  "왼</w>": 6201,
  "잼": 3045,
  "낄</w>": 5007,
  "분들도</w>": 15546,
  "네트": 8860,
  "스티": 9326,
  "저": 3072,
  "맙": 1538,
  "뵹</w>": 6826,
  "곻": 224,
  "승무": 13641,
  "읊": 2964,
  "뻗</w>": 6657,
  "점이</w>": 8598,
  "오늘</w>": 8463,
  "볏</w>": 6615,
  "긘</w>": 7231,
  "아직</w>": 8711,
  "5월</w>": 9615,
  "앰</w>": 5488,
  "국가의</w>": 13989,
  "아이들이</w>": 11695,
  "했으나</w>": 13293,
  "아키": 15211,
  "Per": 16257,
  "튘": 3985,
  "꼲": 475,
  "IM": 12168,
  "For": 14281,
  "쳔": 3521,
  "연대</w>": 15798,
  "쥰": 3229,
  "Da": 14941,
  "받아서</w>": 15566,
  "찻": 3450,
  "뭑": 1703,
  "변</w>": 4992,
  "벤</w>": 5703,
  "gr": 13814,
  "ot</w>": 10439,
  "쟎": 3056,
  "띔": 1254,
  "웎</w>": 7427,
  "놘</w>": 6663,
  "얆": 2680,
  "닩": 849,
  "완성": 10462,
  "꿴": 543,
  "섿": 2253,
  "묀</w>": 6094,
  "세상에</w>": 11687,
  "노를</w>": 13864,
  "과목": 14374,
  "샘플": 14438,
  "논": 717,
  "슐": 2388,
  "작품": 8878,
  "전환</w>": 12838,
  "회로</w>": 15454,
  "흘</w>": 5607,
  "곬": 213,
  "자료에</w>": 10826,
  "딬": 1085,
  "맋": 1525,
  "등에</w>": 8937,
  "햔</w>": 6203,
  "춘</w>": 5069,
  "애플리케이": 12463,
  "꺄</w>": 6136,
  "푼": 4148,
  "걸쳐</w>": 13152,
  "os": 8963,
  "듯이</w>": 9946,
  "쟘": 3059,
  "fe": 15220,
  "꽥</w>": 6378,
  "취": 3606,
  "햣</w>": 6317,
  "선수</w>": 9803,
  "뎅": 928,
  "1000": 12046,
  "삶의</w>": 10521,
  "있는": 8602,
  "감사의</w>": 14226,
  "극복": 12456,
  "됀</w>": 6019,
  "훈련</w>": 12686,
  "섧</w>": 7415,
  "기타로</w>": 11525,
  "휙</w>": 6396,
  "맞</w>": 6673,
  "보편": 15575,
  "받은바</w>": 15017,
  "ames</w>": 14360,
  "이도</w>": 12727,
  "괄": 230,
  "놩": 739,
  "60</w>": 13734,
  "개인": 7979,
  "끗": 575,
  "작업을</w>": 10169,
  "과정</w>": 9138,
  "기록</w>": 10275,
  "사회의</w>": 11000,
  "내에</w>": 8810,
  "게임</w>": 8094,
  "아무</w>": 10923,
  "샜": 2200,
  "같": 105,
  "공을</w>": 12612,
  "끉</w>": 5724,
  "뻡": 2068,
  "괵</w>": 6966,
  "닯": 855,
  "메이저리그</w>": 15366,
  "사우": 12684,
  "꼬</w>": 5010,
  "인데요</w>": 11638,
  "지금</w>": 8256,
  "궴</w>": 7295,
  "이라서</w>": 15424,
  "먀</w>": 5804,
  "차이를</w>": 15890,
  "선의</w>": 12609,
  "됢</w>": 7208,
  "뱟": 1818,
  "뛸</w>": 6333,
  "슈퍼": 10911,
  "As": 12143,
  "걀": 128,
  "단기": 16283,
  "마사지</w>": 10588,
  "땝": 1112,
  "세</w>": 4580,
  "발을</w>": 12110,
  "셤</w>": 5893,
  "텆</w>": 7666,
  "인도</w>": 10556,
  "팭</w>": 7061,
  "뱔</w>": 7399,
  "싶어": 14231,
  "꼰": 473,
  "탘": 3861,
  "30분</w>": 13204,
  "회사의</w>": 11035,
  "k": 65,
  "볕": 1874,
  "부족</w>": 14863,
  "내어</w>": 16341,
  "전통</w>": 14709,
  "다른</w>": 7891,
  "필수</w>": 11368,
  "얊": 2683,
  "쌂": 2458,
  "앨범": 12843,
  "햑</w>": 6103,
  "옛</w>": 6634,
  "쇄": 2309,
  "오토": 12940,
  "12월": 13571,
  "긍": 352,
  "륵</w>": 5508,
  "app": 16002,
  "즈의</w>": 15057,
  "얾</w>": 7771,
  "앨": 2660,
  "렠</w>": 5972,
  "떢</w>": 7195,
  "성령": 13387,
  "퇀</w>": 5544,
  "늘어": 11134,
  "비용이</w>": 14622,
  "이용하는</w>": 13191,
  "하늘": 9880,
  "도시</w>": 9701,
  "잋</w>": 7773,
  "털</w>": 5265,
  "44": 16342,
  "쉄": 2359,
  "림</w>": 4771,
  "꽹</w>": 7474,
  "느낌</w>": 13412,
  "함</w>": 4485,
  "것만</w>": 13789,
  "ang": 9793,
  "메시지</w>": 13290,
  "뫘": 1662,
  "만화": 14437,
  "트럼": 10204,
  "능력을</w>": 11405,
  "닉": 827,
  "봔": 1904,
  "800": 14583,
  "폴": 4119,
  "쓑</w>": 7539,
  "내용의</w>": 10249,
  "중심으로</w>": 9747,
  "롱": 1384,
  "싰": 2442,
  "페티": 13909,
  "릳": 1507,
  "이재": 12075,
  "짝</w>": 5389,
  "게임이</w>": 15975,
  "관해</w>": 15439,
  "점점</w>": 10366,
  "리뷰</w>": 9472,
  "끓</w>": 6629,
  "봥</w>": 6308,
  "대사": 14812,
  "알려져</w>": 13213,
  "종</w>": 4855,
  "유니": 10576,
  "젰": 3105,
  "바로": 10018,
  "뼐": 2085,
  "슦</w>": 7632,
  "삲</w>": 7564,
  "풉</w>": 6387,
  "뱁": 1803,
  "줅": 3188,
  "뉼": 793,
  "챨": 3480,
  "냠": 639,
  "비밀번호를</w>": 15475,
  "청와": 11612,
  "캘": 3671,
  "30분": 16050,
  "융</w>": 5509,
  "캪": 3681,
  "대통령은</w>": 12229,
  "듀</w>": 4994,
  "유행": 15451,
  "실무": 12738,
  "는": 802,
  "딹": 1095,
  "상호</w>": 13214,
  "박물관</w>": 11751,
  "제공": 7917,
  "띌": 1253,
  "]": 54,
  "ly</w>": 10947,
  "쭐": 3393,
  "'(</w>": 12213,
  "생각해</w>": 11766,
  "ast": 12527,
  "넋</w>": 6372,
  "허락": 16062,
  "쟬": 3069,
  "으로</w>": 7843,
  "힠": 4477,
  "수": 2338,
  "수영장</w>": 11608,
  "보호": 8319,
  "생긴</w>": 12561,
  "정신": 8769,
  "스타트업": 15181,
  "핡": 4220,
  "교수는</w>": 16270,
  "장의</w>": 9168,
  "부탁": 9244,
  "이지요</w>": 15106,
  "햌": 4249,
  "제대로</w>": 8813,
  "잤</w>": 7374,
  "휑</w>": 6285,
  "멕시": 12285,
  "쩣": 3338,
  "준</w>": 4832,
  "웨</w>": 5640,
  "뱋": 1810,
  "튁</w>": 6234,
  "쵠</w>": 6734,
  "뜐": 1227,
  "닫기</w>": 13577,
  "본인이</w>": 13333,
  "화장품</w>": 12666,
  "따라서</w>": 8684,
  "쳉": 3517,
  "됌</w>": 6276,
  "꿋</w>": 6417,
  "깆": 378,
  "젯</w>": 5149,
  "세이": 11948,
  "커먼즈</w>": 12252,
  "쯀": 3408,
  "진보": 12295,
  "뽉": 2100,
  "갤럭시</w>": 14146,
  "타": 3846,
  "뀝</w>": 7017,
  "스크린": 15303,
  "릱</w>": 7407,
  "큣": 3811,
  "렞</w>": 5821,
  "ok": 13258,
  "굷": 279,
  "이해할</w>": 13703,
  "버": 1822,
  "질": 3261,
  "이로</w>": 12458,
  "조용": 11524,
  "졍</w>": 5127,
  "통화</w>": 15338,
  "구속": 14183,
  "어드바이": 12304,
  "아마도</w>": 12548,
  "정상적인</w>": 15768,
  "form": 11610,
  "팬</w>": 5223,
  "해도</w>": 8374,
  "떴</w>": 7093,
  "둿": 1021,
  "댄</w>": 5360,
  "그랬": 11943,
  "직한</w>": 13059,
  "낼": 624,
  "훆": 4385,
  "보입니다</w>": 12087,
  "낱</w>": 6694,
  "KT</w>": 14193,
  "여행</w>": 8359,
  "뀀": 546,
  "인으로</w>": 11270,
  "먄": 1566,
  "기반으로</w>": 13246,
  "방지</w>": 13968,
  "생태": 11737,
  "했다</w>": 7858,
  "멑": 1595,
  "차지": 10306,
  "겍": 163,
  "감염": 13683,
  "피트": 12772,
  "쥴": 3230,
  "학생들은</w>": 16366,
  "튬</w>": 5849,
  "왹": 2834,
  "전투": 12076,
  "뼘</w>": 5066,
  "굳</w>": 5784,
  "위를</w>": 8647,
  "킉": 3827,
  "렘</w>": 4757,
  "한다고</w>": 8665,
  "띱": 1262,
  "믕": 1737,
  "췩</w>": 6937,
  "넉</w>": 6200,
  "보험</w>": 9288,
  "젔</w>": 6915,
  "솬</w>": 7682,
  "켱</w>": 6159,
  "il</w>": 10220,
  "랐</w>": 5976,
  "읿</w>": 6930,
  "아이가</w>": 11765,
  "황</w>": 5141,
  "집중</w>": 15942,
  "땗</w>": 7785,
  "노무현</w>": 15709,
  "이야기가</w>": 12818,
  "옵</w>": 5897,
  "은": 2954,
  "생산</w>": 11419,
  "입장에서</w>": 14963,
  "뮴": 1728,
  "룟</w>": 6119,
  "점": 3085,
  "죙": 3170,
  "슬</w>": 4800,
  "사태": 13356,
  "참석": 10168,
  "에게는</w>": 9287,
  "큔</w>": 6163,
  "썡": 2489,
  "칙</w>": 4867,
  "큼": 3819,
  "뚷": 1210,
  "대응</w>": 15380,
  "투데이</w>": 15477,
  "셀로": 16116,
  "48": 11700,
  "하려는</w>": 10951,
  "쭣": 3398,
  "구두": 15410,
  "400": 12747,
  "제작": 8973,
  "2010": 11149,
  "륾</w>": 7033,
  "날의</w>": 14814,
  "ide</w>": 14876,
  "쬘</w>": 6798,
  "슘": 2390,
  "텀": 3892,
  "땄</w>": 7143,
  "하다는</w>": 9837,
  "시를</w>": 10737,
  "최근에는</w>": 16296,
  "에": 2730,
  "내</w>": 4511,
  "58": 15301,
  "숟": 2342,
  "초기": 13426,
  "ri": 8278,
  "30</w>": 9541,
  "뇩</w>": 6499,
  "투자를</w>": 15117,
  "직을</w>": 15874,
  "f</w>": 4688,
  "겅</w>": 5939,
  "화면을</w>": 15786,
  "멕</w>": 5886,
  "딃": 1068,
  "치고</w>": 9193,
  "뇹": 752,
  "싻": 2453,
  "닡": 842,
  "가져오": 15063,
  "짫": 3289,
  "깍</w>": 6049,
  "한다는</w>": 8518,
  "상품을</w>": 11281,
  "지구": 10082,
  "깹": 410,
  "뵤</w>": 6377,
  "챈": 3461,
  "ust": 13419,
  "문학</w>": 10352,
  "만나는</w>": 13452,
  "월드</w>": 10442,
  "잽</w>": 6428,
  "끸": 586,
  "많": 1528,
  "엮</w>": 5994,
  "촬</w>": 5439,
  "님이</w>": 9178,
  "쎰": 2516,
  "밭</w>": 5263,
  "우연히</w>": 15970,
  "유용": 10466,
  "쪽에</w>": 11133,
  "유명</w>": 14024,
  "뭔가</w>": 10841,
  "LG": 10692,
  "들고</w>": 9521,
  "겼다</w>": 11534,
  "읽는</w>": 13768,
  "쩌": 3327,
  "밪": 1789,
  "동물": 10726,
  "촏</w>": 7706,
  "살": 2173,
  "캅</w>": 5716,
  "첨부": 13963,
  "하기가</w>": 14798,
  "창": 3452,
  "실에</w>": 13030,
  "뱄</w>": 7673,
  "회가</w>": 9239,
  "소년</w>": 13324,
  "틤": 4015,
  "보유": 10237,
  "절을</w>": 15927,
  "조절</w>": 16331,
  "Un": 11087,
  "녑</w>": 7005,
  "국제": 8495,
  "맇": 1521,
  "괍</w>": 6687,
  "펺": 4099,
  "뺀": 2037,
  "50</w>": 9881,
  "왭</w>": 7786,
  "자기소개": 12272,
  "냛": 638,
  "되어": 9004,
  "브랜드</w>": 9551,
  "늘어나": 14467,
  "렠": 1350,
  "다들</w>": 12629,
  "적용될</w>": 11896,
  "메가": 16242,
  "졻": 3136,
  "쨍</w>": 6797,
  "설계": 10227,
  "27일</w>": 13506,
  "뫈": 1659,
  "아래로</w>": 16017,
  "나마</w>": 11573,
  "븕": 1989,
  "앞</w>": 5332,
  "외부</w>": 11248,
  "아빠": 11654,
  "얋": 2684,
  "채용": 10635,
  "Wi": 10789,
  "기준을</w>": 16131,
  "짬</w>": 6770,
  "학습": 9204,
  "답답": 15059,
  "깸": 409,
  "CC": 12284,
  "6월": 14727,
  "웁</w>": 5740,
  "기로</w>": 8327,
  "껩": 450,
  "시대에</w>": 13758,
  "처음으로</w>": 10821,
  "갴": 121,
  "돸": 978,
  "진의</w>": 13738,
  "술을</w>": 12084,
  "퐑</w>": 6859,
  "체계": 11291,
  "걷</w>": 7065,
  "께서</w>": 8953,
  "규정": 11750,
  "모여</w>": 13023,
  "엘리": 11711,
  "매년</w>": 11391,
  "줍니다</w>": 9702,
  "훜": 4400,
  "춫": 3588,
  "ine</w>": 9999,
  "3회": 11131,
  "뉴질": 15805,
  "투명": 15292,
  "심사": 12641,
  "창에서</w>": 15039,
  "찰": 3446,
  "나가는</w>": 12502,
  "끄</w>": 5256,
  "정의": 9460,
  "센터": 9061,
  "분기</w>": 15458,
  "ia</w>": 10405,
  "재정": 13341,
  "낮은</w>": 11161,
  "네트워크</w>": 10170,
  "텤</w>": 7784,
  "깋": 383,
  "DVD</w>": 13546,
  "인기를</w>": 13339,
  "40</w>": 11275,
  "쬠</w>": 7057,
  "향을</w>": 13936,
  "세우": 16179,
  "점수를</w>": 15727,
  "전을</w>": 9071,
  "펴</w>": 6384,
  "하시는</w>": 9106,
  "해줄</w>": 15893,
  "환영": 13270,
  "동영상": 12885,
  "가벼": 13358,
  "힁": 4464,
  "삑": 2155,
  "역이</w>": 15328,
  "켐": 3713,
  "같다</w>": 8553,
  "보완": 14926,
  "보통": 15016,
  "옦": 2789,
  "쑛": 2557,
  "면에서</w>": 10764,
  "리조": 10422,
  "거래</w>": 10732,
  "대학생": 14699,
  "캥</w>": 5393,
  "요즘은</w>": 14908,
  "섹": 2249,
  "결": 182,
  "만원": 10916,
  "되었으며</w>": 12232,
  "른다</w>": 9936,
  "썅</w>": 6784,
  "뽷": 2110,
  "렌트": 15045,
  "꿏</w>": 7248,
  "포럼</w>": 15481,
  "수</w>": 4503,
  "젳": 3108,
  "짲": 3296,
  "하셔서</w>": 14316,
  "되지만</w>": 13187,
  "뇽": 754,
  "들에게는</w>": 16202,
  "릴</w>": 5054,
  "권한을</w>": 16367,
  "궜": 300,
  "4": 17,
  "같아요</w>": 9234,
  "쁜</w>": 4802,
  "information</w>": 16344,
  "관을</w>": 9277,
  "중계</w>": 11481,
  "가장</w>": 7926,
  "큠": 3809,
  "칞": 3637,
  "맼": 1561,
  "꾹": 517,
  "중한</w>": 10413,
  "큰엉덩이</w>": 14104,
  "재판": 11190,
  "인도네": 14414,
  "사에서</w>": 11916,
  "직접": 11726,
  "나라</w>": 8895,
  "틑": 4008,
  "정책의</w>": 15321,
  "내용과</w>": 13497,
  "띁</w>": 7555,
  "느냐": 16298,
  "짒": 3268,
  "뎌</w>": 5890,
  "막</w>": 5090,
  "io</w>": 14716,
  "쇨": 2320,
  "푀</w>": 7470,
  "정작</w>": 15706,
  "아이들을</w>": 16292,
  "질환": 11850,
  "일주일</w>": 16224,
  "꼴</w>": 5033,
  "발전": 8601,
  "홫": 4355,
  "챱": 3482,
  "상관": 11780,
  "사랑": 8052,
  "궯": 308,
  "아마": 8450,
  "튈": 3980,
  "깅": 377,
  "밯</w>": 6735,
  "들어가</w>": 12996,
  "앴</w>": 7285,
  "다</w>": 4483,
  "쭐</w>": 6063,
  "첫번째</w>": 11807,
  "무엇을</w>": 10663,
  "저장된</w>": 15565,
  "나무</w>": 10321,
  "핲</w>": 6813,
  "얜": 2697,
  "낧": 607,
  "자체</w>": 12184,
  "씯": 2620,
  "젇": 3079,
  "띵</w>": 5250,
  "하나의</w>": 9401,
  "쫗": 3367,
  "탤</w>": 5845,
  "정도의</w>": 11346,
  "dia</w>": 15397,
  "쟂": 3050,
  "뒝</w>": 6872,
  "뤄</w>": 5809,
  "고민": 8920,
  "명령": 10560,
  "기대</w>": 15642,
  "학년도</w>": 16019,
  "the</w>": 8111,
  "과제</w>": 12274,
  "쏸": 2539,
  "반응</w>": 15875,
  "전에는</w>": 13407,
  "추가": 8354,
  "PGA</w>": 15595,
  "읺": 2994,
  "SP": 13209,
  "500": 9719,
  "좡": 3153,
  "쫩</w>": 7067,
  "짜리</w>": 13922,
  "뽠": 2107,
  "북한": 8894,
  "상품에</w>": 15793,
  "럯": 1319,
  "픅": 4183,
  "싵</w>": 7213,
  "일</w>": 4593,
  "님께서</w>": 11157,
  "앫": 2661,
  "갱</w>": 5665,
  "촙</w>": 7132,
  "템": 3907,
  "과거": 11097,
  "넡</w>": 7657,
  "슉": 2385,
  "렇게</w>": 7989,
  "보냈": 16083,
  "기본": 8520,
  "환경에서</w>": 15775,
  "완료": 10753,
  "끉": 566,
  "위치</w>": 9547,
  "먹은</w>": 15572,
  "꽁</w>": 5885,
  "얅": 2679,
  "봉사</w>": 15636,
  "방식을</w>": 13377,
  "가깝": 14234,
  "상황": 8165,
  "에선</w>": 10474,
  "신경</w>": 14230,
  "쨋</w>": 6356,
  "액</w>": 4984,
  "대책": 15652,
  "환불": 13685,
  "못한다</w>": 14346,
  "만</w>": 4489,
  "좔</w>": 6197,
  "픨": 4195,
  "뿧": 2132,
  "내로</w>": 15120,
  "점검": 13126,
  "000원</w>": 13083,
  "보여주": 11047,
  "법과</w>": 14773,
  "중년": 10570,
  "텐데</w>": 11755,
  "진단": 12212,
  "라스": 14338,
  "췬": 3608,
  "정에</w>": 9486,
  "분을</w>": 10228,
  "자기</w>": 8560,
  "쪕": 3351,
  "춈": 3567,
  "퉐": 3970,
  "가며</w>": 13710,
  "았습니다</w>": 8921,
  "뜽</w>": 6152,
  "경영</w>": 10555,
  "Hot": 11907,
  "도우": 16251,
  "쾰": 3761,
  "그래": 7902,
  "형은</w>": 14320,
  "피아": 11940,
  "괴</w>": 5108,
  "경우": 8008,
  "프로젝트</w>": 9797,
  "마케": 8513,
  "36": 9912,
  "U</w>": 5171,
  "접속": 10368,
  "교회": 8858,
  "해서는</w>": 8474,
  "조선": 9505,
  "모아": 14676,
  "F": 31,
  "Se": 11953,
  "몽</w>": 5359,
  "듦</w>": 5865,
  "선교": 11544,
  "소프트": 8455,
  "내일</w>": 13860,
  "븐</w>": 5353,
  "06</w>": 9730,
  "담당": 9531,
  "실은</w>": 14795,
  "상담": 9225,
  "지속적인</w>": 15175,
  "본격": 11827,
  "모델": 8627,
  "그것은</w>": 9233,
  "얐": 2688,
  "몊": 1627,
  "힘</w>": 5468,
  "스파": 13234,
  "아줌": 14128,
  "쭘</w>": 6404,
  "일도</w>": 12660,
  "배터": 11066,
  "부담</w>": 15347,
  "삿": 2181,
  "겓": 166,
  "식사를</w>": 11660,
  "아나": 15393,
  "느꼈": 13699,
  "제4": 14744,
  "풔": 4159,
  "프로필</w>": 14919,
  "교체": 12994,
  "떫</w>": 7768,
  "겁니다</w>": 9023,
  "뤂": 1436,
  "홥": 4350,
  "협의회</w>": 16227,
  "붚</w>": 7342,
  "즉시</w>": 8981,
  "렴</w>": 5214,
  "tion": 12997,
  "궉": 292,
  "이용하실</w>": 10448,
  "파라": 12779,
  "끔": 573,
  "잊</w>": 6066,
  "춡": 3580,
  "숙소</w>": 12402,
  "옳</w>": 7083,
  "있어</w>": 8226,
  "만들어</w>": 8941,
  "주제로</w>": 15655,
  "츱</w>": 7808,
  "칳</w>": 7069,
  "도움을</w>": 10093,
  "킁</w>": 6394,
  "방식</w>": 12215,
  "그래픽": 14377,
  "쎆": 2505,
  "첨</w>": 5187,
  "캠퍼스</w>": 15900,
  "멮</w>": 7812,
  "싄": 2418,
  "상품의</w>": 11959,
  "켕</w>": 6120,
  "시티": 12526,
  "퀴</w>": 5150,
  "대규모</w>": 14839,
  "눈을</w>": 11199,
  "효과를</w>": 10937,
  "여러분의</w>": 13421,
  "휌": 4419,
  "톤</w>": 5017,
  "ication</w>": 13557,
  "색이</w>": 14388,
  "트로</w>": 10760,
  "손상": 15776,
  "뚕": 1195,
  "체</w>": 4664,
  "오프라": 14200,
  "형이</w>": 14154,
  "움을</w>": 9729,
  "끈": 565,
  "됨</w>": 4801,
  "아무것도</w>": 12754,
  "반응을</w>": 15088,
  "킬</w>": 5028,
  "샀": 2182,
  "군이</w>": 13782,
  "현재의</w>": 13205,
  "기업": 8060,
  "연극": 15436,
  "비트": 11640,
  "경우에</w>": 11502,
  "생각하면</w>": 14549,
  "휭</w>": 6352,
  "모습을</w>": 9048,
  "영화": 8401,
  "년의</w>": 11873,
  "v": 76,
  "데도</w>": 10819,
  "한국</w>": 8243,
  "가난": 12962,
  "엇</w>": 5818,
  "계절</w>": 16230,
  "딜": 1076,
  "존경": 15422,
  "이용해서</w>": 16297,
  "팀": 4025,
  "챃</w>": 7481,
  "acc": 16010,
  "맨</w>": 5011,
  "고등학교</w>": 12307,
  "닷</w>": 4661,
  "홓</w>": 6718,
  "말이죠</w>": 14697,
  "선물": 10866,
  "국토": 13952,
  "유일한</w>": 13119,
  "시내": 16000,
  "확대</w>": 13760,
  "랫</w>": 4645,
  "젹": 3113,
  "파리": 16377,
  "ry</w>": 16041,
  "클라이언": 13181,
  "객": 109,
  "덚": 900,
  "충북</w>": 12324,
  "윪": 2939,
  "재능": 15916,
  "뺒": 2046,
  "둉": 1002,
  "거지</w>": 15153,
  "횎": 4366,
  "똇": 1167,
  "묶": 1681,
  "릌</w>": 6464,
  "선택을</w>": 14693,
  "팬티</w>": 15170,
  "국어</w>": 15056,
  "정보는</w>": 8807,
  "꾸": 516,
  "앞두고</w>": 13226,
  "연합": 10281,
  "진행하고</w>": 15526,
  "갖</w>": 5722,
  "뷹": 1979,
  "종교</w>": 14513,
  "시도": 10385,
  "이후": 9766,
  "큘": 3808,
  "주변에</w>": 13729,
  "영광": 13748,
  "시리즈": 10517,
  "컸": 3703,
  "욈": 2837,
  "전송": 11218,
  "보상": 14169,
  "그것도</w>": 13563,
  "닝": 838,
  "대학교": 11865,
  "뱐": 1814,
  "나": 596,
  "주말</w>": 13463,
  "매번</w>": 15096,
  "저작물을</w>": 9671,
  "꾭": 511,
  "늫": 819,
  "묻</w>": 6833,
  "est": 11533,
  "껟": 447,
  "대통령이</w>": 11108,
  "칼": 3657,
  "패": 4051,
  "싸</w>": 5498,
  "퀜</w>": 5955,
  "동": 962,
  "끝</w>": 5685,
  "빰</w>": 5532,
  "보내": 8431,
  "상대": 8739,
  "났습니다</w>": 14970,
  "꼻": 478,
  "점은</w>": 9067,
  "냬": 644,
  "된다</w>": 7964,
  "홀로</w>": 15993,
  "째": 3299,
  "못해</w>": 13399,
  "텰": 3919,
  "뢔": 1399,
  "셥": 2272,
  "뉠</w>": 6429,
  "24일</w>": 13646,
  "Vi": 10202,
  "측정": 10289,
  "호텔": 8163,
  "놔": 734,
  "만을</w>": 9654,
  "심히</w>": 9446,
  "그게</w>": 10241,
  "새로</w>": 10386,
  "뻑</w>": 5879,
  "정액</w>": 10929,
  "감은</w>": 15277,
  "비용": 9162,
  "벹</w>": 7336,
  "포인트를</w>": 15733,
  "순간</w>": 10695,
  "작년</w>": 13370,
  "MS": 12786,
  "인구": 15849,
  "쩠": 3336,
  "키를</w>": 12650,
  "낡": 604,
  "율이</w>": 13146,
  "이용할</w>": 10199,
  "훘</w>": 6107,
  "사용합니다</w>": 14883,
  "비트코": 13212,
  "또는</w>": 7947,
  "놏</w>": 7162,
  "솔루션</w>": 13903,
  "ot": 8646,
  "사기</w>": 14965,
  "주에</w>": 12615,
  "할머니": 14040,
  "짊": 3262,
  "태</w>": 4908,
  "쳇</w>": 5852,
  "덮</w>": 7169,
  "해수": 15676,
  "뢿</w>": 7831,
  "호흡": 13028,
  "학교정보": 9563,
  "범죄": 10765,
  "빤</w>": 5892,
  "줘야</w>": 14038,
  "비교": 8704,
  "애니": 10546,
  "쾅": 3755,
  "봄": 1892,
  "당의</w>": 12979,
  "틧": 4017,
  "겡": 172,
  "나쁘": 14082,
  "쑻": 2568,
  "분위기가</w>": 16235,
  "금": 348,
  "만이</w>": 9418,
  "쫠": 3371,
  "퐉</w>": 6605,
  "맸": 1557,
  "껀</w>": 5400,
  "돞": 967,
  "y": 79,
  "오직</w>": 12230,
  "쥡": 3223,
  "땽": 1119,
  "교육의</w>": 11667,
  "쾃</w>": 6385,
  "re": 7982,
  "만들</w>": 10003,
  "츌": 3617,
  "쬡": 3383,
  "꼅": 460,
  "첼": 3512,
  "직장": 10992,
  "지급": 10396,
  "손에</w>": 12690,
  "1부</w>": 13933,
  "까지": 14160,
  "MS</w>": 12784,
  "솽": 2308,
  "늘": 806,
  "기를</w>": 7922,
  "끼</w>": 5063,
  "과학": 8695,
  "자로</w>": 9249,
  "뫼": 1667,
  "겠다는</w>": 10815,
  "쭛</w>": 7235,
  "책임은</w>": 10310,
  "milf</w>": 14888,
  "슬라이": 10528,
  "휠": 4428,
  "쳄</w>": 5796,
  "대결": 13811,
  "나온</w>": 9800,
  "끨": 584,
  "투": 3959,
  "츋": 3616,
  "[</w>": 4969,
  "인치</w>": 11720,
  "샷": 2211,
  "춛": 3577,
  "몿": 1653,
  "봥": 1911,
  "즤</w>": 6321,
  "불리": 14869,
  "맞춰": 15212,
  "멬": 1609,
  "돵": 977,
  "쐈</w>": 7715,
  "쁙</w>": 5619,
  "리</w>": 4604,
  "뜬": 1235,
  "열리는</w>": 13314,
  "노트북</w>": 15203,
  "슏": 2387,
  "방이</w>": 13179,
  "사용</w>": 8416,
  "64": 12489,
  "관객": 13798,
  "뉩</w>": 6685,
  "안</w>": 4767,
  "하는가</w>": 12571,
  "밝은</w>": 16261,
  "되었습니다</w>": 8462,
  "C": 28,
  "눙": 768,
  "만큼</w>": 8399,
  "조건을</w>": 15097,
  "찍": 3423,
  "셥</w>": 6391,
  "둬": 1017,
  "조정": 11139,
  "이주": 15500,
  "을까</w>": 8470,
  "시계</w>": 13065,
  "푹": 4147,
  "렛": 1346,
  "족</w>": 4955,
  "제리</w>": 14531,
  "보낸</w>": 13392,
  "대한민국의</w>": 14501,
  "듥": 1051,
  "15</w>": 9088,
  "네임": 10499,
  "그렇다</w>": 14879,
  "읍": 2967,
  "백과": 10716,
  "테크": 12064,
  "얻을</w>": 10848,
  "//</w>": 8762,
  "있</w>": 4578,
  "bl": 15152,
  "외국인": 16324,
  "헤</w>": 5436,
  "껟</w>": 7234,
  "윜</w>": 7834,
  "환불</w>": 14811,
  "틂</w>": 5840,
  "꿕</w>": 6899,
  "나오는</w>": 9709,
  "첬</w>": 6162,
  "거나</w>": 7967,
  "싷": 2449,
  "싷</w>": 7122,
  "출발": 10629,
  "휵</w>": 6818,
  "쪘": 3353,
  "었지만</w>": 13053,
  "출력</w>": 15009,
  "렇": 1337,
  "F</w>": 4605,
  "게</w>": 4484,
  "퓨": 4174,
  "았</w>": 5787,
  "\u001c": 0,
  "측면에서</w>": 15221,
  "마음</w>": 10548,
  "화의</w>": 11844,
  "읠</w>": 5982,
  "노트북": 15345,
  "켘</w>": 5786,
  "힏": 4469,
  "(": 7,
  "예고</w>": 10465,
  "겊</w>": 5884,
  "굼</w>": 5870,
  "블랙": 10271,
  "쓷</w>": 7552,
  "꾁": 503,
  "ann": 12966,
  "붱": 1960,
  "짓</w>": 5145,
  "포르노</w>": 9283,
  "능력</w>": 11866,
  "요리</w>": 10707,
  "대화</w>": 12626,
  "언어": 9875,
  "봑": 1902,
  "긍정적인</w>": 15945,
  "한</w>": 4542,
  "꾸준": 10749,
  "배가</w>": 12671,
  "hd</w>": 9762,
  "원칙</w>": 13891,
  "웠</w>": 4674,
  "풋": 4155,
  "몄</w>": 7678,
  "묷</w>": 7731,
  "꺢</w>": 6775,
  "으니</w>": 9006,
  "곾": 227,
  "mo": 12298,
  "뱃</w>": 5854,
  "습": 2407,
  "안내</w>": 8564,
  "다소</w>": 12042,
  "스타트": 11729,
  "쓺": 2598,
  "냘</w>": 6816,
  "제품의</w>": 12451,
  "쉼": 2378,
  "시간에</w>": 10057,
  "댄": 872,
  "you</w>": 15818,
  "슽": 2414,
  "눈에</w>": 9494,
  "조사</w>": 9525,
  "릇</w>": 5345,
  "븐": 1986,
  "훨</w>": 6180,
  "씃": 2603,
  "180": 15995,
  "줄을</w>": 15171,
  "티켓": 14833,
  "윾": 2953,
  "옆": 2773,
  "끚": 578,
  "틋</w>": 6578,
  "럠</w>": 6513,
  "주인공": 12048,
  "효과</w>": 10858,
  "가는</w>": 8038,
  "받지</w>": 10233,
  "믜": 1741,
  "젠</w>": 5020,
  "잖아</w>": 14472,
  "퓐": 4169,
  "우수": 10031,
  "전체": 8930,
  "대에</w>": 9940,
  "봬": 1913,
  "나라의</w>": 13057,
  "서는</w>": 8010,
  "미술</w>": 15322,
  "뗇": 1149,
  "하시면</w>": 9316,
  "훵": 4411,
  "뜿": 1247,
  "눨": 775,
  "흩": 4455,
  "Manag": 14572,
  "약간의</w>": 14832,
  "씜</w>": 7013,
  "실망": 14714,
  "프리미": 10874,
  "읅</w>": 6848,
  "텖": 3906,
  "중요합니다</w>": 16180,
  "늉</w>": 5807,
  "그라": 13755,
  "홡": 4347,
  "김경": 15048,
  "예수": 9409,
  "누구": 8612,
  "스킬": 15379,
  "보면서</w>": 11144,
  "운영": 8158,
  "눞</w>": 6626,
  "뿩": 2134,
  "좐</w>": 6575,
  "잤": 3031,
  "세계</w>": 8378,
  "학적</w>": 10963,
  "빽": 2036,
  "로는</w>": 8635,
  "깥</w>": 5908,
  "쉑</w>": 5863,
  "롹": 1391,
  "ter": 9077,
  "멉": 1587,
  "같은": 12445,
  "정부가</w>": 11585,
  "뿔</w>": 5896,
  "늉": 797,
  "퇬": 3947,
  "적지</w>": 16069,
  "뒈</w>": 6772,
  "새로운</w>": 8080,
  "ES": 9994,
  "많지</w>": 15074,
  "줇": 3190,
  "텻": 3921,
  "과정": 8428,
  "쾁</w>": 6983,
  "섶": 2246,
  "셸": 2281,
  "묀": 1668,
  "쿡</w>": 5280,
  "묯": 1678,
  "빛이</w>": 15696,
  "이러한</w>": 8260,
  "흠": 4450,
  "오고</w>": 11058,
  "똑</w>": 5075,
  "b</w>": 4794,
  "몋": 1628,
  "뭊": 1696,
  "챛": 3471,
  "ib": 11977,
  "퇀": 3942,
  "헷": 4296,
  "직원": 9361,
  "있는데</w>": 8488,
  "봷</w>": 7478,
  "활동에</w>": 15128,
  "가족이</w>": 15254,
  "있도록</w>": 8405,
  "인터넷": 8632,
  "밴드</w>": 12453,
  "혁</w>": 5037,
  "침을</w>": 13124,
  "ick</w>": 13269,
  "츄</w>": 5427,
  "샡</w>": 7669,
  "돐</w>": 6220,
  "취소": 11881,
  "그": 335,
  "퐁</w>": 5772,
  "쿰": 3774,
  "가를</w>": 8959,
  "입금</w>": 15735,
  "ace</w>": 12123,
  "띤</w>": 6050,
  "뫄</w>": 6430,
  "확</w>": 5683,
  "핣": 4222,
  "26일</w>": 13667,
  "볜</w>": 5837,
  "규칙</w>": 15560,
  "값이</w>": 14358,
  "평균": 11677,
  "생활을</w>": 10997,
  "Z</w>": 4962,
  "av": 8727,
  "조명</w>": 16090,
  "05</w>": 9430,
  "혜택": 10626,
  "팤": 4048,
  "궁금한</w>": 10562,
  "탱": 3875,
  "띄</w>": 6445,
  "얼마</w>": 11073,
  "ug": 12505,
  "빕</w>": 6101,
  "부터는</w>": 10143,
  "테</w>": 4879,
  "하는게</w>": 13215,
  "닐": 831,
  "살이</w>": 12868,
  "계획": 8366,
  "이거</w>": 11983,
  "났</w>": 6192,
  "눵": 778,
  "ood</w>": 15792,
  "뒝": 1027,
  ").</w>": 8259,
  "원활": 14498,
  "텁</w>": 5987,
  "전원</w>": 14877,
  "닽</w>": 6596,
  "뇌": 742,
  "수사": 12210,
  "릀": 1479,
  "김정": 11688,
  "V</w>": 4809,
  "자세히</w>": 11715,
  "뉸": 792,
  "랍</w>": 5268,
  "램</w>": 4585,
  "숤</w>": 7403,
  "쩟</w>": 7426,
  "XHamster</w>": 15302,
  "걱정": 10660,
  "시나리": 15999,
  "사람들과</w>": 14310,
  "솃</w>": 7180,
  "너무</w>": 8104,
  "걒": 136,
  "캔": 3669,
  "gir": 14757,
  "졔": 3126,
  "핸드": 10591,
  "3개</w>": 12567,
  "시간적</w>": 15165,
  "췸</w>": 7367,
  "쩡</w>": 5378,
  "댓글은</w>": 13836,
  "상업": 9934,
  "앟</w>": 5407,
  "했으며</w>": 10956,
  "쟨": 3068,
  "루이": 14685,
  "싼</w>": 5315,
  "풂": 4151,
  "노르": 16383,
  "해진</w>": 11209,
  "돤</w>": 6573,
  "교수": 10276,
  "age</w>": 9877,
  "삒": 2156,
  "헣": 4285,
  "귄</w>": 5575,
  "츠": 3621,
  "킼": 3842,
  "텸": 3920,
  "캅": 3659,
  "이름으로</w>": 13558,
  "시설의</w>": 15502,
  "문": 1683,
  "번에</w>": 11614,
  "마음에</w>": 10015,
  "뎇</w>": 7630,
  "슺": 2412,
  "잠깐</w>": 14578,
  "맞고</w>": 16336,
  "수술을</w>": 16245,
  "깁</w>": 5873,
  "돌": 954,
  "가에</w>": 11111,
  "없어서</w>": 11696,
  "웋": 2881,
  "formation</w>": 14636,
  "자리에</w>": 11328,
  "이라며</w>": 12181,
  "이스라엘</w>": 14720,
  "적절": 9784,
  "16</w>": 9340,
  "믄</w>": 5437,
  "넯": 680,
  "쥬</w>": 5180,
  "En": 10523,
  "깠": 396,
  "나누": 9473,
  "뒤로</w>": 13348,
  "고양": 11589,
  "하죠</w>": 12078,
  "삥": 2164,
  "부를</w>": 8710,
  "뒀</w>": 6995,
  "대통령": 8515,
  "렸던</w>": 15131,
  "퓡": 4173,
  "갂</w>": 6324,
  "침해</w>": 9449,
  "뗳": 1162,
  ",</w>": 5525,
  "귈</w>": 6543,
  "김현": 15758,
  "턀": 3882,
  "마치</w>": 10240,
  "으나</w>": 8954,
  "핓": 4206,
  "놓</w>": 6237,
  "가의</w>": 9989,
  "종료": 12669,
  "젖</w>": 5856,
  "숙박": 11635,
  "륜</w>": 5248,
  "오픈</w>": 10554,
  "프가</w>": 15749,
  "룻</w>": 5388,
  "작용": 10069,
  "걜": 140,
  "날씨가</w>": 15124,
  "뗫": 1160,
  "뇬</w>": 5121,
  "아일": 13700,
  "맷": 1556,
  "으로만</w>": 13910,
  "때의</w>": 13529,
  "륏</w>": 5995,
  "스스": 11643,
  "귿</w>": 6549,
  "지금의</w>": 14085,
  "캌": 3664,
  "촋": 3534,
  "해주셔서</w>": 13589,
  "롟": 1377,
  "쓍": 2585,
  "포</w>": 4848,
  "청소년</w>": 9974,
  "그나마</w>": 14189,
  "메르": 15576,
  "lor</w>": 11714,
  "읕</w>": 5301,
  "est</w>": 10598,
  "커뮤니티</w>": 12896,
  "허락</w>": 12108,
  "잘못</w>": 12987,
  "끼": 587,
  "인터뷰": 11754,
  "뢿": 1407,
  "핢": 4221,
  "팸</w>": 5147,
  "표준</w>": 12958,
  "사가</w>": 8267,
  "퍠</w>": 7598,
  "독": 951,
  "짬": 3290,
  "der</w>": 15278,
  "있다는</w>": 8309,
  "You": 14612,
  "빠르게</w>": 9984,
  "쩍</w>": 5277,
  "절대</w>": 10615,
  "촏": 3536,
  "보았": 12173,
  "혇": 4307,
  "락</w>": 4903,
  "꾼": 518,
  "뮹": 1729,
  "원자": 14242,
  "뺘</w>": 5627,
  "9월</w>": 9697,
  "틲": 4021,
  "팒": 4038,
  "모드</w>": 13828,
  "올랐": 16092,
  "흕": 4444,
  "밌": 1760,
  "아니</w>": 10245,
  "쾰</w>": 7616,
  "유일": 11076,
  "빅": 2003,
  "뵜": 1925,
  "띙": 1256,
  "현": 4304,
  "부": 1934,
  "불법적으로</w>": 9696,
  "냴": 646,
  "윤": 2935,
  "됏": 984,
  "바보</w>": 14453,
  "으시면</w>": 14934,
  "차에</w>": 12807,
  "눼": 780,
  "RE": 11473,
  "장치": 11877,
  "라우": 8626,
  "파크</w>": 12302,
  "les</w>": 12426,
  "뒤": 1028,
  "뜼": 1244,
  "퀠": 3790,
  "횾</w>": 7412,
  "프로젝트를</w>": 15728,
  "버리는</w>": 15528,
  "외국": 8948,
  "도록</w>": 7968,
  "실로</w>": 14602,
  "결제": 9876,
  "톡</w>": 4869,
  "33": 11497,
  "사건</w>": 10624,
  "by</w>": 9774,
  "Pro": 10110,
  "강의</w>": 10902,
  "미세": 12720,
  "밞</w>": 7754,
  "시스템을</w>": 11168,
  "뜝</w>": 6903,
  "픕": 4189,
  "옫</w>": 6973,
  "넻": 688,
  "넘게</w>": 15737,
  "au": 14776,
  "먐</w>": 7647,
  "쎵": 2518,
  "밀리미터이하로는</w>": 16246,
  "셉": 2257,
  "정": 3090,
  "셀": 2254,
  "수상": 10441,
  "긴": 365,
  "듯</w>": 4635,
  "요약": 11403,
  "전략": 9329,
  "옲": 2797,
  "돟</w>": 5920,
  "시아</w>": 9376,
  "듷": 1065,
  "배경</w>": 11621,
  "숙한</w>": 10863,
  "붹</w>": 7730,
  "노력": 8911,
  "는데요</w>": 9429,
  "차가</w>": 11177,
  "홗": 4341,
  "멵</w>": 7606,
  "병": 1870,
  ".,</w>": 15838,
  "뉭</w>": 7690,
  "둥</w>": 4579,
  "각": 84,
  "딘</w>": 5230,
  "다녀": 10822,
  "켯": 3729,
  "좋은": 10757,
  "읱</w>": 7613,
  "회사를</w>": 15821,
  "자연</w>": 11297,
  "겠다고</w>": 11857,
  "정과</w>": 15463,
  "머니": 9010,
  "섞</w>": 7190,
  "세계적인</w>": 14880,
  "앨범</w>": 13019,
  "쭵": 3400,
  "쏭</w>": 5975,
  "굥</w>": 7570,
  "주소": 10297,
  "퇄</w>": 7620,
  "블루투스</w>": 15968,
  "중의</w>": 12217,
  "m": 67,
  "놓은</w>": 10906,
  "개발을</w>": 15313,
  "고에</w>": 16315,
  "삠": 2160,
  "졥": 3128,
  "콱</w>": 6476,
  "뎡": 941,
  "롭게</w>": 9259,
  "관리": 8084,
  "약간</w>": 10935,
  "일어나는</w>": 15962,
  "회의</w>": 9202,
  "냉</w>": 4817,
  "아프리카</w>": 16039,
  "넘치는</w>": 14898,
  "년간</w>": 9514,
  "기에</w>": 7999,
  "헼": 4299,
  "색</w>": 4713,
  "쨌</w>": 7514,
  "룔</w>": 6157,
  "놀이</w>": 12875,
  "점의</w>": 13437,
  "전도": 14416,
  "뗵": 1164,
  "뉘": 783,
  "안의</w>": 11118,
  "숱": 2353,
  "카페": 10852,
  "만원을</w>": 16073,
  "걍": 134,
  "노": 714,
  "삼</w>": 5182,
  "조치를</w>": 13102,
  "인간": 8362,
  "활성": 9477,
  "렬</w>": 4943,
  "늣</w>": 5662,
  "쪌": 3350,
  "따로</w>": 10339,
  "번째": 10729,
  "탬": 3871,
  "시켜</w>": 10928,
  "릈": 1486,
  "좌</w>": 5106,
  "우리나라의</w>": 14407,
  "2회</w>": 15539,
  "응": 2971,
  "믿</w>": 6379,
  "야구": 10634,
  "주택</w>": 11926,
  "녑": 703,
  "댁": 871,
  "즐</w>": 4917,
  "촘": 3538,
  "말씀</w>": 11890,
  "고려": 9152,
  "얠</w>": 7743,
  "고생": 14030,
  "스포츠토토": 14559,
  "뚫</w>": 6601,
  "떗": 1125,
  "튼": 3996,
  "str": 10637,
  "책임": 8183,
  "뺅</w>": 5614,
  "우리나라": 10250,
  "들에</w>": 9158,
  "됌": 982,
  "썻</w>": 7102,
  "단위</w>": 15906,
  "VR</w>": 16086,
  "롑": 1372,
  "위와</w>": 12280,
  "든지</w>": 9626,
  "27": 9147,
  "계속": 9609,
  "인근</w>": 14120,
  "꺼": 431,
  "Ap": 10181,
  "쎌</w>": 6720,
  "김성": 13566,
  "퉐</w>": 7781,
  "진실": 9578,
  "잚</w>": 7261,
  "니까요</w>": 12113,
  "큐</w>": 5335,
  "의원": 12264,
  "실한</w>": 15620,
  "한계": 15681,
  "륨</w>": 5337,
  "콘서트</w>": 14537,
  "an</w>": 8290,
  "메인": 13485,
  "솩": 2303,
  "oft</w>": 12082,
  "눇": 759,
  "AD": 14730,
  "윗</w>": 5144,
  "습</w>": 4859,
  "참</w>": 5096,
  "현상</w>": 16195,
  "어쩔</w>": 13951,
  "모양": 10029,
  "our</w>": 16196,
  "갹": 125,
  "어쩌면</w>": 13253,
  "텆": 3897,
  "히</w>": 4895,
  "시나</w>": 15098,
  "합리적인</w>": 15801,
  "naver</w>": 15095,
  "모르겠": 14936,
  "드레": 14726,
  "긜": 360,
  "터가</w>": 13655,
  "뎆</w>": 7553,
  "승을</w>": 13308,
  "인정</w>": 15708,
  "각의</w>": 11314,
  "궈": 291,
  "굈": 254,
  "큑": 3805,
  "어학": 11891,
  "흴": 4460,
  "k</w>": 4742,
  "꼍": 464,
  "정도</w>": 8389,
  "밖": 1770,
  "흴</w>": 7182,
  "띨": 1260,
  "효": 4374,
  "7일</w>": 10885,
  "많습니다</w>": 12749,
  "조사를</w>": 13317,
  "디바이": 14294,
  "훙</w>": 6214,
  "겿": 192,
  "시작했다</w>": 11450,
  "인가요</w>": 11706,
  "벌어": 11863,
  "출처</w>": 11494,
  "부분을</w>": 10805,
  "싳": 2445,
  "시리": 8777,
  "파리</w>": 13251,
  "쑙": 2556,
  "Serv": 11556,
  "볶": 1883,
  "횝": 4369,
  "시의</w>": 11148,
  "무기</w>": 15789,
  "회계": 13077,
  "교회가</w>": 16280,
  "쀄": 2135,
  "생각하고</w>": 11855,
  "점이다</w>": 12825,
  "퐐": 4128,
  "2명</w>": 15174,
  "Ch": 9040,
  "AP": 10172,
  "',</w>": 9453,
  "찾는</w>": 11052,
  "구조": 8740,
  "남북</w>": 14882,
  "쉇": 2361,
  "해외": 8670,
  "랸</w>": 6293,
  "쿵</w>": 5643,
  "P</w>": 4920,
  "어느": 10712,
  "협동": 15462,
  "뇻": 753,
  "싶은</w>": 8880,
  "if": 10652,
  "진은</w>": 13118,
  "언</w>": 4789,
  "가운데": 14910,
  "웷": 2912,
  "렞": 1349,
  "웍": 2883,
  "가능하며</w>": 13466,
  "박람": 14870,
  "침</w>": 4911,
  "신체": 12777,
  "저렴": 9732,
  "군은</w>": 14177,
  "뛔</w>": 6592,
  "좸": 3160,
  "올": 2792,
  "욭</w>": 6138,
  "위에</w>": 8530,
  "자랑": 10704,
  "12페이지</w>": 14761,
  "솰</w>": 7563,
  "셑": 2263,
  "이영": 15811,
  "꺽</w>": 6047,
  "사업": 8098,
  "어른": 13195,
  "xx": 15004,
  "광주</w>": 13722,
  "지하": 10008,
  "위는</w>": 10880,
  "부분</w>": 8852,
  "적이": 16004,
  "조</w>": 4756,
  "썼</w>": 6654,
  "1차</w>": 11919,
  "깍": 385,
  "욉": 2838,
  "살짝</w>": 12652,
  "뵷</w>": 7097,
  "거듭": 15044,
  "에너지</w>": 10907,
  "덬</w>": 5377,
  "례": 1369,
  "쏟아": 13693,
  "쭙</w>": 6126,
  "학년</w>": 11049,
  "아르": 11397,
  "둑</w>": 5370,
  "포르": 8688,
  "88": 13408,
  "라도</w>": 8206,
  "싯": 2441,
  "믄": 1732,
  "쩅</w>": 7181,
  "?\"</w>": 9991,
  "보여": 8329,
  "쪽에서</w>": 15592,
  "례</w>": 4924,
  "춋": 3569,
  "멋</w>": 5661,
  "훗": 4397,
  "풱": 4164,
  "쬠": 3382,
  "사용자의</w>": 13846,
  "닌</w>": 4933,
  "모바": 8460,
  "입사": 14132,
  "흟": 4449,
  "봏": 1900,
  "숯": 2352,
  "??</w>": 10105,
  "뉍</w>": 7364,
  "14": 8308,
  "sh": 9555,
  "풤": 4162,
  "6</w>": 4737,
  "췟": 3603,
  "그만</w>": 14175,
  "설정</w>": 9891,
  "식당": 11990,
  "낚시</w>": 15307,
  "했</w>": 5300,
  "제공할</w>": 13319,
  "이메": 8721,
  "쪠": 3355,
  "대학교</w>": 8872,
  "마의</w>": 16174,
  "된": 989,
  "멍": 1591,
  "듼</w>": 6221,
  "됴": 999,
  "내": 619,
  "텦</w>": 6791,
  "콘텐츠": 9660,
  "라며</w>": 12125,
  "In": 8820,
  "캡</w>": 5257,
  "규": 327,
  "하여</w>": 7860,
  "현금</w>": 15669,
  "사전": 12770,
  "휘": 4425,
  "껬</w>": 7431,
  "흄</w>": 6468,
  "욤": 2848,
  "쿙</w>": 6834,
  "섹시한중년여성</w>": 11364,
  "섬</w>": 4842,
  "한국에서</w>": 13203,
  "한국에</w>": 13574,
  "년</w>": 4623,
  "대전": 11100,
  "꿈을</w>": 11921,
  "씉": 2607,
  "쓩</w>": 6868,
  "첸</w>": 5766,
  "2006년</w>": 15889,
  "정한</w>": 8644,
  "거기": 12358,
  "이를</w>": 8137,
  "큅": 3800,
  "어제</w>": 11171,
  "실비": 13440,
  "랍": 1275,
  "et</w>": 8675,
  "큐": 3804,
  "춧</w>": 5631,
  "재구성": 11969,
  "픽": 4197,
  "있으니</w>": 9692,
  "둘째</w>": 13225,
  "찰</w>": 5043,
  "짱</w>": 4808,
  "되기</w>": 9680,
  "워크": 11799,
  "쁠</w>": 5749,
  "개별</w>": 13537,
  "흑</w>": 5311,
  "ent</w>": 8817,
  "엊</w>": 7805,
  "뙁": 1185,
  "적을</w>": 9980,
  "쫏</w>": 5969,
  "일이다</w>": 11673,
  "컨텐츠</w>": 14994,
  "반대</w>": 14554,
  "익숙": 13849,
  "생성</w>": 15042,
  "쉣</w>": 7833,
  "주의를</w>": 12429,
  "에피": 16120,
  "양</w>": 4888,
  "켠</w>": 5179,
  "무료": 8592,
  "터</w>": 4513,
  "나와": 13588,
  "벙</w>": 6013,
  "쏵</w>": 6881,
  "Trip": 14706,
  "ents</w>": 13725,
  "뤘</w>": 7001,
  "료": 1412,
  "쁀</w>": 7528,
  "켑</w>": 5986,
  "벧</w>": 6432,
  "뇌</w>": 5582,
  "뗐</w>": 7267,
  "붹": 1963,
  "도는</w>": 9356,
  "숩</w>": 5996,
  "썩": 2491,
  "아침": 11717,
  "프로그": 8055,
  "투자</w>": 10613,
  "아래의</w>": 12787,
  "어찌</w>": 15614,
  "넰</w>": 6074,
  "뻔</w>": 4782,
  "중소기업": 15864,
  "서비스를</w>": 8577,
  "굘</w>": 6542,
  "면의</w>": 13217,
  "금액을</w>": 15756,
  "럭</w>": 5505,
  "op": 9522,
  "렙": 1345,
  "아닐": 10642,
  "믹": 1746,
  "공모": 12563,
  "넛": 663,
  "선에</w>": 14644,
  "억": 2706,
  "공": 218,
  "다가": 9992,
  "낭": 612,
  "심으로</w>": 12140,
  "그런</w>": 8140,
  "80</w>": 14181,
  "남아": 11348,
  "개봉": 14055,
  "초등": 10096,
  "픔": 4188,
  "이명": 12135,
  "역할</w>": 12410,
  "먺": 1576,
  "알고</w>": 8540,
  "예": 2775,
  "관절": 15396,
  "텝": 3908,
  "솽</w>": 6763,
  "폐</w>": 5470,
  "펜</w>": 4649,
  "혜</w>": 4811,
  "토리</w>": 15963,
  "툴</w>": 5336,
  "화면</w>": 11507,
  "탔</w>": 6852,
  "on": 7929,
  "me</w>": 11880,
  "련": 1356,
  "솹": 2306,
  "배출": 14673,
  "ths</w>": 16328,
  "젊은": 15589,
  "대기</w>": 12673,
  "곳으로</w>": 13026,
  "예상</w>": 13185,
  "낚": 598,
  "윦": 2936,
  "픙": 4191,
  "일광</w>": 14409,
  "다운로드</w>": 9273,
  "진출</w>": 13781,
  "퓬</w>": 6434,
  "뜀": 1221,
  "세상을</w>": 10975,
  "금합니다</w>": 12549,
  "대통령</w>": 9614,
  "수업": 10741,
  "벽</w>": 5128,
  "이었는데</w>": 15337,
  "괍": 233,
  "Window": 10174,
  "나머": 11038,
  "줎": 3194,
  "겨울</w>": 11853,
  "덥</w>": 5642,
  "팎</w>": 6070,
  "과정은</w>": 16238,
  "유의": 15262,
  "뭠": 1707,
  "컵": 3701,
  "라운지</w>": 15858,
  "식": 2423,
  "태권": 15639,
  "얖</w>": 5696,
  "영역</w>": 14283,
  "카페</w>": 10536,
  "흔들": 13169,
  "상상": 11652,
  "up</w>": 12582,
  "대리": 10473,
  "즵": 3253,
  "ip</w>": 13978,
  "툑": 3956,
  "적합": 10592,
  "보시": 12130,
  "눋": 762,
  "보니까</w>": 14672,
  "영화의</w>": 15051,
  "대한민국</w>": 9297,
  "분의</w>": 10921,
  "쩁": 3322,
  "교환</w>": 10959,
  "옉": 2776,
  "쏳": 2536,
  "뇔</w>": 6329,
  "읗": 2977,
  "점수</w>": 16189,
  "컴퓨터</w>": 9261,
  "있어야</w>": 9893,
  "멎</w>": 6952,
  "뱇": 1808,
  "묭</w>": 6443,
  "잡</w>": 5484,
  "컳": 3699,
  "웨어</w>": 9368,
  "윽": 2952,
  "원에서</w>": 9795,
  "로또": 13482,
  "댕</w>": 5308,
  "재단</w>": 12187,
  "럽": 1331,
  "뷘": 1971,
  "건물": 13595,
  "쳡": 3524,
  "손": 2291,
  "영상을</w>": 11196,
  "[": 52,
  "읉": 2963,
  "쏴": 2537,
  "서비스에</w>": 14555,
  "ive</w>": 12476,
  "확산": 15877,
  "앒": 2642,
  "프로토": 12328,
  "션에</w>": 15202,
  "모으": 14556,
  "벏": 1829,
  "윱</w>": 7502,
  "상승": 11246,
  "sc": 13448,
  "개념을</w>": 16379,
  "4차</w>": 13353,
  "측은</w>": 13702,
  "꺗</w>": 7352,
  ".(</w>": 9285,
  "좍</w>": 7099,
  "안에서</w>": 10294,
  "근무": 10709,
  "웹": 2914,
  "입고</w>": 11155,
  "ast</w>": 13929,
  "튠</w>": 5309,
  "휐": 4422,
  "con": 9606,
  "록": 1375,
  "제공됩니다</w>": 8511,
  "염": 2763,
  "곽</w>": 5664,
  "앜</w>": 5985,
  "판을</w>": 12406,
  "잓": 3018,
  "한국은</w>": 15503,
  "실리": 13977,
  "붉</w>": 6503,
  "관찰": 13034,
  "뗸</w>": 7757,
  "으며</w>": 7907,
  "문제에</w>": 12391,
  "뢀</w>": 7166,
  "비즈니스</w>": 10040,
  "34": 12057,
  "주행": 15162,
  "냠</w>": 5788,
  "콰</w>": 5748,
  "4월": 14321,
  "배포</w>": 10665,
  "괜찮은</w>": 14368,
  "있었고</w>": 11581,
  "말입니다</w>": 14327,
  "상에서</w>": 12880,
  "날을</w>": 12617,
  "이에</w>": 8597,
  "책임자</w>": 12459,
  "찜": 3430,
  "디스크</w>": 14457,
  "휴대폰</w>": 13166,
  "흼": 4461,
  "쒼": 2582,
  "사용자가</w>": 11429,
  "아니면</w>": 9843,
  "하겠다는</w>": 14326,
  "굩</w>": 7476,
  "옮": 2794,
  "홉": 4331,
  "포지": 13976,
  "숴</w>": 5227,
  "0</w>": 4541,
  "무엇": 8179,
  "멧": 1604,
  "바라는</w>": 15523,
  "쵤": 3558,
  "행위를</w>": 12790,
  "젒": 3087,
  "eb": 9955,
  "p</w>": 4788,
  "쮹": 3407,
  "않은</w>": 8217,
  "아이디</w>": 10744,
  "족": 3130,
  "가와</w>": 15394,
  "지하철": 15339,
  "띅": 1251,
  "뷘</w>": 7260,
  "됬": 996,
  "ago</w>": 11484,
  "상품명</w>": 8933,
  "살고</w>": 10572,
  "And": 13613,
  "개": 108,
  "챡</w>": 7254,
  "렉": 1339,
  "똮": 1182,
  "고속": 12247,
  "조직": 8918,
  "udio</w>": 15280,
  "아이디": 8980,
  "맄": 1518,
  "옆</w>": 5562,
  "툼</w>": 5422,
  "2016": 14010,
  "팩": 4052,
  "OS": 10139,
  "시설이</w>": 14267,
  "상을</w>": 8157,
  "갤럭시": 13382,
  "스트라이": 13378,
  "바": 1768,
  "4년</w>": 9100,
  "신앙": 12219,
  "뎀": 924,
  "똑": 1170,
  "년에</w>": 9014,
  "클래스</w>": 15670,
  "넀": 647,
  "파트": 10236,
  "5천": 14306,
  "대</w>": 4572,
  "렌</w>": 4689,
  "최종": 12428,
  "보호</w>": 9805,
  "띰": 1261,
  "쫌</w>": 5777,
  "벒": 1830,
  "걲": 143,
  "뵙</w>": 6168,
  "결과는</w>": 14150,
  "세가</w>": 12138,
  "썀</w>": 7588,
  "죄를</w>": 14893,
  "가르": 9605,
  "딕": 1073,
  "뜹</w>": 6650,
  "잡고</w>": 10714,
  "욥</w>": 5502,
  "울": 2866,
  "엙</w>": 6526,
  "Gr": 13987,
  "가지의</w>": 13717,
  "보를</w>": 13688,
  "관계자는</w>": 11486,
  "도의</w>": 8504,
  "학교정보</w>": 11566,
  "계속</w>": 8525,
  "였다</w>": 8284,
  "미디": 8629,
  "주지</w>": 11802,
  "방을</w>": 11355,
  "아닙니다</w>": 9527,
  "길이는</w>": 13504,
  "쫏": 3363,
  "찾은</w>": 16258,
  "이전</w>": 9496,
  "웬": 2907,
  "아가</w>": 15054,
  "됙</w>": 7289,
  "앆</w>": 7090,
  "팻": 4059,
  "이루어진</w>": 16356,
  "맫": 1552,
  "비교적</w>": 13875,
  "그레이": 10502,
  "끌</w>": 6219,
  "샓</w>": 7527,
  "뵬": 1931,
  "시면</w>": 8315,
  "틘": 4013,
  "텍스트": 15014,
  "첸": 3511,
  "숯</w>": 5695,
  "되면</w>": 8453,
  "마켓": 15703,
  "세상의</w>": 15403,
  "형의</w>": 14594,
  "대출": 10002,
  "되어야</w>": 10034,
  "할</w>": 4844,
  "겷": 185,
  "쮠": 3405,
  "그것": 11872,
  "뢥": 1401,
  "해야만</w>": 15622,
  "포함한</w>": 11151,
  "해피": 10208,
  "스를</w>": 8277,
  "아침</w>": 9421,
  "젵</w>": 7004,
  "언더": 13954,
  "짠": 3281,
  "낸</w>": 4692,
  "오래": 10166,
  "낌": 591,
  "EN": 13132,
  "Hotel</w>": 13888,
  "호기": 16249,
  "마음의</w>": 15363,
  "곹</w>": 6222,
  "구나</w>": 10557,
  "꽨": 499,
  "향해</w>": 11999,
  "얫": 2702,
  "서버</w>": 11398,
  "깐</w>": 5190,
  "짙": 3275,
  "꿀": 521,
  "쉰": 2376,
  "붕": 1949,
  "년생</w>": 16201,
  "아동</w>": 14066,
  "꺔": 419,
  "갠</w>": 6068,
  "전기": 9756,
  "짖": 3272,
  "루미": 14931,
  "주님의</w>": 15699,
  "Jav": 16034,
  "항문의</w>": 13104,
  "보험": 8418,
  "이유는</w>": 9339,
  "쎨": 2515,
  "곺": 223,
  "이게</w>": 9707,
  "나타나는</w>": 13289,
  "달렸습니다</w>": 15752,
  "이유": 8166,
  "뺴</w>": 7515,
  "비밀": 8919,
  "쮜</w>": 6349,
  "췩": 3607,
  "폇": 4104,
  "흔": 4443,
  "꽝": 496,
  "속도</w>": 11158,
  "갼</w>": 6230,
  "싶지</w>": 15444,
  "펜": 4086,
  "시아": 10779,
  "쑥</w>": 5574,
  "드가</w>": 8841,
  "왁": 2812,
  "이어</w>": 8766,
  "마시고</w>": 14717,
  "하네요</w>": 10594,
  "값을</w>": 11824,
  "퍅</w>": 6512,
  "행": 4246,
  "톱</w>": 5463,
  "어나": 9395,
  "답": 859,
  "웡": 2899,
  "정보와</w>": 15423,
  "넽</w>": 5978,
  "줫</w>": 7075,
  "먀": 1564,
  "긺": 369,
  "텍사": 15656,
  "만에</w>": 8676,
  "학과</w>": 9538,
  "추천</w>": 8397,
  "학교정보이며</w>": 11579,
  "에이전": 9372,
  "네이버</w>": 10584,
  "도입": 10769,
  "만난</w>": 11226,
  "룐</w>": 6645,
  "쉽지</w>": 11296,
  "넹": 686,
  "뼀": 2078,
  "사유": 10625,
  "낭</w>": 5518,
  "뜝": 1231,
  "놕": 735,
  "배터리</w>": 13418,
  "한편</w>": 9510,
  "돡</w>": 7307,
  "퉜": 3971,
  "뀐</w>": 6465,
  "죽은</w>": 13583,
  "수있는</w>": 11509,
  "에어": 9826,
  "페이스북</w>": 11096,
  "샠": 2202,
  "얌</w>": 5326,
  "때문이다</w>": 8526,
  "곰": 215,
  "항</w>": 5023,
  "웽": 2916,
  "솰": 2305,
  "강수량</w>": 16244,
  "그러면</w>": 10416,
  "셔": 2266,
  "자존": 15856,
  "보다는</w>": 8960,
  "륾": 1477,
  "구에</w>": 13617,
  "낑": 594,
  "엣</w>": 4948,
  "돚": 963,
  "간략": 14293,
  "녘</w>": 5847,
  "재구성에</w>": 16287,
  "툠": 3957,
  "억원</w>": 12073,
  "찡</w>": 5211,
  "단어</w>": 14508,
  "혹</w>": 5543,
  "쇌": 2312,
  "거리는</w>": 14219,
  "수원": 12806,
  "돐": 957,
  "대출</w>": 10506,
  "튕</w>": 6715,
  "권한": 10573,
  "시작</w>": 9503,
  "석</w>": 4535,
  "염</w>": 4966,
  "쯀</w>": 7801,
  "븸": 2000,
  "란히</w>": 16023,
  "주시는</w>": 15163,
  "특징": 9783,
  "좉": 3145,
  "라디오</w>": 15559,
  "쑈</w>": 5916,
  "실제</w>": 9103,
  "깋</w>": 6580,
  "뽀": 2094,
  "일반적으로</w>": 10989,
  "셋": 2258,
  "볐</w>": 6750,
  "아닌</w>": 8427,
  "쐐</w>": 6929,
  "쬬": 3384,
  "40": 8760,
  "밑": 1765,
  "앓</w>": 7211,
  "댐": 875,
  "톺": 3939,
  "컷": 3702,
  "잖": 3020,
  "분들의</w>": 15705,
  "파티": 11499,
  "관련이</w>": 14566,
  "셰": 2277,
  "퉤": 3973,
  "븧": 1997,
  "퓡</w>": 7518,
  "태블": 14078,
  "신문": 10774,
  "때문입니다</w>": 10740,
  "쩝": 3334,
  "et": 8250,
  "걸어": 12605,
  "갈수록</w>": 15399,
  "상당": 8924,
  "int": 15455,
  "어요</w>": 7993,
  "12월</w>": 9310,
  "맀": 1514,
  "췃": 3596,
  "젏": 3084,
  "종종</w>": 13100,
  "떴": 1141,
  "스코": 9892,
  "평범한</w>": 15435,
  "맥</w>": 5164,
  "쥣": 3224,
  "생": 2201,
  "이용</w>": 8417,
  "카카오": 11295,
  "춸": 3594,
  "씨발</w>": 11420,
  "첰": 3507,
  "헑</w>": 5829,
  "늄": 794,
  "푱": 4143,
  "똥</w>": 5303,
  "줍</w>": 6247,
  "탹</w>": 6483,
  "엄청": 10520,
  "46</w>": 14823,
  "창을</w>": 12824,
  "BO": 14729,
  "로의</w>": 9988,
  "튄": 3979,
  "감을</w>": 9007,
  "6개월</w>": 14611,
  "참가": 9433,
  "강사</w>": 14603,
  "...": 14642,
  "정말</w>": 8105,
  "정도는</w>": 13433,
  "뛇": 1213,
  "amster</w>": 9410,
  "룖</w>": 6300,
  "헷</w>": 6244,
  "흐</w>": 5173,
  "현지</w>": 11790,
  "겠지만</w>": 9082,
  "아직": 9425,
  "WiFi</w>": 12993,
  "쒔": 2573,
  "쟝": 3063,
  "켚</w>": 6562,
  "댯</w>": 7409,
  "뿜": 2126,
  "구원": 15314,
  "콩": 3743,
  "놓": 733,
  "W</w>": 5111,
  "츔": 3618,
  "탚": 3863,
  "벝": 1839,
  "메이크": 15100,
  "공사": 15252,
  "뉩": 788,
  "겠죠</w>": 10971,
  "쏼": 2540,
  "톷": 3936,
  "샆</w>": 6749,
  "섟</w>": 7076,
  "1층</w>": 15349,
  "정보통신": 12683,
  "췝": 3602,
  "홈런을</w>": 16114,
  "실험</w>": 11498,
  "쭁</w>": 5668,
  "23</w>": 10345,
  "기가</w>": 8059,
  "초과": 11537,
  "씪": 2618,
  "변": 1860,
  "그만": 14793,
  "밖</w>": 5945,
  "걱": 142,
  "썪": 2492,
  "헠</w>": 5671,
  "켵": 3732,
  "ber": 14641,
  "줖": 3200,
  "함과</w>": 13636,
  "맻</w>": 7817,
  "킮": 3835,
  "지나</w>": 11957,
  "잟": 3026,
  "쩄": 3324,
  "괕": 238,
  "뛩": 1216,
  "최대": 15779,
  "차를</w>": 9246,
  "판타": 12325,
  "쿇": 3765,
  "뜍": 1226,
  "지로</w>": 9895,
  "뙨": 1190,
  "봊</w>": 6659,
  "하라는</w>": 16295,
  "이어": 8195,
  "닾</w>": 5652,
  "드라이": 9397,
  "하면서도</w>": 12921,
  "::</w>": 9092,
  "하시길</w>": 15828,
  "폿</w>": 5328,
  "부드럽": 16047,
  "위치에</w>": 12366,
  "쐬": 2548,
  "죠": 3171,
  "시기": 13749,
  "대처": 13823,
  "떯": 1137,
  "핱": 4233,
  "윙": 2926,
  "쪙": 3354,
  "텄": 3895,
  "홀</w>": 4726,
  "역할을</w>": 9657,
  "굿": 283,
  "읅": 2959,
  "크</w>": 4762,
  "미보유</w>": 11571,
  "시스</w>": 15714,
  "가능성을</w>": 14398,
  "줕": 3199,
  "볱": 1880,
  "하십니까</w>": 15902,
  "채널": 11227,
  "술</w>": 4673,
  "취급": 11468,
  "춝</w>": 7396,
  "돌아가": 15360,
  "그룹</w>": 8866,
  "솊</w>": 6974,
  "핫</w>": 5343,
  "뒙": 1025,
  "클럽</w>": 10941,
  "럭셔리</w>": 15698,
  "제출</w>": 15038,
  "록</w>": 4575,
  "갯": 117,
  "디오</w>": 8982,
  "횬": 4376,
  "쨉</w>": 6863,
  "탂": 3848,
  "1페이지</w>": 13618,
  "TO": 11388,
  "쏩": 2530,
  "쨤": 3315,
  "l": 66,
  "여자</w>": 8568,
  "리며</w>": 14062,
  "켚": 3720,
  "귀하의</w>": 12778,
  "냐는</w>": 13310,
  "그래프</w>": 10417,
  "아닐</w>": 14528,
  "4개</w>": 13409,
  "실시": 9655,
  "혠": 4318,
  "시간은</w>": 10739,
  "렸": 1363,
  "킐": 3829,
  "의해</w>": 8596,
  "번째</w>": 8299,
  "십</w>": 5226,
  "화장실</w>": 14817,
  "컄</w>": 6969,
  "귀여": 10650,
  "김민": 16243,
  "2014</w>": 13112,
  "마시": 13287,
  "단으로</w>": 13726,
  "홧</w>": 5973,
  "캽": 3687,
  "학술": 12276,
  "자신": 7953,
  "이끌": 10976,
  "가치</w>": 12233,
  "퓽</w>": 7694,
  "인간은</w>": 15540,
  "수상</w>": 11995,
  "볌</w>": 6449,
  "퐗": 4130,
  "Advisor</w>": 15159,
  "퇴": 3948,
  "젠": 3098,
  "훼손</w>": 9601,
  "상황이</w>": 11685,
  "3D": 14872,
  "쇳</w>": 5517,
  "문서</w>": 11620,
  "육</w>": 4658,
  "장으로</w>": 10746,
  "최적": 10068,
  "Bo": 14481,
  "보다도</w>": 12221,
  "센스</w>": 14478,
  "논리": 14527,
  "피해를</w>": 13389,
  "거유</w>": 11665,
  "꺙</w>": 7123,
  "아시": 8317,
  "솟": 2296,
  "잙": 3023,
  "쁠": 2147,
  "부모": 8799,
  "좌": 3148,
  "이슈": 11684,
  "이것": 14574,
  "봫": 1912,
  "인다</w>": 8947,
  "댤</w>": 6090,
  "뀬</w>": 6889,
  "어를</w>": 8693,
  "솃": 2284,
  "졲": 3131,
  "여호": 13543,
  "얍": 2686,
  "슥</w>": 6017,
  "젲": 3107,
  "?!</w>": 15297,
  "앝": 2652,
  "41</w>": 14002,
  "외": 2833,
  "보여</w>": 12405,
  "실내": 15629,
  "분이</w>": 8796,
  "많다</w>": 9914,
  "B": 27,
  "쏨": 2529,
  "봍": 1899,
  "션의</w>": 13718,
  "앁</w>": 7763,
  "믈": 1733,
  "읒</w>": 6642,
  "헠": 4283,
  "현금": 13712,
  "품을</w>": 11394,
  "나아": 10182,
  "방법에</w>": 12628,
  "뺵": 2055,
  "홴</w>": 7793,
  "자료는</w>": 11811,
  "쩝</w>": 6460,
  "나오지</w>": 15317,
  "ong": 12503,
  "col": 15730,
  "op</w>": 12361,
  "혁명</w>": 13311,
  "인식": 10059,
  "계약</w>": 10849,
  "쯉": 3409,
  "잉": 3008,
  "한의</w>": 14604,
  "국을</w>": 12881,
  "뱜": 1816,
  "생성": 10444,
  "그리스도의</w>": 16266,
  "웛": 2894,
  "숀</w>": 5609,
  "자금</w>": 14060,
  "덟</w>": 6948,
  "변화를</w>": 10489,
  "앚": 2650,
  "벗어": 11991,
  "섹</w>": 5450,
  "드라": 8971,
  "교육</w>": 8318,
  "굴</w>": 4793,
  "최소한</w>": 15310,
  "54</w>": 15568,
  "사로</w>": 10818,
  "덜</w>": 5199,
  "였고</w>": 14225,
  "지난": 8724,
  "관련하여</w>": 12648,
  "렐": 1343,
  "좋아": 8160,
  "멍</w>": 5284,
  "쪾</w>": 6741,
  "erv": 9818,
  "뎃": 926,
  "디": 1072,
  "륲": 1469,
  "혀</w>": 5342,
  "괞": 242,
  "오늘의</w>": 13771,
  "개막": 14973,
  "Por": 8885,
  "걔</w>": 5109,
  "근처</w>": 13455,
  "변환": 14165,
  "섄": 2218,
  "쪾": 3358,
  "케이스</w>": 11250,
  "훕</w>": 5571,
  "멤</w>": 6278,
  "에서만</w>": 11548,
  "땋": 1105,
  "운동을</w>": 12071,
  "댜</w>": 5354,
  "로드</w>": 11699,
  "뺏</w>": 6255,
  "쭌</w>": 6291,
  "쾌</w>": 6144,
  "쨩": 3317,
  "점을</w>": 8191,
  "Bl": 13170,
  "없음</w>": 11500,
  "판타지</w>": 14691,
  "포함되어</w>": 11241,
  "뎬": 945,
  "켰</w>": 5910,
  "밊</w>": 7566,
  "김동": 14921,
  "비</w>": 4594,
  "a</w>": 4656,
  "Al": 10493,
  "넨</w>": 4845,
  "쇼핑": 9210,
  "공유": 8827,
  "정부의</w>": 11085,
  "킅": 3825,
  "봅": 1893,
  "..": 8065,
  "참조</w>": 12482,
  "감": 96,
  "웅": 2877,
  "쁙": 2145,
  "학교": 8101,
  "글을</w>": 8853,
  "떵</w>": 6922,
  "반기</w>": 12091,
  "9": 22,
  "량</w>": 4586,
  "펓": 4082,
  "졎": 3124,
  "씰</w>": 6029,
  "순위</w>": 11212,
  "쇙</w>": 7358,
  "문제</w>": 8631,
  "어렵": 9144,
  "재</w>": 4711,
  "랲": 1299,
  "어링</w>": 14148,
  "똘": 1174,
  "받았다</w>": 10364,
  "쳇": 3516,
  "전용": 14491,
  "뙤": 1189,
  "바이러": 12578,
  "and</w>": 8654,
  "검색</w>": 8258,
  "신기": 13555,
  "레즈": 10279,
  "풍속</w>": 16290,
  "물어": 11603,
  "지역의</w>": 10722,
  "활동을</w>": 9740,
  "싳</w>": 7672,
  "연구원</w>": 12601,
  "윺": 2949,
  "엽</w>": 5296,
  "뇟": 745,
  "입에</w>": 13366,
  "증거": 12275,
  "쁩": 2150,
  "사용해</w>": 14489,
  "슑": 2389,
  "럻": 1329,
  "충전</w>": 15489,
  "하기</w>": 7903,
  "해주시면</w>": 9516,
  "콘": 3737,
  "가지</w>": 8026,
  "뱡": 1819,
  "꽂</w>": 5715,
  "비즈": 9221,
  "전히</w>": 8661,
  "끄러": 13275,
  "훃</w>": 7664,
  "횄": 4362,
  "파": 4032,
  "유출": 14435,
  "것보다</w>": 13109,
  "듶": 1064,
  "가</w>": 4508,
  "살</w>": 5442,
  "겓</w>": 6332,
  "쾬": 3760,
  "성명</w>": 14607,
  "늦게</w>": 12642,
  "꼐": 465,
  "뒀": 1022,
  "연출": 12547,
  "캎": 3666,
  "cm</w>": 10134,
  "ER": 9487,
  "하려": 8342,
  "기여": 11271,
  "의사": 10044,
  "갻": 126,
  "랴</w>": 5083,
  "올림": 9370,
  "빔": 2011,
  "be": 14445,
  "5페이지</w>": 10579,
  "발표</w>": 10209,
  "부로</w>": 14330,
  "몹</w>": 5285,
  "여기</w>": 10262,
  "ass": 10612,
  "만들고</w>": 10922,
  "다보니</w>": 13158,
  "요구": 8714,
  "죈": 3164,
  "맍": 1527,
  "핷": 4238,
  "텬": 3918,
  "맞는</w>": 9600,
  "뽂": 2096,
  "누르면</w>": 14979,
  "암</w>": 5039,
  "룡</w>": 5372,
  "욹": 2867,
  "꺢": 425,
  "려</w>": 4678,
  "--": 15612,
  "g</w>": 4496,
  "쥠": 3222,
  "핤</w>": 7662,
  "직무": 13045,
  "지는</w>": 7944,
  "all": 12134,
  "붘</w>": 7134,
  "화재": 15371,
  "60": 9034,
  "대해서</w>": 9169,
  "엄마</w>": 9604,
  "뾔": 2112,
  "훼": 4413,
  "략": 1302,
  "었고</w>": 10803,
  "다운로드가</w>": 11384,
  "늼": 823,
  "젿": 3116,
  "둚": 1010,
  "쟁": 3049,
  "꼼꼼": 15199,
  "닷": 861,
  "늄</w>": 5306,
  "앆": 2633,
  "X</w>": 5001,
  "ar</w>": 9553,
  "앝</w>": 7298,
  "쌉</w>": 6485,
  "결과를</w>": 9905,
  "우리를</w>": 12041,
  "윗": 2924,
  "다니</w>": 14955,
  "주말": 15581,
  "당시</w>": 8935,
  "단체": 9203,
  "닷컴</w>": 13202,
  "I": 34,
  "운동": 8433,
  "섺</w>": 6246,
  "플랫폼": 11552,
  "배우고</w>": 14925,
  "유사한</w>": 14292,
  "즐거운</w>": 10905,
  "꽊": 490,
  "그녀": 8624,
  "올라</w>": 13172,
  "큔": 3806,
  "뜻": 1243,
  "편리한</w>": 16320,
  "스틱</w>": 12600,
  "떱": 1139,
  "밓</w>": 7610,
  "생각하지</w>": 16378,
  "2014년</w>": 11164,
  "주의": 8245,
  "창은</w>": 15914,
  "얩</w>": 6844,
  "냣": 641,
  "아트": 13462,
  "냐</w>": 4492,
  "맥": 1549,
  "10</w>": 8126,
  "기관</w>": 9971,
  "샛</w>": 6205,
  "Advis": 15003,
  "일어나지</w>": 14007,
  "합리": 11430,
  "정지</w>": 15931,
  "얽": 2714,
  "근거로</w>": 14042,
  "가볍게</w>": 16359,
  "경을</w>": 9918,
  "캐": 3667,
  "상으로</w>": 11529,
  "역사</w>": 9819,
  "흨</w>": 6487,
  "칡": 3640,
  "소개</w>": 9420,
  "인들의</w>": 12909,
  "기대를</w>": 15398,
  "퓔</w>": 7524,
  "뉨": 787,
  "1월</w>": 9456,
  "O": 40,
  "건지</w>": 13221,
  "바람에</w>": 16374,
  "궘</w>": 7436,
  "쫑": 3364,
  "제의</w>": 10210,
  "믿는</w>": 15295,
  "넸": 685,
  "개혁": 11425,
  "톼</w>": 7220,
  "테라": 15555,
  "for</w>": 10266,
  "킈": 3826,
  "웢": 2900,
  "균": 329,
  "씹": 2623,
  "이상의</w>": 9116,
  "사진을</w>": 9700,
  "프로그램은</w>": 15270,
  "아빠</w>": 12035,
  "강수": 12198,
  "부</w>": 4670,
  "시장을</w>": 13388,
  "객실에는</w>": 15598,
  "귐</w>": 6865,
  "궛": 299,
  "짊</w>": 6902,
  "SS</w>": 15242,
  "중국</w>": 8591,
  "패션": 12448,
  "경계": 14813,
  "잡": 3028,
  "생</w>": 4591,
  "독특": 12043,
  "몌": 1629,
  "콥": 3741,
  "갼": 127,
  "메</w>": 4738,
  "롶": 1388,
  "곂": 195,
  "보내는</w>": 13477,
  "이용한</w>": 11081,
  "흠</w>": 5275,
  "쬘": 3381,
  "바이러스</w>": 16142,
  "쿙": 3768,
  "거대한</w>": 11854,
  "휨": 4429,
  "귕": 324,
  "정해": 15499,
  "활동</w>": 9371,
  "강아": 13790,
  "경남</w>": 14707,
  "집단</w>": 14028,
  "쳐서</w>": 12637,
  "사람에게</w>": 11764,
  "6일</w>": 12541,
  "분야</w>": 10559,
  "넹</w>": 5397,
  "ther</w>": 14441,
  "좋을</w>": 11402,
  "조작</w>": 16221,
  "쌤</w>": 5191,
  "의료</w>": 14070,
  "공기": 16194,
  "꿘</w>": 6988,
  "시켰다</w>": 15969,
  "는다는</w>": 15924,
  "스페인</w>": 13087,
  "이탈리아": 13576,
  "물건을</w>": 15488,
  "s</w>": 4538,
  "있습니다</w>": 7850,
  "롁</w>": 7720,
  "kr</w>": 8877,
  "쟛</w>": 7363,
  "집단": 12521,
  "듀": 1037,
  "데이터를</w>": 10198,
  "넜</w>": 6891,
  "큄</w>": 6328,
  "쩖</w>": 7718,
  "튈</w>": 6397,
  "정도": 8116,
  "젉": 3081,
  "맡</w>": 6330,
  "흔히</w>": 13099,
  "약에</w>": 16145,
  "z": 80,
  "튠": 3988,
  "부산</w>": 10399,
  "틈</w>": 5680,
  "첩</w>": 5411,
  "인이</w>": 8348,
  "긧": 361,
  "사용을</w>": 14025,
  "개발자</w>": 14241,
  "촉": 3533,
  "나</w>": 4561,
  "괜찮": 9502,
  "삯</w>": 6598,
  "갛</w>": 7031,
  "서의</w>": 9423,
  "광고글</w>": 11553,
  "뗼</w>": 6861,
  "먐": 1568,
  "봌": 1898,
  "맓": 1533,
  "환자": 15562,
  "비를</w>": 9564,
  "개혁</w>": 15530,
  "왑": 2818,
  "갂": 85,
  "등과</w>": 12279,
  "사용할</w>": 8478,
  "따라": 8326,
  "없게</w>": 13457,
  "있네요</w>": 13371,
  "쳑</w>": 5560,
  "언젠": 14156,
  "봔</w>": 6401,
  "기회를</w>": 10949,
  "충청": 15678,
  "ton</w>": 16132,
  "객실": 9548,
  "inc": 15079,
  "우리가</w>": 8383,
  "롹</w>": 6900,
  "드라마": 11961,
  "갤러리</w>": 11837,
  "솬": 2304,
  "왯": 2830,
  "캣</w>": 5200,
  "녃": 695,
  "솔루": 10673,
  "없는데</w>": 15533,
  "20일</w>": 12380,
  "렜": 1347,
  "청구": 12773,
  "\u001d</w>": 6172,
  "요</w>": 4481,
  "혁신</w>": 15611,
  "습니다만</w>": 13469,
  "빰": 2029,
  "짓": 3269,
  "주의</w>": 8336,
  "뀹": 560,
  "굿</w>": 5382,
  "죽</w>": 5044,
  "싶습니다</w>": 9959,
  "엩</w>": 7439,
  "랓": 1281,
  "호텔에서</w>": 12439,
  "튀</w>": 5253,
  "매일": 15440,
  "나이가</w>": 14571,
  "었다고</w>": 14470,
  "틥</w>": 7703,
  "굛": 262,
  "기간은</w>": 14745,
  "올리고</w>": 15687,
  "빎</w>": 6208,
  "눠</w>": 6209,
  "퓰</w>": 6805,
  "편집": 9839,
  "멓": 1597,
  "많았": 13883,
  "조합": 10032,
  "읨</w>": 5542,
  "햛": 4255,
  "들은</w>": 7884,
  "홪": 4354,
  "lo": 8216,
  "mp3</w>": 15726,
  "공</w>": 4540,
  "멸</w>": 5445,
  "걸어서</w>": 12423,
  "로만</w>": 13373,
  "제외</w>": 12179,
  "종목": 13647,
  "여성</w>": 8683,
  "생기는</w>": 15804,
  "길에</w>": 14203,
  "섁": 2217,
  "tr": 10217,
  "혯": 4322,
  "해질</w>": 9252,
  "제거": 10524,
  "지원하지</w>": 16361,
  "그렇게</w>": 8426,
  "구역</w>": 14408,
  "오히": 9442,
  "흥": 4453,
  "비전</w>": 14937,
  "잆": 3005,
  "연습": 11046,
  "세미나</w>": 14679,
  "쟝</w>": 5882,
  "밨</w>": 6426,
  "뎬</w>": 6095,
  "그래도</w>": 9027,
  "놐": 730,
  "이름이</w>": 13008,
  "영업</w>": 14119,
  "깯": 406,
  "너의</w>": 12377,
  "나도</w>": 9817,
  "겍</w>": 6334,
  "궆": 289,
  "상품</w>": 8505,
  "도착</w>": 10770,
  "sp": 10286,
  "틉": 4003,
  "지원합니다</w>": 15695,
  "주시</w>": 10888,
  "승리": 12795,
  "브라우": 9705,
  "디자인</w>": 9036,
  "춸</w>": 5373,
  "하나도</w>": 15449,
  "집이</w>": 12485,
  "치": 3633,
  "소에서</w>": 12640,
  "향이</w>": 11029,
  "쳌": 3518,
  "달에</w>": 16177,
  "셐": 2262,
  "얗</w>": 7034,
  "에스": 11974,
  "왬": 2828,
  "주간</w>": 9947,
  "하다고</w>": 9351,
  "예산</w>": 13267,
  "TH": 15645,
  "틀</w>": 5487,
  "욕설</w>": 10908,
  "놉": 724,
  "쏼</w>": 6984,
  "홱": 4359,
  "다면</w>": 7942,
  "싞</w>": 6587,
  "38": 11939,
  "궷": 312,
  "쀅": 2136,
  "짧": 3286,
  "슬라이딩</w>": 12085,
  "동일": 9090,
  "딯": 1088,
  "자세한</w>": 8998,
  "그동안</w>": 10374,
  "인의</w>": 8370,
  "박사": 15894,
  "갓</w>": 5444,
  "믾</w>": 7644,
  "드림": 14334,
  "관광객": 14424,
  "사고</w>": 9829,
  "트의</w>": 9579,
  "자료와</w>": 11519,
  "비디오": 14391,
  "하더라도</w>": 10912,
  "그런지</w>": 14444,
  "하루</w>": 9058,
  "곬</w>": 5860,
  "등은</w>": 9489,
  "캨": 3679,
  "자전": 9888,
  "해양": 13175,
  "앸": 2668,
  "램": 1292,
  "댈</w>": 5216,
  "행사": 10361,
  "뱍": 1812,
  "방법이</w>": 11236,
  "폠": 4112,
  "왔습니다</w>": 10313,
  "국제</w>": 10201,
  "심각": 10809,
  "떪</w>": 5751,
  "글쓰기</w>": 12623,
  "시간</w>": 7976,
  "력": 1354,
  "공단</w>": 15836,
  "한가</w>": 15781,
  "꿨</w>": 6194,
  "븍": 1985,
  "당신": 8125,
  "뀽</w>": 7494,
  "맆</w>": 6875,
  "국내외</w>": 16198,
  "괸": 248,
  "홒</w>": 7479,
  "넘어": 9656,
  "아픈</w>": 15033,
  "핵": 4237,
  "7페이지</w>": 11465,
  "체를</w>": 10258,
  "뚯</w>": 6997,
  "포트": 10367,
  "픠": 4194,
  "제주": 9200,
  "화면": 9292,
  "음료</w>": 15355,
  "롄": 1371,
  "띵": 1264,
  "해피캠퍼스는</w>": 11615,
  "넖": 658,
  "뜔</w>": 7573,
  "렌즈</w>": 15515,
  "앢": 2657,
  "옻": 2806,
  "댔</w>": 7461,
  "이었던</w>": 11574,
  "뭃</w>": 7315,
  "됍": 983,
  "얙": 2696,
  "오": 2787,
  "읏": 2969,
  "예정": 8707,
  "줏": 3195,
  "좋아하는</w>": 9620,
  "뮥": 1724,
  "타이": 9236,
  "쪽</w>": 5027,
  "역할": 8847,
  "룝": 1421,
  "폈": 4105,
  "흄": 4437,
  "뭇</w>": 4940,
  "알아보": 13564,
  "55": 12009,
  "엳</w>": 6574,
  "퇘</w>": 5410,
  "눈이</w>": 11424,
  "켁</w>": 6306,
  "쳰": 3530,
  "시험을</w>": 15814,
  "일반</w>": 9201,
  "벰</w>": 7250,
  "공부를</w>": 12916,
  "오일</w>": 15046,
  "갤러": 10263,
  "싧": 2433,
  "괙": 240,
  "헬": 4290,
  "현황</w>": 10238,
  "어디</w>": 13665,
  "깥": 399,
  "듣</w>": 5270,
  "나는</w>": 7969,
  "혅": 4305,
  "닼</w>": 5624,
  "텡": 3910,
  "갬</w>": 5381,
  "이기에</w>": 15618,
  "말한다</w>": 11045,
  "연": 2752,
  "22": 8828,
  "쁜": 2146,
  "둔</w>": 4849,
  "대학생</w>": 14886,
  "쟛": 3061,
  "협력</w>": 14473,
  "질병": 11763,
  "위한</w>": 7957,
  "위치": 8133,
  "가상": 10994,
  "드로</w>": 9191,
  "랑</w>": 4536,
  "쫒</w>": 6782,
  "뗗": 1155,
  "LE": 9266,
  "개인적인</w>": 14648,
  "피해</w>": 13000,
  "싣": 2429,
  "있어요</w>": 9039,
  "시부터</w>": 13927,
  "연구를</w>": 14960,
  "듈</w>": 5242,
  "Fr": 14786,
  "에서</w>": 7844,
  "듸": 1066,
  "위치한</w>": 9240,
  "엓": 2732,
  "끕</w>": 6719,
  "쭉</w>": 5516,
  "감독은</w>": 13850,
  "뾱": 2114,
  "하고": 8550,
  "의무": 10892,
  "절": 3080,
  "푀": 4133,
  "자아": 15757,
  "기분</w>": 14039,
  "자전거": 13490,
  "되기도</w>": 13645,
  "시다</w>": 10839,
  "팀이</w>": 11521,
  "TV": 9413,
  "랐": 1278,
  "주변</w>": 8787,
  "검사를</w>": 15954,
  "x": 78,
  "칫": 3644,
  "SD": 14211,
  "롯</w>": 5282,
  "턍</w>": 7194,
  "쿄": 3763,
  "20년</w>": 14209,
  "의식": 12332,
  "풤</w>": 6151,
  "죵</w>": 5247,
  "볁</w>": 7498,
  "뼌": 2083,
  "박근혜</w>": 11864,
  "둉</w>": 6572,
  "하다면</w>": 15739,
  "한국": 7914,
  "르": 1471,
  "연장</w>": 15275,
  "육": 2932,
  "간이</w>": 16048,
  "다이": 9054,
  "계약": 8705,
  "수를</w>": 8503,
  "획</w>": 4720,
  "웽</w>": 7340,
  "An": 9087,
  "홮": 4356,
  "훈</w>": 5161,
  "델</w>": 5067,
  "껫": 451,
  "파악": 10214,
  "원": 2886,
  "위원장</w>": 13121,
  "죕": 3167,
  "세상이</w>": 15110,
  "립니다</w>": 8147,
  "뙌": 1188,
  "t</w>": 4712,
  "나요</w>": 8398,
  "톈</w>": 5639,
  "덪": 913,
  "쓕": 2588,
  "들어간</w>": 16045,
  "뜩</w>": 6631,
  "궇": 290,
  "CO": 10492,
  "인정": 9050,
  "늿": 824,
  "라운": 9069,
  "영향": 8611,
  "쫘</w>": 6960,
  "껑": 440,
  "안전한</w>": 14109,
  "요약</w>": 15958,
  "롭": 1382,
  "젝": 3097,
  "있음을</w>": 11908,
  "SQ": 12149,
  "햿": 4266,
  "이제는</w>": 10884,
  "유를</w>": 15456,
  "기쁨": 13144,
  "듞": 1046,
  "콴": 3750,
  "과의</w>": 8856,
  "붑</w>": 6245,
  "서서</w>": 14348,
  "24": 8424,
  "원은</w>": 9098,
  "밉": 1757,
  "라이브러": 15010,
  "폘</w>": 7216,
  "o</w>": 4718,
  "윙</w>": 4921,
  "겟</w>": 5131,
  "룦": 1424,
  "뱡</w>": 6893,
  "콧</w>": 5351,
  "이하": 9908,
  "엿</w>": 5900,
  "깞": 394,
  "의하여</w>": 11326,
  "싶은데</w>": 15384,
  "해결</w>": 11593,
  "섦</w>": 6302,
  "지라도</w>": 15587,
  "묵": 1680,
  "앟": 2654,
  "맏</w>": 5810,
  "하므로</w>": 12876,
  "플레이": 8761,
  "소프트웨어</w>": 10775,
  "경찰": 9146,
  "2011년</w>": 12537,
  "들입니다</w>": 9419,
  "심리": 9739,
  "Andro": 15204,
  "25": 8637,
  "킽": 3843,
  "먿": 1581,
  "앏</w>": 7117,
  "렺": 1365,
  "다양": 7991,
  "음악</w>": 10087,
  "풓": 4158,
  "아우": 14284,
  "위가</w>": 10540,
  "영의</w>": 16211,
  "나눔": 11970,
  "ore": 10641,
  "쓸": 2597,
  "들어갈</w>": 15741,
  "꽤": 497,
  "바닥": 11235,
  "삉</w>": 7625,
  "랙</w>": 5193,
  "자체가</w>": 10589,
  "씯</w>": 6570,
  "상호": 12348,
  "엏</w>": 6256,
  "쿈</w>": 7417,
  "사무": 8857,
  "안내": 10020,
  "괜</w>": 7680,
  "환경": 8236,
  "카메": 9148,
  "씅": 2605,
  "퓍": 4168,
  "읶": 2990,
  "꿱</w>": 6253,
  "실용": 15149,
  "기사": 11572,
  "슫": 2400,
  "팹</w>": 5941,
  "돋</w>": 5850,
  "비해</w>": 10023,
  "겼": 190,
  "속에</w>": 9121,
  "셕": 2267,
  "익스": 13745,
  "얼굴을</w>": 14620,
  "있겠": 13705,
  "쩖": 3331,
  "꿈꾸": 13785,
  "프트</w>": 12733,
  "수많은</w>": 10058,
  "뤈</w>": 6771,
  "쑴</w>": 7000,
  "꽶": 500,
  "끝": 580,
  "쳤다</w>": 11372,
  "즵</w>": 7742,
  "뷴</w>": 6020,
  "닮</w>": 6420,
  "츻": 3631,
  "사이즈침대</w>": 16169,
  "런트</w>": 15505,
  "냄": 625,
  "설치</w>": 9373,
  "텋": 3900,
  "이익": 10459,
  "깸</w>": 6807,
  "오픈": 10606,
  "온": 2790,
  "공감": 12545,
  "인디": 14949,
  "통제": 13660,
  "드시</w>": 9101,
  "거에요</w>": 14759,
  "뿥": 2131,
  "사": 2166,
  "레스토랑</w>": 11269,
  "to</w>": 8748,
  "도전</w>": 12827,
  "팢": 4046,
  "롞</w>": 7237,
  "독자": 15001,
  "뵷": 1932,
  "쑵</w>": 7145,
  "퍄": 4064,
  "리스": 11421,
  "절대": 13235,
  "벼</w>": 5843,
  "다운로드": 14317,
  "간단한</w>": 11240,
  "33</w>": 12517,
  "졸": 3134,
  "빣": 2023,
  "쁍": 2143,
  "톄": 3924,
  "뎢": 942,
  "합의": 12768,
  "방의</w>": 14239,
  "펐</w>": 7128,
  "봤": 1910,
  "스가</w>": 8744,
  "오래된</w>": 13046,
  "갬": 115,
  "닿": 869,
  "럷": 1327,
  "주문</w>": 10496,
  "않았다</w>": 8997,
  "앻": 2671,
  "엦": 2744,
  "휙": 4426,
  "츈": 3615,
  "조건</w>": 9735,
  "땔</w>": 7014,
  "씌": 2609,
  "개정</w>": 15318,
  "Io": 15861,
  "뚱</w>": 5136,
  "내용": 7983,
  "띔</w>": 6167,
  "들의</w>": 7915,
  "되나요</w>": 15536,
  "냇</w>": 6851,
  "\u001d": 1,
  "쓱</w>": 6110,
  "복": 1882,
  "돕": 960,
  "성</w>": 4657,
  "o": 69,
  "교과": 11626,
  "든</w>": 4607,
  "IP": 10897,
  "가이": 12003,
  "창업</w>": 14058,
  "브를</w>": 14737,
  "Cl": 11627,
  "스포츠": 8776,
  "출판": 11031,
  "어려움이</w>": 14502,
  "층": 3629,
  "텟": 3909,
  "고를</w>": 11267,
  "회사": 9017,
  "맏": 1529,
  "질문에</w>": 14095,
  "투자": 8712,
  "사람을</w>": 9490,
  "암호": 11163,
  "될</w>": 4634,
  "걈</w>": 6338,
  "with</w>": 12870,
  "멈</w>": 5569,
  "선정</w>": 11697,
  "믐": 1734,
  "읮</w>": 7276,
  "쯥": 3416,
  "할때</w>": 14043,
  "한테</w>": 10648,
  "넑": 655,
  "씸</w>": 6263,
  "챂": 3457,
  "닣": 844,
  "부에서</w>": 15878,
  "중에</w>": 8296,
  "경기에</w>": 15121,
  "췅</w>": 7586,
  "정착": 15820,
  "웱": 2910,
  "쿠폰</w>": 14557,
  "의미를</w>": 12079,
  "꽝</w>": 5913,
  "일반": 8390,
  "원칙": 10720,
  "첩": 3501,
  "act": 15406,
  "팡": 4045,
  "포함된</w>": 14945,
  "실점</w>": 13522,
  "트와</w>": 12662,
  "셀</w>": 5169,
  "안고</w>": 16129,
  "디스크": 14787,
  "리그": 10021,
  "쒴": 2579,
  "권을</w>": 9208,
  "하우스</w>": 11141,
  "컫": 3696,
  "U": 46,
  "뚝": 1197,
  "하고는</w>": 15364,
  "기억": 8767,
  "범위</w>": 13189,
  "잎": 3013,
  "협</w>": 5014,
  "어디": 8681,
  "둁</w>": 7809,
  "갤": 113,
  "텐</w>": 5273,
  "찹": 3449,
  "뷧": 1973,
  "무역</w>": 14816,
  "층</w>": 4983,
  "률이</w>": 13346,
  "브라우저를</w>": 15141,
  "맠": 1544,
  "기독교": 11849,
  "컨트롤": 13165,
  "그건</w>": 11967,
  "팥": 4049,
  "영어": 9392,
  "참여": 8449,
  "인기": 12319,
  "리면</w>": 13521,
  "하루의</w>": 12354,
  "제재가</w>": 9590,
  "백화점</w>": 16014,
  "쑀": 2553,
  "사실</w>": 8574,
  "더러": 14802,
  "7년</w>": 8738,
  "기록한</w>": 16077,
  "씋": 2608,
  "스마": 8263,
  "단</w>": 4681,
  "물": 1687,
  "자를</w>": 8222,
  "홍콩": 15358,
  "량": 1310,
  "120": 14041,
  "맟": 1543,
  "싹</w>": 5283,
  "최신": 15464,
  "해보": 8686,
  "겆": 156,
  "동의": 10073,
  "스마트</w>": 11910,
  "컽": 3706,
  "금액</w>": 12412,
  "쯕": 3412,
  "처": 3491,
  "드를</w>": 8441,
  "동양": 14218,
  "넠</w>": 7534,
  "읗</w>": 5586,
  "무역": 11008,
  "유료</w>": 16357,
  "생명</w>": 14271,
  "고객님의</w>": 15426,
  "정상회담</w>": 14309,
  "췍": 3600,
  "냈</w>": 5811,
  "교정": 14831,
  "that</w>": 13877,
  "썐": 2486,
  "펫</w>": 5364,
  "통신": 8837,
  "텩": 3917,
  "이들은</w>": 11376,
  "읔": 2974,
  "릉</w>": 5237,
  "M": 38,
  "마음이</w>": 10140,
  "주제": 15065,
  "번째로</w>": 14894,
  "당선": 15428,
  "벞": 1840,
  "부활": 13598,
  "닽": 867,
  "무엇보다</w>": 12475,
  "튬": 3990,
  "웨": 2905,
  "꽥": 498,
  "리티": 15032,
  "웨이</w>": 12543,
  "짪": 3288,
  "아이": 7890,
  "길</w>": 4622,
  "멤": 1602,
  "펭": 4092,
  "브리": 10583,
  "수가</w>": 8192,
  "쏙": 2524,
  "깜</w>": 6262,
  "등록자에게</w>": 11597,
  "겂</w>": 7634,
  "J": 35,
  "광": 236,
  "포스": 10799,
  "프랑": 8961,
  "후</w>": 4626,
  "자주</w>": 9254,
  "소녀": 11490,
  "닺</w>": 6954,
  "줬다</w>": 14561,
  "그럼에도</w>": 14129,
  "놕</w>": 6667,
  "믜</w>": 5921,
  "꾁</w>": 7567,
  "HT": 11982,
  "격": 177,
  "킵</w>": 5403,
  "친구": 8341,
  "강의": 11722,
  "Ph": 11213,
  "웅</w>": 4952,
  "덍</w>": 7225,
  "공지": 11447,
  "했지만</w>": 8949,
  "맬</w>": 5825,
  "춥": 3584,
  "취약": 13422,
  "wh": 12147,
  "익</w>": 4731,
  "킌": 3828,
  "땐</w>": 5004,
  "뽕</w>": 5769,
  "조합</w>": 13784,
  "보증</w>": 15478,
  "개발</w>": 8659,
  "촹</w>": 6267,
  "샹": 2213,
  "방향</w>": 10508,
  "말": 1530,
  "읮": 2986,
  "홰": 4358,
  "하다</w>": 7984,
  "뉠": 786,
  "비용</w>": 10834,
  "여행을</w>": 10219,
  "마음": 8046,
  "문화</w>": 8923,
  "첮</w>": 7263,
  "말이다</w>": 11019,
  "재무": 12820,
  "로서의</w>": 13404,
  "뵥": 1929,
  "킽</w>": 7072,
  "동물</w>": 12323,
  "쵄": 3552,
  "븽": 2001,
  "기는</w>": 8091,
  "러": 1316,
  "좦": 3156,
  "언급": 10054,
  "머니</w>": 9238,
  "샊": 2192,
  "활": 4344,
  "손을</w>": 10993,
  "쬭</w>": 7626,
  "착": 3440,
  "선수가</w>": 13105,
  "튓": 3983,
  "학": 4212,
  "남성": 12026,
  "틋": 4004,
  "팻</w>": 5922,
  "꼈</w>": 7203,
  "가스": 14471,
  "꺛": 423,
  "섕": 2222,
  "플러그": 16365,
  "폈</w>": 6674,
  "미국이</w>": 15692,
  "이들의</w>": 12999,
  "에게</w>": 7867,
  "셉</w>": 5617,
  "아가씨</w>": 14980,
  "궁": 284,
  "비트</w>": 15769,
  "읒": 2972,
  "ass</w>": 14304,
  "연락": 8989,
  "끊임없이</w>": 14976,
  "큭</w>": 6348,
  "어떤</w>": 8003,
  "가격에</w>": 15844,
  "밤": 1784,
  "뭡</w>": 7745,
  "존": 3132,
  "먹는</w>": 10009,
  "꾝": 510,
  "아니라는</w>": 14909,
  "미친</w>": 16291,
  "초등학교</w>": 12479,
  "\u001e": 2,
  "엔터테인": 13337,
  "드와</w>": 12394,
  "툿</w>": 7733,
  "만일</w>": 13930,
  "201": 7874,
  "딜</w>": 4991,
  "폅": 4103,
  "정비": 15574,
  "들을</w>": 7923,
  "작성": 8677,
  "객</w>": 5292,
  "륍": 1456,
  "후의</w>": 12196,
  "뵀": 1918,
  "찧</w>": 7670,
  "댈": 874,
  "로": 1374,
  "겁": 151,
  "2008년</w>": 13101,
  "븍</w>": 6296,
  "닡</w>": 7655,
  "쓷": 2596,
  "자리가</w>": 16123,
  "경기</w>": 8656,
  "룽": 1433,
  "하하</w>": 16213,
  "어야</w>": 8244,
  "ker</w>": 13428,
  "톹": 3938,
  "강": 101,
  "룖": 1419,
  "직접</w>": 8193,
  "겈": 158,
  "왔</w>": 5742,
  "방에</w>": 12175,
  "억</w>": 4570,
  "쥑</w>": 6304,
  "끈</w>": 5348,
  "4일</w>": 12261,
  "퀣": 3791,
  "흗</w>": 7627,
  "괺": 249,
  "터는</w>": 14854,
  "븉": 1983,
  "비싼</w>": 14837,
  "린다</w>": 9546,
  "펵": 4097,
  "이름을</w>": 10152,
  "기준": 8797,
  "춫</w>": 7756,
  "쨟": 3314,
  "재를</w>": 10875,
  "냐고</w>": 12536,
  "바이</w>": 12972,
  "이것이</w>": 10844,
  "경우는</w>": 10646,
  "풀</w>": 5091,
  "대로</w>": 7972,
  "력의</w>": 13153,
  "부족한</w>": 12602,
  "안철": 14447,
  "딨</w>": 6553,
  "엇": 2721,
  "소식": 14916,
  "모니터": 11906,
  "분위기</w>": 13568,
  "춤": 3583,
  "왔다</w>": 8734,
  "꼱": 474,
  "바다": 10539,
  "얉": 2682,
  "렵": 1360,
  "있지만</w>": 8607,
  "렍</w>": 7272,
  "웤</w>": 6277,
  "삷": 2176,
  "Po": 11538,
  "Anal": 13801,
  "제조": 10347,
  "PS</w>": 12945,
  "조에</w>": 14944,
  "작은": 15524,
  "후보</w>": 12509,
  "꾈": 505,
  "쾽": 3762,
  "게임의</w>": 15387,
  "받은": 13859,
  "뤽": 1452,
  "잖아요</w>": 11840,
  "훜</w>": 6996,
  "am": 8079,
  "월드컵": 15920,
  "쳅": 3515,
  "he": 15251,
  "문학": 10329,
  "똿": 1184,
  "너": 648,
  "Par": 10678,
  "고민을</w>": 15553,
  "똻": 1183,
  "듕": 1043,
  "좋고</w>": 12081,
  "늙</w>": 7107,
  "com</w>": 8303,
  "북한</w>": 9919,
  "봒": 1903,
  "앞으로</w>": 8976,
  "무게": 13713,
  "닝을</w>": 16339,
  "스트레": 9972,
  "쥶": 3231,
  "이야기": 8979,
  "us": 8578,
  "갤럭": 10766,
  "고맙": 11580,
  "47</w>": 14901,
  "훎": 4390,
  "처음에는</w>": 14725,
  "머": 1574,
  "휘</w>": 4926,
  "갚": 106,
  "팥</w>": 6316,
  "7월": 15510,
  "녠</w>": 6760,
  "꿿": 545,
  "캐릭터</w>": 12758,
  "지게</w>": 10398,
  "나지</w>": 9763,
  "king</w>": 11059,
  "법은</w>": 12874,
  "카드를</w>": 13779,
  "사의</w>": 8261,
  "미가</w>": 14462,
  "틷": 4023,
  "의회</w>": 11412,
  "Kore": 13156,
  "훅</w>": 5904,
  "들었": 12072,
  "쥥": 3226,
  "최종</w>": 11204,
  "랜드</w>": 9160,
  "없다고</w>": 10607,
  "졷": 3133,
  "시스": 8057,
  "젇</w>": 7449,
  "끊임": 13650,
  "꽊</w>": 7496,
  "딧": 1080,
  "일부터</w>": 9334,
  "베트남</w>": 13193,
  "다고</w>": 7872,
  "뜷": 1240,
  "코드를</w>": 13016,
  "맇</w>": 6640,
  "젷": 3111,
  "수리": 15794,
  "퍔</w>": 7739,
  "형": 4314,
  "삼": 2179,
  "일치": 13262,
  "항": 4230,
  "웻": 2915,
  "뎆": 929,
  "텧</w>": 6765,
  "깨끗": 10602,
  "대응": 10619,
  "활</w>": 5175,
  "부분이</w>": 10552,
  "뽝</w>": 7109,
  "차이가</w>": 10452,
  "하나님</w>": 11971,
  "줳": 3210,
  "꽅": 485,
  "수탉</w>": 14256,
  "G</w>": 4972,
  "실시간으로</w>": 16273,
  "SNS</w>": 12167,
  "AW": 14399,
  "유튜": 11192,
  "이성": 15304,
  "포함": 8182,
  "Sc": 12789,
  "찍은</w>": 14022,
  "햄": 4242,
  "똔": 1172,
  "구가</w>": 10706,
  "조정</w>": 13394,
  "꽙": 493,
  "잦</w>": 6092,
  "입으로</w>": 12946,
  "량은</w>": 11944,
  "21": 9304,
  "jp": 10814,
  "퇼": 3951,
  "이기": 12702,
  "떄</w>": 4868,
  "에게도</w>": 11202,
  "고기": 16070,
  "럸</w>": 6989,
  "의미한다</w>": 16020,
  "시즌</w>": 9019,
  "뚦": 1202,
  "먠": 1573,
  "지지": 10990,
  "윤리": 13238,
  "뫃": 1656,
  "짂": 3256,
  "풀어": 13291,
  "뼙": 2088,
  "축</w>": 4927,
  "53</w>": 15388,
  "Sh": 9491,
  "고는</w>": 9816,
  "커피</w>": 10616,
  "페이지": 9299,
  "챚": 3470,
  "쌨": 2475,
  "튕": 3984,
  "사회가</w>": 15492,
  "널": 654,
  "낒": 595,
  "컌": 3691,
  "뭗": 1705,
  "푸": 4146,
  "쟤": 3067,
  "스타일의</w>": 16112,
  "뻤</w>": 6579,
  "계획이다</w>": 15028,
  "스테": 9723,
  "받은</w>": 8373,
  "전망</w>": 11276,
  "개요</w>": 13380,
  "정보</w>": 7937,
  "린": 1504,
  "뻐": 2061,
  "앱</w>": 4751,
  "씝": 2613,
  "이들</w>": 11122,
  "이라": 7876,
  "잏</w>": 6714,
  "사이트는</w>": 15556,
  "뮦": 1725,
  "측": 3622,
  "넬": 677,
  "!\"</w>": 12260,
  "소한</w>": 13247,
  "환</w>": 4665,
  "눌": 763,
  "충분히</w>": 9638,
  "씰": 2621,
  "위탁": 14046,
  "디자": 8200,
  "백을</w>": 14765,
  "가볍": 13625,
  "대형</w>": 11806,
  "끎</w>": 6855,
  "둘": 1009,
  "ID</w>": 10500,
  "늪": 818,
  "대가</w>": 9890,
  "솁": 2283,
  "툉": 3953,
  "주세요</w>": 8476,
  "어서</w>": 8030,
  "보이는</w>": 9078,
  "볐": 1869,
  "쓲": 2594,
  "아래</w>": 8994,
  "쉒": 2365,
  "도달": 15549,
  "눤": 774,
  "퀙": 3788,
  "마스터": 14987,
  "단계</w>": 10097,
  "뭉": 1695,
  "일러": 12771,
  "리고</w>": 7883,
  "왱": 2832,
  "위원": 8176,
  "실제": 12599,
  "시작된</w>": 15108,
  "뱀": 1802,
  "틈": 4002,
  "한다": 12165,
  "읏</w>": 6507,
  "and": 10088,
  "버렸": 16101,
  "굨": 267,
  "194": 14135,
  "직업</w>": 15404,
  "광역</w>": 14587,
  "힉": 4467,
  "ac": 8066,
  "특별": 8254,
  "웳": 2911,
  "쇠": 2317,
  "팣": 4047,
  "삼성": 8975,
  "평가": 8561,
  "뜰</w>": 5563,
  "몃</w>": 6490,
  "거": 141,
  "않게</w>": 10689,
  "크로": 9173,
  "뻩": 2072,
  "ml</w>": 11318,
  "윻</w>": 7416,
  "럲": 1322,
  "밡": 1781,
  "괬</w>": 7520,
  "둁": 1001,
  "년에는</w>": 15381,
  "되도록</w>": 12267,
  "색으로</w>": 13838,
  "가입을</w>": 16088,
  "수집</w>": 10776,
  "자라": 15291,
  "히": 4466,
  "등이</w>": 8347,
  "헤": 4286,
  "단계": 9192,
  "프란시스": 15416,
  "공정": 11304,
  "웃</w>": 4854,
  "슄": 2382,
  "덱</w>": 5438,
  "혐</w>": 5739,
  "ad</w>": 10171,
  "쾀</w>": 6709,
  "끠</w>": 7597,
  "쫓": 3366,
  "모집</w>": 10255,
  "닲</w>": 6796,
  "컸</w>": 6976,
  "어플": 11457,
  "뎈": 931,
  "le": 8075,
  "정확하게</w>": 13899,
  "실": 2430,
  "툠</w>": 7611,
  "쒜": 2575,
  "국에서</w>": 14805,
  "입을</w>": 10296,
  "경남": 14370,
  "문제가</w>": 8603,
  "쉘</w>": 5151,
  "옷</w>": 5215,
  "공원</w>": 10679,
  "는지</w>": 8247,
  "의자</w>": 14932,
  "현장</w>": 11206,
  "그리스</w>": 15810,
  "조건": 8585,
  "년이</w>": 10415,
  "싦": 2432,
  "추출물</w>": 15501,
  "펔": 4083,
  "쌩": 2476,
  "법에</w>": 10827,
  "일이</w>": 8262,
  "뻣": 2069,
  "훔</w>": 5552,
  "크기</w>": 13117,
  "찔</w>": 6003,
  "전에</w>": 8083,
  "밙</w>": 7557,
  "휄</w>": 6676,
  "붗": 1951,
  "밝</w>": 6821,
  "지향": 14170,
  "안을</w>": 9511,
  "부가</w>": 9759,
  "밢": 1782,
  "틑</w>": 5901,
  "즣": 3247,
  "촣": 3544,
  "유형": 10871,
  "궲": 309,
  "미디어로그</w>": 15908,
  "등급": 12277,
  "꼉": 463,
  "소리를</w>": 10653,
  "리뷰": 10372,
  "옻</w>": 5767,
  "썡</w>": 7484,
  "긐": 354,
  "정말로</w>": 13677,
  "뿝</w>": 7807,
  "지속": 8995,
  "딥": 1079,
  "데려": 16351,
  "녯": 713,
  "변화에</w>": 13742,
  "훤": 4405,
  "3": 16,
  "삣</w>": 6261,
  "최선을</w>": 12633,
  "명예": 9025,
  "뙁</w>": 6767,
  "작은</w>": 8346,
  "찼</w>": 6105,
  "하실</w>": 8232,
  "구는</w>": 12432,
  "10개</w>": 16285,
  "빛을</w>": 14847,
  "챗</w>": 5947,
  "팦": 4050,
  "전문</w>": 9377,
  "멵": 1615,
  "서원구</w>": 13886,
  "시리즈</w>": 10138,
  "해지는</w>": 12791,
  "스위": 10113,
  "사에</w>": 8730,
  "맅": 1519,
  "참으로</w>": 15482,
  "공학": 14137,
  "톡": 3927,
  "쥔</w>": 5789,
  "껒": 441,
  "쌤": 2472,
  "엧": 2745,
  "챱</w>": 6307,
  "캤": 3677,
  "지원</w>": 8502,
  "오래</w>": 10036,
  "손해": 13155,
  "집으로</w>": 13581,
  "기초": 10052,
  "좋</w>": 5654,
  "궿": 315,
  "분명": 10340,
  "변화": 8456,
  "햇</w>": 5324,
  "안정": 9575,
  "화는</w>": 13303,
  "독일</w>": 10248,
  "서": 2223,
  "꺾": 433,
  "삔</w>": 4701,
  "씨트립에서</w>": 16187,
  "im": 9177,
  "어도</w>": 8729,
  "쿸": 3778,
  "룔": 1417,
  "봰</w>": 7081,
  "샥</w>": 6033,
  "혓": 4312,
  "룸": 1430,
  "샙": 2198,
  "섄</w>": 6959,
  "세계에서</w>": 13454,
  "화이트</w>": 11814,
  "적인</w>": 7863,
  "마지막으로</w>": 11464,
  "경제적</w>": 13089,
  "성능을</w>": 15237,
  "메일": 15441,
  "대회</w>": 9309,
  "력으로</w>": 14352,
  "볾</w>": 7795,
  "잘못된</w>": 11666,
  "췹</w>": 6836,
  "깨달": 13674,
  "구멍</w>": 15325,
  "qu": 9834,
  "킴</w>": 5249,
  "하기는</w>": 14969,
  "닾": 868,
  "않았습니다</w>": 12643,
  "마을": 9894,
  "업을</w>": 9611,
  "의미</w>": 11689,
  "쑷": 2566,
  "무대</w>": 15132,
  "놀이터</w>": 13709,
  "워": 2882,
  "이때</w>": 12443,
  "생기": 11945,
  "추어</w>": 9194,
  "을까요</w>": 12058,
  "기다": 8826,
  "뼤": 2093,
  "돈을</w>": 9513,
  "셤": 2271,
  "쓰고</w>": 10358,
  "싶</w>": 5394,
  "쯘": 3413,
  "춰": 3592,
  "꼩": 469,
  "어려": 8367,
  "얼</w>": 5146,
  "어플</w>": 14392,
  "장르": 14985,
  "키스": 16140,
  "께</w>": 4617,
  "욜</w>": 5460,
  "이는</w>": 7998,
  "핌</w>": 5567,
  "iv": 11628,
  "쿨": 3773,
  "쿤": 3771,
  "영향을</w>": 9206,
  ")-</w>": 13239,
  "농구</w>": 14421,
  "코스</w>": 11937,
  "점에서</w>": 9404,
  "디아</w>": 15799,
  "만으로</w>": 12236,
  "사회에</w>": 13926,
  "케이블": 13200,
  "능력이</w>": 13608,
  "뭍": 1699,
  "이민": 12849,
  "펍": 4078,
  "뷕": 1970,
  "발생</w>": 11914,
  "볼넷</w>": 15140,
  "Porn</w>": 10731,
  "마케팅": 10481,
  "륌": 1455,
  "놩</w>": 7106,
  "엹": 2761,
  "31": 11015,
  "엾": 2765,
  "KBS</w>": 12831,
  "에서": 7875,
  "넘": 660,
  "뙈</w>": 7068,
  "볜": 1877,
  "뼘": 2087,
  "읶</w>": 6015,
  "로지</w>": 14663,
  "하나님이</w>": 12951,
  "븟</w>": 6335,
  "재생수</w>": 12809,
  "괴": 246,
  "뜜": 1230,
  "쟁이</w>": 15543,
  "욮": 2857,
  "80": 9047,
  "존중": 15154,
  "건강</w>": 10357,
  "타는</w>": 13863,
  "력과</w>": 13064,
  "당신을</w>": 13142,
  "삭제": 8703,
  "낚시": 16204,
  "먹으면</w>": 14828,
  "형을</w>": 11793,
  "등으로</w>": 9738,
  "대비</w>": 11645,
  "평": 4106,
  "아마추어</w>": 9610,
  "깊은</w>": 10384,
  "체크": 10513,
  "32</w>": 10049,
  "훒": 4393,
  "츳": 3628,
  "회</w>": 4534,
  "때까지</w>": 10719,
  "웋</w>": 7722,
  "길을</w>": 9227,
  "침해": 12245,
  "광</w>": 4907,
  "슮</w>": 7425,
  "빝</w>": 6331,
  "곁</w>": 5899,
  "중요": 8072,
  "퍔": 4069,
  "덦": 909,
  "상자</w>": 15497,
  "소에</w>": 11668,
  "레인": 15419,
  "팠</w>": 7092,
  "뉨</w>": 5495,
  "슯": 2404,
  "vis": 13085,
  "확인하실</w>": 14878,
  "룑</w>": 6914,
  "추진</w>": 13350,
  "사는</w>": 8089,
  "동의를</w>": 15049,
  "짠</w>": 5844,
  "륩</w>": 6563,
  "SE": 12254,
  "젙</w>": 7736,
  "앉</w>": 5981,
  "줬</w>": 6613,
  "입": 3004,
  "걕": 138,
  "선정": 10224,
  "비": 2002,
  "올</w>": 4727,
  "그램</w>": 16158,
  "표시": 8548,
  "결승": 14291,
  "믐</w>": 6001,
  "G": 32,
  "븓": 1987,
  "첯</w>": 7045,
  "최저가</w>": 14598,
  "확실히</w>": 11369,
  "프로그램</w>": 8643,
  "렐</w>": 4685,
  "강제": 15694,
  "모두</w>": 8039,
  "줠</w>": 7359,
  "화와</w>": 13107,
  "성능": 10490,
  "껌</w>": 5536,
  "쉠": 2368,
  "뎜</w>": 6178,
  "긔": 357,
  "생각한다</w>": 10796,
  "10분</w>": 13865,
  "10월": 15840,
  "저작권을</w>": 9642,
  "앁": 2628,
  "흩</w>": 7377,
  "잠재": 14115,
  "후기</w>": 9381,
  "결과": 8264,
  "식품</w>": 12473,
  "귽": 340,
  "문자": 12116,
  "촌": 3535,
  "이미": 8407,
  "꺌</w>": 7346,
  "치게</w>": 12560,
  "햏</w>": 6522,
  "꽤</w>": 5490,
  "치</w>": 4502,
  "최고": 8430,
  "쌈</w>": 5698,
  "깁": 373,
  "멀티": 11616,
  "굵": 277,
  "오른": 10639,
  "생각할</w>": 14913,
  "웸</w>": 7769,
  "화장": 9186,
  "한번</w>": 8804,
  "하나로</w>": 12630,
  "1천": 15267,
  "프는</w>": 15835,
  "웗": 2892,
  "웯": 2908,
  "햔": 4253,
  "윾</w>": 6751,
  "TA</w>": 14946,
  "솤</w>": 7129,
  "알파": 15535,
  "첌": 3490,
  "뀹</w>": 7540,
  "샤": 2205,
  "굶": 278,
  "ID": 10656,
  "형태의</w>": 11986,
  "첯": 3506,
  "그려": 13474,
  "립</w>": 5045,
  "배송": 9303,
  "상당히</w>": 10421,
  "이행": 15114,
  "이긴</w>": 15599,
  "갉</w>": 5911,
  "워</w>": 5058,
  "모르겠다</w>": 15111,
  "아닌": 9314,
  "춴</w>": 7078,
  "앒</w>": 7581,
  "하시고</w>": 11208,
  "않아도</w>": 11705,
  "쌜</w>": 7160,
  "공항": 10371,
  "얏</w>": 5481,
  "예를</w>": 9644,
  "삶</w>": 5589,
  "항의</w>": 16144,
  "쳉</w>": 6045,
  "삼성전자</w>": 14509,
  "정치": 8491,
  "기능</w>": 9022,
  "콭": 3746,
  "그러니</w>": 13869,
  "ty</w>": 15570,
  "연기": 13178,
  "륀</w>": 6362,
  "정은</w>": 9524,
  "어진</w>": 9554,
  "갊</w>": 6744,
  "누리": 11648,
  "호텔의</w>": 12687,
  "링크": 11561,
  "센터에서</w>": 15461,
  "폭": 4115,
  "뜩": 1234,
  "낏</w>": 6728,
  "빨간</w>": 15557,
  "엠": 2739,
  "녔": 705,
  "싟</w>": 7501,
  "숭</w>": 5714,
  "쳘</w>": 6005,
  "전력": 15537,
  "지에서</w>": 11504,
  "론을</w>": 15661,
  "쥭": 3228,
  "깇": 379,
  "잴</w>": 5956,
  "띺": 1265,
  "신경": 10702,
  "쌰</w>": 5476,
  "쓺</w>": 7414,
  "Google</w>": 14144,
  "ue</w>": 12746,
  "훤</w>": 5934,
  "훈련": 10136,
  "후장</w>": 13060,
  "러</w>": 4792,
  "딮": 1087,
  "탸": 3879,
  "레스</w>": 11340,
  "별도</w>": 12621,
  "텔</w>": 4547,
  "햐</w>": 5835,
  "죄": 3163,
  "퀠</w>": 6540,
  "기관의</w>": 14430,
  "촟": 3543,
  "인가</w>": 8523,
  "관계</w>": 9542,
  "가가</w>": 9830,
  "무엇인가</w>": 12330,
  "펼": 4100,
  "텨": 3916,
  "단독</w>": 14164,
  "꺘": 421,
  "해당": 8506,
  "이미지를</w>": 12371,
  "깉": 381,
  "헝</w>": 5761,
  "인상": 12500,
  "뽜": 2105,
  "점과</w>": 12375,
  "봅</w>": 5979,
  "것인가</w>": 10961,
  "싿": 2456,
  "좍": 3149,
  "제품이</w>": 13666,
  "\"</w>": 5429,
  "류를</w>": 15966,
  "샆": 2188,
  "깨": 402,
  "둣": 1014,
  "제품을</w>": 10072,
  "먁</w>": 7582,
  "얹": 2710,
  "댱</w>": 6609,
  "행위": 14495,
  "황": 4353,
  "묜</w>": 5838,
  "서울": 8099,
  "꽈": 488,
  "검정</w>": 16271,
  "2차</w>": 10381,
  "발송</w>": 13540,
  "첡": 3499,
  "강한</w>": 10322,
  "얖": 2693,
  "않다</w>": 9631,
  "결혼</w>": 11701,
  "쳌</w>": 6866,
  "재": 3039,
  "맞아</w>": 12481,
  "쯧</w>": 6510,
  "생존": 13664,
  "받으실</w>": 16263,
  "스튜": 12238,
  "해온</w>": 15832,
  "내려": 9125,
  "24</w>": 9796,
  "것이었다</w>": 14345,
  "확인하고</w>": 15960,
  "스카": 10736,
  "핍": 4203,
  "및</w>": 4891,
  "있거나</w>": 15597,
  "프로그래밍</w>": 15673,
  "ill</w>": 14751,
  "쟤</w>": 6480,
  "id</w>": 10887,
  "많고</w>": 12978,
  "뜀</w>": 6766,
  "귓": 322,
  "결제</w>": 8863,
  "숨": 2347,
  "탭</w>": 5254,
  "테": 3901,
  "첞": 3496,
  "쿽</w>": 6143,
  "조를</w>": 14591,
  "더군요</w>": 10053,
  "되고</w>": 8033,
  "벨</w>": 4910,
  "랸": 1303,
  "뻗": 2065,
  "혬</w>": 6239,
  "배경": 11460,
  "빠진</w>": 15176,
  "수학": 13499,
  "땠</w>": 6099,
  "톳": 3934,
  "조건이</w>": 11195,
  "뎄": 927,
  "썰</w>": 5118,
  "이용해</w>": 10810,
  "걿": 149,
  "뺌": 2041,
  "쎘</w>": 7362,
  "집을</w>": 10783,
  "아시아의</w>": 14468,
  "정상</w>": 14413,
  "조금</w>": 8666,
  "긕": 358,
  "미래의</w>": 16046,
  "까요</w>": 8252,
  "럶": 1326,
  "세기</w>": 10751,
  "ous</w>": 15365,
  "엔진</w>": 14395,
  "킄</w>": 6243,
  "고객이</w>": 14152,
  "DI": 13652,
  "지": 3254,
  "완료</w>": 9838,
  "lish</w>": 16372,
  "감상문</w>": 13565,
  "쿤</w>": 5550,
  "격</w>": 4702,
  "뺙": 2049,
  "44</w>": 13964,
  "는데도</w>": 16164,
  "뗠": 1159,
  "때로는</w>": 15831,
  "건</w>": 4500,
  "등</w>": 4574,
  "승부": 16231,
  "여</w>": 4761,
  "연락</w>": 14952,
  "쳤</w>": 6079,
  "얇</w>": 6708,
  "맒": 1532,
  "부동산</w>": 10991,
  "실제로</w>": 9145,
  "28일</w>": 13037,
  "인권": 11414,
  "주로</w>": 9279,
  "우리</w>": 8032,
  "전은</w>": 14586,
  "쮀": 3402,
  "어떠": 9672,
  "뿅</w>": 6347,
  "턍": 3884,
  "미술관</w>": 16216,
  "븃</w>": 7493,
  "목사": 14790,
  "쭙": 3395,
  "황금": 14579,
  "쭈</w>": 5905,
  "밸</w>": 5967,
  "갶": 122,
  "뒁": 1023,
  "껸": 457,
  "팜": 4041,
  "ar": 7924,
  "'</w>": 5553,
  "훏": 4391,
  "그림을</w>": 14655,
  "썹</w>": 5841,
  "하겠": 9577,
  "작성한</w>": 15101,
  "탬</w>": 5949,
  "이야기는</w>": 16105,
  "이력": 16237,
  "시청": 10050,
  "분류</w>": 13427,
  "콱": 3749,
  "꺼</w>": 4666,
  "쳑": 3520,
  "움직": 9320,
  "딤": 1078,
  "옐</w>": 6470,
  "말고</w>": 10084,
  "료를</w>": 10317,
  "고</w>": 4493,
  "승인": 14971,
  "야만</w>": 12501,
  "칢": 3641,
  "말합니다</w>": 14577,
  "떄": 1120,
  "불을</w>": 15450,
  "벺": 1855,
  "정규": 10676,
  "퀐": 3785,
  "리에</w>": 8280,
  "연금</w>": 16167,
  "면접</w>": 13911,
  "IA": 16279,
  "떨어": 8524,
  "대통": 8215,
  "사항에</w>": 14396,
  "쾨</w>": 7086,
  "광장</w>": 15596,
  "횢</w>": 7054,
  "업체</w>": 9807,
  "사과": 13043,
  "복</w>": 4781,
  "도로": 11084,
  "199": 8870,
  "꼮</w>": 7790,
  "었던</w>": 9143,
  "짦</w>": 7538,
  "씨트립": 15239,
  "너희": 11591,
  "--</w>": 11224,
  "위해서</w>": 9360,
  "넛</w>": 5267,
  "할인": 12604,
  "웏": 2885,
  "곌": 200,
  "화이팅</w>": 15284,
  "닏</w>": 5826,
  "섀</w>": 7411,
  "뚸": 1211,
  "못하는</w>": 9956,
  "멫": 1608,
  "먼트</w>": 11228,
  "썁</w>": 6885,
  "다니": 9037,
  "뗏</w>": 6999,
  "꾑": 507,
  "문제를</w>": 9300,
  "도전": 10197,
  "툴": 3962,
  "자이": 13320,
  "뽀</w>": 5297,
  "짐": 3266,
  "취</w>": 5042,
  "뭍</w>": 7419,
  "님은</w>": 10356,
  "ro": 8004,
  "쬼": 3388,
  "보고": 8356,
  "뵘</w>": 6712,
  "자원</w>": 15395,
  "샃": 2185,
  "지고</w>": 8382,
  "반품</w>": 14064,
  "도구</w>": 13638,
  "사업을</w>": 11010,
  "17": 8412,
  "AR": 10183,
  "Mic": 11067,
  "도박</w>": 12137,
  "녀</w>": 4843,
  "뫔": 1661,
  "경우에도</w>": 15716,
  "내용이</w>": 10985,
  "다음</w>": 8210,
  "닺": 864,
  "잠": 3027,
  "알아야</w>": 13432,
  "ens": 13295,
  "집니다</w>": 10004,
  "빗</w>": 5236,
  "덱": 920,
  "출": 3578,
  "나타난</w>": 16036,
  "관람": 13127,
  "렃": 1336,
  "지능</w>": 14021,
  "상품이</w>": 14665,
  "혭": 4321,
  "맜</w>": 6879,
  "고가</w>": 13697,
  "낯": 614,
  "물론</w>": 8268,
  "Ta": 14585,
  "리": 1501,
  "지역</w>": 8413,
  "주민</w>": 14780,
  "진다</w>": 8990,
  "뭰": 1714,
  "art": 14750,
  "판매": 8377,
  "혼자</w>": 9920,
  "성과를</w>": 14829,
  "뺜": 2050,
  "해당</w>": 8188,
  "현상": 15675,
  "간호": 10244,
  "옵니다</w>": 11797,
  "여서</w>": 11774,
  "훠</w>": 6344,
  "ye": 14546,
  "가고</w>": 8850,
  "쇘": 2314,
  "칮</w>": 7127,
  "배": 1795,
  "꿓": 533,
  "평소</w>": 13985,
  "그래</w>": 13824,
  "몀</w>": 5461,
  "간의</w>": 8893,
  "음": 2966,
  "개인의</w>": 12269,
  "1</w>": 4680,
  "얾": 2715,
  "몰</w>": 4870,
  "명</w>": 4799,
  "당을</w>": 13898,
  "칫</w>": 6140,
  "되거나</w>": 13315,
  "레스토": 9464,
  "MO": 12709,
  "죡": 3172,
  "ary</w>": 14233,
  "톱": 3933,
  "체인</w>": 12529,
  "먻": 1577,
  "제휴": 14222,
  "일정</w>": 9758,
  "파크": 15405,
  "갖춰": 15430,
  "퍽": 4074,
  "아니라</w>": 8061,
  "트래": 13917,
  "CH": 13862,
  "회와</w>": 16076,
  "삶을</w>": 10000,
  "숙박</w>": 10323,
  "팟</w>": 5221,
  "밈</w>": 5184,
  "식별": 15012,
  "양이</w>": 9338,
  "콫": 3744,
  "34</w>": 12555,
  "멒": 1596,
  "넙</w>": 6611,
  "트랜": 13527,
  "XX": 11779,
  "28": 9119,
  "냣</w>": 6367,
  "설명을</w>": 13918,
  "퍝</w>": 6373,
  "부는</w>": 9539,
  "멨": 1605,
  "고개를</w>": 16011,
  "쐄": 2541,
  "겮": 180,
  "가슴": 9658,
  "윯</w>": 7443,
  "왘": 2822,
  "냅니다</w>": 16275,
  "궼": 314,
  "것이며</w>": 12129,
  "챵</w>": 6695,
  "들어서</w>": 14113,
  "채널</w>": 11153,
  "땈": 1104,
  "개로</w>": 14246,
  "low</w>": 16121,
  "재미": 8988,
  "여": 2749,
  "동네": 15697,
  "볿": 1891,
  "2시간</w>": 15885,
  "골드</w>": 15266,
  "혬": 4320,
  "성의</w>": 9603,
  "정으로</w>": 11422,
  "꼠": 467,
  "뫌": 1660,
  "엑</w>": 5734,
  "법</w>": 4669,
  "됬</w>": 6034,
  "이용시에는</w>": 9737,
  "자동</w>": 11330,
  "물질": 11249,
  "eg": 11644,
  "어가</w>": 10282,
  "픈": 4184,
  "강원도</w>": 16217,
  "매력": 11588,
  "ition</w>": 15630,
  "껸</w>": 6910,
  "붅</w>": 7051,
  "일몰</w>": 12400,
  "K</w>": 4980,
  "싲": 2444,
  "본질": 15289,
  "짔": 3270,
  "것이라</w>": 13135,
  "앞서</w>": 10777,
  "정부": 8298,
  "뭣</w>": 7131,
  "졏": 3125,
  "때가</w>": 10772,
  "송</w>": 4913,
  "젖": 3091,
  "그리스도": 14254,
  "시작으로</w>": 15368,
  "마법": 16304,
  "주거": 14840,
  "계획</w>": 9666,
  "흑인</w>": 15228,
  "고양이</w>": 10843,
  "굑</w>": 7766,
  "운영하고</w>": 15000,
  "아카데": 14158,
  "법인</w>": 12700,
  "회장": 15933,
  "m</w>": 4733,
  "인용": 16134,
  "뒤에</w>": 11409,
  "경북": 15052,
  "땃": 1100,
  "가정": 9753,
  "과도</w>": 14873,
  "퉁": 3966,
  "3</w>": 4730,
  "상태에</w>": 16364,
  "하우": 9327,
  "DN": 15813,
  "되게</w>": 12133,
  "amp": 16348,
  "늙": 807,
  "홍보": 10451,
  "퓩": 4175,
  "륄</w>": 7039,
  "트리</w>": 15771,
  "꺨</w>": 6689,
  "or": 7899,
  "운": 2863,
  "따뜻한</w>": 11344,
  "곡</w>": 4791,
  "나오고</w>": 13173,
  "님": 834,
  "아이</w>": 10162,
  "틲</w>": 7326,
  "유의</w>": 12122,
  "블로": 11479,
  "있다면</w>": 9052,
  "뤀": 1435,
  "하나님은</w>": 15825,
  "동성": 12992,
  "씃</w>": 6130,
  "차도</w>": 15935,
  "맣": 1547,
  "키가</w>": 14319,
  "생산": 8842,
  "올린</w>": 12675,
  "맺": 1559,
  "샵": 2210,
  "로가</w>": 11987,
  "깰</w>": 7010,
  "엚": 2737,
  "혛</w>": 6436,
  "핱</w>": 7587,
  "쨜": 3313,
  "트레": 13614,
  "배팅</w>": 12345,
  "아리": 13014,
  "틔": 4011,
  "경</w>": 4619,
  "성남": 15452,
  "묘": 1671,
  "기업의</w>": 10402,
  "벳</w>": 5195,
  "특</w>": 5110,
  "좟": 3152,
  "뚱": 1208,
  "X": 49,
  "괸</w>": 6901,
  "뒬</w>": 6160,
  "파트너": 11770,
  "믾": 1750,
  "상황을</w>": 11410,
  "볒": 1871,
  "치가</w>": 10561,
  "동계": 14439,
  "윈도우</w>": 12045,
  "띃": 1249,
  "과학기술": 15333,
  "기타": 9935,
  "겅": 155,
  "ML": 12793,
  "쓰러": 16025,
  "봅니다</w>": 9290,
  "검토": 12006,
  "건물</w>": 12644,
  "남은</w>": 10581,
  "왬</w>": 7595,
  "뵙": 1924,
  "자기가</w>": 14087,
  "쯧": 3417,
  "삳</w>": 6318,
  "책임</w>": 13154,
  "AS": 10026,
  "팩</w>": 5021,
  "듑</w>": 7529,
  "잩</w>": 5080,
  "쌈": 2460,
  "칵": 3654,
  "정</w>": 4703,
  "쟉": 3054,
  "아티": 12707,
  "싞": 2424,
  "멭": 1610,
  "달라": 9618,
  "헁": 4268,
  "D</w>": 4526,
  "괏": 234,
  "사회</w>": 8720,
  "븝</w>": 7016,
  "딴": 1092,
  "냏": 633,
  "옅</w>": 7488,
  "글로벌": 14089,
  "지만</w>": 7856,
  "트에서</w>": 12677,
  "지내": 16027,
  "ign": 13757,
  "읽기</w>": 12912,
  "객실</w>": 9436,
  "사실상</w>": 13092,
  "비와</w>": 12764,
  "담아</w>": 13357,
  "빢</w>": 6643,
  "얪": 2701,
  "건의</w>": 15077,
  "섣</w>": 7018,
  "뎗</w>": 7546,
  "죄송": 11307,
  "열": 2756,
  "옥</w>": 4822,
  "동시에</w>": 9250,
  "최근</w>": 8170,
  "륭</w>": 5783,
  "삺": 2177,
  "뇰": 750,
  "늦": 814,
  "핥": 4224,
  "읽": 2997,
  "ystem</w>": 13548,
  "관계": 8128,
  "휜": 4427,
  "레지": 14670,
  "쇠</w>": 5605,
  "프라이": 11946,
  "췄": 3597,
  "때도</w>": 11063,
  "외국</w>": 14092,
  "닊": 828,
  "륀": 1453,
  "봙</w>": 7796,
  "건을</w>": 14270,
  "2월</w>": 10112,
  "횡": 4371,
  "차이": 10242,
  "퇵": 3949,
  "연령": 14762,
  "장면</w>": 14871,
  "쯤": 3415,
  "교육": 7986,
  "돼</w>": 4971,
  "귝</w>": 7041,
  "유발": 14018,
  "훝": 4401,
  "성으로</w>": 13931,
  "릳</w>": 6427,
  "듣고</w>": 10434,
  "당신은</w>": 10062,
  "겔</w>": 5478,
  "ina</w>": 15035,
  "굇": 253,
  "귁</w>": 7028,
  "욍</w>": 7238,
  "부부</w>": 14956,
  "사이드</w>": 13736,
  "붊": 1943,
  "윯": 2941,
  "죷": 3181,
  "시장은</w>": 14375,
  "라이브": 10045,
  "쑹</w>": 6803,
  "좋다</w>": 9761,
  "마리</w>": 15509,
  "수도": 11618,
  "힡</w>": 7077,
  "백화": 13074,
  "좃": 3141,
  "전기</w>": 10948,
  "르</w>": 4841,
  "지원": 8063,
  "반면</w>": 10703,
  "쿼</w>": 5799,
  "젱</w>": 7324,
  "소셜그래프": 9383,
  "감소": 10290,
  "RO": 12397,
  "알아": 8410,
  "엔진": 15571,
  "걁": 129,
  "몄": 1621,
  "넢": 670,
  "거든": 10300,
  "꾀": 502,
  "회에서</w>": 10586,
  "유사": 11558,
  "틐</w>": 7135,
  "심</w>": 4930,
  "8월": 15668,
  "와</w>": 4482,
  "1인</w>": 14804,
  "소셜그래프게임</w>": 13352,
  "중이</w>": 16334,
  "나아가</w>": 15022,
  "듯한</w>": 11535,
  "목적이</w>": 15896,
  "테마": 12915,
  "CE": 11649,
  "거친</w>": 15619,
  "하나</w>": 8379,
  "갹</w>": 6743,
  "거야</w>": 10872,
  "껏": 438,
  "읾</w>": 7053,
  "릐</w>": 5935,
  "를": 1475,
  "저런</w>": 12539,
  "섮": 2238,
  "뾲": 2115,
  "겠다</w>": 8563,
  "wit": 11258,
  "홀": 4328,
  "우</w>": 4546,
  "슷</w>": 6225,
  "가까이</w>": 12676,
  "긓": 356,
  "방침에</w>": 11167,
  "작가": 11808,
  "아버": 8771,
  "목적": 9127,
  "점도</w>": 14381,
  "쵝</w>": 6593,
  "못하게</w>": 15362,
  "d": 58,
  "죧": 3174,
  "사이버": 15743,
  "메시지를</w>": 12598,
  "사상</w>": 12158,
  "마저</w>": 14645,
  "빎": 2010,
  "땡": 1115,
  "2년</w>": 8890,
  "뿅": 2119,
  "즬": 3252,
  "벟": 1841,
  "굮</w>": 7113,
  "미사": 13508,
  "생겼": 13628,
  "좇</w>": 6423,
  "션</w>": 4774,
  "좊": 3146,
  "1건</w>": 14141,
  "셓": 2265,
  "쏩</w>": 7344,
  "프로그램이</w>": 13941,
  "연락처</w>": 12153,
  "잛</w>": 7619,
  "률을</w>": 15531,
  "섞": 2225,
  "트럼프</w>": 11480,
  "젵": 3110,
  "느껴": 9975,
  "별": 1864,
  "단에</w>": 11462,
  "쎠</w>": 7467,
  "f": 60,
  "당이</w>": 12569,
  "샵</w>": 4925,
  "착용": 12835,
  "tion</w>": 10351,
  "일종의</w>": 16015,
  "되는데</w>": 10996,
  "쩀": 3321,
  "수신": 12895,
  "뼁</w>": 6774,
  "멈": 1586,
  "생각": 7880,
  "듭니다</w>": 12049,
  "붌": 1944,
  "이걸</w>": 14268,
  "랰": 1298,
  "강력한</w>": 11676,
  "꿍</w>": 5540,
  "한글</w>": 13751,
  "시카": 14117,
  "밀리": 9434,
  "밷": 1799,
  "윳</w>": 6682,
  "클래식</w>": 14713,
  "캠": 3673,
  "내의</w>": 9775,
  "쫀": 3359,
  "양키": 13261,
  "무선": 13498,
  "륏": 1457,
  "챝": 3473,
  "판": 4036,
  "릅</w>": 5984,
  "사람들": 11336,
  "근거</w>": 15953,
  "경제</w>": 8969,
  "기간이</w>": 13876,
  "선발": 11828,
  "볔": 1873,
  "잊지</w>": 13948,
  "민들": 11634,
  "달려": 12659,
  "멘토": 16325,
  "Tr": 11247,
  "1980": 14650,
  "자극": 11792,
  "믻": 1748,
  "집": 3267,
  "소속": 12507,
  "바탕": 10469,
  "토마": 14493,
  "ts</w>": 11821,
  "쥿": 3234,
  "혌": 4309,
  "나름": 14108,
  "뻭": 2074,
  "구축</w>": 14047,
  "관련해</w>": 16218,
  "찭": 3443,
  "씈": 2606,
  "도에</w>": 9878,
  "줊</w>": 7209,
  "불교": 14023,
  "쫴</w>": 6279,
  "뵈</w>": 5918,
  "셸</w>": 5669,
  "깝": 393,
  "눗</w>": 6133,
  "통신</w>": 10987,
  "베</w>": 5316,
  "쟸": 3070,
  "진심으로</w>": 14054,
  "관하여</w>": 15309,
  "뀜</w>": 5599,
  "카": 3653,
  "사건이</w>": 15299,
  "틩": 4018,
  "처리해</w>": 9777,
  "대비": 12897,
  "딿": 1097,
  "뽝": 2106,
  "IA</w>": 15948,
  "23": 9091,
  "꿎": 530,
  "땃</w>": 6697,
  "슌</w>": 6100,
  "녠": 711,
  "기름": 14515,
  "쥐": 3218,
  "쁩</w>": 7023,
  "검증": 13312,
  "줊": 3191,
  "졷</w>": 7513,
  "밞": 1778,
  "그냥</w>": 8440,
  "뱌</w>": 5952,
  "펑": 4081,
  "삘": 2159,
  "전의</w>": 11503,
  "중계": 14448,
  "웡</w>": 5258,
  "충남": 16182,
  "사이트에</w>": 10999,
  "뺌</w>": 6238,
  "곷": 220,
  "됙": 988,
  "쩗</w>": 6874,
  "빙": 2014,
  "잶": 3043,
  "스킨": 15064,
  "르기</w>": 14366,
  "아직도</w>": 10811,
  "코</w>": 4846,
  "똈": 1168,
  "중간</w>": 12114,
  "알려</w>": 15913,
  "티": 4019,
  "졸</w>": 5194,
  "보존": 13402,
  "맊</w>": 6577,
  "촐": 3537,
  "름</w>": 4974,
  "주어": 14885,
  "크를</w>": 10065,
  "얭</w>": 7537,
  "뭬": 1713,
  "깁니다</w>": 15740,
  "팜</w>": 5559,
  "벌</w>": 4892,
  "봈": 1895,
  "임신</w>": 16151,
  "꽅</w>": 7334,
  "좋겠습니다</w>": 14772,
  "인들이</w>": 11233,
  "맵</w>": 5138,
  "벾": 1859,
  "귤": 330,
  "앉아</w>": 12197,
  "H": 33,
  "카지노": 10393,
  "쉼</w>": 5869,
  "유효": 13199,
  "사라": 9773,
  "뻑": 2062,
  "바이오": 13523,
  "려야</w>": 14771,
  "뽤</w>": 6229,
  "방향을</w>": 15173,
  "찎": 3424,
  "수비": 15308,
  "중심</w>": 12737,
  "약</w>": 4690,
  "퐁": 4123,
  "잣": 3030,
  "췻": 3612,
  "경험</w>": 12552,
  "핑": 4205,
  "90": 10670,
  "뿜</w>": 5269,
  "뀍": 550,
  "이전에</w>": 12625,
  "수령": 13900,
  "두</w>": 4725,
  "아니지만</w>": 12340,
  "럿</w>": 5823,
  "분에</w>": 9889,
  "접근</w>": 15061,
  "응용": 14917,
  "하여야</w>": 10075,
  "yst": 10846,
  "49</w>": 14881,
  "상은</w>": 11119,
  "년중</w>": 16228,
  "있을까</w>": 10291,
  "순간": 10733,
  "24시간</w>": 10782,
  "기다리고</w>": 14217,
  "of</w>": 8483,
  "SK": 10176,
  "큠</w>": 6438,
  "완벽하게</w>": 14887,
  "생물": 12347,
  "풒</w>": 7601,
  "포스트</w>": 15691,
  "부인": 13997,
  "뗄": 1148,
  "읾": 2998,
  "꼄</w>": 6515,
  "붎": 1945,
  "로써</w>": 12953,
  "음식점</w>": 13707,
  "이들을</w>": 15937,
  "캪</w>": 6211,
  "텔레": 11658,
  "깨</w>": 5477,
  "옰</w>": 7256,
  "졽": 3137,
  "화된</w>": 10274,
  "토</w>": 5061,
  "기독": 9945,
  "뺨</w>": 5968,
  "뛩</w>": 7794,
  "뙨</w>": 7822,
  "먜": 1572,
  "져": 3112,
  "꿇</w>": 6742,
  "모아</w>": 14503,
  "서류</w>": 13520,
  "뗴": 1163,
  "뉴": 790,
  "새벽</w>": 14553,
  "솄": 2285,
  "ile</w>": 11744,
  "뤠": 1444,
  "해가</w>": 10420,
  "종의</w>": 11367,
  "겪</w>": 7599,
  "폰을</w>": 16161,
  "최대한</w>": 11838,
  "\\": 53,
  "었다</w>": 7873,
  "깹</w>": 6442,
  "관리자</w>": 10674,
  "오늘도</w>": 13946,
  "목적으로</w>": 11102,
  "Uni": 15994,
  "김영": 11981,
  "젂": 3074,
  "걸이</w>": 15991,
  "당신의</w>": 9448,
  "꼐</w>": 5752,
  "Lin": 14740,
  "뽁</w>": 6597,
  "뜻을</w>": 13325,
  "쥼": 3232,
  "문화의</w>": 14522,
  "봴": 1915,
  "궝": 301,
  "줏</w>": 6457,
  "랩": 1293,
  "나올</w>": 11825,
  "누</w>": 5368,
  "뜽": 1245,
  "순환": 14511,
  "젝</w>": 5340,
  "퍼런": 14049,
  "토": 3926,
  "듳": 1061,
  "처리</w>": 9682,
  "레포트</w>": 11930,
  "뎦": 943,
  "시험</w>": 10126,
  "쌌</w>": 6171,
  "뭬</w>": 6839,
  "여러분이</w>": 15070,
  "현재</w>": 8138,
  "댜": 883,
  "자살": 15344,
  "켛": 3721,
  "ess</w>": 11861,
  "측</w>": 4532,
  "log</w>": 14723,
  "끝까지</w>": 12634,
  "귗": 326,
  "모델</w>": 9189,
  "헉": 4270,
  "서로</w>": 8843,
  "삐</w>": 5647,
  "51</w>": 15276,
  "구축": 10375,
  "있다</w>": 7854,
  "퓽": 4181,
  "굮": 272,
  "덫": 914,
  "증</w>": 4735,
  "땨</w>": 7085,
  "3년</w>": 8897,
  "5분</w>": 15231,
  "분쟁요소</w>": 9874,
  "찡": 3433,
  "바람</w>": 12883,
  "인에</w>": 11088,
  "귽</w>": 7442,
  "흣</w>": 6450,
  "껀": 434,
  "쨔</w>": 6815,
  "달": 852,
  "십니까</w>": 11325,
  "의견": 9219,
  "럾": 1332,
  "않으니</w>": 14902,
  "적이</w>": 8696,
  "L</w>": 4989,
  "몸</w>": 5644,
  "매출": 13159,
  "넞": 666,
  "헗</w>": 6644,
  "릆": 1484,
  "봄</w>": 5034,
  "밀": 1752,
  "넓": 657,
  "다르": 9798,
  "던</w>": 4583,
  "햏": 4250,
  "썲</w>": 7660,
  "낌</w>": 5104,
  "동작": 11357,
  "딛": 1075,
  "튐": 3981,
  "통하여</w>": 10303,
  "맣</w>": 6076,
  "챠": 3476,
  "덖</w>": 7723,
  "쉬운</w>": 10100,
  "줮": 3209,
  "인사": 10221,
  "페</w>": 5006,
  "쾨": 3759,
  "쟙": 3060,
  "엘": 2735,
  "트위": 10820,
  "뢉</w>": 6680,
  "몇</w>": 5655,
  "면": 1614,
  "이사</w>": 11757,
  "뽓": 2103,
  "틉</w>": 6985,
  "멘": 1600,
  "않는다는</w>": 15689,
  "셍": 2260,
  "껜</w>": 5780,
  "햣": 4261,
  "뇐": 743,
  "뤘": 1442,
  "연</w>": 5015,
  "찝</w>": 6843,
  "빠": 2020,
  "설명</w>": 9926,
  "눈으로</w>": 16313,
  "-": 10,
  "목</w>": 4998,
  "각각</w>": 10064,
  "지요</w>": 8536,
  "맂</w>": 6606,
  "점</w>": 4545,
  "깖": 390,
  "잎</w>": 5551,
  "좀": 3139,
  "악의</w>": 15348,
  "쑬": 2563,
  "빪": 2028,
  "묹": 1684,
  "꿿</w>": 7308,
  "역사적</w>": 15621,
  "너</w>": 4521,
  "롵": 1387,
  "명과</w>": 13887,
  "제품": 8114,
  "자세": 8384,
  "사고가</w>": 16049,
  "스와</w>": 10125,
  "겎": 164,
  "명이</w>": 8610,
  "부스타빗": 9951,
  "데이터</w>": 8669,
  "오염": 13794,
  "저항": 14266,
  "젃</w>": 5274,
  "다음의</w>": 13190,
  "맑": 1531,
  "반": 1772,
  "뭋</w>": 7055,
  "지며</w>": 16358,
  "시길</w>": 13966,
  "쉽고</w>": 13040,
  "은퇴": 16294,
  "퍌": 4068,
  "무너": 13355,
  "모두": 8672,
  "발견</w>": 13837,
  "말한</w>": 15812,
  "대구</w>": 11551,
  "챠</w>": 5493,
  "버전</w>": 11851,
  "찾고</w>": 12785,
  "텃</w>": 6149,
  "먠</w>": 7323,
  "임을</w>": 9467,
  "미</w>": 4544,
  "텧": 3915,
  "업데이트</w>": 9823,
  "끍": 570,
  "스러운</w>": 9653,
  "{</w>": 5782,
  "벡</w>": 5431,
  "젭</w>": 6980,
  "21일</w>": 13098,
  "흭": 4458,
  "쫌": 3361,
  "시대</w>": 9678,
  "돳": 975,
  "팎": 4034,
  "짩": 3287,
  "튜": 3986,
  "릭</w>": 5084,
  "다양한</w>": 8028,
  "퀵": 3795,
  "Br": 12695,
  "쟣": 3066,
  "퍼": 4073,
  "되는": 11547,
  "츶": 3630,
  "국은</w>": 11518,
  "한반도</w>": 14678,
  "뫘</w>": 7624,
  "중입니다</w>": 12044,
  "당장</w>": 12730,
  "유지": 8780,
  "석": 2224,
  "즛</w>": 6463,
  "뤤": 1446,
  "혀": 4301,
  "수와</w>": 9778,
  "졀": 3117,
  "범죄</w>": 14915,
  "젙": 3093,
  "줘</w>": 5125,
  "쐉</w>": 7507,
  "탇</w>": 7727,
  "강화</w>": 11601,
  "말</w>": 4599,
  "간주": 15899,
  "말라</w>": 13612,
  "질이</w>": 12939,
  "냈": 628,
  "노인</w>": 14712,
  "캠프</w>": 14365,
  "항문</w>": 12030,
  "몠": 1634,
  "팏": 4035,
  "범</w>": 5046,
  "타임": 11511,
  "입니까</w>": 11830,
  "손으로</w>": 12663,
  "웠던</w>": 15129,
  "re</w>": 16318,
  "기념</w>": 12587,
  "판</w>": 4566,
  "특정": 15107,
  "마</w>": 4878,
  "전달": 9534,
  "깔": 389,
  "스위스</w>": 16079,
  "좥": 3155,
  "vide": 13831,
  "쇴": 2326,
  "분야의</w>": 13354,
  "공고</w>": 12756,
  "오지</w>": 12975,
  "ver": 9580,
  "삿</w>": 5635,
  "럵</w>": 7273,
  "믺": 1747,
  "다르게</w>": 12155,
  "성과</w>": 9196,
  "듸</w>": 5834,
  "구할</w>": 11954,
  "띤": 1259,
  "변동": 12926,
  "언론": 9479,
  "룏": 1414,
  "먹을</w>": 9407,
  "핻": 4240,
  "이번": 8845,
  "톰</w>": 5392,
  "DV": 11839,
  "준": 3185,
  "loc": 13430,
  "물과</w>": 14760,
  "딩": 1082,
  "NA": 13524,
  "풍부한</w>": 15663,
  "갈": 90,
  "꿅": 524,
  "인류": 12239,
  "팣</w>": 7778,
  "지가</w>": 8477,
  "보안": 11264,
  "쐏": 2545,
  "뮘</w>": 5398,
  "댚": 881,
  "왈": 2816,
  "봉사": 10446,
  "굉장": 10295,
  "춪</w>": 7486,
  "Op": 14213,
  "생각을</w>": 9230,
  "삭": 2167,
  "아</w>": 4790,
  "섭</w>": 4696,
  "슭": 2402,
  "일의</w>": 9213,
  "깟": 395,
  "시즌": 9435,
  "재생": 9447,
  "갸": 124,
  "국무": 14923,
  "쭤": 3399,
  "킂</w>": 6395,
  "뛔": 1215,
  "턻": 3891,
  "기대": 8576,
  "세계를</w>": 13662,
  "프랑스": 13816,
  "슈퍼</w>": 15809,
  "잏": 3014,
  "보기": 14825,
  "자료들입니다</w>": 9869,
  "옞": 2785,
  "갗": 103,
  "요소": 9650,
  "나를</w>": 8999,
  "아동": 9437,
  "베트": 10468,
  "영역": 9990,
  "웎": 2884,
  "매니": 12017,
  "전</w>": 4643,
  "훪": 4407,
  "엉": 2723,
  "KB": 9628,
  "몰": 1642,
  "뫠": 1665,
  "퍅": 4065,
  "윁": 2917,
  "르면</w>": 8867,
  "N</w>": 4624,
  "자료들은</w>": 9836,
  "읋": 2965,
  "좋아</w>": 12847,
  "내는</w>": 8925,
  "숧": 2346,
  "검</w>": 5094,
  "흑": 4442,
  "석을</w>": 12689,
  "젗": 3092,
  "호가</w>": 15917,
  "얺": 2711,
  "씨</w>": 4724,
  "갱": 119,
  "땅</w>": 4804,
  "뒥</w>": 7533,
  "촣</w>": 7536,
  "악한</w>": 15783,
  "릇": 1485,
  "중국": 8411,
  "쩀</w>": 6647,
  "뵤": 1928,
  "몸이</w>": 12828,
  "이름": 8376,
  "꿉": 527,
  "콸": 3751,
  "귁": 317,
  "ite</w>": 11972,
  "앖": 2646,
  "ve</w>": 9149,
  "외에도</w>": 11331,
  "예술": 9248,
  "도움이</w>": 8871,
  "갊": 92,
  "뮌</w>": 5953,
  "70</w>": 14859,
  "퀑": 3786,
  "평로</w>": 13797,
  "시절": 11350,
  "휴</w>": 5290,
  "....</w>": 8751,
  "접수</w>": 12603,
  "신용카드</w>": 14466,
  "원</w>": 4632,
  "대": 870,
  "풒": 4157,
  "챺": 3487,
  "이해가</w>": 13184,
  "탶": 3878,
  "뀰</w>": 7110,
  "쨘": 3312,
  "볹</w>": 7232,
  "밊": 1758,
  "튝</w>": 7504,
  "SK</w>": 15911,
  "팡</w>": 5112,
  "륑": 1458,
  "바지</w>": 14228,
  "덥": 908,
  "식이</w>": 9597,
  "렌": 1340,
  "2017</w>": 9885,
  "20대</w>": 14323,
  "par": 12189,
  "종사": 14815,
  "끝이</w>": 14532,
  "퍆": 4066,
  "어려운</w>": 9586,
  "쨌": 3306,
  "쉘": 2367,
  "메뉴": 9757,
  "겠</w>": 5591,
  "CS": 12964,
  "37</w>": 12933,
  "위반": 11915,
  "짍": 3264,
  "숙</w>": 4813,
  "삡": 2161,
  "팭": 4054,
  "종이</w>": 12631,
  "구조를</w>": 14892,
  "떻</w>": 6904,
  "꾹</w>": 5564,
  "전혀</w>": 9183,
  "딬</w>": 7556,
  "아트</w>": 15296,
  "11페이지</w>": 14086,
  "뛴</w>": 6732,
  "선생님": 14848,
  "춓</w>": 6067,
  "이었": 8164,
  "롯데": 10933,
  "맅</w>": 7667,
  "뻈": 2059,
  "쿧": 3772,
  "꿘": 536,
  "삻": 2178,
  "멂</w>": 7755,
  "보드</w>": 11039,
  "왼쪽</w>": 14568,
  "가입</w>": 9599,
  "뛱": 1218,
  "안전": 8321,
  "지와</w>": 10298,
  "예전에</w>": 14159,
  "6개</w>": 15150,
  "own</w>": 15329,
  "쿔": 3767,
  "붜</w>": 6730,
  "뀽": 561,
  "알리": 16343,
  "컴퓨터": 9258,
  "대우": 14422,
  "휭": 4432,
  "창작": 15704,
  "쇪</w>": 6739,
  "1위</w>": 9825,
  "눈": 760,
  "더</w>": 4860,
  "밚": 1774,
  "초": 3532,
  "몴": 1645,
  "김종": 15193,
  "쇅</w>": 6845,
  "소중": 15800,
  "럼": 1330,
  "회원이</w>": 12513,
  "휜</w>": 6458,
  "회사</w>": 8886,
  "좁": 3140,
  "DB": 14133,
  "듬</w>": 5588,
  "인쇄": 13331,
  "im</w>": 14623,
  "자원봉사": 16226,
  "마우": 16154,
  "닮": 854,
  "깆</w>": 7696,
  "블로그를</w>": 14412,
  "찯": 3445,
  "님과</w>": 11810,
  "발</w>": 4893,
  "쑌</w>": 6531,
  "어플리케이": 14136,
  "수행</w>": 14799,
  "뺸</w>": 6911,
  "킥</w>": 5830,
  "굠": 263,
  "멊": 1588,
  "수강": 12077,
  "롱</w>": 5124,
  "쐉": 2544,
  "퍁": 4063,
  "짤</w>": 5376,
  "릮</w>": 6681,
  "cl": 12858,
  "집에</w>": 10035,
  "j</w>": 5134,
  "운영하는</w>": 13761,
  "귀여운</w>": 11309,
  "전송</w>": 14118,
  "음악을</w>": 13309,
  "ai": 12421,
  "맴": 1554,
  "다저": 15213,
  "엨": 2746,
  "협의": 14080,
  "꺠</w>": 7221,
  "버전": 9684,
  "웣</w>": 6945,
  "쪈": 3349,
  "큇</w>": 6254,
  "핡</w>": 6934,
  "큇": 3801,
  "웧</w>": 7118,
  "의": 2978,
  "푄</w>": 7602,
  "꿁": 522,
  "뽄</w>": 6551,
  "혐": 4310,
  "옥": 2788,
  "깪": 404,
  "른</w>": 5005,
  "존재": 8594,
  "!</w>": 5159,
  "잽": 3046,
  "TV</w>": 8816,
  "근": 339,
  "웏</w>": 7341,
  "강좌</w>": 15542,
  "즇": 3236,
  "웟": 2897,
  "깛": 391,
  "67": 15265,
  "연예": 11530,
  "옹</w>": 5163,
  "매우</w>": 8257,
  "걺</w>": 7712,
  "낟": 602,
  "여름</w>": 10808,
  "yp": 11885,
  "테스트</w>": 10590,
  "눳": 776,
  "드려요</w>": 15457,
  "꿕": 535,
  "변화</w>": 10458,
  "쎤": 2514,
  "챞": 3474,
  "핲": 4234,
  "데이터베이": 11238,
  "그래픽</w>": 13737,
  "뜯</w>": 6389,
  "츈</w>": 5943,
  "웟</w>": 5989,
  "궥</w>": 7617,
  "뒨": 1030,
  "쉔": 2366,
  "밙": 1773,
  "W": 48,
  "뮬": 1727,
  "되</w>": 4864,
  "심판": 15263,
  "시기를</w>": 15929,
  "얶": 2707,
  "윛</w>": 7511,
  "변호": 10859,
  "비슷한</w>": 10400,
  "콜": 3739,
  "뫔</w>": 6264,
  "주신</w>": 10768,
  "버렸다</w>": 15654,
  "르는</w>": 8951,
  "tub": 15391,
  "심이</w>": 11952,
  "초청": 15504,
  "톄</w>": 7199,
  "임금</w>": 16054,
  "생명": 10099,
  "인수": 15684,
  "분명</w>": 12611,
  "곡": 207,
  "뉴스</w>": 8558,
  "쐇": 2542,
  "떅": 1121,
  "표를</w>": 11690,
  "효율": 9915,
  "슐</w>": 5425,
  "나와</w>": 9462,
  "골든": 15928,
  "몮": 1640,
  "슙</w>": 6706,
  "쏚</w>": 6688,
  "시기</w>": 8466,
  "둘</w>": 5395,
  "녁": 693,
  "자유롭게</w>": 13467,
  "상태가</w>": 14353,
  "짙</w>": 7233,
  "셱</w>": 6599,
  "휀": 4415,
  "반도체</w>": 16274,
  "enc": 14342,
  "지정": 9828,
  "AR</w>": 16329,
  "사법": 16317,
  "Des": 14651,
  "것인지</w>": 12349,
  "뗙": 1157,
  "칯</w>": 7759,
  "뎗": 938,
  "휍": 4420,
  "습니까</w>": 8909,
  "전문가</w>": 11683,
  "솜</w>": 5391,
  "유명한</w>": 10891,
  "챸": 3486,
  "촹": 3550,
  "븡</w>": 7576,
  "출신</w>": 13982,
  "쯥</w>": 7575,
  "se": 9280,
  "ore</w>": 11255,
  "핞": 4217,
  "긕</w>": 5831,
  "이웃": 12190,
  "않는다</w>": 8910,
  "숼</w>": 7121,
  "우려": 11413,
  "쑨</w>": 6053,
  "퀴": 3794,
  "경험이</w>": 12984,
  "보이지</w>": 10914,
  "국정": 13442,
  "티셔츠</w>": 14668,
  "필수": 11590,
  "퉅": 3967,
  "쓰기</w>": 9118,
  "Sp": 10483,
  "부처": 14140,
  "0개</w>": 13956,
  "센터</w>": 8272,
  "퍙": 4070,
  "풠": 4161,
  "필드</w>": 15249,
  "눗": 767,
  "쇼</w>": 4951,
  "괘</w>": 5556,
  "샸": 2212,
  "펴": 4096,
  "방송을</w>": 16068,
  "룁": 1409,
  "윅</w>": 5515,
  "볂": 1862,
  "들이": 13692,
  "사람들이</w>": 8439,
  "사고": 9115,
  "구경": 13879,
  "뎁": 925,
  "있는데요</w>": 12430,
  "잰": 3041,
  "놯": 740,
  "텉</w>": 7485,
  "삗": 2158,
  "수에</w>": 12265,
  "생각은</w>": 14067,
  "몲</w>": 7530,
  "븜</w>": 5919,
  "잍</w>": 5832,
  "쩗": 3332,
  "뺼": 2057,
  "쳅</w>": 7432,
  "목표로</w>": 14487,
  "술": 2343,
  "벞</w>": 7251,
  "관련</w>": 8110,
  "꽁": 482,
  "가장": 14903,
  "학습</w>": 11333,
  "들어": 7938,
  "퓬": 4176,
  "작</w>": 5036,
  "뽐": 2101,
  "탘</w>": 7176,
  "똫": 1179,
  "씻": 2624,
  "턔": 3885,
  "뎉": 932,
  "가": 83,
  "데일": 12910,
  "교사": 13885,
  "툰</w>": 5298,
  "윰</w>": 6031,
  "뺏": 2043,
  "홉</w>": 5965,
  "몟": 1633,
  "신고": 8806,
  "엎": 2728,
  "훨씬</w>": 9752,
  "회원의</w>": 12183,
  "클릭": 9347,
  "od": 10123,
  "클릭</w>": 11379,
  "밹": 1801,
  "진</w>": 4556,
  "썸": 2497,
  "최초</w>": 12917,
  "anc": 13643,
  "별도로</w>": 13344,
  "췅": 3598,
  "편의": 11386,
  "딹</w>": 7646,
  "쯩</w>": 6591,
  "호스": 12834,
  "더니</w>": 9925,
  "헒</w>": 7236,
  "이스": 10251,
  "적</w>": 4589,
  "씩</w>": 4958,
  "냡</w>": 7652,
  "ab": 8614,
  "욉</w>": 5485,
  "하게": 13011,
  "회원": 8077,
  "뢔</w>": 7775,
  "기초</w>": 14178,
  "기술의</w>": 14386,
  "게요</w>": 13415,
  "큨</w>": 7762,
  "상대로</w>": 13894,
  "넓은</w>": 11874,
  "지방</w>": 12592,
  "풔</w>": 7327,
  "하러</w>": 14662,
  "ure</w>": 10505,
  "세금</w>": 14688,
  "신청을</w>": 14260,
  "크리에이티브</w>": 11883,
  "닳": 857,
  "청소년": 9427,
  "답변</w>": 11582,
  "쪌</w>": 7441,
  "밭": 1792,
  "Y": 50,
  "rip": 11007,
  "섷": 2247,
  "장애</w>": 11487,
  "흇": 4438,
  "소방": 12710,
  "ak": 9517,
  "공급": 9755,
  "웬</w>": 5507,
  "디자인을</w>": 16215,
  "딲": 1091,
  "훓</w>": 6416,
  "관계에</w>": 15731,
  "씁</w>": 6533,
  "돱": 974,
  "고구": 15974,
  "트를</w>": 8293,
  "뭃": 1690,
  "자전거</w>": 11823,
  "흔</w>": 5272,
  "팀은</w>": 12613,
  "썀": 2481,
  "뼊": 2082,
  "센</w>": 5000,
  "회장은</w>": 15871,
  "평양": 15915,
  "27</w>": 10838,
  "시범": 13881,
  ":)</w>": 11360,
  "지니": 10192,
  "찬": 3442,
  "pr": 13078,
  "플라": 9715,
  "온다</w>": 10177,
  "조회": 12335,
  "영혼": 13591,
  "넉": 649,
  "챁": 3456,
  "찔": 3427,
  "컁</w>": 7011,
  "쯱": 3421,
  "난</w>": 5168,
  "의무</w>": 15113,
  "윶": 2946,
  "있다고</w>": 8494,
  "킨</w>": 4976,
  "픙</w>": 5793,
  "슴</w>": 5188,
  "뼈</w>": 5594,
  "쒄": 2571,
  "대한": 8305,
  "곅": 198,
  "길게</w>": 15078,
  "캭": 3683,
  "이승": 13071,
  "윕</w>": 6224,
  "뜻</w>": 5667,
  "제출": 9794,
  "잔": 3019,
  "골프": 10792,
  "위로</w>": 9481,
  "수정</w>": 9057,
  "초기</w>": 12967,
  "어려움을</w>": 15847,
  "컈": 3690,
  "굼": 281,
  "올랐다</w>": 13198,
  "얶</w>": 6098,
  "MB": 10056,
  "아이들은</w>": 16157,
  "닯</w>": 7286,
  "세종": 12840,
  "ang</w>": 13395,
  "멪": 1607,
  "음식을</w>": 12161,
  "후원": 12862,
  "켝": 3723,
  "슽</w>": 6052,
  "악</w>": 4815,
  "밖에</w>": 8457,
  "외의</w>": 12053,
  "멜": 1601,
  "드리": 8271,
  "힇": 4465,
  "돨</w>": 5948,
  "쏜</w>": 6351,
  "삮": 2168,
  "망</w>": 5154,
  "평범": 13367,
  "http</w>": 9302,
  "산이</w>": 14301,
  "쌓": 2467,
  "쾁": 3753,
  "\"": 5,
  "푿": 4149,
  "있나</w>": 14106,
  "주인": 12848,
  "이번에</w>": 11056,
  "이후</w>": 8311,
  "멀</w>": 5320,
  "195": 13788,
  "아파": 8802,
  "자료</w>": 8371,
  "갤</w>": 5458,
  "진한</w>": 15634,
  "기술</w>": 8737,
  "전시": 9733,
  "륨": 1464,
  "비핵": 15392,
  "co</w>": 9308,
  "수요": 11185,
  "붐": 1946,
  "앚</w>": 7035,
  "마찬": 9903,
  "의료": 8879,
  "쌍": 2464,
  "ra</w>": 15922,
  "개월</w>": 8372,
  "어디서": 15498,
  "1개</w>": 9952,
  "ld</w>": 14147,
  "혤": 4319,
  "요구하는</w>": 15517,
  "고급": 12766,
  "렀다</w>": 14349,
  "칡</w>": 6082,
  "감정": 13572,
  "링크를</w>": 14419,
  "보도록</w>": 16253,
  "봠": 1907,
  "쬼</w>": 7172,
  "띠": 1257,
  "19</w>": 9736,
  "싱": 2443,
  "캴": 3685,
  "릅니다</w>": 11001,
  "쌸": 2480,
  "큿</w>": 6555,
  "사람과</w>": 12816,
  "낰</w>": 7228,
  "id": 9900,
  "저작권": 8190,
  "페이지를</w>": 11993,
  "도시": 8691,
  "잟</w>": 6883,
  "먈": 1567,
  "톧</w>": 7430,
  "벎": 1828,
  "걔": 137,
  "트라": 16096,
  "슮": 2403,
  "can</w>": 15952,
  "된다고</w>": 10873,
  "주식</w>": 14748,
  "껭": 453,
  "틔</w>": 5997,
  "부품</w>": 14999,
  "생을</w>": 12176,
  "윈": 2920,
  "권": 293,
  "필": 4200,
  "low": 15130,
  "찾": 3453,
  "먼저</w>": 8480,
  "웑": 2887,
  "꾱": 513,
  "메이저": 11334,
  "퐅</w>": 7173,
  "카지": 8471,
  "엡": 2740,
  "모르": 8253,
  "몰랐": 13974,
  "귑": 321,
  "쳥": 3527,
  "보았습니다</w>": 14504,
  "쌌": 2463,
  "음에도</w>": 13374,
  "도서관</w>": 12515,
  "짚": 3276,
  ",": 9,
  "차이</w>": 14683,
  "퉝": 3972,
  "읈": 2962,
  "쌉": 2461,
  "콜라": 16207,
  "오히려</w>": 9455,
  "튐</w>": 5758,
  "없애": 14972,
  "꾯": 512,
  "스피": 9330,
  "왇</w>": 6106,
  "기도</w>": 7994,
  "틍": 4005,
  "툰": 3961,
  "실시간</w>": 11113,
  "사전</w>": 9031,
  "설정을</w>": 13552,
  "척</w>": 5052,
  "굽": 282,
  "소프트</w>": 14073,
  "궍</w>": 5964,
  "기후</w>": 11867,
  "벺</w>": 7264,
  "헐": 4272,
  "믕</w>": 6339,
  "아시아</w>": 9333,
  "텥</w>": 7108,
  "상의</w>": 8936,
  "없었": 9714,
  "헮": 4291,
  "꽇</w>": 6188,
  "5일</w>": 10836,
  "홰</w>": 6636,
  "자산": 12207,
  "웹사이트의</w>": 15243,
  "하겠다고</w>": 15258,
  "더라구요</w>": 11532,
  "솊": 2287,
  "텍스트</w>": 14588,
  "하이": 8824,
  "왜": 2824,
  "쎾": 2520,
  "함이</w>": 11389,
  "최초의</w>": 13684,
  "뺕": 2047,
  "프로그램에</w>": 15606,
  "됀": 980,
  "우승": 10404,
  "냑": 635,
  "인사를</w>": 15573,
  "승": 2411,
  "바로</w>": 8062,
  "사람의</w>": 9507,
  "섭": 2237,
  "짘": 3274,
  "I</w>": 4875,
  "흗": 4445,
  "수집": 8652,
  "퓒": 4171,
  "라운드</w>": 12012,
  "고통": 11054,
  "세": 2248,
  "평을</w>": 16051,
  "사회적</w>": 10111,
  "걀</w>": 6204,
  "꺈": 417,
  "눔": 765,
  "다란</w>": 14454,
  "즉": 3238,
  "승리를</w>": 16191,
  "얗": 2694,
  "대장": 15236,
  "범": 1831,
  "유리</w>": 14633,
  "펏</w>": 5114,
  "뗌</w>": 7040,
  "이것을</w>": 12855,
  "헤어": 11933,
  "밀리미터로</w>": 15190,
  "꼭</w>": 5578,
  "쨰</w>": 6069,
  "껍</w>": 6177,
  "빠</w>": 5383,
  "핸": 4239,
  "폴리": 11321,
  "회원가입</w>": 14000,
  "뷜</w>": 6021,
  "릋": 1489,
  "MA": 12520,
  "정상적으로</w>": 15755,
  "확인</w>": 8785,
  "될까</w>": 15472,
  "부스타빗부스타빗": 14134,
  "전이</w>": 12061,
  "쫘": 3368,
  "임상": 15815,
  "어린이": 10081,
  "토요일</w>": 15306,
  "늒": 801,
  "샣</w>": 7783,
  "소리</w>": 10388,
  "xHamster</w>": 10246,
  "쇤": 2319,
  "넵": 683,
  "하나님을</w>": 13624,
  "구분</w>": 16303,
  "안심": 15227,
  "츰</w>": 5924,
  "훑": 4392,
  "트레이": 11440,
  "씾": 2627,
  "쟌</w>": 5738,
  "그래서</w>": 8162,
  "옝": 2784,
  "어느</w>": 8464,
  "포장</w>": 13585,
  "25</w>": 9374,
  "개선</w>": 11262,
  "Q": 42,
  "아리</w>": 13657,
  "사랑하는</w>": 10946,
  "만한</w>": 8931,
  "쎄": 2503,
  "컨설팅</w>": 14981,
  "줘": 3202,
  "밟</w>": 6080,
  "구조</w>": 10759,
  "훳": 4409,
  "ate</w>": 10071,
  "기기": 16053,
  "우연": 13231,
  "만드는</w>": 9073,
  "외국인</w>": 12214,
  "색깔": 16084,
  "짅</w>": 7469,
  "공식</w>": 9560,
  "박근": 10643,
  "쾀": 3752,
  "사실은</w>": 13792,
  "찌": 3422,
  "클로": 13420,
  "홴": 4360,
  "효과": 8500,
  "자신에게</w>": 15545,
  "안으로</w>": 12800,
  "쒹": 2581,
  "끄": 563,
  "뒜": 1026,
  "퐝": 4131,
  "세부": 14488,
  "접한</w>": 15585,
  "이라고</w>": 8022,
  "뎅</w>": 5098,
  "우": 2859,
  "운</w>": 4708,
  "룹</w>": 4986,
  "릲": 1506,
  "포함</w>": 9399,
  "아니었다</w>": 15185,
  "정부</w>": 9328,
  "가족": 8400,
  "내부": 12024,
  "앙": 2649,
  "봐": 1901,
  "셌</w>": 7296,
  "ol": 8531,
  "신선": 12869,
  "횔</w>": 6174,
  "뎌": 934,
  "놧": 737,
  "녔</w>": 5888,
  "숸": 2357,
  "츔</w>": 6953,
  "젱": 3106,
  "뗑</w>": 6544,
  "ow": 8580,
  "남의</w>": 12808,
  "툏": 3954,
  "프레": 8939,
  "림을</w>": 14918,
  "거</w>": 4700,
  "달을</w>": 14544,
  "치를</w>": 8628,
  "인원</w>": 15967,
  "해당하는</w>": 10457,
  "귈": 319,
  "트리": 9461,
  "실시간": 11909,
  "소통": 10627,
  "곘": 203,
  "켜</w>": 4560,
  "태어난</w>": 16055,
  "8페이지</w>": 12257,
  "떰</w>": 5595,
  "푷": 4145,
  "km</w>": 8874,
  "풍</w>": 5116,
  "젋": 3083,
  "벗": 1833,
  "뺩": 2052,
  "둣</w>": 6158,
  "쓩": 2591,
  "과정에서</w>": 10213,
  "괼": 250,
  "겻": 189,
  "긃": 346,
  "한정": 12205,
  "쇪": 2321,
  "들에게</w>": 8142,
  "쿵": 3777,
  "싥": 2431,
  "이고</w>": 8048,
  "듲": 1060,
  "었</w>": 5566,
  "풍": 4156,
  "촨": 3547,
  "예쁜</w>": 12859,
  "더블</w>": 13551,
  "싶어</w>": 12559,
  "지하철</w>": 13844,
  "5년": 13780,
  "마음을</w>": 9271,
  "황색</w>": 15667,
  "완전": 10190,
  "해": 4236,
  "췌</w>": 4821,
  "성도</w>": 13605,
  "푶": 4144,
  "차의</w>": 15723,
  "왘</w>": 7380,
  "설득": 15717,
  "롼</w>": 6992,
  "SQL</w>": 13639,
  "그래프": 8275,
  "브로": 16007,
  "닜": 837,
  "튘</w>": 7491,
  "비롯해</w>": 14071,
  "별도의</w>": 11771,
  "뾱</w>": 6633,
  "신한": 16269,
  "첫</w>": 5341,
  "멀리</w>": 12278,
  "관한</w>": 8248,
  "밍</w>": 5100,
  "낼</w>": 4997,
  "국가</w>": 10158,
  "목표</w>": 12908,
  "우리": 7885,
  "죱</w>": 5980,
  "IC": 10041,
  "주시면</w>": 11632,
  "정신</w>": 14371,
  "타를</w>": 14168,
  "물</w>": 4750,
  "어는</w>": 10533,
  "정당": 11526,
  "아마츄": 11707,
  "졺": 3135,
  "훰</w>": 6856,
  "결합": 11489,
  "깜": 392,
  "복합": 13116,
  "정도로</w>": 9113,
  "챨</w>": 7146,
  "업무": 9012,
  "보였다</w>": 11531,
  "리는</w>": 8009,
  "불가능": 13819,
  "저장</w>": 12156,
  "후에는</w>": 13044,
  "경영": 8750,
  "은</w>": 4558,
  "트가</w>": 9182,
  "혹시</w>": 10666,
  "전화": 9059,
  "ject</w>": 14162,
  "눴": 777,
  "벵</w>": 5729,
  "합니까</w>": 14464,
  "at</w>": 8977,
  "탉</w>": 6778,
  "이벤트": 16311,
  "쪕</w>": 6677,
  "찾을</w>": 10133,
  "기획</w>": 11399,
  "륑</w>": 6725,
  "셴": 2280,
  "여러</w>": 8249,
  "레즈비": 10378,
  "몆": 1623,
  "뚯": 1207,
  "곈</w>": 7070,
  "뾵</w>": 7304,
  "특성을</w>": 15467,
  "이다</w>": 7852,
  "껨": 449,
  "뗄</w>": 6265,
  "택": 3865,
  "항목</w>": 12751,
  "곌</w>": 6327,
  "엻": 2762,
  "뾵": 2116,
  "us</w>": 9916,
  "뵐": 1922,
  "스터": 9094,
  "높</w>": 5688,
  "기반": 9595,
  "선수들이</w>": 15736,
  "병을</w>": 15112,
  "져서</w>": 11739,
  "Mar": 11188,
  "목록": 11277,
  "주십시오</w>": 12037,
  "하드</w>": 8743,
  "ach</w>": 14951,
  "차례</w>": 11960,
  "챂</w>": 5813,
  "블루": 10488,
  "플로": 11373,
  "발달": 10429,
  "헹": 4298,
  "불가": 11254,
  "툼": 3963,
  "횟": 4370,
  "섹스": 15285,
  "발행": 11805,
  "향</w>": 4803,
  "L": 37,
  "되었다고</w>": 14356,
  "쉰</w>": 5736,
  "뭏": 1701,
  "녹</w>": 5271,
  "뗜": 1158,
  "혼": 4326,
  "https</w>": 14077,
  "괆</w>": 7697,
  "Dat": 16260,
  "예산": 11338,
  "차로</w>": 11600,
  "돡": 970,
  "샾</w>": 5711,
  "방식": 8746,
  "li": 8829,
  "교류": 13073,
  "랼</w>": 7835,
  "밋": 1759,
  "혹은</w>": 8775,
  "이러": 8141,
  "인사</w>": 11922,
  "들여": 13284,
  "전문가": 10633,
  "륲</w>": 7707,
  "룸</w>": 5192,
  "듭</w>": 5689,
  "내용을</w>": 8798,
  "제안": 10870,
  "나갈</w>": 12398,
  "거운</w>": 8956,
  "가공": 15579,
  "이후에</w>": 14534,
  "Microsoft</w>": 12745,
  "빛</w>": 5404,
  "뽷</w>": 7400,
  "46": 13220,
  "스마트폰": 10630,
  "P": 41,
  "라이트</w>": 12815,
  "닒": 833,
  "시절</w>": 11902,
  "섹시": 9608,
  "퀌": 3783,
  "탓": 3857,
  "쿄</w>": 5646,
  "CR": 15200,
  "앺": 2670,
  "태": 3864,
  "십자": 14322,
  "헬</w>": 5412,
  "읽</w>": 6260,
  "꺠": 424,
  "성숙한</w>": 12696,
  "뗘": 1156,
  "건설": 10104,
  "넴</w>": 6085,
  "촤</w>": 6006,
  "쌀</w>": 5286,
  "독일": 11655,
  "합격": 11234,
  "쉨": 2372,
  "엷": 2759,
  "태그</w>": 10382,
  "시적</w>": 16066,
  "캄": 3658,
  "졌</w>": 5526,
  "내야</w>": 15224,
  "샡": 2203,
  "서울특별시</w>": 11809,
  "벱</w>": 6489,
  "오리": 11377,
  "든다</w>": 11027,
  "릃": 1481,
  "베르": 12922,
  "트는</w>": 9325,
  "흣": 4452,
  "일으": 10437,
  "뱄": 1805,
  "퍝": 4071,
  "58</w>": 15087,
  "않</w>": 5937,
  "양을</w>": 13029,
  "서류": 11894,
  "남기": 12943,
  "윘": 2925,
  "?</w>": 5494,
  "가슴</w>": 8196,
  "하기를</w>": 10074,
  "일보</w>": 11214,
  "z</w>": 4749,
  "콰": 3748,
  "앱을</w>": 13958,
  "성적</w>": 13106,
  "가구</w>": 13292,
  "빆": 2004,
  "휵": 4434,
  "고맙습니다</w>": 13136,
  "엍</w>": 7378,
  "샏": 2194,
  "목표": 9137,
  "곪": 211,
  "퉝</w>": 7101,
  "췄</w>": 6936,
  "궁금": 8779,
  "학기</w>": 11923,
  "뫤": 1666,
  "남자": 9457,
  "뱉": 1809,
  "내용은</w>": 9028,
  "괭</w>": 7375,
  "찐</w>": 5977,
  "속</w>": 4568,
  "바이": 8419,
  ".": 11,
  "무척</w>": 15187,
  "line</w>": 14564,
  "에이": 8304,
  "훟</w>": 6137,
  "일본</w>": 8414,
  "겋</w>": 6690,
  "코리아": 12103,
  "됩니다</w>": 7904,
  "줌": 3192,
  "꾸</w>": 5219,
  "깼": 412,
  "행위</w>": 10785,
  "이상이</w>": 14017,
  "퓌": 4167,
  "앞으로도</w>": 12564,
  "큌": 3803,
  "커뮤니케이션</w>": 15522,
  "어쨌": 14344,
  "미니</w>": 12755,
  "뭅</w>": 7384,
  "복지</w>": 11018,
  "킵": 3837,
  "헴</w>": 5512,
  "타운</w>": 14277,
  "클라우드</w>": 12717,
  "틀": 3999,
  "200": 8024,
  "간단하게</w>": 14784,
  "달</w>": 5009,
  "지혜": 13706,
  "엔지니": 13658,
  "받는다</w>": 13304,
  "넒": 656,
  "자": 3015,
  "오랫동안</w>": 13925,
  "지능": 12732,
  "븅</w>": 6913,
  "션은</w>": 11523,
  "분노": 15448,
  "사이트에서</w>": 15367,
  "뚀</w>": 7418,
  "쏱": 2535,
  "추정": 15029,
  "잖</w>": 5384,
  "저렴한</w>": 11112,
  "국에</w>": 13795,
  "욵": 2864,
  "댓글": 8375,
  "뛀": 1212,
  "제기": 11659,
  "딲</w>": 6670,
  "하려고</w>": 9985,
  "뿍": 2121,
  "받았습니다</w>": 15447,
  "일까지</w>": 9674,
  "통</w>": 4780,
  "읭": 2985,
  "밟": 1779,
  "펄</w>": 5650,
  "읇": 2961,
  "뭇": 1693,
  "챴": 3484,
  "어": 2705,
  "권한이</w>": 14340,
  "하고</w>": 7847,
  "성적": 13491,
  "효과적인</w>": 15996,
  "te</w>": 14184,
  "캉</w>": 5568,
  "국의</w>": 9129,
  "사이트를</w>": 11882,
  "알게</w>": 10418,
  "캑</w>": 5726,
  "없이</w>": 7990,
  "맛집</w>": 10868,
  "맛": 1539,
  "서울특별": 11505,
  "구하고</w>": 10085,
  "레포트": 12878,
  "롓": 1373,
  "웂": 2874,
  "얔": 2691,
  "Comp": 15713,
  "E": 30,
  "뫅": 1658,
  "왱</w>": 6474,
  "돓</w>": 6552,
  "그러나</w>": 8096,
  "사례를</w>": 15330,
  "젊</w>": 7259,
  "서핑에</w>": 9864,
  "랽</w>": 7161,
  "겠지요</w>": 14984,
  "핌": 4202,
  "꿸</w>": 7792,
  "움</w>": 4945,
  "낢</w>": 7394,
  "참": 3448,
  "쥿</w>": 6535,
  "스마트폰</w>": 10982,
  "1인": 13332,
  "쫒": 3365,
  "것이다</w>": 7930,
  "위협": 12383,
  "븛": 1991,
  "걘": 139,
  "쳬</w>": 5414,
  "딘": 1074,
  "최근에</w>": 13594,
  "밀리미터": 9993,
  "퉍": 3969,
  "00": 7918,
  "욺": 2868,
  "꿨": 539,
  "먜</w>": 7452,
  "필요하다</w>": 10869,
  "고령": 16310,
  "쎙": 2512,
  "그린</w>": 12206,
  "멕": 1599,
  "48</w>": 13562,
  "옃</w>": 7038,
  "알": 2638,
  "캇": 3661,
  "뾰": 2113,
  "난": 600,
  "으로서의</w>": 15520,
  "군의</w>": 12425,
  "둡": 1013,
  "아는</w>": 9366,
  "긷</w>": 6447,
  "ff": 9848,
  "몫": 1638,
  "폡": 4113,
  "즈</w>": 4563,
  "문화를</w>": 12841,
  "핕</w>": 7653,
  "띰</w>": 6525,
  "밴드로</w>": 14510,
  "틷</w>": 7780,
  "펀드</w>": 16042,
  "최소": 10098,
  "좸</w>": 7279,
  "핰": 4232,
  "쫩": 3372,
  "그러므로</w>": 11014,
  "핚": 4213,
  "퍽</w>": 6539,
  "뉵": 791,
  "낳": 618,
  "필요한</w>": 8324,
  "충</w>": 5334,
  "쫼": 3377,
  "섣": 2229,
  "중앙</w>": 16067,
  "웥": 2903,
  "스크</w>": 12370,
  "쭝</w>": 6957,
  "J</w>": 5312,
  "적": 3073,
  "\\</w>": 5794,
  "괼</w>": 7019,
  "붅": 1938,
  "가게": 13611,
  "ic</w>": 9667,
  "명은</w>": 11017,
  "신문</w>": 10117,
  "싱가": 12981,
  "중국의</w>": 12095,
  "깻": 411,
  "뫼</w>": 5691,
  "리기</w>": 11279,
  "섧": 2233,
  "딫": 1084,
  "왝</w>": 6424,
  "years</w>": 16122,
  "멧</w>": 5524,
  "쩜": 3333,
  "쓰레": 12647,
  "되었던</w>": 14328,
  "큽</w>": 7171,
  "애틀": 16323,
  "Porn": 10309,
  "킼</w>": 7080,
  "이유</w>": 9358,
  "부정": 10354,
  "자가</w>": 8005,
  "주시기</w>": 9906,
  "얼마": 8489,
  "부동산": 13206,
  "te": 10795,
  "플레이</w>": 10131,
  "쫳</w>": 7789,
  "췬</w>": 6492,
  "겠": 171,
  "댝</w>": 6923,
  "몾": 1652,
  "뿓": 2123,
  "열어": 16031,
  "l</w>": 4630,
  "쟈": 3053,
  "더욱</w>": 8514,
  "꿔": 534,
  "찓</w>": 7544,
  "후보": 9706,
  "아이들</w>": 13804,
  "읃": 2957,
  "불안": 10931,
  "들이</w>": 7859,
  "쯕</w>": 6161,
  "썬</w>": 5278,
  "셔서</w>": 8754,
  "세부</w>": 14621,
  "뢘": 1400,
  "만의</w>": 9153,
  "달러</w>": 10154,
  "충분": 8811,
  "구석": 15144,
  "하였다</w>": 8452,
  "섈": 2219,
  "시장이</w>": 13932,
  "나중에</w>": 10953,
  "츼": 3632,
  "광주": 11845,
  "페": 4084,
  "핫": 4228,
  "휨</w>": 7747,
  "2일</w>": 11193,
  "꿩": 540,
  "깎</w>": 6269,
  "크리스": 14708,
  "론</w>": 4491,
  "폽</w>": 6190,
  "추진": 9751,
  "엋": 2725,
  "잒": 3017,
  "싼": 2454,
  "프랑스</w>": 10377,
  "엪": 2748,
  "횸": 4378,
  "녂": 694,
  "휗": 4424,
  "뚥": 1201,
  "제를</w>": 8964,
  "os</w>": 11124,
  "펏": 4079,
  "이며</w>": 8085,
  "되지</w>": 8051,
  "죨": 3175,
  "룀</w>": 6083,
  "광역시</w>": 14127,
  "숩": 2348,
  "혠</w>": 6793,
  "힁</w>": 6961,
  "흥</w>": 4636,
  "지</w>": 4548,
  "핵심</w>": 11927,
  "인종</w>": 15050,
  "조의</w>": 13802,
  "뜨거운</w>": 10433,
  "읷": 2991,
  "등록된</w>": 12935,
  "션이</w>": 11745,
  "탠": 3868,
  "시장에</w>": 13068,
  "풱</w>": 7816,
  "사람들은</w>": 9232,
  "성급</w>": 12097,
  "달러": 10550,
  "쉠</w>": 7521,
  "븟": 1994,
  "신가요</w>": 13080,
  "퀭": 3793,
  "미리</w>": 9593,
  "ers</w>": 11370,
  "ap": 8593,
  "씼": 2625,
  "귐": 320,
  "이상을</w>": 15425,
  "배우": 8791,
  "겨울": 10229,
  "것일까</w>": 15412,
  "꽛</w>": 6448,
  "dev": 14689,
  "펑</w>": 5366,
  "정품</w>": 15471,
  "그러니까</w>": 12965,
  "문</w>": 4740,
  "둑": 1005,
  "\\\\</w>": 14736,
  "돝</w>": 5871,
  "택</w>": 4573,
  "700": 15882,
  "끅</w>": 6241,
  "말하는</w>": 10600,
  "정식</w>": 13923,
  "쫍</w>": 6886,
  "컬</w>": 4979,
  "일은</w>": 8913,
  "미는</w>": 15707,
  "그래프게임</w>": 12903,
  "샂": 2184,
  "쥴</w>": 5421,
  "쵝": 3556,
  "지켜": 10107,
  "컨텐": 10160,
  "껄</w>": 5537,
  "규모</w>": 10721,
  "쎅": 2504,
  "고정": 12470,
  "눂": 756,
  "턱": 3888,
  "구성되어</w>": 14675,
  "이유를</w>": 14314,
  "연간</w>": 15632,
  "핀</w>": 5327,
  "같이</w>": 8109,
  "젯": 3104,
  "역에서</w>": 14573,
  "각을</w>": 13621,
  "최": 3555,
  "뢍": 1398,
  "썌": 2485,
  "시설": 8486,
  "삵": 2174,
  "홥</w>": 7197,
  "늰</w>": 7497,
  "즐기": 11034,
  "셔츠</w>": 11905,
  "묵</w>": 5321,
  "빧": 2025,
  "것들을</w>": 13004,
  "공사</w>": 10867,
  "틥": 4016,
  "스탠": 10070,
  "기재": 12553,
  "제": 3096,
  "뱅": 1806,
  "랅": 1272,
  "횬</w>": 6933,
  "뮤": 1723,
  "15": 8115,
  "중요하다</w>": 12959,
  "만남</w>": 14492,
  "핖": 4209,
  "픕</w>": 6692,
  "졌": 3122,
  "간단히</w>": 15601,
  "어린": 8571,
  "발견": 8516,
  "비롯한</w>": 12268,
  "위험</w>": 14803,
  "까지만</w>": 15083,
  "젣": 3099,
  "푿</w>": 7183,
  "로마": 12596,
  "뭏</w>": 6656,
  "짴</w>": 7830,
  "맽": 1562,
  "최초로</w>": 13201,
  "넷": 684,
  "가야": 13919,
  "룡": 1423,
  "뜬</w>": 5629,
[...]
