{
  "version": "1.0",
  "truncation": null,
  "padding": null,
  "added_tokens": [],
  "normalizer": null,
  "pre_tokenizer": {
    "type": "Whitespace"
  },
  "post_processor": null,
  "decoder": null,
  "model": {
    "type": "BPE",
    "dropout": null,
    "unk_token": null,
    "continuing_subword_prefix": null,
    "end_of_word_suffix": "</w>",
    "fuse_unk": false,
    "byte_fallback": false,
    "ignore_merges": false,
    "vocab": {
      "\u001c": 0,
      "\u001d": 1,
      "\u001e": 2,
      "\u001f": 3,
      "!": 4,
      "\"": 5,
      "'": 6,
      "(": 7,
      ")": 8,
      ",": 9,
      "-": 10,
      ".": 11,
      "/": 12,
      "0": 13,
      "1": 14,
      "2": 15,
      "3": 16,
      "4": 17,
      "5": 18,
      "6": 19,
      "7": 20,
      "8": 21,
      "9": 22,
      ":": 23,
      "?": 24,
      "@": 25,
      "A": 26,
      "B": 27,
      "C": 28,
      "D": 29,
      "E": 30,
      "F": 31,
      "G": 32,
      "H": 33,
      "I": 34,
      "J": 35,
      "K": 36,
      "L": 37,
      "M": 38,
      "N": 39,
      "O": 40,
      "P": 41,
      "Q": 42,
      "R": 43,
      "S": 44,
      "T": 45,
      "U": 46,
      "V": 47,
      "W": 48,
      "X": 49,
      "Y": 50,
      "Z": 51,
      "[": 52,
      "\\": 53,
      "]": 54,
      "a": 55,
      "b": 56,
      "c": 57,
      "d": 58,
      "e": 59,
      "f": 60,
      "g": 61,
      "h": 62,
      "i": 63,
      "j": 64,
      "k": 65,
      "l": 66,
      "m": 67,
      "n": 68,
      "o": 69,
      "p": 70,
      "q": 71,
      "r": 72,
      "s": 73,
      "t": 74,
      "u": 75,
      "v": 76,
      "w": 77,
      "x": 78,
      "y": 79,
      "z": 80,
      "{": 81,
      "}": 82,
      "ㄱ": 83,
      "ㄲ": 84,
      "ㄳ": 85,
      "ㄴ": 86,
      "ㄵ": 87,
      "ㄶ": 88,
      "ㄷ": 89,
      "ㄸ": 90,
      "ㄹ": 91,
      "ㄺ": 92,
      "ㄻ": 93,
      "ㄼ": 94,
      "ㄽ": 95,
      "ㄾ": 96,
      "ㄿ": 97,
      "ㅀ": 98,
      "ㅁ": 99,
      "ㅂ": 100,
      "ㅃ": 101,
      "ㅄ": 102,
      "ㅅ": 103,
      "ㅆ": 104,
      "ㅇ": 105,
      "ㅈ": 106,
      "ㅉ": 107,
      "ㅊ": 108,
      "ㅋ": 109,
      "ㅌ": 110,
      "ㅍ": 111,
      "ㅎ": 112,
      "ㅏ": 113,
      "ㅐ": 114,
      "ㅑ": 115,
      "ㅒ": 116,
      "ㅓ": 117,
      "ㅔ": 118,
      "ㅕ": 119,
      "ㅖ": 120,
      "ㅗ": 121,
      "ㅘ": 122,
      "ㅙ": 123,
      "ㅚ": 124,
      "ㅛ": 125,
      "ㅜ": 126,
      "ㅝ": 127,
      "ㅞ": 128,
      "ㅟ": 129,
      "ㅠ": 130,
      "ㅡ": 131,
      "ㅢ": 132,
      "ㅣ": 133,
      "ㄴ</w>": 134,
      "ㅘ</w>": 135,
      "ㅗ</w>": 136,
      "ㅢ</w>": 137,
      "ㅁ</w>": 138,
      "ㄱ</w>": 139,
      "ㅣ</w>": 140,
      "ㅇ</w>": 141,
      "ㅆ</w>": 142,
      "ㅔ</w>": 143,
      "ㅅ</w>": 144,
      "ㅛ</w>": 145,
      "ㄹ</w>": 146,
      "ㅏ</w>": 147,
      "ㅡ</w>": 148,
      "ㅓ</w>": 149,
      "u</w>": 150,
      "p</w>": 151,
      "s</w>": 152,
      "ㅠ</w>": 153,
      "2</w>": 154,
      "ㅐ</w>": 155,
      "K</w>": 156,
      "ㅕ</w>": 157,
      "f</w>": 158,
      "ㅑ</w>": 159,
      "t</w>": 160,
      "6</w>": 161,
      "ㅖ</w>": 162,
      "n</w>": 163,
      "e</w>": 164,
      "0</w>": 165,
      "ㅜ</w>": 166,
      "3</w>": 167,
      "4</w>": 168,
      "ㅚ</w>": 169,
      "i</w>": 170,
      "E</w>": 171,
      "r</w>": 172,
      "F</w>": 173,
      "ㅂ</w>": 174,
      "V</w>": 175,
      "R</w>": 176,
      "D</w>": 177,
      "y</w>": 178,
      "N</w>": 179,
      "a</w>": 180,
      "w</w>": 181,
      "d</w>": 182,
      "5</w>": 183,
      "z</w>": 184,
      "A</w>": 185,
      "m</w>": 186,
      "1</w>": 187,
      "8</w>": 188,
      "o</w>": 189,
      "B</w>": 190,
      "c</w>": 191,
      "T</w>": 192,
      "g</w>": 193,
      "S</w>": 194,
      "k</w>": 195,
      "U</w>": 196,
      "ㅍ</w>": 197,
      "9</w>": 198,
      "M</w>": 199,
      "h</w>": 200,
      "H</w>": 201,
      "b</w>": 202,
      "j</w>": 203,
      "l</w>": 204,
      "7</w>": 205,
      "ㅞ</w>": 206,
      "ㅌ</w>": 207,
      "Y</w>": 208,
      "O</w>": 209,
      "L</w>": 210,
      "P</w>": 211,
      "ㅈ</w>": 212,
      "C</w>": 213,
      "X</w>": 214,
      "ㅙ</w>": 215,
      "J</w>": 216,
      "ㅝ</w>": 217,
      "ㅊ</w>": 218,
      "ㅟ</w>": 219,
      "?</w>": 220,
      "v</w>": 221,
      "Q</w>": 222,
      "G</w>": 223,
      "I</w>": 224,
      "(</w>": 225,
      "x</w>": 226,
      "ㄺ</w>": 227,
      "W</w>": 228,
      "\"</w>": 229,
      "ㅋ</w>": 230,
      ",</w>": 231,
      "'</w>": 232,
      "ㅄ</w>": 233,
      "Z</w>": 234,
      "!</w>": 235,
      ")</w>": 236,
      "ㅒ</w>": 237,
      ".</w>": 238,
      "ㄳ</w>": 239,
      "ㅎ</w>": 240,
      "}</w>": 241,
      "-</w>": 242,
      "ㄲ</w>": 243,
      "@</w>": 244,
      "q</w>": 245,
      "ㄷ</w>": 246,
      "]</w>": 247,
      "ㅀ</w>": 248,
      "[</w>": 249,
      "/</w>": 250,
      "\\</w>": 251,
      "ㄻ</w>": 252,
      ":</w>": 253,
      "{</w>": 254,
      "ㄵ</w>": 255,
      "ㄶ</w>": 256,
      "ㄽ</w>": 257,
      "ㄼ</w>": 258,
      "ㄾ</w>": 259,
      "\u001d</w>": 260,
      "ㄿ</w>": 261,
      "\u001c</w>": 262,
      "\u001f</w>": 263,
      "\u001e</w>": 264,
      "ㅇㅣ": 265,
      "ㅎㅏ": 266,
      "ㅇㅡ": 267,
      "ㄴㅡ": 268,
      "ㅏㅇ": 269,
      "ㅈㅓ": 270,
      "ㄷㅏ</w>": 271,
      "ㄴㅡㄴ</w>": 272,
      "ㅅㅣ": 273,
      "ㅡㄹ": 274,
      "ㅏㄹ": 275,
      "ㅈㅣ": 276,
      "ㅇㅓ": 277,
      "ㅇㅡㄹ</w>": 278,
      "ㅏㄴ": 279,
      "ㅗㅇ": 280,
      "ㅅㅓ": 281,
      "ㅇㅣ</w>": 282,
      "ㄱㅏ": 283,
      "ㅇㅢ</w>": 284,
      "ㅅㅡ": 285,
      "ㄴㅣ": 286,
      "ㅇㅕ": 287,
      "ㄱㅗ</w>": 288,
      "ㄱㅣ": 289,
      "ㅡㄹ</w>": 290,
      "ㅇㅔ</w>": 291,
      "ㅜㄴ": 292,
      "ㄱㅓ": 293,
      "ㅇㅡㄴ</w>": 294,
      "ㅎㅐ": 295,
      "ㅇㅣㅆ": 296,
      "ㅜㄹ": 297,
      "ㅂㅗ": 298,
      "ㅂㄴㅣ": 299,
      "ㅈㅏ": 300,
      "ㅇㅏ": 301,
      "ㅂㄴㅣㄷㅏ</w>": 302,
      "ㅎㅏㄴ</w>": 303,
      "ㅁㅏ": 304,
      "ㅈㅜ": 305,
      "ㅕㅇ": 306,
      "ㅅㅏ": 307,
      "ㄱㅏ</w>": 308,
      "ㅇㅔ": 309,
      "ㄹㅗ</w>": 310,
      "ㅅㅓ</w>": 311,
      "ㄷㅏ": 312,
      "ㄱㅜ": 313,
      "ㄷㅐ": 314,
      "ㅇㅣㄹ": 315,
      "ㅕㄴ": 316,
      "ㅗㄱ": 317,
      "ㅇㅣㄴ": 318,
      "ㄷㅡㄹ": 319,
      "ㄹㅣ": 320,
      "ㅈㅓㅇ": 321,
      "ㄷㅚ": 322,
      "ㅁㅣ": 323,
      "ㅅㅏㅇ": 324,
      "ㅇㅝ": 325,
      "ㄹㅡㄹ</w>": 326,
      "ㅈㅣ</w>": 327,
      "ㅕㄴ</w>": 328,
      "ㄱㅡ": 329,
      "ㄷㅡ": 330,
      "ㄷㅗ</w>": 331,
      "ㅎㅘ": 332,
      "ㄱㅘ": 333,
      "ㅈㅔ": 334,
      "ㅂㅜ": 335,
      "ㅇㅛ": 336,
      "ㅎㅏㄴ": 337,
      "ㅗㄹ": 338,
      "ㅂㅓ": 339,
      "ㄴㅏ": 340,
      "ㅈㅓㄴ": 341,
      "ㅅㅜ": 342,
      "ㄱㅔ</w>": 343,
      "ㅂㅏ": 344,
      "ㅈㅏㅇ": 345,
      "ㅅㅜ</w>": 346,
      "ㅅㅐ": 347,
      "ㅈㅗ": 348,
      "ㅂㅣ": 349,
      "ㅅㅡㅂㄴㅣㄷㅏ</w>": 350,
      "ㄱㅡㄹ": 351,
      "ㅊㅓ": 352,
      "ㄱㅣ</w>": 353,
      "ㅇㅡㄹㅗ</w>": 354,
      "ㄱㅗㅇ": 355,
      "ㅁㅗ": 356,
      "ㅅㅓㅇ": 357,
      "ㄱㅓㅅ": 358,
      "ㄷㅗㅇ": 359,
      "ㅅㅗ": 360,
      "ㅅㅔ": 361,
      "ㅆㄷㅏ</w>": 362,
      "ㅁㅜㄴ": 363,
      "ㅇㅠ": 364,
      "ㅊㅣ": 365,
      "ㅇㅔㅅㅓ</w>": 366,
      "ㄱㅕㅇ": 367,
      "ㄱㅗ": 368,
      "ㅔㅇㅣ": 369,
      "ㄱㅘ</w>": 370,
      "ㅈㅓㄱ": 371,
      "ㅇㅏㄴ": 372,
      "ㄷㅗ": 373,
      "ㅇㅟ": 374,
      "ㅁㅕㄴ</w>": 375,
      "ㄱㅕ": 376,
      "ㅇㅑ": 377,
      "ㅅㅣㄴ": 378,
      "ㅁㅜ": 379,
      "ㅎㅐ</w>": 380,
      "ㅎㅏㄴㅡㄴ</w>": 381,
      "ㅇㅣㄴ</w>": 382,
      "ㅐㄱ": 383,
      "ㅌㅡ": 384,
      "ㄹㅗ": 385,
      "ㅇㅝㄴ": 386,
      "ㅎㅚ": 387,
      "ㅅㅏㄹ": 388,
      "ㅎㅏㄹ</w>": 389,
      "..</w>": 390,
      "ㄹㅏ": 391,
      "ㄱㅜㄱ": 392,
      "ㅅㅐㅇ": 393,
      "ㅇㅗ": 394,
      "ㄱㅘㄴ": 395,
      "ㅂㅏㄹ": 396,
      "ㅊㅏ": 397,
      "ㅁㅏㄴ": 398,
      "ㅇㅢ": 399,
      "ㄴㅐ": 400,
      "ㅎㅐㅇ": 401,
      "ㅁㅏㄴ</w>": 402,
      "ㄱㅐ": 403,
      "ㅊㅜ": 404,
      "ㅍㅣ": 405,
      "ㄷㅓ": 406,
      "ㅂㅜㄴ": 407,
      "ㅈㅜㅇ": 408,
      "ㄹㅕ": 409,
      "ㅇㅓ</w>": 410,
      "ㅇㅕㅇ": 411,
      "ㅎㅏㄱ": 412,
      "ㄴㅡㄴ": 413,
      "ㅅㅡ</w>": 414,
      "ㅇㅜ": 415,
      "ㅂㅏㅇ": 416,
      "ㅇㅓㅄ": 417,
      "ㄷㅏㅇ": 418,
      "ㅎㅏㄱㅗ</w>": 419,
      "ㅇㅛㅇ": 420,
      "ㅇㅡㅁ": 421,
      "ㅇㅛ</w>": 422,
      "ㅈㅣㄴ": 423,
      "ㅎㅗ": 424,
      "ㅅㅓㄴ": 425,
      "ㅅㅡㅌ": 426,
      "ㅅㅣㄱ": 427,
      "ㄱㅛ": 428,
      "ㅅㅣㄹ": 429,
      "ㅁㅜㄹ": 430,
      "ㅅㅣ</w>": 431,
      "ㅈㅐ": 432,
      "ㄷㅏㄹ": 433,
      "ㅇㅕㄴ": 434,
      "ㄱㅖ": 435,
      "ㅇㅣㄹ</w>": 436,
      "ㅍㅡㄹ": 437,
      "ㅓㄴ": 438,
      "ㅇㅏㄶ": 439,
      "ㅈㅏㄱ": 440,
      "ㅈㅏ</w>": 441,
      "ㅍㅜ": 442,
      "ㅍㅗ": 443,
      "ㅇㅣㅆㄴㅡㄴ</w>": 444,
      "ㅌㅗㅇ": 445,
      "ㅎㅏㅇ": 446,
      "ㅁㅇㅡㄹ</w>": 447,
      "...</w>": 448,
      "ㅇㅣㅆㅅㅡㅂㄴㅣㄷㅏ</w>": 449,
      "ㅈㅡ": 450,
      "ㄱㅏㅇ": 451,
      "ㄷㅏㄴ": 452,
      "ㅎㅏㅁ": 453,
      "ㅁㅐ": 454,
      "ㅁㅏㄹ": 455,
      "ㅁㅣㅊ</w>": 456,
      "ㅁㅕㅇ": 457,
      "ㅇㅘ</w>": 458,
      "ㅇㅓㅂ": 459,
      "ㅇㅣㅂ": 460,
      "ㄷㅣ": 461,
      "ㄷㅔ</w>": 462,
      "ㅡㄴ</w>": 463,
      "ㅎㅏㅂㄴㅣㄷㅏ</w>": 464,
      "ㄹㅓ": 465,
      "ㅈㅏㅇ</w>": 466,
      "ㄷㅡㅇ": 467,
      "ㅇㅣㄷㅏ</w>": 468,
      "ㅓㅁ": 469,
      "ㅌㅣ": 470,
      "ㄴㅗ": 471,
      "ㅇㅖ": 472,
      "ㅌㅔ": 473,
      "ㅇㅏㄹ": 474,
      "ㄱㅕㄹ": 475,
      "ㅌㅡ</w>": 476,
      "20": 477,
      "ㅇㅓㅆ": 478,
      "ㅇㅣㅆㄷㅏ</w>": 479,
      "ㅂㅐ": 480,
      "ㄱㅓㄴ": 481,
      "ㅏㅁ": 482,
      "ㅑㅇ": 483,
      "ㅇㅣㅂㄴㅣㄷㅏ</w>": 484,
      "ㅈㅏㄹ": 485,
      "ㅅㅏㄴ": 486,
      "ㅅㅓㄹ": 487,
      "ㄱㅔ": 488,
      "ㅌㅓ": 489,
      "ㅊㅔ": 490,
      "ㅈㅔ</w>": 491,
      "ㄱㅏㅌ": 492,
      "ㄴㅕㄴ</w>": 493,
      "ㅂㅜㄹ": 494,
      "ㅇㅜㄹ": 495,
      "ㅎㅐㅆ": 496,
      "ㄱㅏㄱ": 497,
      "ㅅㅏ</w>": 498,
      "ㄷㅡ</w>": 499,
      "ㅎㅕㄴ": 500,
      "ㅌㅓ</w>": 501,
      "ㄷㅚㄴ</w>": 502,
      "ㅇㅣㅁ": 503,
      "ㄱㅡ</w>": 504,
      "ㅈㅣㅁㅏㄴ</w>": 505,
      "ㅊㅚ": 506,
      "ㅂㅏㄴ": 507,
      "ㅋㅣ": 508,
      "ㅎㅕ": 509,
      "ㅇㅕㄱ": 510,
      "ㅁㅏㄶ": 511,
      "ㄱㅏㄴ": 512,
      "ㅁㅣㄴ": 513,
      "ㄱㅏㅁ": 514,
      "ㄴㅏㅁ": 515,
      "ㅈㅓㄴ</w>": 516,
      "ㅍㅏ": 517,
      "ㅌㅏ": 518,
      "ㅅㅗㄱ": 519,
      "ㄸㅐ": 520,
      "ㅎㅣ</w>": 521,
      "ㅈㅗㅎ": 522,
      "ㄹㅣ</w>": 523,
      "ㄱㅡㅁ": 524,
      "ㅊㅜㄹ": 525,
      "ㅅㅏㅇ</w>": 526,
      "ㅇㅝㄴ</w>": 527,
      "ㅂㅓㅂ": 528,
      "ㅈㅣㄱ": 529,
      "ㅅㅏㅇㅛ": 530,
      "ㅇㅏㄴㅣ": 531,
      "ㅅㅣㅁ": 532,
      "ㅇㅘ": 533,
      "ㅎㅏㄴㄷㅏ</w>": 534,
      "ㅁㅓ": 535,
      "ㅋㅗ": 536,
      "ㅂㅡㄹ": 537,
      "ㅂㅏㄷ": 538,
      "ㄲㅏ": 539,
      "ㅎㅐㅆㄷㅏ</w>": 540,
      "ㅇㅗㄹ": 541,
      "ㅂㅗㄴ": 542,
      "ㄱㅏㄴ</w>": 543,
      "ㅂㅕ": 544,
      "ㅅㅜㄹ": 545,
      "ㅈㅓㄱ</w>": 546,
      "ㄴㅡㅇ": 547,
      "ㅇㅏ</w>": 548,
      "ㅝㄴ": 549,
      "ㅋㅡㄹ": 550,
      "ㄷㅡㄹㅇㅣ</w>": 551,
      "ㅎㅏㅇㅕ</w>": 552,
      "ㄸㅓ": 553,
      "ㅅㅡㄹ": 554,
      "ㄷㅐ</w>": 555,
      "ㅅㅏㅇㅛㅇ": 556,
      "ㅍㅛ": 557,
      "ㅈㅗㅇ": 558,
      "ㄹㅔ": 559,
      "ㄱㅇㅡㄹ</w>": 560,
      "ㅌㅐ": 561,
      "ㅇㅐ": 562,
      "ㅈㅓㄱㅇㅣㄴ</w>": 563,
      "ㄷㅏㄴㅡㄴ</w>": 564,
      "ㅎㅏㄱㅔ</w>": 565,
      "ㅍㅔㅇㅣ": 566,
      "ㄷㅓ</w>": 567,
      "ㅌㅡㄹ": 568,
      "ㅜㄴ</w>": 569,
      "ㄷㅔ": 570,
      "ㄱㅡㄴ": 571,
      "ㅌㅗ": 572,
      "ㅈㅓㅇ</w>": 573,
      "ㅅㅏㄹㅏㅁ": 574,
      "ㄷㅗㄹ": 575,
      "ㅋㅡ": 576,
      "ㅊㅓㅇ": 577,
      "ㄷㅓㄴ</w>": 578,
      "ㅌㅡㄱ": 579,
      "ㅎㅘㄱ": 580,
      "ㅇㅓㄴ": 581,
      "ㅇㅝㄹ</w>": 582,
      "ㄱㅜㄱ</w>": 583,
      "ㅂㅗㅇ": 584,
      "ㅈㅣㄴ</w>": 585,
      "ㅇㅜ</w>": 586,
      "ㅇㅡㄴ": 587,
      "ㅂㅕㄴ": 588,
      "ㅁㅗㄱ": 589,
      "ㅁㅕ": 590,
      "ㄴㅕㄴ": 591,
      "ㅇㅏㅇ": 592,
      "ㅇㅔㄴㅡㄴ</w>": 593,
      "ㅎㅏㄹ": 594,
      "ㅈㅜ</w>": 595,
      "ㅇㅣㄹㅏ": 596,
      "ㅇㅕㄹ": 597,
      "ㅅㅓㅇ</w>": 598,
      "ㅂㅗㄱ": 599,
      "in": 600,
      "ㄴㅏㅇ": 601,
      "ㄷㅐㅎㅏㄴ</w>": 602,
      "ㄴㅡㄴㄷㅔ</w>": 603,
      "ㅈㅓㅁ": 604,
      "ㄷㅡㅇ</w>": 605,
      "ㄱㅡㄹㅣ": 606,
      "ㅁㅕㄴ": 607,
      "ㄷㅡㄴ</w>": 608,
      "ㄷㅏㄱㅗ</w>": 609,
      "ㅋㅏ": 610,
      "ㅂㅓㄴ": 611,
      "ㄴㅏㄹ": 612,
      "ㅍㅣㄹ": 613,
      "ㄸㅏㄹ": 614,
      "ㅇㅓㅆㄷㅏ</w>": 615,
      "ㄸㅗ": 616,
      "ㅍㅜㅁ": 617,
      "201": 618,
      "ㅈㅣㅂ": 619,
      "ㄱㅡㄹㅓ": 620,
      "ㅍㅕㅇ": 621,
      "ㅅㅗㅇ": 622,
      "ㅎㅘ</w>": 623,
      "ㄴㅓ": 624,
      "ㅎㅜ</w>": 625,
      "ㅎㅘㄹ": 626,
      "ㄹㅗㄱ": 627,
      "ㅇㅜㄴ": 628,
      "ㅍㅕㄴ": 629,
      "ㅇㅑㅇ": 630,
      "ㅎㅚ</w>": 631,
      "ㅈㅓㄱㅇㅡㄹㅗ</w>": 632,
      "ㅈㅜㄴ": 633,
      "ㅊㅡ": 634,
      "ㅇㅔㅅㅓ": 635,
      "ㄹㅏ</w>": 636,
      "ㅇㅛㅇ</w>": 637,
      "ㅎㅜ": 638,
      "ㅋㅓ": 639,
      "ㅆㅅㅡㅂㄴㅣㄷㅏ</w>": 640,
      "ㅎㅣ": 641,
      "ㅅㅣㄹ</w>": 642,
      "10": 643,
      "ㅗㄱ</w>": 644,
      "ㄷㅜ": 645,
      "ㅇㅣㄹㅓ": 646,
      "ㅁㅔ": 647,
      "ㄲㅏㅈㅣ</w>": 648,
      "ㅎㅘㄴ": 649,
      "ㄹㅐ": 650,
      "ㅅㅐㅇㄱㅏㄱ": 651,
      "ㄱㅝㄴ": 652,
      "ㄴㅐ</w>": 653,
      "ㅍㅏㄴ": 654,
      "ㅇㅑㄱ": 655,
      "ㄱㅓㅅ</w>": 656,
      "ㅈㅣㄹ": 657,
      "ㅎㅏㅈㅣ</w>": 658,
      "ㅡㅁ": 659,
      "ㄷㅗㄱ": 660,
      "ㅊㅓㄴ": 661,
      "ㄴㄷㅏ</w>": 662,
      "ㅇㅏㄴ</w>": 663,
      "ㅂㅗ</w>": 664,
      "ㅇㅜㄹㅣ": 665,
      "ㅊㅐㄱ": 666,
      "ㅂㅜ</w>": 667,
      "ㅇㅚ": 668,
      "ㄷㅡㄹㅇㅡㄴ</w>": 669,
      "ㅅㅏㅇㅣ": 670,
      "ㅂㅗㄴ</w>": 671,
      "ㅇㅔㄱㅔ</w>": 672,
      "ㅅㅓㅂㅣ": 673,
      "ㅈㅡㅇ": 674,
      "ㅊㅗ": 675,
      "ㅇㅓㄸㅓ": 676,
      "ㅎㅓ": 677,
      "ㄴㅔ": 678,
      "ㄱㅣㅁ": 679,
      "ㅅㅗ</w>": 680,
      "ㄲㅏ</w>": 681,
      "ㅂㅔ": 682,
      "ㅍㅡ": 683,
      "ㅂㅏㄱ": 684,
      "ㄱㅘㅇ": 685,
      "ㅈㅗㄱ": 686,
      "ㅎㅐㅅㅓ</w>": 687,
      "ㅎㅏㅂ": 688,
      "ㄹㅕㄱ": 689,
      "ㅎㅕㅇ": 690,
      "ㄱㅏㄹ": 691,
      "ㅍㅐ": 692,
      "ㄷㅜ</w>": 693,
      "ㅊㅐ": 694,
      "ㅌㅜ": 695,
      "ㅊㅣ</w>": 696,
      "ㄷㅡㄹ</w>": 697,
      "ㅊㅏㅁ": 698,
      "ㄱㅠ": 699,
      "ㄱㅜ</w>": 700,
      "ㄷㅏㄹㅡㄴ</w>": 701,
      "ㅂㅜㅌㅓ</w>": 702,
      "ㄸㅐㅁㅜㄴ": 703,
      "er": 704,
      "ㅇㅡㄹ": 705,
      "ㅊㅏㅇ": 706,
      "ㅍㅔㅇㅣㅈㅣ</w>": 707,
      "ㄱㅡㄹㅐ": 708,
      "ㄱㅓㅁ": 709,
      "ㄷㅚㄴㅡㄴ</w>": 710,
      "ㄸㅐ</w>": 711,
      "ㄴㅏ</w>": 712,
      "ㅇㅡㅁ</w>": 713,
      "ㅇㅣㅇㅛㅇ": 714,
      "ㅈㅜㅇ</w>": 715,
      "ㅈㅓㄹ": 716,
      "ㅎㄱㅔ</w>": 717,
      "or": 718,
      "ㅅㅣㄴ</w>": 719,
      "ㅇㅏㅇㅣ": 720,
      "an": 721,
      "ㅁㅗㅅ": 722,
      "ㅈㅓㅇㅂㅗ": 723,
      "ㄱㅓㅅㅇㅣ</w>": 724,
      "ㅁㅇㅣ</w>": 725,
      "ㅎㅏㄱㅣ</w>": 726,
      "ㄷㅚㅂㄴㅣㄷㅏ</w>": 727,
      "ㄱㅕㅇㅇㅜ</w>": 728,
      "ㅅㅕ": 729,
      "ㄱㅗㄱ": 730,
      "ㄷㅚㄹ</w>": 731,
      "ㅇㅓㄹ": 732,
      "ㅅㅔㅇㅛ</w>": 733,
      "ㄱㅓㅅㅇㅡㄴ</w>": 734,
      "ㅁㅕㅇ</w>": 735,
      "ㅅㅗㄴ": 736,
      "ㅇㅡㅁㅕ</w>": 737,
      "ㄷㅏㅇ</w>": 738,
      "ㅅㅡㅇ": 739,
      "ㄲㅔ</w>": 740,
      "ㅁㅗㄷㅡㄴ</w>": 741,
      "ㅇㅝㄹ": 742,
      "ㄱㅜㄴ": 743,
      "ㄱㅕㄱ": 744,
      "ㅂㅕㄹ": 745,
      "ㄱㅏㄴㅡㅇ": 746,
      "ㅇㅑ</w>": 747,
      "ㅎㅑㅇ": 748,
      "ㄴㅏㄴ</w>": 749,
      "ㅅㅣㄱㅏㄴ": 750,
      "ㄹㅠ": 751,
      "ㄷㅏㄴ</w>": 752,
      "ㄷㅗㅇ</w>": 753,
      "ㅌㅐㄱ": 754,
      "ㅎㅏㄴㄱㅜㄱ": 755,
      "ㅁㅜㄴ</w>": 756,
      "ㅁㅏㄶㅇㅡㄴ</w>": 757,
      "ㄷㅡㄹㅇㅢ</w>": 758,
      "ㄱㅏㅌㅇㅡㄴ</w>": 759,
      "ㄷㅏㅁ": 760,
      "00": 761,
      "ㅈㅔㄱㅗㅇ": 762,
      "ㅆㅣ": 763,
      "ㅅㅣㄱ</w>": 764,
      "ㅁㅏㅇ": 765,
      "ㅎㅏㅁㅕㄴ</w>": 766,
      "ㄱㅖ</w>": 767,
      "ㅅㅜㄴ": 768,
      "ㄱㅡㄹㅣㄱㅗ</w>": 769,
      "ㄱㅔㅇㅣ": 770,
      "ㄱㅣㄹㅡㄹ</w>": 771,
      "ㅂㅓㅂ</w>": 772,
      "ㄱㅡㅂ": 773,
      "ㅋㅐ": 774,
      "ㅇㅠㄱ": 775,
      "ㅎㅓㅁ": 776,
      "ㅍㅜㅁ</w>": 777,
      "ㄷㅡㄹㅇㅡㄹ</w>": 778,
      "ㅊㅏ</w>": 779,
      "ㅎㅗㅌㅔ": 780,
      "ㅂㅓㄴ</w>": 781,
      "ar": 782,
      "ㄷㅡㄹㅣ": 783,
      "ㄱㅏㅈㅏㅇ</w>": 784,
      "at": 785,
      "ㅁㅗㄹ": 786,
      "ㄹㅗㅇ": 787,
      "ㅁㅜㄴㅈㅔ": 788,
      "on": 789,
      "ㄹㅛ": 790,
      "ㄱㅓㅅㅇㅣㄷㅏ</w>": 791,
      "ㄱㅓㅅㅇㅡㄹ</w>": 792,
      "er</w>": 793,
      "ㅊㅏㅈ": 794,
      "ㄴㅗㄹ": 795,
      "en": 796,
      "ㅂㅜㄱ": 797,
      "ㄷㅚㅇㅓ</w>": 798,
      "ㅅㅓㄱ": 799,
      "ㄲㅡ": 800,
      "ㅍㅣㄹㅇㅛ": 801,
      "ㅈㅓㅇㅂㅗ</w>": 802,
      "ㅇㅟㅎㅐ</w>": 803,
      "ㅅㅣㅍ": 804,
      "ㄴㅓㅁ": 805,
      "ㅑㅇ</w>": 806,
      "ㅊㅜㄱ": 807,
      "ㅂㅐㄱ": 808,
      "ㅊㅏㄹ": 809,
      "ㅇㅞ": 810,
      "ㄱㅓㄴ</w>": 811,
      "ㄱㅐ</w>": 812,
      "ㄹㄹㅣ": 813,
      "ㅇㅓㅄㄴㅡㄴ</w>": 814,
      "ㄱㅡㄹㅓㄴ": 815,
      "ㅅㅓㄴ</w>": 816,
      "ㅊㅟ": 817,
      "ㄱㅡㅁ</w>": 818,
      "ㅎㅡ": 819,
      "ㅋㅡㄴ</w>": 820,
      "ㄷㅡㄹㅇㅓ": 821,
      "ㅁㅏㅈ": 822,
      "ㅎㅏㅁㄲㅔ</w>": 823,
      "ㅈㅏㄹ</w>": 824,
      "ㅍㅔ": 825,
      "ㅅㅟ": 826,
      "ㄴㅏㄴ": 827,
      "ㅁㅕ</w>": 828,
      "ㄱㅏㅈㅣ": 829,
      "ㄷㅏㅁㅕㄴ</w>": 830,
      "ㅈㅐ</w>": 831,
      "ㅊㅔ</w>": 832,
      "ㄱㅘㄴㄹ": 833,
      "ㅎㅐㅇ</w>": 834,
      "ㅎㅏㅅㅣ": 835,
      "ㄸㅗㄴㅡㄴ</w>": 836,
      "ㅇㅓㅂ</w>": 837,
      "ㅎㅏㅁㅕ</w>": 838,
      "ㅁㅜㄹ</w>": 839,
      "ㅇㅣㄴㅏ</w>": 840,
      "st": 841,
      "ㅆㅡ": 842,
      "ㅅㅡㅂ": 843,
      "ㅇㅡㄹㅗ": 844,
      "19": 845,
      "ㅎㅏㅈㅣㅁㅏㄴ</w>": 846,
      "ㅈㅓㅂ": 847,
      "ㅎㅗ</w>": 848,
      "ㄷㅔㅇㅣ": 849,
      "ㅈㅗㅎㅇㅡㄴ</w>": 850,
      "ㅈㅣㄴㅡㄴ</w>": 851,
      "ㅈㅏㅅㅣㄴ": 852,
      "ㄱㅗㅅ": 853,
      "ㅊㅣㄴ": 854,
      "ㅎㅏㄱ</w>": 855,
      "ㅋㅡ</w>": 856,
      "ㅂㅗㄷㅏ</w>": 857,
      "ㅂㅜㄴ</w>": 858,
      "ㄱㅡㄹ</w>": 859,
      "ㅈㅓㅁ</w>": 860,
      "ㅔㅅㅓ</w>": 861,
      "ㅇㅏㅍ": 862,
      "ㅇㅟㅎㅏㄴ</w>": 863,
      "ㅂㅕㅇ": 864,
      "ㅅㅏㄴ</w>": 865,
      "ㅇㅘㄴ": 866,
      "ㅎㅘㅇ": 867,
      "ㄸㅐㅁㅜㄴㅇㅔ</w>": 868,
      "ㄱㅛ</w>": 869,
      "ㄱㅗㄹ": 870,
      "ㅎㅐㅇㅑ</w>": 871,
      "ㅁㅏㄹ</w>": 872,
      "ㅇㅟ</w>": 873,
      "ㅈㅜㄹ": 874,
      "th": 875,
      "ㅅㅏㅎㅚ": 876,
      "ㅈㅕ": 877,
      "ㅊㅜㅇ": 878,
      "ㄱㅣㄹ": 879,
      "ㅋㅔ": 880,
      "ㅌㅗㅇㅎㅐ</w>": 881,
      "ㄷㅚㄴㄷㅏ</w>": 882,
      "ㄹㅜ": 883,
      "ㄴㅣㅁ": 884,
      "ㄱㅓㄴㅏ</w>": 885,
      "ㄷㅗㄹㅗㄱ</w>": 886,
      "ㅂㅣ</w>": 887,
      "ㅇㅗ</w>": 888,
      "ㅊㅣㅁ": 889,
      "co": 890,
      "ㅌㅏㄴ": 891,
      "ㅓㅂ": 892,
      "ㄲㅣ": 893,
      "ㄷㅐㄹㅗ</w>": 894,
      "ㅇㅔㅅㅓㄴㅡㄴ</w>": 895,
      "ㅅㅗㄱ</w>": 896,
      "ㅡㅁ</w>": 897,
      "ㅇㅗㄴ": 898,
      "ㅁㅓㄱ": 899,
      "ㅅㅔㄴ": 900,
      "ㅌㅓㄴ": 901,
      "on</w>": 902,
      "ㅅㅡㅌㅏ": 903,
      "ㅈㅗㄴ": 904,
      "ㅇㅑㄱ</w>": 905,
      "ㅅㅣㄱㅏㄴ</w>": 906,
      "ㄴㅠ": 907,
      "ㅁㅏㄶㅇㅣ</w>": 908,
      "ㄷㅚㅇㅓㅆ": 909,
      "ㅅㅐㄱ": 910,
      "ㄹㅣㅂ": 911,
      "ㅅㅓㅂㅣㅅㅡ</w>": 912,
      "ㄱㅕㄴ": 913,
      "re": 914,
      "ㅂㅏㄲ": 915,
      "ㄱㅐㅇㅣㄴ": 916,
      "ㅎㅏㄷㅏ</w>": 917,
      "ㄴㅐㅇㅛㅇ": 918,
      "ㄸㅏㄹㅏ</w>": 919,
      "ㅈㅓ</w>": 920,
      "ㅎㅏㅇㅕ": 921,
      "ㄱㅘㄴ</w>": 922,
      "ㅇㅏㅆ": 923,
      "ㄱㅓ</w>": 924,
      "ㅇㅣㅇㅑ": 925,
      "ㄴㅏㄴㅡㄴ</w>": 926,
      "ㄱㅓㄹ": 927,
      "ㅅㅓㄴㅡㄴ</w>": 928,
      "ㅎㅕㅂ": 929,
      "ㅇㅕㄱ</w>": 930,
      "ㅅㅣㅈㅏㄱ": 931,
      "ㅍㅓ": 932,
      "ㅇㅓㅄㅇㅣ</w>": 933,
      "ㄹㅕㅇ": 934,
      "ㄷㅏㅇㅑㅇ": 935,
      "ㅂㅗㄱㅣ</w>": 936,
      "ㅅㅏㄹㅏ": 937,
      "ㅈㅗ</w>": 938,
      "ic": 939,
      "ㅅㅓㄱ</w>": 940,
      "ㅇㅓㅇㅛ</w>": 941,
      "ㄱㅣㄷㅗ</w>": 942,
      "ㅈㅏㅂ": 943,
      "ㅂㅏㄹ</w>": 944,
      "ㄱㅔㅆ": 945,
      "ㅌㅏㄹ": 946,
      "ㅅㅏㅁ": 947,
      "ㅎㅕㅇ</w>": 948,
      "ㅈㅣㅂ</w>": 949,
      "ㄷㅏㅅㅣ</w>": 950,
      "ㅈㅣㄹ</w>": 951,
      "ㅎㅛ": 952,
      "ㄴㅗㅍ": 953,
      "ㅅㅡㅌㅔ": 954,
      "ㅅㅐㄱ</w>": 955,
      "ㅇㅣㄴㅡㄴ</w>": 956,
      "ㄱㅣㅇㅔ</w>": 957,
      "ㅎㅗㅇ": 958,
      "ㄸㅗㅎㅏㄴ</w>": 959,
      "ㄷㅐㅎㅐ</w>": 960,
      "ㅈㅏㄱㅏ</w>": 961,
      "ㅇㅣㅆㅇㅓㅆ": 962,
      "ㅇㅓㄸㅓㄴ</w>": 963,
      "ro": 964,
      "ㅇㅔㄷㅗ</w>": 965,
      "ㅇㅡㅁㅕㄴ</w>": 966,
      "it": 967,
      "ㅁㅣㄹ": 968,
      "ㅊㅗㅇ": 969,
      "ㅡㄹㅐ": 970,
      "ㄸㅗ</w>": 971,
      "ㅝㄴ</w>": 972,
      "ㄱㅏㄱ</w>": 973,
      "ㅎㅢ": 974,
      "ㅅㅕㄴ": 975,
      "ㄷㅙ": 976,
      "ㄴㅜ": 977,
      "ㅎㅐㅈㅜ": 978,
      "ㅇㅜㄴ</w>": 979,
      "12": 980,
      "ㄹㅓㅁ</w>": 981,
      "ㅋㅓㅁ": 982,
      "ㅈㅛ</w>": 983,
      "al": 984,
      "ㅂㅗㄹ</w>": 985,
      "ㄱㅜㄹ": 986,
      "ㅍㅡㄹㅗ": 987,
      "ㅌㅏ</w>": 988,
      "ㄹㅗㄴ</w>": 989,
      "ㅕㄴㅅㅓ</w>": 990,
      "ㄹㅏㄱㅗ</w>": 991,
      "ㄴㅜㄴ": 992,
      "ㅂㅏㄹㅏ": 993,
      "ㅈㅓㅈㅏㄱ": 994,
      "ㄱㅕㅇ</w>": 995,
      "ㅍㅡㄹㅗㄱ": 996,
      "ㄱㅛㅇㅠㄱ": 997,
      "ㅁㅓㄴ": 998,
      "ㅈㅏㄹㅛ": 999,
      "ㅂㅜㅂㅜㄴ": 1000,
      "ㅈㅡㄹ": 1001,
      "ㅈㅡ</w>": 1002,
      "ㅇㅣㅆㅇㅡㅁㅕ</w>": 1003,
      "ㄱㅡㄴ</w>": 1004,
      "ㅇㅣㄹㅏㄱㅗ</w>": 1005,
      "ㅂㄱㅔ</w>": 1006,
      "ㄱㅅㅡ</w>": 1007,
      "ㅇㅣㄹㅓㄴ</w>": 1008,
      "ㅇㅣㄴㅌㅓㄴ": 1009,
      "ㅎㅗㅌㅔㄹ</w>": 1010,
      "ㅈㅏㅇㅢ</w>": 1011,
      "ㄱㅏㅈㅣ</w>": 1012,
      "200": 1013,
      "ㄹㅗㅇㅜㄴ</w>": 1014,
      "ㄷㅏㅇㅑㅇㅎㅏㄴ</w>": 1015,
      "ㄱㅕㅇㅇㅜ": 1016,
      "ㅃㅏㄹ": 1017,
      "ㅍㅡㄹㅗㄱㅡㄹㅐ": 1018,
      "ㅁㅏ</w>": 1019,
      "ㅡㄴ": 1020,
      "ㅇㅓㅅㅓ</w>": 1021,
      "ㅇㅕㅇ</w>": 1022,
      "ㄴㅡㄹ": 1023,
      "ㄱㅏㅈ": 1024,
      "ㅎㅗㄴ": 1025,
      "ㅎㅘㄱㅇㅣㄴ": 1026,
      "ㅇㅡㅇ": 1027,
      "ㄷㅚㄱㅗ</w>": 1028,
      "ㄹㅏㅇ": 1029,
      "ㅇㅜㄹㅣ</w>": 1030,
      "ㅇㅣㄴㅌㅓㄴㅔ": 1031,
      "ㄷㅗㅇㅇㅏㄴ</w>": 1032,
      "ㄱㅏㄴㅡㄴ</w>": 1033,
      "ㅅㅜㄱ": 1034,
      "ㅅㅐㅇ</w>": 1035,
      "ㅂㅗㄱㅗ</w>": 1036,
      "ㅅㅡㄹㅡㄹ</w>": 1037,
      "ㅍㅡ</w>": 1038,
      "ㄴㅕ": 1039,
      "ㅁㅏㄴㄷㅡㄹ": 1040,
      "ㅁㅗㄷㅜ</w>": 1041,
      "ㄹㅕㄱ</w>": 1042,
      "ㄱㅟ": 1043,
      "ㅊㅓㄹㅓㅁ</w>": 1044,
      "ㅅㅔ</w>": 1045,
      "ㄲㅏㅇ": 1046,
      "ㅂㅏㅇㅂㅓㅂ": 1047,
      "ㄴㅏㄹ</w>": 1048,
      "ㅈㅐㅇ": 1049,
      "ㅍㅗㄱ": 1050,
      "),</w>": 1051,
      "ㄸㅡ": 1052,
      "ing</w>": 1053,
      "ㅁㅗㅇ": 1054,
      "ㅅㅕㄴ</w>": 1055,
      "ㄱㅣㄹ</w>": 1056,
      "ㄷㅐㅎㅏㄱ": 1057,
      "ㅈㅣㄹㅡㄹ</w>": 1058,
      "ㅁㅏㅇㅡㅁ": 1059,
      "ㅇㅏㄱ": 1060,
      "11": 1061,
      "ㅇㅣㄱㅗ</w>": 1062,
      "ㄷㅏㅂ": 1063,
      "ㄹㅣㄴ</w>": 1064,
      "ㄴㅗㅇ": 1065,
      "ㅁㅇㅢ</w>": 1066,
      "ㄹㅔㅇㅣ": 1067,
      "ㅎㅠ": 1068,
      "ㅅㅏㄹㅏㅇ": 1069,
      "ㄷㅚㅈㅣ</w>": 1070,
      "ㅅㅓㄹ</w>": 1071,
      "ㄲㅗ": 1072,
      "ㄴㅡㅇ</w>": 1073,
      "ㅎㅔ": 1074,
      "ㄴㅏㅇㅗ": 1075,
      "ㅊㅡㄱ": 1076,
      "ㄱㅓㅅㅇㅡㄹㅗ</w>": 1077,
      "ㅊㅓㄹ": 1078,
      "ㄱㅏㅅㅡ": 1079,
      "ㄱㅣㄱㅏ</w>": 1080,
      "ㄱㅣㅇㅓㅂ": 1081,
      "ㅐㄴ": 1082,
      "ㅁㅏㄱ": 1083,
      "ㄱㅘㄴㄹㅣ": 1084,
      "ㅇㅏㄴㅣㄹㅏ</w>": 1085,
      "ㄹㅏㄴㅡㄴ</w>": 1086,
      "ㅍㅗㄹ": 1087,
      "ㅈㅣㅇㅝㄴ": 1088,
      "ㅅㅏㄹㅡㄹ</w>": 1089,
      "ㅊㅓㄴ</w>": 1090,
      "ㅂㅏㄹㅗ</w>": 1091,
      "ㅇㅓㅁ": 1092,
      "ㄱㅡㄱ": 1093,
      "ㄱㅐㄱ": 1094,
      "..": 1095,
      "ㄴㅐㄱㅏ</w>": 1096,
      "ㅈㅣㄱ</w>": 1097,
      "ㄲㅜ": 1098,
      "ㅍㅏㄹ": 1099,
      "ㅅㅏㄱ": 1100,
      "ac": 1101,
      "ㅈㅏㄴㅡㄴ</w>": 1102,
      "ㅂㅓㅁ": 1103,
      "ㅇㅏㅆㄷㅏ</w>": 1104,
      "ㄸㅏ": 1105,
      "30": 1106,
      "ㅂㅓㄹ": 1107,
      "ㅇㅣㅅㅏㅇ": 1108,
      "ㄷㅡㅇㅇㅡㄹ</w>": 1109,
      "ㅇㅓㄸㅓㅎㄱㅔ</w>": 1110,
      "ㅇㅓㄱ": 1111,
      "ㅈㅣㅇㅕㄱ": 1112,
      "ㅈㅜㅇㅇㅛ": 1113,
      "ㅎㅚㅇㅝㄴ": 1114,
      "ㅇㅣㄹㅡㄹ</w>": 1115,
      "ㄹㅓ</w>": 1116,
      "ㅅㅏㅇㅍㅜㅁ": 1117,
      "le": 1118,
      "ㅎㅏㄴㅡㄴ": 1119,
      "ㅁㅕㄴㅅㅓ</w>": 1120,
      "ㅊㅏㄱ": 1121,
      "ㅇㅣㅂ</w>": 1122,
      "ㅋㅗㄴ": 1123,
      "ㄴㅡㄲㅣ": 1124,
      "ㅜㄹ</w>": 1125,
      "ㅅㅓㄴㅌㅐㄱ": 1126,
      "ㄱㅗㅇ</w>": 1127,
      "ㅈㅔㄱㅏ</w>": 1128,
      "ㅅㅐㄹㅗㅇㅜㄴ</w>": 1129,
      "ㅅㅣㅋㅣ": 1130,
      "ㅉㅐ</w>": 1131,
      "am": 1132,
      "ㄷㅐㅅ": 1133,
      "ㅂㅏㅇ</w>": 1134,
      "ㄱㅓㅅㅇㅣㅂㄴㅣㄷㅏ</w>": 1135,
      "ㅋㅡㄹㅣ": 1136,
      "ㅉㅣ": 1137,
      "ㅇㅕ</w>": 1138,
      "ㅈㅣㄴㅏㄴ</w>": 1139,
      "ㅅㅏㄴㅡㄴ</w>": 1140,
      "ㅇㅣㅁㅕ</w>": 1141,
      "ㅌㅣㅇ</w>": 1142,
      "ㅇㅓㅄㅅㅡㅂㄴㅣㄷㅏ</w>": 1143,
      "ㅈㅓㄴㅇㅔ</w>": 1144,
      "ㅎㅐㅆㅅㅡㅂㄴㅣㄷㅏ</w>": 1145,
      "ㄹㅛ</w>": 1146,
      "ㅅㅗㄹ": 1147,
      "ㄱㅣㅅㅜㄹ": 1148,
      "ㅈㅗㅇ</w>": 1149,
      "ㅔㄴ": 1150,
      "ㅇㅕㅎㅐㅇ": 1151,
      "ㄱㅣㄴㅡㄴ</w>": 1152,
      "ㅅㅓㅇㅜㄹ": 1153,
      "ㅂㅏㄴ</w>": 1154,
      "ㅎㅏㄱㄱㅛ": 1155,
      "ㅇㅣㄹㅏㄴㅡㄴ</w>": 1156,
      "ㅎㅗㅁ": 1157,
      "ㅅㅏㅇㅓㅂ": 1158,
      "ㅍㅜㅇ": 1159,
      "ㅅㅣㅅㅡㅌㅔ": 1160,
      "ㄱㅡㄹㅓㄴㅏ</w>": 1161,
      "ㅊㅡ</w>": 1162,
      "ㄲㅡㅌ": 1163,
      "ㅋㅔㅇㅣ": 1164,
      "ㅇㅣㅆㅇㅡㄹ</w>": 1165,
      "ㄷㅜㄹ": 1166,
      "ㄱㅏㅁㅅㅏ": 1167,
      "ㄷㅏㅇㅡㅁ": 1168,
      "ㅔㄱㅔ</w>": 1169,
      "ㄱㅏㅈㅣㄱㅗ</w>": 1170,
      "ㅌㅔㄴ": 1171,
      "ㅁㅜㄴㅎㅘ": 1172,
      "ㅈㅓㅇㅇㅡㄹ</w>": 1173,
      "ㅈㅓㅇㅁㅏㄹ</w>": 1174,
      "ㄱㅔㅇㅣㅁ</w>": 1175,
      "ㅏㄴㅣ": 1176,
      "ㅋㅏㄹ": 1177,
      "ㄱㅘㄴㄹㅕㄴ</w>": 1178,
      "ㅇㅓㅄㄷㅏ</w>": 1179,
      "ㅈㅗㅁ</w>": 1180,
      "ㅅㅔㄱㅖ": 1181,
      "ㄱㅏㅌㅇㅣ</w>": 1182,
      "ㄴㅗㄴ": 1183,
      "ㅁㅏㅅ": 1184,
      "ㅅㅓㅇㅇㅡㄹ</w>": 1185,
      "the</w>": 1186,
      "ㅋㅓㄴ": 1187,
      "ㄴㅓㅁㅜ</w>": 1188,
      "ㅈㅣㄴㅎㅐㅇ": 1189,
      "ㅎㅗㄱ": 1190,
      "ㄹㅣㄴㅡㄴ</w>": 1191,
      "15": 1192,
      "ㅍㅛ</w>": 1193,
      "ㅂㅘ": 1194,
      "ㄹㅕ</w>": 1195,
      "ㅇㅣㄺ": 1196,
      "ㅉㅏ": 1197,
      "ㅍㅏㅇ": 1198,
      "ㅇㅣㅆㄱㅗ</w>": 1199,
      "ㅇㅐㄱ": 1200,
      "ㅂㅗㅁㅕㄴ</w>": 1201,
      "ㄴㅇㅡㄹ</w>": 1202,
      "ion</w>": 1203,
      "ㄱㅔㅅㅣ": 1204,
      "ㅈㅓㅂ</w>": 1205,
      "ㄷㅡㄴ": 1206,
      "ㄱㅗㄱㅐㄱ": 1207,
      "ㅎㅓㅁ</w>": 1208,
      "ㄷㅏㅇㅅㅣㄴ": 1209,
      "ㅇㅕㄴㄱㅜ": 1210,
      "ㄹㅣㄴ": 1211,
      "ㄹㅏㅇㅣ": 1212,
      "ㅅㅡㅌㅡ</w>": 1213,
      "ㄹㅏㄴ": 1214,
      "ㅇㅣㄹㅇㅡㄹ</w>": 1215,
      "10</w>": 1216,
      "as": 1217,
      "ㅅㅜㄹ</w>": 1218,
      "ㅈㅏㄷㅗㅇ": 1219,
      "ㄱㅘㄴㄱㅖ": 1220,
      "ㅇㅟㅊㅣ": 1221,
      "ㄱㅜㅁㅐ": 1222,
      "ㄹㅗㄱ</w>": 1223,
      "il": 1224,
      "ㅎㅏ</w>": 1225,
      "ㅅㅡㅍㅗ": 1226,
      "ㅎㅚㄱ": 1227,
      "ㅎㅏㄱㅔ": 1228,
      "ㅇㅏㄶㄴㅡㄴ</w>": 1229,
      "ou": 1230,
      "ㅎㅕㄴㅈㅐ</w>": 1231,
      "ㅁㅣ</w>": 1232,
      "ㅅㅡㅌㅡㄹ": 1233,
      "ㅅㅏㅇㅣㅌㅡ</w>": 1234,
      "ㅇㅣㅅㅏㅇ</w>": 1235,
      "ㄷㅟ": 1236,
      "ㄷㅗㅇㅜ": 1237,
      "ㅇㅣㄱ": 1238,
      "ㄴㅗㅎ": 1239,
      "ㄹㅣㄹㅡㄹ</w>": 1240,
      "ㄷㅡㄹㅇㅔㄱㅔ</w>": 1241,
      "ㄱㅣㄴㅡㅇ": 1242,
      "ㅂㅕㄹ</w>": 1243,
      "ㅇㅣㅇㅠ": 1244,
      "ㄱㅡㄹㅓㄴ</w>": 1245,
      "ㅇㅛㄱ": 1246,
      "al</w>": 1247,
      "ㅋㅗㅇ": 1248,
      "ㄱㅡㅂ</w>": 1249,
      "ㄷㅓㄴ": 1250,
      "ㅊㅜㄹ</w>": 1251,
      "ㅅㅡㅌㅣ": 1252,
      "ㅇㅓㅅ": 1253,
      "ㄱㅝㄴ</w>": 1254,
      "ㄴㅡㄹ</w>": 1255,
      "ㅁㅐ</w>": 1256,
      "ㅇㅏㅁ": 1257,
      "is": 1258,
      "ㅎㅏㅅㅔㅇㅛ</w>": 1259,
      "ㅂㅗㄴㅐ": 1260,
      "ㅇㅣㄹㅂㅗㄴ": 1261,
      "ㅂㅗㄹ": 1262,
      "ㅈㅏㅇㅇㅡㄹ</w>": 1263,
      "es": 1264,
      "ㅇㅠ</w>": 1265,
      "ㅈㅜㄴ</w>": 1266,
      "ㅕㄱ": 1267,
      "ㄱㅓㅅㄷㅗ</w>": 1268,
      "ㅌㅣ</w>": 1269,
      "ㅇㅕㄴ</w>": 1270,
      "ㅅㅏㅇㅇㅡㄹ</w>": 1271,
      "ㄷㅏㄹ</w>": 1272,
      "ㄱㅘㄴㄹㅕㄴ": 1273,
      "ㅅㅜㄷㅗ</w>": 1274,
      "ㄷㅏㄱㅏ</w>": 1275,
      "ㅁㅇㅡㄴ</w>": 1276,
      "ㅈㅕ</w>": 1277,
      "ㄹㅗㄴ": 1278,
      "ㅇㅜㄴㅇㅕㅇ": 1279,
      "ㅎㅏㅁ</w>": 1280,
      "ㅍㅣㅇ": 1281,
      "ㄱㅕㄱ</w>": 1282,
      "ㅂㅗㅇㅕ": 1283,
      "ㄱㅡㄹㅐㅅㅓ</w>": 1284,
      "ㅌㅗ</w>": 1285,
      "ㅅㅏㅇㅎㅘㅇ": 1286,
      "ㅊㅓㅇ</w>": 1287,
      "ㅎㅗㅌㅔㄹ": 1288,
      "ㅇㅣㅇㅓㅆ": 1289,
      "ㅌㅏㅇ": 1290,
      "ㅁㅗㄹㅡ": 1291,
      "ㅊㅚㄱㅡㄴ</w>": 1292,
      "ㅈㅣㄷㅗ</w>": 1293,
      "ㄷㅡㄱ": 1294,
      "ㅍㅕㄴ</w>": 1295,
      "ㅇㅏㄶㅅㅡㅂㄴㅣㄷㅏ</w>": 1296,
      "ㅅㅏㅈㅣㄴ": 1297,
      "ㅈㅓㄴㅁㅜㄴ": 1298,
      "ㄱㅐㅂㅏㄹ": 1299,
      "oo": 1300,
      "ㅇㅣㅇㅓ": 1301,
      "ㅅㅗㅇ</w>": 1302,
      "ㄴㅣㅁ</w>": 1303,
      "ㅉㅗㄱ": 1304,
      "ㅎㅏㅁㅕㄴㅅㅓ</w>": 1305,
      "ㅎㅘㄹㅡㄹ</w>": 1306,
      "ㅌㅡㄹㅡㄹ</w>": 1307,
      "ㄹㅑ": 1308,
      "ㄱㅣㄴ</w>": 1309,
      "ㅁㅜㅇㅓㅅ": 1310,
      "ㄷㅐㅍㅛ": 1311,
      "ㅆㅏ": 1312,
      "ㅍㅗㅎㅏㅁ": 1313,
      "ㅎㅐㅆㄷㅓㄴ</w>": 1314,
      "ㅈㅏㄱ</w>": 1315,
      "ㅇㅣㄹㅓㅎㄱㅔ</w>": 1316,
      "ㅁㅣㄱㅜㄱ</w>": 1317,
      "ㅈㅏㄴ": 1318,
      "ㄴㅔㅇㅛ</w>": 1319,
      "ㅎㅐㄷㅏㅇ</w>": 1320,
      "ㅁㅇㅔ</w>": 1321,
      "ㅈㅜㄴㅡㄴ</w>": 1322,
      "ㄷㅣㅈㅏ": 1323,
      "ㅈㅣㄱㅈㅓㅂ</w>": 1324,
      "ㅂㅡㄹㄹㅗㄱ": 1325,
      "ㅈㅓㅁㅇㅡㄹ</w>": 1326,
      "ㅆㄷㅓㄴ</w>": 1327,
      "ㅅㅜㄱㅏ</w>": 1328,
      "ㅈㅓㅈㅏㄱㄱㅝㄴ": 1329,
      "ㄱㅛㅇㅠ": 1330,
      "ㄴㅡㄴㄷㅏ</w>": 1331,
      "ㄱㅏㅅㅡㅁ</w>": 1332,
      "ㅂㅏㄺ": 1333,
      "ㄹㅡ": 1334,
      "ㅁㅗㄷㅔ": 1335,
      "ㅇㅔㄴ": 1336,
      "ㅂㅏㄹㅏㅂㄴㅣㄷㅏ</w>": 1337,
      "ㅎㅣㅁ": 1338,
      "ㅃㅏ": 1339,
      "ㅁㅗㅅㅡㅂ": 1340,
      "ㅈㅏㄹㅣ": 1341,
      "ㅍㅡㄹㅣ": 1342,
      "ㅋㅜ": 1343,
      "ㅌㅡㄱㅎㅣ</w>": 1344,
      "ㅍㅜㄹ": 1345,
      "ㅇㅜㄹㅣㄴㅡㄴ</w>": 1346,
      "ㅎㅏㄴㅏㄴㅣ": 1347,
      "ㅇㅣㅆㅇㅓㅆㄷㅏ</w>": 1348,
      "ㅅㅓㄹㅁㅕㅇ": 1349,
      "ㅅㅏㅇㅢ</w>": 1350,
      "ㅈㅜㄱ": 1351,
      "ㄷㅡㅇㅇㅢ</w>": 1352,
      "ㅊㅕ": 1353,
      "ag": 1354,
      "ㅂㅅㅣ": 1355,
      "ㄷㅡㄴㅡㄴ</w>": 1356,
      "ㅈㅗㅎㅇㅏ": 1357,
      "ㅅㅔㄱㅅㅡ</w>": 1358,
      "ㄷㅏㅇㅡㅁ</w>": 1359,
      "ㅂㅏㅇㅂㅓㅂ</w>": 1360,
      "ㅂㅏㄹㅅㅐㅇ": 1361,
      "ㅊㅐㄱ</w>": 1362,
      "ed</w>": 1363,
      "ㅈㅏㅅㅣㄴㅇㅢ</w>": 1364,
      "ㄷㅐㅌㅗㅇ": 1365,
      "lo": 1366,
      "ㅂㄴㅣㄲㅏ</w>": 1367,
      "ㅁㅣㄱㅜㄱ": 1368,
      "ㅡㄹㅗ</w>": 1369,
      "in</w>": 1370,
      "ㅇㅏㄶㅇㅡㄴ</w>": 1371,
      "ㄷㅏㅇㅜㄴ": 1372,
      "ㅅㅠ": 1373,
      "ㅇㅣㅆㅇㅓ</w>": 1374,
      "18": 1375,
      "ㅍㅕ": 1376,
      "ㅈㅏㄹㅡㄹ</w>": 1377,
      "ㅈㅣㄱㅡㅁ": 1378,
      "ㅇㅓㄷ": 1379,
      "ㄷㅡㄹㅣㅂㄴㅣㄷㅏ</w>": 1380,
      "ㅅㅏㅅㅣㄹ": 1381,
      "ㅇㅣㅆㄴㅡㄴ": 1382,
      "ㅈㅜㅅㅣ": 1383,
      "ㅁㅜㄹㅇㅡㄹ</w>": 1384,
      "ㅅㅛ": 1385,
      "ㅇㅇㅣ</w>": 1386,
      "ㄱㅡㄹㅓㅎ": 1387,
      "ㅇㅟㅇㅝㄴ": 1388,
      "ㄱㅏㅇ</w>": 1389,
      "ㅊㅗㄱ": 1390,
      "ㅌㅗㅇ</w>": 1391,
      "ㅂㅜㄴㅅㅓㄱ</w>": 1392,
      "ㅈㅔㅍㅜㅁ": 1393,
      "ㅇㅣㅂㅓㄴ</w>": 1394,
      "16": 1395,
      "ㅈㅏㅁ": 1396,
      "ㅈㅜㄴㅂㅣ": 1397,
      "ㅎㅘㄴㄱㅕㅇ": 1398,
      "ㅎㅏㅅㅣㄹ</w>": 1399,
      "ㅗㄴ</w>": 1400,
      "ㄱㅜㅅㅓㅇ": 1401,
      "ㄹㅑㅇ": 1402,
      "ㅎㅏㅇ</w>": 1403,
      "ㄷㅡㄹㄱㅘ</w>": 1404,
      "ㅃㅜㄴ": 1405,
      "ㅅㅐㅇㅎㅘㄹ": 1406,
      "ㅇㅏㄶㄱㅗ</w>": 1407,
      "ㅊㅏㄴ": 1408,
      "ㅈㅜㅇㅢ": 1409,
      "ㄱㅓㄹ</w>": 1410,
      "ㅇㅣㄴㅌㅓㄴㅔㅅ</w>": 1411,
      "ㅎㅏㄴㄱㅜㄱ</w>": 1412,
      "ㅎㅘㄹㄷㅗㅇ": 1413,
      "ㅇㅓㅇㅑ</w>": 1414,
      "ㄱㅕㅇㅈㅔ": 1415,
      "ㅎㅏㄱㅅㅐㅇ": 1416,
      "ㄱㅘㄴㅎㅏㄴ</w>": 1417,
      "ㄱㅔㅆㅅㅡㅂㄴㅣㄷㅏ</w>": 1418,
      "ㄱㅜㅇ": 1419,
      "ㅇㅕㄹㅓ</w>": 1420,
      "ㅅㅡㅁㅏ": 1421,
      "ㅈㅓㅇㄷㅗ": 1422,
      "ㅌㅡㄱㅂㅕㄹ": 1423,
      "ㅍㅠ": 1424,
      "et": 1425,
      "ㅂㅏㄱ</w>": 1426,
      "ㅎㅏㄴㅏ": 1427,
      "ㅇㅙ</w>": 1428,
      "ㄲㅏㅇㅛ</w>": 1429,
      "ㅁㅐㅇㅜ</w>": 1430,
      "ㅈㅣㄱㅡㅁ</w>": 1431,
      "ㅅㅏㅇㅣㅌㅡ": 1432,
      "ㅇㅣㄹㅓㅎㅏㄴ</w>": 1433,
      "ㅂㅗㄴㅡㄴ</w>": 1434,
      "ㅅㅏㄱㅏ</w>": 1435,
      "ㅇㅣㄹㅇㅣ</w>": 1436,
      "ㅁㅏㄴㅋㅡ": 1437,
      "ㄱㅕㄹㄱㅘ": 1438,
      ").</w>": 1439,
      "ㅈㅓㅇㅂㅗㄹㅡㄹ</w>": 1440,
      "ㄱㅓㅁㅅㅐㄱ</w>": 1441,
      "ㅁㅜㄹㄹㅗㄴ</w>": 1442,
      "ㅅㅔㄴㅌㅓ</w>": 1443,
      "ㅅㅣㅈㅏㅇ": 1444,
      "ㅊㅓㄹㅣ": 1445,
      "ㅅㅣㄱㅇㅡㄹ</w>": 1446,
      "ㅁㅣㄴ</w>": 1447,
      "ㅅㅓㅂㅣㅅㅡ": 1448,
      "ㅅㅓㅇㅇㅣ</w>": 1449,
      "ㄹㅕㄱㅇㅡㄹ</w>": 1450,
      "ㅂㅏ</w>": 1451,
      "ㄹㅏㄱ": 1452,
      "ri": 1453,
      "ㄱㅓㄴㄱㅏㅇ": 1454,
      "el": 1455,
      "ㅍㅕㅇㄱㅠ": 1456,
      "ㄹㄹㅓ": 1457,
      "ㅇㅗㄴ</w>": 1458,
      "ㅎㅏㄱㅓㄴㅏ</w>": 1459,
      "ㅇㅕㅇㅅㅏㅇ</w>": 1460,
      "ㅈㅓㄴㅡㄴ</w>": 1461,
      "ㅈㅜㄹ</w>": 1462,
      "ㅎㅖ": 1463,
      "ㅁㅜㄹㅛ</w>": 1464,
      "ㄷㅡㅇㄹㅗㄱ": 1465,
      "ㅍㅏㄴ</w>": 1466,
      "an</w>": 1467,
      "ㅈㅜㅅㅗ</w>": 1468,
      "ㄷㅔㅇㅛ</w>": 1469,
      "le</w>": 1470,
      "ㄷㅚㅇㅓㅆㄷㅏ</w>": 1471,
      "ㅗㄴ": 1472,
      "ㅅㅎㅏㄴ</w>": 1473,
      "ㅅㅇㅡㄹ</w>": 1474,
      "ㅈㅏㅇㅠ": 1475,
      "es</w>": 1476,
      "ㅂㅓㄴㅉㅐ</w>": 1477,
      "ㅈㅜㅇㅇㅔ</w>": 1478,
      "ㄱㅡㄹㅐㅍㅡ": 1479,
      "ㅊㅓㅅ</w>": 1480,
      "ㅇㅏㅇㅛ</w>": 1481,
      "ㄷㅐㅎㅏㄴ": 1482,
      "com</w>": 1483,
      "ㅈㅡㅇ</w>": 1484,
      "ㅁㅔㅇㅣ": 1485,
      "ㅅㅏㅈㅣㄴ</w>": 1486,
      "ㄱㅘㄴㄹㅣ</w>": 1487,
      "ec": 1488,
      "ㅂㅕㄴ</w>": 1489,
      "ㄱㅐㅇㅢ</w>": 1490,
      "ㅇㅔㅅㅓㄷㅗ</w>": 1491,
      "ㅅㅣㅁ</w>": 1492,
      "14": 1493,
      "ㄴㅏㅌㅏㄴ": 1494,
      "ㅇㅕㄹㅓ": 1495,
      "ㅅㅑ": 1496,
      "ㅈㅣㅇ": 1497,
      "ㄱㅓㄹㅣ": 1498,
      "ㅇㅣㅆㄷㅏㄴㅡㄴ</w>": 1499,
      "ㄱㅏㄹ</w>": 1500,
      "ㅇㅣㅎㅜ</w>": 1501,
      "ㅅㅏㄹㅏㅁ</w>": 1502,
      "ㄹㅏㄷㅗ</w>": 1503,
      "ㄷㅚㄴ": 1504,
      "ㅇㅞㅂ": 1505,
      "ㅅㅏㄴㅇㅓㅂ": 1506,
      "ㄲㅐ": 1507,
      "ㄱㅣㄹㅗㄱ": 1508,
      "ㄷㅗㅇㅢ</w>": 1509,
      "ㄱㅡㄹㅜ": 1510,
      "ㅇㅢㅁㅣ": 1511,
      "ur": 1512,
      "ㅇㅣㅇㅓㅆㄷㅏ</w>": 1513,
      "ㅁㅗㄱ</w>": 1514,
      "ㅆㄱㅗ</w>": 1515,
      "ㅂㅜㄱ</w>": 1516,
      "ㅍㅣㄹㅇㅛㅎㅏㄴ</w>": 1517,
      "ㅇㅣㅎㅐ": 1518,
      "ㄱㅣㄹㅗ</w>": 1519,
      "ㅇㅣㄹㅏ</w>": 1520,
      "ㅅㅏㅎㅏㅇ": 1521,
      "13": 1522,
      "ㅎㅕㄴ</w>": 1523,
      "ㅎㅕㄱ": 1524,
      "ㅇㅏㄴㅈㅓㄴ": 1525,
      "ㄱㅛㅇㅠㄱ</w>": 1526,
      "ㅌㅏㄱ": 1527,
      "ㅇㅣㄴㅇㅣ</w>": 1528,
      "ㅇㅕㄱㅅㅣ</w>": 1529,
      "ㅅㅡㅌㅡ": 1530,
      "ㅂㅅㅣㅇㅗ</w>": 1531,
      "ㅈㅜㅇㅢ</w>": 1532,
      "ㅈㅓㅇㅂㅜ": 1533,
      "ㄱㅣㅌㅏ</w>": 1534,
      "ㄱㅏㅁ</w>": 1535,
      "un": 1536,
      "ㅅㅏㅇㅌㅐ": 1537,
      "ㅎㅏㄱㄱㅛ</w>": 1538,
      "ㅇㅣㄴㅇㅢ</w>": 1539,
      "ㅅㅏㄹㅏㅁㅇㅣ</w>": 1540,
      "ㅁㅜ</w>": 1541,
      "ㅇㅔㅇㅣ": 1542,
      "ㄱㅓㅇㅢ</w>": 1543,
      "ㅈㅏㄱㅇㅡㄴ</w>": 1544,
      "ㅎㅏㄴㅡㄴㄷㅔ</w>": 1545,
      "ㅎㅏㄹㅕ": 1546,
      "ㄷㅡㅇㅇㅣ</w>": 1547,
      "ㅇㅣㅈㅔ</w>": 1548,
      "or</w>": 1549,
      "ㅅㅏㄻ": 1550,
      "ㄴㅔ</w>": 1551,
      "ㅋㅏㅇ": 1552,
      "ㅁㅕㅊ</w>": 1553,
      "ㄹㅐㄴ": 1554,
      "ㅋㅏ</w>": 1555,
      "ㅍㅗㄴ</w>": 1556,
      "ㅁㅣㄷ": 1557,
      "ㄱㅏㅁㅅㅏㅎㅏㅂㄴㅣㄷㅏ</w>": 1558,
      "ㄷㅔㅇㅣㅌㅓ": 1559,
      "ㅈㅏㄹㅛ</w>": 1560,
      "50": 1561,
      "ㅇㅏㅅㅣ": 1562,
      "ㄱㅐㅇㅝㄹ</w>": 1563,
      "ㅅㅗㅍㅡ": 1564,
      "ㄹㅣㅁ": 1565,
      "ㅈㅓㄱㅇㅛㅇ": 1566,
      "ㅊㅐㄱㅇㅣㅁ": 1567,
      "ㅂㅡ</w>": 1568,
      "ㅁㅗ</w>": 1569,
      "ㄷㅐㅅㄱㅡㄹ": 1570,
      "ㅇㅣㄴㄱㅏㄴ": 1571,
      "ㅋㅓㅁㅍㅠ": 1572,
      "ㅎㅘㄴ</w>": 1573,
      "ㅍㅏㄴㅁㅐ": 1574,
      "ㅅㅣㅈㅡ": 1575,
      "ㅁㅏㅋㅔ": 1576,
      "ㅂㅏㄷㅇㅡㄴ</w>": 1577,
      "ㅅㅔㄱㅖ</w>": 1578,
      "ㅇㅏㄹㄹㅕ": 1579,
      "ㅎㅐㄷㅗ</w>": 1580,
      "ㅋㅡㄹㄹㅣ": 1581,
      "ㅇㅣㅁㅣ": 1582,
      "ㄸㅏㄹㅏ": 1583,
      "ㅈㅏㅇㅔㄱㅔ</w>": 1584,
      "ㄲㅗㄱ</w>": 1585,
      "ㄷㅡㅅ</w>": 1586,
      "ㅌㅣㅇ": 1587,
      "ㅇㅣㅁ</w>": 1588,
      "ㅇㅜㄱ</w>": 1589,
      "ㅎㅏㄴㅏ</w>": 1590,
      "ㅇㅠㄴ": 1591,
      "ㅈㅏㅅㅔ": 1592,
      "ㅈㅣㄱㅗ</w>": 1593,
      "ㅇㅜㄹㅣㄱㅏ</w>": 1594,
      "ㅇㅓㄹㅕㅇ": 1595,
      "ㅇㅕㅎㅐㅇ</w>": 1596,
      "ㅅㅟㅂㄱㅔ</w>": 1597,
      "ㄷㅙㅆㄷㅏ</w>": 1598,
      "ㄹㅇㅓ": 1599,
      "ㅂㅔㅇㅣ": 1600,
      "ㅇㅣㄹㅂㅏㄴ": 1601,
      "ㅈㅓㅇㄷㅗ</w>": 1602,
      "ㄱㅡㄴㅡㄴ</w>": 1603,
      "ㅎㅡㅇ": 1604,
      "ㄱㅡㄹㅓㄴㄷㅔ</w>": 1605,
      "ㅇㅗㄴㄹㅏ": 1606,
      "ㄱㅜㄱㅁㅣㄴ": 1607,
      "!!</w>": 1608,
      "ㅈㅚ": 1609,
      "ㅍㅗㄴ": 1610,
      "ㅊㅜㅊㅓㄴ</w>": 1611,
      "ㄷㅓㄱ": 1612,
      "ㅁㅏㄴㅋㅡㅁ</w>": 1613,
      "ㅋㅣ</w>": 1614,
      "ㅍㅖ": 1615,
      "ㄱㅏㅈㅗㄱ": 1616,
      "ㅂㅗㄱㅗ": 1617,
      "ㅅㅗㄱㅐ": 1618,
      "ㄴㅜㄹ": 1619,
      "ㅂㅣㄹ": 1620,
      "ㅇㅣㅆㄷㅗㄹㅗㄱ</w>": 1621,
      "ㅈㅜㅇㄱㅜㄱ": 1622,
      "ㅏㅇㅢ</w>": 1623,
      "ㄷㅗㄹㅡㄹ</w>": 1624,
      "ㄱㅔㅇㅣㅁ": 1625,
      "ㅂㅓ</w>": 1626,
      "ㅇㅔㄱㅔ": 1627,
      "ㅂㅗㅎㅗ": 1628,
      "ㅊㅓ</w>": 1629,
      "ㅅㅜㄴㅡㄴ</w>": 1630,
      "ㅈㅣㅇㅕㄱ</w>": 1631,
      "ㄷㅣ</w>": 1632,
      "17": 1633,
      "ㅎㅏㅂ</w>": 1634,
      "ㅇㅣㄹㅂㅗㄴ</w>": 1635,
      "ㅇㅣㅂㅔㄴ": 1636,
      "ㅅㅏㅇㅛㅇ</w>": 1637,
      "ㅇㅣㅁㅣ</w>": 1638,
      "ㅆㅓ": 1639,
      "ㅆㅓ</w>": 1640,
      "ㅂㅗㄴㅣ</w>": 1641,
      "ㄹㅣㅇ": 1642,
      "ㅂㅜㅌ": 1643,
      "ㅇㅣㅇㅛㅇ</w>": 1644,
      "ㅅㅡㄴㅡㄴ</w>": 1645,
      "ㅋㅗ</w>": 1646,
      "ㅍㅕㅇㄱㅠㄴ</w>": 1647,
      "24": 1648,
      "ㅇㅡㄴㅣ</w>": 1649,
      "ㄱㅏㅌㅅㅡㅂㄴㅣㄷㅏ</w>": 1650,
      "ㅌㅐㄱ</w>": 1651,
      "ㅇㅣㅆㄱㅔ</w>": 1652,
      "ㄷㅏㄹㅣ": 1653,
      "ㅇㅏㄴㅣㄴ</w>": 1654,
      "ㄴㅔㅇㅣ": 1655,
      "ㄱㅘㅈㅓㅇ": 1656,
      "ㄴㅏㅁ</w>": 1657,
      "ㄱㅡㄹㅓㅎㄱㅔ</w>": 1658,
      "ㅋㅗㄹ": 1659,
      "ㅇㅕㅇㅎㅘ": 1660,
      "ㅇㅣㅇㅑㄱㅣ</w>": 1661,
      "ㄲㅡㄹ": 1662,
      "ㅆㄴㅡㄴㄷㅔ</w>": 1663,
      "ㅌㅡㄹㅣ": 1664,
      "ㅈㅘ": 1665,
      "ㅇㅕㅅㅓㅇ": 1666,
      "ㅂㅡㄹㅐㄴ": 1667,
      "ㅅㅏㄹㅏㅁㄷㅡㄹㅇㅣ</w>": 1668,
      "ㄷㅡㄹㅡㄹ</w>": 1669,
      "ㅇㅕㅇㅎㅘ</w>": 1670,
      "ㅁㅜㄴㅇㅢ": 1671,
      "ㅈㅗㄹ": 1672,
      "ㄱㅡㄴㅑㅇ</w>": 1673,
      "ㅈㅔㅍㅜㅁ</w>": 1674,
      "ㅁㅐㄱ": 1675,
      "ㄱㅕㅇㄱㅣ": 1676,
      ".\"</w>": 1677,
      "ㅎㅗㄹ": 1678,
      "ㅈㅓㄹ</w>": 1679,
      "ㅇㅜㄴㄷㅗㅇ": 1680,
      "ㅂㅗㅎㅓㅁ": 1681,
      "ㄱㅜㄴ</w>": 1682,
      "ㅂㅕㄴㄱㅕㅇ": 1683,
      "ㅅㅣㅇㅔ</w>": 1684,
      "ㅇㅏㅈㅜ</w>": 1685,
      "ㅁㅏㄱ</w>": 1686,
      "ㅇㅘㅇ": 1687,
      "ㅊㅓㅇㅅㅗ": 1688,
      "ㄷㅚㅇㅓㅆㅅㅡㅂㄴㅣㄷㅏ</w>": 1689,
      "ㅎㅏㅇㅕㅆㄷㅏ</w>": 1690,
      "ㅅㅕㄹ": 1691,
      "ㅊㅣㄴㄱㅜ": 1692,
      "ㄷㅚㅁㅕㄴ</w>": 1693,
      "ㅇㅠㄹ": 1694,
      "ㅅㅓㄹㅊㅣ": 1695,
      "ㅁㅗㅂㅏ": 1696,
      "ㅋㅐㅁ": 1697,
      "ㅂㅏㄲㅇㅔ</w>": 1698,
      "ig": 1699,
      "ㅇㅗㄴㅡㄹ": 1700,
      "ㅍㅜㅁㅇㅡㄹ</w>": 1701,
      "ㅇㅗㄴㅡㄹ</w>": 1702,
      "ㄱㅡㅇㅢ</w>": 1703,
      "ㅎㅡㄹ": 1704,
      "ㅁㅕㅇㅇㅢ</w>": 1705,
      "ㅌㅗㄹ": 1706,
      "ㅇㅓㄴㅡ</w>": 1707,
      "ㅇㅑㅇ</w>": 1708,
      "ㅂㅕㄴㅎㅘ": 1709,
      "ㅈㅜㅅㅔㅇㅛ</w>": 1710,
      "ㄱㅗㅅ</w>": 1711,
      "ㅎㅐㄱ": 1712,
      "ㅅㅓㅇㅜㄹ</w>": 1713,
      "ㅇㅡㄹㄲㅏ</w>": 1714,
      "ㅇㅏㅂ": 1715,
      "ㅇㅏㅁㅏ": 1716,
      "ㅇㅣㄴㅈㅣ</w>": 1717,
      "ㅏㄴ</w>": 1718,
      "ㅅㅗㅍㅡㅌㅡ": 1719,
      "ㅈㅜㅇㅇㅛㅎㅏㄴ</w>": 1720,
      "om": 1721,
      "ㅎㅐㅅㅓㄴㅡㄴ</w>": 1722,
      "ㅊㅏㅁㅇㅕ": 1723,
      "ㅁㅏㅈㅣ": 1724,
      "ㅅㅏㅇㅛㅇㅎㅏㄹ</w>": 1725,
      "ㅎㅜㄴ": 1726,
      "ㅈㅣㄱㅏ</w>": 1727,
      "ㅁㅓㄴㅈㅓ</w>": 1728,
      "ㅅㅣㄴㅊㅓㅇ": 1729,
      "ㅅㅐ</w>": 1730,
      "ㅇㅣㄴㄷㅔ</w>": 1731,
      "ㅈㅣㅇㅢ</w>": 1732,
      "ㄱㅜㄱㅈㅔ": 1733,
      "ㅎㅢ</w>": 1734,
      "of</w>": 1735,
      "ㅈㅏㄱㅇㅓㅂ": 1736,
      "ㄱㅏㄴㅡㅇㅎㅏㄴ</w>": 1737,
      "ㅇㅏㄹㅡㅁ": 1738,
      "ㅋㅏㅈㅣㄴ": 1739,
      "ㄱㅣㅎㅚ": 1740,
      "ㅎㅘㄹㅇㅛㅇ": 1741,
      "ad": 1742,
      "ㅇㅓㄴㅈㅔ": 1743,
      "ㄱㅚ": 1744,
      "ㅎㅑㅇ</w>": 1745,
      "ㅅㅣㅁㅕㄴ</w>": 1746,
      "ㅈㅓㅇㅊㅣ": 1747,
      "ㅈㅣㅇㅝㄴ</w>": 1748,
      "ㅅㅣㅅㅓㄹ": 1749,
      "ㅇㅔㄴ</w>": 1750,
      "ㅇㅏㅅㅓ</w>": 1751,
      "ㅇㅣㅆㄴㅡㄴㄷㅔ</w>": 1752,
      "ㅇㅏㄹㅐ": 1753,
      "100": 1754,
      "ㅇㅣㅆㄷㅏㄱㅗ</w>": 1755,
      "ㅊㅡㅇ</w>": 1756,
      "ㅇㅣㄴㅌㅓ": 1757,
      "ㅂㅏㅇㅣ": 1758,
      "ㅋㅕ": 1759,
      "ㅅㅏㄱㅈㅔ</w>": 1760,
      "ㅅㅏㅇㅍㅜㅁ</w>": 1761,
      "8ㄴㅕㄴ</w>": 1762,
      "ㅈㅏㅇㅕㄴ": 1763,
      "ㅅㅜㄹㅡㄹ</w>": 1764,
      "ㅂㅕㄱ": 1765,
      "ㅎㅛㄱㅘ": 1766,
      "ㅈㅓㅇㅊㅐㄱ": 1767,
      "ㅅㅓㅇㄱㅗㅇ": 1768,
      "ㄷㅓㅇㅜㄱ</w>": 1769,
      "ㅎㅐㄷㅏㅇ": 1770,
      "ㅇㅣㄹㅜ": 1771,
      "ㅈㅏㅇㅇㅣ</w>": 1772,
      "ㄷㅏㅁ</w>": 1773,
      "ㅂㅏㅇㅁㅜㄴ": 1774,
      "ㄷㅐㅅㅏㅇ": 1775,
      "ㄲㅓ": 1776,
      "ㄷㅐㅌㅗㅇㄹㅕㅇ": 1777,
      "ch": 1778,
      "ㄱㅅㅣ": 1779,
      "ㅈㅗㄱ</w>": 1780,
      "ㅂㅏㄹㄱㅕㄴ": 1781,
      "ㅎㅏㄴㄷㅏㄴㅡㄴ</w>": 1782,
      "ㅇㅏㄹ</w>": 1783,
      "ㄸㅓㄹㅇㅓ": 1784,
      "ㅈㅔㄹㅗ</w>": 1785,
      "ㅊㅜㄱㅏ": 1786,
      "ㄱㅜㄱㄴㅐ</w>": 1787,
      "ㅇㅣㄴㄱㅏ</w>": 1788,
      "ㄱㅣㅂㅗㄴ": 1789,
      "ㄹㅓㄴ": 1790,
      "ㅈㅔㄱㅗㅇㄷㅚㅂㄴㅣㄷㅏ</w>": 1791,
      "ㅎㅐㄱㅕㄹ": 1792,
      "ㄱㅖㅅㅗㄱ</w>": 1793,
      "ㅇㅣㄱㅏ</w>": 1794,
      "ㅊㅗ</w>": 1795,
      "ol": 1796,
      "ㅊㅗㅇ</w>": 1797,
      "ㄷㅡㄹㄷㅗ</w>": 1798,
      "ㅈㅓㄴㄹㅑ": 1799,
      "ㄸㅐㅁㅜㄴㅇㅣㄷㅏ</w>": 1800,
      "ㅇㅣㄴㅇㅡㄹ</w>": 1801,
      "ㅍㅛㅅㅣ": 1802,
      "ㅏㄴㅡㄴ</w>": 1803,
      "ㅈㅜㅇㅅㅣㅁ": 1804,
      "ㅁㅏㄷㅏ</w>": 1805,
      "ㅍㅗ</w>": 1806,
      "ㅇㅓㄴㅏ": 1807,
      "ㅂㅓㄴㅎㅗ</w>": 1808,
      "ㅇㅕㄱㅣ": 1809,
      "ㄴㅗㅍㅇㅡㄴ</w>": 1810,
      "ㄹㅠ</w>": 1811,
      "ㅍㅏ</w>": 1812,
      "ㄷㅏㅇㅜㄴㄹㅗ": 1813,
      "ㅇㅏㄹㄱㅗ</w>": 1814,
      "ㅈㅣㅇㅛ</w>": 1815,
      "ㄱㅏㄱㅕㄱ": 1816,
      "ㅅㅡㅇㅢ</w>": 1817,
      "ti": 1818,
      "de": 1819,
      "ㄱㅏㅌㄷㅏ</w>": 1820,
      "ㅇㅟㅇㅔ</w>": 1821,
      "ㄱㅏㅇㅣㅂ": 1822,
      "ㅇㅓㄷㅣ": 1823,
      "ㅎㅏㄱㅗ": 1824,
      "ㅎㅏㅇㄱㅗㅇ": 1825,
      "ㅅㅓㄷㅗ</w>": 1826,
      "ㅇㅣㄹㅇㅔ</w>": 1827,
      "ㅈㅏㄱㅣ</w>": 1828,
      "ㅇㅚ</w>": 1829,
      "ㅡㄱㅔ</w>": 1830,
      ".)</w>": 1831,
      "ㄱㅣㄷㅐ": 1832,
      "ㄴㅏㅇㅛ</w>": 1833,
      "ㅅㅓㅂㅣㅅㅡㄹㅡㄹ</w>": 1834,
      "ㅇㅏㄴㄴㅐ</w>": 1835,
      "ㅂㅇㅡㄹ</w>": 1836,
      "ㅊㅜㄱㅏ</w>": 1837,
      "ㅇㅕㅈㅏ</w>": 1838,
      "ㄱㅕㄹㅈㅓㅇ": 1839,
      "ㄴㅣㄲㅏ</w>": 1840,
      "ㄱㅕㄹㄱㅘ</w>": 1841,
      "ㄹㅗㄱㅡ": 1842,
      "ㅅㅏㅅㅣㄹ</w>": 1843,
      "ㄴㅡㄴㅈㅣ</w>": 1844,
      "ㅁㅏㄹㅕㄴ": 1845,
      "ht": 1846,
      "us": 1847,
      "ow": 1848,
      "ㅁㅏㄴㄷㅡㄹㅇㅓ": 1849,
      "ㅈㅜㅇㄱㅜㄱ</w>": 1850,
      "ㅇㅗㄱ": 1851,
      "ㅇㅣㅆㅇㅓㅅㅓ</w>": 1852,
      "ㅈㅕㅆㄷㅏ</w>": 1853,
      "ㅇㅕㄴㄱㅕㄹ": 1854,
      "Th": 1855,
      "ㅆㅣ</w>": 1856,
      "ㅇㅓㄹㅣㄴ": 1857,
      "ㅎㅐㅇㅂㅗㄱ": 1858,
      "ㅊㅣㄴㅡㄴ</w>": 1859,
      "ㄲㅔ": 1860,
      "ㄹㅕㅇ</w>": 1861,
      "ㅅㅗㅂㅣ": 1862,
      "ㄹㅕㄴ": 1863,
      "ㅅㅗㅅㅕㄹ": 1864,
      "ㅍㅣ</w>": 1865,
      "ㅅㅇㅣ</w>": 1866,
      "ㄹㅣㄱㅏ</w>": 1867,
      "ㅁㅜㄹㅛ": 1868,
      "ap": 1869,
      "ㄱㅕㅇㅎㅓㅁ": 1870,
      "ㅇㅣㅇㅔ</w>": 1871,
      "1ㅇㅣㄹ</w>": 1872,
      "ㅈㅗㄴㅈㅐ": 1873,
      "ㅈㅗㄱㅓㄴ": 1874,
      "ㅈㅓㄴㅊㅔ</w>": 1875,
      "ㅂㅏㄹㅈㅓㄴ": 1876,
      "ㄱㅏㄴㅡㅇ</w>": 1877,
      "St": 1878,
      "ㅂㅏㅇㅅㅗㅇ": 1879,
      "ㅇㅢㅎㅐ</w>": 1880,
      "ㅇㅣㅆㅈㅣㅁㅏㄴ</w>": 1881,
      "ㅁㅜㄴㅈㅔㄱㅏ</w>": 1882,
      "ㅈㅓㅁㅇㅣ</w>": 1883,
      "ㄱㅖㅎㅚㄱ": 1884,
      "ㄴㅓㅎ": 1885,
      "ㅂㅗㅇㅣ": 1886,
      "ㅂㅐ</w>": 1887,
      "ㅁㅕㅇㅇㅣ</w>": 1888,
      "ㅊㅜㅊㅓㄴ": 1889,
      "ㅇㅕㅇㅎㅑㅇ": 1890,
      "ㅁㅜㄴㅅㅓ": 1891,
      "ㅎㅕㄴㄷㅐ": 1892,
      "em": 1893,
      "12</w>": 1894,
      "ab": 1895,
      "11</w>": 1896,
      "ㅌㅣㅁ</w>": 1897,
      "ㅇㅏㄶㅇㅏㅆ": 1898,
      "ㅈㅗㄴ</w>": 1899,
      "ㄴㅣㅁㅇㅢ</w>": 1900,
      "ㅅㅣㄱㅏㄴㅇㅣ</w>": 1901,
      "ㅅㅡㄴ</w>": 1902,
      "ㅍㅐㄴ": 1903,
      "ㄷㅏㅇㅜㄴ</w>": 1904,
      "ㄱㅅㅣ</w>": 1905,
      "ㅊㅣㄹㅡㄹ</w>": 1906,
      "ㄷㅡㄹㅇㅓ</w>": 1907,
      "ㅅㅕㅆ": 1908,
      "ㅇㅝㄴㅇㅡㄹ</w>": 1909,
      "ㅁㅣㄷㅣ": 1910,
      "ㅇㅜㅅ": 1911,
      "ㄱㅣㅇㅓㅂ</w>": 1912,
      "ㅏㄱ": 1913,
      "ㄱㅗㅇㅢ</w>": 1914,
      "ㅅㅣㅅㅡㅌㅔㅁ</w>": 1915,
      "ㅏㅇㅜ": 1916,
      "ㅈㅔㄱ": 1917,
      "ㅊㅣㅁ</w>": 1918,
      "ㅈㅓㅇㅅㅏㅇ": 1919,
      "ㅋㅗㅇㅓ</w>": 1920,
      "ㅂㅐㅇㅜ": 1921,
      "ㅁㅣㅌㅓ": 1922,
      "ㅉㅣㄱ": 1923,
      "ㅈㅏㅇㅇㅡㄴ</w>": 1924,
      "ㅁㅜㄴㅈㅔ</w>": 1925,
      "ㅈㅏㅇㅇㅐ": 1926,
      "25": 1927,
      "ㅂㅏㄺㅎㅕ": 1928,
      "ㅇㅓㄴ</w>": 1929,
      "ㅂㅏㄷㄱㅗ</w>": 1930,
      "ㅈㅓㅇㅎㅏㄴ</w>": 1931,
      "ㅙㄴ": 1932,
      "ㄴㅠㅅㅡ</w>": 1933,
      "ot": 1934,
      "ㅍㅡㄹㅗㄱㅡㄹㅐㅁ</w>": 1935,
      "ㅇㅕㅆㄷㅏ</w>": 1936,
      "ㄷㅡㄷ": 1937,
      "ㄴㅐㅇㅛㅇ</w>": 1938,
      "ㅇㅠㅇ": 1939,
      "ㅏㅇㅣ": 1940,
      "ㅊㅓㅇㅡㅁ": 1941,
      "ㄱㅏㅂ": 1942,
      "ㅅㅣㄷㅐ": 1943,
      "and</w>": 1944,
      "ㅂㅗㄱㅈㅣ": 1945,
      "ㅕㅇㅑ</w>": 1946,
      "ㄷㅗㄱㅏ</w>": 1947,
      "ㅁㅐㄴ": 1948,
      "ㄴㅕㅁ": 1949,
      "ㅇㅡㅁㅇㅡㄹ</w>": 1950,
      "ㅅㅜㅈㅣㅂ": 1951,
      "ㅌㅚ": 1952,
      "ㅂㅜㄹㅡㄹ</w>": 1953,
      "ㅋㅗㄴㅌㅔㄴ": 1954,
      "ㅈㅓㄴㅎㅣ</w>": 1955,
      "ㅈㅗㄱㅡㅁ</w>": 1956,
      "ㄷㅐㅎㅏㄴㅁㅣㄴ": 1957,
      "ㄱㅏㄴㅡㅇㅎㅏㅂㄴㅣㄷㅏ</w>": 1958,
      "ㄱㅕㅇㄱㅣ</w>": 1959,
      "ㅎㅏㄴㄷㅏㄱㅗ</w>": 1960,
      "ㅎㅕ</w>": 1961,
      "ir": 1962,
      "ㄱㅕㄹ</w>": 1963,
      "ㄱㅗㅇㄱㅏㄴ": 1964,
      "ㄱㅣㅍ": 1965,
      "ㄴㅏㅇㅢ</w>": 1966,
      "ㅅㅔㅅㅏㅇ": 1967,
      "ㅁㅏㄴㅇㅔ</w>": 1968,
      "ㅈㅏㄱㅅㅓㅇ": 1969,
      "ㅎㅐㅇㅚ": 1970,
      "ㄷㅔㅇㅣㅌㅓ</w>": 1971,
      "ㅂㅏㄷㅇㅡㄹ</w>": 1972,
      "ㄱㅣㅈㅏ</w>": 1973,
      "et</w>": 1974,
      "ㄹㅏㄴ</w>": 1975,
      "ㅅㅣㅈㅏㅇ</w>": 1976,
      "ㄷㅏㅁㅏㄴ</w>": 1977,
      "ㅂㅜㄴㅅㅓㄱ": 1978,
      "ㅉㅏ</w>": 1979,
      "ㄹㅕㄱㅇㅣ</w>": 1980,
      "ㅁㅜㄴㅇㅢ</w>": 1981,
      "ㄸㅏㄹㅏㅅㅓ</w>": 1982,
      "ㅈㅓㅇㅎㅘㄱ": 1983,
      "ㅊㅣㄹㅛ": 1984,
      "ㅇㅕㅅㅓㅇ</w>": 1985,
      "ㄹㅣㄱㅗ</w>": 1986,
      "ㄴㅣ</w>": 1987,
      "ㅅㅣㅇ": 1988,
      "ㅈㅐㅁㅣ": 1989,
      "ㅌㅔㅇㅣ": 1990,
      "ㅅㅣㄴㅡㄴ</w>": 1991,
      "ㅈㅡㄱ</w>": 1992,
      "ㅇㅡㄴㅏ</w>": 1993,
      "ation</w>": 1994,
      "ㄷㅏㄷ": 1995,
      "ㅅㅏㄱㅈㅔ": 1996,
      "ㅈㅏㅊㅔ": 1997,
      "ㅇㅓㄹㅡㄹ</w>": 1998,
      "ㅎㅐㅂㅗ": 1999,
      "ㄱㅣㄱㅏㄴ</w>": 2000,
      "ㄸㅟ": 2001,
      "ㅅㅡㄹㅓ": 2002,
      "ㅈㅓㄱㅇㅣ</w>": 2003,
      "ㅛㅇ": 2004,
      "ㅅㅟㅂ": 2005,
      "ㅎㅕㄹ": 2006,
      "000": 2007,
      "ㄴㅗㄷㅗㅇ": 2008,
      "ㅇㅟㄹㅡㄹ</w>": 2009,
      "ㅎㅓㄴ": 2010,
      "ㅈㅣㅇㅔ</w>": 2011,
      "ㅅㅡㄹㅗ</w>": 2012,
      "ㅇㅓㄱ</w>": 2013,
      "ㄷㅣㅇ</w>": 2014,
      "ㅂㅣㄱㅛ": 2015,
      "ㄱㅡㄴㅕ": 2016,
      "ㅎㅐㅆㄱㅗ</w>": 2017,
      "ㅔㅇㅛ</w>": 2018,
      "ㅁㅏㄹㅇㅡㄹ</w>": 2019,
      "ㅎㅜㄹ": 2020,
      "ㅅㅡㅁㅏㅌㅡ": 2021,
      "ㅇㅏㄶㅇㅡㄹ</w>": 2022,
      "ㅇㅗㅇ": 2023,
      "ㅇㅏㄴㅇㅔ</w>": 2024,
      "ㅅㅏㅎㅚ</w>": 2025,
      "ㅇㅏㅈㅣㄱ</w>": 2026,
      "ㅋㅡㄴ": 2027,
      "ㅍㅡㄹㅗㅈㅔㄱ": 2028,
      "ㄷㅏㄴㅣ": 2029,
      "ㅈㅣㄴㅏㄴ": 2030,
      "ㅇㅜㄴㅇㅕㅇ</w>": 2031,
      "ㅊㅣㄴ</w>": 2032,
      "ㅅㅣㄱㅏㄴㅇㅡㄹ</w>": 2033,
      "ㅇㅏㄴㅣㄷㅏ</w>": 2034,
      "ㅁㅗㅅ</w>": 2035,
      "ㅈㅏㄱㅣ": 2036,
      "ㄱㅐㅂㅏㄹ</w>": 2037,
      "ㅇㅗㄴㅡㄴ</w>": 2038,
      "ㄹㅔㄴ": 2039,
      "ㅅㅣㄹㅣ": 2040,
      "ㄱㅘㅎㅏㄱ": 2041,
      "av": 2042,
      "ㅎㅐㅇㅑ": 2043,
      "ㅅㅡㅂ</w>": 2044,
      "ㅁㅜㄴㅇㅡㄹ</w>": 2045,
      "ㅆㅇㅡㄹ</w>": 2046,
      "ㅇㅣㄹㅏㄴ</w>": 2047,
      "ㄱㅘㄴㄱㅘㅇ": 2048,
      "ㄱㅏㄹㅡㄹ</w>": 2049,
      "ㅅㅏㅇㅔ</w>": 2050,
      "ㅇㅖㅈㅓㅇ": 2051,
      "ㄱㅣㄱㅏㄴ": 2052,
      "ub": 2053,
      "ㄱㅣㅅㅜㄹ</w>": 2054,
      "ㅅㅣㅅㅓㄹ</w>": 2055,
      "7ㄴㅕㄴ</w>": 2056,
      "ㅎㅚㅇㅝㄴ</w>": 2057,
      "ㅎㅐㅆㄴㅡㄴㄷㅔ</w>": 2058,
      "ㅇㅡㅁㅅㅣㄱ": 2059,
      "ㅂㅣㄴ": 2060,
      "ㅂㅡㄹ</w>": 2061,
      "ㅇㅏㄹㅇㅏ": 2062,
      "ㅇㅣㅁㅇㅡㄹ</w>": 2063,
      "ㅅㅡㅌㅓ": 2064,
      "ㅎㅟ": 2065,
      "ㅇㅣㄹㅡㅁ": 2066,
      "ㅆㅡㄹ": 2067,
      "ㅅㅏㅇㄷㅐ": 2068,
      "ㅇㅣㄷㅗㅇ": 2069,
      "ㅈㅡㅁ</w>": 2070,
      "ㅂㅔㄹ": 2071,
      "ㅂㅏㅇㅅㅣㄱ": 2072,
      "ㅇㅓㄷㅗ</w>": 2073,
      "ㄱㅛㅎㅚ": 2074,
      "ㅂㅗㄱ</w>": 2075,
      "....</w>": 2076,
      "ㅊㅕ</w>": 2077,
      "ㅁㅏㄴㄴㅏ": 2078,
      "to</w>": 2079,
      "ㄴㅏㅈ": 2080,
      "ㅇㅣㅇㅓ</w>": 2081,
      "ㄱㅔㅅㅣㅁㅜㄹ</w>": 2082,
      "ㅉㅗㄱ</w>": 2083,
      "ㅆㅣㄱ</w>": 2084,
      "ㄷㅗㄴ": 2085,
      "ㅓㅂ</w>": 2086,
      "ㅅㅔㄹ": 2087,
      "ㅌㅐ</w>": 2088,
      "ㅊㅏㅁㄱㅗ": 2089,
      "ㅇㅜㅁ": 2090,
      "ㄱㅓㅁㅅㅐㄱ": 2091,
      "ㅅㅓㅇㅇㅔ</w>": 2092,
      "ㄱㅣㄱㅘㄴ": 2093,
      "ㄱㅕㄹㄱㅜㄱ</w>": 2094,
      "ㅅㅣㅁㅇㅡㄹ</w>": 2095,
      "40": 2096,
      "ㅅㅡㄱㅏ</w>": 2097,
      "ㅅㅕㅅㅓ</w>": 2098,
      "ㄷㅐㅎㅏㅇㅕ</w>": 2099,
      "ㅅㅏㄹ</w>": 2100,
      "ㅎㅏㄷㅡ</w>": 2101,
      "ㅍㅛㅎㅕㄴ": 2102,
      "ㄱㅜㅇㄱㅡㅁ": 2103,
      "ㅇㅟㅎㅏㅇㅕ</w>": 2104,
      "ㅎㅏㅅㅣㄴ</w>": 2105,
      "ㅇㅓㅂㄷㅔㅇㅣ": 2106,
      "ㅆㅈㅣㅁㅏㄴ</w>": 2107,
      "ㅇㅢㄹㅡㄹ</w>": 2108,
      "//</w>": 2109,
      "ㅊㅏㅁ</w>": 2110,
      "ㄸㅐㄴㅡㄴ</w>": 2111,
      "ㅍㅗㅇㅣㄴ": 2112,
      "ㅅㅡㅌㅗㄹ": 2113,
      "ㅂㅏㄹㅍㅛ": 2114,
      "ㅇㅏㅂㅓ": 2115,
      "ㅈㅓㅇㅅㅣㄴ": 2116,
      "ㅂㅓㄹ</w>": 2117,
      "ㅇㅗㅂ": 2118,
      "ㅈㅜㅂㅕㄴ</w>": 2119,
      "ㅇㅕㅁ": 2120,
      "ㅎㅘㄱㅇㅣㄴ</w>": 2121,
      "ㅎㅗㄱㅇㅡㄴ</w>": 2122,
      "ㅁㅏㄴㅏ</w>": 2123,
      "ㅂㅜㄴㅇㅑ": 2124,
      "ㄱㅗㅇㄱㅐ": 2125,
      "ㄷㅗㅅㅣ": 2126,
      "ㅍㅡㄹ</w>": 2127,
      "ㄴㅗㄹㅕㄱ": 2128,
      "ㅊㅘ": 2129,
      "ㅁㅏㄹㅎㅐㅆㄷㅏ</w>": 2130,
      "ㅊㅚㄷㅐ</w>": 2131,
      "ㄱㅏㅇㅜㄴ": 2132,
      "ㅎㅘㅇ</w>": 2133,
      "ㅉㅐ": 2134,
      "ㅈㅣㄴㅏ": 2135,
      "ㅁㅗㄷㅜ": 2136,
      "ㄷㅗㄹㅇㅏ": 2137,
      "ㄱㅜㄴㅇㅛ</w>": 2138,
      "is</w>": 2139,
      "ㄱㅕㅇㅇㅕㅇ": 2140,
      "ㅇㅠㄹㅓ": 2141,
      "ㅂㅜㄴㅇㅣ</w>": 2142,
      "ㅁㅣㄴㅈㅜ": 2143,
      "ㄴㅏㄴㅜ": 2144,
      "ㄱㅣㅈㅜㄴ": 2145,
      "ㅇㅠㅈㅣ": 2146,
      "ent": 2147,
      "ㅁㅗㄷㅔㄹ": 2148,
      "ㅁㅏㅇ</w>": 2149,
      "ㅇㅓㅆㅅㅡㅂㄴㅣㄷㅏ</w>": 2150,
      "ㅅㅓㄹㅈㅓㅇ": 2151,
      "ㄱㅣㅅㅏ</w>": 2152,
      "ㅅㅗㄴ</w>": 2153,
      "ㄷㅗㄹㅗ</w>": 2154,
      "ㅁㅏㅇㅣ": 2155,
      "ㅁㅕㅇㅇㅡㄹ</w>": 2156,
      "ㅈㅔㄱㅗㅇ</w>": 2157,
      "ㅎㅏㄴㅂㅓㄴ</w>": 2158,
      "ㄴㅐㅇㅛㅇㅇㅡㄹ</w>": 2159,
      "TV</w>": 2160,
      "5ㄴㅕㄴ</w>": 2161,
      "ㅁㅗㅂㅏㅇㅣㄹ</w>": 2162,
      "ㅊㅜㅇㅂㅜㄴ": 2163,
      "ㅆㅡㅁ": 2164,
      "ㄱㅗㅇㅇㅠ": 2165,
      "ㅇㅏㅍㅏ": 2166,
      "ㅅㅣㄴㄱㅗ": 2167,
      "ㅁㅏㄴㅇㅝㄴ</w>": 2168,
      "ㅇㅜㄹㅣㄴㅏㄹ": 2169,
      "2018</w>": 2170,
      "ㅇㅔㅅㅓㅇㅢ</w>": 2171,
      "ㅊㅓㅇㅡㅁ</w>": 2172,
      "1ㄴㅕㄴ</w>": 2173,
      "In": 2174,
      "ㅂㅣㅊ": 2175,
      "22": 2176,
      "ㅈㅔㄷㅐㄹㅗ</w>": 2177,
      "ㅇㅡㄹㅗㄴㅡㄴ</w>": 2178,
      "ㅇㅓㄹㅁㅏㄴㅏ</w>": 2179,
      "ㅋㅏㅁ": 2180,
      "ㅇㅗㄹㅐ": 2181,
      "ㄷㅗㄱ</w>": 2182,
      "ㄹㅠㄹ": 2183,
      "ㅍㅡㄹㄹㅐ": 2184,
      "ㅎㅏㅇㅅㅏㅇ</w>": 2185,
      "ent</w>": 2186,
      "ㅈㅓㅇㅂㅗㄴㅡㄴ</w>": 2187,
      "ㄱㅜㅇㅛ</w>": 2188,
      "ㅈㅣㅈㅣ</w>": 2189,
      "di": 2190,
      "ㅡㄴㅡㄴ</w>": 2191,
      "ㅋㅡㄱㅔ</w>": 2192,
      "ㅅㅣㅂ": 2193,
      "li": 2194,
      "ㅁㅝ": 2195,
      "ㅇㅓㅇ": 2196,
      "ㄲㅗㅊ": 2197,
      "ㅇㅣㅂㅔㄴㅌㅡ</w>": 2198,
      "ㅁㅕㅊ": 2199,
      "ㄱㅕㅇㅈㅐㅇ": 2200,
      "ㄴㅗㄱ": 2201,
      "ㅅㅐㅇㅅㅏㄴ": 2202,
      "ㄱㅕㄹㅈㅔ</w>": 2203,
      "ㅊㅓㅅ": 2204,
      "ㄷㅡㄱㅏ</w>": 2205,
      "ㅇㅣㅂㅓㄴ": 2206,
      "ㅈㅣㅂㅏㅇ": 2207,
      "ㄷㅜㄱㅗ</w>": 2208,
      "ㄱㅏㅇㅛ</w>": 2209,
      "ㅇㅒ": 2210,
      "ㅇㅣㄹㅂㅜ</w>": 2211,
      "ㅌㅗㅇㅅㅣㄴ": 2212,
      "ㅌㅡㅇㅝ": 2213,
      "ㅏㄹㅡㄹ</w>": 2214,
      "ㅅㅓㄹㅗ</w>": 2215,
      "ㅌㅣㅁ": 2216,
      "ㅋㅏㄷㅡ</w>": 2217,
      "ㄸㅏㅇ": 2218,
      "ㅅㅏㅁㅜ": 2219,
      "ㄱㅣㅇㅓㄱ": 2220,
      "ㅇㅛㄱㅜ": 2221,
      "ㅡㅁㅕㄴ</w>": 2222,
      "ㄱㅏㄱㅗ</w>": 2223,
      "ㄱㅓㄹㅐ": 2224,
      "ㅈㅜㄱㅗ</w>": 2225,
      "ㅋㅣㅇ</w>": 2226,
      "ㅂㅜㅂㅜㄴ</w>": 2227,
      "ㅂㅐㄴ": 2228,
      "ㅅㅗㄹㅡㄹ</w>": 2229,
      "ㄱㅘㅇㅢ</w>": 2230,
      "ㅁㅏㄹㅆㅡㅁ": 2231,
      "ㅆㄷㅏㄱㅗ</w>": 2232,
      "ㄱㅡㄹㅇㅡㄹ</w>": 2233,
      "ㅇㅕㄱㅎㅏㄹ": 2234,
      "kr</w>": 2235,
      "ㄷㅐㅎㅏㄱㄱㅛ</w>": 2236,
      "ㄴㅏㅇㅘ": 2237,
      "ㅇㅝㄴㅇㅣ</w>": 2238,
      "ㅎㅏㅅㅣㅂㅅㅣㅇㅗ</w>": 2239,
      "ㅁㅓㄹ": 2240,
      "ㄷㅗㅇㅜㅁㅇㅣ</w>": 2241,
      "199": 2242,
      "ㄷㅐㅅㄱㅡㄹ</w>": 2243,
      "ㅇㅜㄹㅣㅇㅢ</w>": 2244,
      "ㅅㅏㅇㅓㅂ</w>": 2245,
      "ㄹㅗㅅ": 2246,
      "ㅅㅏㄹㅏㅁㅇㅡㄴ</w>": 2247,
      "ㄸㅜ": 2248,
      "ㄱㅣㅇㅢ</w>": 2249,
      "ㅅㅜㅈㅜㄴ": 2250,
      "ㄱㅜㄱㄱㅏ": 2251,
      "ㅇㅇㅡㄹ</w>": 2252,
      "ㅈㅡㄹㄱㅓ": 2253,
      "ㅅㅣㅍㅇㅡㄴ</w>": 2254,
      "km</w>": 2255,
      "ㅎㅏㄹㅜ": 2256,
      "ㅎㅚㅅㅏ</w>": 2257,
      "ㅎㅐㅇㄷㅗㅇ": 2258,
      "ㅂㅜㄱㅎㅏㄴ": 2259,
      "ㄱㅏㅈㅣㄴ</w>": 2260,
      "ㅍㅡㄹㄹㅔㅇㅣ": 2261,
      "ㅂㅏㄷㄴㅡㄴ</w>": 2262,
      "ㅅㅡㅍㅗㅊㅡ": 2263,
      "ㄸㅏㄹㅡㄴ</w>": 2264,
      "Por": 2265,
      "ㅇㅢㄹㅛ": 2266,
      "2ㄴㅕㄴ</w>": 2267,
      "ㅈㅜㅁㅜㄴ": 2268,
      "ㅇㅗㄴㄹㅏㅇㅣㄴ</w>": 2269,
      "ㄱㅡㄹㅜㅂ</w>": 2270,
      "3ㄴㅕㄴ</w>": 2271,
      "ㅊㅓㅁ": 2272,
      "ㅎㅕㅇㅌㅐ": 2273,
      "ㅈㅏㄷㅡㄹㅇㅣ</w>": 2274,
      "ㄱㅘㄴㅅㅣㅁ": 2275,
      "ㅇㅣㅆㄱㅣ</w>": 2276,
      "ㄹㅐ</w>": 2277,
      "ㅅㅡㅂㄴㅣㄲㅏ</w>": 2278,
      "ㅂㅜㅅㅡㅌㅏ": 2279,
      "ㅅㅜㅇㅢ</w>": 2280,
      "ㅈㅓㅇㅂㅗㅇ": 2281,
      "com": 2282,
      "ㅅㅣㅁㅣㄴ": 2283,
      "ㅇㅝㄴㅇㅢ</w>": 2284,
      "ㅇㅏㅇㅑ</w>": 2285,
      "ㄷㅏㅇㅡㅁㄱㅘ</w>": 2286,
      "ㅍㅡㄹㅏㅇ": 2287,
      "ㅁㅜㄴㅎㅘ</w>": 2288,
      "vi": 2289,
      "ㅂㅜㅅㅡㅌㅏㅂㅣ": 2290,
      "6ㄴㅕㄴ</w>": 2291,
      "ㅇㅏㄶㄴㅡㄴㄷㅏ</w>": 2292,
      "ㅇㅗㅎㅜ</w>": 2293,
      "ㅇㅣㄹㅇㅡㄴ</w>": 2294,
      "ㅇㅐㄱ</w>": 2295,
      "ㄴㅣㅅㅡ</w>": 2296,
      "ㅌㅜㅈㅏ": 2297,
      "ㄷㅓㄹㅏㄷㅗ</w>": 2298,
      "ㅎㅞ": 2299,
      "ㅇㅕㄴㄱㅜ</w>": 2300,
      "ㅇㅓㄹㅕ": 2301,
      "ㅂㅏㄹㅏㅁ": 2302,
      "ㄱㅗㅁㅣㄴ": 2303,
      "ㅅㅡㅇ</w>": 2304,
      "ㄴㅔㅌㅡㅇㅝ": 2305,
      "ㅁㅣㄹㅐ": 2306,
      "uc": 2307,
      "ㅈㅓㅇㅇㅢ</w>": 2308,
      "ㅈㅗㅈㅣㄱ": 2309,
      "ㅂㅣㅁㅣㄹ": 2310,
      "ㅋㅓㄹ": 2311,
      "ㅊㅚㄱㅗㅇㅢ</w>": 2312,
      "ㅂㅜㄹㅍㅕㄴ": 2313,
      "ㅅㅏㅇㄷㅏㅇ": 2314,
      "ㅋㅏㅈㅣㄴㅗ</w>": 2315,
      "ㅊㅘㄹ": 2316,
      "ㅇㅗㄹㄹㅏ": 2317,
      "ㅅㅡㅌㅗ": 2318,
      "ㅁㅏㄴㅎㅏㄴ</w>": 2319,
      "en</w>": 2320,
      "ㄷㅐㅎㅏㄱ</w>": 2321,
      "ㅅㅏㅇㅇㅢ</w>": 2322,
      "ㄷㅡㅇㅇㅔ</w>": 2323,
      "ㄱㅏㅄ": 2324,
      "ㅈㅓㄴㅊㅔ": 2325,
      "ㅈㅏㅇㅇㅔㅅㅓ</w>": 2326,
      "00</w>": 2327,
      "ㅎㅡㄴ": 2328,
      "ㅁㅏㄴㄷㅡㄹㅇㅓ</w>": 2329,
      "ㄷㅏㅇㅅㅣ</w>": 2330,
      "ㅇㅣㄴㄷㅏ</w>": 2331,
      "htt": 2332,
      "ㅈㅏㅇㅘ</w>": 2333,
      "ㅊㅐㄱㅇㅡㄹ</w>": 2334,
      "ㅎㅜㅇㅔ</w>": 2335,
      "ㅍㅏㅇㅣㄹ</w>": 2336,
      "ㅎㅐㅆㅈㅣㅁㅏㄴ</w>": 2337,
      "ㅁㅓㅅ": 2338,
      "ㅇㅚㄱㅜㄱ": 2339,
      "ㄲㅔㅅㅓ</w>": 2340,
      "ㄴㅜㄱㅜㄴ": 2341,
      "ㄴㅓㄹ</w>": 2342,
      "ㅅㅏㅇㅍㅜㅁㅁㅕㅇ</w>": 2343,
      "ㄱㅗㅇㅛ</w>": 2344,
      "ㅇㅣㅆㅈㅣ</w>": 2345,
      "ㅅㅏㅇㅛㅇㅎㅏㄴㅡㄴ</w>": 2346,
      "ㅇㅏㅁㅜㄹ": 2347,
      "ㅇㅣㅈㅔ": 2348,
      "ㄹㅣㅇㅏ</w>": 2349,
      "ㅡㅁㅇㅡㄹ</w>": 2350,
      "ㅇㅟㄴ": 2351,
      "ut": 2352,
      "ㅇㅏㄴㅐ": 2353,
      "ㅈㅔㄹㅡㄹ</w>": 2354,
      "ㅂㅜㄹㅂㅓㅂ": 2355,
      "ㅂㅗㄷㅏㄴㅡㄴ</w>": 2356,
      "ㅂㅡㄹㄹㅗㄱㅡ</w>": 2357,
      "ㅇㅝㄴㅎㅏㄴㅡㄴ</w>": 2358,
      "ㄱㅕㅇㅈㅔ</w>": 2359,
      "os": 2360,
      "ㅏㄹ</w>": 2361,
      "ㅇㅏㅇㅣㄷㅣ": 2362,
      "ㅅㅓㄴㅇㅡㄹ</w>": 2363,
      "ㅈㅓㄴㅈㅏ": 2364,
      "ㄱㅕㅇㅇㅜㅇㅔㄴㅡㄴ</w>": 2365,
      "ㅈㅔㅈㅏㄱ": 2366,
      "ㅅㅏㅁㅅㅓㅇ": 2367,
      "ㅌㅏㅁ": 2368,
      "ㅂㅐㄱ</w>": 2369,
      "ㅂㅔㄴ": 2370,
      "ㅋㅡㄹㅗ": 2371,
      "ㅇㅣㄱㅣ</w>": 2372,
      "ㅎㅏㄷㅗㄹㅗㄱ</w>": 2373,
      "ㄷㅣㅇㅗ</w>": 2374,
      "ㅇㅣㅇㅑㄱㅣ": 2375,
      "at</w>": 2376,
      "ㅇㅣㅈㅣㅁㅏㄴ</w>": 2377,
      "ㅅㅏㅎㅏㅇ</w>": 2378,
      "ㅎㅓㅁㅇㅡㄹ</w>": 2379,
      "ㅇㅏㅍㅇㅡㄹㅗ</w>": 2380,
      "ㅇㅖㅇㅑㄱ": 2381,
      "ㅈㅣㅅㅗㄱ": 2382,
      "ㄹㄹㅗ": 2383,
      "ㅂㅗㅇㅏ": 2384,
      "ㅍㅡㄹㄹㅓ": 2385,
      "ㅊㅓㄹ</w>": 2386,
      "ㄱㅏㄴㅇㅢ</w>": 2387,
      "ㄱㅣㄴ": 2388,
      "ㄷㅟ</w>": 2389,
      "ㅎㅕㄴㅅㅣㄹ": 2390,
      "ㄹㅗㄹ": 2391,
      "ㄱㅖㅎㅚ": 2392,
      "ㅕㄱ</w>": 2393,
      "ㄱㅏㄲㅏㅇ": 2394,
      "ㅈㅡㄱㅅㅣ</w>": 2395,
      "ㅈㅓㅇㅇㅣ</w>": 2396,
      "://</w>": 2397,
      "ㄴㅓㄹ": 2398,
      "ㅇㅣㄴㅌㅓㄴㅔㅅ": 2399,
      "ㅈㅣㄴㄷㅏ</w>": 2400,
      "ㄷㅣㅈㅏㅇㅣㄴ</w>": 2401,
      "ㅁㅏㄴㄷㅡㄴ</w>": 2402,
      "ㅈㅜㅇㅇㅏㅇ": 2403,
      "ㄷㅚㅇㅓ": 2404,
      "ㅁㅔㄴ": 2405,
      "ㅇㅏㄹㅐ</w>": 2406,
      "ㅇㅏㄶㅇㅏㅆㄷㅏ</w>": 2407,
      "ㄱㅏㅁㅇㅡㄹ</w>": 2408,
      "ㄷㅚㅁㅕ</w>": 2409,
      "ㅅㅓㄹㅡㄹ</w>": 2410,
      "ㅈㅏㅅㅔㅎㅏㄴ</w>": 2411,
      "ㄱㅐㄹㄹㅓ": 2412,
      "20</w>": 2413,
      "ㅉㅓ": 2414,
      "ㅁㅓㄴㅣ": 2415,
      "ㅅㅡㅋㅣ": 2416,
      "ㄱㅜㄱㄴㅐ": 2417,
      "ㄱㅔㅆㄷㅏ</w>": 2418,
      "ㄱㅗㅇㄷㅗㅇ": 2419,
      "ㅎㅏㄱㅔㅆㅅㅡㅂㄴㅣㄷㅏ</w>": 2420,
      "ㅈㅓㄻ": 2421,
      "ㅃㅜㄴㅁㅏㄴ</w>": 2422,
      "ㄷㅙ</w>": 2423,
      "ㄼㅇㅡㄴ</w>": 2424,
      "ㄷㅣㅈㅏㅇㅣㄴ": 2425,
      "ㄹㅗㄴㅡㄴ</w>": 2426,
      "ㅏㄱㅗ</w>": 2427,
      "ㅅㅡㅍㅗㅊㅡ</w>": 2428,
      "ㅂㅏㄷㅇㅏ": 2429,
      "ㅇㅗㄹ</w>": 2430,
      "ㄹㅣㅇㅢ</w>": 2431,
      "ㄴㅏㅇㅣ": 2432,
      "ster</w>": 2433,
      "ㅅㅏㅈㅓㄴ</w>": 2434,
      "ㄱㅡㄹㅐㄷㅗ</w>": 2435,
      "ㄱㅣㄴㅡㅇ</w>": 2436,
      "ㄱㅏㅅㅓ</w>": 2437,
      "60": 2438,
      "ㅇㅕㅇㅅㅏㅇ": 2439,
      "ㅇㅣㅂㄹㅕㄱ": 2440,
      "ㅂㅏㄺㅎㅕㅆㄷㅏ</w>": 2441,
      "ㄷㅡㄹㅣㄱㅔㅆㅅㅡㅂㄴㅣㄷㅏ</w>": 2442,
      "ㄱㅓㅂㄴㅣㄷㅏ</w>": 2443,
      "ㅎㅗㅁㅍㅔㅇㅣㅈㅣ</w>": 2444,
      "ㄹㅣㄹ</w>": 2445,
      "ㅅㅣㄱㅣ</w>": 2446,
      "ㅅㅣㅈㅡㄴ</w>": 2447,
      "ㅁㅕㅇㅇㅖ": 2448,
      "ㄸㅡㅅ": 2449,
      "ㅇㅣㅆㅇㅓㅇㅛ</w>": 2450,
      "ㄴㅕㄴㅇㅔ</w>": 2451,
      "ㅍㅣㄱ": 2452,
      "ㄱㅏㅇㅜㄴㄷㅔ</w>": 2453,
      "ㅅㅐㅇㄱㅏㄱㅇㅣ</w>": 2454,
      "ㅇㅏㄴㅣㄴ": 2455,
      "ㅂㅡ": 2456,
      "ㅈㅝ": 2457,
      "ㄹㅣㄱ": 2458,
      "ㅇㅐ</w>": 2459,
      "Ch": 2460,
      "ㅅㅓㄴㅅㅜ": 2461,
      "ㄱㅏㄴㄷㅏㄴ": 2462,
      "ㅂㅣㅅㅡ": 2463,
      "ㅍㅡㄹㄹㅔ": 2464,
      "ㅁㅗㅅㅡㅂㅇㅡㄹ</w>": 2465,
      "ay</w>": 2466,
      "ㅇㅣㄴㅈㅓㅇ": 2467,
      "ㅊㅡㅇ": 2468,
      "ㄱㅐㅇㅣㄴ</w>": 2469,
      "ㅅㅓㅇㅈㅏㅇ": 2470,
      "ex": 2471,
      "80": 2472,
      "ㅍㅕㅇㄱㅏ": 2473,
      "ㅅㅜㅈㅓㅇ</w>": 2474,
      "ㅇㅏㅇㅜ": 2475,
      "18</w>": 2476,
      "ul": 2477,
      "ㅇㅣㅆㄷㅏㅁㅕㄴ</w>": 2478,
      "ㄴㅐㅇㅛㅇㅇㅡㄴ</w>": 2479,
      "ㅇㅔㄴㅓ": 2480,
      "ㄷㅚㄹ": 2481,
      "ㅅㅏㄱㅓㄴ": 2482,
      "ㅎㅚㅇㅢ": 2483,
      "ㄱㅣㄴㅡㅇㅇㅡㄹ</w>": 2484,
      "ㅎㅏㄹㅜ</w>": 2485,
      "ㅅㅔㄴㅌㅓ": 2486,
      "ㄱㅘㅇ</w>": 2487,
      "ㅅㅓㄴㅅㅐㅇ": 2488,
      "ㄷㅣㅈㅣ": 2489,
      "ㅇㅓㅂㅊㅔ": 2490,
      "ㅂㅕㄹㄹㅗ</w>": 2491,
      "ㅈㅓㅇㅊㅐㄱ</w>": 2492,
      "ㄱㅡㄹㄹㅗ": 2493,
      "ㅈㅓㄷㅗ</w>": 2494,
      "ㅎㅡㄱ": 2495,
      "ㄱㅏㅁㄷㅗㄱ": 2496,
      "ㅈㅓㅁㅇㅡㄴ</w>": 2497,
      "ㅅㅓㅇㅢ</w>": 2498,
      "ㄱㅜㄹㅡㄹ</w>": 2499,
      "ㅁㅗㅁ": 2500,
      "ㅎㅘㄹ</w>": 2501,
      "ㅁㅏㄴㄷㅡㄴㅡㄴ</w>": 2502,
      "ㅈㅓㄴㅇㅡㄹ</w>": 2503,
      "ㅂㅏㄴㄷㅡ": 2504,
      "ㄷㅠ": 2505,
      "ㅎㅐㅇㅈㅓㅇ": 2506,
      "ㅝㄹ": 2507,
      "ㅎㅐㅇㅛ</w>": 2508,
      "ㅊㅏㄶ": 2509,
      "ㅊㅏㅈㅇㅏ": 2510,
      "ㅌㅓㄹ": 2511,
      "ㅈㅓㄴㅎㅘ": 2512,
      "ㅋㅏㅁㅔ": 2513,
      "ter": 2514,
      "ㄱㅏㄱㅕㄱ</w>": 2515,
      "ㅂㅗㅇㅣㄴㅡㄴ</w>": 2516,
      "ㅎㅏㄴㄷㅏㅁㅕㄴ</w>": 2517,
      "ㄷㅗㅇㅇㅕㅇㅅㅏㅇ</w>": 2518,
      "ㅇㅏㄹㅡㅁㄷㅏㅇㅜㄴ</w>": 2519,
      "ㅇㅣㅆㅇㅡㄹ": 2520,
      "ㅆㄷㅏㄴㅡㄴ</w>": 2521,
      "An": 2522,
      "23": 2523,
      "15</w>": 2524,
      "ㄱㅡㅁㅇㅠㅇ": 2525,
      "ㄷㅡㄹㅓ": 2526,
      "ㅇㅖ</w>": 2527,
      "ㅋㅡㄹㄹㅓ": 2528,
      "ㅅㅡㄹㅓㅂ": 2529,
      "ㅇㅣㄴㅎㅐ</w>": 2530,
      "::</w>": 2531,
      "ㅇㅣㄴㅐ": 2532,
      "ㅈㅣㅅ": 2533,
      "Re": 2534,
      "ㄷㅗㅇㅇㅣㄹ": 2535,
      "ㄱㅣㅂㅗㄴ</w>": 2536,
      "ㄴㅏㄹㅡㄹ</w>": 2537,
      "ㅅㅣㄹㅈㅔ</w>": 2538,
      "ㅈㅜㅇㅛ</w>": 2539,
      "ㅎㅏㅇㅣ": 2540,
      "ㅁㅗㄹ</w>": 2541,
      "ㅔㅇㅣㄹ</w>": 2542,
      "ㅁㅜㄹㅇㅣ</w>": 2543,
      "4ㄴㅕㄴ</w>": 2544,
      "ㄱㅗㄹㅕ": 2545,
      "ㅇㅣㅅㅏㅇㅇㅢ</w>": 2546,
      "ㅁㅏㅈㅣㅁㅏㄱ</w>": 2547,
      "ㅎㅏㅅㅣㄴㅡㄴ</w>": 2548,
      "ㅂㅜㅈㅗㄱ": 2549,
      "ㅈㅓㅇㄷㅗㄹㅗ</w>": 2550,
      "ㅅㅗㄱㅇㅔ</w>": 2551,
      "ㅁㅏㅋㅔㅌㅣㅇ</w>": 2552,
      "ㅇㅓㄹㄱㅜㄹ": 2553,
      "ㅅㅜㅎㅐㅇ": 2554,
      "ㄹㅑㅇ</w>": 2555,
      "ㅇㅡㄹㅗㅆㅓ</w>": 2556,
      "ㅂㅏㄴㄷㅡㅅㅣ</w>": 2557,
      "ㅇㅣㄴㅇㅡㄴ</w>": 2558,
      "ㄹㅏㄱ</w>": 2559,
      "2018ㄴㅕㄴ</w>": 2560,
      "TA": 2561,
      "ㄷㅡㅇㅢ</w>": 2562,
      "28": 2563,
      "ㅃㅐ": 2564,
      "ㅁㅗㄱㅈㅓㄱ": 2565,
      "ㄱㅜㅈㅗ": 2566,
      "ㄱㅜㄱㅇㅢ</w>": 2567,
      "ㅇㅡㄹㅗㄷㅗ</w>": 2568,
      "ㅍㅣㅎㅐ": 2569,
      "ㅈㅏㄷㅗㅇㅊㅏ</w>": 2570,
      "ㅇㅞㅂ</w>": 2571,
      "ww": 2572,
      "ㄴㅕㅇ": 2573,
      "ㄱㅡㄷㅐㄹㅗ</w>": 2574,
      "ㅍㅣㄱ</w>": 2575,
      "ㅁㅗㄱㅍㅛ": 2576,
      "27": 2577,
      "ㅈㅏㅅㅣㄴㅇㅣ</w>": 2578,
      "ㅇㅓㅇㄷㅓ": 2579,
      "ㅈㅐㄱㅏ</w>": 2580,
      "ㅇㅓㅆㄷㅓㄴ</w>": 2581,
      "ㅅㅜㅅㅜㄹ": 2582,
      "ㅅㅜㅁ": 2583,
      "ㅇㅛㅊㅓㅇ": 2584,
      "ㅁㅏㄴㅇㅢ</w>": 2585,
      "ㅆㅡㄱㅣ</w>": 2586,
      "ㅅㅣㄹㅈㅔㄹㅗ</w>": 2587,
      "ㄷㅡㄹㅏ": 2588,
      "ㄱㅕㅇㅊㅏㄹ": 2589,
      "ㄹㅣㅇ</w>": 2590,
      "ve</w>": 2591,
      "ㅇㅈㅏㅇ": 2592,
      "ㅁㅗㅅㅎㅏㄴ</w>": 2593,
      "ㅂㅜㅌㅓ": 2594,
      "ㅗㄴㅡㄴ</w>": 2595,
      "ㄹㅣㅁ</w>": 2596,
      "ㅅㅣㅇㅔㄴㅡㄴ</w>": 2597,
      "ㄱㅓㄹㅣ</w>": 2598,
      "ㅇㅡㅁㅇㅏㄱ": 2599,
      "ㅈㅏㅇㅇㅢ</w>": 2600,
      "ㅂㅣㅇㅛㅇ": 2601,
      "ㄱㅖㅇㅑㄱ": 2602,
      "26": 2603,
      "ㄷㅣㅅㅡ": 2604,
      "ㅁㅣㄹㄹㅣ": 2605,
      "ㅍㅏㄴㄷㅏㄴ": 2606,
      "ㅇㅣㄹㅜㅇㅓ": 2607,
      "ㄲㅕ": 2608,
      "The</w>": 2609,
      "ㅇㅕㅇㅇㅓ</w>": 2610,
      "13</w>": 2611,
      "ㄷㅡㄹㅇㅔ</w>": 2612,
      "ㅇㅣㄹㅡㅁ</w>": 2613,
      "ㅌㅡㄴ": 2614,
      "ㅈㅏㄹㅗ</w>": 2615,
      "ㅋㅓ</w>": 2616,
      "ㄱㅘㅈㅓㅇ</w>": 2617,
      "ㅇㅕㄴㄹㅏㄱ": 2618,
      "ㄹㅕㅆㄷㅏ</w>": 2619,
      "ㄱㅘㅇㄱㅗ": 2620,
      "ㅇㅣㅇㅑㄱㅣㄹㅡㄹ</w>": 2621,
      "ㄱㅏㅂㄴㅣㄷㅏ</w>": 2622,
      "ㄷㅐㅎㅐㅅㅓ</w>": 2623,
      "ㅌㅡㄱㅈㅓㅇ</w>": 2624,
      "ㅎㅘㅈㅏㅇ": 2625,
      "ㅈㅣㄱㅇㅝㄴ": 2626,
      "ㅇㅣㄴㅌㅓㅂ": 2627,
      "ㅈㅓㅈㅏㅇ": 2628,
      "ㅇㅗㄹㅎㅐ</w>": 2629,
      "ㄷㅐㅍㅛ</w>": 2630,
      "ㄷㅐㅂㅜㅂㅜㄴ": 2631,
      "ㅅㅡㅍㅔ": 2632,
      "ㄱㅗㅅㅇㅔ</w>": 2633,
      "ㅇㅖㅇㅑㄱ</w>": 2634,
      "ㅌㅡㄱㅏ</w>": 2635,
      "ㅈㅏㄱㅍㅜㅁ": 2636,
      "ㄴㅣㅇ</w>": 2637,
      "ㅊㅐ</w>": 2638,
      "ㅂㅜㄴㅈㅐㅇ": 2639,
      "im": 2640,
      "ㄷㅏㄴㄱㅖ": 2641,
      "ㅈㅓㄴㅎㅕ</w>": 2642,
      "ㅃㅡㄴ</w>": 2643,
      "ㅎㅕㄴㅈㅐ": 2644,
      "ㅊㅜㅇㅓ</w>": 2645,
      "ㅅㅓㅇㄱㅘ</w>": 2646,
      "ㅁㅗㄷㅔㄹ</w>": 2647,
      "ㅎㅏㄱㅅㅡㅂ": 2648,
      "ㅅㅡㅍㅣ": 2649,
      "ㅈㅓㅇㅊㅣ</w>": 2650,
      "ㅇㅣㄹㅇㅢ</w>": 2651,
      "ㄱㅗㅇㅂㅜ": 2652,
      "ㅊㅣㄱㅗ</w>": 2653,
      "ㄱㅓㅅㅇㅔ</w>": 2654,
      "ㅈㅣㄹㅁㅜㄴ": 2655,
      "ㅇㅣㄹㅂㅏㄴ</w>": 2656,
      "ㅅㅛㅍㅣㅇ": 2657,
      "ㅂㅜㄴㅇㅟ": 2658,
      "um": 2659,
      "el</w>": 2660,
      "ㅇㅕㅇㅎㅑㅇㅇㅡㄹ</w>": 2661,
      "ㅎㅐㅆㄷㅏㄱㅗ</w>": 2662,
      "14</w>": 2663,
      "ㄴㅡㅈ": 2664,
      "ㄱㅏㅊㅣ": 2665,
      "ㅁㅐㅇㅣㄹ</w>": 2666,
      "ㅌㅡㄴ</w>": 2667,
      "PC": 2668,
      "ㅁㅏㄴㅈㅗㄱ": 2669,
      "ㄱㅣㄹㅇㅡㄹ</w>": 2670,
      "ㄷㅡㄹㅗ</w>": 2671,
      "ㄱㅙㄴ": 2672,
      "ㄱㅐㅇㅣㄴㅈㅓㅇㅂㅗ</w>": 2673,
      "ㅐㄱ</w>": 2674,
      "ㅊㅣㄹ": 2675,
      "ㅂㅡㄹㄹ": 2676,
      "ㅂㅣㅈㅡ": 2677,
      "www</w>": 2678,
      "ㅇㅏㄴㅡㄴ</w>": 2679,
      "ㅂㅏㅇㅎㅑㅇ": 2680,
      "ㅅㅏㅇㅘ</w>": 2681,
      "ㅈㅔㅎㅏㄴ": 2682,
      "ㅇㅖㅅㅜㄹ": 2683,
      "ㅇㅣㄹㄷㅏㄴ</w>": 2684,
      "ㅅㅡㅌㅓ</w>": 2685,
      "ㅁㅔㅅㅣ": 2686,
      "ㄱㅡㄱㅓㅅㅇㅡㄴ</w>": 2687,
      "ㅇㅓㅄㄱㅗ</w>": 2688,
      "ㄱㅓㄱ": 2689,
      "ㅅㅐㅇㄱㅏㄱㅇㅡㄹ</w>": 2690,
      "ㅅㅏㄹㅏㅁㄷㅡㄹㅇㅡㄴ</w>": 2691,
      "ㄱㅏㄱㅈㅗㅇ</w>": 2692,
      "ㅂㅓㅅ": 2693,
      "ㅊㅜㄱ</w>": 2694,
      "ㄱㅕㄹㅎㅗㄴ": 2695,
      "ㄱㅏㅌㅇㅏㅇㅛ</w>": 2696,
      "ㄱㅏㅈㄱㅗ</w>": 2697,
      "ㅇㅑㄱㅇㅡㄹ</w>": 2698,
      "ㅂㅕㅇ</w>": 2699,
      "ㅇㅟㅊㅣㅎㅏㄴ</w>": 2700,
      "ㅇㅕㄹ</w>": 2701,
      "ㅌㅠ": 2702,
      "ㅈㅓㄴㅈㅏ</w>": 2703,
      "ㄱㅘㄴㄹㅕㄴㄷㅚㄴ</w>": 2704,
      "ㅎㅚㅇㅢ</w>": 2705,
      "ㄷㅡㄹㅗ": 2706,
      "ㅇㅢㄱㅕㄴ": 2707,
      "ㅂㅜㅁㅗ": 2708,
      "ㄴㅏㅂ": 2709,
      "ㅁㅏㅌ": 2710,
      "ㅂㅗㅅㅔㅇㅛ</w>": 2711,
      "ㄱㅕㄱㅇㅡㄹ</w>": 2712,
      "ㅡㄴㅗ</w>": 2713,
      "LE": 2714,
      "ㅊㅏㄹㅡㄹ</w>": 2715,
      "ㄱㅡㄹㅓㅁ": 2716,
      "ㅈㅜㅁㅣㄴ": 2717,
      "ㅇㅣㅁㅔㅇㅣㄹ</w>": 2718,
      "ㄹㅣㅂ</w>": 2719,
      "ㅂㅗㅎㅓㅁ</w>": 2720,
      "ㅇㅏㅁㅜ": 2721,
      "ㅂㅗㅇㅣㄴㄷㅏ</w>": 2722,
      "ㅈㅏㅈㅜ</w>": 2723,
      "ㅊㅣㄱ": 2724,
      "ㄴㅔㅅ": 2725,
      "ㄱㅘㅇㄱㅗ</w>": 2726,
      "ㄷㅗㅇㅅㅣㅇㅔ</w>": 2727,
      "ㅅㅡㅇㅟ": 2728,
      "ㅇㅕㄹㅓㅂㅜㄴ": 2729,
      "ㅆㅇㅓㅇㅛ</w>": 2730,
      "ㄷㅐㄹㅡㄹ</w>": 2731,
      "ㅁㄱㅘ</w>": 2732,
      "ㅎㅘㄱㅅㅣㄹ": 2733,
      "ㅋㅓㅁㅍㅠㅌㅓ</w>": 2734,
      "ㅈㅜㄹㅗ</w>": 2735,
      "ㄱㅏㅈㅗㄱ</w>": 2736,
      "ㄲㅏㄹ": 2737,
      "ㅅㅓㄴㅌㅐㄱ</w>": 2738,
      "ㅈㅏㅇㅇㅔ</w>": 2739,
      "ㅇㅏㄴㄴㅕㅇ": 2740,
      "ㅌㅓㄹ</w>": 2741,
      "ㄷㅏㅇㅜㄴㄹㅗㄷㅡ</w>": 2742,
      "ㅁㅏㅇㅡㅁㅇㅡㄹ</w>": 2743,
      "ay": 2744,
      "ㅇㅣㄷㅡ</w>": 2745,
      "ㅅㅡㅋㅡㄹㅣ": 2746,
      "ㅁㅓㄴㅣ</w>": 2747,
      "co</w>": 2748,
      "ㄱㅏㄱㅣ</w>": 2749,
      "ㅂㅐㅅㅗㅇ": 2750,
      "ㅌㅗㅌㅗ": 2751,
      "ㄷㅏㄴㅊㅔ": 2752,
      "ㅇㅡㄴㄷㅔ</w>": 2753,
      "ㅁㅗㄴ": 2754,
      "ㅎㅏㄱㅅㅐㅇ</w>": 2755,
      "ㅈㅗㄱㅡㅁ": 2756,
      "ㅇㅣㅆㅇㅓㅆㅅㅡㅂㄴㅣㄷㅏ</w>": 2757,
      "ㄷㅐㅎㅏㄴㅁㅣㄴㄱㅜㄱ</w>": 2758,
      "ㅁㅜㄴㅈㅔㄹㅡㄹ</w>": 2759,
      "por": 2760,
      "21": 2761,
      "ㅎㅘㅁㅕㄴ": 2762,
      "ㅋㅓㅁㅍㅠㅌㅓ": 2763,
      "ㄱㅡㅁㅇㅡㄹ</w>": 2764,
      "ㄷㅐㅎㅚ</w>": 2765,
      "ㄱㅣㅈㅜㄴ</w>": 2766,
      ".(</w>": 2767,
      "ㅈㅔㅈㅜ": 2768,
      "http</w>": 2769,
      "se": 2770,
      "ㅈㅣㄴㅉㅏ</w>": 2771,
      "ㄱㅘㄴㅇㅡㄹ</w>": 2772,
      "ㅂㅜㅌㅏㄱ": 2773,
      "ㅈㅓㅇㅂㅗㄱㅏ</w>": 2774,
      "ㅎㅐㅈㅣㄹ</w>": 2775,
      "ㅇㅐㄴ": 2776,
      "ㅃㅜㄴ</w>": 2777,
      "ㄷㅗㄴㅡㄴ</w>": 2778,
      "ㅎㅘㄴㄱㅕㅇ</w>": 2779,
      "ㅇㅡㅁㅇㅏ": 2780,
      "ㅎㅏㅅㅣㅁㅕㄴ</w>": 2781,
      "pl": 2782,
      "ㅌㅔㄱ": 2783,
      "ma": 2784,
      "ㄱㅗㄴ": 2785,
      "ㅇㅣㄹㅂㅜㅌㅓ</w>": 2786,
      "12ㅇㅝㄹ</w>": 2787,
      "ㅎㅡㅂ": 2788,
      "ing": 2789,
      "ㄱㅛㅎㅚ</w>": 2790,
      "ㅇㅜㅁㅈㅣㄱ": 2791,
      "ㅈㅓㅇㅂㅜ</w>": 2792,
      "ㅍㅗㄹㅡㄴㅗ</w>": 2793,
      "ㅂㅏㅇㅅㅗㅇ</w>": 2794,
      "ㅅㅜㄹㅗㄱ</w>": 2795,
      "ㅂㅜㅅㅏㄴ": 2796,
      "ㅇㅛㅅㅗ</w>": 2797,
      "ㅅㅣㄹㅎㅐㅇ": 2798,
      "ㅇㅕㅈㅏ": 2799,
      "ㅅㅏㄹㅍㅕ": 2800,
      "ㅌㅡㄴㅡㄴ</w>": 2801,
      "ㅂㅏㄷㅏ": 2802,
      "de</w>": 2803,
      "ㅅㅕㄴㅇㅡㄹ</w>": 2804,
      "ㅡㄱㅗ</w>": 2805,
      "ㄴㅕㅁ</w>": 2806,
      "ㅂㅗㅈㅡㅇ": 2807,
      "ㅎㅐㅆㅇㅡㄹ</w>": 2808,
      "ㅊㅣㄴㄱㅜ</w>": 2809,
      "ㅂㅗㅇㅠ": 2810,
      "ㄹㅏㅇㅣㅂ": 2811,
      "ㅂㅏㅇㅂㅓㅂㅇㅡㄹ</w>": 2812,
      "ㅇㅏㅅㅣㅇㅏ</w>": 2813,
      "ㅏㅇ</w>": 2814,
      "16</w>": 2815,
      "ㅇㅓㅄㅇㅓㅆㄷㅏ</w>": 2816,
      "ㅇㅏㄵ": 2817,
      "res": 2818,
      "ㅇㅛㅈㅡㅁ</w>": 2819,
      "ㄷㅏㄴㅈㅣ</w>": 2820,
      "ㄷㅐㅇㅢ</w>": 2821,
      "ㅇㅔㅇㅛ</w>": 2822,
      "ㅁㅕㅇㅎㅏㄴ</w>": 2823,
      "US": 2824,
      "ㅡㄹㅡㄹ</w>": 2825,
      "ㅍㅓ</w>": 2826,
      "ind": 2827,
      "ㄱㅜㅇㅣㅂ": 2828,
      "ㅇㅣㅇㅠ</w>": 2829,
      "ㅁㅏㄴㄷㅡㄹㄱㅣ</w>": 2830,
      "ㅇㅏㅇㅢ</w>": 2831,
      "ㄴㅡㄲㅕ": 2832,
      "ㅇㅝㄴㅇㅡㄴ</w>": 2833,
      "ㄴㅏㅁㅈㅏ</w>": 2834,
      "ㅁㅇㅡㄹㅗ</w>": 2835,
      "ㅇㅣㅇㅠㄴㅡㄴ</w>": 2836,
      "ㅍㅣㄹㅇㅛㄱㅏ</w>": 2837,
      "ㅎㅏㄷㅏㄱㅗ</w>": 2838,
      "ㅍㅔㅇㅣㅈㅣ": 2839,
      "ㄱㅣㅁ</w>": 2840,
      "ㅁㅜㅅㅡㄴ</w>": 2841,
      "ㅇㅖㅅㅏㅇ": 2842,
      "ㅎㅘㄹㄷㅗㅇ</w>": 2843,
      "ㄱㅕㅇㅇㅜㄱㅏ</w>": 2844,
      "ㅎㅏㄷㅓㄴ</w>": 2845,
      "ㅈㅓㄴㅁㅜㄴ</w>": 2846,
      "ㄹㅣㄱㅡ</w>": 2847,
      "ㅇㅗㅈㅓㄴ</w>": 2848,
      "ㄴㅏㄱ": 2849,
      "ㄹㅚ": 2850,
      "ㅇㅓㄹㅕㅂ": 2851,
      "ㄱㅛㅂㅗ": 2852,
      "ㅅㅏㄹㅇㅏ": 2853,
      "ㄴㅣㅁㅇㅣ</w>": 2854,
      "ㄱㅗㅇㅑㅇ": 2855,
      "ㅇㅟㅎㅐㅅㅓ</w>": 2856,
      "ㅈㅔㅇㅚ": 2857,
      "ㅅㅓㄹㅊㅣ</w>": 2858,
      "4ㅇㅝㄹ</w>": 2859,
      "29": 2860,
      "ㄱㅏㅇㅢ</w>": 2861,
      "ㅂㅕㄴㄱㅕㅇ</w>": 2862,
      "ㅅㅣㅇㅏ</w>": 2863,
      "25</w>": 2864,
      "ㄷㅡㄱ</w>": 2865,
      "ㅎㅜㄱㅣ</w>": 2866,
      "ㅊㅣㅇ": 2867,
      "ㄱㅓㄹㄹㅣ": 2868,
      "ㅁㅝㄴ": 2869,
      "ㄹㅗㅂㄱㅔ</w>": 2870,
      "ㄹㅓㄴ</w>": 2871,
      "ㅌㅡㄱㅂㅕㄹㅎㅏㄴ</w>": 2872,
      "ㅎㅏㅁㅇㅡㄹ</w>": 2873,
      "ㅎㅏㄱㅣㄷㅗ</w>": 2874,
      "ㅇㅗㄹㄹㅣㅁ": 2875,
      "ㅇㅕㅇㅑ</w>": 2876,
      "ㅇㅣㄹㅏㅁㅕㄴ</w>": 2877,
      "ㅍㅗㅎㅏㅁ</w>": 2878,
      "ㅅㅏㅇㅇㅣ</w>": 2879,
      "ㅁㅓㄹㅣ</w>": 2880,
      "ㅇㅣㅁㅕㄴ</w>": 2881,
      "ㅈㅏㅇㅔ</w>": 2882,
      "ㅋㅠ": 2883,
      "ㅅㅗㅍㅡㅌㅡㅇㅞ": 2884,
      "ㄷㅏㄴㅅㅜㄴ": 2885,
      "ㅅㅓㅂ": 2886,
      "ㅃㅗ": 2887,
      "ㅅㅗㄱㅇㅔㅅㅓ</w>": 2888,
      "ㄹㄹㅔ": 2889,
      "ㅈㅓㅁㅇㅔㅅㅓ</w>": 2890,
      "ㅅㅐㅇㅎㅘㄹ</w>": 2891,
      "ㅇㅓㄴㅏㄴ</w>": 2892,
      "ㅎㅏㄴㅏㅇㅢ</w>": 2893,
      "ㄸㅏㄹㅡㅁㅕㄴ</w>": 2894,
      "ㅅㅗㅅㅕㄹㄱㅡㄹㅐㅍㅡ": 2895,
      "ㅊㅏㄹ</w>": 2896,
      "ㅋㅡㄹㄹㅣㄱ": 2897,
      "ㅊㅏㄱ</w>": 2898,
      "ㅅㅗㄱㅐ</w>": 2899,
      "ㅊㅜㄴ": 2900,
      "ㅎㅐㄴ": 2901,
      "ㅇㅢㅎㅐㅅㅓ</w>": 2902,
      "amster</w>": 2903,
      "TV": 2904,
      "ㅠㄴㅣ": 2905,
      "ㅎㅠㄷㅐ": 2906,
      "ㅈㅐㅇ</w>": 2907,
      "ㅇㅢㅎㅏㄴ</w>": 2908,
      "ㄱㅜㅁㅐㅎㅏㄴ</w>": 2909,
      "ㅌㅗㅇㅎㅏㄴ</w>": 2910,
      "ㅊㅓㅇㅅㅗㄴㅕㄴ": 2911,
      "ㅈㅏㅇㅝㄴ": 2912,
      "ㄷㅏㄹㄹㅏ": 2913,
      "ㅁㅏㅈㅊㅜ": 2914,
      "ㅇㅣㅈㅣ</w>": 2915,
      "ㅇㅔㅇㅣㅈㅓㄴ": 2916,
      "ㅅㅓㅁ": 2917,
      "ㅇㅏㅈㅣㄱ": 2918,
      "ㅈㅣㅂㅈㅜㅇ": 2919,
      "ㄱㅠㄴ": 2920,
      "ㅁㅏㄴㅇㅣ</w>": 2921,
      "05</w>": 2922,
      "ㄷㅏㅂㅂㅕㄴ": 2923,
      "ㄹㅕㄱㅗ</w>": 2924,
      "ㄴㅡㄴㄷㅔㅇㅛ</w>": 2925,
      "ㄷㅓㄹㅏ": 2926,
      "ㄱㅐㅅㅓㄴ": 2927,
      "ㄷㅗㄹㅇㅏㅇ": 2928,
      "ㄷㅏㅇㅅㅣㄴㅇㅢ</w>": 2929,
      "ㅍㅡㄹㄹㅣ": 2930,
      "ㄹㅗㅂㅜㅌㅓ</w>": 2931,
      ".[</w>": 2932,
      "ㅇㅏㅊㅣㅁ</w>": 2933,
      "ㅇㅣㅆㄷㅓㄴ</w>": 2934,
      "ㅅㅏㄹㅖ": 2935,
      "ㅂㅗㅂㄴㅣㄷㅏ</w>": 2936,
      "ㄱㅝㄴㅇㅡㄹ</w>": 2937,
      "ㅇㅕㄱㅅㅏ": 2938,
      "ㅅㅣㄴㅊㅓㅇ</w>": 2939,
      "ㅈㅐㅅㅐㅇ": 2940,
      "ㅇㅖㅅㅜ": 2941,
      "ㅈㅔㄱㅗㅇㅎㅏㄴㅡㄴ</w>": 2942,
      "ㅇㅣㅈㅛ</w>": 2943,
      "ㄷㅡㄹㅇㅣㅂㄴㅣㄷㅏ</w>": 2944,
      "ion": 2945,
      "ㅇㅏㄷㅗㅇ": 2946,
      "ㅂㅜㄹ</w>": 2947,
      "ㅁㅓㄱㅇㅡㄹ</w>": 2948,
      "ㄱㅔㅆㅈㅣㅁㅏㄴ</w>": 2949,
      "ㅇㅗㅎㅣ": 2950,
      "ㅍㅕㄴㅈㅣㅂ</w>": 2951,
      "ㅂㅐㅇㅜ</w>": 2952,
      "ㅜㄹㅡㄹ</w>": 2953,
      "ㅅㅣㅁㅎㅣ</w>": 2954,
      "ㅇㅣㅆㅇㅡ": 2955,
      "',</w>": 2956,
      "ㅅㅡㅇㅔ</w>": 2957,
      "ㅎㅘㄱㅇㅣㄴㅎㅏㄹ</w>": 2958,
      "ㄱㅠ</w>": 2959,
      "ㅁㅠ": 2960,
      "ㅗㅇㅢ</w>": 2961,
      "ㅇㅗㅎㅣㄹㅕ</w>": 2962,
      "oc": 2963,
      "ㅊㅏㅇ</w>": 2964,
      "ㅌㅏㄴ</w>": 2965,
      "ㅇㅣㄴㄱㅗㅇ": 2966,
      "ㅌㅗㅌㅗ</w>": 2967,
      "ㅂㅜㄷㅗㅇ": 2968,
      "ㅋㅓㅁㅠㄴㅣ": 2969,
      "ㅆㅏㅇ": 2970,
      "ㅅㅣㄴㅇㅛㅇ": 2971,
      "1ㅇㅝㄹ</w>": 2972,
      "ㅇㅣㄴㅅㅐㅇ": 2973,
      "ㅈㅓㅇㅇㅢ": 2974,
      "ㄱㅐㄱㅅㅣㄹ</w>": 2975,
      "ㅍㅕㄹ": 2976,
      "ㅌㅏㅂ": 2977,
      "ㅁㅏㄹㅇㅣ</w>": 2978,
      "ㅇㅏㄴㄴㅕㅇㅎㅏㅅㅔㅇㅛ</w>": 2979,
      "ㅈㅣㄴㅎㅐㅇ</w>": 2980,
      "ㅊㅣㅁㅎㅐ</w>": 2981,
      "ㅈㅣㄴㅣ": 2982,
      "ㅎㅏㄴㅏㄴㅣㅁㅇㅢ</w>": 2983,
      "ㄱㅣㄷㅏㄹㅣ": 2984,
      "ㅈㅗㅇㅎㅏㅂ": 2985,
      "ㅇㅓㅇㄷㅓㅇㅇㅣ</w>": 2986,
      "ㄷㅡㅇㅇㅡㄴ</w>": 2987,
      "ㅋㅣㅇ": 2988,
      "Sh": 2989,
      "ㄱㅜㅁㅐ</w>": 2990,
      "ㄹㅔㅅㅡㅌㅗㄹ": 2991,
      "ㅇㅟㅎㅓㅁ": 2992,
      "ㅈㅗㅇㄹㅠ": 2993,
      "ㅈㅓㅇㅇㅔ</w>": 2994,
      "ㅃㅏㄹㅡㄴ</w>": 2995,
      "ㅎㅘㄹㅅㅓㅇ": 2996,
      "ㅇㅕㅇㅇㅓ": 2997,
      "ㄹㅏㅁ": 2998,
      "ㅇㅣㅆㅇㅡㅁㅕㄴ</w>": 2999,
      "ㅇㅛㅇㅣㄹ</w>": 3000,
      "ㅊㅏㅁㄱㅏ": 3001,
      "ㅂㅓㄴㅎㅗ": 3002,
      "ㅇㅣㅈㅓㄴ</w>": 3003,
      "ㅈㅓㅂㄱㅡㄴ": 3004,
      "ㅈㅗㅎㅅㅡㅂㄴㅣㄷㅏ</w>": 3005,
      "ㅅㅏㄹㅏㅁㅇㅡㄹ</w>": 3006,
      "ㅈㅜㅂㅕㄴ": 3007,
      "ㅋㅗㄷㅡ</w>": 3008,
      "ㄴㅜㄴㅇㅔ</w>": 3009,
      "ㅈㅓㅇㄹㅣ": 3010,
      "ㄸㅗㄱ": 3011,
      "ㅈㅗㅅㅓㄴ": 3012,
      "ㅈㅏㄹㅁㅗㅅ": 3013,
      "ㄱㅙㄴㅊㅏㄶ": 3014,
      "ER": 3015,
      "ㅁㅏㄹㄹㅗ</w>": 3016,
      "ㅇㅣㅁㅣㅈㅣ</w>": 3017,
      "ㅇㅡㄴㅎㅐㅇ": 3018,
      "ㄱㅗㄷ</w>": 3019,
      "ㅅㅣㅈㅏㄱ</w>": 3020,
      "ㅊㅓㄱ": 3021,
      "ㅂㅓㅂㅈㅓㄱㅇㅣㄴ</w>": 3022,
      "ㅎㅏㄴㅍㅕㄴ</w>": 3023,
      "ㄹㅣㅂㅠ</w>": 3024,
      "ㅎㅏㅇㅜ": 3025,
      "ㅈㅜㅈㅏㅇ": 3026,
      "ㅅㅏㄹㅏㅁㅇㅢ</w>": 3027,
      "ㅈㅡㅇㄱㅏ": 3028,
      "ㄴㅜㄱㅜ": 3029,
      "ㅋㅏㅌㅔ": 3030,
      "ㅈㅗㅅㅏ</w>": 3031,
      "ㄷㅏㅁㄷㅏㅇ": 3032,
      "ㅈㅓㅇㅇㅡㄴ</w>": 3033,
      "ㄱㅡㄱㅏ</w>": 3034,
      "ㅍㅡㄹㅔ": 3035,
      "ㄱㅗㅇㄱㅕㄱ": 3036,
      "ㅎㅏㄱㄱㅘ</w>": 3037,
      "ㅇㅝㄹㄷㅡ": 3038,
      "?)</w>": 3039,
      "op": 3040,
      "ㄷㅡㄹㄱㅗ</w>": 3041,
      "ㅇㅏㄴㅣㅂㄴㅣㄷㅏ</w>": 3042,
      "ㅂㅏㄲㅟ": 3043,
      "ak": 3044,
      "ㅅㅣㅎㅓㅁ": 3045,
      "][</w>": 3046,
      "ㅁㅓㄱㄱㅗ</w>": 3047,
      "ㄹㅕㅁ": 3048,
      "ㄱㅛㅂㅗㅁㅜㄴ": 3049,
      "ㅂㅡㄹㅐㄴㄷㅡ</w>": 3050,
      "3ㅇㅝㄹ</w>": 3051,
      "ㄱㅗㅅㅇㅔㅅㅓ</w>": 3052,
      "ㄷㅗㄴㅇㅡㄹ</w>": 3053,
      "ㅎㅏㅇㅕㅆㅅㅡㅂㄴㅣㄷㅏ</w>": 3054,
      "ㅈㅓㄴㄷㅏㄹ": 3055,
      "ㅂㅜㄴㅡㄴ</w>": 3056,
      "ㄱㅗㅇㅔㅅㅓ</w>": 3057,
      "ㄷㅗㅇㅔ</w>": 3058,
      "30</w>": 3059,
      "ㄱㅏㅈㅊㅜ": 3060,
      "ㅆㅣㄴ</w>": 3061,
      "ㅊㅣㄹ</w>": 3062,
      "ㄷㅣㅇ": 3063,
      "ㅍㅗㅌㅡ</w>": 3064,
      "ㅇㅣㅇㅘ</w>": 3065,
      "ㅂㅏㄷㅇㅏ</w>": 3066,
      "ㄷㅏㅇㅇㅕㄴ": 3067,
      "ㄱㅐㄱㅅㅣㄹ": 3068,
      "ㄷㅗㅅㅓ": 3069,
      "ㅎㅐㅈㅜㅅㅣㅁㅕㄴ</w>": 3070,
      "31</w>": 3071,
      "ㅇㅟㅇㅢ</w>": 3072,
      "ㅇㅓㄴㅈㅔㄴㅏ</w>": 3073,
      "ㄷㅐㅅㅏㅇ</w>": 3074,
      "ㅅㅡㅌㅡㄹㅣ": 3075,
      "ㅋㅐㄹㅣㄱ": 3076,
      "ㅊㅜㄱㄱㅜ": 3077,
      "Hamster</w>": 3078,
      "ㅈㅜㄴㄷㅏ</w>": 3079,
      "ㅇㅟㄹㅗ</w>": 3080,
      "ㅂㅓㅂㅈㅓㄱ</w>": 3081,
      "ㄱㅣㅈㅗㄴ</w>": 3082,
      "sh": 3083,
      "ㄱㅗㅇㅅㅣㄱ</w>": 3084,
      "ar</w>": 3085,
      "ㅅㅗㄴㅕ</w>": 3086,
      "ㅈㅔㄱㅗㅇㅎㅏㅂㄴㅣㄷㅏ</w>": 3087,
      "ㅈㅣㄴㅅㅣㄹ": 3088,
      "ㄹㅔㄱ": 3089,
      "ㅇㅓㄴㄹㅗㄴ": 3090,
      "ㅈㅏㄷㅡㄹㅇㅡㄴ</w>": 3091,
      "ㅇㅝㄴㅇㅔ</w>": 3092,
      "ㅂㅣㄹㅡㄹ</w>": 3093,
      "ㄷㅐㅂㅜㅂㅜㄴ</w>": 3094,
      "ㅈㅏㄷㅡㄹㅇㅢ</w>": 3095,
      "ㅇㅓㅄㅇㅡㄹ</w>": 3096,
      "ㄱㅘㄴㄱㅖ</w>": 3097,
      "ㅃㅏㄹㄹㅣ</w>": 3098,
      "ㄱㅏㅇㅣㅂ</w>": 3099,
      "ㄹㅏㅇㅜㄴ": 3100,
      "ㄷㅏㄹㅡ": 3101,
      "17</w>": 3102,
      "erv": 3103,
      "ㅁㅏㄴㅇㅑㄱ</w>": 3104,
      "ㅎㅢㅁㅏㅇ": 3105,
      "ㅎㅘㅇㅣ": 3106,
      "ㅋㅡㄹㄹㅐ": 3107,
      "01</w>": 3108,
      "ㅍㅔ</w>": 3109,
      "ㅎㅚㄹㅡㄹ</w>": 3110,
      "ㄱㅗㄷㅡㅇ": 3111,
      "ㄱㅡㄷㅡㄹㅇㅡㄴ</w>": 3112,
      "ㅇㅏㄴㅈㅓㅇ": 3113,
      "ㅇㅣㅀ": 3114,
      "ㅈㅐㄱ": 3115,
      "ㅁㅜㄹㅡㄹ</w>": 3116,
      "ㅎㅏㄴㅣ</w>": 3117,
      "ㅇㅓㄹㅕㅇㅜㄴ</w>": 3118,
      "ㅈㅜㅇㅇㅣㄴ</w>": 3119,
      "ㅅㅓㄴㄱㅓ": 3120,
      "ㅌㅡㅇㅢ</w>": 3121,
      "ㅊㅔㅎㅓㅁ": 3122,
      "ㅈㅓㄻㅇㅡㄴ</w>": 3123,
      "ㅇㅣㄴㅏㄹ</w>": 3124,
      "ㄹㅣㅇㅔ</w>": 3125,
      "ㅊㅚ</w>": 3126,
      "ㅁㅏㅈㄴㅡㄴ</w>": 3127,
      "ㅅㅏㄹㅖ</w>": 3128,
      "10ㅇㅝㄹ</w>": 3129,
      "ew": 3130,
      "ㄱㅣㅂㅏㄴ": 3131,
      "ㅅㅣㄱㅗ</w>": 3132,
      "ㅍㅔㄴ": 3133,
      "ㅅㅏㄴㅇㅓㅂ</w>": 3134,
      "ㅎㅏㅈㅏ</w>": 3135,
      "ㄷㅐㅌㅗㅇㄹㅕㅇ</w>": 3136,
      "ㅇㅕㅍ": 3137,
      "ㅅㅓㅇㅇㅢ</w>": 3138,
      "ㅇㅓㅈㅣㄴ</w>": 3139,
      "ㅁㅣㄹㅣ</w>": 3140,
      "ㅅㅣㄱㅇㅣ</w>": 3141,
      "ce</w>": 3142,
      "ㅈㅔㅅㅣ": 3143,
      "ㅇㅣㅈ": 3144,
      "ㅈㅗㅎㅇㅏㅎㅏㄴㅡㄴ</w>": 3145,
      "ㅎㅏㄹㅏ</w>": 3146,
      "ㅇㅏㅁㅏㅊㅜㅇㅓ</w>": 3147,
      "5ㅇㅝㄹ</w>": 3148,
      "ㅅㅡㅅㅡㄹㅗ</w>": 3149,
      "ㅍㅔㅇㅣㅅㅡ": 3150,
      "ㅇㅏㅍㅇㅔ</w>": 3151,
      "ㅅㅏㄹㅏㅇ</w>": 3152,
      "ㅅㅏㄱㅗ": 3153,
      "ㅁㅐㄴ</w>": 3154,
      "ㅋㅏㄴ": 3155,
      "ㅇㅟㅎㅐㅅㅓㄴㅡㄴ</w>": 3156,
      "ㄱㅗㅇㄱㅐ</w>": 3157,
      "ㅇㅣㄹㄹㅗ</w>": 3158,
      "ㅎㅐㅇㅚ</w>": 3159,
      "ㄱㅖㅅㅗㄱ": 3160,
      "ㄷㅡㄴㅈㅣ</w>": 3161,
      "ㅋㅣㄹㄹㅗ": 3162,
      "70": 3163,
      "ㅇㅠㄹ</w>": 3164,
      "6ㅇㅝㄹ</w>": 3165,
      "ㄸㅡㄱㅓ": 3166,
      "ㅂㅐㅅㅗㅇ</w>": 3167,
      "ㄱㅘㄴㅡㄴ</w>": 3168,
      "ㅌㅗㅇㅎㅏㅂ": 3169,
      "ㅎㅏㅇㅕㅆ": 3170,
      "ㅇㅏㄶㄷㅏ</w>": 3171,
      "ㅁㅗㄴㅣ": 3172,
      "it</w>": 3173,
      "con": 3174,
      "ㅅㅜㄴ</w>": 3175,
      "ㅎㅞㅅㅗㄴ</w>": 3176,
      "ㄷㅡㅇㅈㅏㅇ": 3177,
      "ㅇㅓㅁㅁㅏ</w>": 3178,
      "KB": 3179,
      "ㅊㅜㅇㅂㅜㄴㅎㅣ</w>": 3180,
      "ㅈㅓㄴㅌㅗㅇ": 3181,
      "ㅇㅜㅅㅓㄴ</w>": 3182,
      "ㅇㅕㄹㅅㅣㅁㅎㅣ</w>": 3183,
      "ㅁㅜㄴㅈㅔㄴㅡㄴ</w>": 3184,
      "ㄲㅜㅁ": 3185,
      "ㅁㅏㄴㅇㅡㄹ</w>": 3186,
      "ㅅㅡㄹㅓㅇㅜㄴ</w>": 3187,
      "ㅓㄹ</w>": 3188,
      "ㄱㅏㅆㄷㅏ</w>": 3189,
      "ㄴㅕㄴㄱㅏㄴ</w>": 3190,
      "ㅇㅜㄹ</w>": 3191,
      "ㅅㅡㅌㅏ</w>": 3192,
      "ㅊㅏㅈㄱㅣ</w>": 3193,
      "ㅅㅣㄱㅇㅡㄹㅗ</w>": 3194,
      "ㅅㅏㅇㄷㅏㅁ": 3195,
      "ㅍㅡㄴ</w>": 3196,
      "ㅊㅓㄹㅣ</w>": 3197,
      "ic</w>": 3198,
      "ㅎㅏㄱㅗㅈㅏ</w>": 3199,
      "ㅇㅣㄹㄲㅏㅈㅣ</w>": 3200,
      "ㅇㅣㄴㅎㅏㄴ</w>": 3201,
      "7ㅇㅝㄹ</w>": 3202,
      "ㅇㅕㄱㅎㅏㄹㅇㅡㄹ</w>": 3203,
      "ㅅㅔㄱㅅㅣ": 3204,
      "ㅍㅏㄴㅁㅐ</w>": 3205,
      "ㅍㅓㄴ": 3206,
      "ㅈㅣㅇ</w>": 3207,
      "ㅅㅜㅇㅕㅇ": 3208,
      "ㅇㅣㅆㄴㅡㄴㅈㅣ</w>": 3209,
      "ㅇㅔㄹ": 3210,
      "ㅍㅐㄱ": 3211,
      "9ㅇㅝㄹ</w>": 3212,
      "ㅇㅓㅂㅁㅜ": 3213,
      "ㅉㅏㄱ</w>": 3214,
      "ㅈㅔㅈㅐㄱㅏ</w>": 3215,
      "ㅈㅓㄴㄹㅑㄱ</w>": 3216,
      "ㄴㅓㅁㅇㅓ": 3217,
      "ㅇㅖㄹㅡㄹ</w>": 3218,
      "ㅅㅣㅎㅐㅇ": 3219,
      "ㅁㅣㅌㅓ</w>": 3220,
      "ㄷㅗㅅㅣ</w>": 3221,
      "ㅇㅕㅈㅓㄴㅎㅣ</w>": 3222,
      "ra": 3223,
      "ㅁㅜㄷ": 3224,
      "ㄹㅐㄱ</w>": 3225,
      "ㅇㅔㄱㅔㄴㅡㄴ</w>": 3226,
      "ㅇㅡㅁㅡㄹㅗ</w>": 3227,
      "ㄷㅚㄱㅣ</w>": 3228,
      "ㄱㅏㄹㅡ": 3229,
      "ㅇㅕㄹㄹㅣㄴ</w>": 3230,
      "ㄷㅏㅇㅅㅣㄴㅇㅣ</w>": 3231,
      "ㅅㅏㅇㅛㅇㅈㅏ</w>": 3232,
      "ㅇㅣㅆㅇㅡㄴㅣ</w>": 3233,
      "ㅅㅗㄱㅏ</w>": 3234,
      "ㄱㅡㄹㅣㅅㅡ": 3235,
      "ㅅㅣㄷㅐ</w>": 3236,
      "ㄷㅐㅈㅜㅇ": 3237,
      "ㅂㅓㅈㅓㄴ": 3238,
      "ㅂㅡㄹㅏㅇㅜ": 3239,
      "ㅇㅓㅂㅇㅡㄹ</w>": 3240,
      "ㄹㅔ</w>": 3241,
      "ㅅㅏㅈㅣㄴㅇㅡㄹ</w>": 3242,
      "ㅎㅝㄹ": 3243,
      "ity</w>": 3244,
      "ㄱㅗㄱㅡ": 3245,
      "ㄱㅗㅇㅇㅕㄴ": 3246,
      "ㅅㅣㄹㅅㅣ": 3247,
      "ㅁㅗㄱㄹㅗㄱ</w>": 3248,
      "2017ㄴㅕㄴ</w>": 3249,
      "ㅅㅓㅍㅣㅇ": 3250,
      "ㅌㅐㅇㅑㅇ": 3251,
      "ㅋㅐㅁㅍㅓ": 3252,
      "ㅈㅓㄴㄹㅑㄱ": 3253,
      "06</w>": 3254,
      "ㄱㅓㄴㅊㅜㄱ": 3255,
      "ㄱㅕ</w>": 3256,
      "ㅈㅓㄹㅕㅁ": 3257,
      "11ㅇㅝㄹ</w>": 3258,
      "ㄴㅐㅇㅔ</w>": 3259,
      "ㅍㅕㅇㄱㅏ</w>": 3260,
      "500": 3261,
      "ㅅㅏㅇㅔㅅㅓ</w>": 3262,
      "8ㅇㅝㄹ</w>": 3263,
      "ㅈㅓㅈㅏㄱㄱㅝㄴㅇㅡㄹ</w>": 3264,
      "ㅋㅡㄹㅡㄹ</w>": 3265,
      "ㅇㅓㄹ</w>": 3266,
      "ㅎㅘㄹㄷㅗㅇㅇㅡㄹ</w>": 3267,
      "ㅇㅣㄱㅔ</w>": 3268,
      "ㅇㅔㅇㅣㅈㅓㄴㅌㅡ": 3269,
      "ㅁㅝ</w>": 3270,
      "ㅅㅣㅁㄹㅣ": 3271,
      "ㅇㅟㅇㅝㄴㅎㅚ</w>": 3272,
      "ㅎㅏㄱㅣ": 3273,
      "ㄲㅡㄶ": 3274,
      "ㅈㅔ3": 3275,
      "ㅇㅓㅄㅇㅓㅆ": 3276,
      "IN": 3277,
      "19</w>": 3278,
      "for": 3279,
      "ㅇㅕㄱㅣㅅㅓ</w>": 3280,
      "ㄷㅡㅇㅇㅡㄹㅗ</w>": 3281,
      "ㅇㅓㅉㅓ": 3282,
      "ㅈㅓㅎㅢ": 3283,
      "ㅂㅜㅇㅢ</w>": 3284,
      "ㅈㅗㄱㅓㄴ</w>": 3285,
      "ㅈㅜㅇㅅㅣㅁㅇㅡㄹㅗ</w>": 3286,
      "pro": 3287,
      "ㅊㅣㅁㅇㅔ</w>": 3288,
      "ㄱㅏㅁㅕㄴ</w>": 3289,
      "ㄷㅏㅇㅣ": 3290,
      "ㅋㅟ": 3291,
      "ㅂㅗㅈㅏㅇ": 3292,
      "by</w>": 3293,
      "ㄱㅅㅡ": 3294,
      "ㅈㅓㅈㅏㄱㅁㅜㄹㅇㅡㄹ</w>": 3295,
      "ㅎㅝㄹㅆㅣㄴ</w>": 3296,
      "ㅋㅓㅂ</w>": 3297,
      "ㄱㅓㅅㅊㅓㄹㅓㅁ</w>": 3298,
      "ㄴㅗㄹㅐ": 3299,
      "ㅊㅚㄱㅗ</w>": 3300,
      "ㅊㅘㄹㅇㅕㅇ": 3301,
      "ㅅㅜㅇㅘ</w>": 3302,
      "ㄱㅡㄹㅜㅂ": 3303,
      "ㅇㅏㄶㅇㅏ": 3304,
      "ㅊㅜㅈㅣㄴ": 3305,
      "ㅂㅜㄱㅏ</w>": 3306,
      "ㄱㅗㅇㄱㅡㅂ": 3307,
      "ㄲㅡㅌㄴㅏ": 3308,
      "ㅇㅣㄹㅈㅓㅇ</w>": 3309,
      "ㅁㅏㄹㅆㅡ": 3310,
      "ㄹㅠㄹ</w>": 3311,
      "ㅅㅍㅗ": 3312,
      "ㅅㅜㅈㅣㅂㄷㅚㄴ</w>": 3313,
      "ㄴㅏㅇㅘ</w>": 3314,
      "ㅂㄱㅗ</w>": 3315,
      "ㄱㅏㅈㅓㅇ": 3316,
      "ㅈㅗㅎㄷㅏ</w>": 3317,
      "ㅅㅗㅍㅡㅌㅡㄱㅏ</w>": 3318,
      "IS": 3319,
      "ㅈㅔㅊㅜㄹ": 3320,
      "ㅇㅗㄹㄹㅣ": 3321,
      "ㅁㅔㄴㅠ": 3322,
      "ㅇㅣㅅ": 3323,
      "ㅅㅣㅋㅣㄴㅡㄴ</w>": 3324,
      "08</w>": 3325,
      "ㄱㅛㅌㅗㅇ": 3326,
      "ㅁㅗㅅㅎㅏㄱㅗ</w>": 3327,
      "ice</w>": 3328,
      "ㅁㅕㅇㅇㅖㅎㅞㅅㅗㄴ</w>": 3329,
      "ㅈㅓㄴㄱㅣ": 3330,
      "ㅂㅜㄹㅂㅓㅂㅈㅓㄱㅇㅡㄹㅗ</w>": 3331,
      "ㅈㅓㄴㅅㅣ": 3332,
      "ㅂㅣㄱㅏ</w>": 3333,
      "ㄱㅡㄷㅡㄹㅇㅢ</w>": 3334,
      "ob": 3335,
      "ㅈㅓㄱㅈㅓㄹ": 3336,
      "ㅌㅔ</w>": 3337,
      "ㄱㅕㄹㅈㅔ": 3338,
      "ㅂㅗㅎㅗ</w>": 3339,
      "ㅇㅡㄹㅗㅅㅓ</w>": 3340,
      "ㅅㅏㅎㅏㅇㅇㅡㄴ</w>": 3341,
      "ㅂㅡㄹㄹㅐㄱ</w>": 3342,
      "ang": 3343,
      "ㅇㅣㄹㅏㄷㅗ</w>": 3344,
      "ㅍㅡㄹㅗㅈㅔㄱㅌㅡ</w>": 3345,
      "ㅁㅜㄹㅣ": 3346,
      "1ㅇㅟ</w>": 3347,
      "ㄱㅣㄴㅕㅁ": 3348,
      "ㄱㅏㅎㅐㅈㅣㄹ</w>": 3349,
      "24</w>": 3350,
      "ㅌㅏㅇㅣ": 3351,
      "ㅎㅏㄹㅕㅁㅕㄴ</w>": 3352,
      "ㅇㅣㄹㅇㅓㄴㅏ": 3353,
      "ㄱㅛㅂㅗㅁㅜㄴㄱㅗㅇㅔㅅㅓ</w>": 3354,
      "ㅂㅏㄷㅇㅏㅆ": 3355,
      "ㅌㅡㅇㅟ": 3356,
      "ver": 3357,
      "ㄱㅖㅎㅚㄱ</w>": 3358,
      "ㄱㅓㄹㅣㅇㅔ</w>": 3359,
      "ㄱㅖㅅㅏㄴ": 3360,
      "ㄴㅐㄹㅕ": 3361,
      "ㅇㅓㅂㄷㅔㅇㅣㅌㅡ</w>": 3362,
      "ㅇㅟㅋㅣ": 3363,
      "9ㄴㅕㄴ</w>": 3364,
      "ㅅㅏㄱㅗ</w>": 3365,
      "ㅅㅡㅋㅗ": 3366,
      "ㄷㅡㅇㄹㅗㄱ</w>": 3367,
      "ㅇㅣㅆㅇㅓㅆㄷㅓㄴ</w>": 3368,
      "ㅊㅓㄹㅣㅎㅐ</w>": 3369,
      "ㅂㅕㅇㅇㅝㄴ</w>": 3370,
      "ㄱㅓㅅㄱㅘ</w>": 3371,
      "ㅊㅚㅈㅓㄱ": 3372,
      "ㅇㅕㄱㅅㅏ</w>": 3373,
      "ㅍㅕㄴㅈㅣㅂ": 3374,
      "ㅇㅏㄴㅇㅡㄹ</w>": 3375,
      "ㅇㅣㅇㅛㅇㅅㅣㅇㅔㄴㅡㄴ</w>": 3376,
      "ㄱㅕㄴ</w>": 3377,
      "ㅎㅣㅁㄷㅡㄹ": 3378,
      "ㄱㅏㅁㅇㅣ</w>": 3379,
      "ㄱㅣㅈㅗㄴ": 3380,
      "ㅈㅣㅋㅣ": 3381,
      "ㄱㅏㄱㅏ</w>": 3382,
      "ㅁㅜㄴㅅㅓㄱㅓㅁㅅㅐㄱ</w>": 3383,
      "ㄴㅏㅇㅗㄴㅡㄴ</w>": 3384,
      "ㅂㅏㄴㅇㅡㅇ": 3385,
      "ㄴㅡㄴㄱㅔ</w>": 3386,
      "ㅇㅔㅇㅣㅈㅓㄴㅌㅡㅅㅗㅍㅡㅌㅡㄱㅏ</w>": 3387,
      "ㅁㅜㄹㅇㅢ</w>": 3388,
      "ㄱㅡㅁㅇㅐㄱ": 3389,
      "ㄴㅡㄴㄱㅏ</w>": 3390,
      "ㅎㅘㄱㅏ</w>": 3391,
      "ㅈㅣㅈㅓㅇ": 3392,
      "ㄷㅐㅅㅣㄴ</w>": 3393,
      "ㄱㅣㅇㅘ</w>": 3394,
      "ㄱㅡㄹㄹㅗㅂㅓㄹ</w>": 3395,
      "ㅅㅓㄴㅅㅜ</w>": 3396,
      "ㅇㅜㄴㄷㅗㅇ</w>": 3397,
      "ㅂㅏㅁ</w>": 3398,
      "ㅇㅣㄴㄱㅣ</w>": 3399,
      "qu": 3400,
      "ㅎㅏㄷㅏㄴㅡㄴ</w>": 3401,
      "ㅇㅘㄴㄹㅛ</w>": 3402,
      "ㅈㅏㄱㅕㄱ": 3403,
      "ㅂㅗㅇㅕㅈㅜ": 3404,
      "ㅇㅣㄱㅓㅅㅇㅡㄴ</w>": 3405,
      "ㄴㅏㅌㅏㄴㅏ": 3406,
      "ㅁㅏㄹㅣ": 3407,
      "ㄹㅗㄱㅡ</w>": 3408,
      "ㅇㅓㅂㅊㅔ</w>": 3409,
      "ㅏㅇㅛ</w>": 3410,
      "ㅅㅔㅌㅡ</w>": 3411,
      "ㅁㅗㅇㅑㅇ": 3412,
      "ㅂㅓㅁ</w>": 3413,
      "ㅇㅣㄷㅗㅇ</w>": 3414,
      "ㄹㅏㄹ": 3415,
      "ff": 3416,
      "ㅇㅏㄴㅣㅁㅕㄴ</w>": 3417,
      "ㅁㅣㄷㅣㅇㅓ</w>": 3418,
      "ㄹㅐㄴㄷㅡ</w>": 3419,
      "ㅂㅓㅂㅇㅡㄹ</w>": 3420,
      "2017</w>": 3421,
      "ㄱㅡㄹㅓㅁ</w>": 3422,
      "ㅊㅜㄹㅅㅣ": 3423,
      "ㅅㅗㄹㅣ": 3424,
      "ㅇㅠㄹㅓㅂ": 3425,
      "ㅁㅏㅅㅏ": 3426,
      "ㅇㅘㄴㅂㅕㄱ": 3427,
      "ㅇㅠㄴㅣ": 3428,
      "ㄴㅐㄴㅡㄴ</w>": 3429,
      "ㅈㅏㄹㅛㄷㅡㄹㅇㅡㄴ</w>": 3430,
      "ㅆㅡㄴㅡㄴ</w>": 3431,
      "ㄱㅗㄷㅗ</w>": 3432,
      "ㅅㅏㅅㅣㄹㅇㅡㄹ</w>": 3433,
      "ㄱㅗㄴㅡㄴ</w>": 3434,
      "ㅎㅏㄴㅡㄹ": 3435,
      "ㄴㅚ": 3436,
      "ㅇㅗㄴㄹㅏㅇㅣㄴ": 3437,
      "ㅌㅗㅇㅎㅐㅅㅓ</w>": 3438,
      "50</w>": 3439,
      "hd</w>": 3440,
      "ㅈㅣㄷㅗ": 3441,
      "ㅍㅣㅇ</w>": 3442,
      "ㄴㅗㅎㄱㅗ</w>": 3443,
      "ㅅㅏㅇㅛㅇㅎㅏㅇㅕ</w>": 3444,
      "ㄱㅏㄴㅇㅔ</w>": 3445,
      "ㅂㅏㄹㄱㅕㄴㅅㅣ</w>": 3446,
      "ㅁㅏㅇㅡㄹ": 3447,
      "age</w>": 3448,
      "ㄷㅗㅊㅏㄱ": 3449,
      "ㅈㅓㅈㅏㄱㄱㅝㄴㅊㅣㅁㅎㅐ</w>": 3450,
      "ㅈㅏㅈㅓㄴ": 3451,
      "ㅈㅣㄹㅗ</w>": 3452,
      "ㅅㅓㅍㅣㅇㅇㅔ</w>": 3453,
      "ㄷㅐㄱㅏ</w>": 3454,
      "ㄴㅏㅇㅗㄴ</w>": 3455,
      "ㄴㅏㅁㅜ": 3456,
      "ㄷㅗㄴ</w>": 3457,
      "ㅅㅣㄴㄹㅚ": 3458,
      "ㅈㅏㄹㅛㄷㅡㄹㅇㅣㅂㄴㅣㄷㅏ</w>": 3459,
      "ㅇㅣㅈㅓㄴ": 3460,
      "ㅂㅜㄴㅇㅔ</w>": 3461,
      "ㅍㅡㄹㅏ": 3462,
      "ㅋㅕ</w>": 3463,
      "ㅅㅓㄹㅈㅓㅇ</w>": 3464,
      "ㅅㅣㄴㄱㅗㅎㅐㅈㅜㅅㅣㅁㅕㄴ</w>": 3465,
      "ㅂㅜㄴㅈㅐㅇㅇㅛㅅㅗ</w>": 3466,
      "ㄹㅗㄱㅡㅇㅣㄴ</w>": 3467,
      "ㅁㅏㄹㅕㄴㄷㅚㅇㅓ</w>": 3468,
      "ㄱㅡㄴㄱㅓ": 3469,
      "ㄱㅗㅇㅁㅜ": 3470,
      "ㅇㅣㅆㅇㅓㅇㅑ</w>": 3471,
      "ㅃㅓ": 3472,
      "ㅍㅕㄴㅇㅏㄴ": 3473,
      "ㄱㅣㄷㅗㄱ": 3474,
      "ㅊㅏㄴ</w>": 3475,
      "ㅇㅐㅂ</w>": 3476,
      "ㄱㅣㅎㅚㄱ": 3477,
      "ㅈㅕㅆ": 3478,
      "ㄱㅡㄱㅓㅅㅇㅡㄹ</w>": 3479,
      "ㅈㅜㅅㅣㄱㅣ</w>": 3480,
      "ㄱㅕㄹㄱㅘㄹㅡㄹ</w>": 3481,
      "ㅅㅣㅂ</w>": 3482,
      "ㅎㅏㅅ": 3483,
      "ㄱㅗㅇㄱㅗㅇ": 3484,
      "ㅅㅏㅇㅇㅓㅂ": 3485,
      "ㅂㅣㄱㅛ</w>": 3486,
      "ㅂㅜㄱㅎㅏㄴ</w>": 3487,
      "ㅁㅓㅅㅈㅣㄴ</w>": 3488,
      "id": 3489,
      "ㅇㅓㄴㅇㅓ": 3490,
      "ㅅㅣㅋㅕ": 3491,
      "ㅁㅏㅊㅏㄴ": 3492,
      "ㅋㅗㄴㅌㅔㄴㅊㅡ</w>": 3493,
      "ㅎㅛㅇㅠㄹ": 3494,
      "ㅅㅓㄹㅁㅕㅇ</w>": 3495,
      "ㅎㅚㅅㅏㄴㅡㄴ</w>": 3496,
      "ㅌㅣㄴ</w>": 3497,
      "ㅈㅔㄷㅗ</w>": 3498,
      "ㄱㅡㄱ</w>": 3499,
      "ㅎㅗㄴㅈㅏ</w>": 3500,
      "ㅅㅣㅍㄷㅏ</w>": 3501,
      "ㅈㅜㄱㅏㄴ</w>": 3502,
      "36": 3503,
      "ㅇㅓㅄㅇㅓ</w>": 3504,
      "ㅅㅡㅌㅡㄹㅔ": 3505,
      "ㅁㅏㄶㄷㅏ</w>": 3506,
      "ㅁㅏㅈㅣㅁㅏㄱ": 3507,
      "ㅅㅡㅌㅏㅇㅣㄹ</w>": 3508,
      "02</w>": 3509,
      "SN": 3510,
      "ㅅㅏㅈㅓㅇ</w>": 3511,
      "ㅈㅣㄱㅇㅝㄴ</w>": 3512,
      "us</w>": 3513,
      "ㄷㅐㅇㅔ</w>": 3514,
      "ㅇㅎㅏㄴ</w>": 3515,
      "eb": 3516,
      "ㅈㅓㄴㅈㅐㅇ": 3517,
      "ㅁㅜㄹㅇㅔ</w>": 3518,
      "ㄷㅓㄴㅣ</w>": 3519,
      "ㅈㅏㄹㅣ</w>": 3520,
      "iz": 3521,
      "ㅇㅣㄴㅈㅡㅇ": 3522,
      "ㄱㅕㅇㅇㅡㄹ</w>": 3523,
      "ㅇㅣㅈㅏ</w>": 3524,
      "ㅊㅗㄴ": 3525,
      "ㅈㅜㅌㅐㄱ": 3526,
      "ㄴㅜㄱㅏ</w>": 3527,
      "ㄱㅓㄷ": 3528,
      "ㅇㅏㄶㅇㅡㅁㅕㄴ</w>": 3529,
      "2016ㄴㅕㄴ</w>": 3530,
      "ㅅㅣㄱㅅㅏ</w>": 3531,
      "ㅇㅣㄹㅗㄴ": 3532,
      "ㅘㅆㄷㅏ</w>": 3533,
      "ㅂㅜㅇㅔ</w>": 3534,
      "ㅅㅣㅈㅡㄴ": 3535,
      "ㅍㅡㄹㄹㅐㅅㅍㅗ": 3536,
      "ed": 3537,
      "07</w>": 3538,
      "ㅂㅗㄱㅗㅅㅓ</w>": 3539,
      "ㅇㅐㅂ": 3540,
      "ㅏㅁㅏ</w>": 3541,
      "ㅈㅣㅎㅏ": 3542,
      "ㅅㅏㄹㅗ</w>": 3543,
      "ㄷㅐㅊㅜㄹ": 3544,
      "ㅎㅏㅁㄲㅔ": 3545,
      "ㅎㅐㅈㅜㅅㅔㅇㅛ</w>": 3546,
      "ㅁㅣㅅㅜㄹ": 3547,
      "ㅇㅣㅅㅡㄹ": 3548,
      "ㅇㅟㅊㅣ</w>": 3549,
      "ㅃㅜㄹ": 3550,
      "ㅎㅚㅈㅏㅇ</w>": 3551,
      "ㄱㅣㄱㅘㄴ</w>": 3552,
      "ㅇㅔㅇㅓ": 3553,
      "ㅂㅕㄱ</w>": 3554,
      "ㅁㅗㅅㅎㅏㄴㅡㄴ</w>": 3555,
      "ㅅㅣㅍㅅㅡㅂㄴㅣㄷㅏ</w>": 3556,
      "ㅂㅡㄹㅣ": 3557,
      "ㅅㅜㅈㅓㅇ": 3558,
      "ㅍㅗㅇㅣㄴㅌㅡ</w>": 3559,
      "ㅅㅓㅂㅓ": 3560,
      "ㅁㅣㅌ": 3561,
      "ㅇㅏㅁ</w>": 3562,
      "ㅈㅓㄱㅇㅣㄱㅗ</w>": 3563,
      "ㅅㅓㄹㄱㅖ": 3564,
      "ㄱㅏㅇㅈㅗ": 3565,
      "ㅊㅓㅇㅅㅗㄴㅕㄴ</w>": 3566,
      "ㅂㅜㅅㅡㅌㅏㅂㅣㅅ": 3567,
      "ㅈㅏㄶ": 3568,
      "ㅌㅏㄱㅗ</w>": 3569,
      "ㄸㅓㄴ": 3570,
      "ㄷㅏㅁㅇㅡㄹ</w>": 3571,
      "ㅆㅣㄴㅡㄴ</w>": 3572,
      "ㅇㅣㅎㅏ</w>": 3573,
      "ㅋㅙ": 3574,
      "ES": 3575,
      "ㄱㅕㄲ": 3576,
      "ㄷㅡㅅㅇㅣ</w>": 3577,
      "ㅁㅣㄷㅣㅇㅓ": 3578,
      "ㅇㅗㅍㅡ": 3579,
      "ㄱㅏㅈㅕㅇ": 3580,
      "ㅇㅗㄹㅡ": 3581,
      "ㅌㅗㄱ": 3582,
      "ㅅㅏㄹㅏㅁㄷㅡㄹ</w>": 3583,
      "ㄴㅕㄴㄷㅗ</w>": 3584,
      "ㅇㅏㅇㅣㅌㅔ": 3585,
      "ㅂㅗㄴㄷㅏ</w>": 3586,
      "ㅎㅏㄹㅕㄱㅗ</w>": 3587,
      "1ㄱㅐ</w>": 3588,
      "ㅇㅕㅆ": 3589,
      "ine</w>": 3590,
      "ㄷㅣㅈㅣㅌㅓㄹ</w>": 3591,
      "ㅋㅜㄹ": 3592,
      "ㅃㅏㄹㅡㄱㅔ</w>": 3593,
      "ㅇㅔㅁㅏㄴ</w>": 3594,
      "ㅁㅣㄴㅣ": 3595,
      "ㅌㅡㄱㅈㅣㅇ": 3596,
      "ㅇㅕㅇㅇㅕㄱ": 3597,
      "ㅅㅏㄻㅇㅡㄹ</w>": 3598,
      "ㅅㅣㅀ": 3599,
      "ㅅㅓㅇㅇㅡㄴ</w>": 3600,
      "ㅈㅓㅁㅇㅔ</w>": 3601,
      "ㅈㅓㄱㅇㅡㄴ</w>": 3602,
      "ㄱㅗㄱ</w>": 3603,
      "ㅈㅓㄱㅇㅡㄹ</w>": 3604,
      "ㄱㅗㄱㅐㄱ</w>": 3605,
      "ㅇㅏㄶㅇㅏ</w>": 3606,
      "ㄱㅐㅊㅚ": 3607,
      "ㅇㅡㄹㅗㅂㅜㅌㅓ</w>": 3608,
      "ㅂㅜㄷㅏㅁ": 3609,
      "ㅎㅏㅅㅣㄱㅣ</w>": 3610,
      "?\"</w>": 3611,
      "ㅁㅏㄴㄷㅡㄹ</w>": 3612,
      "ㅈㅏㅇㄴㅏㄴ": 3613,
      "ㅁㅜㄴㅈㅐ": 3614,
      "ㅊㅚㄱㅡㄴ": 3615,
      "ㅂㅣㄴ</w>": 3616,
      "21</w>": 3617,
      "ㅏㅇㅔ": 3618,
      "ㅍㅐ</w>": 3619,
      "ㅂㅓㄴㅇㅕㄱ": 3620,
      "AS": 3621,
      "ㄹㅏㅇㅜ": 3622,
      "ㅂㅜㄴㄷㅡㄹㅇㅣ</w>": 3623,
      "ㅁㅏㅇㅡㅁㅇㅔ</w>": 3624,
      "ㅇㅏㄴㄴㅐ": 3625,
      "ㅂㅓㄹㅣ": 3626,
      "ㅅㅣㄹㅍㅐ": 3627,
      "ㅂㅣㅎㅐ</w>": 3628,
      "ㅂㅣㄱ": 3629,
      "ㅈㅜㅊㅏ": 3630,
      "ㅎㅗㄴ</w>": 3631,
      "ㄸㅏㄱ</w>": 3632,
      "ㄷㅐㅎㅚ": 3633,
      "ㅂㅏㅂ": 3634,
      "ㅈㅓㄴㅁㅏㅇ": 3635,
      "indow": 3636,
      "up": 3637,
      "ㅇㅡㄴㅎㅐㅇ</w>": 3638,
      "MB": 3639,
      "ㅇㅣㄱㅣㄷㅗ</w>": 3640,
      "ㅇㅗㄹㅐ</w>": 3641,
      "ㄷㅚㅇㅓㅇㅑ</w>": 3642,
      "ㅇㅣㅂㅈㅏㅇ": 3643,
      "ㅂㅗㅌㅗㅇ</w>": 3644,
      "ㅎㅏㄱㅣㄹㅡㄹ</w>": 3645,
      "ㄷㅏㅇㅅㅣㄴㅇㅡㄴ</w>": 3646,
      "ㅈㅗㅅㅏ": 3647,
      "ㅂㅗㅈㅏ</w>": 3648,
      "ㅎㅐㅈㅣ": 3649,
      "ㅂㅏㄲㅜ": 3650,
      "ㅌㅡㅇㅔ</w>": 3651,
      "ㅇㅡㅁㅅㅣㄱ</w>": 3652,
      "ㅈㅗㅎㅏㅂ": 3653,
      "ㅁㅣㄹㄹㅣㅁㅣㅌㅓ": 3654,
      "ㄷㅗㅇㅇㅢ": 3655,
      "ㅇㅣㅌㅏㄹ": 3656,
      "ㅇㅔㅁ": 3657,
      "ㄹㅖ": 3658,
      "IC": 3659,
      "ㅈㅣㄱㅡㅁㅇㅡㄴ</w>": 3660,
      "ㄱㅘㄴㅅㅣㅁㅇㅡㄹ</w>": 3661,
      "ㅈㅣㅂㅇㅔ</w>": 3662,
      "ㅎㅖ</w>": 3663,
      "ㅇㅣㄴㅅㅣㄱ": 3664,
      "ㅇㅡㅁㅇㅏㄱ</w>": 3665,
      "ㄴㅏㄹㅏ": 3666,
      "ㅈㅓㄴㅎㅘ</w>": 3667,
      "ㅂㅣㅈㅡㄴㅣㅅㅡ</w>": 3668,
      "ㅇㅛㄱㅡㅁ": 3669,
      "ㅊㅏㄹㅑㅇ": 3670,
      "ate</w>": 3671,
      "ㄷㅏㅇㅎㅏㄴ</w>": 3672,
      "ㅇㅝ</w>": 3673,
      "ㅎㅜㄹㄹㅠ": 3674,
      "ㅍㅗㅇ": 3675,
      "ㅈㅔㅍㅜㅁㅇㅡㄹ</w>": 3676,
      "ㄷㅓㄱㅜㄴㅇㅛ</w>": 3677,
      "ㅁㅓㄱㄴㅡㄴ</w>": 3678,
      "ㅈㅔㅇㅣㄹ</w>": 3679,
      "ㄷㅗㅇㅜㅁㅇㅡㄹ</w>": 3680,
      "ㅎㅏㄴㄱㅜㄱㅇㅢ</w>": 3681,
      "ㄱㅜㅎㅏㄱㅗ</w>": 3682,
      "ㅈㅏㄱㅇㅛㅇ": 3683,
      "ㄱㅏㄱㄱㅏㄱ</w>": 3684,
      "ㄱㅜㄹ</w>": 3685,
      "ㅅㅜㅁㅏㄶㅇㅡㄴ</w>": 3686,
      "ㄱㅓㄴㅅㅓㄹ": 3687,
      "ㅇㅓㄴㄱㅡㅂ": 3688,
      "ㅇㅣㅆㅇㅡㅁ</w>": 3689,
      "Pro": 3690,
      "ㅁㅏㄹㄱㅗ</w>": 3691,
      "ㄱㅜㅅㅓㅇ</w>": 3692,
      "ㄷㅜㄹㄹㅓ": 3693,
      "ㅌㅡㄹ</w>": 3694,
      "ㅆㅣㄱㅏ</w>": 3695,
      "ㅅㅣㅊㅓㅇ": 3696,
      "ㅇㅓㅄㄷㅏㄴㅡㄴ</w>": 3697,
      "ㅅㅣㄱㅏㄴㅇㅔ</w>": 3698,
      "ㅇㅐㄹ": 3699,
      "ㄱㅣㄱㅗ</w>": 3700,
      "ㅇㅣㅎㅏ": 3701,
      "??</w>": 3702,
      "ㅇㅜㅅㅜ": 3703,
      "ㅈㅣㄴㅏㄴㅎㅐ</w>": 3704,
      "ㅊㅗㄷㅡㅇ": 3705,
      "ㅅㅐㅇㅁㅕㅇ": 3706,
      "ㅆㅏㅎ": 3707,
      "ㄴㅡㅇㄹㅕㄱ": 3708,
      "ㅍㅡㄹㅗㄱㅡㄹㅐㅁㅇㅡㄹ</w>": 3709,
      "ㅍㅏㅇㅣㄹㅇㅡㄹ</w>": 3710,
      "ㅅㅣㄴㅁㅜㄴ</w>": 3711,
      "ㅅㅏㅎㅚㅈㅓㄱ</w>": 3712,
      "IT": 3713,
      "ㅍㅡㄹㄹㅔㅇㅣ</w>": 3714,
      "and": 3715,
      "ㄱㅜㅊㅔ": 3716,
      "ㅅㅟㅇㅜㄴ</w>": 3717,
      "ㄱㅏㅁㅅㅏㅇ": 3718,
      "ㄷㅏㄴㄱㅖ</w>": 3719,
      "ㅅㅣㅎㅓㅁ</w>": 3720,
      "ㅈㅣㄹㅇㅡㄹ</w>": 3721,
      "ㅈㅏㅇㄱㅣ": 3722,
      "2ㅇㅝㄹ</w>": 3723,
      "ㅅㅏㅎㅚㅂㅗㄱㅈㅣ": 3724,
      "od": 3725,
      "ㅇㅕㄱㅣㅇㅔ</w>": 3726,
      "ㄷㅗㅇㅘ</w>": 3727,
      "ㄷㅏㄹㄹㅓ</w>": 3728,
      "ㅊㅏㅈㅇㅡㄹ</w>": 3729,
      "ㄷㅐㅎㅐㅅㅓㄴㅡㄴ</w>": 3730,
      "ㅊㅝ": 3731,
      "ㄱㅏㄲㅏㅇㅜㄴ</w>": 3732,
      "ㄱㅏㄹㅗ</w>": 3733,
      "ㄱㅏㅇㅎㅘ": 3734,
      "ㅅㅡㅌㅐㄴ": 3735,
      "32</w>": 3736,
      "ㅅㅗㅇㅔ</w>": 3737,
      "ㅊㅐㄱㅇㅣㅁㅇㅡㄹ</w>": 3738,
      "ㅈㅔㅈㅏㄱ</w>": 3739,
      "ㅅㅏㄲㅏ": 3740,
      "ㄴㅐㅇ": 3741,
      "ㄴㅏㅇㅏ": 3742,
      "ㄴㅜㄹㅣ": 3743,
      "ㅁㅏㅇㅡㅁㅇㅣ</w>": 3744,
      "ㄱㅜㄱㄱㅏ</w>": 3745,
      "ㅎㅜㄴㄹㅕㄴ": 3746,
      "ㅂㅏㄹㅗ": 3747,
      "ㅇㅣㄴㅊㅓㄴ": 3748,
      "ㅋㅏㅌㅔㄱㅗ": 3749,
      "ㅇㅣㄴㄱㅘ</w>": 3750,
      "198": 3751,
      "as</w>": 3752,
      "ㅇㅣㅇㅓㅆㅅㅡㅂㄴㅣㄷㅏ</w>": 3753,
      "ㄱㅐㅇㅣㄴㅈㅓㅇㅂㅗ": 3754,
      "OS": 3755,
      "ㅁㅛ": 3756,
      "ㅇㅣㄹㅡㅁㅇㅡㄹ</w>": 3757,
      "ㅅㅏㄴㅇㅡㄹ</w>": 3758,
      "ad</w>": 3759,
      "ㅇㅓㅆㄴㅡㄴㄷㅔ</w>": 3760,
      "ㅁㅐㅇ": 3761,
      "ㅅㅣㄹㅣㅈㅡ</w>": 3762,
      "ㅈㅣㅅㅣㄱ": 3763,
      "ㄷㅏㄹㄹㅣ</w>": 3764,
      "ㅂㅏㄷㅇㅡ": 3765,
      "ㅍㅛㅅㅣ</w>": 3766,
      "ㄹㅕㅁㅕㄴ</w>": 3767,
      "Vi": 3768,
      "ㅋㅓㅍㅣ": 3769,
      "ㅇㅣㄱㅓㄴ</w>": 3770,
      "cm</w>": 3771,
      "ㅂㅓㅅㅡ</w>": 3772,
      "ㅇㅗㅂㅓ": 3773,
      "ㅋㅓㄴㅌㅔㄴ": 3774,
      "ㅅㅐㅇㄱㅏㄱ</w>": 3775,
      "ㅊㅣㄱ</w>": 3776,
      "ㅎㅏㅇㅕㅇㅑ</w>": 3777,
      "ㅇㅣㅆㄴㅏㅇㅛ</w>": 3778,
      "ㅋㅏㄷㅡ": 3779,
      "ㅎㅐㅆㄷㅏㄴㅡㄴ</w>": 3780,
      "ㄱㅛㅅㅜ</w>": 3781,
      "ㅁㅜㄹㅛㄹㅗ</w>": 3782,
      "ㅈㅜㅇㅇㅔㅅㅓ</w>": 3783,
      "ㅎㅏㅅㅕ": 3784,
      "ㅇㅏㄱㅣ</w>": 3785,
      "ㄷㅓㅂㅜㄹ": 3786,
      "ㄹㄲㅏ</w>": 3787,
      "ep": 3788,
      "ㅅㅐㅇㄱㅏㄱㅎㅏㅂㄴㅣㄷㅏ</w>": 3789,
      "SK": 3790,
      "Ap": 3791,
      "ㅅㅡㅇㅘ</w>": 3792,
      "ㄱㅜㄱㅈㅔ</w>": 3793,
      "ㅈㅏㅅㅣㄴㅇㅡㄹ</w>": 3794,
      "(?)</w>": 3795,
      "ㄲㅡㅁ": 3796,
      "22</w>": 3797,
      "ㅈㅣㄱㅡㅁㄲㅏㅈㅣ</w>": 3798,
      "AR": 3799,
      "ㅎㅐㅍㅣ": 3800,
      "ㅇㅣㅇㅛㅇㅎㅏㄹ</w>": 3801,
      "ㅂㅡㄹㅐㄴㄷㅡ": 3802,
      "ㅎㅔㄹ": 3803,
      "ㅅㅏㅇㄷㅏㅁ</w>": 3804,
      "ㅈㅏㅈㅣ</w>": 3805,
      "ㅂㅜㅌㅓㄴㅡㄴ</w>": 3806,
      "of": 3807,
      "ㄷㅔㅇㅣㅌㅓㄹㅡㄹ</w>": 3808,
      "AP": 3809,
      "ㅂㅏㄹㅍㅛ</w>": 3810,
      "ㅇㅗㄻ": 3811,
      "ㅈㅔㅇㅢ</w>": 3812,
      "ㄹㅏㅇ</w>": 3813,
      "ㅈㅏㄱㅇㅓㅂㅇㅡㄹ</w>": 3814,
      "ㅇㅓㅂㅁㅜ</w>": 3815,
      "ㄴㅔㅌㅡㅇㅝㅋㅡ</w>": 3816,
      "ㅈㅏㄹㅣㄹㅡㄹ</w>": 3817,
      "Window": 3818,
      "il</w>": 3819,
      "ㄷㅗㅈㅓㄴ": 3820,
      "ㅎㅐㅇㅅㅏ</w>": 3821,
      "ㄱㅘㅈㅓㅇㅇㅡㄹ</w>": 3822,
      "ㅂㅏㄱㅁㅜㄹ": 3823,
      "ㅇㅣㅇㅢ</w>": 3824,
      "ㄱㅏㄴㅎㅗ": 3825,
      "ㅌㅡㄹㅗ</w>": 3826,
      "ㅈㅣㄹㅁㅜㄴ</w>": 3827,
      "IT</w>": 3828,
      "ㅎㅏㅁㅇㅡㄹㅗㅆㅓ</w>": 3829,
      "ㅊㅚㅅㅗ": 3830,
      "ㅁㅜㄱ": 3831,
      "ㅍㅕㄴㅇㅢ</w>": 3832,
      "ㄷㅐㄴㅡㄴ</w>": 3833,
      "ㅅㅓㄴㅈㅓㅇ": 3834,
      "ㅈㅜㅅㅕㅅㅓ</w>": 3835,
      "ㅇㅘㄴㅈㅓㄴ": 3836,
      "ㅇㅏㄴㅣㄱㅗ</w>": 3837,
      "ㅆㅗ": 3838,
      "ㄱㅘㅈㅓㅇㅇㅔㅅㅓ</w>": 3839,
      "ㅅㅙ": 3840,
      "ㅇㅓㄸㅓㅎㅏㄴ</w>": 3841,
      "ㅇㅣㄴㅌㅓㅂㅠ</w>": 3842,
      "ew</w>": 3843,
      "ㅎㅣㅁㅇㅡㄹ</w>": 3844,
      "ㅈㅓㅎㅢ</w>": 3845,
      "ㅅㅗㅇㅠ": 3846,
      "ㅂㅡㄹㄹㅗㄱㅡ": 3847,
      "ㅏㄴㄷㅏ</w>": 3848,
      "ㅁㅏㅊㅏㄴㄱㅏㅈㅣ": 3849,
      "ㅅㅏㅇㅠ": 3850,
      "ㅅㅣㄱㅔ": 3851,
      "ㄱㅡㄴㅕㅇㅢ</w>": 3852,
      "ㄱㅐㄹㅡㄹ</w>": 3853,
      "ㅊㅏㅁㅅㅓㄱ": 3854,
      "ㅌㅡㄹㅓㅁ": 3855,
      "ㅂㅜㄴㅇㅡㄹ</w>": 3856,
      "ㅁㅣㄱㅜㄱㅇㅢ</w>": 3857,
      "ㅂㅜㄹㅡ": 3858,
      "tr": 3859,
      "ㄴㅐㅇㅛㅇㅇㅢ</w>": 3860,
      "ㅌㅓㄴ</w>": 3861,
      "ㄱㅖㄹㅡㄹ</w>": 3862,
      "ㅇㅏㄴㅣ</w>": 3863,
      "ㅂㅏㄷㅈㅣ</w>": 3864,
      "ㄴㅏㄹㅏ</w>": 3865,
      "ㅁㅗㅈㅣㅂ</w>": 3866,
      "ㅈㅓㄴㅎㅘㄴ": 3867,
      "ㄱㅡㄱㅓㅅㅇㅣ</w>": 3868,
      "Pl": 3869,
      "ㅇㅕㄹㅡㅁ": 3870,
      "ㅁㅗㄱㅇㅡㄹ</w>": 3871,
      "ㅇㅣㄹㄲㅏ</w>": 3872,
      "OS</w>": 3873,
      "ㅈㅡㄹㄱㅣㄹ</w>": 3874,
      "xHamster</w>": 3875,
      "ㅁㅏㅊㅣ</w>": 3876,
      "ㅇㅕㅇㄱㅜㄱ</w>": 3877,
      "ㅈㅣㅁ": 3878,
      "ㅌㅏㄱ</w>": 3879,
      "ㅎㅣㄴ</w>": 3880,
      "ㅇㅕㅎㅐㅇㅇㅡㄹ</w>": 3881,
      "ㅊㅏㅈㅇㅏ</w>": 3882,
      "ㄷㅗㄱㅇㅣㄹ</w>": 3883,
      "ㅈㅣㅂㅇㅔㅅㅓ</w>": 3884,
      "ㄱㅡㄱㅔ</w>": 3885,
      "ㅂㅓㅂㅇㅢ</w>": 3886,
      "ㅊㅔㄹㅡㄹ</w>": 3887,
      "ㅂㅗㅈㅣ</w>": 3888,
      "ㅈㅣㅈㅓㄱ": 3889,
      "ㅂㅠ": 3890,
      "ㅇㅓㄹㅕㅇㅜ": 3891,
      "ㄱㅕㅇㅜㄹ": 3892,
      "ㅇㅏㄶㄴㅡㄴ": 3893,
      "ㅇㅕㄱㅣ</w>": 3894,
      "ㅅㅗㅈㅐ</w>": 3895,
      "ㅊㅔㅇㅣ": 3896,
      "um</w>": 3897,
      "ㄱㅘㅇㅕㄴ</w>": 3898,
      "ㄷㅐㅅㅏㅇㅇㅡㄹㅗ</w>": 3899,
      "for</w>": 3900,
      "ㅎㅘㄷㅚㄴ</w>": 3901,
      "ㅊㅐㄱㅇㅣㅁㅇㅡㄴ</w>": 3902,
      "ㅂㅡㄹㄹㅐㄱ": 3903,
      "ㄱㅣㄹㅗㄱ</w>": 3904,
      "Con": 3905,
      "ㅅㅜㅅㅏㅇ": 3906,
      "ㅅㅏㅎㅏㅇㅇㅡㄹ</w>": 3907,
      "ㅂㅗㅇㅠ</w>": 3908,
      "ㅈㅣㄱㅜ": 3909,
      "ㅉㅏㄹ": 3910,
      "ㅊㅣㄹㅛ</w>": 3911,
      "ㅊㅔㅇㅠㄱ": 3912,
      "ㅁㅜㄴㅎㅏㄱ": 3913,
      "ㅇㅣㅆㅇㅡㄹㄲㅏ</w>": 3914,
      "ㅅㅣㅋㅣㄹ</w>": 3915,
      "sp": 3916,
      "ㅈㅏㄱㅅㅓㅇ</w>": 3917,
      "ㄱㅣㄱㅣ</w>": 3918,
      "ㅎㅕㄴㅎㅘㅇ</w>": 3919,
      "ㄴㅐㄴ</w>": 3920,
      "ㄴㅏㅁㅈㅏ": 3921,
      "ㅇㅣㅂㅇㅡㄹ</w>": 3922,
      "ㅈㅗㅇㄱㅛ": 3923,
      "ㅇㅘㄴㅈㅓㄴㅎㅣ</w>": 3924,
      "ㅍㅏㅇㅏㄱ": 3925,
      "ㅂㅣㅇ": 3926,
      "ㅇㅓㄱㅏ</w>": 3927,
      "ㅊㅔㅇㅢ</w>": 3928,
      "ㅌㅗㅇㅎㅏㅇㅕ</w>": 3929,
      "ㄱㅗㅇㄱㅏㄴ</w>": 3930,
      "ㅈㅣㅇㅘ</w>": 3931,
      "ㄱㅡㄹㅣㅁ</w>": 3932,
      "ㄴㅓ</w>": 3933,
      "03</w>": 3934,
      "ㅅㅡㅌㅔㅇㅣ": 3935,
      "ㅎㅕㄱㅅㅣㄴ": 3936,
      "ㄱㅏㄴㅡㅇㅅㅓㅇㅇㅣ</w>": 3937,
      "ㄱㅚㅇㅈㅏㅇ": 3938,
      "ㅁㅓㄹㅣ": 3939,
      "ㅊㅡㄱ</w>": 3940,
      "ㅊㅏㅈㅣ": 3941,
      "ㅅㅏㄲㅏㅅㅣ</w>": 3942,
      "ㄱㅓㅅㅇㅣㄹㅏㄱㅗ</w>": 3943,
      "ㄴㅏㄷㅗ</w>": 3944,
      "ㅊㅡㄱㅈㅓㅇ": 3945,
      "Porn": 3946,
      "Ad": 3947,
      "ㅍㅣㄹ</w>": 3948,
      "ㅇㅣㄴㅅㅏ": 3949,
      "ㅈㅡㅂㅣ": 3950,
      "ㅇㅣㄴㅌㅔ": 3951,
      "ㄹㅏㅁㅕㄴ</w>": 3952,
      "ㄷㅐㅅㄱㅡㄹㅇㅡㄹ</w>": 3953,
      "ㅍㅕㄴㄹㅣ": 3954,
      "ㅂㅗㄱㅓㄴ": 3955,
      "ㄷㅐㅂㅜㅂㅜㄴㅇㅢ</w>": 3956,
      "ㅌㅜㄹ": 3957,
      "ㄱㅓㄴㄱㅏㅇ</w>": 3958,
      "ㄱㅏㅇㅎㅏㄴ</w>": 3959,
      "ㅂㅜㅈㅓㅇ": 3960,
      "Tub": 3961,
      "ㅇㅏㄴㄷㅡㄹㅗ": 3962,
      "ㅍㅏㅇㅣㄹ": 3963,
      "ㄱㅓㄷㅡㄴ": 3964,
      "23</w>": 3965,
      "one</w>": 3966,
      "ㅅㅏㅇㅇㅔ</w>": 3967,
      "ㅇㅘㅇㅣ": 3968,
      "ㅇㅘㅇㅢ</w>": 3969,
      "ㄸㅏㄹㅗ</w>": 3970,
      "ㄱㅏㅇㄹㅕㄱ": 3971,
      "ㅅㅜㄱㅂㅏㄱ</w>": 3972,
      "ㅇㅠㄹㅓㅂ</w>": 3973,
      "ㄷㅜㄴ</w>": 3974,
      "ㅂㅜㄴㅁㅕㅇ": 3975,
      "ㅆㅏㅇㅜ": 3976,
      "ㅁㅜㄴㅎㅏㄱ</w>": 3977,
      "PC</w>": 3978,
      "ㄱㅘㄴㅇㅣ</w>": 3979,
      "ㅍㅡㄹㅏㅇㅅㅡ</w>": 3980,
      "ㅅㅐㄴ": 3981,
      "ㄹㅣㄷㅓ": 3982,
      "ㅉㅗㄱㅇㅡㄹㅗ</w>": 3983,
      "ㅅㅗㄹㅣ</w>": 3984,
      "ㅌㅐㄱㅡ</w>": 3985,
      "ㄱㅏㄴㄷㅏ</w>": 3986,
      "ㅂㅏㄷㅇㅏㅆㄷㅏ</w>": 3987,
      "ㅋㅔㅅ</w>": 3988,
      "ㅈㅣㄱㅡㅂ": 3989,
      "ㅍㅡㄹㅗㄱㅡㄹㅐㅁ": 3990,
      "ㅇㅕㄴㅎㅏㅂ": 3991,
      "ㄹㅑㄱ": 3992,
      "ㄱㅡㄴㄷㅔ</w>": 3993,
      "ㄱㅓㄷㅡㄴㅇㅛ</w>": 3994,
      "2ㅊㅏ</w>": 3995,
      "ㅅㅗㄴㅡㄴ</w>": 3996,
      "ㄱㅐㅇㅝㄹ": 3997,
      "ㄴㅏㅅㅓ</w>": 3998,
      "ㅇㅣㄴㅈㅣ": 3999,
      "ㄱㅡㄷㅗㅇㅇㅏㄴ</w>": 4000,
      "ㅈㅓㅂㅅㅗㄱ": 4001,
      "ㅎㅏㄹㅅㅜ</w>": 4002,
      "ㅇㅖㅇㅛ</w>": 4003,
      "ㄷㅗㅇㅘ": 4004,
      "ㅅㅟ</w>": 4005,
      "ㅈㅓㅁㅈㅓㅁ</w>": 4006,
      "tion</w>": 4007,
      "ㅇㅏㅇㅣ</w>": 4008,
      "ㅅㅔㄷㅐ</w>": 4009,
      "ㄴㅜㄱㅜㄴㅏ</w>": 4010,
      "ㅌㅏㄹㅗ</w>": 4011,
      "ㄱㅏㅈㅕ": 4012,
      "ㄱㅣㅍㅇㅡㄴ</w>": 4013,
      "ㅅㅓㅇㅈㅏㅇ</w>": 4014,
      "ㅂㅜㅅㅏㄴ</w>": 4015,
      "ia</w>": 4016,
      "ㅅㅐㄹㅗ</w>": 4017,
      "ㅇㅏㄴㅇㅔㅅㅓ</w>": 4018,
      "ㅆㅡㄱㅗ</w>": 4019,
      "ㅇㅏㅍㅏㅌㅡ</w>": 4020,
      "ㅈㅏㅊㅣ": 4021,
      "ㄱㅏㅇㅔ</w>": 4022,
      "ㅇㅓㄹㅣㄴㅇㅣ</w>": 4023,
      "ㅈㅔ1": 4024,
      "AN": 4025,
      "ㅇㅕㄴㅅㅗㄱ</w>": 4026,
      "TAG</w>": 4027,
      "ㄸㅐㅁㅏㄷㅏ</w>": 4028,
      "ㅂㅣㅅㅡㅅㅎㅏㄴ</w>": 4029,
      "ㅍㅡㄹㄹㅓㅅㅡ</w>": 4030,
      "ㅁㅜㄹㅇㅡㄴ</w>": 4031,
      "ㄱㅗㄱㅐㄱㅅㅔㄴㅌㅓ</w>": 4032,
      "ㄱㅏㄹㅣ": 4033,
      "ㄹㅗㅅㅓ</w>": 4034,
      "ㄹㅔㅈㅡㅂㅣ": 4035,
      "ㅗㄹ</w>": 4036,
      "ㄷㅏㄴㅇㅡㄹ</w>": 4037,
      "ㅎㅜㄴ</w>": 4038,
      "ㅈㅏㄱㅇㅓㅂ</w>": 4039,
      "ㄹㅣㅂㅠ": 4040,
      "ㅂㅡㄹㄹㅜ": 4041,
      "ㅂㅕㄴㅎㅘㄱㅏ</w>": 4042,
      "ㅈㅜㅇㅎㅏㄴ</w>": 4043,
      "04</w>": 4044,
      "ㅅㅜㄹㅗ</w>": 4045,
      "ㅃㅡ": 4046,
      "ㄱㅣㅇㅓㅂㅇㅢ</w>": 4047,
      "ㅅㅏㄹㅏㅇㅇㅡㄹ</w>": 4048,
      "ㅇㅜㅅㅡㅇ": 4049,
      "ㅇㅘㅆㄷㅏ</w>": 4050,
      "ㅇㅓㅈㅣ": 4051,
      "ㅇㅖㄱㅗ</w>": 4052,
      "ㄴㅏㅁㅜ</w>": 4053,
      "ㅅㅏㅇㄷㅏㅇㅎㅣ</w>": 4054,
      "ㅌㅜㅇㅓ</w>": 4055,
      "ㅍㅕㅇ</w>": 4056,
      "ㄲㅙ</w>": 4057,
      "ㄷㅏㅇㅣㅇㅓ": 4058,
      "ㅎㅕㅂㅎㅚ</w>": 4059,
      "ㅇㅏㄹㄱㅔ</w>": 4060,
      "ㅈㅓㄴㄱㅜㄱ": 4061,
      "ㅂㅏㄴㅇㅕㅇ": 4062,
      "ㅈㅏㅁㅅㅣ</w>": 4063,
      "ㅇㅣㄹㅇㅡ": 4064,
      "ㅂㅏㄹㄷㅏㄹ": 4065,
      "ㅇㅓㄹㅣㄴㅇㅣ": 4066,
      "ㅅㅣㄹㅎㅓㅁ": 4067,
      "ㅂㅏㅌㅏㅇ": 4068,
      "ㄷㅡㄷㄱㅗ</w>": 4069,
      "ㅌㅏㄹ</w>": 4070,
      ")'</w>": 4071,
      "ㅍㅡㄹㅣㄴ": 4072,
      "ㅇㅒㄱㅣ": 4073,
      "ㄷㅏㅂㄴㅣㄷㅏ</w>": 4074,
      "ㅇㅡㅇ</w>": 4075,
      "ㅇㅣㄺㄱㅗ</w>": 4076,
      "ㅎㅐㄱㅏ</w>": 4077,
      "ㅇㅜㄹㅣㄴㅏㄹㅏ</w>": 4078,
      "ㄷㅟㅅ": 4079,
      "ㅃㅗㅂ": 4080,
      "ㄱㅡㄹㅓㅁㅕㄴ</w>": 4081,
      "ㅊㅣㄴㅈㅓㄹ": 4082,
      "ㅌㅣㅂㅡ</w>": 4083,
      "ㄱㅗㅇㅎㅏㅇ": 4084,
      "ㅂㅕㄴㅎㅘ</w>": 4085,
      "ㅅㅜㄹㅣ": 4086,
      "ㄷㅐㄹㅣ": 4087,
      "ㅂㅏㅇㅂㅓㅂㅇㅡㄴ</w>": 4088,
      "Ex": 4089,
      "ㅊㅏㅇㅣ": 4090,
      "ㅊㅏㅇㅣㄱㅏ</w>": 4091,
      "ㅇㅢㅅㅏ": 4092,
      "ㄲㅏㅈㅣㄴㅡㄴ</w>": 4093,
      "ㅇㅘㄴㅅㅓㅇ": 4094,
      "ㅕㅇ</w>": 4095,
      "ㅎㅚㄴㅡㄴ</w>": 4096,
      "ㄷㅔㅇㅣ</w>": 4097,
      "ㅇㅜㄴㅡㄴ</w>": 4098,
      "ㅈㅓㄴㄱㅜㄱ</w>": 4099,
      "ㄱㅡㄹㅔㅇㅣ": 4100,
      "ㅂㅣㅎㅐㅇ": 4101,
      "ㅌㅗㄹㅗㄴ": 4102,
      "ㄴㅐㄱㅗ</w>": 4103,
      "ㅉㅏㄼㅇㅡㄴ</w>": 4104,
      "ㅂㅗㅇㅏㄴ</w>": 4105,
      "ㄷㅐㅊㅜㄹ</w>": 4106,
      "ㅁㅏㄴㅇㅝㄴ": 4107,
      "ot</w>": 4108,
      "ㄱㅐㄱㅏ</w>": 4109,
      "ㅂㅔㅌㅡ": 4110,
      "ㄱㅗㅈㅏ</w>": 4111,
      "ㅈㅣㄱㅇㅓㅂ": 4112,
      "ㄱㅗㅅㅇㅣ</w>": 4113,
      "ㅇㅡㅁㅕㄴㅅㅓ</w>": 4114,
      "ㄸㅡㄱㅓㅇㅜㄴ</w>": 4115,
      "Windows</w>": 4116,
      "ㅊㅐㅁ": 4117,
      "ㅎㅚㅅㅏ": 4118,
      "ㄷㅏㄴㅇㅢ</w>": 4119,
      "ㅎㅏㄴㅂㅓㄴ": 4120,
      "ㅁㅏㅇㅡㄹ</w>": 4121,
      "ㅎㅐㄷㅏㅇㅎㅏㄴㅡㄴ</w>": 4122,
      "ㅇㅠㅇㅛㅇ": 4123,
      "Sp": 4124,
      "Al": 4125,
      "ㅌㅓㄹㅡㄹ</w>": 4126,
      "ㄱㅜㄷ": 4127,
      "ㅇㅣㅇㅛㅇㅎㅏㅅㅣㄹ</w>": 4128,
      "ㄱㅐㅊㅚ</w>": 4129,
      "ㅍㅣㄹㅇㅛ</w>": 4130,
      "ㅈㅜㅁㅜㄴ</w>": 4131,
      "ㄱㅗㅇㅎㅏㅇ</w>": 4132,
      "ㄱㅏㅇㄴㅏㅁ": 4133,
      "CO": 4134,
      "ㄴㅜㄴ</w>": 4135,
      "ㅅㅐㅇㅅㅓㅇ": 4136,
      "ㅍㅡㄹㄹㅣㅋㅔㅇㅣ": 4137,
      "ㄱㅗㅇㅈㅣ</w>": 4138,
      "ㅅㅜㅅ": 4139,
      "ㅂㅡㄹㅏ": 4140,
      "ㅕㅆㄷㅏ</w>": 4141,
      "ㄴㅏㄲ": 4142,
      "ㅇㅣㄹㅂㅗㄴㅇㅢ</w>": 4143,
      "ㅍㅡㄹㄹㅏ": 4144,
      "ㅍㅕㅇㅎㅘ": 4145,
      "ㄲㅐㄲㅡ": 4146,
      "ㄷㅚㄴㄷㅏㄴㅡㄴ</w>": 4147,
      "ㅎㅐㄷㅏㅇㄷㅚㄴㅡㄴ</w>": 4148,
      "ㅅㅔㅅㅏㅇ</w>": 4149,
      "ㅅㅓㄱㅇㅡㄹ</w>": 4150,
      "ㅂㅗㅇ</w>": 4151,
      "ㅅㅓㅇㄴㅡㅇ": 4152,
      "ㅂㅗㄷㅗ": 4153,
      "ㄱㅡㄹㅐㅍㅡ</w>": 4154,
      "ㅅㅏㅇㅣㅌㅡㅇㅔ</w>": 4155,
      "ure</w>": 4156,
      "ㅅㅡㄴ": 4157,
      "ㄷㅏㄴㅊㅔ</w>": 4158,
      "ㅂㅕㄴㅎㅘㄹㅡㄹ</w>": 4159,
      "ㅇㅓㄹㅣㄴ</w>": 4160,
      "ㄱㅣㄱㅖ</w>": 4161,
      "ㅈㅓㅇㅅㅏㅇㅎㅚ": 4162,
      "ㅋㅏㅍㅔ</w>": 4163,
      "ㅌㅜ</w>": 4164,
      "ch</w>": 4165,
      "ID</w>": 4166,
      "ㄴㅓㄼ": 4167,
      "ㅇㅣㅎㅐ</w>": 4168,
      "ㅈㅓㅇㅂㅗㅇㅢ</w>": 4169,
      "ㅏㄱ</w>": 4170,
      "ㅈㅔㅎㅏㄴ</w>": 4171,
      "ㅅㅏㄻㅇㅢ</w>": 4172,
      "ㄴㅏㅁㄱㅕ": 4173,
      "ㅅㅣㄱㅏㄱ": 4174,
      "ㄱㅜㅇㄱㅡㅁㅎㅏㄴ</w>": 4175,
      "ㅇㅣㄴㅣ</w>": 4176,
      "ㅇㅏㅍㅇㅔㅅㅓ</w>": 4177,
      "ㅅㅡㄹㄹㅏㅇㅣ": 4178,
      "ㅋㅏㅋㅏㅇ": 4179,
      "net</w>": 4180,
      "ㅇㅓㅁㅁㅏ": 4181,
      "ㅂㅏㅇㅎㅑㅇ</w>": 4182,
      "ㅌㅣㅂ</w>": 4183,
      "ㄷㅜㄹ</w>": 4184,
      "ㅗㅅㅓ</w>": 4185,
      "ㅈㅏㅂㅗㄴ": 4186,
      "ㄴㅕ</w>": 4187,
      "ㅁㅣㄴㅈㅗㄱ": 4188,
      "ㅇㅓㅁㅊㅓㅇ": 4189,
      "ㅈㅓㄴㅕㄱ</w>": 4190,
      "En": 4191,
      "ㅇㅓㄴㅡㄴ</w>": 4192,
      "ㅂㅜㄹㄱㅜㅎㅏㄱㅗ</w>": 4193,
      "300": 4194,
      "ㅁㅏㅇㅡㅁ</w>": 4195,
      "ㅇㅙㄴ": 4196,
      "ㄱㅏㅆ": 4197,
      "ㄹㅔㅈㅡㅂㅣㅇㅓㄴ</w>": 4198,
      "ㅇㅣㄴㄷㅗ</w>": 4199,
      "ㅈㅜㅇㄴㅕㄴ": 4200,
      "ㅊㅔㅋㅡ": 4201,
      "5ㅍㅔㅇㅣㅈㅣ</w>": 4202,
      "4ㅍㅔㅇㅣㅈㅣ</w>": 4203,
      "HD</w>": 4204,
      "ㄴㅔㅇㅣㅂㅓ</w>": 4205,
      "ㄱㅝㄴㅎㅏㄴ": 4206,
      "ㄴㅐㄹ</w>": 4207,
      "ㄷㅏㄹㄹㅓ": 4208,
      "ㅍㅡㄹㅗㅅㅔ": 4209,
      "ㅂㅕㅇㅇㅝㄴ": 4210,
      "ㄷㅏㄹㅡㄴ": 4211,
      "ㅅㅗㄷㅡㄱ": 4212,
      "ㅂㅜㄴㅇㅑ</w>": 4213,
      "ㄱㅣㄷㅗ": 4214,
      "ㄷㅗㄱㄹㅣㅂ": 4215,
      "ㄱㅕㅇㅇㅕㅇ</w>": 4216,
      "ㄱㅡㄹㅡㄹ</w>": 4217,
      "ㅋㅏㅍㅔ": 4218,
      "ㅁㅔㅁ": 4219,
      "ㅁㅕㄴㅇㅡㄹ</w>": 4220,
      "3ㅍㅔㅇㅣㅈㅣ</w>": 4221,
      "ㄴㅓㅁㅜㄴ": 4222,
      "ㅈㅜㄹㅡㄹ</w>": 4223,
      "ㅅㅏㄱㅓㄴ</w>": 4224,
      "ㅗㅎ": 4225,
      "ㅂㅜㅂㅜㄴㅇㅣ</w>": 4226,
      "ㅎㅜㅂㅗ": 4227,
      "ㅁㅗㄱㅈㅓㄱ</w>": 4228,
      "ㅎㅕㄴㄷㅐ</w>": 4229,
      "ㅅㅏㄹㄱㅗ</w>": 4230,
      "ㅁㅕㅇㄹㅕㅇ": 4231,
      "ㅈㅔㅈㅗ": 4232,
      "ㅊㅣㄱㅏ</w>": 4233,
      "ㅇㅘㅅㅓ</w>": 4234,
      "ㅇㅓㅁㅓㄴㅣ": 4235,
      "ㅊㅜㄱㄱㅜ</w>": 4236,
      "ㅅㅣㄷㅗ": 4237,
      "ㅈㅓㄱㅎㅏㅂ": 4238,
      "AT": 4239,
      "ㅈㅔㄱㅓ": 4240,
      "ㅇㅚㄴ": 4241,
      "ㅕㄹ": 4242,
      "ㄹㅣㅈㅣ</w>": 4243,
      "ㅅㅏㅇㅣㅇㅔ</w>": 4244,
      "ㅁㅣㅇ</w>": 4245,
      "ㅇㅝㄹㄷㅡ</w>": 4246,
      "est</w>": 4247,
      "ㄹㅣㅈㅗ": 4248,
      "ㄱㅘㄴㅅㅣㅁㅇㅣ</w>": 4249,
      "ㅈㅏㅇㅅㅗ</w>": 4250,
      "ㄴㅗㄹㅇㅣ": 4251,
      "lu": 4252,
      "ㅌㅔㅅㅡㅌㅡ</w>": 4253,
      "ㄴㅕㄴㅇㅣ</w>": 4254,
      "ㄴㅣㅁㅇㅡㄴ</w>": 4255,
      "ㅂㅜㅅㅡㅌㅏㅂㅣㅅ</w>": 4256,
      "ㅅㅜㅂㅏㄲㅇㅔ</w>": 4257,
      "ㅁㅏㄹㅎㅏㄴㅡㄴ</w>": 4258,
      "ㅕㄱㅇㅡㄹ</w>": 4259,
      "ㅈㅏㄹㅏㅇ": 4260,
      "ㅆㅡㄹ</w>": 4261,
      "ㅎㅏㄴㅏㄴㅣㅁ": 4262,
      "ㅂㅐㅍㅗ</w>": 4263,
      "ㅂㅗㅇㅏㄴ": 4264,
      "ㄷㅐㅎㅘ": 4265,
      "ㅁㅏㅅㅏㅈㅣ</w>": 4266,
      "ㅇㅓㄷㅡ": 4267,
      "ㅊㅚㅈㅓ": 4268,
      "ㅅㅏㄱㅈㅔㄷㅚㄹ</w>": 4269,
      "ㅎㅕㅂㄹㅕㄱ": 4270,
      "ㅎㅏㄴㅔㅇㅛ</w>": 4271,
      "ㄷㅚㅁㅕㄴㅅㅓ</w>": 4272,
      "ㄱㅣㄱㅖ": 4273,
      "ㅈㅏㅊㅔㄱㅏ</w>": 4274,
      "ㅇㅣㄹㅗㄴ</w>": 4275,
      "ㄱㅛㅅㅜ": 4276,
      "ㄷㅐㅇㅡㅇ": 4277,
      "ㅁㅏㅋㅔㅌㅣㅇ": 4278,
      "ore": 4279,
      "ㅅㅗㅌㅗㅇ": 4280,
      "ㅅㅔㅅ": 4281,
      "ㅈㅣㅋㅕ": 4282,
      "ㅋㅓㅍㅣ</w>": 4283,
      "ㅎㅖㅌㅐㄱ": 4284,
      "ㅇㅣㄹㅝ": 4285,
      "ㅇㅝㄴㄹㅐ</w>": 4286,
      "ㅈㅓㄹㄷㅐ</w>": 4287,
      "ㄱㅣㄹㅇㅣ</w>": 4288,
      "2015ㄴㅕㄴ</w>": 4289,
      "ㅇㅣㅇㅛㅇㅎㅏㅇㅕ</w>": 4290,
      "ㅊㅏㅇㅇㅓㅂ": 4291,
      "ㅇㅓㅄㄷㅏㄱㅗ</w>": 4292,
      "ㅊㅐㅇㅛㅇ": 4293,
      "ㅇㅗㄹㅡㄴ": 4294,
      "ㅍㅐㅋㅣ": 4295,
      "ㅋㅏㅁㅔㄹㅏ</w>": 4296,
      "ass": 4297,
      "ㅂㅏㄴㅂㅗㄱ": 4298,
      "ㅁㅜㄴㅈㅐㅇㅣㄴ</w>": 4299,
      "ㄱㅜㄱㅏ</w>": 4300,
      "str": 4301,
      "ㅂㅏㄱㄱㅡㄴ": 4302,
      "ㅌㅜㅈㅏ</w>": 4303,
      "ㅎㅗㅁ</w>": 4304,
      "ㅅㅗㄹㄹㅜ": 4305,
      "ㄺㅇㅡㄴ</w>": 4306,
      "ㅎㅏㄴㅡㄴㅈㅣ</w>": 4307,
      "ㅁㅕㄹ": 4308,
      "!!!</w>": 4309,
      "ㄱㅓㅂㅜ": 4310,
      "ㅅㅐㅇㄱㅏㄱㅎㅏㄴㅡㄴ</w>": 4311,
      "ㅎㅐㄴㄷㅡ": 4312,
      "ㅊㅜㄹㅂㅏㄹ": 4313,
      "ㄷㅗㅇㅇㅢ</w>": 4314,
      "ㅂㅣㅍㅏㄴ": 4315,
      "ㅁㅜㅇㅓㅅㅇㅡㄹ</w>": 4316,
      "og": 4317,
      "ㅊㅣㅁㄷㅐ</w>": 4318,
      "ㄱㅏㅂㅈㅏㄱㅣ</w>": 4319,
      "Par": 4320,
      "ㄷㅡㄹㅏㅁㅏ</w>": 4321,
      "ㅌㅡㄹㅣㅂ": 4322,
      "ㄴㅏㅁㅂㅜㄱ": 4323,
      "ㄱㅡㅇ": 4324,
      "ㅔㄴㅡㄴ</w>": 4325,
      "ㄱㅜㄴㅏ</w>": 4326,
      "if": 4327,
      "ㅋㅝ": 4328,
      "ㅂㅗㄱㅘㄴ": 4329,
      "ㄱㅚㅇㅈㅏㅇㅎㅣ</w>": 4330,
      "ㅅㅡㄹㅓㅂㄱㅔ</w>": 4331,
      "ㄲㅜㄹ": 4332,
      "ㄴㅏㅌㅏㄴㅐ": 4333,
      "ㅇㅏㅁㅜㄹㅣ</w>": 4334,
      "ㅂㅗㅎㅗㄹㅡㄹ</w>": 4335,
      "LG": 4336,
      "ㅈㅓㅇㄱㅠ": 4337,
      "ㄱㅕㅇㅇㅜㄴㅡㄴ</w>": 4338,
      "ㅇㅗㄴㅡㄹㅇㅡㄴ</w>": 4339,
      "ㅇㅔㅅㅓㄴ</w>": 4340,
      "ㄱㅘㄴㄱㅖㄹㅡㄹ</w>": 4341,
      "ㅂㅣㄹㅗ": 4342,
      "ㄱㅜㅊㅜㄱ": 4343,
      "ㅂㅜㅌㅏㄱㄷㅡㄹㅣㅂㄴㅣㄷㅏ</w>": 4344,
      "ㄱㅣㅊㅗ": 4345,
      "ID": 4346,
      "ㅅㅗㄹㅣㄹㅡㄹ</w>": 4347,
      "ㅊㅠ": 4348,
      "ㅇㅓㅇㅜㄹ": 4349,
      "ㅁㅗㄹㅡㄴㅡㄴ</w>": 4350,
      "ㅂㅗㅇㅅㅏ": 4351,
      "90": 4352,
      "ㅅㅏㄹㅏㅁㄷㅡㄹㅇㅢ</w>": 4353,
      "ㄱㅓㄱㅈㅓㅇ": 4354,
      "ㅎㅏㄱㅣㄹㅗ</w>": 4355,
      "ㅎㅗㄱㅅㅣ</w>": 4356,
      "ㅅㅣㄱㅍㅜㅁ": 4357,
      "ㄷㅙㅆ": 4358,
      "ㄷㅡㄹㄹㅗ</w>": 4359,
      "ㅇㅣㅎㅜ": 4360,
      "ㄱㅓㅁㅅㅏ</w>": 4361,
      "ㅎㅐㅈㅜㄴㅡㄴ</w>": 4362,
      "LED</w>": 4363,
      "ㅅㅣㄴㄱㅕㅇ": 4364,
      "ㅁㅏㄴㄷㅡ": 4365,
      "ㅎㅏㄴㅌㅔ</w>": 4366,
      "ㅇㅕㅇㅇㅓㅂ": 4367,
      "ㅂㅣㄷㅣㅇㅗ</w>": 4368,
      "ㄴㅔㅅㅇㅢ</w>": 4369,
      "ㅎㅐㅆㅇㅓㅇㅛ</w>": 4370,
      "ㅅㅓㅇㄱㅘ": 4371,
      "ㅇㅣㅇ": 4372,
      "ㅈㅓㄹㅡㄹ</w>": 4373,
      "ㅎㅐㄹㅡㄹ</w>": 4374,
      "ㄷㅗㅇㅁㅜㄹ": 4375,
      "ㅇㅢㅇㅝㄴ</w>": 4376,
      "ㅇㅛㄹㅣ</w>": 4377,
      "ㅂㅏㄷㅇㅏㄷㅡㄹ": 4378,
      "ㅅㅜㄴㄱㅏㄴ</w>": 4379,
      "ㅇㅏㄶㄱㅔ</w>": 4380,
      "ㅅㅣㄹㅊㅓㄴ": 4381,
      "ㄷㅚ</w>": 4382,
      "ㅈㅏㅇㅇㅡㄹㅗ</w>": 4383,
      "ㅇㅘㄴㄹㅛ": 4384,
      "26</w>": 4385,
      "ㅇㅗㅍㅡㄴ</w>": 4386,
      "ㅈㅏㅂㄱㅗ</w>": 4387,
      "ㄷㅐㄱㅜ": 4388,
      "ㅇㅏㅁㅏ</w>": 4389,
      "ㄱㅓㅅㅇㅣ": 4390,
      "ㅇㅏㅇㅣㄷㅣ</w>": 4391,
      "ㅍㅗㅌㅡ": 4392,
      "ㄷㅗㄹ</w>": 4393,
      "ㅎㅚㄱㅏ</w>": 4394,
      "ㅂㅜㄴㄹㅠ": 4395,
      "ㄹㅗㄹㅡㄹ</w>": 4396,
      "ㅇㅚㅇㅔ</w>": 4397,
      "ㄱㅣㅈㅏ": 4398,
      "ㅂㅏㄴㅁㅕㄴ</w>": 4399,
      "ㅋㅐㄴㅏ": 4400,
      "ㄱㅗㅇㅇㅝㄴ</w>": 4401,
      "ㅅㅗㅅㅓㄹ": 4402,
      "ㄱㅓㄹㅐ</w>": 4403,
      "ㅂㅏㅇㅇㅏㄴ</w>": 4404,
      "ㅈㅗㅎㅇㅡㄴ": 4405,
      "ㅍㅏㅇㅝ": 4406,
      "ㄸㅐㄲㅏㅈㅣ</w>": 4407,
      "ㅅㅜㄴㄱㅏㄴ": 4408,
      "35": 4409,
      "ㄸㅡㄹ": 4410,
      "NE": 4411,
      "ㅈㅣㅂㄴㅣㄷㅏ</w>": 4412,
      "ㅈㅣㅇㅕㄱㅇㅢ</w>": 4413,
      "ㅊㅏㅂㅕㄹ": 4414,
      "Porn</w>": 4415,
      "ation": 4416,
      "ㅓㄹ": 4417,
      "ㄴㅗㅌㅡ": 4418,
      "ㄹㅗㅂㅗ": 4419,
      "ㅎㅕㄴㅈㅣ": 4420,
      "ㄱㅇㅣ</w>": 4421,
      "ㅁㅜㅅㅓㄴ</w>": 4422,
      "ㄲㅜㅈㅜㄴ": 4423,
      "ㄴㅕㄴㅂㅜㅌㅓ</w>": 4424,
      "ㅂㅡㄹㄹㅣ": 4425,
      "ㄱㅜㅈㅗ</w>": 4426,
      "ㅂㅓㄴㅉㅐ": 4427,
      "ㄱㅟㅎㅏ": 4428,
      "ㅂㅓㅁㅈㅚ": 4429,
      "SS": 4430,
      "ㅁㅔㄹㅣ": 4431,
      "ㅎㅘㄱㅈㅏㅇ": 4432,
      "ㅕㄴㅅㅓㄷㅗ</w>": 4433,
      "ㅅㅜㅇㅓㅂ": 4434,
      "ㅍㅛㅅㅣㄷㅚㅂㄴㅣㄷㅏ</w>": 4435,
      "ㅂㅜㄹㄹㅓ": 4436,
      "ㅛㅇ</w>": 4437,
      "ㅂㅡㄹㅜ</w>": 4438,
      "ㄸㅐㅁㅜㄴㅇㅣㅂㄴㅣㄷㅏ</w>": 4439,
      "ㅋㅡㄹㅣㅇㅔㅇㅣ": 4440,
      "32": 4441,
      "ㅃㅏ</w>": 4442,
      "ㄱㅗㄴ</w>": 4443,
      "ㄱㅗㅇㅛㅇ": 4444,
      "ㅇㅓㅁ</w>": 4445,
      "ㅅㅔㄱㅣ</w>": 4446,
      "ㅅㅣㄱㅏㄴㅇㅡㄴ</w>": 4447,
      "ㅇㅣㄴㅈㅡㅇ</w>": 4448,
      "ㅅㅡㄹㅣ": 4449,
      "ㄷㅗㅇㅣㅂ": 4450,
      "ㅇㅏㄶㅇㅡㄹㄲㅏ</w>": 4451,
      "ㅅㅗㅍㅡㅌㅡㅇㅞㅇㅓ</w>": 4452,
      "ㅅㅣㄴㅁㅜㄴ": 4453,
      "ㅅㅜㅈㅣㅂ</w>": 4454,
      "ㅎㅏㄹㄲㅏ</w>": 4455,
      "ㅜㅁ</w>": 4456,
      "ㄱㅘㄴㄹㅣㅈㅏ</w>": 4457,
      "ㅂㅏㅁ": 4458,
      "ㅈㅗㄹㅇㅓㅂ": 4459,
      "ㅅㅣㄹㅡㄹ</w>": 4460,
      "ㄸㅓㄴㅏ": 4461,
      "ㅇㅏㅍㅅㅓ</w>": 4462,
      "ㅎㅐㅇㅂㅗㄱㅎㅏㄴ</w>": 4463,
      "ㅇㅏㅈㅜ": 4464,
      "ㅈㅣㅂㅇㅡㄹ</w>": 4465,
      "ㅅㅏㅇㄱㅣ</w>": 4466,
      "ㅂㅏㅇㅁㅜㄴ</w>": 4467,
      "ㄱㅘㅎㅏㄱ</w>": 4468,
      "ㅈㅏㄹㅛㅇㅔ</w>": 4469,
      "ㄱㅣㅅㅜㄹㅇㅡㄹ</w>": 4470,
      "ㄴㅔㅇㅣㅁ": 4471,
      "AC": 4472,
      "ㅁㅕㄴㅇㅔㅅㅓ</w>": 4473,
      "ㄸㅐㄱㅏ</w>": 4474,
      "ㄷㅐㅈㅓㄴ</w>": 4475,
      "ㄷㅡㅇㅔ</w>": 4476,
      "ㅋㅗㄴ</w>": 4477,
      "OR": 4478,
      "ㅇㅏㅈㅣㄱㄷㅗ</w>": 4479,
      "ㅇㅣㅇㅛㅇㅎㅐ</w>": 4480,
      "ㄱㅕㅇㅎㅓㅁㅇㅡㄹ</w>": 4481,
      "ㅈㅔㄴㅡㄴ</w>": 4482,
      "are</w>": 4483,
      "ㅂㅣㅁㅣㄹㅂㅓㄴㅎㅗ</w>": 4484,
      "ㅈㅔㄴ": 4485,
      "ㅎㅏㄹㅇㅣㄴ</w>": 4486,
      "ㄱㅐㄴㅕㅁ</w>": 4487,
      "ㅅㅕㄹ</w>": 4488,
      "ㄱㅡㄹㅣㅁ": 4489,
      "ㄴㅏㅁㅇㅡㄴ</w>": 4490,
      "ㅊㅓㄱ</w>": 4491,
      "te": 4492,
      "ㄱㅡㄴㄹㅗ": 4493,
      "ㅇㅘㅆ": 4494,
      "ㄱㅏㅇㅑ</w>": 4495,
      "ㅈㅏㄷㅗㅇㅇㅡㄹㅗ</w>": 4496,
      "24ㅅㅣㄱㅏㄴ</w>": 4497,
      "ㅅㅣㅂㅅㅣㅇㅗ</w>": 4498,
      "ㄱㅟㅇㅕㅇ": 4499,
      "ㅆㅏㄴ</w>": 4500,
      "ㅇㅓㅆㄱㅗ</w>": 4501,
      "ㅅㅓㅇㅇㅣㄴ": 4502,
      "ㅇㅖㅂㅏㅇ": 4503,
      "ㅅㅐㅇㄱㅏㄱㅎㅏㄴㄷㅏ</w>": 4504,
      "ㅘㄴ": 4505,
      "ㅇㅏㄹㅣ": 4506,
      "ㅇㅣㄴㄱㅏㄴㅇㅢ</w>": 4507,
      "ㄱㅗㄹ</w>": 4508,
      "ㅅㅣㅁㄱㅏㄱ": 4509,
      "ㅂㅣㅇㅛㅇ</w>": 4510,
      "ㅂㅐㄱㄱㅘ</w>": 4511,
      "ㅇㅓㄴㅡ": 4512,
      "me": 4513,
      "ㅈㅓㄱㄱㅡㄱ": 4514,
      "ㅊㅏㄱㅏ</w>": 4515,
      "ㅂㅓㅂㅇㅔ</w>": 4516,
      "ㅇㅣㄹㅈㅓㅇ": 4517,
      "ㅅㅏㅇㅅㅔ": 4518,
      "ics</w>": 4519,
      "ㅇㅟㅇㅔㅅㅓ</w>": 4520,
      "1ㅁㅜㄴㅇㅢ": 4521,
      "ㅂㅜㅂㅜㄴㅇㅡㄹ</w>": 4522,
      "ㅇㅓㄴㅈㅔ</w>": 4523,
      "ㅊㅓㅇㄴㅕㄴ": 4524,
      "ㅎㅐㅇㅇㅟ</w>": 4525,
      "ㄱㅡㄷㅡㄹㅇㅣ</w>": 4526,
      "ㅇㅣㅁㅔ": 4527,
      "ㅊㅓㅇㅡㅁㅇㅡㄹㅗ</w>": 4528,
      "ㅂㅐㄱㄱㅘ": 4529,
      "ㄷㅐㅊㅔ": 4530,
      "ㅂㅕㄴㅎㅗ": 4531,
      "ㅇㅗㅍㅡㄴ": 4532,
      "ㅎㅏㄴㄷㅔ</w>": 4533,
      "ㅍㅣㅅㅡ</w>": 4534,
      "ㅇㅛㄱ</w>": 4535,
      "5ㅇㅣㄹ</w>": 4536,
      "Wi": 4537,
      "ㅇㅑㅇㅚ</w>": 4538,
      "ㅈㅔㅁㅗㄱ</w>": 4539,
      "ㄱㅏㄱㅔ</w>": 4540,
      "ㅈㅣㄱㅔ</w>": 4541,
      "ㄷㅗㅊㅏㄱ</w>": 4542,
      "ㅇㅓㄷㅇㅡㄹ</w>": 4543,
      "ㅁㅏㅅㅈㅣㅂ</w>": 4544,
      "ㄷㅔㄷㅗ</w>": 4545,
      "ㅁㅕㄴㅇㅔ</w>": 4546,
      "ㄷㅚㅇㅓㅆㄱㅗ</w>": 4547,
      "ㄴㅗㅇㅣㄴ": 4548,
      "27</w>": 4549,
      "ㅋㅗㄴㅌㅔㄴㅊㅡ": 4550,
      "ㄱㅗㅇㅑㅇㅇㅣ</w>": 4551,
      "ㅆㅡㄴ</w>": 4552,
      "ㅇㅣㄱㅓㅅㅇㅣ</w>": 4553,
      "ㄷㅡㅅ": 4554,
      "ㅇㅕㄹㅡㅁ</w>": 4555,
      "jp": 4556,
      "ㅈㅓㄴㅂㅏㄴ": 4557,
      "ㅂㅗㄱㅈㅏㅂ": 4558,
      "ㄱㅣㅇㅕ": 4559,
      "ㅍㅡㄹㅣㅁㅣ": 4560,
      "ㅅㅏㅁㅅㅓㅇ</w>": 4561,
      "ㅅㅓㄴㅁㅜㄹ": 4562,
      "ㄹㅏㅇㅣㄴ": 4563,
      "ㅌㅟ": 4564,
      "ㅅㅡㅇㅔㅅㅓ</w>": 4565,
      "ps</w>": 4566,
      "ㅎㅘㄱㅂㅗ": 4567,
      "ㄹㅛㄹㅡㄹ</w>": 4568,
      "ㅅㅏㅁㅏㅇ": 4569,
      "ㅈㅔㅇㅏㄴ": 4570,
      "ㅈㅏㄱㄷㅗㅇ": 4571,
      "ph": 4572,
      "ㅈㅐㄹㅡㄹ</w>": 4573,
      "ㄱㅓㅇㅑ</w>": 4574,
      "ㅍㅏㅇㅣ": 4575,
      "ㅁㅝㄴㄱㅏ</w>": 4576,
      "AM": 4577,
      "id</w>": 4578,
      "ㅎㅛㄱㅘ</w>": 4579,
      "ㅇㅢㅈㅗㄴ": 4580,
      "ㅇㅛㄱㅅㅓㄹ</w>": 4581,
      "ter</w>": 4582,
      "ㅈㅡㅇㅁㅕㅇ": 4583,
      "ㅇㅣㄴㄷㅗ": 4584,
      "ㄱㅏㅅㅏㅇ": 4585,
      "ㅍㅣㄹㅇㅛㅎㅏㄷㅏ</w>": 4586,
      "ㄱㅕㅇㄱㅣㄷㅗ</w>": 4587,
      "ㅇㅟㄱㅏ</w>": 4588,
      "ㅇㅠㅎㅕㅇ": 4589,
      "ㅋㅣㄹㄹㅗㅁㅣㅌㅓ": 4590,
      "ㅈㅔ2": 4591,
      "ㄱㅏㅁㅅㅗ": 4592,
      "ㅉㅡㅁ</w>": 4593,
      "ㅎㅏㅅㅕㅆ": 4594,
      "ㄱㅔㅇㅣㅁㅇㅡㄹ</w>": 4595,
      "ㄷㅐㄷㅏㄴ": 4596,
      "ㅅㅜㄱㅎㅏㄴ</w>": 4597,
      "ㄷㅚㄴㄷㅏㄱㅗ</w>": 4598,
      "ㅇㅝㄹㅇㅔ</w>": 4599,
      "ㅅㅓㅇㅜㄹㅅㅣ</w>": 4600,
      "ㅇㅠㅁㅕㅇㅎㅏㄴ</w>": 4601,
      "IP": 4602,
      "oun": 4603,
      "bo": 4604,
      "ㄷㅏㅅ": 4605,
      "7ㅇㅣㄹ</w>": 4606,
      "ㅅㅏㅇㅛㅇㅎㅏㄱㅗ</w>": 4607,
      "ㅊㅡㄹㅡㄹ</w>": 4608,
      "ㅁㅗㄷㅜㅇㅢ</w>": 4609,
      "ㄴㅐㅇㅔㅅㅓ</w>": 4610,
      "ㅈㅜㅅㅣㄴ</w>": 4611,
      "2ㄱㅐ</w>": 4612,
      "ㅍㅔㅇㅣㄴ</w>": 4613,
      "ㅎㅕㅇㅅㅓㅇ": 4614,
      "ㅇㅣㅈㅔㄴㅡㄴ</w>": 4615,
      "ㅎㅏㅅㅣㄴ": 4616,
      "ㅊㅐㅇ": 4617,
      "ㅅㅣㄱㅇㅢ</w>": 4618,
      "ㄴㅗㄹㄹㅏ": 4619,
      "ㅂㅏㅂ</w>": 4620,
      "yst": 4621,
      "ㄱㅗㅅㅇㅡㄹ</w>": 4622,
      "mm</w>": 4623,
      "ㄲㅗㅁ": 4624,
      "ㅇㅣㄱ</w>": 4625,
      "ㄱㅡㄹㅇㅡㄴ</w>": 4626,
      "ㅎㅐㄱㅅㅣㅁ": 4627,
      "ㅈㅡㄹㄱㅓㅇㅜㄴ</w>": 4628,
      "ㅅㅗㅇㅢ</w>": 4629,
      "ㅎㅐㅍㅣㅋㅐㅁㅍㅓ": 4630,
      "ㅅㅗㅇㅔㅅㅓ</w>": 4631,
      "ㅈㅣㅇㅓ</w>": 4632,
      "ㄹㅗㅅㄷㅔ": 4633,
      "ㅍㅣㄴ": 4634,
      "ㅂㅜㄴㅇㅢ</w>": 4635,
      "ㅅㅡㅌㅗㄹㅣ</w>": 4636,
      "ㄷㅗㅅㅓ</w>": 4637,
      "ㅂㅗㅇㅣㅈㅣ</w>": 4638,
      "ook</w>": 4639,
      "ㅏㅇㅔ</w>": 4640,
      "ㄴㅡㄲㅣㄹ</w>": 4641,
      "ㅊㅟㅇㅓㅂ": 4642,
      "ㅈㅣㄴㅊㅜㄹ": 4643,
      "ㅈㅓㄴㄱㅣ</w>": 4644,
      "ㄱㅘㄱㅓ</w>": 4645,
      "ㅈㅏㅁㅕㄴ</w>": 4646,
      "ㅅㅔㄹㅡㄹ</w>": 4647,
      "ㅎㅕㅁ": 4648,
      "ㅁㅗㅁㅇㅡㄹ</w>": 4649,
      "ㅎㅏㄷㅓㄹㅏㄷㅗ</w>": 4650,
      "ㅍㅗㄹㅡ": 4651,
      "ㅎㅘㄹㅇㅛㅇ</w>": 4652,
      "ㅋㅡㄹㄹㅓㅂ</w>": 4653,
      "Com": 4654,
      "ㅇㅗㄹㄹㅏㅇ": 4655,
      "ㅍㅜㄹ</w>": 4656,
      "ㅂㅏㅇㅂㅓㅂㅇㅡㄹㅗ</w>": 4657,
      "ory</w>": 4658,
      "ㅈㅓㄱㅇㅛㅇ</w>": 4659,
      "ㄱㅣㅎㅚㄹㅡㄹ</w>": 4660,
      "ly</w>": 4661,
      "ㅎㅣㅁㄷㅡㄴ</w>": 4662,
      "ㄱㅜㄱㅡㄹ</w>": 4663,
      "ㅅㅠㅍㅓ": 4664,
      "ㅁㅏㄴㄷㅡㄹㄱㅗ</w>": 4665,
      "ㄱㅏㅇㅇㅢ</w>": 4666,
      "ㅎㅏㄱㅈㅓㄱ</w>": 4667,
      "ㅊㅔㄱㅖ": 4668,
      "ㅈㅏㄴㅕ": 4669,
      "ㅎㅏㄱㅔㅆㄷㅏ</w>": 4670,
      "ㅎㅛㄱㅘㄹㅡㄹ</w>": 4671,
      "ㄷㅡㅇㅔㅅㅓ</w>": 4672,
      "ㅇㅏㅇㅣㅍㅗㄴ</w>": 4673,
      "ㅂㅜㄹㅇㅏㄴ": 4674,
      "ㅅㅣㅋㅕ</w>": 4675,
      "ㅅㅏㄹㅏㅇㅎㅏㄴㅡㄴ</w>": 4676,
      "ㅋㅓㄹㄹㅓ</w>": 4677,
      "ㅇㅏㅁㅜ</w>": 4678,
      "TE": 4679,
      "ㅎㅐㅆㅇㅡㅁㅕ</w>": 4680,
      "ㅇㅗㄹㄹㅕ": 4681,
      "ㅇㅏㄴㅐ</w>": 4682,
      "ㅁㅜㅇㅕㄱ": 4683,
      "ㄱㅓㅅㅇㅣㄴㄱㅏ</w>": 4684,
      "ㅇㅑㄱㄱㅏㄴ</w>": 4685,
      "ㅅㅏㅇㅌㅐ</w>": 4686,
      "ㅎㅏㄹㅕㄴㅡㄴ</w>": 4687,
      "ㄱㅛㅇㅠㄱㅇㅡㄹ</w>": 4688,
      "ㄱㅔㅆㄷㅏㄴㅡㄴ</w>": 4689,
      "ㅋㅏㅌㅔㄱㅗㄹㅣㅇㅢ</w>": 4690,
      "ㅇㅣㄱㅇㅡㄹ</w>": 4691,
      "ㅈㅜㅅㅣ</w>": 4692,
      "am</w>": 4693,
      "ㅇㅔㄴㅓㅈㅣ</w>": 4694,
      "ㅇㅜㄴㅈㅓㄴ": 4695,
      "ㅅㅡㅋㅡ": 4696,
      "ㅅㅡㅁㅏㅌㅡㅍㅗㄴ</w>": 4697,
      "ㅁㅗㅇㅢ</w>": 4698,
      "ㅇㅣㄴㅐ</w>": 4699,
      "ㄴㅏㅈㅜㅇㅇㅔ</w>": 4700,
      "rip": 4701,
      "ㄹㅣㅇㅋㅡ</w>": 4702,
      "ㅋㅗㄹㅣㅇㅏ</w>": 4703,
      "ㅂㅜㄷㅗㅇㅅㅏㄴ</w>": 4704,
      "ㄱㅜㅂㅜㄴ": 4705,
      "ㅇㅗㅅ": 4706,
      "ㅊㅚㅅㅣㄴ</w>": 4707,
      "ㅁㅜㄹㄹㅣ": 4708,
      "th</w>": 4709,
      "ㅂㅜㅇㅕ": 4710,
      "ㅂㅓㅂㄹㅠㄹ": 4711,
      "ㅇㅣㅇㅠㄱㅏ</w>": 4712,
      "ㅅㅔㅅㅏㅇㅇㅡㄹ</w>": 4713,
      "ㅇㅓㄷㅜ": 4714,
      "ㄸㅢ": 4715,
      "ㅇㅣㄲㅡㄹ": 4716,
      "ㄴㅏㅁㅓ": 4717,
      "ㅅㅏㅎㅚㅇㅢ</w>": 4718,
      "SM": 4719,
      "ㅅㅐㅇㅎㅘㄹㅇㅡㄹ</w>": 4720,
      "ㅈㅣㄱㅈㅏㅇ": 4721,
      "ㅇㅣㄹㅂㅏㄴㅈㅓㄱㅇㅡㄹㅗ</w>": 4722,
      "ㄷㅏㄹㄹㅕ": 4723,
      "ㅇㅓㄴㅇㅓ</w>": 4724,
      "ㄷㅡㄹㅏㅇㅣㅂ": 4725,
      "ㅈㅓㅇㄹㅣ</w>": 4726,
      "ㅅㅐㅇㄱㅣ": 4727,
      "ㅅㅔㅂ": 4728,
      "ㅅㅏㅇㅓㅂㅇㅡㄹ</w>": 4729,
      "ㅎㅗㅇㅂㅗ": 4730,
      "ㅅㅣㄴㄱㅗ</w>": 4731,
      "ㄷㅚㄴㅡㄴㄷㅔ</w>": 4732,
      "ㅎㅚㅅㅏㅇㅢ</w>": 4733,
      "ㅈㅓㅇㅇㅐㄱ</w>": 4734,
      "ㄱㅏㄴㅡㅇㅎㅏㄷㅏ</w>": 4735,
      "ㅈㅣㅈㅣ": 4736,
      "ㅂㅏㄴㄷㅐ": 4737,
      "jpg</w>": 4738,
      "ㅂㄴㅣㄷㅏㅁㅏㄴ</w>": 4739,
      "ㅈㅗㅁ": 4740,
      "ㅋㅡㄴㄱㅏㅅㅡㅁ</w>": 4741,
      "ㄴㅐㅇㅛㅇㅇㅣ</w>": 4742,
      "ㅎㅡㅇㅁㅣ": 4743,
      "3D</w>": 4744,
      "ㅈㅡㅇㅇㅡㄹ</w>": 4745,
      "ㄲㅔㅅㅓㄴㅡㄴ</w>": 4746,
      "ㄱㅗㅅㅇㅡㄴ</w>": 4747,
      "ㅇㅘㅇ</w>": 4748,
      "ㅇㅠㄹㅣ": 4749,
      "Goo": 4750,
      "ㅅㅗㄴㅇㅡㄹ</w>": 4751,
      "ㅁㅐㅈ": 4752,
      "ㅊㅐㅁㅍㅣ": 4753,
      "ㅇㅣㅇㅑ</w>": 4754,
      "ㅌㅐㅇㅑㅇ</w>": 4755,
      "ㄷㅡㄹㅇㅓㅆㄷㅏ</w>": 4756,
      "ㅍㅕㄴㅎㅏㄱㅔ</w>": 4757,
      "ㅌㅗㅇㅅㅣㄴ</w>": 4758,
      "ear": 4759,
      "ㄱㅛㅎㅘㄴ</w>": 4760,
      "se</w>": 4761,
      "ㅇㅗㄹㅠ": 4762,
      "ㅇㅣㅇㅠㄹㅗ</w>": 4763,
      "31": 4764,
      "ㄹㅓㅅㅣㅇㅏ</w>": 4765,
      "ㅅㅡㅋㅔ": 4766,
      "ㅅㅔㄱㅅㅣㅎㅏㄴ": 4767,
      "ㅁㅕㅇㅇㅡㄴ</w>": 4768,
      "ㅊㅜㄹㅍㅏㄴ": 4769,
      "ㅍㅛㅈㅜㄴ": 4770,
      "ㅅㅓㄹㄹㅣㅂ": 4771,
      "ㄱㅡㄹㅓㅁㅡㄹㅗ</w>": 4772,
      "ㅌㅣㄴ": 4773,
      "ㄱㅡㄴㅁㅜ": 4774,
      "3ㅎㅚ": 4775,
      "ㅊㅏㅈㄴㅡㄴ</w>": 4776,
      "ㅂㅗㄱㅈㅣ</w>": 4777,
      "ㅁㅏㄹㅇㅣㄷㅏ</w>": 4778,
      "ㅇㅣㅂㅓㄴㅇㅔ</w>": 4779,
      "ㅋㅗㄹㅣ": 4780,
      "ㄱㅗㅌㅗㅇ": 4781,
      "ㅂㅗㄷㅡ</w>": 4782,
      "ㅊㅐㅇㅛㅇ</w>": 4783,
      "ㅊㅟㅅㅗ</w>": 4784,
      "09</w>": 4785,
      "ㄷㅐㅊㅔ</w>": 4786,
      "ㄸㅏㄱ": 4787,
      "Ma": 4788,
      "ㅂㅣㅂㅏㅇ": 4789,
      "ㅎㅑㅇㅇㅣ</w>": 4790,
      "ㅅㅐㅁ": 4791,
      "ㅅㅡㅌㅓㄴ": 4792,
      "ㅇㅓㄴㅏ</w>": 4793,
      "ㄴㅏㅁㅍㅕㄴ": 4794,
      "ㅎㅏㄱㄴㅕㄴ</w>": 4795,
      "ㅅㅓㅇㄱㅕㅇ": 4796,
      "Un": 4797,
      "ㅇㅕㄴㅅㅡㅂ": 4798,
      "ㄱㅣㅂㅏㄴ</w>": 4799,
      "ㅁㅏㄹㅎㅏㄴㄷㅏ</w>": 4800,
      "ㅇㅏㅇㅣㅍㅗㄴ": 4801,
      "ㅇㅣㅇㅛㅇㅎㅏㄴ</w>": 4802,
      "ㅈㅜㅁㅗㄱ": 4803,
      "ㄸㅐㄷㅗ</w>": 4804,
      "ㄱㅖㅇㅑㄱ</w>": 4805,
      "ㄷㅔㄴ": 4806,
      "ㄷㅐㅈㅓㄴ": 4807,
      "ㅌㅏㅇㅣㅁ": 4808,
      "Ar": 4809,
      "ㅅㅜㄱ</w>": 4810,
      "ㅋㅏㅈㅣㄴㅗ": 4811,
      "ㅈㅓㄴㅇㅛㅇ</w>": 4812,
      "ㅈㅓㅇㅂㅜㅇㅢ</w>": 4813,
      "king</w>": 4814,
      "ㅊㅏㅁㄱㅗ</w>": 4815,
      "ㅍㅔㅇㅣㅅㅡㅂㅜㄱ</w>": 4816,
      "ㅈㅏㄹㅛㄹㅡㄹ</w>": 4817,
      "ㅂㅐㅌㅓ": 4818,
      "ㅌㅡㄹㅐㄱ": 4819,
      "28</w>": 4820,
      "ㄱㅐㅈㅓㅇ": 4821,
      "ㅅㅏㅇㅣㅌㅡㅇㅢ</w>": 4822,
      "ㅁㅗㄷㅜㄱㅏ</w>": 4823,
      "ㅈㅓㄹㅕㅁㅎㅏㄴ</w>": 4824,
      "ㅏㄷㅗ</w>": 4825,
      "ㄹㅕㄹ": 4826,
      "ㅅㅓㅇㄱㅕㄱ": 4827,
      "ㅇㅑㄱㅅㅗㄱ": 4828,
      "Mic": 4829,
      "ㅍㅏㅌㅡ": 4830,
      "ㄷㅏㄹㅜ": 4831,
      "ㅅㅔㄱㅅㅣㅎㅏㄴㅈㅜㅇㄴㅕㄴ": 4832,
      "ㄷㅓㅂㅜㄹㅇㅓ</w>": 4833,
      "ㅂㅘㅇㅑ</w>": 4834,
      "ㅎㅐㅅㅓㄱ": 4835,
      "ㅎㅏㄷㅏㄱㅏ</w>": 4836,
      "ㅇㅓㄹㅁㅏ</w>": 4837,
      "ㅁㅗㅅㅡㅂㅇㅣ</w>": 4838,
      "ㄹㅣㄱㅡ": 4839,
      "Serv": 4840,
      "ㄷㅓㄹ": 4841,
      "ㄷㅏㄹㅡㄹ</w>": 4842,
      "ㅈㅏㅇㄱㅘ</w>": 4843,
      "ㅈㅏㄹㅂㅗㄱㅗ</w>": 4844,
      "ㅍㅡㄹㅗ</w>": 4845,
      "ㅁㅗㄱㅈㅓㄱㅇㅡㄹㅗ</w>": 4846,
      "ㅁㅓㅁ": 4847,
      "ㄱㅗㅇㅅㅏ</w>": 4848,
      "ㅇㅓㅇㅢ</w>": 4849,
      "ㅇㅏㅍㅡ": 4850,
      "ㅅㅏㄴㅣ": 4851,
      "ㅇㅠㅇㅣㄹ": 4852,
      "ㅅㅏㅇㅣㅌㅡㄹㅡㄹ</w>": 4853,
      "ros": 4854,
      "ㅂㅔㄹ</w>": 4855,
      "ㅍㅡㄹㅔㅇㅣ": 4856,
      "ㅇㅕㅇㅠ": 4857,
      "ㅅㅣㄹㅅㅣㄱㅏㄴ</w>": 4858,
      "ㅂㅏㅇㅅㅣㄱㅇㅡㄹㅗ</w>": 4859,
      "ㄲㅡㅁ</w>": 4860,
      "ㅂㅗㄱㅅㅏ</w>": 4861,
      "ㅊㅏㅁㅇㅕ</w>": 4862,
      "ㄷㅐㅌㅗㅇㄹㅕㅇㅇㅣ</w>": 4863,
      "ㄲㅗㅊ</w>": 4864,
      "ㅅㅜㅇㅣㅂ": 4865,
      "ㄱㅡㄹㅓㅎㅈㅣ</w>": 4866,
      "ㅈㅜㄴㅂㅣ</w>": 4867,
      "ㅇㅠㅊㅣ": 4868,
      "ㅂㅏㅇㅊㅣㅁㅇㅔ</w>": 4869,
      "ㄱㅐㄴㅕㅁ": 4870,
      "ㅎㅜㄹㄹㅠㅇㅎㅏㄴ</w>": 4871,
      "ㅅㅏㅇㅇㅡㄴ</w>": 4872,
      "ㅅㅣㅇ</w>": 4873,
      "ㅇㅖㅈㅓㅇㅇㅣㄷㅏ</w>": 4874,
      "ㅅㅓㅅ</w>": 4875,
      "ㄱㅠㅁㅗ": 4876,
      "ㅇㅣㄷㅡㄹ</w>": 4877,
      "ㄹㅕㄴ</w>": 4878,
      "ㄲㅏㅁ": 4879,
      "ㅇㅏㄹㅐㅇㅘ</w>": 4880,
      "ㅇㅡㅁㅇㅣ</w>": 4881,
      "ㅋㅓㅂ": 4882,
      "ㄴㅣㅁㅇㅡㄹ</w>": 4883,
      "ㄴㅐㅂㅜ</w>": 4884,
      "ㅅㅓㄴㅇㅡㄴ</w>": 4885,
      "ㅏㄹㅗ</w>": 4886,
      "ㅁㅜㄹㄱㅓㄴ": 4887,
      "ㄱㅏㅁㄷㅗㄱ</w>": 4888,
      "ㅈㅏㅇㅊㅣ</w>": 4889,
      "ㅂㅜㄹㅂㅓㅂ</w>": 4890,
      "ㅇㅜㄹㅕ": 4891,
      "ㄷㅓㄱㅂㅜㄴㅇㅔ</w>": 4892,
      "ㅊㅐㄴㅓㄹ</w>": 4893,
      "ㅉㅗㄱㅇㅔ</w>": 4894,
      "ㅍㅗㅎㅏㅁㅎㅏㄴ</w>": 4895,
      "29</w>": 4896,
      "ㅈㅓㅁㅇㅡㄹㅗ</w>": 4897,
      "ㅈㅗㅎㅇㅏㅇㅛ</w>": 4898,
      "ㅃㅏㅇ": 4899,
      "ㅊㅏㅇㅝㄴ": 4900,
      "ㅈㅗㅈㅓㅇ": 4901,
      "6ㅍㅔㅇㅣㅈㅣ</w>": 4902,
      "ㅂㅗㅁㅕㄴㅅㅓ</w>": 4903,
      "ㄱㅏㅇㅇㅝㄴ": 4904,
      "ㅇㅣㅂㄱㅗ</w>": 4905,
      "ㄱㅜㅎㅕㄴ": 4906,
      "2010": 4907,
      "ㄱㅣㄷㅏㄹ": 4908,
      "ㅍㅜㅁㅈㅣㄹ": 4909,
      "ㄴㅏㅁㅇㅏ</w>": 4910,
      "Mar": 4911,
      "ㄹㅑㅇㅇㅡㄹ</w>": 4912,
      "ㅊㅔㄱㅏ</w>": 4913,
      "ㅇㅗㄹㄹㅣㅁㅍㅣㄱ</w>": 4914,
      "ㅆㅅㅡㅂㄴㅣㄲㅏ</w>": 4915,
      "ㄷㅚㅁ</w>": 4916,
      "ㄴㅏㅈㅇㅡㄴ</w>": 4917,
      "ㄴㅣㅇ": 4918,
      "ㅌㅡㄴㅇㅡㄹ</w>": 4919,
      "ㅅㅣㅅㅡㅌㅔㅁㅇㅡㄹ</w>": 4920,
      "ㅅㅣㅇㅢ</w>": 4921,
      "ㅇㅓㄹㅗ</w>": 4922,
      "ㅊㅣㅇ</w>": 4923,
      "2014ㄴㅕㄴ</w>": 4924,
      "BS</w>": 4925,
      "ㅎㅕㄴㅈㅏㅇ</w>": 4926,
      "os</w>": 4927,
      "ㅅㅗㄱㄷㅗ</w>": 4928,
      "ㅂㅏㄹㅡㄴ</w>": 4929,
      "ㄸㅡㅅㅎㅏㄴ</w>": 4930,
      "ㄱㅔㅆㅈㅛ</w>": 4931,
      "ㄴㅕㄴㅇㅡㄹ</w>": 4932,
      "ㅅㅓㄱㅏ</w>": 4933,
      "ㅇㅓㅈㅔ</w>": 4934,
      "2ㅍㅔㅇㅣㅈㅣ</w>": 4935,
      "ㅊㅜㄹㅇㅕㄴ": 4936,
      "ㅇㅠㅌㅠ": 4937,
      "ㅇㅔㄹㄹㅣ": 4938,
      "ㅅㅗㄹㅈㅣㄱ": 4939,
      "ㅎㅏㅇㅜㅅㅡ</w>": 4940,
      "ㄱㅕㅇㄱㅣㄹㅡㄹ</w>": 4941,
      "ㄱㅘㄱㅓ": 4942,
      "ㅇㅏㄶㄷㅗㄹㅗㄱ</w>": 4943,
      "ㅇㅣㅇㅔㅇㅛ</w>": 4944,
      "ㅈㅡㄹㄱㅣ": 4945,
      "ㄷㅜㄴ": 4946,
      "2ㅇㅣㄹ</w>": 4947,
      "ㅍㅗㄱㅣ": 4948,
      "ㅅㅗㄹㅣㄱㅏ</w>": 4949,
      "ㄱㅓㅅㅇㅣㄱㅗ</w>": 4950,
      "ㄱㅘㄴㅇㅡㄴ</w>": 4951,
      "per": 4952,
      "ㄱㅘㅇㄱㅗㄱ": 4953,
      "ㅈㅓㄴㅅㅗㅇ": 4954,
      "ㄷㅔㅇㅣㅌㅓㅂㅔㅇㅣ": 4955,
      "ㄴㅜㄴㅇㅡㄹ</w>": 4956,
      "ㅈㅐㅍㅏㄴ": 4957,
      "ㅂㅅㅡㅂㄴㅣㄷㅏ</w>": 4958,
      "ㄷㅚㄴㅡㄴ": 4959,
      "ㅁㅜㄷㅏㄴ</w>": 4960,
      "ㅇㅠㅌㅗㅇ": 4961,
      "ㅎㅐㅈㅣㄴ</w>": 4962,
      "ㄱㅗㅇㅇㅠ</w>": 4963,
      "2016</w>": 4964,
      "ㅅㅏㅇㅎㅘㅇㅇㅔㅅㅓ</w>": 4965,
      "ㅋㅔㅇㅣㅅㅡ</w>": 4966,
      "ㄷㅏㅇㅇㅕㄴㅎㅣ</w>": 4967,
      "Ph": 4968,
      "2018": 4969,
      "--</w>": 4970,
      "ㅇㅕㅇㅅㅏㅇㅇㅡㄹ</w>": 4971,
      "ㅇㅣㄹㅂㅗ</w>": 4972,
      "ore</w>": 4973,
      "ㄹㅣㄹ": 4974,
      "ㅇㅏㄴㅣㄴㄱㅏ</w>": 4975,
      "ㅈㅓㅈ": 4976,
      "ㅅㅜㄴㅇㅟ</w>": 4977,
      "ㅈㅓㅇㅎㅘㄱㅎㅏㄴ</w>": 4978,
      "ㅊㅚㅈㅗㅇ</w>": 4979,
      "ㅍㅗㅎㅏㅁㄷㅚㅇㅓ</w>": 4980,
      "ㄴㅏㅅㅓ": 4981,
      "ㅇㅟㄴㅡㄴ</w>": 4982,
      "ㅊㅗㄹ": 4983,
      "ㅇㅣㄹㅓㄴ": 4984,
      "ㅎㅏㅅㅣㄱㅗ</w>": 4985,
      "ㄱㅗㅇㅅㅣㄱ": 4986,
      "IP</w>": 4987,
      "Ac": 4988,
      "ㄱㅗㄱㅡㅂ</w>": 4989,
      "ㅍㅣㄴ</w>": 4990,
      "ㅂㅏㅇㅂㅓㅂㅇㅣ</w>": 4991,
      "Fi</w>": 4992,
      "ㅁㅏㄴㄴㅏㄴ</w>": 4993,
      "ㅇㅣㄴㄷㅡㄹㅇㅣ</w>": 4994,
      "Tr": 4995,
      "ㅂㅜㄴㄷㅡㄹ": 4996,
      "ㅋㅡㄹㄹㅏㅇㅜ": 4997,
      "ㅂㅓㄹㅕ": 4998,
      "ㅈㅜㅇㅅㅗ": 4999,
      "ㄴㅡㄲㅣㅁㅇㅣ</w>": 5000,
      "ㄱㅏㄴㄷㅏㄴㅎㅏㄴ</w>": 5001,
      "ㅇㅏㄴㅌㅏ</w>": 5002,
      "ㅅㅔㄱ": 5003,
      "ㅅㅏㅇㅅㅡㅇ": 5004,
      "ㅇㅕㅇㄱㅜㄱ": 5005,
      "wit": 5006,
      "ㅇㅕㅁ</w>": 5007,
      "ㅎㅕㄴㅅㅣㄹ</w>": 5008,
      "ㅅㅏㄹㅏㅁㄷㅡㄹㅇㅡㄹ</w>": 5009,
      "ㅇㅚㅂㅜ</w>": 5010,
      "ㅇㅟㅋㅣㅂㅐㄱㄱㅘ</w>": 5011,
      "ㅇㅣㄹㅇㅡㅋㅣ": 5012,
      "ㅂㅜㅂㅜㄴㅇㅡㄴ</w>": 5013,
      "40</w>": 5014,
      "ㅈㅣㅂㅐ": 5015,
      "ㅎㅗㅁㄹㅓㄴ</w>": 5016,
      "ㅊㅏㄹㅗ</w>": 5017,
      "ㄹㅕㄱㅇㅡㄴ</w>": 5018,
      "3ㅇㅣㄹ</w>": 5019,
      "ㅅㅡㅋㅡㄹㅣㅂ": 5020,
      "ㅅㅐㅇㄱㅕ": 5021,
      "ㄱㅘㄴㅇㅢ</w>": 5022,
      "ㅊㅐㄴㅓㄹ": 5023,
      "ㅇㅣㅆㅇㅓ": 5024,
      "ㅈㅜㅅㅣㄱ": 5025,
      "ㅇㅗㄹㅎㅐ": 5026,
      "ㅇㅗㄹㅣ": 5027,
      "ㄱㅘㄴㅊㅡㄱ": 5028,
      "ㅁㅕㄴㅈㅓㅂ": 5029,
      "ㅌㅗㅇㅇㅣㄹ": 5030,
      "ㅇㅣㄴㅇㅔ</w>": 5031,
      "ㅁㅜㄹㅈㅣㄹ": 5032,
      "ㅂㅜㄴㅇㅡㄴ</w>": 5033,
      "ㄱㅗㄹㅍㅡ": 5034,
      "ㅈㅏㅇㄴㅏㄴㄱㅏㅁ</w>": 5035,
      "ㅊㅜㄹㅅㅣ</w>": 5036,
      "ㄱㅏㄷㅡㄱ": 5037,
      "ㅎㅏㄱㅅㅡㅂ</w>": 5038,
      "ㅅㅏㅇㅎㅘㅇ</w>": 5039,
      "ㅈㅗㄱㅓㄴㅇㅣ</w>": 5040,
      "ㅎㅚㅇㅔ</w>": 5041,
      "ㅁㅏㄹㅇㅡㄴ</w>": 5042,
      "ㄷㅜㄹㅕㅇ": 5043,
      "ㅈㅏㅇㅕㄴ</w>": 5044,
      "ist": 5045,
      "ㅂㅣㄴㅡㄴ</w>": 5046,
      "ㅇㅣㅆㅇㅡㅁㅡㄹㅗ</w>": 5047,
      "ㅂㅓㄹㅣㄴ</w>": 5048,
      "ㅂㅗㄱㅇㅡㄹ</w>": 5049,
      "ㅍㅣㄹㅅㅜ</w>": 5050,
      "ㄱㅣㅃ": 5051,
      "ㄴㅐㅁ": 5052,
      "ㅅㅏㅇㅍㅜㅁㅇㅡㄹ</w>": 5053,
      "ㄴㅕㄴㄷㅐ</w>": 5054,
      "ㄱㅡㅈㅓ</w>": 5055,
      "ㅇㅏㅁㅎㅗ": 5056,
      "ㅁㅗㄱㄹㅗㄱ": 5057,
      "ㄱㅣㅈㅜㄴㅇㅡㄹㅗ</w>": 5058,
      "ㄱㅗㅇㅇㅕㄴ</w>": 5059,
      "ㅋㅓㄹ</w>": 5060,
      "ㅅㅟㅂㅈㅣ</w>": 5061,
      "ㅍㅗㄹㄹㅣ": 5062,
      "ㄱㅔㅅㅣㅍㅏㄴ</w>": 5063,
      "ㅓㄴ</w>": 5064,
      "ㅊㅗㄱㅘ": 5065,
      "ㅅㅏㄷㅏㄹㅣ": 5066,
      "ㅁㅜㄴㅇㅢㅎㅏㅅㅣㄹ</w>": 5067,
      "ㄷㅏㄹㅣ</w>": 5068,
      "ㄹㅔㅅㅡㅌㅗㄹㅏㅇ</w>": 5069,
      "PD": 5070,
      "ㄱㅠㅁㅗ</w>": 5071,
      "ml</w>": 5072,
      "ㄹㅏㅁ</w>": 5073,
      "ㅋㅐㄴ": 5074,
      "ㅅㅡㅌㅣㅇ</w>": 5075,
      "ㅇㅣㄴㅐㅇㅔ</w>": 5076,
      "ㅅㅓㄴㅁㅜㄹ</w>": 5077,
      "ㅇㅚㅇㅔㄷㅗ</w>": 5078,
      "ㄱㅟㅇㅕㅇㅜㄴ</w>": 5079,
      "ㄷㅏㄴㅇㅣ</w>": 5080,
      "ㅇㅢㅎㅏㅇㅕ</w>": 5081,
      "ㅈㅚㅅㅗㅇ": 5082,
      "ㄱㅗㅇㅈㅓㅇ": 5083,
      "ㄷㅏㅇㅜㄴㄹㅗㄷㅡㄱㅏ</w>": 5084,
      "ㅇㅓㄹㄱㅜㄹ</w>": 5085,
      "ㅂㅐㅇ": 5086,
      "2ㅈㅜㄱㅏㄴ</w>": 5087,
      "ㅁㅣㄹ</w>": 5088,
      "ㅈㅗㅈㅓㄹ": 5089,
      "ㄹㅐㅇ": 5090,
      "ㅎㅏㅁㅇㅔ</w>": 5091,
      "ㅈㅡㄹㅡㄹ</w>": 5092,
      "ov": 5093,
      "ㄴㅏㅁㅇㅏ": 5094,
      ":)</w>": 5095,
      "ㅅㅜㅇㅣㄱ": 5096,
      "ㅇㅝㄴㅊㅣㄱ": 5097,
      "ㅅㅡㅁㅏㅌㅡㅍㅗㄴ": 5098,
      "ㅈㅏㄷㅗㅇ</w>": 5099,
      "ㄸㅏㄸㅡㅅㅎㅏㄴ</w>": 5100,
      "ㅅㅗㅅㅕㄹㄱㅡㄹㅐㅍㅡ</w>": 5101,
      "ㄷㅏㄴㅇㅡㄴ</w>": 5102,
      "ㄱㅡㅇㅔ</w>": 5103,
      "ㅎㅓㅇㅛㅇ": 5104,
      "ㅂㅣㄹㅗㅅ": 5105,
      "ㅂㅏㄱㅅㅡ</w>": 5106,
      "ㅇㅣㅆㅇㅓㅆㄴㅡㄴㄷㅔ</w>": 5107,
      "ㅇㅣㄹㅅㅏㅇ": 5108,
      "ㅇㅣㅂㄹㅕㄱ</w>": 5109,
      "ㅍㅕㄴㅇㅢ": 5110,
      "ㅍㅏㄴㅁㅐㅈㅏㅇㅔㄱㅔ</w>": 5111,
      "ㅈㅏㄹㅣㅇㅔ</w>": 5112,
      "ㅈㅐㅅㅏㄴ": 5113,
      "ㄴㅏㅁㅅㅓㅇ</w>": 5114,
      "ㅎㅘㄱㄷㅐ": 5115,
      "ㅅㅜㅇㅛ": 5116,
      "ㅈㅟ": 5117,
      "ㅋㅡㄹㄹㅣㄱ</w>": 5118,
      "ㄷㅗㄱㅇㅣㄹ": 5119,
      "ㅋㅓㄴㅌㅡㄹ": 5120,
      "ㄱㅜㄱㄹㅣㅂ": 5121,
      "ㅂㅏㅇㅇㅡㄹ</w>": 5122,
      "ㄱㅐㅅㅓㄴ</w>": 5123,
      "ㅈㅜㄴㅕㄴ</w>": 5124,
      "ㅋㅓㅁ</w>": 5125,
      "ㅈㅗㅇㄹㅠ</w>": 5126,
      "ㄱㅏㄱㅇㅢ</w>": 5127,
      "ㄱㅓㅁ</w>": 5128,
      "2000": 5129,
      "ㅊㅏㅁㅈㅗ": 5130,
      "ㅅㅏㄹㅏㅁㄷㅡㄹ": 5131,
      "wor": 5132,
      "ㅋㅗㅁ": 5133,
      "ㅂㅗㄷㅏ": 5134,
      "ㅇㅔㄱ": 5135,
      "ㅇㅝㄴㅇㅡㄹㅗ</w>": 5136,
      "45": 5137,
      "ㅂㅓㅌㅡㄴㅇㅡㄹ</w>": 5138,
      "ㅇㅜㅇ": 5139,
      "ers</w>": 5140,
      "ㅈㅗㅇㅇㅢ</w>": 5141,
      "ㅂㅐㄱㄱㅘㅅㅏㅈㅓㄴ</w>": 5142,
      "ㅊㅘㄹㅇㅕㅇ</w>": 5143,
      "ㄱㅡㄸㅐ</w>": 5144,
      "ㅎㅏㅁㅇㅣ</w>": 5145,
      "ㅈㅓㄴㅁㅏㅇ</w>": 5146,
      "ㄷㅓㅅ": 5147,
      "ㅇㅏㄴㅇㅢ</w>": 5148,
      "ㅈㅜㄱㅏ</w>": 5149,
      "ㅈㅓㅇㅢ</w>": 5150,
      "ㅊㅜㄱㅈㅔ</w>": 5151,
      "ㄱㅘㄴㄱㅘㅇ</w>": 5152,
      "ㄲㅗㄹ": 5153,
      "ㅊㅣㅈㅣ</w>": 5154,
      "ev": 5155,
      "ㄷㅜㅇ": 5156,
      "ㄱㅣㅎㅚㄱ</w>": 5157,
      "ㄷㅗㅇㅈㅏㄱ": 5158,
      "ㅅㅔㄱㅅㅣㅎㅏㄴㅈㅜㅇㄴㅕㄴㅇㅕㅅㅓㅇ</w>": 5159,
      "ㅁㅜㅎㅏㄴ": 5160,
      "ㅊㅔㅇㅣㄴ</w>": 5161,
      "ㄴㅗㅍㅇㅏ": 5162,
      "ㅎㅘㄱㅅㅣㄹㅎㅣ</w>": 5163,
      "ㅍㅗㅌㅗ</w>": 5164,
      "ㅎㅏㄴㄱㅡㄹ": 5165,
      "ㅅㅣㅈㅓㄹ": 5166,
      "TO": 5167,
      "Ge": 5168,
      "ㄱㅜㅁㅐㅈㅏㅇㅢ</w>": 5169,
      "ㅁㅐㄴㅕㄴ</w>": 5170,
      "ㅇㅣㄷㅡㄹㅇㅡㄴ</w>": 5171,
      "ㅊㅕㅆㄷㅏ</w>": 5172,
      "ㄱㅡㄹㅣ</w>": 5173,
      "ㅈㅔㅇㅔ</w>": 5174,
      "ㅇㅏㄶㅇㅡㅁㅕ</w>": 5175,
      "ㅁㅗㄹㄹㅏ": 5176,
      "ㅇㅠㅈㅣ</w>": 5177,
      "ㅈㅓㅇㄷㅗㅇㅢ</w>": 5178,
      "ㅅㅐㅇㅅㅏㄴ</w>": 5179,
      "ㅂㅗㅈㅡㅇㅎㅏㅈㅣ</w>": 5180,
      "ㅇㅣㄴㄱㅝㄴ": 5181,
      "ㄱㅐㅇㅣㄴㅈㅓㅇㅂㅗㄹㅡㄹ</w>": 5182,
      "ㅅㅓㅂㅓ</w>": 5183,
      "ㄴㅗㅊㅜㄹ": 5184,
      "ㅇㅏㄴㅣㅎㅏㅁㅕ</w>": 5185,
      "ㄴㅡㅇㄹㅕㄱㅇㅡㄹ</w>": 5186,
      "ㅁㅏㄹㅇㅔ</w>": 5187,
      "ㅋㅓㄹㄹㅓ": 5188,
      "ㅋㅐㅁ</w>": 5189,
      "ㅈㅗㅊㅏ</w>": 5190,
      "ㅇㅑㄱㅜ": 5191,
      "ess": 5192,
      "ㅎㅏㅂㄹㅣ": 5193,
      "ㅇㅛㅈㅡ": 5194,
      "ㅅㅣㅅㅡㅌㅔㅁ": 5195,
      "ㅈㅓㅇㄱㅣ": 5196,
      "ㅎㅗㅁㄹㅓㄴ": 5197,
      "ㅂㅗㅁㅕ</w>": 5198,
      "ㅅㅏㅇㅎㅘㅇㅇㅡㄹ</w>": 5199,
      "ㅈㅏㄱㅍㅜㅁ</w>": 5200,
      "ㄷㅏㅇㅜㄴㅂㅏㄷㅇㅡㄴ</w>": 5201,
      "ㅂㅗㅁ": 5202,
      "ㄷㅟㅇㅔ</w>": 5203,
      "ㅇㅏㄴㄷㅡㄹㅗㅇㅣㄷㅡ</w>": 5204,
      "7ㅍㅔㅇㅣㅈㅣ</w>": 5205,
      "ㅇㅛㅇㅑㄱ": 5206,
      "ㅎㅑㅇㅎㅜ</w>": 5207,
      "ㅊㅜㄹㅊㅓ</w>": 5208,
      "ㅈㅗㅎㅇㅡㄹ</w>": 5209,
      "ㅂㅘㅆ": 5210,
      "ㅈㅓㅇㅇㅡㄹㅗ</w>": 5211,
      "ㅇㅛㅊㅓㅇ</w>": 5212,
      "ago</w>": 5213,
      "90</w>": 5214,
      "ub</w>": 5215,
      "ㄱㅗㅇㄷㅗㅇ</w>": 5216,
      "10ㄴㅕㄴ</w>": 5217,
      "ㄷㅏㄱㅏㅇ": 5218,
      "ㅈㅓㄴㄱㅗㅇ": 5219,
      "ㅅㅐㄹㅗㅂㄱㅔ</w>": 5220,
      "ㅅㅏㅇㅎㅘㅇㅇㅔ</w>": 5221,
      "ㅇㅐㄱㅅㅔ": 5222,
      "ㅅㅏㅇㅅㅏㅇ": 5223,
      "ㄷㅔㅂ": 5224,
      "ack</w>": 5225,
      "ㄴㅣㅁㄲㅔㅅㅓ</w>": 5226,
      "ㅇㅣㄹㅏㅁ": 5227,
      "ㅍㅏㅇㅣ</w>": 5228,
      "ㅊㅏㄹㅑㅇ</w>": 5229,
      "ㄷㅏㄴㅇㅔ</w>": 5230,
      "our": 5231,
      "ㅅㅓㅇㅜㄹㅌㅡㄱㅂㅕㄹ": 5232,
      "ㅊㅟㄱㅡㅂ": 5233,
      "ㅅㅏㅇㅇㅓㅂㅅㅓㅇ</w>": 5234,
      "ㅅㅣㄹㅎㅓㅁ</w>": 5235,
      "ㅎㅣㄴㅡㄴ</w>": 5236,
      "ㄴㅜㄴㅇㅣ</w>": 5237,
      "ㅇㅜㅅㅓㄴ": 5238,
      "USB</w>": 5239,
      "ㅅㅏㅇㅛㅇㅈㅏㄱㅏ</w>": 5240,
      "ㄱㅏㅌㅇㅡㄴㄷㅔ</w>": 5241,
      "ㅂㅐㄱㅕㅇ": 5242,
      "ㅋㅐㅂ": 5243,
      "ㄱㅏㅇㅡㄹ": 5244,
      "ㅈㅚ</w>": 5245,
      "ㄹㅡ</w>": 5246,
      "ㅅㅜㅇㅛㅇ": 5247,
      "ㅁㅗㅅㅡㅂ</w>": 5248,
      "ㅁㅜㄹㅡ": 5249,
      "ㅈㅓㅇㅂㅗㅇㅣㅁㅕ</w>": 5250,
      "ㅅㅣㅈㅏㄱㅎㅐㅆㄷㅏ</w>": 5251,
      "ㅈㅏㄹㅛㅇㅘ</w>": 5252,
      "ㅈㅓㅈㅏㄱㄱㅝㄴㄱㅘ</w>": 5253,
      "ㅇㅣㄴㅇㅡㄹㅗ</w>": 5254,
      "ㄱㅣㅌㅏㄹㅗ</w>": 5255,
      "ㄱㅗㅇㅈㅣ": 5256,
      "UR": 5257,
      "ㅌㅡㄹㅓㅁㅍㅡ</w>": 5258,
      "ㄹㅣㄴㄷㅏ</w>": 5259,
      "ㅎㅕㅂㅇㅢ": 5260,
      "ㄱㅗㅁㅏ": 5261,
      "ㅂㅜㄴㄷㅡㄹㅇㅡㄴ</w>": 5262,
      "ㅎㅠ</w>": 5263,
      "ㄷㅏㄹㅅㅓㅇ": 5264,
      "ㄱㅕㅇㅇㅜㄷㅗ</w>": 5265,
      "ㅎㅐㅅ": 5266,
      "ㅌㅔㅇㅣㄴ": 5267,
      "ㅁㅏㅈㅣㅁㅏㄱㅇㅡㄹㅗ</w>": 5268,
      "ㄷㅣㅇㅗ": 5269,
      "ㅈㅓㅇㄷㅏㅇ": 5270,
      "ㄷㅏㄱ": 5271,
      "ㅇㅓㅁㅓㄴㅣ</w>": 5272,
      "ㅅㅜㅇㅣㅆㄴㅡㄴ</w>": 5273,
      "ㅅㅔㅇㅝ": 5274,
      "ㄱㅐㄴㅕ": 5275,
      "ㄱㅘㅇㄱㅗㄱㅡㄹ</w>": 5276,
      "CD</w>": 5277,
      "ㄱㅡㄹㅓㅎㄷㅏㅁㅕㄴ</w>": 5278,
      "ㅎㅐㅅㅓ": 5279,
      "ㅇㅓㅄㅈㅣㅁㅏㄴ</w>": 5280,
      "ㄱㅕㅇㅇㅜㅇㅔ</w>": 5281,
      "1ㅁㅜㄴㅇㅢㅎㅏㄱㅣㄹㅡㄹ</w>": 5282,
      "ㅈㅓㄴㅈㅐㅇ</w>": 5283,
      "ㅈㅜㅇㄱㅖ</w>": 5284,
      "ㅆㅣㅂㅏㄹ</w>": 5285,
      "ㅏㅇㅘ</w>": 5286,
      "ㄹㅔㅅㅡㅌㅗㄹㅏㅇ": 5287,
      "ㄱㅕㄹㅎㅏㅂ": 5288,
      "ㅂㅣㅂㅏㅇㄱㅡㄹ</w>": 5289,
      "ㅇㅏㅇㅣㄷㅣㄷㅏㅇ</w>": 5290,
      "ㅂㅜㄹㅍㅕㄴㅅㅏㅎㅏㅇㅇㅡㄴ</w>": 5291,
      "ㅎㅏㅂㄱㅕㄱ": 5292,
      "ㅎㅏㄱㄱㅛㅈㅓㅇㅂㅗ</w>": 5293,
      "ㄸㅜㅇ": 5294,
      "ㅇㅕㄴㅇㅖ": 5295,
      "33": 5296,
      "ㅊㅐㄱㅇㅡㄴ</w>": 5297,
      "ㅁㅣㅂㅗㅇㅠ</w>": 5298,
      "3ㅎㅚㅁㅏㄴ</w>": 5299,
      "ㅁㅗㅂㅏㅇㅣㄹ": 5300,
      "ㅇㅓㅄㅇㅡㅁ</w>": 5301,
      "ㄱㅘㄴㄱㅖㅈㅏㄴㅡㄴ</w>": 5302,
      "ㅇㅕㅆㅅㅡㅂㄴㅣㄷㅏ</w>": 5303,
      "ㅎㅚㅂㅗㄱ": 5304,
      "ㅎㅚㅇㅝㄴㅅㅜㅇㅘ</w>": 5305,
      "ㅈㅓㄴㅇㅢ</w>": 5306,
      "ㄴㅠㅅㅡ": 5307,
      "ㅎㅏㄱㄱㅛㅈㅓㅇㅂㅗㄱㅏ</w>": 5308,
      "ㅎㅏㄱㄱㅛㅈㅓㅇㅂㅗㅇㅣㅁㅕ</w>": 5309,
      "ㅇㅏㄹㅡ": 5310,
      "ㄱㅖㅎㅚㄱㅇㅡㄹ</w>": 5311,
      "ㄱㅜㄱㅇㅡㄴ</w>": 5312,
      "ㅎㅘㅁㅕㄴ</w>": 5313,
      "ㅈㅗㅇㅛㅇ": 5314,
      "ㅊㅝ</w>": 5315,
      "ㅅㅏㄹㅏㅁㄷㅡㄹㅇㅔㄱㅔ</w>": 5316,
      "ht</w>": 5317,
      "ㅔㄱㅔ": 5318,
      "ase</w>": 5319,
      "ㄱㅗㄹㅡㄹ</w>": 5320,
      "ㅇㅣㄷㅡㄴ</w>": 5321,
      "ㄱㅣㄴㅡㅇㅇㅣ</w>": 5322,
      "est": 5323,
      "Po": 5324,
      "ㅎㅣㄹ</w>": 5325,
      "ㅌㅗㅇㅛ": 5326,
      "ㅈㅏㅇㅇㅐ</w>": 5327,
      "ㄴㅣㅁㅔㅇㅣ": 5328,
      "ㅍㅏㅌㅣ": 5329,
      "ㅁㅏㅅㅇㅣㅆㄴㅡㄴ</w>": 5330,
      "ㅁㅐㄴㅣ": 5331,
      "ㅋㅡㄹ</w>": 5332,
      "ㅌㅡㄹㅗ": 5333,
      "ㅌㅔㄹㄹㅔ": 5334,
      "ㅈㅣㅇㅔㅅㅓ</w>": 5335,
      "ㅎㅕㄱ</w>": 5336,
      "ㄷㅡㅇㄹㅗㄱㅈㅏㅇㅔㄱㅔ</w>": 5337,
      "ㅈㅗㅎㅈㅣ</w>": 5338,
      "ㄴㅔㅅ</w>": 5339,
      "ㅈㅣㄴㅅㅣㄹㅅㅓㅇㅇㅔ</w>": 5340,
      "Cl": 5341,
      "ㅅㅣㄴㅇㅡㄹ</w>": 5342,
      "ㄱㅡㄹㅓㅎㅏㄴ</w>": 5343,
      "ㅌㅡㄱㅅㅜ": 5344,
      "ㅅㅏㅂ": 5345,
      "ㅌㅡㄱㅈㅣㅇ</w>": 5346,
      "ㄴㅏㅇㅔㄱㅔ</w>": 5347,
      "ㅎㅐㅍㅣㅋㅐㅁㅍㅓㅅㅡㄴㅡㄴ</w>": 5348,
      "ㅅㅏㅎㅏㄴ</w>": 5349,
      "ㄱㅕㄹㅋㅗ</w>": 5350,
      "ㅈㅜㅊㅏ</w>": 5351,
      "ㅅㅏㅇㅜㄴ": 5352,
      "ㄷㅏㅂㅂㅕㄴ</w>": 5353,
      "ㅊㅜㄹㅂㅏㄹ</w>": 5354,
      "ㅈㅓㅇㅂㅜㄱㅏ</w>": 5355,
      "ill": 5356,
      "ㅎㅣㅁㅇㅣ</w>": 5357,
      "ㅅㅏㅇㅇㅡㄹㅗ</w>": 5358,
      "ㄹㅓㅅㅣ": 5359,
      "ㅈㅓㄴㅎㅕㅇ": 5360,
      "ㅎㅏㅇㅁㅗㄱ": 5361,
      "ㅅㅣㅇㅝㄴ": 5362,
      "ㅁㅏㄹㅎㅏㄹ</w>": 5363,
      "ㅎㅐㄱㅕㄹ</w>": 5364,
      "ㅜㄱ": 5365,
      "ㅂㅏㅌㅏㅇㅇㅡㄹㅗ</w>": 5366,
      "ㄱㅏㅇㅎㅘ</w>": 5367,
      "ㅁㅐㄹㅕㄱ": 5368,
      "ㅂㅏㄹㅈㅓㄴ</w>": 5369,
      "ㅅㅗㅈㅐ": 5370,
      "ㅇㅗㅇㅕ": 5371,
      "ㅂㅣㅅㅡㅅ": 5372,
      "RE": 5373,
      "ㅂㅗㅇㅕㅆㄷㅏ</w>": 5374,
      "ㅇㅕㄴㄱㅕㄹ</w>": 5375,
      "ㄷㅓㄹㅏㄱㅜㅇㅛ</w>": 5376,
      "ㄱㅡㄴㅊㅓ": 5377,
      "ㅇㅏㅇㅜㅅ</w>": 5378,
      "ㅋㅣㅇㅝ": 5379,
      "ㅎㅐㅇㅇㅡㄹ</w>": 5380,
      "ㅇㅖㅅㅏㄴ": 5381,
      "ㅁㅕㅇㅅㅣ": 5382,
      "ㄷㅐㄱㅜ</w>": 5383,
      "ㄹㅏㅇㅣㄴ</w>": 5384,
      "ㅌㅣㅁㅇㅣ</w>": 5385,
      "ㅈㅣㄴㅏ</w>": 5386,
      "ㅅㅣㅁㅎㅏㄴ</w>": 5387,
      "ㅇㅣㅇㅓㅆㄷㅓㄴ</w>": 5388,
      "ㅂㅐㄱㅕㅇ</w>": 5389,
      "ㅅㅔㅇㅝㄹ": 5390,
      "vs</w>": 5391,
      "ㅈㅜㅅㅣㅁㅕㄴ</w>": 5392,
      "ㅁㅣㄹㅐ</w>": 5393,
      "ㅅㅓㄴㄱㅛ": 5394,
      "ㅊㅓㅇㅇㅘ": 5395,
      "eg": 5396,
      "ㅇㅛㄹㅣ": 5397,
      "ㅇㅖㅊㅡㄱ": 5398,
      "ㅇㅕㅇㅇㅑㅇ": 5399,
      "LG</w>": 5400,
      "ㅍㅔㅇㅣㅈㅣㅇㅢ</w>": 5401,
      "ㅎㅗㅇㅢ</w>": 5402,
      "16ㅇㅣㄹ</w>": 5403,
      "ㅂㅗㅇㅣㄱㅗ</w>": 5404,
      "ㄱㅜㄱㅡㄹ": 5405,
      "ㅂㅓㄴㅎㅗㄹㅡㄹ</w>": 5406,
      "ㅇㅕㅇㅇㅝㄴ": 5407,
      "ㅇㅣㅆㅇㅓㅆㄱㅗ</w>": 5408,
      "ㄴㅓㅎㅢ": 5409,
      "ㅂㅐㄹㅡㄹ</w>": 5410,
      "ㅇㅖㅅ": 5411,
      "ㅎㅚㅇㅔㅅㅓ</w>": 5412,
      "ㅎㅛㄱㅘㄱㅏ</w>": 5413,
      "ㅇㅏㅆㄷㅓㄴ</w>": 5414,
      "ㅇㅣㄹㅇㅓ": 5415,
      "CE": 5416,
      "30ㅇㅣㄹ</w>": 5417,
      "ㅏㅇㅜㄴ": 5418,
      "ㅁㅓㄹㅌㅣ": 5419,
      "ㅇㅓㅄㅇㅡㅁㅕ</w>": 5420,
      "CP": 5421,
      "ㅅㅏㅈㅏㅇ</w>": 5422,
      "ㅁㅜㄴㅅㅓㄴㅡㄴ</w>": 5423,
      "ㅋㅏㅋㅏㅇㅗ": 5424,
      "ㅂㅓㅂㄹㅠㄹ</w>": 5425,
      "ㅁㅏㅇㅣㄴ": 5426,
      "ㄷㅐㅂㅣ</w>": 5427,
      "ㅇㅠㄱ</w>": 5428,
      "ㅇㅣㄴㄷㅔㅇㅛ</w>": 5429,
      "ㄱㅘㄴㅇㅔ</w>": 5430,
      "ㅇㅏㄹㄱㅗ": 5431,
      "ㅎㅏㄴㅂㅏㄴ": 5432,
      "Tube</w>": 5433,
      "HD": 5434,
      "ip": 5435,
      "all</w>": 5436,
      "ㅁㅜㄴㅅㅓ</w>": 5437,
      "ㅈㅣㄴㅈㅓㅇㅎㅏㄴ</w>": 5438,
      "ㅌㅔㅇㅣㅂㅡㄹ</w>": 5439,
      "ㅅㅡㅌㅡㄹㅡㄹ</w>": 5440,
      "ㅅㅏㅇㅣㅈㅡ": 5441,
      "Goog": 5442,
      "ㅂㅓㄴㅇㅔ</w>": 5443,
      "ㄱㅣㅁㅈㅓㅇ": 5444,
      "ㅂㅇㅡㄴ</w>": 5445,
      "ㄱㅡㄴㅕㄴㅡㄴ</w>": 5446,
      "ㅂㅗㅁ</w>": 5447,
      "ㅇㅣㅅㅡㄹㅏㅇㅔ": 5448,
      "form": 5449,
      "ㄱㅖㅇㅢ</w>": 5450,
      "ㅅㅣㄱㅅㅏㄹㅡㄹ</w>": 5451,
      "ㄱㅛㄱㅘ": 5452,
      "ㄱㅜㅁㅓ": 5453,
      "ㅇㅣㅅㅠ": 5454,
      "ㅇㅣㄴㄱㅏㄴ</w>": 5455,
      "ㅅㅣㅋㅣㄱㅗ</w>": 5456,
      "ㄴㅏㅃㅡㄴ</w>": 5457,
      "ㅅㅓㄴㅈㅓㅇ</w>": 5458,
      "ㅈㅏㄹㅁㅗㅅㄷㅚㄴ</w>": 5459,
      "ㅈㅓㄴㅁㅜㄴㄱㅏ</w>": 5460,
      "ㅅㅕㄴㅇㅡㄴ</w>": 5461,
      "ㄱㅛㅎㅘㄴ": 5462,
      "197": 5463,
      "ㄷㅗㅇㅜ</w>": 5464,
      "end": 5465,
      "ㅅㅏㅇㅎㅘㅇㅇㅣ</w>": 5466,
      "ㅇㅣㄹㅇㅣㄷㅏ</w>": 5467,
      "ㅇㅢㅁㅣ</w>": 5468,
      "ㄷㅗㅇㅔㅅㅓ</w>": 5469,
      "ㅅㅛㅍㅣㅇㅁㅗㄹ</w>": 5470,
      "ㄴㅗㄴㅇㅢ": 5471,
      "ㅅㅚ": 5472,
      "ㄱㅓㅇㅠ</w>": 5473,
      "ㅇㅣㅅㅏ</w>": 5474,
      "iv": 5475,
      "ㄷㅏㄴㅕㅇ": 5476,
      "ㄹㅜㅁ</w>": 5477,
      "ㅈㅏㄱㅗ</w>": 5478,
      "ㅈㅏㅅㅔㅎㅣ</w>": 5479,
      "ㅇㅛㄱㅡㅁ</w>": 5480,
      "48": 5481,
      "ㅇㅏㄴㅈㅓㄴ</w>": 5482,
      "ㅅㅡㅇㅞ": 5483,
      "lor</w>": 5484,
      "ㅈㅔㄱㅣ": 5485,
      "ㅇㅗㄹㅐㄴ</w>": 5486,
      "ㅋㅐㄹㅣㄱㅌㅓ": 5487,
      "ㄱㅏㅇㄹㅕㄱㅎㅏㄴ</w>": 5488,
      "ㅅㅓㄴㅇㅣ</w>": 5489,
      "ㅇㅏㅂㅓㅈㅣ</w>": 5490,
      "af": 5491,
      "ㅅㅜㅇㅕㅇㅈㅏㅇ</w>": 5492,
      "ㅈㅜㅇㄱㅗ": 5493,
      "FA": 5494,
      "ㅇㅣㄷㅡㄹㅇㅣ</w>": 5495,
      "Fi": 5496,
      "ㄷㅡㅅㅎㅏㄴ</w>": 5497,
      "ㅎㅏㄱㅇㅡㄹ</w>": 5498,
      "ㅇㅙ": 5499,
      "ㅇㅝㄴㅇㅔㅅㅓ</w>": 5500,
      "ㅊㅏㅈㅇㅏㅇ": 5501,
      "ㅅㅔㅅㅏㅇㅇㅔ</w>": 5502,
      "ㄱㅕㄹㅎㅗㄴ</w>": 5503,
      "ㅍㅛㄹㅡㄹ</w>": 5504,
      "ㅎㅏㄴㅡ": 5505,
      "ㅇㅏㄶㅇㅏㄷㅗ</w>": 5506,
      "ㅋㅔ</w>": 5507,
      "ㅇㅐㄴㅣㅁㅔㅇㅣ": 5508,
      "ㅅㅣㄴㅇㅢ</w>": 5509,
      "ㅇㅓㅎㅏㄱ": 5510,
      "ㄷㅏㅁㅇㅣ</w>": 5511,
      "ㅇㅓㅄㅇㅓㅅㅓ</w>": 5512,
      "ㄱㅡㅁㅂㅏㄹ": 5513,
      "ㅅㅣㄹㅣㅈㅡ": 5514,
      "ㅇㅏㅇㅣㄷㅡㄹㅇㅣ</w>": 5515,
      "ㅈㅕㅅㅓ</w>": 5516,
      "ㅈㅓㄴㅇㅔㅅㅓ</w>": 5517,
      "ㄱㅜㅇㅢ</w>": 5518,
      "ㄱㅏㅇㅇㅢ": 5519,
      "ㅅㅣㄱㅔㅆㅅㅡㅂㄴㅣㄲㅏ</w>": 5520,
      "ㅇㅣㄴㅊㅣ</w>": 5521,
      "ㅈㅣㄱㅈㅓㅂ": 5522,
      "ㄸㅔ": 5523,
      "ㅅㅣㄹㅇㅡㄹ</w>": 5524,
      "ㄱㅐㅇ": 5525,
      "ㅇㅢㄱㅕㄴㅇㅡㄹ</w>": 5526,
      "ㅍㅣㄹㅅㅜ": 5527,
      "ㄹㅣㅇㅓ</w>": 5528,
      "ㅅㅗㄱㅇㅢ</w>": 5529,
      "ㅊㅜ</w>": 5530,
      "ell": 5531,
      "ㅋㅡㄹㅗ</w>": 5532,
      "ㅁㅜㅅㅣ": 5533,
      "ㅈㅘ</w>": 5534,
      "ㅎㅚㅅㅏㄱㅏ</w>": 5535,
      "ㄱㅡㅇㅈㅓㅇ": 5536,
      "ㄴㅗㄴㄹㅏㄴ": 5537,
      "ㅇㅝㄹㄷㅡㅋㅓㅂ</w>": 5538,
      "ㅂㅏㄹㅎㅐㅇ": 5539,
      "ㅅㅓㄴㅇㅓㄴ": 5540,
      "ㅈㅏㄷㅗㅇㅊㅏ": 5541,
      "ㅎㅗㅌㅔㄹㅇㅡㄴ</w>": 5542,
      "ㄴㅏㅁㄱㅣ": 5543,
      "ㄹㅗㅇㅜ": 5544,
      "ㄴㅓㅁㅜㄴㅏ</w>": 5545,
      "ㅅㅓㄹㄱㅖ</w>": 5546,
      "ㅈㅓㄱㅈㅓㄹㅎㅏㄴ</w>": 5547,
      "ㅇㅣㄹㅉㅣ": 5548,
      "ㄹㅗㅂ": 5549,
      "ㅁㅕㅇㅎㅘㄱ": 5550,
      "ㄷㅏㅂㅗㄴㅣ</w>": 5551,
      "ㄱㅣㅈㅗㄴㅇㅢ</w>": 5552,
      "ical</w>": 5553,
      "ㅅㅓㅇㅜㄹㅌㅡㄱㅂㅕㄹㅅㅣ</w>": 5554,
      "ㅂㅕㄹㄷㅗㅇㅢ</w>": 5555,
      "ㅇㅣㄴㅌㅓㅂㅠ": 5556,
      "ㅎㅕㄴㅈㅣ</w>": 5557,
      "ㄱㅠㅈㅓㅇ": 5558,
      "ㅂㅣㄹㅇㅓ</w>": 5559,
      "ile</w>": 5560,
      "ㅁㅔㅇㅣㄹ</w>": 5561,
      "ㄴㅐㄱㅔ</w>": 5562,
      "ㅁㅔㅁㅂㅓ": 5563,
      "ㅂㅏㄱㅁㅜㄹㄱㅘㄴ</w>": 5564,
      "ㅈㅜㅂㄴㅣㄷㅏ</w>": 5565,
      "ㄷㅗㅇㅇㅣㄹㅎㅏㄴ</w>": 5566,
      "ㅇㅏㅍ</w>": 5567,
      "ㅇㅠㅁㅕㅇ": 5568,
      "ㅍㅏㅌㅡㄴㅓ": 5569,
      "ㄴㅏㄱㅏ": 5570,
      "ㄱㅣㅁㅏㄴ</w>": 5571,
      "ㅁㅜㄴㅇㅣ</w>": 5572,
      "ㅌㅔㄴㄷㅔ</w>": 5573,
      "10ㅇㅣㄹ</w>": 5574,
      "ㅌㅗㄱ</w>": 5575,
      "ㅊㅓㅅㅂㅓㄴㅉㅐ</w>": 5576,
      "ㅎㅏㅇㄱㅗㅇㄱㅝㄴ</w>": 5577,
      "ㄱㅡㅁㅂㅏㄹ</w>": 5578,
      "ㅅㅗㅅㅣㄱ</w>": 5579,
      "2013ㄴㅕㄴ</w>": 5580,
      "ㄱㅏㅊㅣㄹㅡㄹ</w>": 5581,
      "ㄷㅐㅎㅕㅇ</w>": 5582,
      "ㅅㅞ": 5583,
      "ard</w>": 5584,
      "ㅗㅂㅜㅌㅓ</w>": 5585,
      "ㅁㅣㄴㄷㅡㄹ": 5586,
      "ㅅㅐㅇㄱㅏㄱㅎㅐ</w>": 5587,
      "ㅅㅏㅇㅣㅈㅡ</w>": 5588,
      "Be": 5589,
      "ㄱㅔㅅㅣㅍㅏㄴ": 5590,
      "ㅇㅣㄴㄱㅏㅇㅛ</w>": 5591,
      "ㅁㅗㅅㅎㅐㅆㄷㅏ</w>": 5592,
      "ㅉㅏㄱ": 5593,
      "fuc": 5594,
      "ㅈㅓㄴㅂㅜㅌㅓ</w>": 5595,
      "XX": 5596,
      "ㅅㅡㅌㅏㅌㅡ": 5597,
      "ㅁㅏㅇㅜ": 5598,
      "ㄱㅛㅇㅠㄱㅇㅢ</w>": 5599,
      "ㅎㅕㅇㅇㅡㄹ</w>": 5600,
      "ㅈㅣㄴㅇㅣ</w>": 5601,
      "ㄴㅡㄲㅣㅁ": 5602,
      "ㄹㅏㅇㅣㅂㅡ": 5603,
      "ㅆㅡㄴ": 5604,
      "ㅅㅏㄹㅏㅁㅇㅔㄱㅔ</w>": 5605,
      "ㅋㅡㄹㅐ": 5606,
      "ㅂㅘㄷㅗ</w>": 5607,
      "ㅎㅘㅇㅢ</w>": 5608,
      "ㅌㅐㄱㅡㅇㅢ</w>": 5609,
      "ㅁㅏㄹㅡ": 5610,
      "ㅇㅔㅅㅓㅁㅏㄴ</w>": 5611,
      "ㅈㅏㄷㅡㄹㅇㅡㄹ</w>": 5612,
      "ㅅㅡㅋㅡ</w>": 5613,
      "ㅇㅣㄴㅊㅓㄴ</w>": 5614,
      "ㅈㅣㄹㅂㅕㅇ": 5615,
      "ㄷㅡㄹㅏㅇㅣ": 5616,
      "ㅁㅗㄹㅡㄹ</w>": 5617,
      "ㅂㅣㅊ</w>": 5618,
      "ㅂㅗㄴㄱㅕㄱ": 5619,
      "ㅇㅓㅁㅊㅓㅇㄴㅏㄴ</w>": 5620,
      "ㅎㅏㄱㅇㅢ</w>": 5621,
      "ㅇㅏㅁㅏㅊㅠ": 5622,
      "ㅡㅁㅇㅣ</w>": 5623,
      "ㅃㅜㄴㅇㅣㄷㅏ</w>": 5624,
      "ㅕㅆ": 5625,
      "ㄹㅣㅇㅘ</w>": 5626,
      "ㅅㅓㄴㅂㅏㄹ": 5627,
      "ㅊㅐㅁㅍㅣㅇㅓㄴ": 5628,
      "ㅂㅣㅌㅡ": 5629,
      "ㅅㅛ</w>": 5630,
      "ㅂㅓㅈㅓㄴ</w>": 5631,
      "ㅅㅖ": 5632,
      "ㅌㅡㄹㅓ": 5633,
      "ㅇㅐㅍㅡㄹ": 5634,
      "ㄹㅓㄱ": 5635,
      "ㅈㅓㄴㅎㅐㅆㄷㅏ</w>": 5636,
      "ㅁㅔㅇㅣㄴ</w>": 5637,
      "ㄴㅔㅇㅣㅁㄷㅡ": 5638,
      "ㅅㅓㅇㅔ</w>": 5639,
      "ㄷㅡㄹㅔ": 5640,
      "ㄷㅐㅎㅏㄱㄱㅛ": 5641,
      "ㄷㅏㅅㅣ": 5642,
      "ㅠㄹ": 5643,
      "ㅊㅚㄷㅐㅎㅏㄴ</w>": 5644,
      "ㅊㅜㄱㅏㅈㅓㄱㅇㅣㄴ</w>": 5645,
      "ㄱㅡㅁㅈㅣ": 5646,
      "ㄴㅏㄹㅇㅡㄴ</w>": 5647,
      "ㅆㅗㄷ": 5648,
      "ㄹㅑㅇㅇㅣ</w>": 5649,
      "ts</w>": 5650,
      "ㅈㅣㄴㅇㅡㄹ</w>": 5651,
      "ㅎㅘㅇㅣㅌㅡ</w>": 5652,
      "ㅇㅠㅇㅏ": 5653,
      "ㅈㅣㄹㅎㅘㄴ": 5654,
      "ㅈㅏㅈㅓㄴㄱㅓ</w>": 5655,
      "ㅈㅗㅈㅣㄱ</w>": 5656,
      "ㄱㅣㅇㅔㄴㅡㄴ</w>": 5657,
      "ㅇㅜㄱㅗ</w>": 5658,
      "ㅍㅖ</w>": 5659,
      "ㅍㅕㅇㄱㅠㄴ": 5660,
      "RA</w>": 5661,
      "ㄱㅣㄷㅗㄱㄱㅛ": 5662,
      "ㄱㅣㅎㅚㄱㅏ</w>": 5663,
      "ㅅㅓㅂㅣㅅㅡㅇㅢ</w>": 5664,
      "ㅇㅣㄷㅡ": 5665,
      "ㅈㅣㄴㅎㅡㅇ": 5666,
      "ㅋㅗㅅㅡ</w>": 5667,
      "ㄷㅏㅇㅡㅁㅇㅔ</w>": 5668,
      "ㅅㅣㅌㅣ</w>": 5669,
      "ㅅㅏㅇㄱㅘㄴ": 5670,
      "ㄱㅗㅅㅇㅢ</w>": 5671,
      "HO": 5672,
      "ㅈㅐㄹㅛ": 5673,
      "ㅁㅓㄴ</w>": 5674,
      "ㅇㅣㄴㅇㅔㄱㅔ</w>": 5675,
      "ㄷㅏㅎㅐㅇ": 5676,
      "DV": 5677,
      "2012ㄴㅕㄴ</w>": 5678,
      "ㅅㅐㅇㄱㅏㄱㅎㅏㄱㅗ</w>": 5679,
      "ard": 5680,
      "mon": 5681,
      "ㄱㅏㅄㅇㅡㄹ</w>": 5682,
      "ㅂㅏㄱㄱㅡㄴㅎㅖ</w>": 5683,
      "ㄷㅏㄴㅅㅜㄴㅎㅣ</w>": 5684,
      "ㅁㅏㄹㅆㅡㅁㅇㅡㄹ</w>": 5685,
      "ㅅㅕㄴㅇㅣ</w>": 5686,
      "ㅇㅏㅇㅣㄱㅏ</w>": 5687,
      "ㄱㅣㅅㅏㅇ</w>": 5688,
      "ㅈㅓㄴㅂㅜ</w>": 5689,
      "ㄹㅣㄹㅏ</w>": 5690,
      "ㅇㅏㄷㅡㄹ</w>": 5691,
      "ㅈㅣㄱㅜ</w>": 5692,
      "ㅇㅜㅁ</w>": 5693,
      "ㄱㅕㅇㅜㄹ</w>": 5694,
      "ㅈㅓㄱㄹㅣㅂ": 5695,
      "ㄱㅓㄷㅐㅎㅏㄴ</w>": 5696,
      "ㄴㅗㅎㅇㅡㄴ</w>": 5697,
      "PS": 5698,
      "ㅅㅓㄹㅠ": 5699,
      "ㄹㅜ</w>": 5700,
      "ㄴㅐㄴㅐ</w>": 5701,
      "ess</w>": 5702,
      "ㄴㅓㄼㅇㅡㄴ</w>": 5703,
      "ㄴㅡㅇㄹㅕㄱ</w>": 5704,
      "ㄱㅜㅎㅏㄹ</w>": 5705,
      "ㅌㅗㄴ</w>": 5706,
      "ㄸㅟㅇㅓㄴㅏㄴ</w>": 5707,
      "ㄱㅡㄱㅓㅅ": 5708,
      "ㅈㅔㅈㅜ</w>": 5709,
      "LA": 5710,
      "me</w>": 5711,
      "ㅈㅜㅈㅣ</w>": 5712,
      "ㅈㅏㄶㅇㅏㅇㅛ</w>": 5713,
      "ㅕㅇㅛ</w>": 5714,
      "ㅎㅕㄴㅈㅏㅇ": 5715,
      "ㅎㅏㄹㅈㅣ</w>": 5716,
      "ㅌㅡㄹㅔㄴ": 5717,
      "ㄸㅏㄹ</w>": 5718,
      "ㅅㅡㅁㅏㅌㅡ</w>": 5719,
      "ㅇㅣㅆㅇㅡㅁㅇㅡㄹ</w>": 5720,
      "ㅇㅏㅇ</w>": 5721,
      "ㅅㅣㅈㅓㄹ</w>": 5722,
      "ㅇㅕㅂㅜ</w>": 5723,
      "Hot": 5724,
      "ㅌㅡㄹㅔㅇㅣ": 5725,
      "ㅂㅏㄹㅅㅐㅇ</w>": 5726,
      "ㅎㅘㄹㅕ": 5727,
      "ㄲㅜㅈㅜㄴㅎㅣ</w>": 5728,
      "ㅇㅓㄹㅁㅏ": 5729,
      "ㅇㅣㄴㅅㅏ</w>": 5730,
      "ㅁㅏㄹㅆㅡㅁ</w>": 5731,
      "ㅂㅏㄹㅅㅐㅇㅎㅏㄴ</w>": 5732,
      "ㅁㅗㄴㅣㅌㅓ": 5733,
      "ㄱㅏㅌㅇㅏ</w>": 5734,
      "ㅎㅑㅇㅅㅏㅇ": 5735,
      "1ㅊㅏ</w>": 5736,
      "yp": 5737,
      "ㅇㅏㄴㅣㄹㄲㅏ</w>": 5738,
      "ㅇㅑㄱㄱㅘㄴㅇㅡㄹ</w>": 5739,
      "ㅅㅡㅌㅠ": 5740,
      "ㅍㅏㅌㅣ</w>": 5741,
      "ㅈㅜㅌㅐㄱ</w>": 5742,
      "37": 5743,
      "ㅇㅣㄺㅇㅓ": 5744,
      "ㅈㅗㅇㅢ</w>": 5745,
      "ㅂㅏㄷㄱㅣ</w>": 5746,
      "ㅁㅠㅈㅣ": 5747,
      "ㅎㅏㄱㄱㅣ</w>": 5748,
      "ㄱㅐㄱ</w>": 5749,
      "ㄱㅐㄹㄹㅓㄹㅣ</w>": 5750,
      "ㅈㅏㄹㅛㄴㅡㄴ</w>": 5751,
      "ㅅㅗㄹㅗ</w>": 5752,
      "ㄱㅏㅊㅣㄱㅏ</w>": 5753,
      "ㅇㅏㅇㅣㄹ": 5754,
      "ㅈㅏㅇㅊㅣ": 5755,
      "ㅊㅓㄹㅡㄹ</w>": 5756,
      "HT": 5757,
      "ㄱㅣㅎㅜ</w>": 5758,
      "ㅋㅔㅅ": 5759,
      "1ㄴㅕㄴ": 5760,
      "ㅎㅐㄱㅅㅣㅁ</w>": 5761,
      "ㅌㅏㅇ</w>": 5762,
      "ㅁㅏㄴㄴㅏ</w>": 5763,
      "ㅅㅣㄹㅅㅣㄱㅏㄴ": 5764,
      "38": 5765,
      "ㅅㅜㄱㅂㅏㄱ": 5766,
      "ㄱㅣㅁㅇㅕㅇ": 5767,
      "ㅍㅔㅇㅣㅈㅣㄹㅡㄹ</w>": 5768,
      "ㅂㅗㅇㅏㅆㄷㅏ</w>": 5769,
      "ㅈㅣㅁ</w>": 5770,
      "ㄱㅕㅇㅇㅜㄹ": 5771,
      "ㅅㅏㅇㅍㅜㅁㅇㅢ</w>": 5772,
      "ㅇㅟㅂㅏㄴ": 5773,
      "14ㅇㅣㄹ</w>": 5774,
      "ㅅㅣㅁㅇㅣ</w>": 5775,
      "ㅍㅕㄹㅊㅕ": 5776,
      "ㅅㅣㄴㄱㅠ</w>": 5777,
      "ㅂㅏㅋㅏㄹ": 5778,
      "ㅅㅗㄱㅇㅡㄹㅗ</w>": 5779,
      "ㅂㅜㄹㅗ</w>": 5780,
      "ㅅㅜㅅㅏㅇ</w>": 5781,
      "Se": 5782,
      "ib": 5783,
      "ㅈㅏㅇㅇㅐㅇㅣㄴ</w>": 5784,
      "ㄲㅜㅁㅇㅡㄹ</w>": 5785,
      "ㄷㅐㄷㅏㅂ": 5786,
      "ㅅㅣㄱㄷㅏㅇ": 5787,
      "ment</w>": 5788,
      "ㅇㅣㄱㅓ</w>": 5789,
      "ㅍㅣㄹㄹㅣ": 5790,
      "ㅊㅏㄹㅖ</w>": 5791,
      "ㄲㅡㄴ": 5792,
      "ata</w>": 5793,
      "ㄴㅗㄹㄹㅏㅇ": 5794,
      "ㅅㅓㄴㄱㅓ</w>": 5795,
      "12ㅇㅣㄹ</w>": 5796,
      "ㄹㅡㄹ": 5797,
      "ㄱㅡㄱㅓㄴ</w>": 5798,
      "ㅈㅜㅇㅛ": 5799,
      "ㅁㅗㅈㅣㅂ": 5800,
      "ㅅㅗㄴㅕ": 5801,
      "ㅂㅜㅂㅜㄴㅇㅔ</w>": 5802,
      "ㅇㅣㄹㅈㅜ": 5803,
      "ㅈㅓㄴㅁㅜㄴㄱㅏ": 5804,
      "ㅊㅚㅅㅗ</w>": 5805,
      "Wh": 5806,
      "ㄱㅓㅇㅖㅇㅛ</w>": 5807,
      "ㅅㅕㅊㅡ</w>": 5808,
      "ㅊㅜㅇ</w>": 5809,
      "ㅊㅜㄹㅈㅏㅇ": 5810,
      "ㅇㅢㅁㅜ": 5811,
      "1ㅎㅚ</w>": 5812,
      "9ㅇㅣㄹ</w>": 5813,
      "ㅅㅜㄱㅏㅇ": 5814,
      "ㅅㅗㅅㅡ</w>": 5815,
      "ㅎㅔㄴ": 5816,
      "ite</w>": 5817,
      "ㅋㅡㄹㅣㅇㅔㅇㅣㅌㅣㅂㅡ</w>": 5818,
      "ㄴㅏㅇㅗㄹ</w>": 5819,
      "ㅎㅕㅇㅌㅐㅇㅢ</w>": 5820,
      "ㄴㅏㄴㅝ": 5821,
      "ㅈㅏㄷㅡㄹㅇㅔㄱㅔ</w>": 5822,
      "ㅇㅔㄴㅌㅓ": 5823,
      "ㅋㅡㄹㅣㅅㅡㅁㅏ": 5824,
      "ㅎㅏㄴㅏㄴㅣㅁ</w>": 5825,
      "ㄷㅓㅍ": 5826,
      "ㅈㅜㅇㅇㅣㅂㄴㅣㄷㅏ</w>": 5827,
      "ㅔㅅㅓㄴㅡㄴ</w>": 5828,
      "ㅇㅣㅂㅇㅡㄴ</w>": 5829,
      "ㄴㅏㅁㅓㅈㅣ</w>": 5830,
      "ㄹㅔㅍㅗㅌㅡ</w>": 5831,
      "ㅎㅏㅇㅁㅜㄴ</w>": 5832,
      "ㄹㅗㄷㅡ</w>": 5833,
      "mp": 5834,
      "ㄹㅑㄱ</w>": 5835,
      "ㄷㅏㅁㅕ</w>": 5836,
      "ㅅㅗㅇㅛ": 5837,
      "ord": 5838,
      "ㅌㅡㄹㅔ": 5839,
      "ㅃㅜㄹㅣ": 5840,
      "ㅎㅑㅇㅎㅐ</w>": 5841,
      "ㅅㅡㅇㄹㅣ": 5842,
      "ㅂㅏㄹㅇㅡㄹ</w>": 5843,
      "ㅇㅔㄱㅔㄷㅗ</w>": 5844,
      "ㄱㅓㅈㅛ</w>": 5845,
      "ㅈㅜㅅㅣㅂㅅㅣㅇㅗ</w>": 5846,
      "ㅍㅣㅂㅜ": 5847,
      "ㄱㅏㄱㄱㅏㄱㅇㅢ</w>": 5848,
      "ㄷㅗㄹㅗ": 5849,
      "55": 5850,
      "ㅆㅣㅇㅢ</w>": 5851,
      "ㅈㅓㅎㅣ</w>": 5852,
      "ㄱㅏㅇㅘ</w>": 5853,
      "ㅇㅡㅇㅇㅛㅇ</w>": 5854,
      "ㅎㅐㅇㅅㅏ": 5855,
      "ㅂㅐㄹ": 5856,
      "ㄷㅏㅅㅗ</w>": 5857,
      "ㅇㅣㄹㅡ": 5858,
      "ㄷㅣㅇㅓ</w>": 5859,
      "ㅈㅓㄱㅇㅛㅇㄷㅚㄹ</w>": 5860,
      "ㅇㅣㄹㅂㅏㄴㅈㅓㄱㅇㅣㄴ</w>": 5861,
      "ㅂㅔㅅㅡㅌㅡ</w>": 5862,
      "ㅁㅓ</w>": 5863,
      "ㅅㅣㅁㅈㅣㅇㅓ</w>": 5864,
      "ㅘㅆ": 5865,
      "ㅂㅣㄹㄷㅣㅇ</w>": 5866,
      "ㄷㅐㅍㅛㅈㅓㄱㅇㅣㄴ</w>": 5867,
      "ㄷㅗㄱㅌㅡㄱ": 5868,
      "ack": 5869,
      "ㄴㅏㅁㅅㅓㅇ": 5870,
      "ㄴㅏㄱㅔ</w>": 5871,
      "ㄱㅡㅁㅈㅣ</w>": 5872,
      "15ㅇㅣㄹ</w>": 5873,
      "ㅇㅢㅇㅝㄴ": 5874,
      "ㅋㅓㄴㅅㅓㄹ": 5875,
      ",,</w>": 5876,
      "ㅈㅓㄴㅇㅣ</w>": 5877,
      "1000": 5878,
      "ㅈㅜㅇㅣㄴㄱㅗㅇ": 5879,
      "ㅈㅐㄱㅜㅅㅓㅇ": 5880,
      "ㅂㅓㄹㅇㅓ": 5881,
      "34": 5882,
      "ㅇㅓㄱㅇㅝㄴ</w>": 5883,
      "ㅁㅔㅇㅣㅈㅓ": 5884,
      "ㅇㅜㄹㅣㄹㅡㄹ</w>": 5885,
      "ㅁㅗㅅㅎㅏㄹ</w>": 5886,
      "ㅘㅇㅢ</w>": 5887,
      "ㄷㅔㄹ": 5888,
      "ㅍㅗㄱㄹㅕㄱ": 5889,
      "ㅅㅜㅅㅜㄹ</w>": 5890,
      "ㄷㅡㅇㅞ": 5891,
      "On": 5892,
      "ㅎㅕㅇㅌㅐㄹㅗ</w>": 5893,
      "ㄲㅣ</w>": 5894,
      "ㅌㅗㅇㄱㅘ": 5895,
      "ㅈㅜㅇㄱㅜㄱㅇㅢ</w>": 5896,
      "ㄷㅐㅅㄱㅡㄹㅆㅡㄱㅣ</w>": 5897,
      "ㅇㅣㅁㅡㄹㅗ</w>": 5898,
      "ㅇㅡㄹㄲㅏㅇㅛ</w>": 5899,
      "ㅂㅏㄹㅅㅐㅇㅎㅏㄴㅡㄴ</w>": 5900,
      "2ㄴㅕㄴ": 5901,
      "ㄱㅏㅇㅡㄹ</w>": 5902,
      "ㅇㅜㄹㅣㅇㅔㄱㅔ</w>": 5903,
      "ㄹㄹㅣㅇ</w>": 5904,
      "ple</w>": 5905,
      "SQ": 5906,
      "ㅂㅏㄴㄱㅣ</w>": 5907,
      "ㅇㅣㅁㅕㅇ": 5908,
      "ㄷㅡㄹㅇㅓㅆ": 5909,
      "ㄸㅐㅇㅔㄴㅡㄴ</w>": 5910,
      "ㅇㅏㅇㅜㅅ": 5911,
      "ㅎㅏㄱㅣㅇㅔ</w>": 5912,
      "ㅎㅏㅈㅛ</w>": 5913,
      "ㅅㅗㅅㅓ</w>": 5914,
      "ㅂㅗㅇㅣㅂㄴㅣㄷㅏ</w>": 5915,
      "ㅅㅓㅇㄱㅡㅂ</w>": 5916,
      "ㅅㅔㄱㅖㅇㅢ</w>": 5917,
      "ㅅㅜㅇㅡㅁ</w>": 5918,
      "ㅂㅓㅂㄹㅕㅇ": 5919,
      "ect</w>": 5920,
      "ㅈㅏㅇㅟ</w>": 5921,
      "ㄲㅜㅁ</w>": 5922,
      "ㅈㅗㅎㄱㅗ</w>": 5923,
      "35</w>": 5924,
      "ㅇㅢㅅㅏ</w>": 5925,
      "ㅇㅢㅁㅣㄹㅡㄹ</w>": 5926,
      "ㅅㅐㄱㅇㅡㄹ</w>": 5927,
      "ㅇㅟㄴㄷㅗㅇㅜ</w>": 5928,
      "ㅈㅣㅂㅜㄹ": 5929,
      "ㄱㅣㄲㅏㅈㅣ</w>": 5930,
      "ㅇㅣㅆㄱㅔㅆ": 5931,
      "ㅇㅕㅇㅎㅘㄹㅡㄹ</w>": 5932,
      "ㅔㅅ</w>": 5933,
      "ㄱㅕㄹㅈㅓㅇ</w>": 5934,
      "ㅂㅜㄹㄱㅏ": 5935,
      "LO": 5936,
      "ㅍㅐㅅㅕㄴ</w>": 5937,
      "ㄱㅘㄴㅅㅣㅁ</w>": 5938,
      "ㅋㅗㅇ</w>": 5939,
      "ㅂㅏㄷㅏ</w>": 5940,
      "ㅅㅣㄹㅅㅣ</w>": 5941,
      "ㅌㅡㄹㅐ": 5942,
      "ㅁㅔㄴㅠ</w>": 5943,
      "ㅅㅗㅈㅜㅇㅎㅏㄴ</w>": 5944,
      "ㅎㅏㄴㅏㄴㅡㄴ</w>": 5945,
      "ㅁㅏㅈㅊㅜㅁ": 5946,
      "ㅂㅏㄹㅡ": 5947,
      "ㅊㅏㅇㅈㅗ": 5948,
      "ㄹㅣㅇㅋㅡ": 5949,
      "ㄷㅗㄴㅇㅣ</w>": 5950,
      "ㅈㅣㅁㅕㄴ</w>": 5951,
      "18ㅇㅣㄹ</w>": 5952,
      "ㅅㅜㄹㅇㅡㄹ</w>": 5953,
      "ㄱㅏㄲㅏ": 5954,
      "ㅋㅓㅁㅓㄴ": 5955,
      "ㄱㅡㄹㅇㅣ</w>": 5956,
      "ㄲㅗㅂ": 5957,
      "ㅇㅚㅇㅢ</w>": 5958,
      "ㅁㅓㄴㅌㅡ</w>": 5959,
      "ㅇㅏㄹㅡㅁㄷㅏㅇ": 5960,
      "ㅇㅣㄴㄹㅠ": 5961,
      "oft</w>": 5962,
      "ㅇㅕㄴㄹㅏㄱㅊㅓ</w>": 5963,
      "ㅇㅣㄴㅅㅏㅇ": 5964,
      "ㅋㅔㅇㅣㅂㅡㄹ</w>": 5965,
      "ㅈㅣㄴㄷㅏㄴ": 5966,
      "ㅇㅏㅃㅏ</w>": 5967,
      "ㄹㅏㅇㅣㅇㅓㄴ": 5968,
      "ace</w>": 5969,
      "ㅎㅗㅌㅔㄹㅇㅡㄹ</w>": 5970,
      "ㅅㅡㅋㅏ": 5971,
      "ㅇㅣㅈㅐ": 5972,
      "SNS</w>": 5973,
      "ㅂㅗㄱㅔ</w>": 5974,
      "ㅎㅗㄹ</w>": 5975,
      "ㅅㅔㄱㅏ</w>": 5976,
      "ㅅㅣㄱㅏ</w>": 5977,
      "ㅁㅗㄹㅣ</w>": 5978,
      "ㄱㅣㅇㅜㄹ": 5979,
      "ㅇㅣㄹㅉㅣㄱ</w>": 5980,
      "ㅇㅡㅁㅅㅣㄱㅇㅡㄹ</w>": 5981,
      "ㅎㅚㅇㅝㄴㅇㅢ</w>": 5982,
      "ㄱㅜㄱㅁㅣㄴ</w>": 5983,
      "ㅈㅐㄷㅏㄴ</w>": 5984,
      "ㄱㅓㅈㅣㅅ": 5985,
      "wh": 5986,
      "ㅇㅜㄴㄷㅗㅇㅇㅡㄹ</w>": 5987,
      "ㅎㅗㅇㅔ</w>": 5988,
      "ㄱㅖㅈㅓㄹ": 5989,
      "ㅈㅏㅊㅔ</w>": 5990,
      "As": 5991,
      "ㄱㅐㅇㅣㄴㅈㅓㄱㅇㅡㄹㅗ</w>": 5992,
      "ㅜㄱ</w>": 5993,
      "ㄷㅚㄴㄷㅏㅁㅕㄴ</w>": 5994,
      "ㅍㅗㄴㅇㅡㄹ</w>": 5995,
      "ㅋㅗㄴㅅㅓ": 5996,
      "ㅈㅓㄱㅇㅡㄹㅗㄴㅡㄴ</w>": 5997,
      "ㅅㅣㅈㅏㄱㅎㅏㄴ</w>": 5998,
      "ㅇㅏㅅㅟ": 5999,
      "ㄷㅚㄱㅔ</w>": 6000,
      "ㅈㅔㄱㅗㅇㅎㅏㄱㅗ</w>": 6001,
      "ㄴㅐㅇㅈㅏㅇ": 6002,
      "ㄱㅓㅅㅇㅣㅁㅕ</w>": 6003,
      "ㄱㅐㅎㅕㄱ": 6004,
      "11ㅇㅣㄹ</w>": 6005,
      "ㅈㅡㄱ": 6006,
      "ㅂㅘ</w>": 6007,
      "ㅅㅏㅅㅏㅇ</w>": 6008,
      "ㅈㅓㅈㅏㅇ</w>": 6009,
      "ㅅㅣㅁㅇㅡㄹㅗ</w>": 6010,
      "ㅂㅏㅇㅇㅔ</w>": 6011,
      "ㅈㅜㅇㅔ</w>": 6012,
      "ㅈㅣㄱㅣ</w>": 6013,
      "ㅇㅕㄴㄱㅜㅅㅗ</w>": 6014,
      "ㅇㅣㅆㅇㅡㄹㄲㅏㅇㅛ</w>": 6015,
      "ug": 6016,
      "ㅌㅏㅂ</w>": 6017,
      "IM": 6018,
      "ㅊㅚㄱㅗ": 6019,
      "ㅅㅐㅇㅇㅡㄹ</w>": 6020,
      "all": 6021,
      "ㅇㅛㅇㅍㅜㅁ</w>": 6022,
      "ㄷㅏㄺ": 6023,
      "ㅅㅡㄹㄹㅏㅇㅣㄷㅣㅇ</w>": 6024,
      "ㅎㅏㅇㅕㅆㄱㅗ</w>": 6025,
      "CA": 6026,
      "ㄱㅏㅊㅣ</w>": 6027,
      "ㄱㅓㅁㅇㅡㄴ</w>": 6028,
      "ㄷㅏㄹㅡㄱㅔ</w>": 6029,
      "ㅇㅣㄹㅏㅁㅕ</w>": 6030,
      "ㄴㅔㄱ": 6031,
      "un</w>": 6032,
      "ㅎㅏㄴㅈㅓㅇ": 6033,
      "ㅁㅏㄴㅇㅡㄹㅗ</w>": 6034,
      "ㅈㅔㅇㅚ</w>": 6035,
      "ㅂㅐㅊㅣ": 6036,
      "ㅈㅜㅇㄱㅏㄴ</w>": 6037,
      "PG": 6038,
      "ㅅㅏㅇㅣ</w>": 6039,
      "ㅅㅣㄴㅇㅏㅇ": 6040,
      "ㅊㅜㅊㅜㄹ": 6041,
      "ㄸㅐㅂㅜㅌㅓ</w>": 6042,
      "8ㅍㅔㅇㅣㅈㅣ</w>": 6043,
      "par": 6044,
      "ㅋㅞ": 6045,
      "ㅈㅏㅅㅏㄴ": 6046,
      "ㅂㅜㄴㄷㅡㄹ</w>": 6047,
      "ㅇㅣㄹㅗ": 6048,
      "ㅁㅕㅇㅇㅡㄹㅗ</w>": 6049,
      "ㅇㅏㅆㅅㅡㅂㄴㅣㄷㅏ</w>": 6050,
      "ㅂㅏㄷㅏㄱ": 6051,
      "SE": 6052,
      "ㅇㅏㄱㅏ": 6053,
      "ㅎㅐㄱ</w>": 6054,
      "ㅅㅣㄷㅐㅇㅢ</w>": 6055,
      "ㄱㅡㄹㅣㄴ</w>": 6056,
      "100</w>": 6057,
      "ㅇㅚㄱㅜㄱㅇㅣㄴ</w>": 6058,
      "ㄲㅐㄲㅡㅅ": 6059,
      "ㅎㅏㄱㅅㅜㄹ": 6060,
      "'(</w>": 6061,
      "Mo": 6062,
      "ㄷㅗㅂㅏㄱ</w>": 6063,
      "ㅅㅜㅇㅔ</w>": 6064,
      "ㅇㅣㄴㅎㅏㅇㅕ</w>": 6065,
      "Inter": 6066,
      "ㅇㅕㅍㅇㅔ</w>": 6067,
      "ㅉㅗ": 6068,
      "ㅎㅓㄹㅏㄱ</w>": 6069,
      "ㅈㅜㅇㅇㅢ</w>": 6070,
      "ㅅㅣㄱㅏㄴㄷㅏㅇ</w>": 6071,
      "3ㄴㅕㄴ": 6072,
      "Micros": 6073,
      "ㅈㅣㅁㅏㄴ": 6074,
      "ㄷㅐㅌㅗㅇㄹㅕㅇㅇㅡㄴ</w>": 6075,
      "ㄲㅡㅌㅇㅔ</w>": 6076,
      "13ㅇㅣㄹ</w>": 6077,
      "ㅇㅗㅅ</w>": 6078,
      "ㅇㅗㅈㅣㄱ</w>": 6079,
      "ㄷㅏㄹㅇㅣ</w>": 6080,
      "ㅇㅓㄷㅡㅂㅏㅇㅣ": 6081,
      "ㅎㅜㅇㅢ</w>": 6082,
      "ㅂㅏㅇㅅㅣㄱ</w>": 6083,
      "ㄱㅡㅁㅇㅣ</w>": 6084,
      "ㅉㅏㄼ": 6085,
      "ㅇㅣㄴㅁㅜㄹ": 6086,
      "ㄱㅎㅏㄴ</w>": 6087,
      "ㅁㅗㄹㅡㄱㅔㅆ": 6088,
      "ㅋㅏㅇㅜㄴ": 6089,
      "ㅅㅜㅊㅜㄹ": 6090,
      "ㅂㅗㄷㅏㄷㅗ</w>": 6091,
      ".....</w>": 6092,
      "ach": 6093,
      "ㅅㅗㄴㅕㄴ": 6094,
      "ㅇㅏㅁㅏㅊㅠㅇㅓ</w>": 6095,
      "ㅁㅔㄱㅅㅣ": 6096,
      "ㅈㅕㅆㅅㅡㅂㄴㅣㄷㅏ</w>": 6097,
      "ㅇㅣㄹㄹㅣ": 6098,
      "ㅅㅔㅁ": 6099,
      "ㅇㅝㅋㅡ": 6100,
      "ㅎㅘㄹㅅㅓㅇㅎㅘ": 6101,
      "4ㅇㅣㄹ</w>": 6102,
      "ㅋㅣㄴ": 6103,
      "ㅎㅞㅅㅗㄴ": 6104,
      "ㄱㅏㅄ</w>": 6105,
      "ㅑㅇㅇㅡㄹ</w>": 6106,
      "Man": 6107,
      "ㅌㅔㅋㅡ": 6108,
      "ㅈㅓㄴㅕㄱ": 6109,
      "ㅅㅣㅈㅏㅇㅇㅢ</w>": 6110,
      "ㅈㅡㄹㄱㅕ": 6111,
      "ㄷㅚㅇㅓㅆㅇㅡㅁㅕ</w>": 6112,
      "2017": 6113,
      "ㅇㅠㅎㅕㅇ</w>": 6114,
      "!\"</w>": 6115,
      "ㅍㅏㅋㅡ</w>": 6116,
      "ㄷㅡㅇㄱㅘ</w>": 6117,
      "ㅈㅜㅇㅓㅈㅣㄴ</w>": 6118,
      "ㄱㅏㅁㅅㅏ</w>": 6119,
      "ㅍㅜㅇ</w>": 6120,
      "ㅅㅗㅇㅘ</w>": 6121,
      "ㅂㅣㄹㅗㅅㅎㅏㄴ</w>": 6122,
      "ㅇㅏㄵㅇㅏ</w>": 6123,
      "ㅂㅏㅇㅣㄹㅓ": 6124,
      "ㄱㅓㅁㅌㅗ": 6125,
      "ㅆㅏㄹ": 6126,
      "ㄸㅐㅇㅔ</w>": 6127,
      "rec": 6128,
      "ㅈㅡㅇㄱㅓ": 6129,
      "ㅍㅓㅅㅔㄴ": 6130,
      "ㄱㅕㄹㄱㅘㄱㅏ</w>": 6131,
      "ㅎㅏㄴㅏㄱㅏ</w>": 6132,
      "ou</w>": 6133,
      "ㅇㅏㄷㅡㄹ": 6134,
      "ㄷㅚㄷㅗㄹㅗㄱ</w>": 6135,
      "ㅅㅣㄴㅇㅣ</w>": 6136,
      "ㄱㅘㅈㅔ</w>": 6137,
      "ㄷㅗㅇㅁㅜㄹ</w>": 6138,
      "CC": 6139,
      "ㅅㅣㄹㅇㅔㅅㅓ</w>": 6140,
      "ㄴㅣㄲㅏㅇㅛ</w>": 6141,
      "196": 6142,
      "ㅅㅏㅇㄷㅏㅇㅎㅏㄴ</w>": 6143,
      "ㄱㅏㅁㅅㅏㄷㅡㄹㅣㅂㄴㅣㄷㅏ</w>": 6144,
      "ㅅㅓㅂㅣㅅㅡㄴㅡㄴ</w>": 6145,
      "ㅇㅏㄴㅌㅏ": 6146,
      "yr": 6147,
      "ㄷㅣㅈㅣㅌㅓㄹ": 6148,
      "ㅊㅜㄱㅎㅏ": 6149,
      "ㅇㅏㄹㄹㅣ": 6150,
      "ㅈㅏㄱㅣㅅㅗㄱㅐ": 6151,
      "ㅇㅘㄴㅂㅕㄱㅎㅏㄴ</w>": 6152,
      "ㅋㅐㄴㅏㄷㅏ</w>": 6153,
      "ㅁㅕㄴㅇㅣ</w>": 6154,
      "ㄱㅓㅁㅊㅏㄹ": 6155,
      "ㅊㅣㅁㅎㅐ": 6156,
      "ㅁㅔㅁㅗ": 6157,
      "ㄷㅡㅇㄱㅡㅂ": 6158,
      "ㅈㅜㄱㅣ</w>": 6159,
      "ㄱㅝㄴㅇㅢ</w>": 6160,
      "ㄱㅗㄷㅡㅇㅎㅏㄱㄱㅛ</w>": 6161,
      "ㄷㅡㄹㅣㄱㅗ</w>": 6162,
      "ㅂㅜㄴㄹㅣ": 6163,
      "ㅁㅏㄱㅇㅡㄹ</w>": 6164,
      "ㅏㅁㅕㄴ</w>": 6165,
      "ㅇㅘㄴㅈㅓㄴㅎㅏㄴ</w>": 6166,
      "ㅊㅔㅎㅓㅁ</w>": 6167,
      "ㅌㅗㅇㄱㅖ": 6168,
      "ㅈㅓㅇㅎㅘㄱㅎㅣ</w>": 6169,
      "ㅁㅓㄹㄹㅣ</w>": 6170,
      "ㅁㅏㅈㄱㅔ</w>": 6171,
      "ㅂㅏㄹㅗㄱㅏㄱㅣ</w>": 6172,
      "ㅁㅏㄹㅡㄹ</w>": 6173,
      "ㅇㅘㄴㅡㄴ</w>": 6174,
      "ㅊㅏㅇㅔ</w>": 6175,
      "ㅈㅏㄱㄱㅏ</w>": 6176,
      "min": 6177,
      "ㅎㅏㄴㅁㅏ": 6178,
      "ㅇㅘㄴㅈㅓㄴ</w>": 6179,
      "lec": 6180,
      "ㅂㅏㄷㄱㅔ</w>": 6181,
      "ㅍㅓㅁ": 6182,
      "ud": 6183,
      "ㅎㅐㅆㄱㅣ</w>": 6184,
      "ㄱㅡㄱㅓㄹ</w>": 6185,
      "ㅊㅐㄱㅇㅣㅁㅈㅏ</w>": 6186,
      "ㅈㅔㅍㅜㅁㅇㅡㄴ</w>": 6187,
      "ㄷㅡㄹㅐ": 6188,
      "ㅈㅓㅈㅏㄱㅈㅏ": 6189,
      "ㅁㅗㅇㅏ": 6190,
      "ㅈㅓㄱㅇㅓㄷㅗ</w>": 6191,
      "ㅅㅡㅌㅏㅋㅣㅇ</w>": 6192,
      "ㅌㅡㅇㅔㅅㅓ</w>": 6193,
      "74</w>": 6194,
      "em</w>": 6195,
      "ㄴㅏㄹㅇㅣ</w>": 6196,
      "ㄱㅘㄴㅇㅔㅅㅓ</w>": 6197,
      "ㄴㅐㅆㄷㅏ</w>": 6198,
      "ㄱㅗㅅㅗㄱ": 6199,
      "ㄲㅏㄴ</w>": 6200,
      "ㄱㅗㄱㅣ</w>": 6201,
      "ㅅㅗㄴㄱㅏㄹ": 6202,
      "ㅇㅓㅂㄱㅡㄹㅔㅇㅣ": 6203,
      "ㄴㅐㅂㅜ": 6204,
      "ㅇㅣㄹㅗ</w>": 6205,
      "ㅅㅐㅇㅁㅜㄹ": 6206,
      "ㅍㅐㅅㅕㄴ": 6207,
      "ㄱㅜㄴㅡㄴ</w>": 6208,
      "ㅉㅣ</w>": 6209,
      "ㄲㅓㅅ</w>": 6210,
      "mo": 6211,
      "ㅈㅓㅈㅏㄱㅈㅏㅍㅛㅅㅣ</w>": 6212,
      "ㄱㅜㄱㅈㅓㅇ": 6213,
      "ㄱㅏㅂ</w>": 6214,
      "ㅈㅗㅎㅚ": 6215,
      "ㅅㅡㅌㅣㄱ</w>": 6216,
      "ㅁㅜㅇㅓㅅㅇㅣㄴㄱㅏ</w>": 6217,
      "ㄱㅡㅁㅏㄴㅋㅡㅁ</w>": 6218,
      "ㅈㅓㅇㅊㅣㅈㅓㄱ</w>": 6219,
      "ㅌㅏㄹㅡㄹ</w>": 6220,
      "ㄷㅗㅇㅜㅁ": 6221,
      "ㅅㅏㅇㅣㅇㅢ</w>": 6222,
      "ㅇㅣㅂㄴㅣㄲㅏ</w>": 6223,
      "20ㅇㅣㄹ</w>": 6224,
      "ㅡㄹㅓ": 6225,
      "ㅎㅘㅎㅏㄱ": 6226,
      "ㅇㅕㄹㅓㅂㅜㄴ</w>": 6227,
      "ㅁㅏㅅㅇㅣ</w>": 6228,
      "ㅇㅏㄴㅣㅈㅣㅁㅏㄴ</w>": 6229,
      "9ㅍㅔㅇㅣㅈㅣ</w>": 6230,
      "ㄴㅐㄴㅕㄴ</w>": 6231,
      "ㄱㅏㄲㅡㅁ</w>": 6232,
      "ㅇㅣㄹㄹㅓ": 6233,
      "ㄱㅓㅅㅇㅣㄴㅈㅣ</w>": 6234,
      "ㄷㅗㅇㅇㅡㄹ</w>": 6235,
      "ㄱㅗㅇㅈㅏㅇ</w>": 6236,
      "ㄷㅏㅂ</w>": 6237,
      "ㅈㅣㅇㅝㄴㅇㅡㄹ</w>": 6238,
      "ㄲㅏㄹㄲㅡㅁ": 6239,
      "ㅋㅓㅁㅓㄴㅈㅡ</w>": 6240,
      "ㅅㅓㅂㅣㅅㅡㄱㅏ</w>": 6241,
      "ㅈㅓㅁㄱㅘ</w>": 6242,
      "ㅅㅓㅁ</w>": 6243,
      "ㅍㅏㄴㅌㅏ": 6244,
      "ㅎㅐㅅㅓㄷㅗ</w>": 6245,
      "ㄱㅏㄱㅕㄱㅇㅣ</w>": 6246,
      "ㅇㅣㄹㄱㅘ</w>": 6247,
      "ㄷㅏㄹㄹㅣ": 6248,
      "op</w>": 6249,
      "ㅇㅗㅅㅇㅡㄹ</w>": 6250,
      "ㄱㅔㄷㅏㄱㅏ</w>": 6251,
      "ㅈㅓㄱㅇㅣㄷㅏ</w>": 6252,
      "ㅁㅣㄷㄱㅗ</w>": 6253,
      "ㅇㅣㅁㅣㅈㅣㄹㅡㄹ</w>": 6254,
      "ㅇㅟㅊㅣㅇㅔ</w>": 6255,
      "ㄱㅔㅆㄷㅏㄱㅗ</w>": 6256,
      "ㅇㅗㅂㅅㅕㄴ</w>": 6257,
      "ㄹㅏㅁㅕ</w>": 6258,
      "ㅂㅏㄹㅅㅗㅇ": 6259,
      "ㅂㅗㅇㅕ</w>": 6260,
      "ㅇㅏㄹㅏ": 6261,
      "ㅇㅏㄶㅈㅣㅁㅏㄴ</w>": 6262,
      "ㅇㅣㄴㅔㅇㅛ</w>": 6263,
      "ㄱㅛㅅㅏ</w>": 6264,
      "ㅈㅏㅇㅂㅣ</w>": 6265,
      "ㅇㅕㅂㅐㅇㅜ</w>": 6266,
      "ㅁㅏㅅ</w>": 6267,
      "ㄴㅣㅁㄱㅘ</w>": 6268,
      "ㅊㅟㅅㅗ": 6269,
      "ㅍㅏㄴㅇㅡㄹ</w>": 6270,
      "ㄱㅗㅇㅇㅛㅇ</w>": 6271,
      "ㄱㅗㅇㅁㅜㅇㅝㄴ</w>": 6272,
      "ㅂㅔㅌㅣㅇ</w>": 6273,
      "ong": 6274,
      "RO": 6275,
      "ㅅㅏㅈㅓㄴ": 6276,
      "ㅅㅡㅅㅡㄹ": 6277,
      "ㄹㅗㅇㅢ</w>": 6278,
      "ㅈㅣㅇㅕㄱㅇㅔ</w>": 6279,
      "ㄷㅗㅋ": 6280,
      "ㄱㅣㄹㅗㄱㅇㅡㄹ</w>": 6281,
      "ㄴㅓㅁㄴㅡㄴ</w>": 6282,
      "ㅁㅏㅊㅏㄴㄱㅏㅈㅣㄹㅗ</w>": 6283,
      "ㅁㅜㄴㅈㅔㅇㅔ</w>": 6284,
      "ㅈㅓㄱㅇㅡㅇ": 6285,
      "ㅅㅓㅇㄱㅗㅇ</w>": 6286,
      "ㅕㄱㅗ</w>": 6287,
      "ㅇㅗㄹㄹㅣㅁㅍㅣㄱ": 6288,
      "ㄱㅡㅁㅎㅏㅂㄴㅣㄷㅏ</w>": 6289,
      "ㄱㅡㄹㅓㄹ</w>": 6290,
      "ㅂㅓㄹㅆㅓ</w>": 6291,
      "ans": 6292,
      "ㅎㅗㅌㅔㄹㅇㅔㅅㅓ</w>": 6293,
      "ㄱㅓㄱㅣ": 6294,
      "ㅊㅏㅁㄱㅗㄹㅗ</w>": 6295,
      "8ㅇㅣㄹ</w>": 6296,
      "ㅅㅗㅅㅗㅇ": 6297,
      "ㄸㅓㄹㅇㅓㅈㅕ</w>": 6298,
      "ㅎㅏㅇㄱㅗㅇ</w>": 6299,
      "ㅊㅏㅇㅇㅢ": 6300,
      "ㅇㅟㅎㅕㅂ": 6301,
      "be</w>": 6302,
      "17ㅇㅣㄹ</w>": 6303,
      "ㄷㅓㄱ</w>": 6304,
      "ㄱㅣㅂㅗㄴㅈㅓㄱㅇㅡㄹㅗ</w>": 6305,
      "ㅂㅐㅌㅣㅇ</w>": 6306,
      "able</w>": 6307,
      "ai": 6308,
      "ㅈㅗㅅㅓㅇ": 6309,
      "ㅊㅚㅈㅗㅇ": 6310,
      "ㅇㅟㅇㅘ</w>": 6311,
      "ㄱㅏㅌㅇㅡㄴ": 6312,
      "ㅎㅕㅂ</w>": 6313,
      "cont": 6314,
      "ㅈㅡㅇㅇㅣ</w>": 6315,
      "ial</w>": 6316,
      "ㅈㅏㄷㅡㄹ": 6317,
      "ㄷㅡㅇㅘ</w>": 6318,
      "ㄱㅜㄷㅇㅣ</w>": 6319,
      "ㅁㅗㄱㅅㅏ</w>": 6320,
      "ㄷㅡㄹㅇㅓㄱㅏ": 6321,
      "ㅇㅔㅅㅡ": 6322,
      "ㅈㅔㅍㅜㅁㅇㅢ</w>": 6323,
      "ㅅㅣㄱㅍㅜㅁ</w>": 6324,
      "ㄱㅓㅅㅇㅣㄴ": 6325,
      "ㅋㅓㅁㅠㄴㅣㅋㅔㅇㅣ": 6326,
      "ㅕㄴㅇㅡㄹ</w>": 6327,
      "ㅁㅏㅈㅇㅏ</w>": 6328,
      "MER": 6329,
      "ks</w>": 6330,
      "ㅈㅜㅇㅢㄹㅡㄹ</w>": 6331,
      "ㄷㅐㅇㅔㅅㅓ</w>": 6332,
      "ㅇㅣㅆㄴㅡㄴㄷㅔㅇㅛ</w>": 6333,
      "ㅇㅖㅈㅓㅇ</w>": 6334,
      "ㅈㅏㄱㅡㄱ": 6335,
      "ㅌㅡㄱㅅㅓㅇ</w>": 6336,
      "ㅇㅕㄴㄱㅘㄴ": 6337,
      "ree</w>": 6338,
      "ㅎㅏㄹㅜㅇㅢ</w>": 6339,
      "ㅁㅗㅁㅇㅔ</w>": 6340,
      "ㄱㅘㅇㅈㅜ": 6341,
      "ㅇㅣㄴㄱㅣ": 6342,
      "ㅎㅜㅂㅗ</w>": 6343,
      "ㅊㅜㄱㅈㅓㄱ": 6344,
      "ㅌㅡㄹㅣㅂㅇㅓㄷㅡㅂㅏㅇㅣ": 6345,
      "ㅅㅜㄱㅅㅗ</w>": 6346,
      "ㅁㅜㅇㅓㅅㅂㅗㄷㅏ</w>": 6347,
      "color</w>": 6348,
      "ㅇㅢㅅㅣㄱ": 6349,
      "ㅈㅔㅁㅗㄱ": 6350,
      "ㄴㅓㄹㅡㄹ</w>": 6351,
      "ㅇㅣㄸㅐ</w>": 6352,
      "ㄱㅡㅁㅇㅐㄱ</w>": 6353,
      "ㅅㅓㅇㅇㅣㄴ</w>": 6354,
      "ㅂㅣㅇㅢ</w>": 6355,
      "ㄴㅔㅌㅡㅇㅝㅋㅡ": 6356,
      "ㅎㅏㄹㅁㅓㄴㅣ</w>": 6357,
      "ㅊㅣㅁㅇㅡㄹ</w>": 6358,
      "ㅎㅏㄴㅏㅇㅛ</w>": 6359,
      "ㅇㅏㅊㅣㅁ": 6360,
      "ㅎㅚㅇㅝㄴㅇㅣ</w>": 6361,
      "ㅁㅏㅇㅡㅁㅇㅡㄹㅗ</w>": 6362,
      "ㅇㅑㅇㅇㅢ</w>": 6363,
      "ㅈㅏㅇㅇㅐㅇㅣㄴ": 6364,
      "ㄱㅜㄱㅇㅣ</w>": 6365,
      "ㅍㅐㅇ": 6366,
      "ㅈㅓㅇㅂㅜㄴㅡㄴ</w>": 6367,
      "ㄴㅗㅁㅜ": 6368,
      "ㄱㅖㅇㅑㄱㅇㅡㄹ</w>": 6369,
      "les</w>": 6370,
      "ㅊㅜㅇㅂㅜㄱ</w>": 6371,
      "6ㅇㅣㄹ</w>": 6372,
      "ㅇㅔㄹ</w>": 6373,
      "ㅍㅡㄹㅏㅇㅣ": 6374,
      "ㄱㅜㄱㅎㅚㅇㅢ": 6375,
      "ㅅㅣㄴㅅㅗㄱ": 6376,
      "ㅂㅏㅇㅈㅣ": 6377,
      "ㄱㅗㄹㅍㅡ</w>": 6378,
      "ㅅㅑㅂ</w>": 6379,
      "ㅇㅐㅍㅡㄹㄹㅣㅋㅔㅇㅣ": 6380,
      "ㄴㅗㄹㅕㄱㅇㅡㄹ</w>": 6381,
      "ㄷㅗㅅㅓㄱㅘㄴ</w>": 6382,
      "ㄷㅡㄷㅣㅇㅓ</w>": 6383,
      "ㄷㅏㅇㅊㅓㅁ": 6384,
      "ㅇㅓㄸㅓㄴ": 6385,
      "ㅌㅡㄱㅂㅕㄹㅎㅣ</w>": 6386,
      "ive</w>": 6387,
      "ㅎㅣㅁ</w>": 6388,
      "ㅇㅣㄹㅁㅗㄹ</w>": 6389,
      "ㄱㅣㅈㅐ": 6390,
      "ㄱㅏㄷㅡㄱ</w>": 6391,
      "ㄱㅗㅈㅓㅇ": 6392,
      "ㅈㅣㄱㅡㅁㄷㅗ</w>": 6393,
      "ㅆㅡㄹㅔ": 6394,
      "ㅁㅗㄹㅡㄴㄷㅏ</w>": 6395,
      "ㅂㅜㅇ": 6396,
      "ㅇㅐㄴㅓㄹ</w>": 6397,
      "ㅇㅏㅋㅏ": 6398,
      "ㄱㅓㄹㅇㅓㅅㅓ</w>": 6399,
      "ㅌㅗㅇㅎㅏㅂ</w>": 6400,
      "ㅊㅗㄷㅡㅇㅎㅏㄱㄱㅛ</w>": 6401,
      "ㅈㅜㅇㄷㅏㄴ": 6402,
      "ㅌㅡㅇㅘ</w>": 6403,
      "ㅈㅣㅂㄷㅏㄴ": 6404,
      "ㅋㅗㅅㅡ": 6405,
      "ㅇㅣㄱㅣ": 6406,
      "ㄱㅡㄹㅔ": 6407,
      "ㄴㅐㅇㅢ</w>": 6408,
      "ㄷㅡㅇㄷㅡㅇ</w>": 6409,
      "ㅇㅏㄹㅇㅏㅆ": 6410,
      "ㅈㅣㅂㅇㅣ</w>": 6411,
      "ㄹㄹㅣㅇ": 6412,
      "ㅂㅜㄴㅁㅕㅇㅎㅣ</w>": 6413,
      "ㅇㅣㅇㅣㄱ": 6414,
      "ㅊㅏㅁㅈㅗ</w>": 6415,
      "ㅇㅣㄹㅏㅇ</w>": 6416,
      "ㅊㅗㄹㅗ</w>": 6417,
      "ㄴㅏㄹㅉㅏ</w>": 6418,
      "ㄱㅕㅇㅎㅓㅁ</w>": 6419,
      "ㅁㅜㄴㅈㅏ</w>": 6420,
      "ㅅㅗㅅㅗㄱ": 6421,
      "33</w>": 6422,
      "ㅈㅣㅂㅏㅇ</w>": 6423,
      "ㅈㅏㅇㅣㄴ</w>": 6424,
      "ㅂㅣㅌㅏ": 6425,
      "ㅇㅣㄴㅌㅓㄴㅔㅅㅇㅡㄹ</w>": 6426,
      "ㅇㅣㄹㄷㅗ</w>": 6427,
      "MA": 6428,
      "ㅈㅗㄱㅡㅁㅆㅣㄱ</w>": 6429,
      "ㅁㅗㅁ</w>": 6430,
      "ge</w>": 6431,
      "ㅅㅛㅍㅣㅇ</w>": 6432,
      "ㄸㅐㄴ</w>": 6433,
      "ㄱㅕㅇㄹㅕㄱ": 6434,
      "ㅅㅙ</w>": 6435,
      "ㅇㅏㅍㅡㄹㅣ": 6436,
      "ㅇㅕㄱㅎㅏㄹ</w>": 6437,
      "ㅈㅣㅅㅗㄱㅈㅓㄱㅇㅡㄹㅗ</w>": 6438,
      "ㅁㅗㄷㅠ": 6439,
      "ㅑㄱㅗ</w>": 6440,
      "ㅅㅣㅌㅣ": 6441,
      "ㅇㅣㄴㅐㅇㅢ</w>": 6442,
      "ㅁㅜㅈㅗㄱㅓㄴ</w>": 6443,
      "ㅅㅗㅂㅏㅇ": 6444,
      "ㅇㅕㄱㄷㅐ</w>": 6445,
      "64": 6446,
      "ㅇㅣㄹㄱㅏㄴ</w>": 6447,
      "ㅈㅓㅂㅅㅜ</w>": 6448,
      "ㅌㅔㄹㅏ": 6449,
      "ㄱㅣㄴㅕㅁ</w>": 6450,
      "ㄱㅓㅅㅇㅣㄹㅏㄴㅡㄴ</w>": 6451,
      "ㄱㅗㅇㄱㅏㅁ": 6452,
      "ㅊㅣㄱㅔ</w>": 6453,
      "ㄴㅏㅇㅗㄴㄷㅏ</w>": 6454,
      "ㅎㅗㅇㅂㅗ</w>": 6455,
      "ㅂㅇㅣ</w>": 6456,
      "ㅅㅐㅇㄱㅣㄴ</w>": 6457,
      "ㅇㅏㅍㅇㅡㄹㅗㄷㅗ</w>": 6458,
      "ㅇㅏㅁㅏㄷㅗ</w>": 6459,
      "2015</w>": 6460,
      "ㅇㅗㅍㅣ": 6461,
      "ㅁㅣㅅㅔ": 6462,
      "ㅂㅐㄴㄷㅡ</w>": 6463,
      "ㄷㅏㅇㅇㅣ</w>": 6464,
      "ㅊㅔㄱㅕㄹ": 6465,
      "3ㄱㅐ</w>": 6466,
      "ㅍㅜㅇㅂㅜ": 6467,
      "ast": 6468,
      "GB</w>": 6469,
      "34</w>": 6470,
      "ㄱㅏㅇㅅㅜㄹ": 6471,
      "ㅅㅣㅍㅇㅓ</w>": 6472,
      "ㅇㅢㄹㅗ</w>": 6473,
      "ㅎㅏㄴㅡㄴㄱㅏ</w>": 6474,
      "ㅎㅏㄹㅇㅣㄴ": 6475,
      "ㄱㅓㅊㅕ</w>": 6476,
      "ㅎㅔㅇㅓ": 6477,
      "ㅈㅗㅇㄹㅛ": 6478,
      "ㄷㅗㅇㅅㅓㅇ": 6479,
      "ㅂㅓㅂㅇㅣ</w>": 6480,
      "sex</w>": 6481,
      "ㅌㅗㄴ": 6482,
      "ㅂㅏㄲㅝ": 6483,
      "ㅈㅓㄹㅓㄴ</w>": 6484,
      "ㅈㅗㅇㄹㅠㅇㅢ</w>": 6485,
      "ㅊㅗㄴ</w>": 6486,
      "ey</w>": 6487,
      "ㅎㅗㄱ</w>": 6488,
      "2011ㄴㅕㄴ</w>": 6489,
      "ㄷㅐㄴ": 6490,
      "ㄷㅐㅎㅘ</w>": 6491,
      "ㅎㅏㄱㅔㅆ": 6492,
      "ㅁㅔㅅㅣㅈㅣㄹㅡㄹ</w>": 6493,
      "ㅂㅏㄹㅅㅐㅇㅎㅏㄹ</w>": 6494,
      "ㄴㅏㅁㅍㅕㄴ</w>": 6495,
      "ㅎㅘㄴㄱㅕㅇㅇㅡㄹ</w>": 6496,
      "ㅇㅜㅅㅡㅇ</w>": 6497,
      "ㅍㅜㅁㅈㅣㄹ</w>": 6498,
      "ㄱㅔㄷㅗ</w>": 6499,
      "ㄷㅓㅅㅂㅜㅌ": 6500,
      "ㅎㅏㄴㅈㅣ</w>": 6501,
      "ㅊㅣㄴㄱㅜㄱㅏ</w>": 6502,
      "ㅍㅏㄹㅣ": 6503,
      "ㅁㅣㄴㅈㅜㄷㅏㅇ</w>": 6504,
      "ㅍㅡㄹㅗㅌㅗ": 6505,
      "ㄴㅣㅁㄲㅔ</w>": 6506,
      "ㄱㅗㄱㅡㅂ": 6507,
      "int</w>": 6508,
      "ㄱㅔㅈㅐ": 6509,
      "ㅅㅓㄴㅇㅢ</w>": 6510,
      "Co": 6511,
      "ㅈㅜㅇㄱㅏㄴ": 6512,
      "ㅏㅇㅔㅅㅓ</w>": 6513,
      "ㅎㅏㄱㅎㅚ</w>": 6514,
      "ㅊㅚㅅㅓㄴㅇㅡㄹ</w>": 6515,
      "ㅌㅔㅇㅣㅂㅡㄹ": 6516,
      "ㄱㅜㄴㅇㅢ</w>": 6517,
      "ㅇㅕㄴㅊㅜㄹ": 6518,
      "ㅇㅠㅈㅓ": 6519,
      "ㅊㅗㅇㅢ</w>": 6520,
      "ㅇㅣㄷㅗ</w>": 6521,
      "ㅈㅏㄷㅡㄹ</w>": 6522,
      "ㅈㅗㅎㅇㅏㅆ": 6523,
      "ㄹㅜㅁ": 6524,
      "ㄱㅘㄴㄹㅕㄴㅎㅏㅇㅕ</w>": 6525,
      "up</w>": 6526,
      "ㅎㅏㅈㅣㄴㅡㄴ</w>": 6527,
      "ㅅㅜㅇㅓㅂ</w>": 6528,
      "ㄷㅓㄹㅏ</w>": 6529,
      "ㅎㅏㄴㄱㅖ": 6530,
      "ㅂㅜㄴㅁㅕㅇ</w>": 6531,
      "ㅅㅣㄹㅈㅔ": 6532,
      "ㅇㅏㄶㅇㅏㅆㅅㅡㅂㄴㅣㄷㅏ</w>": 6533,
      "ㅂㅏㅇㅂㅓㅂㅇㅔ</w>": 6534,
      "ㄱㅡㄱㅂㅗㄱ": 6535,
      "ㅎㅏㄴㅏㄹㅗ</w>": 6536,
      "ㅂㅐㅍㅗ": 6537,
      "ㄲㅡㅌ</w>": 6538,
      "ㅑㄱ": 6539,
      "ㄱㅡㄹㅆㅡㄱㅣ</w>": 6540,
      "ㅎㅏㅇㅣ</w>": 6541,
      "ㅅㅔㄹ</w>": 6542,
      "ㄱㅣㅂㅗㄴㅈㅓㄱㅇㅣㄴ</w>": 6543,
      "ㄸㅣ": 6544,
      "II</w>": 6545,
      "ㅅㅏㄹㅉㅏㄱ</w>": 6546,
      "ㅁㅓㅁㅜㄹ": 6547,
      "ㄲㅡㅌㄲㅏㅈㅣ</w>": 6548,
      "ㅂㅜㅈㅗㄱㅎㅏㄴ</w>": 6549,
      "ㄱㅏㄹㅗ": 6550,
      "ㅅㅡㅌㅣㅇ": 6551,
      "ㄴㅏㅎ": 6552,
      "ㅁㅜㄲ": 6553,
      "mail</w>": 6554,
      "ow</w>": 6555,
      "ㅋㅡㄹㄹㅏㅇㅜㄷㅡ</w>": 6556,
      "ㅁㅜㄹㅇㅓ": 6557,
      "ㄱㅏㅈㅊㅜㄴ</w>": 6558,
      "ㅈㅗㅇㅇㅣ</w>": 6559,
      "ㅇㅑㄱㄱㅘㄴ</w>": 6560,
      "ㅈㅏㅇㅠㄹ": 6561,
      "mar": 6562,
      "ㅌㅣㅁㅇㅡㄴ</w>": 6563,
      "ㅋㅣㄹㅡㄹ</w>": 6564,
      "ㄷㅏㄷㅡㄹ</w>": 6565,
      "ㅇㅣㅈㅓㄴㅇㅔ</w>": 6566,
      "ㅈㅗㄱㅓㄴㅂㅕㄴㄱㅕㅇ": 6567,
      "39": 6568,
      "ㅂㅕㄹㄷㅗ</w>": 6569,
      "ㅎㅓㄴ</w>": 6570,
      "ㅇㅞㅇㅣ": 6571,
      "Br": 6572,
      "ㅅㅗㄴㅇㅡㄹㅗ</w>": 6573,
      "ㅂㅜㅁㅜㄴ</w>": 6574,
      "ㅈㅓㅇㅂㅗㅌㅗㅇㅅㅣㄴ": 6575,
      "ㄷㅗㅇㅇㅣㄹㅈㅗㄱㅓㄴㅂㅕㄴㄱㅕㅇ": 6576,
      "ㅇㅐㅍㅡㄹ</w>": 6577,
      "ㅂㅓㅂㅇㅣㄴ</w>": 6578,
      "ㅎㅘㅈㅏㅇㅍㅜㅁ</w>": 6579,
      "ㄱㅡㄹㅓㅎㄷㅏㄱㅗ</w>": 6580,
      "ㅁㅏㅇㅢ</w>": 6581,
      "ㅅㅓㄲ": 6582,
      "ㄹㅜㄹ": 6583,
      "ㅇㅕㄱㅅㅏㄹㅡㄹ</w>": 6584,
      "ys": 6585,
      "ㄱㅗㅇㅎㅘ": 6586,
      "ㄴㅡㅈㄱㅔ</w>": 6587,
      "ㅂㅐㄱㅏ</w>": 6588,
      "ㅇㅏㅇㅜㄹ": 6589,
      "ㅇㅏㄶㅇㅡ": 6590,
      "ㅊㅏㅁㄱㅗㅎㅏㅅㅣㅂㅅㅣㅇㅗ</w>": 6591,
      "ㅅㅓㄴㅎㅗ": 6592,
      "ㄱㅏㄲㅏㅇㅣ</w>": 6593,
      "MO": 6594,
      "ㅅㅏㅇㅛㅇㅎㅏㅁㅕㄴ</w>": 6595,
      "ㄱㅓㄴㅁㅜㄹ</w>": 6596,
      "ㅎㅜㄴㄹㅕㄴ</w>": 6597,
      "ㄹㅕㄴㅡㄴ</w>": 6598,
      "ant": 6599,
      "ㅅㅜㅇㅝㄴ": 6600,
      "ㅇㅣㄴㅣㅇ</w>": 6601,
      "ㅎㅏㅇㅁㅗㄱ</w>": 6602,
      "ㅅㅗㄴㅇㅔ</w>": 6603,
      "ㅇㅢㅁㅣㄱㅏ</w>": 6604,
      "ㅋㅐㄹㄹㅣ": 6605,
      "ㅊㅕㅅㅓ</w>": 6606,
      "ㄷㅗㅇㅇㅣㄹㅈㅗㄱㅓㄴㅂㅕㄴㄱㅕㅇㅎㅓㄹㅏㄱ</w>": 6607,
      "ㄱㅕㅁ": 6608,
      "ㅁㅏㅁ": 6609,
      "ㅋㅏㄹㄹㅓㅁ</w>": 6610,
      "ㅁㅏㄴㄴㅏㄹ</w>": 6611,
      "ㄷㅐㄱㅣ</w>": 6612,
      "ㄱㅟㅎㅏㅇㅢ</w>": 6613,
      "pres": 6614,
      "0ㅇㅔ</w>": 6615,
      "ㅅㅇㅡㄴ</w>": 6616,
      "ㅂㅓㄴㅇㅕㄱ</w>": 6617,
      "2010ㄴㅕㄴ</w>": 6618,
      "ㅁㅔㅁㅗㄹㅣ</w>": 6619,
      "ㅎㅜㅇㅝㄴ": 6620,
      "ㅊㅜㅇㅈㅓㄴ": 6621,
      "ㅈㅓㅇㅊㅐㄱㅇㅡㄹ</w>": 6622,
      "ㄷㅓㅇ": 6623,
      "ong</w>": 6624,
      "ㄴㅗ</w>": 6625,
      "ㄴㅏㅁㅏ</w>": 6626,
      "ㅈㅗㅎㅚ</w>": 6627,
      "ㅅㅣㄱㅣㄹ</w>": 6628,
      "ㄲㅜ</w>": 6629,
      "ㅅㅗㅎㅘ": 6630,
      "ㄱㅏㅁㅕ</w>": 6631,
      "ㅅㅣㄱㅏㄴㅇㅢ</w>": 6632,
      "ㄴㅓㄴㅡㄴ</w>": 6633,
      "ㅈㅗㅅㅣㅁ": 6634,
      "ㄹㅖ</w>": 6635,
      "ㅏㄹㅣ": 6636,
      ".'</w>": 6637,
      "ㅁㅣㄴㅣ</w>": 6638,
      "ㅊㅜㅇㄱㅕㄱ": 6639,
      "400": 6640,
      "ㄱㅕㅇㄱㅣㅇㅔㅅㅓ</w>": 6641,
      "ㄱㅓㅅㄷㅡㄹㅇㅣ</w>": 6642,
      "ㅈㅓㄴㅎㅘㄴ</w>": 6643,
      "ㅅㅓㅇㄴㅡㅇ</w>": 6644,
      "ㅈㅔㅈㅗ</w>": 6645,
      "ㄴㅐㄹㅣ": 6646,
      "ㅍㅡㄹㅡㄹ</w>": 6647,
      "ue</w>": 6648,
      "ㄱㅣㅂㅜ": 6649,
      "ㄷㅏㅇㅈㅏㅇ</w>": 6650,
      "ㅇㅓㅄㅇㅓ": 6651,
      "ㅇㅏㅇㅖ</w>": 6652,
      "ㅎㅗㅌㅔㄹㅇㅢ</w>": 6653,
      "ㅈㅐㅅㅐㅇㅅㅜ</w>": 6654,
      "ㅈㅗㅈㅏㄱ": 6655,
      "ㅅㅓㅇㅅㅜㄱㅎㅏㄴ</w>": 6656,
      "ㅈㅜㅇㅅㅣㅁ</w>": 6657,
      "ㅅㅏㄹㅏㅁㄷㅗ</w>": 6658,
      "ㅊㅏㅇㅇㅡㄹ</w>": 6659,
      "ㅁㅜㄹㅣ</w>": 6660,
      "ㄷㅡㅁ": 6661,
      "ㅂㄷㅏ</w>": 6662,
      "ㅇㅏㅁㅜㄷㅗ</w>": 6663,
      "ㅁㅏㄶㅅㅡㅂㄴㅣㄷㅏ</w>": 6664,
      "ㅂㅜㄱㅎㅏㄴㅇㅢ</w>": 6665,
      "ㅁㅣㅊㅣㄴㅡㄴ</w>": 6666,
      "ㄴㅣㄷㅏ</w>": 6667,
      "ㅇㅡㄹㅕ</w>": 6668,
      "ㅇㅣㄹㅂㅜ": 6669,
      "150": 6670,
      "ㅅㅔㅈㅗㅇ": 6671,
      "ㅎㅣㄹ": 6672,
      "ㅎㅘㄹㅅㅓㅇㅎㅘ</w>": 6673,
      "ㅊㅏㅈㄱㅗ</w>": 6674,
      "ㅇㅣㄴㄱㅗㅇㅈㅣ": 6675,
      "ㅋㅐㄹㅣㄱㅌㅓ</w>": 6676,
      "ㅎㅐㅅㅓㄱ</w>": 6677,
      "ㅍㅡㅌㅡ</w>": 6678,
      "ㅁㅜㄴㅈㅔㅇㅢ</w>": 6679,
      "ㅂㅣㅈ": 6680,
      "ㅂㅏㄹㅇㅓㄴ": 6681,
      "ㅅㅓㄴㅅㅐㅇㄴㅣㅁ</w>": 6682,
      "ㅎㅏㄴㄷㅏㄹ</w>": 6683,
      "ㄹㅣㅅㅡㅌㅡ</w>": 6684,
      "ㄱㅗㅇㄱㅗ</w>": 6685,
      "ㅈㅓㅂㅅㅜ": 6686,
      "ㅇㅏㄹㅐㅇㅢ</w>": 6687,
      "ㅇㅣㅁㅣㄴ": 6688,
      "ㅉㅏㅇ": 6689,
      "ㅇㅏㅁㅜㄱㅓㅅㄷㅗ</w>": 6690,
      "ㄷㅡㄹㅣㄹ</w>": 6691,
      "ㅅㅗㅅㅓㄹ</w>": 6692,
      "ㅍㅗㄱ</w>": 6693,
      "ㅇㅣㄹㄲㅏㅇㅛ</w>": 6694,
      "ㅎㅏㅂㅇㅢ": 6695,
      "ㅇㅙㄴㅑ": 6696,
      "ㅂㅐㅇㅝ": 6697,
      "ㅂㅣㅇㅘ</w>": 6698,
      "ㅎㅏㄱㅇㅝㄴ</w>": 6699,
      "ㅅㅔㅁㅣㄴ": 6700,
      "ㅇㅠㄱㅣ": 6701,
      "Microsoft</w>": 6702,
      "ㄲㅏㅈㅣㅇㅢ</w>": 6703,
      "ㅁㅏㅈㅊㅝ</w>": 6704,
      "Le": 6705,
      "ㄷㅗㅂ": 6706,
      "ㅇㅕㄴㄱㅜㅇㅝㄴ</w>": 6707,
      "MS</w>": 6708,
      "ㅊㅓㅂㅓㄹ": 6709,
      "MS": 6710,
      "ㅍㅐㄱ</w>": 6711,
      "ㄱㅗㅇㅇㅡㄹ</w>": 6712,
      "ㅈㅚㅅㅗㅇㅎㅏㅂㄴㅣㄷㅏ</w>": 6713,
      "ㄴㅏㅇㅡㄴ</w>": 6714,
      "ㅁㅏㅈㅇㅣ": 6715,
      "ㄱㅜㅇㅕㄱ": 6716,
      "ㅈㅏㅇㅊㅏㄱ": 6717,
      "ㅅㅣㄹㅎㅕㄴ": 6718,
      "ㄴㅏㄹㅆㅣ</w>": 6719,
      "log": 6720,
      "ㅅㅏㄹㅏㅁㄱㅘ</w>": 6721,
      "ㅊㅏㄱㅇㅛㅇ": 6722,
      "ㅈㅗㅇㅎㅏㅂ</w>": 6723,
      "ㅈㅜㅇㅣㄴ": 6724,
      "ㄷㅡㅇㄹㅗㄱㄷㅚㄴ</w>": 6725,
      "ㅎㅏㅅㅕㅇㅑ</w>": 6726,
      "ㅎㅐㅈㅣㄴㅡㄴ</w>": 6727,
      "ㅁㅗㅁㅇㅣ</w>": 6728,
      "ㅅㅏㅇㅌㅐㄹㅗ</w>": 6729,
      "ㅌㅣㅁㅇㅢ</w>": 6730,
      "ㅁㅕㅇㅇㅔ</w>": 6731,
      "ㅎㅐㅇㅇㅟㄹㅡㄹ</w>": 6732,
      "ㅁㅜㄴㅎㅘㄹㅡㄹ</w>": 6733,
      "ㅈㅗㅎㅇㅏ</w>": 6734,
      "ㅈㅜㄹㅇㅓ": 6735,
      "19ㅇㅣㄹ</w>": 6736,
      "ㅇㅣㄱㅓㄴㅏ</w>": 6737,
      "ㅇㅓㅂㄱㅖ": 6738,
      "with</w>": 6739,
      "UN": 6740,
      "ㅅㅏㄹㅇㅏㄴ": 6741,
      "ㅌㅏㄴㅅㅐㅇ": 6742,
      "ㄱㅜㄱㅎㅚ</w>": 6743,
      "ㅈㅓㅁㅇㅣㄷㅏ</w>": 6744,
      "ㅂㅗㅅㅣㄹ</w>": 6745,
      "ㅅㅜㅈㅜㄴ</w>": 6746,
      "ㅅㅏㅅㅓㄹ": 6747,
      "ㅇㅖㅃㅡㄴ</w>": 6748,
      "ㅇㅏㅍㅏㅌㅡ": 6749,
      "ㄷㅗㅇㅎㅑㅇ</w>": 6750,
      "MERRA</w>": 6751,
      "ㅅㅓㄴㅌㅐㄱㅎㅏㄹ</w>": 6752,
      "Qu": 6753,
      "ㅂㅓㄴㅇㅢ</w>": 6754,
      "ㄷㅏㄹㄹㅏㄱㅗ</w>": 6755,
      "ㅎㅏㅁㅡㄹㅗ</w>": 6756,
      "ㅁㅜㄹㄹㅗ</w>": 6757,
      "ㅅㅜㅅㅣㄴ": 6758,
      "ㅊㅣㄹㅛㄹㅡㄹ</w>": 6759,
      "ㅇㅏㅁㅜㄹㅓㄴ</w>": 6760,
      "Sc": 6761,
      "ㅈㅔㄹ": 6762,
      "ㅇㅏㄱㅏ</w>": 6763,
      "ㄷㅗㅇㅇㅕㅇㅅㅏㅇ": 6764,
      "ㄱㅣㄱㅜ</w>": 6765,
      "ㄷㅐㅎㅏㄱㅇㅝㄴ</w>": 6766,
      "ㅈㅗㅊㅣ": 6767,
      "ㅈㅜㄱ</w>": 6768,
      "ㅁㅕㄴㄷㅗ</w>": 6769,
      "ㅌㅜㅍㅛ": 6770,
      "ㅇㅣㅇㅑㄱㅣㄱㅏ</w>": 6771,
      "ㄱㅓㄴㅅㅓㄹ</w>": 6772,
      "ㅊㅜㄹㄹㅕㄱ": 6773,
      "ㄴㅏㅇㅣ</w>": 6774,
      "ML": 6775,
      "ㄷㅗㅈㅓㄴ</w>": 6776,
      "ㄱㅣㅍㅇㅣ</w>": 6777,
      "ㅅㅏㅇㅌㅐㅇㅔㅅㅓ</w>": 6778,
      "ㅁㅕㅊㅁㅕㅊ</w>": 6779,
      "ㅅㅣㄴㅅㅓㄴ": 6780,
      "ㅎㅏㄴㅏㄹㅡㄹ</w>": 6781,
      "KBS</w>": 6782,
      "ㅇㅓㅂㅁㅜㄹㅡㄹ</w>": 6783,
      "ㅇㅝㄴㅇㅣㄴ</w>": 6784,
      "ㄱㅓㄱㅣㅇㅔ</w>": 6785,
      "ㅍㅡㄹㅏㄴ": 6786,
      "ㅁㅣㅇ": 6787,
      "ㅅㅣㄴㅊㅔ": 6788,
      "ㅅㅏㅇㅇㅔㅅㅓ</w>": 6789,
      "ㅎㅏㄾ": 6790,
      "ㅈㅗㅅㅓㄴ</w>": 6791,
      "ㅊㅚㅊㅗ</w>": 6792,
      "ㅇㅣㅈㅔㄴ</w>": 6793,
      "ㄴㅗㄹㄹㅏㅇㅜㄴ</w>": 6794,
      "ㅎㅏㅁㅕㄴㅅㅓㄷㅗ</w>": 6795,
      "ㅈㅐㅁㅜ": 6796,
      "ㅊㅚㅈㅓㄱㅇㅢ</w>": 6797,
      "cl": 6798,
      "ㅇㅗㄴㄷㅗ</w>": 6799,
      "ㄷㅐㅅㅣㄴ": 6800,
      "ㄹㅏㄱㅇㅡㄹ</w>": 6801,
      "ㄷㅐㅂㅣ": 6802,
      "ㅋㅓㅁㅠㄴㅣㅌㅣ</w>": 6803,
      "ㅂㅓㅂㅇㅡㄴ</w>": 6804,
      "ㅎㅏㄹㅕ</w>": 6805,
      "ㄱㅓㄹㅇㅓ": 6806,
      "ㅇㅣㄱㅓㅅㅇㅡㄹ</w>": 6807,
      "ㄱㅜㄱㅇㅡㄹ</w>": 6808,
      "ㅇㅖㅅㅜㄹ</w>": 6809,
      "ㅇㅏㅂ</w>": 6810,
      "ㄴㅏㅇㅣㄷㅡㄴ": 6811,
      "ㅁㅏㅁㅜㄹㅣ": 6812,
      "ㅍㅣㅂㅜ</w>": 6813,
      "ㅈㅣㄴㅐ": 6814,
      "ㄴㅠㅇㅛㄱ": 6815,
      "ann": 6816,
      "ㅇㅣㄺㄱㅣ</w>": 6817,
      "bi": 6818,
      "ㅇㅕㄹㅓㄱㅏㅈㅣ</w>": 6819,
      "ㅍㅣㅌㅡ": 6820,
      "ㄷㅣㄹ": 6821,
      "ㅁㅗㄱㅍㅛ</w>": 6822,
      "ㅇㅗㄹㅐㄴ": 6823,
      "ㄱㅖㅈㅓㅇ</w>": 6824,
      "ㅇㅣㅇㅛㅇㅈㅏㅇㅢ</w>": 6825,
      "ㅇㅣㄴㄷㅡㄹㅇㅢ</w>": 6826,
      "ㅂㅣㅇㅛㅇㅇㅡㄹ</w>": 6827,
      "ㄹㅏㅇㅣㅂㅡ</w>": 6828,
      "ㅍㅏㄱㅚ": 6829,
      "ㅈㅜㄱㅇㅡㅁ": 6830,
      "ㅇㅖㅂㅣ": 6831,
      "ㅈㅓㅈㅏㄱㄱㅝㄴ</w>": 6832,
      "ㄹㅣㅅㅡ</w>": 6833,
      "ㄱㅗㅇㅁㅗ": 6834,
      "ㅁㅏㄹㄷㅗ</w>": 6835,
      "ㄴㅏㅇㅘㅆㄷㅏ</w>": 6836,
      "ews</w>": 6837,
      "37</w>": 6838,
      "ㅇㅗㅂㅓㅇㅝ": 6839,
      "Me": 6840,
      "ㄷㅏㅇㅇㅢ</w>": 6841,
      "MBC</w>": 6842,
      "ㅍㅏㄹ</w>": 6843,
      "ㅎㅜㅈㅏㅇ</w>": 6844,
      "ㅈㅕㅇㅑ</w>": 6845,
      "ㅇㅗㄹㄹㅣㄴ</w>": 6846,
      "ㅅㅡㅋㅗ</w>": 6847,
      "5ㅊㅡㅇ</w>": 6848,
      "ㅅㅣㄹㅎㅐㅇ</w>": 6849,
      "ㄱㅓㄹㄹㅗ</w>": 6850,
      "Wor": 6851,
      "ㅅㅣㄴㅎㅗ": 6852,
      "ㄴㅐㅇㅛㅇㅇㅔ</w>": 6853,
      "ㅈㅓㄴㅎㅘㄹㅡㄹ</w>": 6854,
      "ㅅㅐㄱㅅㅏㅇ</w>": 6855,
      "ㄷㅗㅂㅏㄱ": 6856,
      "ㅅㅐㅇㄱㅏㄱㅂㅗㄷㅏ</w>": 6857,
      "ㅂㅏㄹㅏㅁ</w>": 6858,
      "ST": 6859,
      "ㅇㅓㅉㅐ": 6860,
      "ㅈㅔㄱㅗㅇㄷㅚㄴㅡㄴ</w>": 6861,
      "yn": 6862,
      "ㅅㅣㄹㅇㅣ</w>": 6863,
      "ㄷㅏㅂㅂㅕㄴㅇㅡㄹ</w>": 6864,
      "ㅇㅠㅇ</w>": 6865,
      "ㅊㅗㄱㅣ</w>": 6866,
      "ㅈㅣㄹㅇㅣ</w>": 6867,
      "ㄲㅏㅈㅣㄷㅗ</w>": 6868,
      "ㅈㅔㅇㅘ</w>": 6869,
      "ㅈㅏㄴ</w>": 6870,
      "ㄱㅡㄹㅐㄴ": 6871,
      "ㅈㅜㅇㅇㅛㅎㅏㄷㅏ</w>": 6872,
      "ㅇㅗㄱㅗ</w>": 6873,
      "ㅍㅛㅈㅜㄴ</w>": 6874,
      "ㄷㅏㄴㅡㄴ": 6875,
      "ㅅㅜㅍ": 6876,
      "PS</w>": 6877,
      "ㅅㅏㄹㅇㅣ</w>": 6878,
      "ㄱㅗㅇㅂㅜㄹㅡㄹ</w>": 6879,
      "ㅇㅜㅈㅜ": 6880,
      "ㅐㄷㅗ</w>": 6881,
      "ㄷㅐㄱㅣ": 6882,
      "ㅅㅓㅇㅍㅗㄱ": 6883,
      "ㅎㅏㄴㅏㄴㅣㅁㅇㅣ</w>": 6884,
      "ㅈㅓㅈㅏㄱㄱㅝㄴㅂㅓㅂㅇㅢ</w>": 6885,
      "ㄴㅏㅁㅇㅢ</w>": 6886,
      "ㅍㅕㄴㅇㅏㄴㅎㅏㄴ</w>": 6887,
      "ㄷㅏㅎ": 6888,
      "ㅅㅣㄱㅇㅡㄴ</w>": 6889,
      "ㅁㅏㄶㄱㅗ</w>": 6890,
      "ㄱㅏㄴㅏㄴ": 6891,
      "ㅇㅏㄴㅇㅣ</w>": 6892,
      "ㅅㅣㄹㅗ</w>": 6893,
      "ㅅㅏㄹㅏㅇㅇㅢ</w>": 6894,
      "ㅁㅜㄴㅅㅓㄹㅡㄹ</w>": 6895,
      "ㅅㅑㅇ": 6896,
      "ㄴㅡㄲㅣㅁㅇㅡㄹ</w>": 6897,
      "ㅈㅏㅇㅠ</w>": 6898,
      "ㄱㅕㅇㅎㅓㅁㅇㅣ</w>": 6899,
      "ㅏㅇㅑ</w>": 6900,
      "ㅈㅓㄴㅎㅘㅂㅓㄴㅎㅗ</w>": 6901,
      "ㄴㅏㅁㅕㄴ</w>": 6902,
      "CS": 6903,
      "ㅇㅗㅀ": 6904,
      "vis": 6905,
      "ㄱㅘㄴㄱㅖㄱㅏ</w>": 6906,
      "ㄲㅡㄹㅇㅓ": 6907,
      "49": 6908,
      "ㄴㅗㄹㅇㅣ</w>": 6909,
      "ㄷㅡㄹㅇㅓㄱㅏ</w>": 6910,
      "ㅇㅗㄱ</w>": 6911,
      "ㅅㅜㅅㅜㄹㅛ": 6912,
      "ㅇㅣㅎㅐㅇ": 6913,
      "ㅇㅣㅂㅇㅡㄹㅗ</w>": 6914,
      "ㅇㅓㅄㄱㅣ</w>": 6915,
      "ㅇㅢㅅㅣㅁ": 6916,
      "ㄱㅓㅈㅜ": 6917,
      "ㄱㅐㅇㅣㄴㅇㅢ</w>": 6918,
      "ㅎㅘㅇㅔ</w>": 6919,
      "ㅅㅣㅇㄱㅏ": 6920,
      "ㅅㅜㅈㅜㄴㅇㅢ</w>": 6921,
      "ㄹㅗㄴㅇㅡㄹ</w>": 6922,
      "ㄱㅗㅅㅇㅡㄹㅗ</w>": 6923,
      "ㅍㅣㅎㅐ</w>": 6924,
      "ㅎㅗㄴㅈㅏ": 6925,
      "ㅂㅔㄹㅡ": 6926,
      "ㅍㅣㄹㅇㅛㅎㅏㅂㄴㅣㄷㅏ</w>": 6927,
      "ㅇㅖㅅㅜ</w>": 6928,
      "ㄷㅏㅇㅅㅏ": 6929,
      "ㄱㅗㅇㅔ</w>": 6930,
      "ㄸㅏㄸㅡㅅ": 6931,
      "ㅍㅐㅌㅓㄴ": 6932,
      "ㅎㅏㄴㅡㄴㄱㅗㅅ</w>": 6933,
      "ㅌㅡㄹㅐㄴ": 6934,
      "ㄱㅛㅊㅔ": 6935,
      "ㅂㅣㅊㅣ</w>": 6936,
      "ㅅㅓㄴㅏ</w>": 6937,
      "ㄱㅡㄹㅐㅍㅡㄱㅔㅇㅣㅁ</w>": 6938,
      "ㅈㅏㄹㅁㅗㅅ</w>": 6939,
      "ㅂㅐㄱㅎㅘ": 6940,
      "ㅊㅏㄹㅖ": 6941,
      "ㅇㅗㄹㅐㄷㅚㄴ</w>": 6942,
      "ㅂㅡㄹㄹㅜ</w>": 6943,
      "We": 6944,
      "ㅇㅣㅆ</w>": 6945,
      "ㅅㅇㅔ</w>": 6946,
      "ㅇㅣㄷㅡㄹㅇㅢ</w>": 6947,
      "000ㅇㅝㄴ</w>": 6948,
      "ㄴㅣㅇㅏ</w>": 6949,
      "ㄱㅓㄹㅣㄹㅡㄹ</w>": 6950,
      "ㅁㅗㅇㅕ</w>": 6951,
      "ㅎㅖㅌㅐㄱㅇㅡㄹ</w>": 6952,
      "IF": 6953,
      "ㄱㅓㅅㄷㅡㄹㅇㅡㄹ</w>": 6954,
      "ㅅㅣㄹㅇㅔ</w>": 6955,
      "ㄱㅗㅇㅎㅏㄱ</w>": 6956,
      "ㅂㅏㅇㅣ</w>": 6957,
      "ㅇㅣㄹㅡㅁㅇㅣ</w>": 6958,
      "tion": 6959,
      "ㅅㅣㄱㅖ</w>": 6960,
      "22ㅇㅣㄹ</w>": 6961,
      "ㅇㅣㅅㅏ": 6962,
      "ㅇㅣㅇㅓㅅㅓ</w>": 6963,
      "ㅂㅣㄹㅗㄱ</w>": 6964,
      "ㄱㅕㅌ": 6965,
      "ㅇㅔㄱㅔㅅㅓ</w>": 6966,
      "ㅈㅜㅇㄷㅗㄱ": 6967,
      "ㄱㅡㄹㅓㄴㅣㄲㅏ</w>": 6968,
      "ㅈㅏㄲㅜ</w>": 6969,
      "ㅇㅓㅄㅇㅓㅇㅛ</w>": 6970,
      "ㅌㅏㄺ</w>": 6971,
      "ㅇㅕㄴㅇㅐ": 6972,
      "ㅁㅜㄴㅈㅔㅈㅓㅁ</w>": 6973,
      "ㅇㅟㄴㄷㅗㅇㅜ": 6974,
      "ㅋㅓㄴㅌㅔㄴㅊㅡ": 6975,
      "ㄷㅏㄴㅣㄴㅡㄴ</w>": 6976,
      "36</w>": 6977,
      "ㄴㅓㅇㅢ</w>": 6978,
      "ㅌㅡㄱㅅㅓㅇ": 6979,
      "ㄱㅕㄹㅈㅓㅇㅇㅡㄹ</w>": 6980,
      "ㅎㅚㄱㅖ": 6981,
      "ㅎㅐㅇㅑㅇ": 6982,
      "ㅇㅣㄴㅈㅗㅇ": 6983,
      "ㄱㅏㅁㅕㄴㅅㅓ</w>": 6984,
      "ㅅㅏㄱㅘ": 6985,
      "ㅎㅐㅇㄷㅗㅇ</w>": 6986,
      "ㅈㅣㄴㅂㅗ": 6987,
      "ON</w>": 6988,
      "ㅊㅐㄱㅇㅣ</w>": 6989,
      "ㅁㅗㄴ</w>": 6990,
      "28ㅇㅣㄹ</w>": 6991,
      "ㅇㅘㅆㅅㅡㅂㄴㅣㄷㅏ</w>": 6992,
      "ㅇㅕㅅㅓ</w>": 6993,
      "ㅎㅚㄱㄷㅡㄱ": 6994,
      "ㅈㅗㅊㅣㄹㅡㄹ</w>": 6995,
      "ㅅㅗㄹㅈㅣㄱㅎㅣ</w>": 6996,
      "ㅁㅣㄹㅐㄹㅡㄹ</w>": 6997,
      "EN": 6998,
      "ㄴㅐㅈㅣ</w>": 6999,
      "ㅇㅓㅆㅈㅣㅁㅏㄴ</w>": 7000,
      "ㅍㅏㅂ": 7001,
      "ㄷㅗㄷ": 7002,
      "ㅅㅣㅈㅏㅇㅇㅔ</w>": 7003,
      "ㅎㅜㅇㅔㄴㅡㄴ</w>": 7004,
      "ㄱㅏㅇㅑ": 7005,
      "ㄷㅏㅇㅅㅣㄴ</w>": 7006,
      "BC</w>": 7007,
      "pr": 7008,
      "ome</w>": 7009,
      "ㅈㅣㄱㅎㅏㄴ</w>": 7010,
      "ㅇㅕㄴㄱㅣ": 7011,
      "ㅂㅏㄱㅇㅡㄹ</w>": 7012,
      ")-</w>": 7013,
      "):</w>": 7014,
      "ㄷㅏㅅㅋㅓㅁ</w>": 7015,
      "ㅎㅘㅇㅘ</w>": 7016,
      "Di": 7017,
      "ㄷㅓㅁ": 7018,
      "ㄱㅕㅇㅈㅔㅈㅓㄱ</w>": 7019,
      "ㅇㅝㄴㄱㅘ</w>": 7020,
      "ㄹㅣㅊㅣ": 7021,
      "ㅇㅣㅅㅡㅇ": 7022,
      "ㄸㅓㄱ": 7023,
      "ㅅㅏㅇㅛㅇㅎㅏㅈㅣ</w>": 7024,
      "ㅊㅜㄱㅜ": 7025,
      "ㅍㅗㅅㅡㅌㅡ": 7026,
      "ㄴㅡㄹㅇㅓ": 7027,
      "ㄷㅗㄱㅌㅡㄱㅎㅏㄴ</w>": 7028,
      "21ㅇㅣㄹ</w>": 7029,
      "ㄴㅕㄴㅇㅢ</w>": 7030,
      "ㄱㅟ</w>": 7031,
      "ㅅㅡㅋㅗㅇㅓ</w>": 7032,
      "ㄴㅐㄹㅕㅇ": 7033,
      "ㅈㅔㅇㅓ</w>": 7034,
      "mil": 7035,
      "ㄷㅏㄴㅣ</w>": 7036,
      "ㅅㅟㅂㄱㅗ</w>": 7037,
      "ight</w>": 7038,
      "ㅎㅏㄷㅡ": 7039,
      "ㅇㅠㅇㅣㄹㅎㅏㄴ</w>": 7040,
      "ㅇㅣㅌㅏㄹㄹㅣㅇㅏ</w>": 7041,
      "ㅇㅣㅆㅇㅡㄴㅏ</w>": 7042,
      "MP": 7043,
      "ㅈㅜㅇㅇㅣㄷㅏ</w>": 7044,
      "ㄴㅣㄱㅏ</w>": 7045,
      "ㅋㅗㄷㅡㄹㅡㄹ</w>": 7046,
      "yrics</w>": 7047,
      "WiFi</w>": 7048,
      "ㄱㅏㅂㅏㅇ</w>": 7049,
      "ㄱㅗㅇㅌㅗㅇ": 7050,
      "ㅎㅏㅅㅣㄱㅔㅆㅅㅡㅂㄴㅣㄲㅏ</w>": 7051,
      "ㄸㅡㄹㅣ": 7052,
      "ㅁㅗㅇㅣㅁ": 7053,
      "ㅂㅠ</w>": 7054,
      "ㄴㅗㄹㅐ</w>": 7055,
      "ㅇㅜㅇㅜㄹ": 7056,
      "ㄱㅝㄴㅇㅣ</w>": 7057,
      "ㅅㅣㄴㄱㅏㅇㅛ</w>": 7058,
      "ㄷㅏㅇㅅㅣㄴㅇㅡㄹ</w>": 7059,
      "ㅇㅣㅆㄴㅡㄴㄱㅏ</w>": 7060,
      "ㅁㅐㅊㅜㄹ": 7061,
      "ㄱㅐㅇㅣㄴㅈㅓㅇㅂㅗㅇㅢ</w>": 7062,
      "ㄱㅡㄴㅂㅗㄴ": 7063,
      "ㅁㅏㅇㅣㅋㅡㄹㅗ": 7064,
      "ㅓㅎ": 7065,
      "ㄴㅏㄹㅇㅔ</w>": 7066,
      "ㅅㅡㅍㅔㅇㅣㄴ</w>": 7067,
      "ㄱㅏㅇㅇㅜㄹ": 7068,
      "ㅈㅜㅁㅕㄴ</w>": 7069,
      "ㅈㅗㅇㅈㅗㅇ</w>": 7070,
      "ㄱㅓㅅㅂㅗㄷㅏ</w>": 7071,
      "2014</w>": 7072,
      "ㄱㅓㄴㄱㅏㅇㅎㅏㄴ</w>": 7073,
      "ㅇㅝㄷㅡ</w>": 7074,
      "ㅅㅓㅇㅈㅓㄱ</w>": 7075,
      "ㅂㅗㄱㅎㅏㅂ": 7076,
      "ㅇㅠㅇㅛㅇㅎㅏㄴ</w>": 7077,
      "ㅇㅏㄴㅇㅡㄹㅗ</w>": 7078,
      "Lyrics</w>": 7079,
      "ㅅㅏㅅㅣㄹㅅㅏㅇ</w>": 7080,
      "ㅅㅏㅇㅎㅗ</w>": 7081,
      "ㅑㄴㅡㄴ</w>": 7082,
      "ㅈㅣㄴㅇㅡㄴ</w>": 7083,
      "ㅎㅡㄴㅎㅣ</w>": 7084,
      "ㅂㅗㄲ": 7085,
      "ame</w>": 7086,
      "ㅂㅜㄷㅗㅇㅅㅏㄴ": 7087,
      "ㅎㅠㄷㅐㅍㅗㄴ</w>": 7088,
      "ㅅㅓㄴㅅㅜㄱㅏ</w>": 7089,
      "ㅗㄱㅣ</w>": 7090,
      "ㄴㅐㄹㅣㄴ</w>": 7091,
      "ㅅㅓㅇㅘ</w>": 7092,
      "ㅇㅏㅁㅔㄹㅣ": 7093,
      "ㅅㅣㄴㅐ": 7094,
      "ㅎㅏㅇㅁㅜㄴㅇㅢ</w>": 7095,
      "ㄱㅗㅇㄱㅏㄴㅇㅡㄹ</w>": 7096,
      "ㅇㅗㄹㅐㅅ": 7097,
      "ㅊㅐㄱㅇㅣㅁ</w>": 7098,
      "Kore": 7099,
      "ㄱㅓㅅㅣㄱㅣ</w>": 7100,
      "ㅎㅏㄷㅡㅇㅞ": 7101,
      "ㅋㅡㄱㅣ</w>": 7102,
      "RA": 7103,
      "ㄲㅡㄹㅓ": 7104,
      "ㅇㅟㅊㅣㄹㅡㄹ</w>": 7105,
      "ㄴㅏㄹㅏㅇㅢ</w>": 7106,
      "ㅎㅡㄴㄷㅡㄹ": 7107,
      "ㅋㅗㄹ</w>": 7108,
      "ㄷㅓㄹ</w>": 7109,
      "lis": 7110,
      "ㄱㅏㄱㅜ</w>": 7111,
      "ㄱㅛㄹㅠ": 7112,
      "ㅊㅔㄴㅡㄴ</w>": 7113,
      "ㅍㅗㅌㅗ": 7114,
      "ㅂㅜㅁㅗ</w>": 7115,
      "2008ㄴㅕㄴ</w>": 7116,
      "ㅈㅗㅇㅔ</w>": 7117,
      "CD": 7118,
      "ㅊㅚㅊㅗㄹㅗ</w>": 7119,
      "ㄱㅓㄹㅊㅕ</w>": 7120,
      "2013</w>": 7121,
      "ㅇㅏㄶㄱㅣ</w>": 7122,
      "ㄱㅓㅅㅇㅣㄹㅏ</w>": 7123,
      "ㅅㅣㅈㅏㅇㅇㅔㅅㅓ</w>": 7124,
      "ㅅㅡㄹ</w>": 7125,
      "ㅈㅔㅇㅓ": 7126,
      "ㄷㅏㅇㅡㅁㅇㅢ</w>": 7127,
      "ㅅㅣㅋㅣㄴ</w>": 7128,
      "ㄸㅓㄹㅇㅓㅈㅣㄴ</w>": 7129,
      "ㅁㅏㅋㅡ</w>": 7130,
      "ㅅㅜㅎㅏㄴ</w>": 7131,
      "ㅅㅣㄱㅇㅔ</w>": 7132,
      "ㅁㅔㄹ": 7133,
      "ㅂㅕㄴㄷㅗㅇ": 7134,
      "ㅇㅣㅌㅏㄹㄹㅣ": 7135,
      "ence</w>": 7136,
      "ㅁㅐㅇ</w>": 7137,
      "ㅍㅡㄹㅣㅁㅣㅇㅓㅁ</w>": 7138,
      "ㅇㅐㄹㅂㅓㅁ</w>": 7139,
      "ㅂㅔㅌㅡㄴㅏㅁ</w>": 7140,
      "ㅊㅔㅋㅡ</w>": 7141,
      "ㅈㅣㅂㅎㅐㅇ": 7142,
      "ㅇㅏㅇㅣㅌㅔㅁ</w>": 7143,
      "ㅍㅏㄹㅏ": 7144,
      "ㄱㅘㄴㅊㅏㄹ": 7145,
      "ㅍㅏㅇㅣㄴ": 7146,
      "No</w>": 7147,
      "ㄴㅏㄱㅏㄹ</w>": 7148,
      "ㅊㅏㄴㅡㄴ</w>": 7149,
      "ㄹㅔㅍㅗㅌㅡ": 7150,
      "ㅇㅓㅁㅊㅓㅇ</w>": 7151,
      "30ㅂㅜㄴ</w>": 7152,
      "ㄴㅓㅎㄱㅗ</w>": 7153,
      "ㅅㅡㅌㅓㄴ</w>": 7154,
      "ㅍㅡㄹㄹㅐㅅㅍㅗㅁ</w>": 7155,
      "10ㅍㅔㅇㅣㅈㅣ</w>": 7156,
      "ㅊㅟㄷㅡㄱ": 7157,
      "ㄱㅕㅇㅊㅏㄹ</w>": 7158,
      "ㅂㅏㅇㅇㅣ</w>": 7159,
      "ㅊㅏㄷㅏㄴ": 7160,
      "kg</w>": 7161,
      "ㅎㅐㅅㅏㅇ": 7162,
      "ㅈㅜㄷㅗ": 7163,
      "ㄴㅑ</w>": 7164,
      "ㅇㅣㅇㅛㅇㅎㅏㄴㅡㄴ</w>": 7165,
      "ㅂㅓㅁㅇㅟ</w>": 7166,
      "ㅅㅓㄹㅁㅕㅇㅎㅐㅆㄷㅏ</w>": 7167,
      "ㅅㅏㅁㅜㅅㅣㄹ</w>": 7168,
      "ㅋㅣㄹㄹㅗㅁㅣㅌㅓ</w>": 7169,
      "dis": 7170,
      "SA": 7171,
      "ㅂㅡㄹㅏㅇㅜㅈㅓ": 7172,
      "ㅇㅏㅍㄷㅜㄱㅗ</w>": 7173,
      "ㅂㅏㄹㅏㅁㅇㅣ</w>": 7174,
      "ㄱㅗㅁㅏㅂㅅㅡㅂㄴㅣㄷㅏ</w>": 7175,
      "ㅎㅏㅇㅑ": 7176,
      "ㅇㅣㅎㅐㄱㅏ</w>": 7177,
      "ㅋㅔㅇㅣㅂㅡㄹ": 7178,
      "ㅎㅏㄴㅡㄴㄱㅔ</w>": 7179,
      "ㄷㅐㅌㅗㅇㄹㅕㅇㅇㅢ</w>": 7180,
      "ㅎㅕㄴㅈㅐㅇㅢ</w>": 7181,
      "ㅇㅓㄹㅡㄴ": 7182,
      "ㅎㅏㄴㄱㅜㄱㅇㅔㅅㅓ</w>": 7183,
      "ㅅㅏㅇㅈㅣㅇ": 7184,
      "ㅌㅚ</w>": 7185,
      "ㄱㅏㅅㅡㅁ": 7186,
      "ㄹㅣㅈㅗㅌㅡ</w>": 7187,
      "ㅇㅣㅍ": 7188,
      "ㄷㅐㅇㅘ</w>": 7189,
      "ㅇㅣㄹㅊㅣ": 7190,
      "ㅂㅣㅇㅏ</w>": 7191,
      "ㅅㅔㄱㅡㅁ": 7192,
      "ㄱㅓㄴㅈㅣ</w>": 7193,
      "ㅊㅜㅇㅂㅜㄴㅎㅏㄴ</w>": 7194,
      "ㅋㅓㄴㅌㅡㄹㅗㄹ": 7195,
      "Bl": 7196,
      "ㄱㅏㅈㅓㅇ</w>": 7197,
      "ㅅㅏㅈㅓㄴㅇㅔ</w>": 7198,
      "ㄱㅣㅂㅏㄴㅇㅡㄹㅗ</w>": 7199,
      "SP": 7200,
      "ㅇㅕㅆㄷㅓㄴ</w>": 7201,
      "ㅇㅜㅇㅕㄴ": 7202,
      "ick</w>": 7203,
      "ㅎㅏㄱㅅㅐㅇㄷㅡㄹㅇㅣ</w>": 7204,
      "ㅇㅏㄹㄹㅕㅈㅕ</w>": 7205,
      "ㅅㅓㅇㅑㅇ": 7206,
      "ㅅㅣㄱㄷㅏㅇ</w>": 7207,
      "ㄷㅡㄴㄷㅏ</w>": 7208,
      "ㅁㅏㄶㅇㅏ": 7209,
      "ㅇㅣㄴㅅㅣㄱ</w>": 7210,
      "KT": 7211,
      "ㄷㅚㅈㅣㅁㅏㄴ</w>": 7212,
      "ㅇㅠㅎㅛ": 7213,
      "ㅂㅡㄹㄹㅗ": 7214,
      "ㅍㅏㄹㅣ</w>": 7215,
      "46": 7216,
      "ㅇㅝㄹㅂㅜㅌㅓ</w>": 7217,
      "ㅈㅓㄴㅌㅜ": 7218,
      "udi": 7219,
      "ㅅㅗㅎㅏㄴ</w>": 7220,
      "ㅋㅡㄹㅣㅅㅡㅁㅏㅅㅡ</w>": 7221,
      "ㅂㅣㅌㅡㅋㅗ": 7222,
      "ㅓㄴㅌㅡ</w>": 7223,
      "ok": 7224,
      "ㄱㅗㄱㅐㄱㅇㅢ</w>": 7225,
      "ㅅㅏㅇㅌㅐㄹㅡㄹ</w>": 7226,
      "ㅂㅣㅇ</w>": 7227,
      "ㄴㅏㄹㅇㅡㄹ</w>": 7228,
      "ㅈㅓㄹㄷㅐ": 7229,
      "ㄱㅡㅁㅇㅠㅇ</w>": 7230,
      "ㅉㅡㅁ": 7231,
      "ㅎㅘㄱㅈㅓㅇ": 7232,
      "ㅌㅏㅇㅣㄴㅇㅢ</w>": 7233,
      "ㅁㅜㅇㅓㅅㅇㅣ</w>": 7234,
      "ㄴㅏㅇㅣㄷㅡㄴㅇㅕㅈㅏ</w>": 7235,
      "ㄱㅣㅅㅏ": 7236,
      "ㄷㅜㄹㅉㅐ</w>": 7237,
      "ㅋㅡㄹㄹㅏㅇㅣㅇㅓㄴ": 7238,
      "ㅇㅓㅉㅓㅁㅕㄴ</w>": 7239,
      "ㅍㅜㅇㅅㅗㄱ": 7240,
      "ㅅㅏㄴㅇㅓㅂㅇㅢ</w>": 7241,
      "ㅂㅜㅇㅘ</w>": 7242,
      "ㅇㅣㅁㄷㅐ": 7243,
      "ㅋㅓㅍㅡㄹ</w>": 7244,
      "ㅎㅓ</w>": 7245,
      "ㅎㅘㄴㅇㅕㅇ": 7246,
      "ㅇㅓㄹㅣ": 7247,
      "ㄸㅏㄹㅡ": 7248,
      "ㅌㅏㅂㅈㅐ": 7249,
      "ㅇㅡㅁㅇㅏㄱㅇㅡㄹ</w>": 7250,
      "ㅅㅗㄴㅎㅐ": 7251,
      "ㄴㅔㄱㅏ</w>": 7252,
      "ㄱㅗㅇㅇㅣㄴ": 7253,
      "ㄴㅏㄱㅏㄴㅡㄴ</w>": 7254,
      "ㅇㅕㄹㄹㅣㄴㅡㄴ</w>": 7255,
      "ㅈㅜㄴㅂㅣㄹㅡㄹ</w>": 7256,
      "ㅇㅣㅇㅜㅅ": 7257,
      "ㅋㅡㄹㅜ": 7258,
      "ㄴㅗㅇㅇㅓㅂ": 7259,
      "ㅅㅗㅅㅣㄱㅇㅡㄹ</w>": 7260,
      "ㅅㅏㅇㄱㅘ</w>": 7261,
      "ik": 7262,
      "ㅅㅗㄴㅕㄴ</w>": 7263,
      "ㄱㅜㅇㅔ</w>": 7264,
      "ㅎㅘㄴㅡㄴ</w>": 7265,
      "ㅅㅣㄹㅁㅜ": 7266,
      "ㅈㅏㄷㅗ</w>": 7267,
      "ㅅㅣㅍㅇㅓㅇㅛ</w>": 7268,
      "ㅂㅡㄹㅐㄴㄷㅡㅁㅕㅇ</w>": 7269,
      "SC": 7270,
      "we": 7271,
      "ㅇㅝㄴㅍㅣㅅㅡ</w>": 7272,
      "ㅅㅜㅇ": 7273,
      "ㅊㅏㅇㅢ</w>": 7274,
      "ㅈㅔㄱㅗㅇㅎㅏㄹ</w>": 7275,
      "ㅇㅞㅇㅣ</w>": 7276,
      "ㅂㅏㅇㅎㅑㅇㅇㅡㄹㅗ</w>": 7277,
      "1ㅇㅣㄴ": 7278,
      "ㄱㅣㅂㅜㄴㅇㅣ</w>": 7279,
      "ㅂㅓㄹㅣㄱㅗ</w>": 7280,
      "ㅎㅕㄱㅁㅕㅇ</w>": 7281,
      "ㅎㅠㅇ": 7282,
      "ㅎㅐㅆㅇㅡㄴㅏ</w>": 7283,
      "ㅇㅕㄴㄱㅡㅁ": 7284,
      "ㄱㅏㄱㅕㄱㅇㅡㄴ</w>": 7285,
      "ㅈㅗㅅㅏㄹㅡㄹ</w>": 7286,
      "ㅇㅕㄱㅇㅡㄹ</w>": 7287,
      "port</w>": 7288,
      "ㅈㅐㅈㅓㅇ": 7289,
      "4ㅊㅏ</w>": 7290,
      "ㅇㅣㄴㅅㅙ": 7291,
      "ㅌㅗㄹㅗㄴ</w>": 7292,
      "ㅂㅜㄴㅇㅑㅇㅢ</w>": 7293,
      "ㅇㅣㅊㅓㄹㅓㅁ</w>": 7294,
      "ㅅㅐㅇㄱㅏㄱㅎㅐ": 7295,
      "ㅂㅅㅣㄷㅏ</w>": 7296,
      "ㅇㅏㄴㄷㅚㄴㅡㄴ</w>": 7297,
      "ㄷㅚㄱㅓㄴㅏ</w>": 7298,
      "ㅌㅓㄹㅇㅣ</w>": 7299,
      "ㅇㅡㅇㅇㅝㄴ": 7300,
      "ㅈㅗㅇㄹㅛ</w>": 7301,
      "ㅅㅡㅌㅡㄹㅏㅇㅣ": 7302,
      "ㄷㅟㄹㅗ</w>": 7303,
      "ㅇㅣㄴㄱㅣㄹㅡㄹ</w>": 7304,
      "ㅅㅏㅌㅐ": 7305,
      "ㅇㅐㅇ": 7306,
      "ㅊㅜㅈㅣㄴ</w>": 7307,
      "ㅁㅜㄴㅇㅡㄴ</w>": 7308,
      "ㅌㅔㅅㅡㅌㅡ": 7309,
      "ㅈㅏㄱㄴㅕㄴ</w>": 7310,
      "ㅈㅔㄱㅓ</w>": 7311,
      "ML</w>": 7312,
      "ㄱㅓㅁㅈㅡㅇ": 7313,
      "ㅇㅣㅅㅏㅇㅎㅏㄴ</w>": 7314,
      "ㅂㅗㄴㅇㅣㄴㅇㅣ</w>": 7315,
      "ㅇㅢㄱㅕㄴ</w>": 7316,
      "ㅈㅣㄹㅇㅢ</w>": 7317,
      "ㅌㅗㅇㄱㅖ</w>": 7318,
      "\"(</w>": 7319,
      "ath": 7320,
      "ㅁㅝㄹ</w>": 7321,
      "ㄸㅡㅅㅇㅡㄹ</w>": 7322,
      "ㄴㅏㅌㅏㄴㅏㄴㅡㄴ</w>": 7323,
      "ㅈㅔㅇㅏㄴ</w>": 7324,
      "ㅁㅜㄴㅓ": 7325,
      "les": 7326,
      "ㅇㅟㅇㅝㄴㅈㅏㅇ</w>": 7327,
      "ㅇㅣㄹㅓㅎ": 7328,
      "ㄱㅜㄱㅁㅣㄴㅇㅢ</w>": 7329,
      "ㄷㅓㄹㅏㄱㅗㅇㅛ</w>": 7330,
      "ens": 7331,
      "ㄹㅕㄱㄱㅘ</w>": 7332,
      "ㅅㅓㄴㅌㅐㄱㅎㅏㄴ</w>": 7333,
      "ㅇㅣㅅㅠ</w>": 7334,
      "ㅇㅠㄴㄹㅣ": 7335,
      "ㅇㅕㄹㅓㅂㅜㄴㅇㅢ</w>": 7336,
      "ㅎㅘㄴㅈㅏ</w>": 7337,
      "ㄱㅖㅅㅣ": 7338,
      "ㅋㅡㄹㄹㅓㅂ": 7339,
      "ㅂㅏㄷㄴㅡㄴㄷㅏ</w>": 7340,
      "ㅍㅣㅇㅋㅡ</w>": 7341,
      "ㅇㅖㅈㅓㅇㅇㅣㅂㄴㅣㄷㅏ</w>": 7342,
      "88": 7343,
      "ㅇㅣㅆㅈㅛ</w>": 7344,
      "ㅂㅕㄹㄷㅗㄹㅗ</w>": 7345,
      "ㄱㅡㄴㅊㅓ</w>": 7346,
      "ㄱㅡㄹㅣㄴ": 7347,
      "55</w>": 7348,
      "!)</w>": 7349,
      "ㄹㅠㄹㅇㅣ</w>": 7350,
      "ㅇㅡㅁㅇㅔㄷㅗ</w>": 7351,
      "ㅈㅗㅈㅓㅇ</w>": 7352,
      "ㅍㅣㅎㅐㄹㅡㄹ</w>": 7353,
      "ㄷㅔㅇㅣㅌㅓㅂㅔㅇㅣㅅㅡ</w>": 7354,
      "4ㄱㅐ</w>": 7355,
      "ㅂㅗㅈㅗㄴ": 7356,
      "ㅂㅏㅇㅅㅣㄱㅇㅡㄹ</w>": 7357,
      "ㅇㅚㄱㅛ": 7358,
      "ㄱㅣㅇㅓㅂㅇㅣ</w>": 7359,
      "ㅁㅔㅅㅣㅈㅣ</w>": 7360,
      "ㅅㅣㄹㅂㅣ": 7361,
      "az": 7362,
      "ㄹㅔㄷㅡ</w>": 7363,
      "ㅇㅕㅂㅜㄹㅡㄹ</w>": 7364,
      "ㄷㅓㄹㅓ": 7365,
      "ㅎㅐㅇㄷㅗㅇㅇㅡㄹ</w>": 7366,
      "ㅇㅓㅇㅘ</w>": 7367,
      "ㅅㅓㅇㅑ</w>": 7368,
      "ㅁㅗㅅㅎㅐ</w>": 7369,
      "ㅅㅓㅂㅊㅟ": 7370,
      "ㅅㅡㅇㅇㅡㄹ</w>": 7371,
      "ㅇㅑㅇㅋㅣ": 7372,
      "ㄱㅓㄹㅣㄱㅏ</w>": 7373,
      "ㅈㅡㄹㄱㅣㄴㅡㄴ</w>": 7374,
      "ㄷㅏㅁㅇㅏ</w>": 7375,
      "ㅌㅔㅁ": 7376,
      "ㅈㅐㅇㅘ</w>": 7377,
      "ㅇㅗㄹㄹㅏㅆㄷㅏ</w>": 7378,
      "ㅈㅗㄹㅣ": 7379,
      "ㅍㅕㅇㅂㅓㅁ": 7380,
      "ㄴㅡㄲㅣㅁ</w>": 7381,
      "ker</w>": 7382,
      "ㅇㅏㅁㅜㄹㅐㄷㅗ</w>": 7383,
      "ㅇㅗㄹㄹㅏ</w>": 7384,
      "ㅁㅡㄹㅗ</w>": 7385,
      "ㄷㅡㅇㅇㅔㅅㅓ</w>": 7386,
      "ㅂㅐㅌㅓㄹㅣ</w>": 7387,
      "ㅁㅏㄴㅇㅡㄴ</w>": 7388,
      "ㅇㅣㅆㄴㅔㅇㅛ</w>": 7389,
      "ang</w>": 7390,
      "ㅇㅡㄹㄸㅐ</w>": 7391,
      "ㅇㅓㄹㅕㅇㅝ": 7392,
      "ㅂㅗㄴㅇㅣㄴㅇㅢ</w>": 7393,
      "ㅈㅓㄴㅇㅔㄴㅡㄴ</w>": 7394,
      "ㄱㅕㅂ": 7395,
      "ㅁㅏㄴㄴㅏㄴㅡㄴ</w>": 7396,
      "ㅅㅏㅈㅏㅇ": 7397,
      "ㄲㅜㅁㄲㅜ": 7398,
      "ㅇㅣㅂㅎㅏㄱ": 7399,
      "ㅈㅕㄴ": 7400,
      "ㄴㅏㅇㅗㄱㅗ</w>": 7401,
      "ㅁㅣㄴㄱㅏㄴ": 7402,
      "ㅅㅗㅅㅕㄹㄱㅡㄹㅐㅍㅡㄱㅔㅇㅣㅁ</w>": 7403,
      "ㅁㅔㅇㅣㄴ": 7404,
      "ㄷㅡㅇㄱㅡㅂ</w>": 7405,
      "ㅁㅜㅅㅓㄴ": 7406,
      "ㅈㅓㅇㅇㅝㄴ</w>": 7407,
      "ㄱㅜㄷㅗㄱ": 7408,
      "ㅅㅔㄱㅖㅇㅔㅅㅓ</w>": 7409,
      "ㄱㅏㅂㅕㅇ": 7410,
      "ㅂㅡㄹㅗ": 7411,
      "ㅁㅏㄴㄷㅡㄹㅇㅓㅈㅣㄴ</w>": 7412,
      "ㅇㅏㄹㅇㅏㅇㅑ</w>": 7413,
      "ㅂㅗㄴㅐㄴ</w>": 7414,
      "ㅈㅜㅁㅏㄹ</w>": 7415,
      "ㅊㅟㅇㅑㄱ": 7416,
      "ㄴㅡㄲㅣㄴㅡㄴ</w>": 7417,
      "ㅅㅣㅈㅏㅇㅇㅡㄹ</w>": 7418,
      "25ㅇㅣㄹ</w>": 7419,
      "ㄱㅔㅇㅛ</w>": 7420,
      "ㅈㅣㄹㅁㅜㄴㅇㅡㄹ</w>": 7421,
      "39</w>": 7422,
      "ㅅㅓㅇㄹㅕㅇ": 7423,
      "ㅈㅏㅇㅠㄹㅗㅂㄱㅔ</w>": 7424,
      "ㅅㅜㅎㅏㄱ": 7425,
      "ㅊㅟ</w>": 7426,
      "ㅁㅜㄴㅈㅔㄹㅗ</w>": 7427,
      "ㅇㅢㅇㅢ</w>": 7428,
      "ㅎㅏㄹㄲㅏㅇㅛ</w>": 7429,
      "ust": 7430,
      "ㄱㅏㄴㅡㅇㅎㅏㅁㅕ</w>": 7431,
      "ㅈㅓㅇㄷㅗㄴㅡㄴ</w>": 7432,
      "ㅎㅐㅂㅗㅅㅔㅇㅛ</w>": 7433,
      "ㅅㅔㄹㅍㅡ</w>": 7434,
      "ㅔㄱ": 7435,
      "ㄱㅐㅇㅛ</w>": 7436,
      "ㅂㅗㄱㅇㅡㅁ": 7437,
      "ㅅㅣㅁㄱㅏㄱㅎㅏㄴ</w>": 7438,
      "45</w>": 7439,
      "ㅅㅣㄱㅖ": 7440,
      "2012</w>": 7441,
      "ㅊㅓㄹㅎㅏㄱ": 7442,
      "ㅅㅏㅈㅣㄴㅇㅡㄴ</w>": 7443,
      "ㅁㅣㄴㄷㅡㄹㄹㅔ</w>": 7444,
      "DS": 7445,
      "ㅅㅓㅇㅈㅓㄱ": 7446,
      "ㅂㅏㄷㅇㅏㅇㅑ</w>": 7447,
      "ㄱㅗㅇㄱㅡㅂ</w>": 7448,
      "sc": 7449,
      "ㅇㅓㅄㄱㅔ</w>": 7450,
      "ㅎㅗㅈㅜ</w>": 7451,
      "38</w>": 7452,
      "ㅅㅏㅇㅛㅇㅎㅏㄴ</w>": 7453,
      "ㅊㅓㅇㅈㅜㅅㅣ</w>": 7454,
      "ㅊㅗㄱㅣ": 7455,
      "ㅇㅓㅄㅇㅡㅁㅕㄴ</w>": 7456,
      "27ㅇㅣㄹ</w>": 7457,
      "ㅈㅗㅎㅇㅏㅆㅅㅡㅂㄴㅣㄷㅏ</w>": 7458,
      "ㅂㅗㄴㅇㅣㄴ</w>": 7459,
      "ㅂㅜㄴㄹㅠ</w>": 7460,
      "ㅇㅗㄹㅂㅏㄹㅡㄴ</w>": 7461,
      "ㅇㅣㄴㅣ": 7462,
      "ㅊㅗㅇㅔ</w>": 7463,
      "ㄱㅖㅈㅘ": 7464,
      "ㅇㅗㅌㅗ": 7465,
      "ㅇㅗㄹㅡㄹ</w>": 7466,
      "ㄱㅠㅈㅓㅇ</w>": 7467,
      "ㅍㅗㅈㅏㅇ": 7468,
      "ㅍㅔㅇㅣㅅㅡ</w>": 7469,
      "ㅂㅐㄱㅂㅜㄴ": 7470,
      "ㄴㅐㅇㅛㅇㄱㅘ</w>": 7471,
      "ㅇㅣㅂㅇㅔ</w>": 7472,
      "ㅂㅡㄹㅜㄴ": 7473,
      "ㅁㅐㄱ</w>": 7474,
      "ㄱㅐㅂㅕㄹ": 7475,
      "ㅇㅖㅅㅏㅇ</w>": 7476,
      "ㅅㅜㅅㅏ": 7477,
      "ㄲㅜㄴ": 7478,
      "ㅍㅕㅇㄱㅏㄹㅡㄹ</w>": 7479,
      "ㅅㅓㄹㅠ</w>": 7480,
      "ㅂㅗㄴㅐㄴㅡㄴ</w>": 7481,
      "ㅈㅓㅁㅇㅢ</w>": 7482,
      "ㅂㅗㅇㅕㅈㅜㅂㄴㅣㄷㅏ</w>": 7483,
      "FC</w>": 7484,
      "ㄱㅡㄹㅡ": 7485,
      "ㄷㅗㅅㅣㅁ": 7486,
      "ㅇㅏㄹㅇㅏㅂㅗ": 7487,
      "ㅁㅗㅇㅣㅁ</w>": 7488,
      "ㄱㅘㄴㄹㅣㄹㅡㄹ</w>": 7489,
      "ance</w>": 7490,
      "ㅈㅓㄹㅓ": 7491,
      "ㅁㅜㄹㅕ</w>": 7492,
      "SQL</w>": 7493,
      "ㄴㅡㄴㅑ</w>": 7494,
      "ㅇㅏㅅㅣㅇㅏ": 7495,
      "ㅎㅏㅁㄲㅔㅎㅏㄴㅡㄴ</w>": 7496,
      "po": 7497,
      "ㄷㅐㅊㅓ": 7498,
      "ㅅㅡㅂㄴㅣㄷㅏㅁㅏㄴ</w>": 7499,
      "ㅎㅚㅅㅏㅇㅔ</w>": 7500,
      "ㅈㅐㅁㅣㅇㅣㅆㄴㅡㄴ</w>": 7501,
      "ㅍㅐㄹㅓ": 7502,
      "ㅂㅓㅂㅇㅣㄴ": 7503,
      "ㄷㅓㅂㅡㄹ": 7504,
      "1ㅍㅔㅇㅣㅈㅣ</w>": 7505,
      "loc": 7506,
      "ㅁㅏㄶㅇㅏ</w>": 7507,
      "ㅍㅜㄹㅇㅓ": 7508,
      "ㅘㅆㅅㅡㅂㄴㅣㄷㅏ</w>": 7509,
      "ㅇㅕㅅㅓㅇㅇㅢ</w>": 7510,
      "2009ㄴㅕㄴ</w>": 7511,
      "ㅅㅇㅢ</w>": 7512,
      "ㄱㅐㅂㅕㄹ</w>": 7513,
      "BM": 7514,
      "ㄱㅏㅂㅕ": 7515,
      "12ㅇㅝㄹ": 7516,
      "ㅇㅓㅆㅇㅡㄹ</w>": 7517,
      "ㅊㅜㄱㅏㄹㅗ</w>": 7518,
      "ㅇㅒㄱㅣㄹㅡㄹ</w>": 7519,
      "ㅅㅣㅅㅗㄱ</w>": 7520,
      "st</w>": 7521,
      "ㄷㅓㅂㅡㄹ</w>": 7522,
      "ㅍㅕㅇㅅㅐㅇ": 7523,
      "ㅇㅏㄹㄹㅕㅈㅣㄴ</w>": 7524,
      "ㅂㅗㅇㅕㅈㅜㄴㅡㄴ</w>": 7525,
      "ㅃㅡㄴ": 7526,
      "ㅇㅣㄹㅡㅁㅇㅡㄴ</w>": 7527,
      "ㄷㅏㅅㅓㅅ</w>": 7528,
      "ㅇㅚㅂㅜ": 7529,
      "ㅊㅓㅅㅉㅐ</w>": 7530,
      "ㅈㅏㅇㅎㅏㄱ": 7531,
      "ㅋㅡㄹㅣㅁ</w>": 7532,
      "ㄷㅗㄱㅜ</w>": 7533,
      "ㅅㅏㅇㅛㅇㅇㅔ</w>": 7534,
      "ㄱㅠㅊㅣㄱ": 7535,
      "ㅇㅏㄴㅇㅡㄴ</w>": 7536,
      "ㅇㅕㄴㅈㅜ": 7537,
      "ㅎㅐㅈㅣㄱㅗ</w>": 7538,
      "65": 7539,
      "ㅅㅡㅌㅗㄹㅣ": 7540,
      "ㄷㅗㅇㄱㅣ": 7541,
      "ㅂㅣㅈㅡㄴㅣ": 7542,
      "48</w>": 7543,
      "ㄴㅏㄴㅜㅁ": 7544,
      "ㅂㅜㄴㅇㅟㄱㅣ</w>": 7545,
      "ㅂㅣㄹㄹㅣ": 7546,
      "ㅂㅏㄹㅅㅗㅇ</w>": 7547,
      "ㄷㅗㅇㄱㅣ</w>": 7548,
      "ㄱㅏㅁㅅㅏㅇㅁㅜㄴ</w>": 7549,
      "ㅅㅗㄴㄴㅣㅁ": 7550,
      "ㅁㅕㄴㅇㅢ</w>": 7551,
      "ㅇㅡㅁㅅㅣㄱㅈㅓㅁ</w>": 7552,
      "ㅎㅏㄴㄱㅜㄱㅇㅔ</w>": 7553,
      "ㄱㅡㅁㅂㅏㄹㅇㅢ</w>": 7554,
      "ㄹㅕㄱㅇㅢ</w>": 7555,
      "ㄸㅐㅇㅢ</w>": 7556,
      "ㅇㅛㅅㅗ": 7557,
      "ㄹㅗㄷㅡ": 7558,
      "porn</w>": 7559,
      "ㅇㅠㅇㅢ</w>": 7560,
      "ㅍㅔㅇㅣㅈㅣㅂㅜㅌㅓㄴㅡㄴ</w>": 7561,
      "ㅈㅓㄹㅊㅏ</w>": 7562,
      "NA": 7563,
      "ㅅㅓㄴㅂㅏㄹ</w>": 7564,
      "ㅂㅗㄴㅐㄱㅣ</w>": 7565,
      "ㅇㅏㄹㅣ</w>": 7566,
      "ㄹㅇㅡㄹ</w>": 7567,
      "ㄱㅣㅁㅅㅓㅇ": 7568,
      "ㅎㅏㄴㅏㄴㅣㅁㅇㅡㄹ</w>": 7569,
      "ㅋㅡㄹㅔ": 7570,
      "ㅈㅜㄱㅇㅡㄴ</w>": 7571,
      "ㅂㅗㄹㅡㄹ</w>": 7572,
      "ㄸㅗㅇ": 7573,
      "ㅅㅡㅍㅏ": 7574,
      "ㄴㅠㅇㅛㄱ</w>": 7575,
      "ㅎㅐㅈㅜㅅㅕㅅㅓ</w>": 7576,
      "ㄱㅏㅈㅣㄹ</w>": 7577,
      "ㅇㅡ</w>": 7578,
      "ㄱㅠㄴ</w>": 7579,
      "ㅅㅓㄱㅇㅣ</w>": 7580,
      "ㅍㅗㅈㅏㅇ</w>": 7581,
      "ㅅㅓㄹㅈㅓㅇㅇㅡㄹ</w>": 7582,
      "And": 7583,
      "ㅅㅣㄹㄹㅣ": 7584,
      "ㄱㅣㄹㅇㅣㄴㅡㄴ</w>": 7585,
      "ㅊㅚㄱㅡㄴㅇㅔ</w>": 7586,
      "ㅈㅣㅂㅇㅡㄹㅗ</w>": 7587,
      "ㅇㅣㄹㅡㅁㅇㅡㄹㅗ</w>": 7588,
      "ㄴㅣㄱ": 7589,
      "ㅁㅏㅅㅔㅇㅛ</w>": 7590,
      "ㄱㅏㄱㅇㅡㄹ</w>": 7591,
      "ㄹㅗㄱㅏ</w>": 7592,
      "ㄷㅐㅍㅛㄴㅡㄴ</w>": 7593,
      "Pr": 7594,
      "ㄱㅡㄱㅓㅅㄷㅗ</w>": 7595,
      "ㅇㅙㄴㅑㅎㅏㅁㅕㄴ</w>": 7596,
      "MB</w>": 7597,
      "ㅅㅣㄹㅈㅣㄹ": 7598,
      "ㅅㅡㅇㅟㅌㅡ</w>": 7599,
      "ㅎㅘㄴㅂㅜㄹ": 7600,
      "ㅂㅏㅇㅁㅕㅇ": 7601,
      "ㅇㅣㄹㅣ": 7602,
      "ㅈㅣㄴㄷㅏㄴ</w>": 7603,
      "ication</w>": 7604,
      "ㄸㅓㄹ": 7605,
      "anc": 7606,
      "ㅈㅏㄱㅣㅅㅗㄱㅐㅅㅓ</w>": 7607,
      "99": 7608,
      "DVD</w>": 7609,
      "ㅁㅏㄴㅎㅘ</w>": 7610,
      "000</w>": 7611,
      "ㄷㅗㅇㅅㅐㅇ": 7612,
      "ㅈㅐㅁㅣㅆ": 7613,
      "ㄱㅕㅁ</w>": 7614,
      "ㄱㅏㅁㅈㅓㅇ": 7615,
      "ㄱㅘㅇㅈㅜ</w>": 7616,
      "ie</w>": 7617,
      "ㅁㅓㄹㅣㄹㅡㄹ</w>": 7618,
      "ㅅㅓㅇㅝㄴ": 7619,
      "ㄹㅔㅂㅔㄹ": 7620,
      "ㅈㅜㅅㅗㄹㅡㄹ</w>": 7621,
      "ㅂㅣㅇㅠㄹ": 7622,
      "ㅅㅓㅇㄷㅗ</w>": 7623,
      "ㄷㅐㅎㅘㄹㅡㄹ</w>": 7624,
      "ㅈㅗㅎㄱㅔㅆ": 7625,
      "ㅇㅔㄷㅣ": 7626,
      "ㅇㅕㅇㅎㅗㄴ": 7627,
      "ㅎㅢㅅㅐㅇ": 7628,
      "ㄱㅓㄴㅁㅜㄹ": 7629,
      "ㅅㅣㄹㅈㅓㅁ</w>": 7630,
      "ㅎㅐㅂㅕㄴ": 7631,
      "ㄷㅚㄱㅣㄷㅗ</w>": 7632,
      "ㅎㅏㅁㄱㅘ</w>": 7633,
      "ㄷㅏㅇㅣㅇㅓㅌㅡ</w>": 7634,
      "ㅂㅜㅎㅘㄹ": 7635,
      "ㅈㅔㄹ</w>": 7636,
      "ㅎㅚㅇㅝㄴㅇㅡㄴ</w>": 7637,
      "24ㅇㅣㄹ</w>": 7638,
      "ㅅㅐㅇㅈㅗㄴ": 7639,
      "26ㅇㅣㄹ</w>": 7640,
      "ㅍㅔㅇㅣㅈㅣㅇㅔ</w>": 7641,
      "ㅊㅗㄷㅐ": 7642,
      "ㅋㅗㄴㅌㅔㄴㅊㅡㄹㅡㄹ</w>": 7643,
      "ㄴㅡㅇㄹㅕㄱㅇㅣ</w>": 7644,
      "ㄲㅐㄷㅏㄹ": 7645,
      "ㅅㅏㅇㅎㅗ": 7646,
      "ㅇㅛㄱㅜ</w>": 7647,
      "ㅅㅔㄱㅖㄹㅡㄹ</w>": 7648,
      "ystem</w>": 7649,
      "ㅎㅕㄴㄱㅡㅁ": 7650,
      "ㅋㅏㄴ</w>": 7651,
      "ㄴㅏㄹㅆㅣ": 7652,
      "ㄴㅡㄹㅇㅓㄴㅏ": 7653,
      "ents</w>": 7654,
      "ㅅㅏㅇㅛㅇㄷㅚㄴㅡㄴ</w>": 7655,
      "ㅂㅗㄱㅅㅏ": 7656,
      "ㅎㅏㅇㅇㅔ</w>": 7657,
      "ㄲㅡㄶㅇㅣㅁ": 7658,
      "ㅈㅓㅇㅁㅏㄹㄹㅗ</w>": 7659,
      "ㄹㅣㅇㅓㄹ": 7660,
      "ㅁㅏㅅㅇㅡㄹ</w>": 7661,
      "ㄲㅐㄷㅏㄷ": 7662,
      "DI": 7663,
      "ㄹㅗㄷㅗ</w>": 7664,
      "ㅎㅗㅌㅔㄹㅇㅔㄴㅡㄴ</w>": 7665,
      "ㅇㅓㄷㅣ</w>": 7666,
      "ㅊㅡㄱㅇㅡㄴ</w>": 7667,
      "ㅂㅣㄴㅏㄴ": 7668,
      "ㅈㅗㅇㅁㅗㄱ": 7669,
      "60</w>": 7670,
      "ㅇㅏㅇㅣㄹㅡㄹ</w>": 7671,
      "ㅇㅓㅂㄱㅖ</w>": 7672,
      "ㅌㅣㅋㅔㅅ</w>": 7673,
      "ㅂㅗㄱㄱㅟ": 7674,
      "ㅇㅣㄴㄷㅡㄹㅇㅡㄴ</w>": 7675,
      "ㄷㅜㄹㅡㄹ</w>": 7676,
      "ㅁㅏㄹㄹㅏ</w>": 7677,
      "ㅁㅏㅇㅜㄴ": 7678,
      "ㄱㅏㅅㅜ</w>": 7679,
      "ㄱㅏㄱㅔ": 7680,
      "ㄱㅏㅇㅣ": 7681,
      "ㅁㅏㅁㅜㄹㅣ</w>": 7682,
      "ㅈㅏㄱㅍㅜㅁㅇㅡㄹ</w>": 7683,
      "ㅈㅏㄱㅕㄱ</w>": 7684,
      "ㄱㅜㄴㅅㅏ": 7685,
      "ㅈㅔㅇㅚㅎㅏㄴ</w>": 7686,
      "ㅌㅏㄴㅡㄴ</w>": 7687,
      "ㅈㅔㅍㅜㅁㅇㅣ</w>": 7688,
      "PO": 7689,
      "LT": 7690,
      "ㄱㅓㄴㅊㅜㄱ</w>": 7691,
      "ㅈㅏㅂㅏ": 7692,
      "ㅎㅡㄹㄹㅓ": 7693,
      "ㅌㅓㄱㅏ</w>": 7694,
      "ㄱㅜㄱㄱㅏㅇ": 7695,
      "ㅈㅓㄴㄲㅏㅈㅣ</w>": 7696,
      "ㅈㅏㅈㅓㄴㄱㅓ": 7697,
      "ㄱㅜㅊㅔㅈㅓㄱㅇㅣㄴ</w>": 7698,
      "ㅈㅗㅎㄱㅔ</w>": 7699,
      "ㅅㅡㅍㅏ</w>": 7700,
      "ㅈㅣㅎㅖ": 7701,
      "ㅁㅜㄴㅇㅔ</w>": 7702,
      "ㅌㅗㅇㅈㅔ": 7703,
      "ect": 7704,
      "ㅈㅏㅇㅕㄴㅅㅡㄹㅓㅂㄱㅔ</w>": 7705,
      "Off": 7706,
      "47": 7707,
      "ㅎㅘㄱㄷㅐ</w>": 7708,
      "ㅇㅣㅂㅓㄴㅇㅔㄴㅡㄴ</w>": 7709,
      "ㅈㅣㄹㅎㅘㄴ</w>": 7710,
      "ㅅㅗㅂㅣㅈㅏ": 7711,
      "ㅂㅏㄹㅏㄴㄷㅏ</w>": 7712,
      "ㅈㅗㅁㄷㅓ</w>": 7713,
      "ㅇㅓㄹㅕㅂㄷㅏ</w>": 7714,
      "ㅊㅔㅇㅔ</w>": 7715,
      "ㄱㅕㅇㄹㅕㄱ</w>": 7716,
      "ㅊㅚㅊㅗㅇㅢ</w>": 7717,
      "ㅇㅓㄴㅈㅔㄷㅡㄴㅈㅣ</w>": 7718,
      "ㅂㅜㄴㅇㅑㅇㅔㅅㅓ</w>": 7719,
      "ㄲㅣㄹㅣ</w>": 7720,
      "ㅊㅏㅁㄱㅏ</w>": 7721,
      "ㅇㅕㅂ": 7722,
      "ㅌㅣㅂㅣ</w>": 7723,
      "ㅅㅜㅁㅇㅡㄹ</w>": 7724,
      "ㅅㅡㅇㅁㅜ": 7725,
      "ㅂㅜㅈㅏㅇ": 7726,
      "ㄴㅏㅈㅣ</w>": 7727,
      "ㄱㅏㅇㅣㄷㅡ</w>": 7728,
      "ㄱㅗㄷ": 7729,
      "ㅂㅏㄷㅇㅡㄴ": 7730,
      "ㅂㅗㅅㅜ": 7731,
      "ㅈㅐㄹㅛ</w>": 7732,
      "ㅇㅓㄴㄷㅓ": 7733,
      "ㅇㅗㄴㅡㄹㅇㅢ</w>": 7734,
      "ㄷㅐㅅㄱㅡㄹㅇㅡㄴ</w>": 7735,
      "ㅈㅏㄱㅡㅁ": 7736,
      "ㄲㅗㄱ": 7737,
      "ㅍㅗㅈㅣ": 7738,
      "ㅅㅕㅆㅅㅡㅂㄴㅣㄷㅏ</w>": 7739,
      "ㅉㅗㅊ": 7740,
      "ㅅㅣㄴㄱㅣ": 7741,
      "ㅇㅣㅎㅐㅎㅏㄹ</w>": 7742,
      "ㅁㅜㄱㅔ": 7743,
      "ㅂㅡㄹㅔㅇㅣ": 7744,
      "ㅁㅣㄷㅇㅡㅁ": 7745,
      "ㅎㅐㅈㅜㄱㅗ</w>": 7746,
      "SNS": 7747,
      "ㅇㅜㄴㅇㅕㅇㅎㅏㄴㅡㄴ</w>": 7748,
      "BA": 7749,
      "ㄱㅓㅁㅅㅏ": 7750,
      "ㅈㅣㄴㅊㅜㄹ</w>": 7751,
      "ㅈㅓㅇㄷㅗㅇ": 7752,
      "ㅎㅏㄴㄱㅡㄹ</w>": 7753,
      "ㄱㅗㅇㅠ": 7754,
      "ign": 7755,
      "om</w>": 7756,
      "ㅇㅏㅌㅣ": 7757,
      "ㄱㅗㄹㅣ</w>": 7758,
      "ㄷㅏㄴㅇㅡㄹㅗ</w>": 7759,
      "ㅇㅣㅆㅅㅡㅂㄴㅣㄲㅏ</w>": 7760,
      "ㅅㅏㅁ</w>": 7761,
      "ㅂㅏㄴㄷㅗ": 7762,
      "ㅊㅡㄱㅈㅓㅇ</w>": 7763,
      "ㅍㅐㄴ</w>": 7764,
      "ㅈㅜㅂㅕㄴㅇㅔ</w>": 7765,
      "ㅈㅣㄴㅇㅢ</w>": 7766,
      "ㅇㅣㅇㅣㄱㅇㅡㄹ</w>": 7767,
      "ㅁㅏㄹㅎㅏㄱㅗ</w>": 7768,
      "ㅈㅔㅇㅚㅎㅏㄱㅗ</w>": 7769,
      "pos": 7770,
      "ㄱㅗㅂ": 7771,
      "ㄷㅗㅇㄹㅛ": 7772,
      "ㅌㅐㅇ": 7773,
      "ㅇㅔㄴㅈㅣㄴㅣ": 7774,
      "ies</w>": 7775,
      "ㄱㅜㄱㅇㅔ</w>": 7776,
      "ㅅㅣㄷㅐㅇㅔ</w>": 7777,
      "ㅂㅏㄲㅇㅢ</w>": 7778,
      "ㄷㅏㅁㅇㅡㄴ</w>": 7779,
      "od</w>": 7780,
      "ㅂㅕㄴㅎㅘㅇㅔ</w>": 7781,
      "ㅍㅣㅇㅏㄴ": 7782,
      "ㄴㅏㄱ</w>": 7783,
      "ㅂㅗㅈㅏㅇ</w>": 7784,
      "ㅍㅏㄴㅡㄴ</w>": 7785,
      "ㅈㅣㅇㅝㄴㅎㅏㄴㅡㄴ</w>": 7786,
      "ㅈㅗㅎㅏㅂ</w>": 7787,
      "ㄱㅓㄷㅡ": 7788,
      "ㄱㅣㅇㅔㅅㅓ</w>": 7789,
      "ㅈㅓㄱㄱㅡㄱㅈㅓㄱㅇㅡㄹㅗ</w>": 7790,
      "ㄷㅗㄹㄹㅕ": 7791,
      "ㅎㅣㄱㅗ</w>": 7792,
      "ㅂㅐㄱㅂㅜㄴㅇㅠㄹ</w>": 7793,
      "ㄱㅜㄱㅕㅇ": 7794,
      "ㅈㅓㄴㅅㅣ</w>": 7795,
      "ㅈㅣㅎㅏㅊㅓㄹ</w>": 7796,
      "ㄱㅏㅈㅣㅇㅢ</w>": 7797,
      "ㄴㅏㄴㄷㅏ</w>": 7798,
      "ㅇㅣㅅㅣ": 7799,
      "5ㄴㅕㄴ": 7800,
      "ta": 7801,
      "ㄹㅏㅇㅜㄴㄷㅡ</w>": 7802,
      "ㅇㅓㅇㅔ</w>": 7803,
      "ㄱㅏㅇㅇㅏ": 7804,
      "ㄱㅘㄴㄱㅐㄱ": 7805,
      "ㅅㅣㅂㄷㅐ</w>": 7806,
      "ㅎㅘㄹㅕㅎㅏㄴ</w>": 7807,
      "ㅇㅣㄺㄴㅡㄴ</w>": 7808,
      "ㄱㅡㄹㅐ</w>": 7809,
      "ㅅㅛㅍㅣㅇㅁㅗㄹ": 7810,
      "ㄹㅏㄴㄷㅡ</w>": 7811,
      "ㅂㅜㄹㄹㅣ": 7812,
      "ㅅㅏㅇㅣㄷㅡ</w>": 7813,
      "ㄴㅣㄱ</w>": 7814,
      "ㅍㅐㄷㅡ</w>": 7815,
      "ㅇㅞㅂㅅㅏㅇㅣㅌㅡ</w>": 7816,
      "ㅇㅣㅇㅛㅇㅈㅏ</w>": 7817,
      "ㅎㅏㅈㅏㅁㅕㄴ</w>": 7818,
      "ㅅㅡㅋㅣ</w>": 7819,
      "ㅇㅕㅇㄱㅘㅇ": 7820,
      "ㅅㅕㄴㅇㅢ</w>": 7821,
      "ㅇㅕㄴㅎㅏㅂ</w>": 7822,
      "ㅂㅗㅇㅠㄱ": 7823,
      "ㅇㅣㄱㅓㅅ": 7824,
      "duc": 7825,
      "195": 7826,
      "Anal": 7827,
      "ㄹㅏㅅㅓ</w>": 7828,
      "ㅈㅏㄹㅣㅇㅔㅅㅓ</w>": 7829,
      "ㅋㅡㄱㅗ</w>": 7830,
      "ㄱㅗㅇㅂㅜ</w>": 7831,
      "ㅎㅖㅌㅐㄱ</w>": 7832,
      "ㅎㅠㄱㅏ</w>": 7833,
      "ㄱㅗㄷㅗㅇㅢ</w>": 7834,
      "ㄱㅜㄱㅂㅏㅇ": 7835,
      "ㅂㅗㅇㅏㅆㅅㅡㅂㄴㅣㄷㅏ</w>": 7836,
      "ㅇㅐㄴㅣㅁㅔㅇㅣㅅㅕㄴ</w>": 7837,
      "ㅈㅓㅇㅊㅔ": 7838,
      "ㄱㅣㅅㅏㄹㅡㄹ</w>": 7839,
      "ㅁㅓㅁㅊㅜ": 7840,
      "ㅎㅕㄴㅎㅘㅇ": 7841,
      "ㅇㅔㄴㅌㅓㅌㅔㅇㅣㄴ": 7842,
      "ㅋㅏㄷㅡㄹㅡㄹ</w>": 7843,
      "ㅇㅟㅇㅝㄴ</w>": 7844,
      "ㅇㅕㄴㅈㅏㅇ": 7845,
      "ㅅㅏㅅㅣㄹㅇㅡㄴ</w>": 7846,
      "ㄷㅏㄷㄱㅣ</w>": 7847,
      "ㅅㅓㅂ</w>": 7848,
      "ㅁㅜㅇㅓㄴ": 7849,
      "ㅇㅓㄷㅣㅅㅓ</w>": 7850,
      "gr": 7851,
      "ㅅㅗㅅㅗㄱ</w>": 7852,
      "ㅇㅔㄴㅓㅈㅣ": 7853,
      "fi": 7854,
      "ㄹㅏㅇㅣㅌㅡ</w>": 7855,
      "ㅇㅏㅇㅣㄷㅡㄹ</w>": 7856,
      "ㅁㅗㄱㅍㅛㄹㅡㄹ</w>": 7857,
      "ㅇㅏㅊㅣㅁㅇㅔ</w>": 7858,
      "23ㅇㅣㄹ</w>": 7859,
      "1ㅂㅜ</w>": 7860,
      "ㅇㅠㄴ</w>": 7861,
      "ㅅㅓㄹㅇㅡㄹ</w>": 7862,
      "ㅇㅗㄹㅡㄴㅉㅗㄱ</w>": 7863,
      "ㅁㅜㄴㅈㅏㅇ": 7864,
      "ㄱㅣㄷㅗㄱㄱㅛ</w>": 7865,
      "ㅇㅣㅆㅇㅓㅆㅈㅣㅁㅏㄴ</w>": 7866,
      "ㄱㅗㅁ": 7867,
      "CH": 7868,
      "ㅂㅜㄹㄱㅏㄴㅡㅇ": 7869,
      "ㅁㅕㅇㄱㅘ</w>": 7870,
      "ㄷㅗㄷㅓㄱ": 7871,
      "ㄷㅔㅇㅣㅌㅓㄴㅡㄴ</w>": 7872,
      "ㅁㅣㅅㅏ": 7873,
      "ㅅㅏㅇㅛㅇㅈㅏㅇㅢ</w>": 7874,
      "ㄱㅣㄱㅏㄴㅇㅔ</w>": 7875,
      "ㅂㅏㄹㄱㅕㄴ</w>": 7876,
      "ㅅㅗㄹㄹㅜㅅㅕㄴ</w>": 7877,
      "ㅌㅡㄱㅂㅕㄹ</w>": 7878,
      "ㄴㅓㅁㅇㅓ</w>": 7879,
      "ㅇㅗㄷㅣ": 7880,
      "ㄷㅣㄹㅔㄱ": 7881,
      "ㅇㅏㄶㅇㅏㅅㅓ</w>": 7882,
      "ㅅㅔㅍㅗ": 7883,
      "ㅎㅏㄹㅁㅓㄴㅣ": 7884,
      "ㄱㅣㄱㅏㄴㅇㅣ</w>": 7885,
      "ㅎㅢㄴ": 7886,
      "ㅂㅜㄹㄱㅛ": 7887,
      "ㅊㅓㅇㅇㅘㄷㅐ</w>": 7888,
      "ㄱㅘㄴㄹㅏㅁ": 7889,
      "ㅇㅣㅂㄱㅡㅁ": 7890,
      "ㅅㅗㅂㅣㅈㅏ</w>": 7891,
      "ㅇㅝㄴㅊㅣㄱ</w>": 7892,
      "ㄷㅐㄱㅕㄹ": 7893,
      "Lo": 7894,
      "ㅎㅑㅇㅇㅡㄹ</w>": 7895,
      "vide": 7896,
      "ㅁㅗㄷㅡ</w>": 7897,
      "ㅁㅜㄱㅓ": 7898,
      "ㅊㅜㅇㅈㅗㄱ": 7899,
      "Hotel</w>": 7900,
      "ㅎㅚㅇㅝㄴㄱㅏㅇㅣㅂ</w>": 7901,
      "ㄱㅏㅈㅊㅜㄱㅗ</w>": 7902,
      "()</w>": 7903,
      "ㅈㅜㅇㅇㅔㄴㅡㄴ</w>": 7904,
      "ㄱㅏㄹㅅㅐㄱ</w>": 7905,
      "ㅈㅣㄱㅁㅜ": 7906,
      "ㄱㅡㄹㅓㄴㅣ</w>": 7907,
      "ㅇㅣㅈㅈㅣ</w>": 7908,
      "ㅈㅓㅁㅅㅣㅁ</w>": 7909,
      "ㅁㅗㄹㅡㄱㅗ</w>": 7910,
      "ㄷㅏㅇㅇㅡㄹ</w>": 7911,
      "ㄱㅏㅅㅡ</w>": 7912,
      "ㅅㅏㅇㄷㅐㄹㅗ</w>": 7913,
      "ㅅㅣㅀㅇㅓ": 7914,
      "ㅇㅓㅄㅇㅐ": 7915,
      "ㅁㅏㅈㅏ</w>": 7916,
      "ER</w>": 7917,
      "ㅂㅣㄱㅛㅈㅓㄱ</w>": 7918,
      "ㅇㅣㄹㅇㅣㅂㄴㅣㄷㅏ</w>": 7919,
      "ㅇㅣㄱㅅㅜㄱ": 7920,
      "ㄷㅏㅇㅢ</w>": 7921,
      "2016": 7922,
      "ㅇㅏㄱ</w>": 7923,
      "that</w>": 7924,
      "ㅇㅗㄹㅐㅅㄷㅗㅇㅇㅏㄴ</w>": 7925,
      "ㅊㅏㅇㅊㅜㄹ": 7926,
      "ㅅㅣㄱㅣ": 7927,
      "ㅅㅣㅂㅜㅌㅓ</w>": 7928,
      "ㅅㅏㅎㅚㅇㅔ</w>": 7929,
      "ㄴㅗㄴㅁㅜㄴ</w>": 7930,
      "ㅅㅐㄱㅇㅡㄹㅗ</w>": 7931,
      "ㅈㅔㄱㅗㅇㅎㅏㄴㄷㅏ</w>": 7932,
      "ㄱㅏㅁㄷㅗㄱㅇㅡㄴ</w>": 7933,
      "ㅁㅗㄷㅡㄴ": 7934,
      "ㅇㅡㄹㅗㅁㅏㄴ</w>": 7935,
      "ㅉㅏㄹㅣ</w>": 7936,
      "4ㄴㅕㄴ": 7937,
      "ㄴㅐㅇㅣㄹ</w>": 7938,
      "ㅈㅓㅇㅎㅘㄱㅎㅏㄱㅔ</w>": 7939,
      "ㅅㅓㄹㅁㅕㅇㅇㅡㄹ</w>": 7940,
      "0ㄱㅐ</w>": 7941,
      "ㄱㅓㄷㅏ</w>": 7942,
      "1ㅅㅣㄱㅏㄴ</w>": 7943,
      "ㅈㅓㅂㅅㅗㄱ</w>": 7944,
      "ㄷㅏㅇㅇㅡㄴ</w>": 7945,
      "PA": 7946,
      "ㅎㅘㅍㅖ</w>": 7947,
      "ㄱㅣㅇㅓㄱㅇㅣ</w>": 7948,
      "ㅍㅐㅋㅣㅈㅣ</w>": 7949,
      "Gr": 7950,
      "tive</w>": 7951,
      "ㅁㅏㄴㅇㅣㄹ</w>": 7952,
      "ㅈㅓㄱㅎㅏㅂㅎㅏㄴ</w>": 7953,
      "ㄱㅏㅌㄴㅔㅇㅛ</w>": 7954,
      "ㄷㅏㅁㅂㅗ": 7955,
      "ㄷㅏㅂㅇㅡㄹ</w>": 7956,
      "ㅊㅓㅁㅂㅜ": 7957,
      "10ㅂㅜㄴ</w>": 7958,
      "ㅇㅑㄱㅜ</w>": 7959,
      "ol</w>": 7960,
      "ㅂㅓㅌㅡㄴ": 7961,
      "ㅂㅏㄱㅈㅓㅇ": 7962,
      "ㅇㅣㄴㅍㅡㄹ": 7963,
      "ㅇㅛㅇㅇㅡㄹㅗ</w>": 7964,
      "ㅈㅡㅇㄱㅏ</w>": 7965,
      "ㅅㅣㅈㅏㅇㅇㅣ</w>": 7966,
      "ㅂㅏㅇㅈㅣ</w>": 7967,
      "ㅊㅜㄱㅈㅓㄱㄷㅚㄴ</w>": 7968,
      "ㄷㅡㄷㄴㅡㄴ</w>": 7969,
      "ㅍㅡㄹㅗㅇ": 7970,
      "ㅁㅏㄶㅇㅏㅆ": 7971,
      "ㅇㅓㅉㅓㄹ</w>": 7972,
      "ㄱㅜㄱㄱㅏㅇㅢ</w>": 7973,
      "ㅊㅜㄹㅅㅣㄴ</w>": 7974,
      "ㅍㅜㅁㅇㅣ</w>": 7975,
      "ㄷㅡㅂㄴㅣㄷㅏ</w>": 7976,
      "ㄴㅗㅇㄱㅜ": 7977,
      "ㅎㅏㄴㅡㄴㅂㅓㅂ</w>": 7978,
      "ㄱㅓㄹㅏㄱㅗ</w>": 7979,
      "ㅇㅗㄴㅡㄹㄷㅗ</w>": 7980,
      "ㄱㅡㄹㅐㅍㅡㅅㅏㅇㅣㅌㅡ</w>": 7981,
      "ㅎㅡㄹㅡㅁ": 7982,
      "ㄴㅏㅅ": 7983,
      "ㅂㅜㄹㅣ": 7984,
      "ㄱㅡㄷㅡㄹㅇㅡㄹ</w>": 7985,
      "ㄴㅏㅊ": 7986,
      "ㄱㅏㅈㄴㅡㄴ</w>": 7987,
      "ㅋㅣㄴ</w>": 7988,
      "194": 7989,
      "ast</w>": 7990,
      "ㅍㅕㅇㅅㅗ</w>": 7991,
      "ㅈㅣㅁㅕㄴㅅㅓ</w>": 7992,
      "ㅅㅏㄹㅇㅏ</w>": 7993,
      "ㅂㅏㄼ": 7994,
      "ㅋㅓㄴ</w>": 7995,
      "ㄷㅡㄹㅇㅕ": 7996,
      "ㅅㅏㅇㅛㅇㅎㅏㄱㅣ</w>": 7997,
      "ㅅㅓㅇㅇㅡㄹㅗ</w>": 7998,
      "ㅋㅓㅂㅓ": 7999,
      "ㅅㅜㅁㄱㅕ": 8000,
      "ㅂㅏㄴㄷㅐㄹㅗ</w>": 8001,
      "ㅎㅏㄹㅏㄱㅗ</w>": 8002,
      "ㅊㅣㅇㅢ</w>": 8003,
      "ㅂㅜㄹㄱㅘ": 8004,
      "ㅈㅓㄴㄱㅗㅇ</w>": 8005,
      "ㅈㅓㅇㅅㅣㄱ</w>": 8006,
      "ㅇㅏㅅㅟㅂ": 8007,
      "ㄷㅗㅇㄴㅔ</w>": 8008,
      "ㅁㅕㄴㅈㅓㅂ</w>": 8009,
      "ㄹㅣㄱ</w>": 8010,
      "ㅁㅏㄹㅎㅐ</w>": 8011,
      "ㄸㅓㅇㅗㄹ": 8012,
      "ㄱㅓㅁㅌㅗ</w>": 8013,
      "ㄱㅜㄴㅇㅣ</w>": 8014,
      "ㅇㅠㅁㅕㅇ</w>": 8015,
      "ㅎㅚㅇ": 8016,
      "ㅂㅜㅇㅣㄴ": 8017,
      "ㅊㅏㅇㅇㅓㅂ</w>": 8018,
      "ㅇㅠㅂㅏㄹ": 8019,
      "ㄱㅘㄴㄹㅕㄴㅎㅏㄴ</w>": 8020,
      "ㄱㅏㅈㅣㄴㅡㄴ</w>": 8021,
      "ㅋㅡㄴㅇㅓㅇㄷㅓㅇㅇㅣ</w>": 8022,
      "5ㄱㅐ</w>": 8023,
      "ㄱㅛㅌㅗㅇ</w>": 8024,
      "ㅋㅠ</w>": 8025,
      "ㅍㅡㄹㅗㄱㅡㄹㅐㅁㅇㅣ</w>": 8026,
      "ㅂㅏㅇㅇㅡㄴ</w>": 8027,
      "ㅂㅕㄴㅎㅘㄴ": 8028,
      "ㅁㅏㄱㅏㅁ": 8029,
      "ㅁㅏㅇㅇㅡㄹ</w>": 8030,
      "ㅁㅏㅊㅣㄱㅗ</w>": 8031,
      "ㅇㅣㄹㅅㅏㅇ</w>": 8032,
      "ㅈㅜㄱㅘㄴ": 8033,
      "ㅁㅏㅈㅇㅡㄴ</w>": 8034,
      "ㄱㅜㅊㅜㄱ</w>": 8035,
      "ㄸㅡㄴㅡㄴ</w>": 8036,
      "ㄹㅐㄴㄷㅡ": 8037,
      "ㄱㅕㅇㄱㅖ": 8038,
      "ㅊㅓㅇㄱㅜ": 8039,
      "ㅇㅐㅂㅇㅡㄹ</w>": 8040,
      "ㄹㅠㄱ": 8041,
      "ㅅㅏㅇㅛㅇㅇㅡㄹ</w>": 8042,
      "ㅂㅏㄹㅎㅟ": 8043,
      "ㅎㅐㅇㅈㅓㅇ</w>": 8044,
      "rig": 8045,
      "ㅊㅏㄹㅣ": 8046,
      "ㅅㅕㅇㅑ</w>": 8047,
      "ㅅㅣㅂㅓㅁ": 8048,
      "ㄷㅗㅇㅇㅑㅇ": 8049,
      "ㄱㅏㅈㅊㅝ": 8050,
      "ㅈㅏㄱㅡㅁ</w>": 8051,
      "\",</w>": 8052,
      "ㅂㅡㄹㅔ": 8053,
      "SBS</w>": 8054,
      "ㅂㅣㄹㅗㅅㅎㅐ</w>": 8055,
      "ㅇㅜㅁㅇㅡㄹ</w>": 8056,
      "44</w>": 8057,
      "ㄱㅕㅇㅇㅜㄹㅡㄹ</w>": 8058,
      "ㄴㅗㄴㄹㅣ": 8059,
      "LA</w>": 8060,
      "ㄱㅐㄹㄹㅓㄱㅅㅣ</w>": 8061,
      "ㅇㅣㅂㅡ</w>": 8062,
      "ㅈㅣㅂㄷㅏㄴ</w>": 8063,
      "ㄷㅐㅅㄱㅡㄹㅇㅣ</w>": 8064,
      "ㅈㅣㅅㅣㄱ</w>": 8065,
      "ㅃㅕ": 8066,
      "ㅇㅝㅅㅣㅇ": 8067,
      "ip</w>": 8068,
      "ㅂㅣㅆㅏ": 8069,
      "ㅇㅓㅄㅇㅓㅆㄷㅓㄴ</w>": 8070,
      "ㅊㅗㅅ": 8071,
      "ㄱㅏㅈㅕㅇㅗ": 8072,
      "42</w>": 8073,
      "120": 8074,
      "ㅍㅓㄹㅓㄴ": 8075,
      "ㅇㅏㄹㅡㄹ</w>": 8076,
      "ㄷㅏㄴㅅㅜㄴㅎㅏㄴ</w>": 8077,
      "ㄱㅔㅇㅣ</w>": 8078,
      "ㅈㅓㄱㄷㅏㅇ": 8079,
      "ㅉㅣㄱㅇㅡㄴ</w>": 8080,
      "ㅅㅣㅁㅣㄴ</w>": 8081,
      "11ㅍㅔㅇㅣㅈㅣ</w>": 8082,
      "ㅇㅗㄹㅠ</w>": 8083,
      "ㄱㅣㄹㅗㄱㅎㅐㅆㄷㅏ</w>": 8084,
      "ㅍㅕㅇㅊㅏㅇ": 8085,
      "ure": 8086,
      "3ㅇㅝㄹ": 8087,
      "ㅌㅣㅇㅇㅡㄹ</w>": 8088,
      "AI</w>": 8089,
      "ㄱㅣㅂㅜㄴ</w>": 8090,
      "ㅇㅡㄹㅅㅜ</w>": 8091,
      "ㅍㅡㄹㅏㅇㅅㅡ": 8092,
      "Boo": 8093,
      "ㅈㅓㄴㅅㅗㅇ</w>": 8094,
      "https</w>": 8095,
      "ㄱㅖㅅㅗㄱㅎㅐㅅㅓ</w>": 8096,
      "ㄱㅗㅇㄱㅕㄱ</w>": 8097,
      "Res": 8098,
      "ㅇㅜㄹㅅㅏㄴ": 8099,
      "Hub</w>": 8100,
      "ㄷㅡㄹㅣㄴㅡㄴ</w>": 8101,
      "ㅊㅜㅇㅓㄱ": 8102,
      "ㅊㅐㄱㅇㅢ</w>": 8103,
      "41</w>": 8104,
      "Google</w>": 8105,
      "ut</w>": 8106,
      "ㅎㅏㅇㅔ</w>": 8107,
      "31ㅇㅣㄹ</w>": 8108,
      "ON": 8109,
      "ㅂㅏㅌ": 8110,
      "ㅎㅕㄴㅈㅏㅇㅇㅔㅅㅓ</w>": 8111,
      "ㅅㅣㅍㅣ</w>": 8112,
      "ㅇㅢㄹㅛ</w>": 8113,
      "ㅂㅏㄴㅍㅜㅁ</w>": 8114,
      "ㅇㅣㄴㄱㅡㄴ</w>": 8115,
      "ㄱㅗㅅㅐㅇ": 8116,
      "ㅈㅗㅇㅓㄴ": 8117,
      "ㅎㅏㄹㄸㅐ</w>": 8118,
      "ㅇㅜㅅㅜㅎㅏㄴ</w>": 8119,
      "ㅅㅗㅍㅡㅌㅡ</w>": 8120,
      "ㅅㅓㅅ": 8121,
      "De": 8122,
      "ㅍㅔㅌㅣ": 8123,
      "ㅈㅣㄴㅅㅣㅁㅇㅡㄹㅗ</w>": 8124,
      "ㅇㅏㄷㅗㅇ</w>": 8125,
      "ㄴㅏㅌㅏㄴㅏㅆㄷㅏ</w>": 8126,
      "ㅍㅕㅇㄹㅗ</w>": 8127,
      "ㅇㅓㄹㅣㅇ</w>": 8128,
      "ㅇㅣㅆㄴㅏ</w>": 8129,
      "ㄱㅐㅂㅗㅇ": 8130,
      "ㅈㅝㅇㅑ</w>": 8131,
      "ㅗㄹㅡㄹ</w>": 8132,
      "ㅇㅣㅅㅏㅇㅇㅣ</w>": 8133,
      "ㅇㅏㄴㅈㅓㄴㅎㅏㄴ</w>": 8134,
      "ㅅㅣㅅㅓㄹㅇㅡㄹ</w>": 8135,
      "ㅎㅏㄱㄱㅛㅇㅔ</w>": 8136,
      "ㅅㅏㄹㅇㅏㄱㅏㄴㅡㄴ</w>": 8137,
      "ㅅㅡㅍㅡㄹㅣ": 8138,
      "ㄷㅡㄹㅇㅓㅇㅗ": 8139,
      "ㅋㅡㄹㄹㅗ": 8140,
      "ㅅㅐㅇㄱㅏㄱㅇㅡㄴ</w>": 8141,
      "ㅋㅣㄴㅡㄴ</w>": 8142,
      "ㅂㅗㅅㅏㅇ": 8143,
      "ㅈㅣㄱㅡㅁㅇㅢ</w>": 8144,
      "ㅂㅗㄴㅐㄹ</w>": 8145,
      "ㅍㅔㅅㅡㅌㅣ": 8146,
      "ㄷㅏㄻ": 8147,
      "ㅂㅣㄹ</w>": 8148,
      "Cont": 8149,
      "29ㅇㅣㄹ</w>": 8150,
      "ㅈㅓㄴㄷㅏㄹ</w>": 8151,
      "ㅅㅏㄻ</w>": 8152,
      "ㅅㅏㅇㅇㅛㅇ</w>": 8153,
      "ㅎㅏㅇㅕㅆㅇㅡㅁㅕ</w>": 8154,
      "ㅈㅣㄹㅁㅜㄴㅇㅔ</w>": 8155,
      "ㅈㅣㅇㅕㄱㅇㅔㅅㅓ</w>": 8156,
      "ㅇㅣㄹㅇㅓㄴㅏㅈㅣ</w>": 8157,
      "ㅇㅣㅂㅈㅏㅇㅇㅡㄹ</w>": 8158,
      "ㅁㅏㄴㅣ": 8159,
      "ㄱㅕㄹㄹㅗㄴ": 8160,
      "ㅌㅏㅇㅜㄴ</w>": 8161,
      "ㅇㅏㅇㅑ": 8162,
      "ㅈㅏㅇㅅㅗㄹㅡㄹ</w>": 8163,
      "ㅇㅕㅇㅎㅑㅇ</w>": 8164,
      "ㅂㅏㅇㅁㅕㅇㄹㅗㄱ</w>": 8165,
      "ㅅㅔㄱㅅㅣㅎㅏㄴ</w>": 8166,
      "ㄱㅡㄴㄱㅓㄹㅗ</w>": 8167,
      "ld</w>": 8168,
      "ting</w>": 8169,
      "ㄱㅡㄹㅓㅁㅇㅔㄷㅗ</w>": 8170,
      "ㅎㅐㅂㅘ": 8171,
      "ㅎㅏㄴㄷㅏ": 8172,
      "ㅅㅡㅌㅐ": 8173,
      "ㅅㅔㅅ</w>": 8174,
      "ㅈㅏㄱㅣㄱㅏ</w>": 8175,
      "ㅜㅁ": 8176,
      "ㅁㅣㅇㅏㄴ": 8177,
      "ㅇㅣㅌㅡ</w>": 8178,
      "ㅁㅣㄹㅣ": 8179,
      "ㄲㅘ": 8180,
      "ㄱㅜㅅㅗㄱ": 8181,
      "1ㄱㅓㄴ</w>": 8182,
      "ㅅㅔㅅㅏㅇㅇㅔㅅㅓ</w>": 8183,
      "ㅈㅣㄴㅎㅘ": 8184,
      "ㅎㅏㅁㅇㅡㄴ</w>": 8185,
      "?'</w>": 8186,
      "77": 8187,
      "ㅎㅕㅇㅇㅣ</w>": 8188,
      "SU": 8189,
      "ㄴㅐㅁㅅㅐ": 8190,
      "ㅇㅟㄱㅣ</w>": 8191,
      "ㅊㅔㅈㅔ</w>": 8192,
      "ㅈㅓㅎㅏㅇ": 8193,
      "ㄴㅗㅍㄷㅏ</w>": 8194,
      "ㅇㅓㄴㅈㅔㄴ": 8195,
      "ㅅㅣㅅㅏ": 8196,
      "ㄱㅘㅇㅇㅕㄱㅅㅣ</w>": 8197,
      "KT</w>": 8198,
      "ㅈㅣㅎㅑㅇ": 8199,
      "ㄷㅡㄹㅇㅓㅅㅓ</w>": 8200,
      "ㅇㅚㄱㅜㄱ</w>": 8201,
      "ㅅㅏㅅㅣㄹㅇㅣ</w>": 8202,
      "DA": 8203,
      "ㄷㅏㄴㄷㅗㄱ</w>": 8204,
      "ㄱㅏㅌㅇㅏㅅㅓ</w>": 8205,
      "ㅈㅏㅇㅣ": 8206,
      "80</w>": 8207,
      "ㅅㅏㅎㅚㄹㅡㄹ</w>": 8208,
      "ㄱㅣㅊㅗ</w>": 8209,
      "ㄷㅡㄹㅁㅕㄴ</w>": 8210,
      "20ㄴㅕㄴ</w>": 8211,
      "ㅂㅏㅈㅣ</w>": 8212,
      "ㄷㅏㄹㄹㅏ</w>": 8213,
      "ㅅㅏㄹㅗ": 8214,
      "ㅊㅓㄴㅁㅜㄴㅎㅏㄱ</w>": 8215,
      "ㅇㅓㅂㄹㅗㄷㅡ</w>": 8216,
      "ㅋㅓㅍㅡㄹ": 8217,
      "ㄴㅏㄹㅡㅁ": 8218,
      "ㅈㅣㄴㅏㄴㄷㅏㄹ</w>": 8219,
      "ㄱㅕㄹㄱㅘㄴㅡㄴ</w>": 8220,
      "ㅇㅓㅍㅡㄹㄹㅣㅋㅔㅇㅣ": 8221,
      "ㄴㅓㅁ</w>": 8222,
      "ㅂㅜㅅㅡㅌㅏㅂㅣㅅㅂㅜㅅㅡㅌㅏㅂㅣㅅ": 8223,
      "ㅈㅓㄴㄱㅐ": 8224,
      "ㅂㅗㄴㅂㅜ</w>": 8225,
      "ㅕㅇㅑ": 8226,
      "ㅍㅗㅋㅓ": 8227,
      "ㅁㅏㄴㅇㅡㄹㅗㄷㅗ</w>": 8228,
      "ㅇㅕㅎㅗㅇ": 8229,
      "ㅇㅏㅈㅜㅁ": 8230,
      "ㅂㅗㄴㅇㅣㄴ": 8231,
      "ㅇㅖㅈㅓㄴㅇㅔ</w>": 8232,
      "Op": 8233,
      "ㅅㅓㅇㅝㄴㄱㅜ</w>": 8234,
      "ㄱㅗㄱㅐㄱㅇㅣ</w>": 8235,
      "ㅈㅗㄹㅡㄹ</w>": 8236,
      "ㄱㅓㄹㅣㄴㅡㄴ</w>": 8237,
      "ㅅㅡㅌㅏㅇㅣㄹ": 8238,
      "ㅎㅏㅅㅣㄹ": 8239,
      "ㅅㅣㄹㄴㅐ</w>": 8240,
      "ㄱㅏㄴㄹㅑㄱ": 8241,
      "ㅍㅣㄹㄹ": 8242,
      "ject</w>": 8243,
      "ㅃㅓㄴ": 8244,
      "ㄱㅏㅁㄷㅗㅇ": 8245,
      "ㅈㅔㅎㅠ": 8246,
      "ㅇㅏㄴㄷㅚ": 8247,
      "te</w>": 8248,
      "ㅇㅗㅍㅡㄹㅏ": 8249,
      "ㅇㅡㄴㅎㅖ": 8250,
      "sk": 8251,
      "ㄱㅗㅇㅎㅏㄱ": 8252,
      "....": 8253,
      "ㅇㅣㄴㄱㅏㄴㅇㅣ</w>": 8254,
      "ㄱㅣㄹㅇㅔ</w>": 8255,
      "ㅈㅓㅁㄱㅓㅁ": 8256,
      "ㄱㅘㄱ": 8257,
      "ㅈㅐㅅㅐㅇ</w>": 8258,
      "ㄷㅏㄴㄷㅏㄴ": 8259,
      "ㅍㅗㄹㄷㅓ": 8260,
      "ㅅㅐㅇㅁㅕㅇ</w>": 8261,
      "ㅅㅔㅇㅣㄴ": 8262,
      "ㄷㅏㅇㄴ": 8263,
      "ㄷㅡㄹㅇㅣ": 8264,
      "ㅁㅣㄹㅡㄹ</w>": 8265,
      "ㅍㅛㅎㅕㄴ</w>": 8266,
      "ell</w>": 8267,
      "ㄱㅡㄴㅏㅁㅏ</w>": 8268,
      "ㅂㅏㅇㅇㅢ</w>": 8269,
      "ㅐㄹㅡㄹ</w>": 8270,
      "ㅇㅗㄷㅣㅇㅗ</w>": 8271,
      "ㄴㅗㄹㅡ": 8272,
      "ㄱㅣㄷㅏㄹㅣㄱㅗ</w>": 8273,
      "ㅎㅘㄹㅂㅏㄹ": 8274,
      "Dr": 8275,
      "ㅅㅣㄴㄱㅕㅇ</w>": 8276,
      "DB": 8277,
      "ㅅㅣㄴㅊㅓㅇㅇㅡㄹ</w>": 8278,
      "ㅋㅓㅁㅠㄴㅣㅌㅣ": 8279,
      "ㅂㅜㄱㅏ": 8280,
      "ㅂㅜㅊㅓ": 8281,
      "ㄱㅝㄴㅎㅏㄴㅇㅣ</w>": 8282,
      "ㅇㅕㅅ</w>": 8283,
      "For": 8284,
      "ㅊㅐㄱㅝㄴ": 8285,
      "ㄷㅚㅇㅓㅆㅇㅡㄹ</w>": 8286,
      "ㅂㅜㄹㄱㅏ</w>": 8287,
      "ㅁㅐㅈㅏㅇ</w>": 8288,
      "ㅈㅣㅅ</w>": 8289,
      "ㅅㅣㅍㅇㅓ": 8290,
      "ㅂㅗㅅㅜ</w>": 8291,
      "ㅇㅣㅎㅏㄴ</w>": 8292,
      "ㅇㅣㅈㅓㅇ": 8293,
      "ㄱㅓㄴㅇㅡㄹ</w>": 8294,
      "ㅌㅜㅅㅡ</w>": 8295,
      "ㅇㅣㄴㅅㅐㅇ</w>": 8296,
      "Eng": 8297,
      "ㅇㅑㅇㅇㅡㄹ</w>": 8298,
      "ㅇㅓㅂㄷㅔㅇㅣㅌㅡ": 8299,
      "ㄹㅣㅊㅣㅍㅡㄹㄹㅓㅅㅡ</w>": 8300,
      "ㅂㅜㄴㅍㅕㅇㄹㅗ</w>": 8301,
      "5ㅊㅓㄴ": 8302,
      "ㅅㅣㄲㅏㅈㅣ</w>": 8303,
      "ㅇㅕㄴㄱㅖ": 8304,
      "ㅇㅟㅌㅏㄱ": 8305,
      "ㄱㅡㄹㄹㅗㅂㅓㄹ": 8306,
      "ㅋㅡㄹㅣㅁ": 8307,
      "ㄱㅛㅎㅚㅇㅢ</w>": 8308,
      "Fl": 8309,
      "ㅈㅏㅂ</w>": 8310,
      "ㄸㅏㅇ</w>": 8311,
      "IE": 8312,
      "ㅈㅏㅇㅈㅓㅁㅇㅣ</w>": 8313,
      "ㅌㅐㅇㅓㄴㅏ": 8314,
      "ㅈㅏㅂㅇㅡㄴ</w>": 8315,
      "ㅊㅓㄹㅎㅏㄱ</w>": 8316,
      "ㄱㅏㅇㄴㅏㅁㄱㅜ</w>": 8317,
      "ㅌㅣㄱ</w>": 8318,
      "ㅇㅣㅇㅓㅆㄱㅗ</w>": 8319,
      "ㄱㅐㅂㅏㄹㅈㅏ</w>": 8320,
      "ㅈㅓㄴㅎㅏㄴ</w>": 8321,
      "ㄴㅓㄴ</w>": 8322,
      "ㄹㅔㅍㅗㅌㅡㅇㅝㄹㄷㅡ</w>": 8323,
      "ㅇㅓㄸㅓㅎ": 8324,
      "ary</w>": 8325,
      "ㅇㅏㅅ": 8326,
      "ㅇㅗㅂㅡ</w>": 8327,
      "ㅅㅏㅇㅣㅌㅡㅇㅔㅅㅓ</w>": 8328,
      "ㅇㅝㅅㅓ</w>": 8329,
      "ㅇㅣㄱㅅㅡ": 8330,
      "ㄱㅏㅁㅅㅏㅇㅢ</w>": 8331,
      "ㅇㅏㅋㅏㄷㅔ": 8332,
      "ㄱㅠㅁㅗㅇㅢ</w>": 8333,
      "ㅇㅓㄱㅇㅡㄹ</w>": 8334,
      "ㅇㅣㅂㅡㄹ": 8335,
      "ㅅㅜㄹㅕㅇ": 8336,
      "ㅅㅏㄹㅣ": 8337,
      "ㄱㅕㄹㅅㅡㅇ": 8338,
      "ㄱㅣㅂㅜㄴ": 8339,
      "ㅊㅓㄴㅊㅓㄴ": 8340,
      "ㄴㅓㅎㅇㅓ</w>": 8341,
      "ㅅㅏㅇㅛㅇㅇㅣ</w>": 8342,
      "ㅂㅣㅅ": 8343,
      "ㅈㅓㄴㄱㅘ</w>": 8344,
      "ㄷㅏㄴㅇㅓ</w>": 8345,
      "ㅅㅏㄴㅇㅢ</w>": 8346,
      "ㅅㅏㅇㅝㄴ": 8347,
      "ㄷㅔㅂㅟ": 8348,
      "ㄱㅡㄹㅏ": 8349,
      "ㅈㅜㄴㅅㅜ": 8350,
      "2007ㄴㅕㄴ</w>": 8351,
      "ㅌㅡㅇㅟㅌㅓ</w>": 8352,
      "ㅌㅔㅋㅡ</w>": 8353,
      "ㅅㅣㅅㅓㄹㅇㅣ</w>": 8354,
      "20ㄷㅐ</w>": 8355,
      "ake</w>": 8356,
      "ㅊㅣㄱㅇㅡㄹ</w>": 8357,
      "ㅅㅏㅁㅗ": 8358,
      "ㅌㅣㅁㅇㅡㄹ</w>": 8359,
      "ㅈㅏㅁㅈㅐ": 8360,
      "4ㅇㅝㄹ": 8361,
      "ㄲㅡㅀ": 8362,
      ")(</w>": 8363,
      "eㅇㅢ</w>": 8364,
      "ㅂㅐㅊㅜㄹ": 8365,
      "ㄱㅏㄷㅡㄱㅎㅏㄴ</w>": 8366,
      "ㅇㅞㄹ": 8367,
      "ㅇㅣㄹㅎㅏㄴㅡㄴ</w>": 8368,
      "ㅌㅡㄱㅎㅓ": 8369,
      "ㅈㅓㅇㅅㅏㅇㅎㅚㄷㅏㅁ</w>": 8370,
      "ㅎㅚㅅ": 8371,
      "ㅂㅏㅂㅇㅡㄹ</w>": 8372,
      "ㅇㅕㄹㅇㅡㄹ</w>": 8373,
      "ㅈㅓㅎㅢㄱㅏ</w>": 8374,
      "ㅇㅠㄹㅗ</w>": 8375,
      "ㅍㅣㄹㅇㅛㄹㅗ</w>": 8376,
      "ㅇㅣㄱㅓㄹ</w>": 8377,
      "ㅅㅣㄱㅁㅜㄹ": 8378,
      "ㄸㅜㅀ": 8379,
      "ㅅㅣㄱㅏㄴㄱㅘ</w>": 8380,
      "ㄱㅜㄴㅇㅡㄴ</w>": 8381,
      "ㅅㅏㄹㅏㅁㄷㅡㄹㄱㅘ</w>": 8382,
      "ㅅㅔㅇㅢ</w>": 8383,
      "ㅇㅠㅅㅏㅎㅏㄴ</w>": 8384,
      "ㄱㅡㄹㅕ": 8385,
      "ㄱㅡㄹㅆㅡㄴ": 8386,
      "ㅎㅏㅅㅕㅅㅓ</w>": 8387,
      "ㅁㅜㅅㅓㅇ": 8388,
      "ㅈㅓㅁㅊㅏ</w>": 8389,
      "ㅇㅣㅇㅛㅇㅇㅔ</w>": 8390,
      "ㅅㅑㅅ</w>": 8391,
      "ㅊㅏㅈㅇㅡ": 8392,
      "ㄷㅗㄱㅎㅜ": 8393,
      "ㄷㅏㅂㅗㅁㅕㄴ</w>": 8394,
      "ㄱㅙㄴㅊㅏㄶㅇㅡㄴ</w>": 8395,
      "ㄱㅕㅇㄴㅏㅁ": 8396,
      "ㅅㅏㄴㅇㅣ</w>": 8397,
      "ㅇㅣㅇㅠㄹㅡㄹ</w>": 8398,
      "SD": 8399,
      "ㅇㅔㅅㅓㅂㅜㅌㅓ</w>": 8400,
      "ㅈㅡㅇㄱㅝㄴ": 8401,
      "ㄷㅚㅇㅓㅆㄷㅓㄴ</w>": 8402,
      "ㅎㅘㄹㅇㅑㄱ": 8403,
      "ㅎㅜㄹㅗ</w>": 8404,
      "ㅈㅣㅈㅓㅇ</w>": 8405,
      "ㅅㅡㄹㅔ": 8406,
      "ㅅㅏㅇㅜ": 8407,
      "ㅅㅓㅅㅓ</w>": 8408,
      "ㄱㅣㄱㅏㄴㅇㅡㄹ</w>": 8409,
      "ㅁㅏㅈㅊㅝ": 8410,
      "600": 8411,
      "ㅎㅏㄱㅔㅆㄷㅏㄴㅡㄴ</w>": 8412,
      "aw": 8413,
      "ㄷㅣㅂㅏㅇㅣ": 8414,
      "ㅋㅣㄱㅏ</w>": 8415,
      "ㄱㅠㅈㅓㅇㅇㅔ</w>": 8416,
      "ㅂㅏㄹㄱㅡㅂ": 8417,
      "ㄹㄲㅏㅇㅛ</w>": 8418,
      "ㄱㅝㄴㄹㅣㄹㅡㄹ</w>": 8419,
      "ㄴㅐㅅㅕㄴ": 8420,
      "ㄱㅜㅂ": 8421,
      "ㅁㅗㅅㅎㅏㄴㄷㅏ</w>": 8422,
      "ㅎㅕㅇㅇㅡㄴ</w>": 8423,
      "ㅍㅗㅎㅏㅁㅎㅏㅇㅕ</w>": 8424,
      "ㄴㅗㅍㅇㅣ</w>": 8425,
      "ㅇㅗㄴㅡㄹㄴㅏㄹ</w>": 8426,
      "ㅇㅠㅇㅕㄴ": 8427,
      "ㄷㅏㄴㅂㅐㄱ": 8428,
      "ㅅㅏㅎㅏㅇㅇㅔ</w>": 8429,
      "ㄷㅣㅅㅡㅍㅡㄹㄹㅔㅇㅣ</w>": 8430,
      "ㄷㅚㅇㅓㅆㄷㅏㄱㅗ</w>": 8431,
      "ㅁㅝㄱㅏ</w>": 8432,
      "ㅈㅜㅇㄱㅖ": 8433,
      "ㅇㅓㅍㅡㄹ</w>": 8434,
      "ㄷㅏㄹㅏㄴ</w>": 8435,
      "ㅈㅣㄱㅡㅂ</w>": 8436,
      "ㅂㅔㄴㅊㅓ": 8437,
      "ㅇㅓㄷㅇㅡㄴ</w>": 8438,
      "ㅅㅏㅎㅚㅇㅔㅅㅓ</w>": 8439,
      "ㅅㅏㅇㅌㅐㄱㅏ</w>": 8440,
      "ㅂㅗㄱㅈㅏㅂㅎㅏㄴ</w>": 8441,
      "ㅏㅇㅜㄴ</w>": 8442,
      "ㄷㅏㄱㅏ": 8443,
      "ㅅㅓㄱㅇㅡㄴ</w>": 8444,
      "ㄱㅗㅇㅟ": 8445,
      "ㅇㅜㄹㅣㄴㅏㄹㅏㅇㅢ</w>": 8446,
      "ass</w>": 8447,
      "ㄱㅜㅇㅣㅂ</w>": 8448,
      "ㅅㅔㄴㅅㅡ</w>": 8449,
      "ㅋㅐㅁㅍㅡ</w>": 8450,
      "ㅈㅓㅇㅅㅣㄴ</w>": 8451,
      "ㄱㅓㅅㅇㅣㅇㅓㅆㄷㅏ</w>": 8452,
      "ㅇㅏㅌㅡ": 8453,
      "ㄱㅏㄴㅡㅇㅅㅓㅇㅇㅡㄹ</w>": 8454,
      "ㅈㅓㅁㄷㅗ</w>": 8455,
      "ㅅㅔㅌㅏㄱ": 8456,
      "ㅌㅐㅂㅡㄹㄹㅣ": 8457,
      "ㄷㅏㄴㅁㅏㄹ": 8458,
      "ㅎㅏㄴㄱㅜㄱㅇㅓ</w>": 8459,
      "ㄱㅘㅁㅗㄱ": 8460,
      "ㄲㅏㅈㅣ": 8461,
      "ㅅㅜㅌㅏㄺ</w>": 8462,
      "ㅅㅐㄱㅇㅣ</w>": 8463,
      "ㅃㅏㅈㅕ": 8464,
      "ㄷㅗㅇㅂㅏㄴ": 8465,
      "ㅍㅗㄹㅓ": 8466,
      "ㄱㅐㄱㄱㅘㄴ": 8467,
      "ㅎㅏㄴㅇㅣㄴ": 8468,
      "2010</w>": 8469,
      "ㄷㅏㅇㅇㅣㄹ</w>": 8470,
      "ㅈㅣㅅㅣㄱㅇㅡㄹ</w>": 8471,
      "ㅅㅏㅇㄷㅐㅈㅓㄱㅇㅡㄹㅗ</w>": 8472,
      "ㅁㅣㄱㅏ</w>": 8473,
      "ㅂㅜㅂㅜ": 8474,
      "ㄹㅓㄱㅅㅕ": 8475,
      "AW": 8476,
      "win</w>": 8477,
      "ㅎㅏㄱㄱㅛㅇㅔㅅㅓ</w>": 8478,
      "ㄱㅏㅄㅇㅣ</w>": 8479,
      "ㅁㅏㄹㅇㅣㅂㄴㅣㄷㅏ</w>": 8480,
      "ㅁㅏㅈㅈㅣ</w>": 8481,
      "SW": 8482,
      "ye": 8483,
      "ㄴㅠ</w>": 8484,
      "ㅈㅓㅇㅅㅏㅇ</w>": 8485,
      "ㄱㅓㄴㄱㅏㅇㅛ</w>": 8486,
      "ㄱㅣㅅㅜㄹㅇㅢ</w>": 8487,
      "ㅌㅏㅇㅣㅁ</w>": 8488,
      "ㅇㅛㄱㅅㅣㄹ</w>": 8489,
      "ㄱㅜㅇㅕㄱ</w>": 8490,
      "ㅇㅏㄹㅈㅣ</w>": 8491,
      "ㅂㅏㄹㅈㅓㄴㅇㅡㄹ</w>": 8492,
      "ㅈㅗㄹㅇㅓㅂ</w>": 8493,
      "ㅈㅣㅇㅕㄴ": 8494,
      "ㅂㅏㅂㅗ</w>": 8495,
      "ㅁㅗㄱㅍㅛㄹㅗ</w>": 8496,
      "ㄱㅣㅅㅜㄹㅇㅣ</w>": 8497,
      "ㅇㅏㄴㅊㅓㄹ": 8498,
      "ㅇㅗㅂㅅㅕㄴㅇㅡㄹ</w>": 8499,
      "ㅊㅟㅇㅓㅂ</w>": 8500,
      "ㅎㅕㅂㄹㅕㄱ</w>": 8501,
      "ㄱㅘㄴㄱㅘㅇㄱㅐㄱ": 8502,
      "ㅁㅐㅈㅜ</w>": 8503,
      "ㄱㅣㅁㄷㅗㅇ": 8504,
      "ㅅㅏㅁㅅㅓㅇㅈㅓㄴㅈㅏ</w>": 8505,
      "ㅅㅣㅈㅏㅇㅇㅡㄴ</w>": 8506,
      "ㅍㅡㄹㄹㅗ": 8507,
      "enc": 8508,
      "ㄷㅗㄷㅐㅊㅔ</w>": 8509,
      "ㅇㅝㄴㅎㅘㄹ": 8510,
      "ㅈㅏㅂㅇㅡㄹ</w>": 8511,
      "ㅈㅓㄴㅎㅐ": 8512,
      "Server</w>": 8513,
      "ㄷㅏㅇㅜㄴㄹㅗㄷㅡ": 8514,
      "ㅇㅗㄹㅐㄴㅁㅏㄴㅇㅔ</w>": 8515,
      "Bo": 8516,
      "ㄱㅣㄱㅘㄴㅇㅢ</w>": 8517,
      "ㄹㄹㅏ</w>": 8518,
      "ㅂㅡㄹㄹㅗㄱㅡㄹㅡㄹ</w>": 8519,
      "ㄷㅗㅇㄱㅖ": 8520,
      "ㄱㅡㄹㅐㅍㅣㄱ</w>": 8521,
      "ㄷㅐㅎㅕㅇ": 8522,
      "ㅈㅓㄴㅈㅏㅇ": 8523,
      "ㅎㅘㄴㄱㅕㅇㅇㅔ</w>": 8524,
      "be": 8525,
      "ㅊㅓㄴㅊㅓㄴㅎㅣ</w>": 8526,
      "ㄴㅏㄱㅗ</w>": 8527,
      "ㅈㅓㄱㄱㅡㄱ</w>": 8528,
      "ㅈㅜㅇㅢㅇㅢ</w>": 8529,
      "ㅂㅗㅅㅣ": 8530,
      "ㅈㅗㅎㄱㅔㅆㄷㅏ</w>": 8531,
      "ㅁㅜㄴㅎㅘㅇㅢ</w>": 8532,
      "ames</w>": 8533,
      "ㅈㅏㅂㅈㅣ</w>": 8534,
      "ㅅㅏㅈㅣㄴㅇㅣ</w>": 8535,
      "ㅈㅏㄶㅇㅏ</w>": 8536,
      "ㅂㅜㄷㅡㄹㅓ": 8537,
      "ㅅㅏㅇㅝㄴ</w>": 8538,
      "ㅈㅜㅈㅔ</w>": 8539,
      "ㄷㅏㄲ": 8540,
      "ㄷㅜㄴㅡㄴ</w>": 8541,
      "ther</w>": 8542,
      "ㅁㅏㄴㄴㅏㅁ</w>": 8543,
      "ㅎㅔㄷㅡ": 8544,
      "ㅋㅗㄴㅅㅓㅌㅡ</w>": 8545,
      "ㅎㅗㅎㅡㅂ": 8546,
      "aver</w>": 8547,
      "ㄷㅔㅅㅡㅋㅡ": 8548,
      "ext": 8549,
      "ㅍㅗㄱㅂㅏㄹ": 8550,
      "ㅈㅏㅂㅏㅅㅡㅋㅡㄹㅣㅂ": 8551,
      "ㅇㅓㅆㄷㅏㄱㅗ</w>": 8552,
      "ㅁㅗㅇㅡㅁ</w>": 8553,
      "ㅅㅜㅇㅣㅂ</w>": 8554,
      "ㅇㅕㅇㅇㅓㅂ</w>": 8555,
      "ㄱㅖㅇㅕㄹ": 8556,
      "ㅈㅓㄹㅊㅏㄹㅡㄹ</w>": 8557,
      "ㅇㅓㅄㄴㅡㄴ": 8558,
      "ㅈㅗㅇㄱㅛ</w>": 8559,
      "ㅈㅡㄹㄱㅓㅂㄱㅔ</w>": 8560,
      "ㅁㅐㅁㅐ": 8561,
      "ㄱㅘㄴㄹㅕㄴㅇㅣ</w>": 8562,
      "ㄱㅓㅅㅁㅏㄴ</w>": 8563,
      "ㄹㅡㅇ": 8564,
      "ㄷㅣㅅㅡㅋㅡ</w>": 8565,
      "ㅂㅏㅇㅅㅏ": 8566,
      "ㅇㅓㅉㅐㅆ": 8567,
      "ㅂㅗㄴㅐㄱㅗ</w>": 8568,
      "ㄱㅡㄹㅓㄴㅈㅣ</w>": 8569,
      "ant</w>": 8570,
      "ㅇㅔㄴㅈㅣㄴ</w>": 8571,
      "ㅂㅗㅇㅣㄹ</w>": 8572,
      "ㄱㅓㄴㅈㅗ": 8573,
      "ㅊㅣㅇㅕㄹ": 8574,
      "ㅎㅏㅂㄴㅣㄲㅏ</w>": 8575,
      "ㅇㅠㅊㅜㄹ": 8576,
      "ㅌㅔㄱㅅㅡㅌㅡ</w>": 8577,
      "ㄴㅔㅇㅣㅂㅓ": 8578,
      "ㅅㅓㅂㅣㅅㅡㅇㅔ</w>": 8579,
      "ㅇㅣㄴㄷㅗㄴㅔ": 8580,
      "ㅂㅡㄹㅜㄴㅔㅅ</w>": 8581,
      "ㅅㅏㅇㅛㅇㅎㅐ</w>": 8582,
      "ㅅㅡㅋㅗㅇㅓ": 8583,
      "ㅎㅏㄴㅁㅣ": 8584,
      "ㅁㅗㅇㅡ": 8585,
      "ㄱㅗㄱㅏ</w>": 8586,
      "ㅅㅣㄷㅐㄹㅡㄹ</w>": 8587,
      "ㅇㅣㄴㅅㅐㅇㅇㅡㄹ</w>": 8588,
      "ㅅㅣㄴㅇㅛㅇㅋㅏㄷㅡ</w>": 8589,
      "Manag": 8590,
      "ㅈㅝ</w>": 8591,
      "ㅇㅓㅈㅕ</w>": 8592,
      "ㅎㅗㅇㅋㅗㅇ</w>": 8593,
      "ㄹㅣㅇㅋㅡㄹㅡㄹ</w>": 8594,
      "ㅈㅓㄴㅇㅛㅇ": 8595,
      "ㅈㅠ": 8596,
      "ㅇㅏㄴㅣㄹ</w>": 8597,
      "ㄷㅐㅎㅏㄴㅁㅣㄴㄱㅜㄱㅇㅢ</w>": 8598,
      "ㄱㅕㅇㅅㅏㅇ": 8599,
      "line</w>": 8600,
      "ㅎㅘㄹㅇㅛㅇㅎㅏㄹ</w>": 8601,
      "ㅅㅔㄷㅐ": 8602,
      "ㅁㅏㅈㅜ": 8603,
      "3ㄱㅏㅈㅣ</w>": 8604,
      "ㅂㅏㄴㄷㅐ</w>": 8605,
      "ㅇㅜㅇ</w>": 8606,
      "ㄷㅡㄹㅇㅓㄱㅏㄴㅡㄴ</w>": 8607,
      "ㅅㅜㄴㅎㅘㄴ": 8608,
      "ㅁㅜㄱㅣ": 8609,
      "ㅈㅏㅂㅇㅏ": 8610,
      "ㅎㅐㅇㅇㅟ": 8611,
      "ㄷㅡㄹㅕ": 8612,
      "ㅇㅣㅁㅕㅇㅂㅏㄱ</w>": 8613,
      "ㅅㅐㅂㅕㄱ</w>": 8614,
      "ㅅㅓㅇㅁㅕㅇ</w>": 8615,
      "ㄴㅗㅎㅏㅇ": 8616,
      "ㅇㅣㄹㄱㅘㅇ</w>": 8617,
      "ㅁㅜㅇ": 8618,
      "ㅈㅓㄴㅇㅡㄴ</w>": 8619,
      "ㅍㅏㄴㄱㅕㄹ": 8620,
      "ㅍㅕㅇㅅㅐㅇ</w>": 8621,
      "ㅅㅐㅁㅍㅡㄹ": 8622,
      "ㅅㅣㄴㅇㅣㅂ": 8623,
      "ㅏㅇㅣ</w>": 8624,
      "ets</w>": 8625,
      "ㅂㅓㄹㅣㄴㅡㄴ</w>": 8626,
      "ㅂㅗㅅㅣㅁㅕㄴ</w>": 8627,
      "ㅂㅜㄹㄹㅣㄴㅡㄴ</w>": 8628,
      "ㅅㅏㄷㅗ</w>": 8629,
      "ㄹㅗㄱㅡㅇㅣㄴ": 8630,
      "ㄴㅐㄱㅣ</w>": 8631,
      "ㅅㅐㅇㄱㅏㄱㅎㅏㅁㅕㄴ</w>": 8632,
      "ㅈㅣㄹㅣ": 8633,
      "ㅅㅔㅂㅜ</w>": 8634,
      "ㅁㅏㄹㅎㅏㅂㄴㅣㄷㅏ</w>": 8635,
      "ㅇㅓㄹㅕㅇㅜㅁㅇㅣ</w>": 8636,
      "ㅇㅗㅂㅅㅕㄴ": 8637,
      "ㅎㅐㅇㅅㅏㄹㅡㄹ</w>": 8638,
      "ㄱㅡㄴㅊㅓㅇㅔ</w>": 8639,
      "ㄷㅏㅁㄷㅏㅇ</w>": 8640,
      "ㅂㅏㄱㅅㅏ</w>": 8641,
      "ㄱㅗㅇㄱㅏㄴㅇㅣ</w>": 8642,
      "6ㄱㅐㅇㅝㄹ</w>": 8643,
      "ㅈㅏㄹㅏ": 8644,
      "ㄹㅇㅢ</w>": 8645,
      "ㅇㅓㅆ</w>": 8646,
      "ㅂㅗㄱㄱㅜ</w>": 8647,
      "man": 8648,
      "ㅎㅏㄴㅣㄲㅏ</w>": 8649,
      "ㅇㅣㅎㅜㅇㅔ</w>": 8650,
      "ㄷㅏㄹㅇㅡㄹ</w>": 8651,
      "ㅂㅜㄴㅇㅑㅇㅔ</w>": 8652,
      "ㅅㅣㅅㅡㅌㅔㅁㅇㅢ</w>": 8653,
      "ㄲㅡㅌㅇㅣ</w>": 8654,
      "ㅈㅗㅊㅣ</w>": 8655,
      "ㄷㅏㄹㅡㄷㅏ</w>": 8656,
      "ㄱㅡㅁㅇㅡㄴ</w>": 8657,
      "ㅈㅔㄹㅣ</w>": 8658,
      "ㄴㅏㅁㄱㅕㅈㅜㅅㅔㅇㅛ</w>": 8659,
      "ㅎㅘㅈㅐ</w>": 8660,
      "ㅎㅕㅇㅇㅢ</w>": 8661,
      "ㄱㅜㅇ</w>": 8662,
      "ㅋㅜㅍㅗㄴ</w>": 8663,
      "ㅇㅚㄴㅉㅗㄱ</w>": 8664,
      "ㅇㅑㅇㅅㅓㅇ": 8665,
      "ㅁㅏㅌㅡ</w>": 8666,
      "ㅎㅏㄴㅇㅢ</w>": 8667,
      "ㅁㅣㄷㅇㅡㄹ</w>": 8668,
      "ㄹㅣㅇㅓㄹ</w>": 8669,
      "ㅆㅇㅡㅁㅕㄴ</w>": 8670,
      "ㅗㅇㅜㄴ</w>": 8671,
      "ㅈㅝㅆㄷㅏ</w>": 8672,
      "ㅍㅣㄹㅡㄹ</w>": 8673,
      "Trip": 8674,
      "im</w>": 8675,
      "ㅅㅓㄴㅇㅔ</w>": 8676,
      "ㅇㅏㄹㄱㅗㄹㅣ": 8677,
      "Ro": 8678,
      "ㄷㅓㄴㄷㅔ</w>": 8679,
      "PornHub</w>": 8680,
      "ㅅㅣㄹㄹㅗ</w>": 8681,
      "ㄴㅓㄱ": 8682,
      "ㅟㄴ": 8683,
      "ㅇㅕㅇㅇㅕㄱ</w>": 8684,
      "ㅍㅔㅇㅣㅈㅣㅇㅔㅅㅓ</w>": 8685,
      "ㄱㅘㄹ": 8686,
      "ㄱㅏㅇㅅㅏ</w>": 8687,
      "ㅇㅏㅅㅣㅇㅏㅇㅢ</w>": 8688,
      "ㅇㅣㄴㄷㅣ": 8689,
      "ㅂㅓㅌㅡㄴ</w>": 8690,
      "ㅇㅗㄻㄱㅕ": 8691,
      "ㄱㅕㅇㅈㅐㅇ</w>": 8692,
      "ㅇㅣㄹㅏㄴ": 8693,
      "ㅊㅚㅈㅓㄱㅏ</w>": 8694,
      "ㅌㅗㅁㅏ": 8695,
      "ㄹㅗㄸㅗ": 8696,
      "ㅂㅣㅁㅣㄹ</w>": 8697,
[...]
