{
  "ㅁㅏㄴㄴㅏㅁ</w>": 8543,
  "ㅌㅔㄱㅅㅡㅌㅡ</w>": 8577,
  "ㄱㅗㄹㅕㅇ": 10048,
  "ㅅㅗㄹㅈㅣㄱㅎㅣ</w>": 6996,
  "\u001f</w>": 263,
  "ㄱㅕㅇㅊㅏㄹ": 2589,
  "ㅂㅓㄹㄹㅔ": 15665,
  "ㅎㅏㅂㅇㅢ</w>": 11876,
  "ㅁㅗㅅㅎㅐㅆㄷㅓㄴ</w>": 10543,
  "ㄱㅏㄲㅏ": 5954,
  "ㅈㅏㄱㅡㅁ</w>": 8051,
  "ㄱㅏㅇㄹㅡㅇ": 16291,
  "ㄸㅐㅁㅜㄴㅇㅔ</w>": 868,
  "ㄷㅡㄹㅇㅓㅆㄷㅏ</w>": 4756,
  "ㄷㅗㄱㅅㅓ": 8800,
  "ㅅㅏㅇㅟ": 9012,
  "ㅈㅜㅇㄱㅜㄱㅇㅔㅅㅓ</w>": 12090,
  "ㅁㅗㄷㅡㄴ</w>": 741,
  "ing</w>": 1053,
  "33": 5296,
  "ㅇㅕㄴㄷㅐ": 16311,
  "ㅅㅏㄱㅓㄴㅇㅡㄴ</w>": 16297,
  "ㅈㅓㅁㅅㅣㅁ": 11446,
  "Best</w>": 12238,
  "ㅅㅔ": 361,
  "ㅍㅐㄴㅌㅣ</w>": 9311,
  "yl": 14391,
  "ㄱㅣㄷㅗㄱㄱㅛ</w>": 7865,
  "ㅇㅣㅎㅜㅇㅔ</w>": 8650,
  "ㅔㄹ</w>": 15966,
  "Bun": 10682,
  "ㄴㅏㅅ": 7983,
  "ㄱㅓㅁㅇㅡㄴ": 11888,
  "NBA": 14571,
  "ㅅㅗㅅㅓㄹ": 4402,
  "ㅈㅐㅎㅕㄴ": 13475,
  "ㅈㅜㅇㅇㅛㅎㅏㄷㅏㄱㅗ</w>": 15635,
  "ㅎㅏㄹㅁㅓㄴㅣ</w>": 6357,
  "ㅇㅏㅋㅏㄷㅔㅁㅣ</w>": 11399,
  "ㅅㅜㅅㅜㄹㅛㄱㅏ</w>": 11961,
  "ㅈㅓㄴㄹㅑ": 1799,
  "ㄱㅏㅅㅓㅇ": 11080,
  "ㅆㅇㅡㄹ</w>": 2046,
  "2007</w>": 12301,
  "ㅍㅛㅎㅕㄴ</w>": 8266,
  "Hz</w>": 14131,
  "ㅅㅔㅍㅗ": 7883,
  "ㅇㅏㄴㄷㅡㄹㅗㅇㅣㄷㅡ": 15777,
  "ㅈㅏㅇㅇㅔㅅㅓ</w>": 2326,
  "ㅍㅕㄴㅇㅣㄷㅏ</w>": 11400,
  "ㅁㅐ": 454,
  "ㅇㅏㄶㄴㅡㄴ</w>": 1229,
  "ㄴㅣㅈㅡ": 13251,
  "ㄴㅑ": 14284,
  "ㅂㅏㄲㅟ": 3043,
  "ㄱㅏㅁㅕ</w>": 6631,
  "ㄱㅡㄹㅆㅡㄴ": 8386,
  "ㅇㅕㅇ</w>": 1022,
  "ㅇㅝㄴㅇㅣㄴㅇㅣ</w>": 9817,
  "ㅆㅏㄴ</w>": 4500,
  "ㅍㅡㄹㄹㅐㄴ": 10584,
  "ls</w>": 10097,
  "ㄱㅗㄹㅡ": 14147,
  "ㅅㅇㅣ</w>": 1866,
  "ㅇㅕㅂㅐㅇㅜ</w>": 6266,
  "ㅈㅜㅅㅣㄴ": 14473,
  "ㅇㅏㄴㅣ</w>": 3863,
  "59": 8762,
  "ㅈㅣ": 276,
  "ㅅㅗㄹㅣ": 3424,
  "ㄳ": 85,
  "ㅂㅗㄱㅈㅣ": 1945,
  "ㅇㅕㅇㅇㅕㄱㅇㅡㄹ</w>": 12117,
  "ㅂㅏㄹㅏㅁ": 2302,
  "ㅈㅏㅂㅏ": 7692,
  "ㅈㅣㄱㅡㅁ</w>": 1431,
  "ㄲㅡㄴㅡㄴ</w>": 10778,
  "ㅈㅣㅇㅣㅂㄴㅣㄷㅏ</w>": 13998,
  "vid": 13162,
  "ㄱㅣㄱㅏ</w>": 1080,
  "ㅅㅜㅇㅛㅇ": 5247,
  "ㅇㅕㄴㅈㅏㅇ</w>": 9432,
  "7ㅍㅔㅇㅣㅈㅣ</w>": 5205,
  "ㅍㅏㅌㅣ": 5329,
  "ov": 5093,
  "ㄱㅕㅇㅁㅏ": 13713,
  "ㄱㅠㄴ</w>": 7579,
  "ㅅㅡㅋㅜㄹ": 14968,
  "ㄱㅏㄹㅜ</w>": 13907,
  "ㅈㅔ</w>": 491,
  "ㅎㅕㄴㅇㅢ</w>": 13072,
  "ㅇㅚㅇㅔㄷㅗ</w>": 5078,
  "ㄱㅓㄹㅇㅓ</w>": 10855,
  "ㅁㅏㄶㅅㅡㅂㄴㅣㄷㅏ</w>": 6664,
  "ㄷㅜㅅㅏㄴ": 13551,
  "Win": 15474,
  "ㅎㅏㄴㅔㅇㅛ</w>": 4271,
  "ㅍㅕㅇㄹㅗ</w>": 8127,
  "ㄹㅔㅅ</w>": 9045,
  "ㄹㅓㅅㅣㅇㅏ</w>": 4765,
  "ㄱㅘㅈㅓㅇ</w>": 2617,
  "ory</w>": 4658,
  "afe</w>": 11053,
  "ㅇㅗㄹㅐㅅㄷㅗㅇㅇㅏㄴ</w>": 7925,
  "ㅊㅐㄴㅓㄹ": 5023,
  "ㅇㅏㄱㅏㅆㅣ</w>": 9259,
  "ㅇㅕㄴㅇㅐ": 6972,
  "ㅎㅘㄹㅅㅓㅇㅎㅘ": 6101,
  "ㅉㅗㅊ": 7740,
  "ㅅㅣㅍㄴㅔㅇㅛ</w>": 11597,
  "ㅈㅜㅇㅇㅔㅅㅓㄷㅗ</w>": 8922,
  "ㅍㅛㅎㅕㄴ": 2102,
  "ㅎㅘㄴㅈㅏㅇㅢ</w>": 10947,
  "ㅇㅓㄷㅜ": 4714,
  "ㅅㅣㄴㅊㅓㅇ</w>": 2939,
  "ac": 1101,
  "---</w>": 13367,
  "ㅂㅗㅎㅗㅇㅔ</w>": 14257,
  "ㅋㅓㄴㅅㅔㅂ": 13277,
  "ㅇㅏㅍㅅㅓ": 13704,
  "ㄴㅡㄹㅇㅓ": 7027,
  "ㄱㅐㄹㄹㅓㄱㅅㅣ</w>": 8061,
  "ㅇㅏㄹㅇㅏㅂㅗ": 7487,
  "ㅎㅚㅇㅝㄴㅇㅡㄴ</w>": 7637,
  "ㅊㅓㄴㅇㅏㄴ": 10475,
  "ㅇㅣㄱㅓㅅㅇㅡㄴ</w>": 3405,
  "ㄱㅘㄴㅈㅓㅁㅇㅔㅅㅓ</w>": 9458,
  "ㅁㅠ": 2960,
  "ㅅㅣㅅㅡㅌㅔㅁㅇㅢ</w>": 8653,
  "ㅎㅐㅆㄴㅡㄴㅈㅣ</w>": 8966,
  "ㅅㅜㄹㅕㅇ</w>": 12123,
  "ㄱㅜㅇㄱㅡㅁㅎㅏㄴ</w>": 4175,
  "ㄴㅏㄹㅇㅔㄴㅡㄴ</w>": 16363,
  "ㄷㅚㅇㅓㅆㄴㅡㄴㄷㅔ</w>": 10676,
  "ㅎㅘㄱㅅㅣㄹ": 2733,
  "ㅍㅣㄹㄹㅣㅍㅣㄴ": 12369,
  "ㅈㅗㅇ": 558,
  "ㅎㅗㄹㅇㅔㅅㅓ</w>": 12727,
  "ㅈㅗㅇㄱㅛ": 3923,
  "ㅁㅏㄴㄴㅏ": 2078,
  "ㄴㅐㄹㅕ</w>": 10069,
  "La": 12126,
  "ㄷㅡㄹㅓ": 2526,
  "ㅇㅖㅈㅓㅇ": 2051,
  "ㄲㅡㄶㅇㅣㅁㅇㅓㅄㅇㅣ</w>": 9133,
  "cl": 6798,
  "ㅘㅇ": 9352,
  "2ㅊㅏ": 10228,
  "ㄸㅟㅇㅓㄴㅏㄴ</w>": 5707,
  "ㅂㅜㄹㅡㄴㄷㅏ</w>": 16116,
  "ㅇㅣㅅㅏㅇㅇㅣㄴ</w>": 15668,
  "ㅈㅗㅇㅁㅗㄱ</w>": 15222,
  "ㅎㅘㄴㅂㅜㄹ</w>": 8891,
  "ㅇㅕㅇㅎㅑㅇㅇㅡㄹ</w>": 2661,
  "ㄱㅛㄱㅘㅅㅓ</w>": 13753,
  "ㅎㅚㄹㅡㄹ</w>": 3110,
  "ㄷㅏㄹㅡㄴ": 4211,
  "port</w>": 7288,
  "ㅁㅏㄹㅆㅡㅁㅇㅡㄹ</w>": 5685,
  "ㄱㅗㄱㅐㄱㄴㅣㅁㅇㅢ</w>": 9566,
  "ㄱㅏㅈㅗㄱ": 1616,
  "ㅎㅘㅎㅏㄴㅡㄴ</w>": 12063,
  "ㄱㅘㅈㅔ</w>": 6137,
  "ㅍㅡㄹㅏ": 3462,
  "ㅇㅕㄴㄱㅡㄱ</w>": 11685,
  "ㅅㅜㄱㅂㅏㄱ</w>": 3972,
  "ㄷㅡㅂㄴㅣㄷㅏ</w>": 7976,
  "Ob": 13287,
  "ㅁㅗㄹㅡㄱㅗ</w>": 7910,
  "ㄹㅣㄱ</w>": 8010,
  "ㅋㅓㄴㅔㄱ": 12010,
  "ㅎㅏㄱㅅㅡㅂ</w>": 5038,
  "ㅁㅏㅋㅡ": 9027,
  "ㅈㅏㄱㅣㅅㅗㄱㅐ</w>": 15397,
  "ㅎㅏㄱㅣㄴ</w>": 8846,
  "ㅔㄴ</w>": 9120,
  "4ㅎㅚ</w>": 16048,
  "ㅅㅓㅇㅇㅡㄹ</w>": 1185,
  "ㄱㅗㄴ": 2785,
  "ㅎㅐㄴ": 2901,
  "ㅅㅣㄱㅏㄴ": 750,
  "ㅅㅣㄱㅏㄴㅇㅡㄹㅗ</w>": 15261,
  "ㅇㅕㅇㄱㅜㄱ</w>": 3877,
  "IO": 14507,
  "46": 7216,
  "ㄱㅓㅁㅅㅐㄱ": 2091,
  "ㅇㅣㄱㅓㅅㄷㅗ</w>": 12841,
  "ㄹㅏㅇㅣㅌㅡ</w>": 7855,
  "MT": 15812,
  "ㄱㅗㅅㅇㅔ</w>": 2633,
  "ㅇㅕㄹㅗㄴ": 9592,
  "ㅂㅐㅈㅔ": 12283,
  "ㄱㅐㅇㅣㄴㅈㅓㅇㅂㅗㅇㅢ</w>": 7062,
  "ㄹㅣㄹ": 4974,
  "ㄱㅗㅇㅈㅜㅇ": 12879,
  "ㅅㅓㅆㄷㅏ</w>": 11088,
  "ㅂㅗㄹㅡㄹ</w>": 7572,
  "ㄱㅗㅇㅔㅅㅓ</w>": 3057,
  "ㅂㅓㅂㅇㅣ</w>": 6480,
  "ㅇㅝㄴㅈㅏㄱ": 15155,
  "ㄱㅣㅎㅚ</w>": 10346,
  "ㄱㅗㅈㅏ</w>": 4111,
  "ㅎㅛㄱㅘㅈㅓㄱㅇㅡㄹㅗ</w>": 11699,
  "ㅎㅏㄷㅡ": 7039,
  "ㅂㅏㄹㅁㅐ": 9781,
  "ㄱㅣㅁㅎㅐ": 14183,
  "ㅍㅏㅇㅣㄹㅇㅢ</w>": 12663,
  "ㅍㅕㅇㄱㅏㄹㅡㄹ</w>": 7479,
  "49": 6908,
  "1": 14,
  "ㅇㅣㄱㅗㅅㅇㅡㄴ</w>": 13693,
  "ㅊㅏㄱㅇㅛㅇ": 6722,
  "ㅎㅐㅇㅇㅟㄴㅡㄴ</w>": 15978,
  "ㅈㅜㅁㅕㄴ</w>": 7069,
  "ㅁㅏㅈㅜ": 8603,
  "ㄷㅓㅂㅜㄹㅇㅓㅁㅣㄴㅈㅜㄷㅏㅇ</w>": 13977,
  "Re": 2534,
  "ㅌㅏ": 518,
  "ㄱㅏㅇㅜㄴ</w>": 9288,
  "ㄴㅐㄹㅕㅇ": 7033,
  "ㅇㅏㄱㅅㅓㅇ": 12367,
  "ㅈㅣㄴㅎㅐㅇㅎㅐㅆㄷㅏ</w>": 16162,
  "ㅂㅓㅅ": 2693,
  "ㅅㅓㄹㅊㅣㄹㅡㄹ</w>": 13666,
  "ㅎㅗㅅㅓㄴ</w>": 11959,
  "ㅅㅔㅅㅏㅇㅇㅡㄴ</w>": 12252,
  "ㄸㅢ": 4715,
  "ㅎㅗㅌㅔㄹㅇㅔ</w>": 8931,
  "ㅎㅐㅇㅂㅗㄱㅎㅏㄴ</w>": 4463,
  "ㅇㅣㅎㅜㄹㅗ</w>": 11602,
  "ㅌㅣㅂㅣ": 11479,
  "ㄱㅣㅇㅏ": 13206,
  "ㅂㅜㄴㄷㅡㄹㅇㅡㄴ</w>": 5262,
  "ㅅㅗㅅㅜ": 9651,
  "ㄱㅕㅇㄱㅣㄹㅡㄹ</w>": 4941,
  "ㄱㅘㄴㄱㅘㅇㄱㅐㄱ": 8502,
  "ㄱㅖㅈㅓㄹ</w>": 10471,
  "ㄷㅏㅁㅜㄴㅎㅘ": 15545,
  "ㄸㅐㅇㅔㄴㅡㄴ</w>": 5910,
  "ㅍㅣㅎㅐ</w>": 6924,
  "7</w>": 205,
  "And": 7583,
  "ㄸㅏㄹㅡㅂㄴㅣㄷㅏ</w>": 15901,
  "ㅍㅗㅎㅏㅁ</w>": 2878,
  "ㅅㅣㅇㅗ</w>": 15262,
  "ㅅㅜㄴㅇㅟ": 13968,
  "ㅇㅏㅁㅔㄹㅣㅋㅏㄴ": 15176,
  "ㅅㅏㄹㅏㅁㄷㅗ</w>": 6658,
  "IA</w>": 10128,
  "ㅅㅡㅌㅡㄹㅡㄹ</w>": 5440,
  "ㄱㅡㄹㅐㅍㅡㅌㅗㅌㅗ</w>": 9712,
  "uk": 11874,
  "ight": 9391,
  "ㅈㅓㄴㄴㅏㄹ</w>": 13664,
  "ㅇㅎㅏㄴ</w>": 3515,
  "ㄷㅏㅅ": 4605,
  "ㄱㅜㄷㅇㅣ</w>": 6319,
  "ㅏㄹㅣ": 6636,
  "ㅂㅜㅌㅏㄱ</w>": 11353,
  "1ㅇㅣㄹ</w>": 1872,
  "ㅈㅓㄹㅊㅏ</w>": 7562,
  "ㅂㅐㄱㅕㅇ</w>": 5389,
  "ㄷㅗㅇㅢ</w>": 1509,
  "ㅈㅣㅅㅣㄱㅇㅡㄹ</w>": 8471,
  "ㄲㅏㄹ</w>": 15042,
  "for": 3279,
  "ㄱㅘㄷㅗ": 9875,
  "ㅈㅜㅌㅐㄱ": 3526,
  "ㅎㅏㄱㅈㅓㄱ</w>": 4667,
  "ㅎㅏㅂㄹㅣ": 5193,
  "ㅎㅐㄱㅅㅣㅁ": 4627,
  "ㄱㅜㄴㄱㅘ</w>": 15014,
  "ㅋㅣㅅ</w>": 15507,
  "ㄹㅗㄹㅡㄹ</w>": 4396,
  "ㄱㅡㅂ": 773,
  "ㄱㅏㅇㅎㅘ</w>": 5367,
  "ㅂㅜㄹㅁㅏㄴ": 12752,
  "ㅈㅓㅇㅇㅐㄱ</w>": 4734,
  "f</w>": 158,
  "ㅅㅜㅇㅝㄴ</w>": 8881,
  "ㅎㅣㅂ": 9688,
  "ㄱㅗㄹㅍㅡ</w>": 6378,
  "ㅇㅣㅆㅇㅡㅁㅕㄴ</w>": 2999,
  "ㄱㅣㄹㄹㅐ</w>": 10990,
  "ㅇㅏㄶㄷㅏ</w>": 3171,
  "ㄱㅏㅈㅏㅇ</w>": 784,
  "ㅇㅡㄹㅗ</w>": 354,
  "ㅇㅓㅄㅈㅣ</w>": 12859,
  "PV": 14914,
  "4ㄱㅏㅇ</w>": 15380,
  "ㅇㅓㄹ": 732,
  "ㅎㅣㄱㅣ</w>": 16348,
  "24ㅇㅣㄹ</w>": 7638,
  "ㅇㅜㄴㅇㅕㅇㅇㅔ</w>": 14149,
  "ㅂㅜㅌㅓ</w>": 702,
  "2006ㄴㅕㄴ</w>": 10181,
  "ㄹㄹㅣㄴ": 11010,
  "ㅍㅛㅅㅣ</w>": 3766,
  "ㅁㅐㅇ</w>": 7137,
  "art</w>": 11564,
  "ㅇㅓㅄㅇㅡㅁㅕ</w>": 5420,
  "ㄷㅏㄹㅡㄴㅇㅣㄴㅈㅗㅇㄱㅏㄴ</w>": 11212,
  "ㅍㅓㅅㅔㄴ": 6130,
  "ㅈㅓㅇㅅㅏㅇㅈㅓㄱㅇㅣㄴ</w>": 9942,
  "ㅇㅠㅇㅣㄱ": 11054,
  "ㅈㅜㅅㅣㄱㅎㅚㅅㅏ</w>": 13597,
  "3ㅇㅣㄹ</w>": 5019,
  "ㅈㅣㄹㅁㅜㄴ": 2655,
  "ㅍㅏㅇㅣㄴ": 7146,
  "ㅋㅗㅇ</w>": 5939,
  "ㅅㅓㄴㅊㅏㄱ": 12455,
  "ㅋㅗㄷㅡㄱㅏ</w>": 16366,
  "ㅗㅇㅢ</w>": 2961,
  "ㅈㅔㅈㅜ": 2768,
  "ㅍㅏㅅ</w>": 16126,
  "ㄱㅡㄹㅔㅇㅣ</w>": 10337,
  "ㅇㅢㅁㅜ</w>": 9398,
  "ㄱㅛㅊㅔ</w>": 9282,
  "ㅊㅣㅁㅕ</w>": 9883,
  "ㅍㅕㄴㅇㅏㄴ": 3473,
  "ㄲㅡㅌㅇㅡㄹㅗ</w>": 14254,
  "Google</w>": 8105,
  "ㄱㅡㄷㅐ": 9142,
  "ㅇㅜㅇㅏ": 14680,
  "4ㄴㅕㄴ": 7937,
  "ㅅㅐㅇㅁㅕㅇㅇㅢ</w>": 12565,
  "ack": 5869,
  "ㅂㅗㅅㅏㅇ": 8143,
  "aw": 8413,
  "ㅍㅏㄴㄹㅖ</w>": 14410,
  "jo": 9481,
  "ㅁㅗㄱ</w>": 1514,
  "ㅍㅣㅇㅓ": 13264,
  "ㅅㅏㄱㅘ</w>": 11930,
  "ㅇㅐㄴㅣㅁㅔㅇㅣㅅㅕㄴ</w>": 7837,
  "ㅠㅅㅡ</w>": 11013,
  "ㅌㅓㄹㅗ</w>": 9603,
  "ㅇㅓㄷㅡㅂㅏㅇㅣ": 6081,
  "ㄱㅜㄱㅁㅣㄴㅇㅢ</w>": 7329,
  "ㅅㅣㄱㅅㅏ": 11846,
  "ㅁㅜㅅㅓㄴ": 7406,
  "Vis": 12493,
  "ㅁㅏㅇㅡㅁㅇㅢ</w>": 9520,
  "ㅍㅕㄴㅎㅏㄴ</w>": 14858,
  "ㅂㅜㄴㅅㅓㄱ</w>": 1392,
  "ㄴㅡㄹㄱㅗ</w>": 13576,
  "ㄴㅏㅌㅏㄴㅏㅆㄷㅏ</w>": 8126,
  "ㅂㅐㄱㄱㅘ": 4529,
  "ㅈㅓㄴㅇㅝㄴ": 9650,
  "ㅎㅐㅅㅓㄱ": 4835,
  "ㅈㅓㅇㄷㅗㅇㅢ</w>": 5178,
  "ㄱㅗㄷㅗㅇㅢ</w>": 7834,
  "ㅂㅜㅈㅏㄱㅇㅛㅇ": 11285,
  "ㅆㄷㅏㄱㅗ</w>": 2232,
  "ㅏㅇㅗ": 13743,
  "ㅏㄷㅗ</w>": 4825,
  "ㅇㅣㅆㅇㅓㅆㅇㅡㄹ</w>": 15017,
  "ㄷㅏㅇㅣㅇㅏㅁㅗㄴ": 14449,
  "ㅎㅕㄴㅅㅣㄹㅈㅓㄱㅇㅡㄹㅗ</w>": 15247,
  "ㅂㅜㅇㅕ": 4710,
  "ㄱㅗㄱㅐㄹㅡㄹ</w>": 10290,
  "ㄴㅏㄴㅝ": 5821,
  "ㄷㅐ": 314,
  "ㅅㅟㅇㅜㄴ</w>": 3717,
  "ㅇㅏㅍ": 862,
  "ㅁㅗㅇㅣㄴ</w>": 13045,
  "ㅇㅢㅎㅗㄱ": 9106,
  "ㄱㅏㅄㅇㅡㄹ</w>": 5682,
  "ㄸㅏㄸㅡㅅㅎㅏㄱㅔ</w>": 16014,
  "ㅎㅏㅇㅕㅆㅅㅡㅂㄴㅣㄷㅏ</w>": 3054,
  "ㅇㅕㅅㅓㅅ</w>": 15492,
  "ㅅㅏㅇㅛㅇㅎㅐㅇㅑ</w>": 15228,
  "ㄱㅛㅂㅗㅁㅜㄴ": 3049,
  "ㅈㅣㄷㅗ": 3441,
  "ㄱㅓㄴ": 481,
  "ㅈㅜㅇㄷㅗㄱ": 6967,
  "ㅇㅗㄷㅣ": 7880,
  "ㅎㅘㅎㅏㄹ</w>": 15197,
  "ㄱㅖㅅㅏㄴ</w>": 11628,
  "ㅈㅓㅇㄱㅝㄴ</w>": 13990,
  "ㅂㅏㄹㄱㅜㄹ": 12372,
  "AR</w>": 10854,
  "ㄱㅜㅎㅏㄴㅡㄴ</w>": 11330,
  "ㅎㅐㅇㅇㅡㄹ</w>": 5380,
  "ㄹㅔㅍㅗㅌㅡㅇㅝㄹㄷㅡ</w>": 8323,
  "ㅅㅣㅅㅓㄹㅇㅢ</w>": 9687,
  "ㅇㅓㄹㅣㄴㅇㅣ": 4066,
  "work</w>": 10944,
  "UC": 15136,
  "ㅁㅕㅇㄹㅕㅇ</w>": 13310,
  "ㅁㅗㄹㅇㅏ": 15448,
  "ㅈㅜㅈㅔㄹㅡㄹ</w>": 14159,
  "ㅅㅏㄹㅏㅁㅇㅡㄹㅗ</w>": 13504,
  "ㅎㅕㄴㅈㅐㅇㅢ</w>": 7181,
  "ㅎㅘㄴ</w>": 1573,
  "ㅎㅏㄴㄱㅓㄴ</w>": 16263,
  "ㅎㅏㄹㅜ</w>": 2485,
  "ㅈㅣㄱㅇㅡㄹ</w>": 10113,
  "ㄸㅏㄸㅡㅅ": 6931,
  "ㅂㅣㄱㅔㅇㅣ": 13705,
  "13</w>": 2611,
  "ㅊㅓㄹㅣ</w>": 3197,
  "23</w>": 3965,
  "ㅇㅕㄴㄱㅜㅇㅔ</w>": 15853,
  "ㅇㅓㅁㅓㄴㅣㄱㅏ</w>": 15323,
  "ㄷㅡㄹㅈㅣ</w>": 10351,
  "ㅌㅐㄱㅝㄴ": 9871,
  "str": 4301,
  "ㄱㅏㅅㅡ": 1079,
  "ㄸㅐㅁㅜㄴ</w>": 9996,
  "5ㅂㅜㄴ</w>": 9359,
  "ㅌㅏㄹ</w>": 4070,
  "vide": 7896,
  "AR": 3799,
  "ER</w>": 7917,
  "ㅇㅖㅅㅏㅇ": 2842,
  "ㄷㅡㄷ": 1937,
  "ㄴㅏㅁㅈㅏㅇㅢ</w>": 12771,
  "ㅎㅡㅂ": 2788,
  "AW": 8476,
  "ㅇㅝㄹ</w>": 582,
  "ㅈㅣㄴㅏㄴㅎㅐ": 10534,
  "ㄱㅏㄴㅇㅡㄹ</w>": 14566,
  "ㅎㅕ": 509,
  "ㅂㅏㄷㅇㅏ": 2429,
  "ㅇㅗㄴㄹㅏㅇㅣㄴㅇㅔㅅㅓ</w>": 13799,
  "ㅇㅗㄹㄹㅣㄱㅗ</w>": 10138,
  "Pr": 7594,
  "ㅅㅜㅁㄱㅕㅈㅣㄴ</w>": 11040,
  "ㅇㅘㄴㅈㅓㄴ</w>": 6179,
  "one": 14624,
  "ㅁㅣㅅㅓㅇ": 12282,
  "ㅇㅣㅇㅠㄱㅏ</w>": 4712,
  "ㄷㅐㅎㅐㅇ": 11772,
  "ㄱㅔㅅㅡㅌㅡ": 11707,
  "ㅇㅔㄱㅔㄴ</w>": 9494,
  "ㄸㅔ": 5523,
  "ㅅㅣㄹㅇㅢ</w>": 10839,
  "ㅅㅗ</w>": 680,
  "ㅇㅟㄹㅡㄹ</w>": 2009,
  "ㅅㅣㄹㅎㅓㅁㅇㅡㄹ</w>": 13854,
  "ㄴㅏㄲㅅㅣ": 9798,
  "ㄸㅡㄴㅡㄴ</w>": 8036,
  "ㅁㅗㄷㅔㄹㅇㅡㄴ</w>": 12818,
  "g</w>": 193,
  "ㅅㅏㅇㅛㅇㅇㅡㄴ</w>": 15439,
  "ㄱㅓㅅㅇㅣㄴㅈㅣ</w>": 6234,
  "ㅌㅡㄱㅈㅣㅇ</w>": 5346,
  "ㅁㅗㅇㅢ</w>": 4698,
  "ㅌㅡ</w>": 476,
  "ㅊㅣㅈㅡ</w>": 14721,
  "ㅈㅓㅇㅊㅐㄱㅇㅔ</w>": 9547,
  "ㅌㅏㄱ": 1527,
  "ㅇㅣㅆㄷㅏ</w>": 479,
  "our": 5231,
  "ㅂㅏㄷㅇㅡ": 3765,
  "ㅎㅏㅅㅣㅂㄴㅣㄷㅏ</w>": 14162,
  "ㅍㅐㅂㅐ": 11567,
  "ㅉㅣㄱ": 1923,
  "to</w>": 2079,
  "ㄹㅏㅇㅣㅂㅡ</w>": 6828,
  "ㅏㄴㅎㅣ</w>": 9217,
  "ㅍㅓㄴㄷㅡ</w>": 10281,
  "ㅈㅏㅇㅔ</w>": 2882,
  "ㄱㅣㄹㅗㄱㅎㅏㄴ</w>": 10376,
  "SM": 4719,
  "ㅂㅏㄷㅇㅡㄹ": 15873,
  "ㅎㅏㄱㄱㅛㅇㅔㅅㅓ</w>": 8478,
  "ㅅㅏㄴㅇㅔㅅㅓ</w>": 16125,
  "ㅇㅓㅆㅇㅓㅇㅛ</w>": 8975,
  "ㅅㅞ": 5583,
  "ㅁㅐㅇ": 3761,
  "JT": 14640,
  "5ㄴㅕㄴㄱㅏㄴ</w>": 15305,
  "ㄷㅐㄱㅜ</w>": 5383,
  "ㅇㅢㄱㅕㄴㅇㅡㄹ</w>": 5526,
  "ㅎㅓㄱㅏ</w>": 10774,
  "ㄴㅏㄹㅇㅣ</w>": 6196,
  "ㅇㅣㄹㅅㅣ</w>": 13571,
  "ㅈㅗㄱㅡㅁㅇㅣㄹㅏㄷㅗ</w>": 14884,
  "ㅈㅔㄱㅓ": 4240,
  "ㅎㅕㄴㅎㅘㅇㄱㅘ</w>": 14926,
  "ㅍㅔㄹㅡ": 14438,
  "ㅌㅔ": 473,
  "ㅈㅣㄴㅎㅏㄱ": 15388,
  "ㅁㅗㅇㅑㅇ": 3412,
  "ㅇㅣㅌㅏㄹㄹㅣㅇㅏ</w>": 7041,
  "ㄱㅓㅅㄷㅡㄹㅇㅡㄹ</w>": 6954,
  "ㄱㅜㄷㅜ": 10721,
  "ㅇㅗㄹㅐㄴ": 6823,
  "\u001d</w>": 260,
  "ㅇㅕㄴㅅㅏㄴ": 15763,
  "ㄹㅑㅇㅇㅡㄹ</w>": 4912,
  "ㄱㅏㅇㅅㅜㄹㅑㅇ": 14292,
  "ㅋㅣ</w>": 1614,
  "ㅅㅣㄷㅐㅇㅔ</w>": 7777,
  "ㄴㅜㄱㅜㄴㄱㅏ</w>": 11609,
  "ㄱㅕㅇㅎㅓㅁ": 1870,
  "op": 3040,
  "ㅇㅔㅇㅓㅋㅓㄴ": 15465,
  "ㄹㅔㅈㅡㅂㅣㅇㅓㄴ</w>": 4198,
  "ㅎㅐㅇ</w>": 834,
  "ㄷㅏㅂㄱㅔ</w>": 8763,
  "tits</w>": 15971,
  "1ㅇㅣㄹㅇㅔ</w>": 15576,
  "ㅅㅡㅌㅠㄷㅣㅇㅗ</w>": 9648,
  "deep": 13515,
  "ㄱㅣㄴㅈㅏㅇ": 9673,
  "ㅎㅏㅇㅁㅗㄱ": 5361,
  "ㅍㅗㅎㅏㅁㅎㅏㄴ</w>": 4895,
  "ㅍㅕㅇㄱㅏㅇ": 15846,
  "ㄱㅣㅌㅏ</w>": 1534,
  "ㅁㅏㄴㅎㅘ": 8742,
  "ㄷㅜㅅㅏㄴ</w>": 14632,
  "ㅅㅑ</w>": 16163,
  "ㅈㅣㄴㅡㅇ": 9385,
  "ㅂㅏㄷㅏㄱㅇㅔ</w>": 12204,
  "ㅅㅓㄴㅅㅐㅇㄴㅣㅁ</w>": 6682,
  "ㄱㅏㄴㅡㅇ</w>": 1877,
  "ㅇㅛㅇㅑㄱㅅㅓㄹㅁㅕㅇ</w>": 14469,
  "ㅊㅏㅇㅈㅏㄱ": 9670,
  "ㄱ": 83,
  "ㅇㅣㅇㅣㄱ</w>": 14035,
  "deepthro": 13689,
  "ㅇㅑㅇㅇㅡㄴ</w>": 15820,
  "ㅇㅢㅁㅣㄹㅗ</w>": 15628,
  "ㅁㅗㄹㅡㄱㅔㅆㅅㅡㅂㄴㅣㄷㅏ</w>": 12329,
  "ㄱㅏㄴㅡㅇㅅㅓㅇㅇㅡㄹ</w>": 8454,
  "ㅎㅏㅇㅅㅏㅇ</w>": 2185,
  "ㅍㅏㅋㅡ": 11546,
  "ㅇㅗㄹㅎㅐㅇㅢ</w>": 15934,
  "ㅈㅜㅇㅓㄹ": 13172,
  "ㅍㅡㄹㅗㅇㅑ": 9649,
  "2004ㄴㅕㄴ</w>": 11702,
  "ㅇㅏㄶㄱㅔㅆ": 11384,
  "ㅇㅗㅅㅣㄴ</w>": 13845,
  "ㄴㅗㄹㅕㄱㅇㅣ</w>": 12390,
  "ㅈㅓㅇㄷㅏㅇ</w>": 14002,
  "ㄱㅓㅊㅕ</w>": 6476,
  "ㅈㅔㅍㅜㅁㅇㅡㄹㅗ</w>": 12144,
  "ley</w>": 13622,
  "ㅂㅣㅂㅏㅇㄱㅡㄹ</w>": 5289,
  "ㅈㅗㅎㅇㅏㅅㅓ</w>": 11747,
  "ㅈㅡㄹ</w>": 14531,
  ")/</w>": 11064,
  "ㅂㅓㅂㅊㅣㄱ": 14629,
  "ㅎㅚㄱㅖ": 6981,
  "al": 984,
  "ㄹㄹㅏ</w>": 8518,
  "ㅅㅣㅂㅅㅣㅇㅗ</w>": 4498,
  "ㅍㅗㄱㅘㄹ": 13482,
  "ㄷㅡㄹㅏㅇㅣㅂㅡ": 15212,
  "ㅅㅑㅇㅝ</w>": 8865,
  "TR": 10107,
  "ㅁㅗㅁ": 2500,
  "ㅍㅣㄹㄹㅣㅍㅣㄴ</w>": 9273,
  "ㅅㅐㅇㄱㅏㄱㅇㅡㄹㅗ</w>": 15625,
  "ㅎㅚㅅㅏㄴㅡㄴ</w>": 3496,
  "ㅅㅟㅂ": 2005,
  "ㅁㅏㄶㅇㅏ</w>": 7507,
  "ㅅㅡㅋㅡ": 4696,
  "ㄱㅏㅁㅈㅓㅇㅇㅡㄹ</w>": 10133,
  "ㅇㅖㅃㅓ": 15093,
  "ㅅㅏㄹㅇㅏㄴ": 6741,
  "ㄹㅣㄱㅡ": 4839,
  "ㅇㅏㄹㄱㅗㄹㅣㅈㅡ": 12569,
  "ㄱㅣㅇㅓㄱ": 2220,
  "ㅇㅢㅁㅣㅎㅏㅂㄴㅣㄷㅏ</w>": 10396,
  "ㄱㅡㄹㄹㅗㅂㅓㄹ": 8306,
  "ㅍㅜ</w>": 13024,
  "ㅁㅐㄴ": 1948,
  "ㅅㅓㅇㅈㅓㄴㅎㅘㄴ</w>": 14549,
  "ㅈㅏㅇㄱㅣ": 3722,
  "ㅌㅡㅇㅔ</w>": 3651,
  "ㅅㅏㄻ</w>": 8152,
  "ㄱㅏㄹㅏ</w>": 11370,
  "ㅋㅡㄹㄹㅏㅇㅣㅇㅓㄴ": 7238,
  "ㄷㅗㄱㅈㅜ</w>": 15986,
  "ㅈㅓㄱㅇㅡㄹㅗ": 11576,
  "ㅈㅗㅇㄹㅗㄱㅜ</w>": 16006,
  "ㅈㅗㅎㄷㅏㄱㅗ</w>": 9926,
  "ㅊㅏㄷㅏㄴ</w>": 10609,
  "ㅇㅣㄴㅇㅝㄴ</w>": 10146,
  "V": 47,
  "ㅂㅓ</w>": 1626,
  "ㄹㅛㅇ</w>": 11083,
  "ㄱㅖㅈㅓㅇ</w>": 6824,
  "42</w>": 8073,
  "ㄷㅐㄱㅣ</w>": 6612,
  "ㅇㅏㄴㅌㅔ": 16284,
  "ㅎㅕㅂㅅㅏㅇ</w>": 15301,
  "ㄱㅣㄹㅇㅡㄴ</w>": 9985,
  "ㅎㅓㅁ</w>": 1208,
  "ㄷㅐㄹㅑㄱ</w>": 10758,
  "ㄱㅗㄹㄷㅡ": 10991,
  "ㅅㅏㅇㅎㅗ": 7646,
  "ㅈㅏㅂㅇㅡㄹ</w>": 8511,
  "ㅈㅣㄱㅇㅝㄴㄷㅡㄹㅇㅡㄴ</w>": 10054,
  "ㄱㅗㄷㅂㅏㄹㅗ</w>": 12375,
  "ㅅㅡ": 285,
  "ist</w>": 11074,
  "JizzBunker</w>": 12083,
  "ㅈㅜㅇㅣㄴ": 6724,
  "ㅁㅠㅈㅣㄱ": 10722,
  "ㅅㅏㅁㅗ": 8358,
  "ㅋㅗㅁ</w>": 10601,
  "ㄱㅕㄲ": 3576,
  "ㅅㅣㄴㅅㅗㄱㅎㅏㄴ</w>": 13761,
  "ㅁㅏㄴㅋㅡㅁ": 12153,
  "ㅆㅓ": 1639,
  "ㄹㅔ</w>": 3241,
  "ㅕㄴ": 316,
  "ㄷㅐㅇㅕ</w>": 15218,
  "ㅁㅗㄱㅏ</w>": 12119,
  "ㅈㅜㅎㅐㅇ": 9306,
  "ㄷㅏㅇㅅㅏ": 6929,
  "ㅃㅗ": 2887,
  "DVD</w>": 7609,
  "ㅊㅣㄴ</w>": 2032,
  "ㅊㅣㅇㅕㄹㅎㅏㄴ</w>": 13932,
  "ㅇㅠㅂㅏㅇ": 15664,
  "ㅈㅔ": 334,
  "ㅅㅣㄱㅗ</w>": 3132,
  ".": 11,
  "ㄱㅡㄹㅐㅍㅡㅅㅏㅇㅣㅌㅡ</w>": 7981,
  "ㅌㅏㅅㅇㅔ</w>": 14369,
  "ㅂㅓㅂㅇㅡㄴ</w>": 6804,
  "ㅇㅠㄴ": 1591,
  "ㅅㅏㅇㅌㅐㄷㅏ</w>": 15556,
  "ㅇㅗㄴ": 898,
  "ㅅㅗㅁㅐ": 15364,
  "ㄷㅗㅇㅜㅁ</w>": 10477,
  "ㅈㅓㄱㅇㅣㄷㅏ</w>": 6252,
  "ㅅㅗㅁㅗ": 8915,
  "ㅎㅗㄴㅏㅁ": 13665,
  "ㅇㅏㄶㄱㅗ</w>": 1407,
  "64</w>": 11639,
  "ㅈㅘ</w>": 5534,
  "ㅅㅣㄹㄹㅗ</w>": 8681,
  "ㅇㅣㅁㅣㄴ": 6688,
  "ㅅㅣㄴㅐ</w>": 9000,
  "ㄱㅕㅇㄱㅣ</w>": 1959,
  "ㄸㅏㄹㅡ": 7248,
  "ㅎㅖㅌㅐㄱ</w>": 7832,
  "ㅎㅏㅇㅑㄴ</w>": 14466,
  "ㅂㅔㄹㅡ": 6926,
  "ㅁㅜㄹㅈㅣㄹ": 5032,
  "ㅌㅗㄹㅗㄱ</w>": 10194,
  "ㄱㅘㄷㅗ</w>": 9007,
  "ㄱㅜㅂㅣ": 13056,
  "ㅅㅣㅅㅡㅌㅔㅁ</w>": 1915,
  "ㅎㅏㄱㅅㅡㅂ": 2648,
  "ㅌㅐㄱㅡㅇㅢ</w>": 5609,
  "ㄱㅠㅈㅔ</w>": 11275,
  "ㅇㅞㅂㅅㅏㅇㅣㅌㅡㅇㅢ</w>": 9479,
  "ㅇㅗㄷㅣㅇㅗ</w>": 8271,
  "ING</w>": 14506,
  "ut</w>": 8106,
  "ㅎㅘㄴㅡㄴ</w>": 7265,
  "ot": 1934,
  "BR": 13318,
  "ㅎㅏㄴㄲㅓㅂㅓㄴㅇㅔ</w>": 14940,
  "ㅎㅚㅇㅢㅅㅣㄹ</w>": 14706,
  "ㅎㅏㅂㅅㅓㅇ": 13536,
  "ㅈㅜㅅㅗ": 10260,
  "ㄴㅠㅇㅛㄱ": 6815,
  "ㅈㅏㅂㅗㄴㅈㅜㅇㅢ</w>": 15361,
  "ㅁㅔㅇㅣㄴ</w>": 5637,
  "ㅊㅓㄹㅣㄹㅡㄹ</w>": 11364,
  "ㄱㅜㅊㅜㄱ</w>": 8035,
  "ㄷㅗㄱㅡ": 14958,
  "ㄴㅜㄹㅣㄹ</w>": 13750,
  "ㅂㅗㅇㅕㅈㅜㅂㄴㅣㄷㅏ</w>": 7483,
  "ㅎㅔㅇㅓ</w>": 11865,
  "ㄱㅜㅇ": 1419,
  "ess": 5192,
  "ㅁㅜㄱㅘㄴ": 14749,
  "ㄴㅗㄹㅕㄱㅎㅏㄱㅗ</w>": 11007,
  "ㅅㅓㄱㅅㅏ</w>": 14237,
  "ㄷㅐㅍㅛㄴㅡㄴ</w>": 7593,
  "ㅅㅡㄹㅔ</w>": 14027,
  "ㅈㅜㅇㅢㅎㅏㅅㅣㅂㅅㅣㅇㅗ</w>": 16254,
  "ㅅㅣㄴㅅㅓㄹ": 16108,
  "ㅇㅕㄹㅓ</w>": 1420,
  "ㄱㅗㅇㅎㅘ": 6586,
  "ㅂㅜㅇㅕ</w>": 14709,
  "ㅎㅏㅎㅏ</w>": 10491,
  "Tech": 16301,
  "ㅇㅞㅂㅌㅜㄴ</w>": 14400,
  "wi": 14095,
  "1ㅂㅜ</w>": 7860,
  "ㅈㅏㄱㅡㄱ": 6335,
  "ㄱㅣㅁ": 679,
  "ㅅㅗㅍㅡ": 1564,
  "ㅁㅏㄹㄷㅗ</w>": 6835,
  "ㅅㅣㅍㅇㅓㅆㄷㅓㄴ</w>": 16349,
  "ㅅㅐㄹㅗㅇㅜㄴ</w>": 1129,
  "ㅅㅏㅇㅇㅟ": 10505,
  "ㄷㅐㅇㅡㅇ</w>": 9565,
  "ㄷㅚㅁㅕㄴㅅㅓ</w>": 4272,
  "ㅇㅓㅂㅁㅜ</w>": 3815,
  "VPorn</w>": 13910,
  "ㅅㅜㅇ</w>": 16192,
  "ㅇㅟㅎㅓㅁ</w>": 9192,
  "ㅅㅣㅅㅓㄹㅇㅡㄹ</w>": 8135,
  "ㅅㅗㄹㄹㅗ</w>": 9873,
  "ㅇㅜㄹㅣㅇㅢ</w>": 2244,
  "ㅇㅣㅂㅇㅡㄹㅗ</w>": 6914,
  "ㄹㅜㄱ</w>": 16357,
  "ㅊㅜㅁ": 11660,
  "ㄷㅚㅇㅓㅆㄷㅏ</w>": 1471,
  "ㅍㅓㅍㅗㅁㅓㄴ": 11860,
  "ㅌㅣㄱ": 12764,
  "RO": 6275,
  "ㅍㅜㅇㅅㅗㄱ": 7240,
  "ㅇㅖㅅㅏㅇ</w>": 7476,
  "ㅊㅏㄹ</w>": 2896,
  "ㄴㅣㄲㅏㅇㅛ</w>": 6141,
  "ad</w>": 3759,
  "ㅁㅣㄷㅣㅇㅓ": 3578,
  "ㅍㅡㄹㅗㄱㅡㄹㅐ": 1018,
  "ㄷㅓㄴㅈㅣ</w>": 11790,
  "ㅎㅘㄹㅡㄹ</w>": 1306,
  "ㄱㅏㄴㅇㅔ</w>": 3445,
  "ㅅㅡㅌㅏㄴ</w>": 12394,
  "thro": 9350,
  "ㄱㅘㄴㄹㅕㄴㅎㅏㅇㅕ</w>": 6525,
  "ㅊㅚ</w>": 3126,
  "ㅇㅏㅁ</w>": 3562,
  "ㅈㅓㅈㅏㄱㄱㅝㄴㅂㅓㅂㅇㅢ</w>": 6885,
  "ㅍㅐㅊㅣ</w>": 12704,
  "ㅍㅕㅇㅎㅘㄹㅡㄹ</w>": 15858,
  "ㅅㅣㄱㅏㄴㅇㅡㄹ</w>": 2033,
  "ㅅㅓㄱㅇㅡㄹ</w>": 4150,
  "ㅈㅓㅇㅍㅜㅁ</w>": 9562,
  "ㅎㅛㅇㅠㄹㅈㅓㄱㅇㅣㄴ</w>": 11777,
  "ㅇㅣㄴㅐㅇㅔ</w>": 5076,
  "ㅇㅗㄴㅡㄹㅇㅡㄴ</w>": 4339,
  "ㅅㅔㄴㅌㅓㅇㅔㅅㅓ</w>": 9628,
  "ㄱㅐㅂㅕㄹ</w>": 7513,
  "ㅇㅖㅇㅑㄱㅎㅏㄹ</w>": 11578,
  "ㅋㅡ": 576,
  "ㅁㅣㅅㅔㅁㅓㄴ": 8716,
  "ㅅㅓㄴㅁㅜㄹㅇㅡㄹ</w>": 12308,
  "AM": 4577,
  "ㅇㅗㄱㅗ</w>": 6873,
  "ㅅㅏㄹㅁㅕㄴㅅㅓ</w>": 14302,
  "ㅆ": 104,
  "ㄲㅘㄱ</w>": 11459,
  "ㅋㅣㅂㅗㄷㅡ</w>": 10903,
  "ㅅㅏㅁㅅㅓㅇㅈㅓㄴㅈㅏ</w>": 8505,
  "ㅅㅏㅇㅅㅏㅇ": 5223,
  "ㅇㅓㄹㅕㅇㅜㄴ</w>": 3118,
  "ㅇㅝㅋㅡ</w>": 14790,
  "ㄱㅓㅅㅇㅣㅁㅕ</w>": 6003,
  "ㅁㅏㅌㄱㅗ</w>": 13842,
  "ㄱㅏㅂㅈㅏㄱ": 11897,
  "ㅅㅏㄹㅇㅏㅆ": 13640,
  "ㅍㅔㅇㅣㅅㅡ</w>": 7469,
  "ㅎㅏㅅㅕㅆㅅㅡㅂㄴㅣㄷㅏ</w>": 8703,
  "ㅁㅜㅅㅏ": 12381,
  "ML": 6775,
  "ㅈㅓㄴㅈㅏㅅㅏㅇㄱㅓㄹㅐ</w>": 13987,
  "ㄷㅓㄱㅇㅔ</w>": 15483,
  "Fl": 8309,
  "ㅇㅣㅂㄹㅕㄱ": 2440,
  "out</w>": 9344,
  "ㅁㅏㄴㅇㅝㄴㅇㅡㄹ</w>": 10206,
  "ㅇㅚㅅㅣㄱ": 15969,
  "11ㅅㅣ</w>": 14121,
  "ㅇㅏㅂ</w>": 6810,
  "ㅎㅏㄴㅏㅇㅢ</w>": 2893,
  "ㅈㅏㄹㅛㅇㅘ</w>": 5252,
  "ㅇㅠㅇㅎㅏㅂ": 10327,
  "ㅇㅕㄴㅇㅖㅇㅣㄴ</w>": 12544,
  "ㄱㅕㅇㅈㅔ": 1415,
  "ㄴㅐㅇㅛㅇ</w>": 1938,
  "ㅇㅏㄴㅈㅓㄴ": 1525,
  "ㅜㄹ": 297,
  "ㅂㅏㅋㅏㄹㅏ</w>": 10071,
  "ㅈㅜㅈㅏㅇ</w>": 13461,
  "(?)</w>": 3795,
  "ㅂㅗㄹㄴㅔㅅ</w>": 9434,
  "ㅇㅠㅎㅐ": 12165,
  "ㄱㅣㅁㅏㄴ</w>": 5571,
  "ㅇㅣㄴ": 318,
  "ㅇㅕㄹㄹㅣ": 12064,
  "ㄱㅣㅂㅜㄴㅇㅣ</w>": 7279,
  "ㅇㅣㄹㄹㅣ</w>": 9889,
  "ㅅㅔㅅㅏㅇㅇㅔ</w>": 5502,
  "ㅂㅣㅌㅏ": 6425,
  "ㄴㅏㅌㅏㄴㅏ": 3406,
  "ㅈㅜㅅㅕㅆ": 11704,
  "ㅅㅗㅂㅣ</w>": 14510,
  "ㅅㅕㅅㅓ</w>": 2098,
  "ㅅㅣㅎㅐㅇ": 3219,
  "ㄷㅐㅎㅚ": 3633,
  "ㅅㅡㅍㅔㄱ": 10604,
  "ㅎㅘㄱㅇㅣㄴㅎㅏㅅㅣㄹ</w>": 9066,
  "ㅍㅓㄴ": 3206,
  "UP</w>": 15856,
  "ㅋㅠ</w>": 8025,
  "ㅇㅔㄴㅌㅓㅌㅔㅇㅣㄴㅁㅓㄴㅌㅡ</w>": 11672,
  "ㅇㅗㅇㅣㄹ</w>": 9414,
  "ㅅㅏㄱㅈㅔㅎㅏㄴ</w>": 10200,
  ")-</w>": 7013,
  "ㅅㅡㅍㅗㅊㅡㅌㅗㅌㅗ</w>": 15747,
  "ㅇㅣㄺ": 1196,
  "ㅇㅕㅇㅇㅕㄱ</w>": 8684,
  "ㅎㅏㄴㅡㄴㅂㅓㅂ</w>": 7978,
  "ㅉㅗㄱㅇㅣ</w>": 11143,
  "ㅁㅐㅊㅜㄴ": 12251,
  "ㄱㅏㅇㅇㅕㄴ": 13927,
  "ㅎㅐㅂㅗㅅㅔㅇㅛ</w>": 7433,
  "Br": 6572,
  "ㅇㅣㅂㅈㅏㅇ": 3643,
  "ㅅㅟㄹ</w>": 15652,
  "ㅆㅓㄹ": 13346,
  "ㅁㅏㄹㅇㅣ</w>": 2978,
  "ㅇㅣㄴㅁㅜㄹ</w>": 9107,
  "ㄱㅜㄱㄴㅐ": 2417,
  "ㅊㅐㄱㅝㄴ": 8285,
  "...": 8815,
  "ㅂㅣㅈㅓㄴ</w>": 9009,
  "ㄴㅑ</w>": 7164,
  "ㅂㅜㄴㄷㅡㄹㄷㅗ</w>": 9738,
  "1ㅂㅜㄴ</w>": 12678,
  "ible</w>": 16329,
  "ㄱㅏㅈㅊㅜㄱㅗ</w>": 7902,
  "ㅇㅏㄶㅇㅏㅆㅅㅡㅂㄴㅣㄷㅏ</w>": 6533,
  "ㅎㅏㅂㅂㅕㅇ": 13037,
  "ㄹㅕㄱㅇㅢ</w>": 7555,
  "ㅈㅏㄹ</w>": 824,
  "ㅁㅏㅇㅡㅁ": 1059,
  "ㅈㅗㅈㅣㄱㅇㅢ</w>": 10662,
  "ㅅㅓㄹㅣ</w>": 11529,
  "ㅂㅓㅁㅈㅚ": 4429,
  "ㅅㅇㅡㄹ</w>": 1474,
  "ㅈㅣㅈㅣ</w>": 2189,
  "ㅎㅏㄱㅔㅆㄷㅏㄴㅡㄴ</w>": 8412,
  "ㅇㅣㄹㅂㅜㄹㅓ</w>": 14817,
  "ㅊㅣㅁ</w>": 1918,
  "ㅊㅏㅁㄱㅏ": 3001,
  "ㄴㅣㄱ": 7589,
  "ㅆㅗㄷㅇㅏ": 9366,
  "ㄱㅘㅎㅏㄱㄱㅣㅅㅜㄹ": 9507,
  "ㄱㅜㅇㅝㄴ": 9103,
  "ㄱㅗㅇㄹㅑㄱ</w>": 14421,
  "LO": 5936,
  "ㄱㅏㄲㅡㅁ</w>": 6232,
  "ㅋㅡㄹㅜ": 7258,
  "ㅅㅓㅇ": 357,
  "ㅂㅏㄹㅏㅁㅇㅔ</w>": 10585,
  "ㅎㅕㅇㅇㅡㄹㅗ</w>": 11947,
  "ㅇㅕㄱㅇㅡㄹ</w>": 7287,
  "ㄱㅏㄷㅡㄴ</w>": 15085,
  "ㄴㅏㅇㅗㅂㄴㅣㄷㅏ</w>": 10184,
  "ㄴㅏㅁㄴㅕ</w>": 12095,
  "right</w>": 15488,
  "ps</w>": 4566,
  "ㅂㅏㄴㅁㅕㄴ</w>": 4399,
  "ㅇㅔㅁㅏㄴ</w>": 3594,
  "ㅇㅣㅇㅜㅅ": 7257,
  "6ㅇㅝㄹ</w>": 3165,
  "ㅇㅣㄹㅅㅜㄹㅗㄱ</w>": 15112,
  "ㅍㅔㅇㅣㅈㅣ": 2839,
  "ㄱㅗㅅㅗㄱㄷㅗㄹㅗ</w>": 13746,
  "ㅇㅣㄹㅗㄴ</w>": 4275,
  "ㅌㅏㄹㅊㅜㄹ": 11182,
  "ㅌㅗㅇㅇㅣㄹ": 5030,
  "ㅎㅘㅈㅏㅇㅍㅜㅁ": 12266,
  "urr": 14691,
  "ㅇㅏㅁㅜㄹㅓㄴ</w>": 6760,
  "ㄱㅏㄹㅡㄹ</w>": 2049,
  "ㄱㅅㅡㄹㅡㄹ</w>": 13281,
  "ㄱㅡㄱ</w>": 3499,
  "ㅇㅣㄴㅅㅣㄴ": 12869,
  "ㅅㅏㅁ</w>": 7761,
  "ㅇㅏㅅㅡ": 11189,
  "ㄱㅑ": 11950,
  "ㅇㅏㄴㄴㅐ": 3625,
  "ㅎㅘㄹㅇㅛㅇㅎㅏㄹ</w>": 8601,
  "ㅎㅘㄹㄷㅗㅇㅇㅔ</w>": 9241,
  "ㅇㅏㅂㅓㅈㅣㄴㅡㄴ</w>": 14173,
  "ㅊㅜㅇㅓ</w>": 2645,
  "ㅁㅣㄱㅏ</w>": 8473,
  "82": 11703,
  "ㅅㅔㄷㅐ</w>": 4009,
  "2": 15,
  "ㅇㅣㄹㅝ": 4285,
  "ㅊㅟ</w>": 7426,
  "ㅎㅘㄹㄷㅗㅇㅇㅣ</w>": 11889,
  "ㄱㅏㅁㅇㅔ</w>": 11698,
  "....": 8253,
  "ㅇㅟㄹㅗ</w>": 3080,
  "ㄱㅏㅁㄷㅗㅇ": 8245,
  "GeoNames</w>": 11460,
  "ㅇㅣㅂㄹㅕㄱㅎㅐ</w>": 13110,
  "ㅈㅓㅇㅊㅐㄱㅇㅡㄹ</w>": 6622,
  "ㅌㅜ": 695,
  "ㄲㅐㄲㅡㅅ": 6059,
  "km": 9220,
  "ㄴㅜㄴ</w>": 4135,
  "F": 31,
  "LE": 2714,
  "ㅂㅜㄴㅇㅣ</w>": 2142,
  "ㅅㅏㄱㅗ": 3153,
  "ㅎㅏㄴㅡㄹ</w>": 9945,
  "Res": 8098,
  "ㅂㅗㅇㅏㅆ": 12540,
  "11": 1061,
  "ㅍㅏㄴㅁㅐㅈㅏㅇㅔㄱㅔ</w>": 5111,
  "ㅍㅣㄹ": 613,
  "ㅎㅏㄴㄷㅔ</w>": 4533,
  "ext</w>": 8863,
  "ㄴㅡㄴㄷㅔ</w>": 603,
  "ㅇㅣㄹㅡㄴ": 11796,
  "ㅍㅡㄹㅔㅇㅣㅁ</w>": 10772,
  "ㄴㅕㄴㄱㅏㄴ</w>": 3190,
  "ㅊㅚㅅㅣㄴ": 9546,
  "99": 7608,
  "ㄷㅡㄹㅏㅇㅣ": 5616,
  "ㅎㅗㅌㅔㄹ</w>": 1010,
  "ㅇㅣㄱㅓㅅ</w>": 11771,
  "ㅁㅏㄹㅡㄹ</w>": 6173,
  "ㅇㅏㄴㅐㄱㅏ</w>": 15641,
  "ㅌㅚㅈㅣㄱ": 11907,
  "ㅅㅣㅈㅡㄴㅇㅡㄹ</w>": 10005,
  "ㅈㅣㅅㅗㄱ</w>": 12545,
  "ㅂㅗㅌㅗㅇ": 9124,
  "ㅅㅣㄱㅣㅇㅔ</w>": 10215,
  "ㅎㅏㄹㄲㅏ</w>": 4455,
  "AI": 9235,
  "ㅂㅗㄱㄱㅟ": 7674,
  "ㅇㅜㄹㅡㄹ</w>": 14688,
  "ㄷㅏㅇㄴㅛ": 9671,
  "ㄱㅕㅇㅈㅐㅇㄹㅕㄱ</w>": 11813,
  "ㅈㅏㄹㅎㅏㄴㅡㄴ</w>": 11268,
  "ㄹㅗㄴㅡㄴ</w>": 2426,
  "ㅈㅗㅎㅇㅏㅇㅛ</w>": 4898,
  "ㅈㅏㄹㅛㄷㅡㄹㅇㅡㄴ</w>": 3430,
  "2ㅂㅓㄴ</w>": 12285,
  "ㅅㅗㄹㅣ</w>": 3984,
  "ㅈㅔㅎㅏㄴㅇㅣ</w>": 15748,
  "ㄹㅐㄱ": 11374,
  "ㅇㅏㄷㅡㄹ</w>": 5691,
  "ㅅㅣㄷㅏ</w>": 10046,
  "ㅎㅚㄹㅗ</w>": 9678,
  "ㅇㅣㅈㅇㅓ": 14007,
  "ㅂㅗㅂㅅㅣㄷㅏ</w>": 14416,
  "ㄹㅐㅂ": 10946,
  "ㅍㅔㅇㅣㅈㅣㄹㅡㄹ</w>": 5768,
  "ㅅㅡㅍㅗ": 1226,
  "ㅈㅓㄱㅅㅐㄱ</w>": 15356,
  "ㅈㅏㅅㅏㄴ": 6046,
  "ㅋㅗ": 536,
  "ㅇㅏㅋㅏㄷㅔ": 8332,
  "less</w>": 15241,
  "ㅅㅓ</w>": 311,
  "ㅌㅡㄹㅏㅇㅣ": 12936,
  "ㄱㅡㄴㄹㅗ": 4493,
  "ㅁㅗㄹㄹㅏ": 5176,
  "ㅂㅏㄹㅈㅓㄴㅇㅡㄹ</w>": 8492,
  "be": 8525,
  "ㅓㅂ</w>": 2086,
  ",": 9,
  "ㄷㅗㅇㅇㅣㄹㅎㅏㄴ</w>": 5566,
  "ㅈㅏㅋㅔㅅ</w>": 13716,
  "ㄱㅛㅊㅔ": 6935,
  "ㅋㅡㄹㅏ": 9141,
  "ㄱㅏㅇㅎㅏㄴ</w>": 3959,
  "ㄱㅓㄴㄷㅔ</w>": 9355,
  "ㅇㅓㅄㅇㅓㅅㅓ</w>": 5512,
  "ㅁㅏㅇㅣㄹ": 13237,
  "ㅇㅣㄹㅗㄴ": 3532,
  "ㅋㅡㄱㅣㅇㅢ</w>": 14024,
  "ㅋㅡㄹㄹㅣ": 1581,
  "ㄹㄲㅏㅇㅛ</w>": 8418,
  "ㄱㅐㅇㅢ</w>": 1490,
  "ㅍㅣㄹㄹㅏ": 12011,
  "ㄷㅡㄴ": 1206,
  "ㄱㅏㄴㅡㄴㄷㅔ</w>": 11661,
  "ㅁㅓㄹㅣㅋㅏㄹ": 16334,
  "6": 19,
  "ㅂㅗㅇㅢ</w>": 9932,
  "ㅂㅜㄹㄱㅏㄴㅡㅇㅎㅏㄴ</w>": 11318,
  "ㄷㅏㄹㅡㄱㅔ</w>": 6029,
  "ㅎㅏㄹ</w>": 389,
  "ㅅㅏㅇㅊㅓㄹㅡㄹ</w>": 11566,
  "ㅎㅕㅂㅇㅢ</w>": 14413,
  "ㅅㅔㄷㅐ": 8602,
  "ㅊㅜㅇㄷㅗㄹ": 11681,
  "ㅂㅏㅇㅣ</w>": 6957,
  "ㄴㅏㄴㅜㅁㄱㅡㄹㄲㅗㄹ": 14047,
  "ㅂㅣㅍㅏㄴ": 4315,
  "ㅇㅢ": 399,
  "ㅇㅘㅆㄷㅏ</w>": 4050,
  "ㅈㅓㄱㅇㅛㅇㄷㅚㅂㄴㅣㄷㅏ</w>": 13405,
  "ㄲㅗㅊㅇㅣ</w>": 12198,
  "ㅅㅣㄴㅂㅜ": 16158,
  "ㅂㅏㄴㅂㅗㄱ</w>": 11483,
  "ㅅㅣㅈㅓㅁㅇㅡㄴ</w>": 10715,
  "ㅌㅓㅊㅣ</w>": 10538,
  "ㅎㅘㄱㅇㅣㄴㅇㅡㄹ</w>": 9639,
  "ㅎㅏㅇㅣㄴ": 14951,
  "ㅌㅡㅇㅝ": 2213,
  "ㅇㅣㄴㅊㅣ</w>": 5521,
  "ㅎㅚㅅㅏ": 4118,
  "ㅂㅐㅌㅡㄹ": 11343,
  "ㅋㅡㄴㅡㄴ</w>": 10134,
  "ㅁㅛㅅㅏ": 16313,
  "ㅈㅣㅇㅔ</w>": 2011,
  "ㅈㅣㄹㅜ": 11218,
  "ㅇㅜㄹㅣㄴㅏㄹㅏㅇㅔ": 15244,
  "ㅇㅔㄷㅗ</w>": 965,
  "ㅈㅓㄴㅎㅕㅇ</w>": 13691,
  "ㄱㅏㄴㅡㅇㅅㅓㅇㅇㅣ</w>": 3937,
  "ㅅㅔㅅ": 4281,
  "ㅂㅏㄹㅏㅂㄴㅣㄷㅏ</w>": 1337,
  "ㄱㅝㄴㄹㅣ</w>": 9332,
  "ㅓㄴ</w>": 5064,
  "ㄱㅡㅁㅏㄴ</w>": 9699,
  "ㅈㅜㄷㅏㅇ</w>": 13826,
  "ㄱㅏㅈ": 1024,
  "ㄱㅏㄴㄷㅏㄴㅡㄴ</w>": 14483,
  "ㅂㅏㄹ": 396,
  "ㅂㅜㅅㅓ</w>": 13777,
  "ㅇㅓㄱㅈㅔ": 13449,
  "ㅅㅡㅌㅐㄴㄷㅏ": 13012,
  "ㅍㅕㄹㅊㅕ": 5776,
  "ㅇㅗㄹㄹㅕ</w>": 10397,
  "an": 721,
  "ㅁㅏㄴㄴㅏㅅㅓ</w>": 15187,
  "ㄹㅗㅂㄱㅗ</w>": 10769,
  "ㅌㅗㅇㅎㅏㄴ</w>": 2910,
  "ㅎㅡㅇ</w>": 12691,
  "ㅏㄱㅏ</w>": 9426,
  "ㅇㅜㄱㅏ</w>": 15142,
  "ㅎㅐㅇㅑㅁㅏㄴ</w>": 9856,
  "ㄹㅠㄹ</w>": 3311,
  "ㅈㅡㄱ</w>": 1992,
  "ㅇㅣㅁㅇㅔㄷㅗ</w>": 13330,
  "ㅈㅏㄱㄷㅗㅇ": 4571,
  "ㅇㅕㅁ</w>": 5007,
  "ㅇㅣㅇㅓㅅㅓ</w>": 6963,
  "ㅇㅣㄴㅐ": 2532,
  "ㅈㅓㄴㅎㅘ</w>": 3667,
  "ㅌㅡㅇㅟㄴ": 16109,
  "ㄱㅐㄹㅗㄴ</w>": 13297,
  "FTA</w>": 15128,
  "ㅎㅘㄱㅏ</w>": 3391,
  "ㄹㅣㄱㅏ</w>": 1867,
  "ㅈㅐㄱㅐ": 11252,
  "ㅊㅚㄷㅐㅇㅢ</w>": 13328,
  "ㅅㅣㅈㅏㄱㅎㅐㅆㄷㅏ</w>": 5251,
  "ㅇㅣㅆㄱㅣㄴ</w>": 14564,
  "ㅇㅓㄸㅓㅎ": 8324,
  "ㅈㅓㄴㄷㅏㄹ": 3055,
  "ㅂㅏㅇㅅㅏ": 8566,
  "ㅍㅣㅌㅡ": 6820,
  "ㅅㅓㄱㅇㅢ</w>": 11211,
  "ㅈㅗㅁㅏㄴㄱㅏㄴ</w>": 13754,
  "ㅂㅣㄴ</w>": 3616,
  "ㅇㅣㄹㅏ": 596,
  "ㅇㅓㅄㅇㅡㅁㅕㄴ</w>": 7456,
  "ㅈㅗㅎㅅㅡㅂㄴㅣㄷㅏ</w>": 3005,
  "mil": 7035,
  "ㅅㅓㄴㅌㅐㄱㅎㅏㄴ</w>": 7333,
  "ㅇㅝㅅㅣㅇ": 8067,
  "ㅅㅣㄷㅗ": 4237,
  "ㅂㅏㅇㅂㅓㅂㄷㅗ</w>": 15605,
  "ㅊㅡㅇㅇㅣ</w>": 14409,
  "ㅈㅗㄱㅓㄴㅇㅣ</w>": 5040,
  "ㄲㅓㄲ": 10942,
  "ㅍㅖ</w>": 5659,
  "ㅅㅣㄱㅣ</w>": 2446,
  "ㄹㅕㄱㅇㅡㄹ</w>": 1450,
  "ㅂㅕㅇ": 864,
  "ㄱㅕㄹㄱㅘㄹㅡㄹ</w>": 3481,
  "ㅌㅐ": 561,
  "ㄱㅓㅁ</w>": 5128,
  "ㄷㅡㅇㅔㅅㅓ</w>": 4672,
  "ㅎㅏㅁㅇㅡㄹㅗ</w>": 10705,
  "ㅎㅏㄱㅗㅇㅛ</w>": 14759,
  "ㄱㅓㅅㅇㅣㄴ": 6325,
  "TVㄹㅡㄹ</w>": 13908,
  "ㅈㅏ</w>": 441,
  "ㅈㅗㅎㅚ": 6215,
  "ㄱㅜㄱㅌㅗ": 12041,
  "ㅍㅕㅇㅊㅏㅇ</w>": 11326,
  "ㄴㅜㄹ": 1619,
  "ㅂㅗㅅㅔㅇㅛ</w>": 2711,
  "ㅆㅓㅆㄷㅏ</w>": 15140,
  "ㅂㅏㅁㅇㅔ</w>": 8935,
  "ㅁㅣㄱㅜㄱㄱㅘ</w>": 11247,
  "ㅈㅣㄱㅎㅜ</w>": 13793,
  "ㅈㅏㅇㅝㄴ": 2912,
  "ㅔㄴㅡㄴ</w>": 4325,
  "ㅎㅏㅇㅟ</w>": 13676,
  "ㅇㅓㅂㅊㅔ</w>": 3409,
  "ㅇㅕㅇ": 411,
  "ㅅㅣㄱㅍㅜㅁ": 4357,
  "ㅇㅠㅈㅐ": 14063,
  "ㅁㅣㄱㅅㅡ</w>": 15057,
  "11ㅇㅝㄹ</w>": 3258,
  "ㄷㅚㄴㅏ</w>": 15107,
  "ㄱㅜㅎㅕㄴ": 4906,
  "ㅇㅓㄹ</w>": 3266,
  "ㄱㅗㅎㅘㅈㅣㄹ</w>": 15230,
  "ㅈㅓㄴㅈㅏㅇㅜ": 10844,
  "ㅂㅜㅁㅗㄴㅣㅁ</w>": 15684,
  "ㅈㅔㄱㅣ": 5485,
  "ㅍㅡㄹㅗㅈㅔㄱㅌㅡ</w>": 3345,
  "h</w>": 200,
  "ㅉㅏㄼ": 6085,
  "ㄷㅡ</w>": 499,
  "ㅂㅗㅇㅏㅆㄷㅏ</w>": 5769,
  "ㅅㅣㅋㅕ": 3491,
  "ㄸㅟㅇㅓㄴㅏ": 13457,
  "ㅊㅜㄹㅇㅣㅂ": 10238,
  "ㅁㅓㅅㅣㄴ</w>": 11880,
  "ㅅㅏㅇㅣㅌㅡ</w>": 1234,
  "ㅂㅏㄲㅝ</w>": 16377,
  "ㅂㅜㄲㅡㄹㅓ": 12617,
  "ㅈㅓㅇㅎㅐ": 10159,
  "ㄱㅗㅇㅎㅏㄱ</w>": 6956,
  "ㄱㅕㄴㅈㅓㄱ": 16112,
  "MP": 7043,
  "ㅅㅔㄱㅖㅇㅢ</w>": 5917,
  "ㄷㅔㄷㅏ</w>": 11715,
  "ㅈㅣㅇㅝㄴㅎㅏㄱㅗ</w>": 13555,
  "ㅋㅡㄹㅗ</w>": 5532,
  "ㅅㅏㅇㅇㅓㅂㅅㅓㅇ</w>": 5234,
  "inc": 9248,
  "ㅋㅓ": 639,
  "ㅇㅏㅍㅇㅡㄹㅗ</w>": 2380,
  "ㅇㅣㅅㅏㅇㅇㅣ</w>": 8133,
  "ㅅㅔㅂㅡㄴ": 14444,
  "ㅎㅗㄹㄹㅣ": 11540,
  "2018ㄴㅕㄴㄷㅗ</w>": 14533,
  "ㄷㅗㅋ": 6280,
  "2009ㄴㅕㄴ</w>": 7511,
  "ㅇㅏㄶㅇㅏ": 3304,
  "ㅅㅓㄴㅇㅢ</w>": 6510,
  "ㄱㅏㅇㅇㅜㄹ": 7068,
  "ㅅㅡㅌㅡ</w>": 1213,
  "ㅇㅖㄱㅡㅁ": 14779,
  "ㅇㅏㅁㅜㄹㅐㄷㅗ</w>": 7383,
  "ㅈㅣㄷㅗㅈㅏ</w>": 15171,
  "ㅁㅗㅅㅎㅏㄴ</w>": 2593,
  "Micros": 6073,
  "ㅂㅜㅅㅡㅌㅏ": 2279,
  "ㅇㅡㅁ": 421,
  "ㄷㅏㅇㅎㅏㄱㅗ</w>": 13305,
  "ㅅㅣㄹㅣㅈㅡㄹㅡㄹ</w>": 12189,
  "ㅅㅏㄹㅇㅏㅇㅣㅆㄴㅡㄴ</w>": 15454,
  "ㄱㅣㅂㅗㄴㅈㅓㄱㅇㅣㄴ</w>": 6543,
  "ㅈㅣㅎㅏㅊㅓㄹ": 9427,
  "ㅂㅣㄹㅗㅅㅗ</w>": 13528,
  "ㅈㅜㅇㅎㅏㄱㄱㅛ</w>": 9030,
  "ㄱㅣㄹㄱㅔ</w>": 9222,
  "ㅈㅓㅇㅇㅐㄱ": 11438,
  "ㅍㅜㅇㅅㅗㄱ</w>": 10685,
  "ㅌㅗㅌㅗ": 2751,
  "ㄸㅢㄴㅡㄴ</w>": 15895,
  "ㄱㅖㅅㅗㄱ": 3160,
  "03</w>": 3934,
  "ㅎㅏㄷㅓㄹㅏㄷㅗ</w>": 4650,
  "ㄱㅣㅅㅜㄹㅇㅔ</w>": 15933,
  "ㄷㅓㄹㅡㄹ</w>": 15941,
  "ㄱㅛㅇㅠㄱㄱㅘ</w>": 11424,
  "ㅁㅏㄴㄷㅡㄹㅇㅓㅇㅑ</w>": 15495,
  "ㅈㅓㅇㅇㅡㄴ</w>": 3033,
  "ㅐㄴㄷㅡ</w>": 12476,
  "ㅁㅣㄹㄹㅣㅁㅣㅌㅓ": 3654,
  "ㅇㅓㄹㅣㅇ</w>": 8128,
  "ㅉㅗㄱㅇㅢ</w>": 10109,
  "ㅎㅏㄱㅔㅆㅈㅣㅁㅏㄴ</w>": 13164,
  "ㄱㅖㅇㅕㄹ": 8556,
  "ㅇㅣㅂㅈㅏㅇㅇㅔㅅㅓㄴㅡㄴ</w>": 11723,
  "ㄷㅏㅇㅈㅏㅇ</w>": 6650,
  "Tr": 4995,
  "ㅊㅘㄹ</w>": 12741,
  "ㅈㅏㅅㅔㄹㅡㄹ</w>": 16323,
  "ㄷㅓㅂㅜㄹㅇㅓ": 11109,
  "ㅇㅝㄴㄷㅡㄹㅇㅣ</w>": 11982,
  "ㅂㅓㄴㅎㅗㄹㅡㄹ</w>": 5406,
  "i": 63,
  "MBC</w>": 6842,
  "ch</w>": 4165,
  "ago</w>": 5213,
  "ㄱㅡㄴㄹㅗㅈㅏ</w>": 15550,
  "ㄷㅜㄹㅉㅐ": 13728,
  "ㄷㅡㄹㅇㅡㄹ</w>": 778,
  "ㄱㅏㅌㄱㅗ</w>": 9127,
  "ㅇㅓㄺ": 14754,
  "ㅇㅣㄴㅅㅐㅇㅇㅡㄹ</w>": 8588,
  "ㄱㅐㅅㅓㄹ": 10783,
  "ㄱㅏㅌㅇㅣ</w>": 1182,
  "ㄱㅘㄴㅇㅢ</w>": 5022,
  "ㅇㅕㅍㅇㅔ</w>": 6067,
  "ㅅㅏㅎㅚ": 876,
  "ㄷㅗㄷㅏㄹ": 9725,
  "ㅇㅢㅎㅏㄴ</w>": 2908,
  "ㄱㅗㅅㅐㅇ": 8116,
  "ㅆㅓㅅㅓ</w>": 13672,
  "ㄷㅡㄹㄲㅔ</w>": 15366,
  "New</w>": 9067,
  "65</w>": 13032,
  "Val": 13075,
  "ㅇㅠㄹㅛ</w>": 10451,
  "ㅁㅓㄹㄹㅣ": 12440,
  "ㅅㅜㄹㅇㅔ</w>": 15724,
  "ㅇㅓㅄㅇㅣㄴㅡㄴ</w>": 16029,
  "ㅇㅓㅄㄱㅗ</w>": 2688,
  "ㄴㅐㄴㄷㅏ</w>": 12536,
  "10ㅍㅔㅇㅣㅈㅣ</w>": 7156,
  "ㅇㅣㄹㅎㅘㄴ": 15275,
  "ㅅㅜㄹㅡㄹ</w>": 1764,
  "ㄱㅣㄴㄱㅡㅂ": 11264,
  "English</w>": 11543,
  "ㄱㅐㅂㅕㄹ": 7475,
  "ㅅㅜㄴㅅㅜ": 12626,
  "ㅏㅇㅔ": 3618,
  "ㅌㅜㅇㅓ": 15891,
  "ㄱㅡㄴㅕㅇㅢ</w>": 3852,
  "ㅈㅏㄱㅅㅓㅇ": 1969,
  "ㅅㅣㄷㅐㄱㅏ</w>": 11090,
  "ㅅㅏㅇㅣㅇㅔ</w>": 4244,
  "12</w>": 1894,
  "ㄹㅡㄹ": 5797,
  "ㅇㅑㄱㄱㅘㄴㅇㅢ</w>": 12675,
  "ㄷㅏㄲ": 8540,
  "ㄱㅣㄹㄹㅗ</w>": 11380,
  "ㅊㅏㅁㅇㅕㅎㅏㄹ</w>": 11194,
  "ㅈㅏㅇㅂㅣㄹㅡㄹ</w>": 13143,
  "ㅁㅓㄱㅇㅡㄴ</w>": 9887,
  "ㅈㅜㅇㅓㅈㅣㄴ</w>": 6118,
  "ㅇㅗ": 394,
  "ㅅㅓㄴㅅㅜㄷㅡㄹㅇㅣ</w>": 9979,
  "ㅍㅡㄹㅣ</w>": 11120,
  "ㄸㅏ</w>": 14084,
  "ㅎㅘㅁㅕㄴㅇㅔ</w>": 10675,
  "ㅅㅣㄱㅇㅔ</w>": 7132,
  "ㄴㅐ</w>": 653,
  "ㅇㅏㅈㅜㅁ": 8230,
  "ㄴㅐㄹㅕ": 3361,
  "ㄷㅚㄴ</w>": 502,
  "ㅌㅐㄱ": 754,
  "ㅂㅜㅎㅏㅂ": 14129,
  "ㅂㅏㄹㅏㅂㅗㄴㅡㄴ</w>": 11183,
  "ㄱㅡㄴㅂㅗㄴㅈㅓㄱㅇㅣㄴ</w>": 13956,
  "ㄷㅏㅋㅠ": 13868,
  "ㄱㅣㅎㅚㄹㅡㄹ</w>": 4660,
  "X</w>": 214,
  "ㅊㅔㅈㅔ</w>": 8192,
  "Z": 51,
  "4ㄷㅐ": 11302,
  "ㄱㅗㅇㅈㅓㅇ": 5083,
  "ㅈㅓㅇㅎㅘㄱㅎㅣ</w>": 6169,
  "ㅇㅓㅆㄷㅏㄴㅡㄴ</w>": 10461,
  "ㅎㅏㄴㅁㅏ": 6178,
  "ㅂㅗㅎㅓㅁㄹㅛ</w>": 12885,
  "ㅍㅖㅈㅣ": 13256,
  "ㄹㅇㅣ</w>": 10554,
  "ㅇㅜㄴㅎㅐㅇ</w>": 14012,
  "ㅅㅣㅁㄹㅣ</w>": 12362,
  "ㅋㅡㅇㅔ</w>": 13073,
  "ㅇㅗㅊㅏ</w>": 16100,
  "ㅎㅏㄹㅏㄱㅗ</w>": 8002,
  "ㄱㅕㅇㄱㅣㄴㅡㄴ</w>": 14880,
  "ㅁㅏㄱㅇㅣ</w>": 14980,
  "ㅇㅓㅉㅣ": 9555,
  "ㅇㅠㅁㅓ</w>": 14866,
  "ㅇㅣㄴㅇㅡㄴ</w>": 2558,
  "ㅅㅣㄴㅎㅏㄱ": 9903,
  "ㅎㅕㄹ": 2006,
  "ㅍㅗㅅㅡㅌㅣㅇ": 10433,
  "MO": 6594,
  "ous</w>": 9538,
  "ㅊㅏㅈㅇㅡㄹ</w>": 3729,
  "that</w>": 7924,
  "ㄱㅡㄹㅐㄴ": 6871,
  "ㅁㅗㄹㅡㄱㅔㅆㅈㅣㅁㅏㄴ</w>": 9186,
  "ㅅㅓㅇㅝㄴㄱㅜ</w>": 8234,
  "ㅍㅜㅁㅈㅣㄹ</w>": 6498,
  "ㅊㅏㅁㅅㅓㄱ</w>": 13644,
  "ㅗㄹ</w>": 4036,
  "ㅇㅠㄴㄹㅣ</w>": 14489,
  "ㅇㅣㅆㅇㅓㅆ": 962,
  "ㅇㅏㄶㄴㅡㄴㄷㅏㄴㅡㄴ</w>": 9870,
  "ㅅㅓㄹㅁㅕㅇㅇㅡㄹ</w>": 7940,
  "ㅋㅣㅅㅡ</w>": 10673,
  "ㅍㅏㅇㅜㄴ": 9060,
  "ㅁㅏㅈㄱㅗ</w>": 10551,
  "ㄱㅜㅅㅓㄱ": 9262,
  "ㅉㅏㄴ": 14737,
  "ㅂㅏㄴㄹㅕ": 11896,
  "ㄷㅓㄴㅈㅣㄴㅡㄴ</w>": 15910,
  "ㄱㅐㄹㄹㅓ": 2412,
  "ㅌㅜ</w>": 4164,
  "ㄷㅏㄹㅎㅏㄴㅡㄴ</w>": 13882,
  "ㅈㅣㅍㅛ": 11785,
  "ㅂㅜㄹㄱㅏ": 5935,
  "ㅇㅕㅇㅎㅘㄴㅡㄴ</w>": 11062,
  "ㅇㅣㄴㅌㅓㄴㅔㅅㅇㅡㄹ</w>": 6426,
  "ㅅㅔㅌㅏㄱ": 8456,
  "ㄷㅓㄹㅏ": 2926,
  "ㄷㅗㅅㅣㅇㅢ</w>": 10274,
  "ㅎㅏㄴㅏ": 1427,
  "ㅅㅔㅇㅝ": 5274,
  "ㄱㅕㅇㅜㄹ": 3892,
  "ㄱㅓㅅㅡㄹ": 14675,
  "ㅃㅐ": 2564,
  "ㅈㅗㄴㅈㅐ</w>": 10836,
  "ㅇㅟㅊㅣㅇㅔㅅㅓ</w>": 8896,
  "ㄹㅡㄹ</w>": 326,
  "ㅊㅗㅅㅂㅜㄹ": 12986,
  "ㅇㅛㄱㅜㄹㅡㄹ</w>": 14592,
  "se</w>": 4761,
  "ㅂㅐㄱㅎㅘ": 6940,
  "ㄱㅏㅆㄴㅡㄴㄷㅔ</w>": 14960,
  "ㄱㅣㅅㅜㄹ</w>": 2054,
  "ㅅㅣㅈㅡ": 1575,
  "ㄴ</w>": 134,
  "9ㅇㅝㄹ</w>": 3212,
  "ㅅㅜㅅㅣㅂ</w>": 14606,
  "ㅍㅗㄴ": 1610,
  "ㅈㅜㅇㄱㅜㄱㅇㅡㄴ</w>": 16024,
  "ㅊㅔㅋㅡ</w>": 7141,
  "ㄴㄷㅏㄱㅗ</w>": 12220,
  "ㅇㅣㄷㅡㄹㅇㅡㄴ</w>": 5171,
  "ㄱㅏㄹㅡㅊㅕ</w>": 14462,
  "ㄱㅣㄹㅗ</w>": 1519,
  "ㅂㅣㄹㅇㅓ</w>": 5559,
  "z</w>": 184,
  "ㅇㅕㄱㅣㅅㅓ</w>": 3280,
  "ㅎㅏㅇㅁㅜㄴ": 12146,
  "ㄷㅡㄹㅏㅇㅣㅂ": 4725,
  "ㅎㅕㄱㅅㅣㄴ": 3936,
  "SBS</w>": 8054,
  "ㅅㅏㅁㄱㅜㄱ": 15065,
  "it</w>": 3173,
  "ㄷㅣㅈㅏㅇㅣㄴㅓ</w>": 11221,
  "ㄷㅐㄹㅣ": 4087,
  "ㄱㅗㅅㅗㄱ": 6199,
  "ㅂㅣㅍㅏㄴ</w>": 14407,
  "ㅍㅡㄹㅐㄴ": 10305,
  "ㅅㅣㄹㄹㅣ": 7584,
  "ㅅㅣㄹㄱㅘ</w>": 14867,
  "ㅇㅜㅇㅠ": 15762,
  "ㅋㅏㄹ</w>": 9587,
  "ㄲㅏㅇㅛ</w>": 1429,
  "ㅈㅔㄱㅗㅇㄷㅚㅂㄴㅣㄷㅏ</w>": 1791,
  "ㅂㅗㄹㄲㅏ</w>": 10139,
  "ㅇㅢㅈㅣ": 11545,
  "ㅇㅐㄹㅂㅓ": 12330,
  "ㅅㅗㄱㄷㅗㄱㅏ</w>": 9831,
  "ㅅㅏㄹㅣ": 8337,
  "ㄱㅓㅁ": 709,
  "ㅁㅜㄱㅘㄴ</w>": 12989,
  "2002</w>": 14690,
  "sp": 3916,
  "ㅁㅏㅅ": 1184,
  "ㅈㅐㅈㅓㅇ</w>": 16307,
  "or</w>": 1549,
  "ㅅㅣㅊㅓㅇ</w>": 8870,
  "ㄱㅏㅈㅕㅇ": 3580,
  "ㄸㅡㅅ</w>": 9223,
  "ㅋㅓㄴㅌㅡㄹㅗㄹ</w>": 14339,
  "ㅇㅒㄱㅣㄱㅏ</w>": 16379,
  "Got": 14702,
  "ㅊㅐㅁㅍㅣ": 4753,
  "ㄱㅕㅇㅈㅐㅇ</w>": 8692,
  "ㅂㅣㄴㅡㄴ</w>": 5046,
  "ㅋㅏㅁㅔㄹㅏ</w>": 4296,
  "ㅈㅣㅂㅏㅇ</w>": 6423,
  "ㄱㅏㅇㅅㅜㄹㅑㅇ</w>": 10598,
  "ㄸㅓㅇㅗㄹㅡ": 16289,
  "ㅁㅜㄹㅡㄹ</w>": 3116,
  "ㅇㅣㄴㅅㅏㅇ": 5964,
  "lu": 4252,
  "ㅁㅏㄶㅇㅡㄹ</w>": 14285,
  "ㄴㅏㅇㅘㅆㅅㅡㅂㄴㅣㄷㅏ</w>": 16137,
  "ㅎㅗㅇㅂㅗ": 4730,
  "ㅎㅜㅇㅔ</w>": 2335,
  "ㅇㅟㅊㅣㅇㅢ</w>": 15104,
  "ㄱㅕㄹㄱㅜㄱㅇㅡㄴ</w>": 14030,
  "ㄷㅏㅁㄷㅏㅇ</w>": 8640,
  "ta": 7801,
  "ㅈㅏㄹㅛ": 999,
  "ㄱㅏㅁㄷㅗ</w>": 11731,
  "ㅂㅓㄱㅡ</w>": 8917,
  "ㄱㅡㄹㅜ": 1510,
  "ull</w>": 11141,
  "70</w>": 8962,
  "IE": 8312,
  "ㅇㅣㄺㄴㅡㄴ</w>": 7808,
  "ux</w>": 16072,
  "ㅎㅏㅇㅕㄱㅡㅁ</w>": 11425,
  "ㅍㅕㄴㅇㅏㄴㅎㅏㄱㅔ</w>": 12888,
  "ㄱㅗㅅㅇㅔㅅㅓ</w>": 3052,
  "ㅇㅟㅎㅐㅅㅓㄴㅡㄴ</w>": 3156,
  "ㅇㅒㄱㅣ</w>": 13786,
  "ㅋㅗㄴㅣ</w>": 15843,
  "ㄷㅓㄱ</w>": 6304,
  "ㄱㅗㅇㅍㅗ": 12834,
  "ㅅㅓㄹㅂㅣ</w>": 12377,
  "ㅈㅣㅇㅘ</w>": 3931,
  "HP</w>": 9624,
  "ㅁㅣㄷ": 1557,
  "ㅁㅗㄱㅈㅓㄱㅇㅡㄹ</w>": 9146,
  "ㄷㅚㄱㅣㄹㅡㄹ</w>": 11107,
  "ㅌㅔㄱㅅㅏ": 9895,
  "ㅈㅓㄴㄷㅏㄹ</w>": 8151,
  "ㅇㅣㄹㅗㄴㄱㅘ</w>": 14086,
  "ㅇㅏㄶㅇㅏㅆㅈㅣㅁㅏㄴ</w>": 10168,
  "BC": 11593,
  "ㅅㅡㅌㅏㅌㅡㅇㅓㅂ</w>": 11339,
  "ㅅㅣㄱㅏㄴ</w>": 906,
  "BMW</w>": 13384,
  "ㄹㅗ": 385,
  "ㅂㅣㅊ</w>": 5618,
  "ㄱㅗㄱㅜ": 14812,
  "ㅎㅏㄴㅎㅘ": 11538,
  "ㅅㅡㄴㅣㅁ</w>": 15477,
  "ㄱㅏㅁㅏㄴ": 10617,
  "ㄱㅣㅇㅝㄴ</w>": 15663,
  "42": 11945,
  "ㅍㅏㅂ": 7001,
  "ㅌㅡㄹㅓ": 5633,
  "ㅇㅣㄱㅗㅅ</w>": 12156,
  "ㅂㅜㅈㅗㄱ": 2549,
  "ㅊㅣㄴㅈㅓㄹ": 4082,
  "ㅂㅜㅅㅡㅌㅏㅂㅣㅅㅂㅜㅅㅡㅌㅏㅂㅣㅅ": 8223,
  "ths</w>": 10473,
  "ㅁㅔㅅㅔ": 12097,
  "ㄷㅟ</w>": 2389,
  "ㄱㅓㅈㅓㄹ": 10986,
  "ㅅㅏㅇㅓㅂㅇㅡㄹ</w>": 4729,
  "ㅅㅗㅁㅜㄴ": 15680,
  "ㅊㅗㅋㅗㄹ": 11397,
  "ㅅㅣㄴㄱㅗㅎㅐㅈㅜㅅㅣㅁㅕㄴ</w>": 3465,
  "ㅈㅏㅇㅏㄴ": 15698,
  "ww": 2572,
  "Cl": 5341,
  "ㅂ": 100,
  "ㅎㅜㅂㅗ</w>": 6343,
  "ㄱㅘㄴㄱㅖㄹㅡㄹ</w>": 4341,
  "ㅈㅔㅁㅗㄱ": 6350,
  "ㅈㅓㄴㅊㅔㄱㅏ</w>": 13620,
  "ㄴㅏㅇㅣㄹ": 14748,
  "ack</w>": 5225,
  "ㅁㅜㄷ": 3224,
  "ㅁ</w>": 138,
  "ㅈㅜㅂㅕㄴ</w>": 2119,
  "ㄷㅡㄹㅇㅓ</w>": 1907,
  "ㅊㅓㄹㅎㅏㄱ": 7442,
  "ㅇㅗㄹㅂㅏㄹㅡㄱㅔ</w>": 12636,
  "ㅇㅐㅊㅗㅇㅔ</w>": 15936,
  "ㅅㅣㅇㄱㅡㄹ": 10864,
  "ㅂㅗㄷㅗ</w>": 9041,
  "ㅂㅐㄴ": 2228,
  "ㅂㅔㄹㅡㄹ": 12762,
  "ㅇㅗㄹㅡㄴㅡㄴ</w>": 13711,
  "ㅈㅜㅂㄴㅣㄷㅏ</w>": 5565,
  "ㅇㅘㄴㅂㅕㄱ": 3427,
  "ㄸㅗ</w>": 971,
  "pro": 3287,
  "ㅅㅗㅇㅟ</w>": 12576,
  "ㅇㅏㅁㅜㄹㅣ</w>": 4334,
  "\\</w>": 251,
  "IT": 3713,
  "ㅂㅏㄷㄱㅣ</w>": 5746,
  "ㅇㅣㄹㅡㄹㅓ": 14739,
  "ㅈㅏㄶ": 3568,
  "ㄷㅔ": 570,
  "ㅎㅘㄱㅇㅣㄴㅎㅏㄹ</w>": 2958,
  "ㅊㅜㄹㅅㅏㄴ</w>": 12684,
  "ㄷㅐㄱㅏ</w>": 3454,
  "ㅅㅐㅇㅎㅘㄹㅇㅔ</w>": 9914,
  "ㅊㅔ": 490,
  "ㄴㅐㄹㅣㄴㅡㄴ</w>": 11289,
  "2000</w>": 12233,
  "ㄱㅜㄱㅇㅓ</w>": 9205,
  "ㄷㅏㄹㅡ": 3101,
  "ㅊㅓㅇㅅㅗ": 1688,
  "tw": 11368,
  "ㅎㅘㄴㄱㅕㅇ": 1398,
  "ㅅㅡㅌㅣㄱ": 13962,
  "ㄴㅓㅁㅜㄴㅏㄷㅗ</w>": 15554,
  "view</w>": 8777,
  "ㅇㅣㅂㅓㄴㅇㅔ</w>": 4779,
  "ㄹㅔㅅㅡㅌㅗㄹㅏㅇ": 5287,
  "ㅇㅣㅂㄴㅣㄷㅏ</w>": 484,
  "ㅇㅣㄴㄹㅕㄱ": 11905,
  "sㄹㅡㄹ</w>": 15555,
  "ㅈㅣㄴㅎㅘ": 8184,
  "ㅅㅓㄹㅈㅓㅇㅎㅏㄹ</w>": 11382,
  "ㅋㅗㄷㅣㅇ": 15079,
  "ㅍㅜㄹㅡㄴ</w>": 13273,
  "ㄷㅡㄹㅇㅣㄷㅏ</w>": 9115,
  "igital</w>": 16132,
  "27ㅇㅣㄹ</w>": 7457,
  "ㄸㅗㄱ": 3011,
  "ㅍㅜㄷㅡ</w>": 11586,
  "ㅈㅐㄹㅡㄹ</w>": 4573,
  "ogg": 13254,
  "ㄹㅏ</w>": 636,
  "ㅇㅣㄴㅏ</w>": 840,
  "ㄹㅕㄴ": 1863,
  "ian": 9365,
  "ㄱㅓㅂㅜ</w>": 12197,
  "ㅇㅏㄴㅣㅁ</w>": 11445,
  "ㅅㅣㄴㅈㅔㅍㅜㅁ</w>": 14478,
  "IN": 3277,
  "ㅇㅏㄷㅗㅇ</w>": 8125,
  "ㅊㅓㅇㅡㅁㅇㅡㄹㅗ</w>": 4528,
  "ㅇㅕㄴㄹㅏㄱ": 2618,
  "ㄴㅡㄺ": 14073,
  "ㅅㅓㅂㅣㅅㅡㄹㅗ</w>": 14750,
  "ㅎㅘㅇㅘ</w>": 7016,
  "ㅊㅏㄷㅗ</w>": 10103,
  "ㅊㅣㄱㅇㅡㄹ</w>": 8357,
  "ㄱㅜㅎㅏㄹ</w>": 5705,
  "ㅁㅠㅈㅣㅋㅓㄹ</w>": 10800,
  "ㅋㅓㅁㅠㄴㅣㅋㅔㅇㅣㅅㅕㄴ</w>": 9682,
  "ㄱㅖ": 435,
  "ㄴㅗㅍㅇㅏ": 5162,
  "ㄴㅓㄹ": 2398,
  "ㅅㅓㅇㄱㅘ</w>": 2646,
  "ㅅㅐㅇㄱㅏㄱㅎㅏㄱㅗ</w>": 5679,
  "ㅇㅗㄴㅡㄹㄷㅗ</w>": 7980,
  "ㅍㅕㅇㄱㅏ</w>": 3260,
  "ㅇㅕㅎㅐㅇㅇㅡㄹ</w>": 3881,
  "ㅁㅜㄴㅈㅐㅇㅣㄴ</w>": 4299,
  "ㅇㅣㅅㅠ</w>": 7334,
  "ㅂㅣㄹㅗㅅㅎㅐ</w>": 8055,
  "ㄱㅏㄹㅗ</w>": 3733,
  "ㅅㅏㄹㅍㅕㅂㅗㅁㅕㄴ</w>": 11859,
  "ㅂㅡㄹㅏㅇㅜㅈㅓ": 7172,
  "ouse</w>": 11683,
  "ㅎㅏㅇㄱㅗㅇㄱㅝㄴ</w>": 5577,
  "ㅂㅗㅎㅗㅂㅓㅂ</w>": 15471,
  "39</w>": 7422,
  "ㅅㅓㅇㅍㅗㄱ": 6883,
  "ㅇㅕㄹㅇㅓㅆㄷㅏ</w>": 15996,
  "ㄱㅣㅎㅜ</w>": 5758,
  "ㅋㅓㄴㅌㅔㅇㅣㄴ": 15146,
  "ㄱㅗㄹㅕ": 2545,
  "ㄹㅣㅇㅏ</w>": 2349,
  "ㄴㅗㄹ": 795,
  "ㅈㅓㅁㅇㅡㄴ</w>": 2497,
  "ㅇㅣㅈㅓㅇ": 8293,
  "this</w>": 15601,
  "ㄷㅏㅇㅅㅏㄴㅡㄴ</w>": 10712,
  "ㄱㅣㄴㅕㅁ</w>": 6450,
  "En": 4191,
  "ㅅㅣㄴㅊㅜㄱ": 16019,
  "ㅇㅕㅇㅇㅣㅂ": 15166,
  "ㅇㅣㅈㅣㅁㅏㄴ</w>": 2377,
  "ㅍㅐㄹㅗ</w>": 16074,
  "ㅊㅔㅋㅡ": 4201,
  "24ㅅㅣㄱㅏㄴ</w>": 4497,
  "ㄴㅗㅎㅊㅣㅈㅣ</w>": 13720,
  "ㄹㅣㄱㅣ</w>": 9703,
  "ㅇㅣㄴㅈㅓㅇ</w>": 9855,
  "ㅅㅜㅇㅣㅆㄴㅡㄴ</w>": 5273,
  "ㅋㅏㅋㅏㅇㅗㅌㅗㄱ</w>": 10827,
  "mit": 14868,
  "ㅎㅘㄴㅅㅏㅇㅈㅓㄱㅇㅣㄴ</w>": 14215,
  "ㄱㅏㄲㅏㅇㅜㄴ</w>": 3732,
  "ㅈㅏㅅㅏㄹ": 9333,
  "ㅎㅕㅂㅇㅢㅎㅚ</w>": 10318,
  "ㅍㅡㄹ": 437,
  "ㅇㅣㄹㄱㅘ</w>": 6247,
  "ㅊㅜㄹㅂㅏㄹ": 4313,
  "ㅁㅏㅅ</w>": 6267,
  "KE": 12586,
  "ㅁㅔㅇㅣㅋㅡ": 9295,
  "ㅅㅓㅇㅔ</w>": 5639,
  "ㅎㅚㅅㅏㅇㅔ</w>": 7500,
  "ㄱㅏㅌㅅㅡㅂㄴㅣㄷㅏ</w>": 1650,
  "ㅅㅔㄱㅅㅕㄴㅇㅡㄴ</w>": 13290,
  "Hotel</w>": 7900,
  "ㅇㅕㄹㄹㅕ": 11994,
  "ㅌ</w>": 207,
  "ㅇㅏㄹㅇㅏㅂㅗㄱㅗ</w>": 14494,
  "ㅇㅏㅊㅣㅁ</w>": 2933,
  "ㅇㅖㅈㅓㄴ</w>": 11052,
  "ㅂㅓㅈㅓㄴㅇㅡㄹㅗ</w>": 12348,
  "ㅅㅏㄹㅏㅁㄷㅡㄹ</w>": 3583,
  "ㅃㅏㄴㅡㄴ</w>": 13140,
  "ㄱㅏㄱㅗㅇ</w>": 13573,
  "ㅂㅗㅇㅣㄴ": 14040,
  "ㅌㅜㅈㅏ": 2297,
  "ㅋㅗㄹㅣㅇㅏ": 12475,
  "ㅐㅇ": 10975,
  "ㅁㅐㅊㅔ": 11233,
  "ㅇㅣㅆㅇㅡㄹ": 2520,
  "2013": 15043,
  "ㅎㅗㅇㅔ</w>": 5988,
  "ㅅㅑㅇ": 6896,
  "ㅋㅏㄷㅡㄴㅠㅅㅡ</w>": 16337,
  "ㄱㅎㅏㄴ</w>": 6087,
  "ㄱㅓㄴㄱㅏㅇㅂㅗㅎㅓㅁ": 13669,
  "ㅇㅣㄴㄱㅏㄴㅇㅡㄴ</w>": 9711,
  "ㅊㅟㄱㅡㅂ": 5233,
  "ㅂㅏㄹㅅㅐㅇ</w>": 5726,
  "ㅅㅔㄱ": 5003,
  "ㄴㅕㄴㄷㅐ</w>": 5054,
  "ㅇㅛㅇㅑㅇ": 11718,
  "ㄷㅡㅅㅎㅏㄷㅏ</w>": 14669,
  "ㄷㅗㅇㅂㅜ": 11248,
  "ㅇㅏㄹㄱㅔ": 15413,
  "ㅅㅏㅂㅇㅣㅂ": 11093,
  "ㅁㅔㅇㅣㄹㅇㅡㄹ</w>": 13230,
  "I</w>": 224,
  "ㄷㅡㄹㅏㅇㅣㅂㅓ</w>": 11421,
  "ㅎㅚㅇㅢㅇㅔㅅㅓ</w>": 13592,
  "ㅎㅏㄷㅗㄹㅗㄱ</w>": 2373,
  "ㅊㅓㅇㅇㅘㄷㅐ</w>": 7888,
  "ㄲㅡㄴ": 5792,
  "ㅍㅛㅅㅣㄷㅚㅈㅣ</w>": 14692,
  "ㄹㅗㅅㄷㅔ": 4633,
  "ㅂㅣㅎㅐ</w>": 3628,
  "ㄷㅏㄴㅇㅟㄹㅗ</w>": 12213,
  "ㄱㅏㅇㅅㅏ</w>": 8687,
  "ㅂㅜㄴㄷㅡㄹㅇㅔㄱㅔ</w>": 12166,
  "ㅇㅔㄴㅡㄴ</w>": 593,
  "el</w>": 2660,
  "ㅅㅣㄹㅈㅓㄱ</w>": 11106,
  "ㅇㅕㅆㄷㅏ</w>": 1936,
  "ㅈㅣㅈㅓㄱ": 3889,
  "ㄱㅗㅅㅇㅡㄹㅗ</w>": 6923,
  "ㅎㅓㄴㅂㅓㅂ": 10435,
  "ㅁㅏㅇㅡㅁㅇㅡㄹㅗ</w>": 6362,
  "ㄸㅏㄴ": 10120,
  "ㅂㅡㄹㅏㅇㅜㄴ</w>": 11542,
  "ㅎㅏㄴㄱㅜㄱㅇㅡㄴ</w>": 9626,
  "1ㅎㅚ": 11449,
  "ㅍㅏㄴㅇㅡㄹ</w>": 6270,
  "ㅂㅜㄱㅏ": 8280,
  "ㄹㅠㄹㅡㄹ</w>": 15719,
  "ㄱㅏㅍ": 11502,
  "ㅍㅔㅇㅣ": 566,
  "ㄱㅜㄴㅡㄴ</w>": 6208,
  "ㅈㅗㄱㅣ": 12965,
  "ㅈㅜㅇ": 408,
  "ㅅㅣㄴㅊㅓㅇ": 1729,
  "ㅚ</w>": 169,
  "ㅇㅣㅈㅜ": 12333,
  "ㅂㅏㄷㅇㅏㅆㅅㅡㅂㄴㅣㄷㅏ</w>": 9577,
  "ㅈㅓㄴㄱㅜㄱ": 4061,
  "ㅅㅔㄱㅅㅣ</w>": 12775,
  "ㅇㅝㄴㅈㅏㅇ</w>": 8824,
  "ㅈㅓㅇㅂㅗㄹㅗ</w>": 15897,
  "ㄴㅐㅆㄷㅏ</w>": 6198,
  "ㄱㅏㅄ</w>": 6105,
  "ㅇㅣㅂㅈㅏㅇ</w>": 8790,
  "ㄷㅡㄹㅇㅣㄴ</w>": 13257,
  "ㄸㅏㄹㅏ</w>": 919,
  "ㄷㅡㅇㄹㅗㄱ": 1465,
  "ㅎㅑㅇㅇㅣ</w>": 4790,
  "ㅇㅟㄴㄷㅗㅇㅜ</w>": 5928,
  "ㅈㅔ7": 10960,
  "ㄴㅔㄱ": 6031,
  "ㅌㅔㅇㅣㄴ": 5267,
  "ㅇㅣㄴㅌㅓ": 1757,
  "ㅌㅗㄱ": 3582,
  "ㄱㅘㅇㅈㅏㅇ</w>": 9841,
  "ㄱㅏㅂㅈㅏㄱㅣ</w>": 4319,
  "ㅂㅡㄹㄹ": 2676,
  "vers": 9028,
  "ㅇㅣㅎㅜ</w>": 1501,
  "ㅈㅓㄻㅇㅡㄴ": 9763,
  "ㅍㅕㅇㅇㅑㅇ</w>": 12082,
  "ㅈㅓㄴㅂㅜㄱ</w>": 14167,
  "ㄱㅡ": 329,
  "ㄴㅏㅇㅣㅇㅔ</w>": 15330,
  "ㅂㅏㅇㅅㅣㄱㅇㅣ</w>": 11432,
  "ㅇㅏㄴㅇㅡㄹ</w>": 3375,
  "ㄱㅡㅁㅇㅕㄴ</w>": 9121,
  "ㅈㅓㅇㅅㅏㅇㅈㅓㄱㅇㅡㄹㅗ</w>": 9881,
  "ㄱㅐㅇㅣㄴㅈㅓㅇㅂㅗㄴㅡㄴ</w>": 15793,
  "ㅁㅣㄱㅜㄱㅇㅡㄴ</w>": 11017,
  "ㅘㅇ</w>": 9654,
  "ㅅㅣㄹㅣ": 2040,
  "ㅇㅏㄹㄹㅕㄷㅡㄹㅣㅂㄴㅣㄷㅏ</w>": 14049,
  "ㅈㅐㅇㅇㅣ</w>": 9772,
  "ㄱㅓㄷㅐㅎㅏㄴ</w>": 5696,
  "For": 8284,
  "ㅅㅔㄹㅕㄱ": 14826,
  "Porno</w>": 11530,
  "ㅏㄱㅇㅡㄹ</w>": 12023,
  "ㅇㅏㄹㄹㅣㅁ": 15661,
  "ㅍㅓㅁㅍㅡ</w>": 14870,
  "Cㄴㅡㄴ</w>": 9806,
  "31ㅇㅣㄹ</w>": 8108,
  "ㅎㅚㄱㄷㅡㄱ</w>": 16368,
  "ㅍㅡㄹㅗ</w>": 4845,
  "ㅂㅜㄹㅣ": 7984,
  "ㅂㅣㅅㅓ": 12665,
  "ㄴㅡㄹ": 1023,
  "ㅊㅜㄹㄱㅗ</w>": 14252,
  "ㅂㅡ": 2456,
  "Post": 14672,
  "ic": 939,
  "ㅂㅕㄴㄱㅕㅇ</w>": 2862,
  "ㅋㅡㄱㅏ</w>": 10340,
  "ㅅㅓㄹㅇㅡㄹ</w>": 7862,
  "ㅁㅜㅇㅕㄱ": 4683,
  "ㄴㅗㄴㄹㅏㄴ": 5537,
  "ㅎㅏㄱㅅㅐㅇㄷㅡㄹㅇㅡㄹ</w>": 14382,
  "ㅇㅏㄴㅐ</w>": 4682,
  "ㅊㅟㄷㅡㄱ</w>": 14722,
  "ㄱㅣㅅㅏㅇㅔ</w>": 10198,
  "ㅘㄴ": 4505,
  "ㅌㅗㅇㅂㅗ": 12706,
  "ㄷㅏㄴㄷㅗㄱ</w>": 8204,
  "ㅆㅣㅌㅡㄹㅣㅂ": 9652,
  "ㅇㅓㅄㄷㅏㄴㅡㄴ</w>": 3697,
  "ㅊㅏㅈㅇㅏㄴㅐ": 10051,
  "ㄱㅣㅍ": 1965,
  "ㅎㅐㅆㄷㅏ": 14823,
  "ㅍㅡㄹㅗㅍㅣㄹ": 13719,
  "ㅂㅗㄱㅈㅏㅂ": 4558,
  "ㄴㅐㄱ": 10400,
  "ㄱㅡㄹㅏㅇㅜㄴ": 11388,
  "ㅈㅗㅎㄱㅔ</w>": 7699,
  "ㅍㅐㄴ": 1903,
  "ㅈㅣㅅㅗㄱ": 2382,
  "EA</w>": 14378,
  "ㅇㅕㅇㅁㅜㄴ": 13621,
  "ㅎㅏㅌㅡ</w>": 15124,
  "ㅎㅏㅇㅇㅔ</w>": 7657,
  "ㅎㅗㄴ</w>": 3631,
  "ㅁㅏㅈㅊㅜㅁ": 5946,
  "ㅁㅏㅇㅡㄹ</w>": 4121,
  "ㅅㅡㄹㅓㄴ</w>": 8998,
  "DE": 11186,
  "kore": 14769,
  "ㅇㅜㅅㄴㅡㄴ</w>": 15939,
  "ㄲㅡㄶㅇㅣㅁ": 7658,
  "ㅇㅠㄴ</w>": 7861,
  "NE": 4411,
  "ㅍㅗㅇㅣㄴㅌㅡㄴㅡㄴ</w>": 13099,
  "ㅅㅏㅇㅎㅘㅇㅇㅣㄷㅏ</w>": 12759,
  "ㅇㅓㄷㅣ</w>": 7666,
  "ㅅㅗㄱㄷㅗㄹㅡㄹ</w>": 9782,
  "ㅅㅡㅍㅗㄴ": 14456,
  "ㅅㅓㅇㄴㅏㅁ": 9595,
  "ㅇㅏ": 301,
  "ore</w>": 4973,
  "30</w>": 3059,
  "3</w>": 167,
  "ning</w>": 14447,
  "ㅈㅣㅊㅔ": 14065,
  "ㅈㅔㄷㅗ</w>": 3498,
  "DS": 7445,
  "ㅁㅏㅈㅊㅜㅇㅓ</w>": 14325,
  "ㅁㅗㄱㅅㅗㄹㅣ": 11773,
  "ㅅㅏㅇㅣㅌㅡ": 1432,
  "ㅅㅏㅇㅣㅇㅔㅅㅓ</w>": 9433,
  "ㄱㅘㄴㅎㅏㄴ</w>": 1417,
  "ㅎㅏㄴㅂㅓㄴㄷㅗ</w>": 13248,
  "ㄴㅡㄴㄷㅏㅁㅕㄴ</w>": 11816,
  "ㅇㅗㄴㅡㄹㅇㅢ</w>": 7734,
  "ㅇㅕㄱㅇㅢ</w>": 13349,
  "ㄱㅛㅅㅜㄴㅡㄴ</w>": 10532,
  "ㅁㅜㄴㅎㅘ": 1172,
  "ㅈㅡㄱㅅㅣ</w>": 2395,
  "girl</w>": 13765,
  "ight</w>": 7038,
  "ㅈㅜㅇㅇㅣㄴ</w>": 3119,
  "ㅅ": 103,
  "ㄱㅓㄱㅣㅅㅓ</w>": 11071,
  "ㄹㅠㄱ": 8041,
  "ㄹㅣㄱ": 2458,
  "ㅇㅣㅊㅓㄹㅓㅁ</w>": 7294,
  "ㅇㅏㄴㅈㅓㄴㅎㅏㄴ</w>": 8134,
  "ㅊㅏㄱㅎㅏㄴ</w>": 10098,
  "ㅎㅏㄱㅇㅝㄴ": 10583,
  "?'</w>": 8186,
  "ㄷㅗㅇㅇㅏㄴ</w>": 1032,
  "ㅎㅏㅇ</w>": 1403,
  "ㄱㅡㅁㅇㅡㄹㅗ</w>": 12769,
  "EC": 9613,
  "ㄴㅗㄴㅇㅢ</w>": 14995,
  "ㄷㅟ": 1236,
  "ㅈㅜㅇㄱㅜㄱ": 1622,
  "ㅋㅣㅇㅝㄷㅡ</w>": 14536,
  "ㅂㅓㅂㅈㅓㄱ</w>": 3081,
  "ㅅㅐㅇㅎㅘㄹㅇㅣ</w>": 15533,
  "ㄱㅘㅎㅏㄱㅈㅓㄱ</w>": 14740,
  "ㅇㅓㄹㄱㅜㄹㅇㅣ</w>": 12572,
  "1980ㄴㅕㄴ</w>": 12531,
  "ㅌㅗㅈㅣ": 13600,
  "4ㄱㅏㅈㅣ</w>": 12490,
  "ㄲㅏㅈㅣㄴㅡㄴ</w>": 4093,
  "ㅆㅡㄹㅔㄱㅣ</w>": 12760,
  "ㅇㅣㅇ</w>": 14111,
  "NH": 11367,
  "ㅎㅐㅂㅏㄹ</w>": 14842,
  "ㅎㅘㄹㄷㅗㅇ": 1413,
  "ㅎㅏㅅㅕㅅㅓ</w>": 8387,
  "ㅅㅏㄻ": 1550,
  "usiness</w>": 15449,
  "ㅇㅜㄹㅕ": 4891,
  "ㅊㅐㅇㄱㅕ": 9981,
  "ㅍㅏㄹ</w>": 6843,
  "ㅆㅏ": 1312,
  "ㅇㅓㄹㅡㄴ": 7182,
  "ㅈㅡㄹㄱㅓㅂㄱㅔ</w>": 8560,
  "ㅎㅘㅎㅏㄴ</w>": 15686,
  "ㅂㅅㅡㅂㄴㅣㄷㅏ</w>": 4958,
  "ㅅㅣㄹㅍㅐ</w>": 11726,
  "ㅇㅑㅇㅋㅣ": 7372,
  "ㅌㅡㄴㅇㅡㄹ</w>": 4919,
  "ㅍㅏㄴㅌㅏㅈㅣ</w>": 8853,
  "ㅈㅏㄴ": 1318,
  "ㅅㅜㅊㅜㄹ</w>": 12564,
  "ㄱㅕㅇㅇㅜㅇㅔㄷㅗ</w>": 9864,
  "ㅎㅐㅇㅈㅓㅇ</w>": 8044,
  "ㅂㅗㄴㅐㄴ</w>": 7414,
  "ㄱㅏㄴㄷㅏㄴㅎㅣ</w>": 9760,
  "ㅇㅕㅇㅇㅓㄹㅡㄹ</w>": 12243,
  "ㅁㅗㄹㅡ": 1291,
  "ㅋㅏㄴ</w>": 7651,
  "ㅂㅜㅅㅡㅌㅏㅂㅣㅅㅂㅜㅅㅡㅌㅏㅂㅣㅅ</w>": 10906,
  "ㅊㅏㅇㅘ</w>": 11051,
  "ㄱㅝㄴㅎㅏㄴ</w>": 11701,
  "ㅎㅕㅇㅌㅐ": 2273,
  "ㅎㅏㄴㄱㅏㅈㅣ</w>": 12032,
  "ㄷㅡㅅㅇㅣ</w>": 3577,
  "ㅎㅐㅇㄷㅗㅇ</w>": 6986,
  "Por": 2265,
  "ㅙ": 123,
  "ㅇㅜㄴㅎㅐㅇ": 11190,
  "ㅊㅔㅍㅗ": 15967,
  "ㅇㅏㅍㅏ": 2166,
  "ure</w>": 4156,
  "ㅅㅓㅂ": 2886,
  "ㄱㅣㄴㅡㄴ</w>": 1152,
  "ㄱㅇㅡㄹ</w>": 560,
  "ㅅㅏㅇㅛㅇㅎㅏㄴㅡㄴ</w>": 2346,
  "tube</w>": 12469,
  "ㅇㅓㅈㅣ": 4051,
  "ㅌㅏㅂ</w>": 6017,
  "ㅈㅓ": 270,
  "ㄷㅡㄹㅇㅕ": 7996,
  "ㅊㅗㅈㅓㅁㅇㅡㄹ</w>": 11036,
  "ㅅㅓㄴㅌㅐㄱ</w>": 2738,
  "ㅇㅏㄴㄱㅕㅇ</w>": 12322,
  "ㅇㅣㄴㅌㅓㄴㅔㅅㅇㅔ</w>": 15425,
  "ㅈㅔㅇㅚㅎㅏㄱㅗㄴㅡㄴ</w>": 15451,
  "San</w>": 10829,
  "ㅊㅏㅌㅡ</w>": 14219,
  "ㄴㅏㅇㅗㄴㄷㅏ</w>": 6454,
  "ㄱㅕㅇ": 367,
  "ㅅㅣㅈㅏㅇㅇㅣ</w>": 7966,
  "ㄱㅛㅇㅠㄱ</w>": 1526,
  "ㅇㅓㄷㅣㅅㅓㄴㅏ</w>": 15318,
  "ㄴㅏㅁ</w>": 1657,
  "ㄹㅖ</w>": 6635,
  "ㅎㅏㅈㅣㄴ</w>": 14293,
  "ㅍㅓ</w>": 2826,
  "ㅈㅏㅇㅈㅓㅁ": 13401,
  "ㅇㅏㄹㄱㅔ</w>": 4060,
  "ㄲㅜㅁ</w>": 5922,
  "ㅌㅚㄱㅡㄴ": 12324,
  "ㅆㅓㄱ": 13822,
  "ㄷㅐㅅㄱㅡㄹㅇㅡㄹ</w>": 3953,
  "ㅇㅠㄹㅐ": 11222,
  "ㅇㅗㄴㄱㅏㅈ</w>": 10674,
  "ㅅㅗㄱㅎㅏㄴ</w>": 12145,
  "ㄲㅡㅌㄴㅏㄴㅡㄴ</w>": 16135,
  "ㅈㅜㅇㅇㅛㅎㅏㄷㅏ</w>": 6872,
  "ㅂㅓㅅㅡ</w>": 3772,
  "ㄴㅐㄹ</w>": 4207,
  "Out": 15125,
  "ㅇㅣㄴㄷㅔㅇㅛ</w>": 5429,
  "ㅊㅜㄹㅇㅕㄴ</w>": 11360,
  "ㅈㅣㅁ": 3878,
  "ㅇㅛ": 336,
  "ㄹㅗㄱㅡ": 1842,
  "ㅈㅏㄱㅇㅓㅂㅇㅣ</w>": 11056,
  "ㅇㅚㄹㅗ</w>": 8773,
  "D</w>": 177,
  "ㅈ": 106,
  "ㄹㅇㅡㄹ</w>": 7567,
  "ㅈㅗㅇㄱㅛ</w>": 8559,
  "ㅈㅔㅈㅐㄱㅏ</w>": 3215,
  "ㅎㅏㄹㅁㅓㄴㅣ": 7884,
  "ㅋㅡㄹㅣㅁ": 8307,
  "ㅈㅜㅈㅔ": 9213,
  "ㅐ</w>": 155,
  "ㅂㅏㅁㅇㅣ</w>": 12650,
  "ㅇㅣㄴㄱㅝㄴ": 5181,
  "ㄴㅏㅁㅇㅡㄹ</w>": 9207,
  "ㅇㅠㅇㅣㄹㅎㅏㄴ</w>": 7040,
  "ㅎㅏㅇㅣㄹㅏ": 12092,
  "ㅈㅣㅂㅏㅇ": 2207,
  "ㅜㄴㅣ</w>": 12819,
  "ㄱㅘㄱㅏㅁ": 12964,
  "ㅎㅕㄴㅈㅏㅇㅇㅡㄹ</w>": 13549,
  "ㅎㅏㄱㅅㅐㅇㄷㅡㄹㅇㅣ</w>": 7204,
  "ㄲㅡㅌㄴㅏㄱㅗ</w>": 10938,
  "ㄱㅡㄱㅓ</w>": 13492,
  "ㅇㅕㄹㅅㅣㅁㅎㅣ</w>": 3183,
  "ㄱㅕㅇㅈㅐㅇ": 2200,
  "ㅅㅡㅇㄹㅣㄹㅡㄹ</w>": 10438,
  "ㅎㅐㅆㅅㅡㅂㄴㅣㄷㅏ</w>": 1145,
  "ㅈㅓㅇㅂㅗㅇㅣㅁㅕ</w>": 5250,
  "ㄷㅏㅇㅎㅘㅇ": 10881,
  "ㅍㅏㄴㄷㅏㄴ</w>": 14039,
  "ㅈㅐㄹㅛ</w>": 7732,
  "ㅍㅗㅎㅏㅁㅎㅏㄴㄷㅏ</w>": 15572,
  "ㅎㅐㅈㅣㄹ</w>": 2775,
  "ㅅㅏㅈㅣㄴㅇㅡㄹ</w>": 3242,
  "ㄱㅜㄱㅁㅣㄴ": 1607,
  "ies</w>": 7775,
  "12ㅇㅝㄹ": 7516,
  "ㅊㅏㅈㅣ": 3941,
  "ㄱㅡㄹㅣㄷㅡㄹㅗ</w>": 11124,
  "ㅂㅏㅇㅟ": 12163,
  "ㅍㅐㄹㅓㄷㅏ": 14142,
  "ㅇㅏㄴㅣㄹㅏ</w>": 1085,
  "ㅅㅣㅅㅓㄹ</w>": 2055,
  "ㅎㅡㄱ": 2495,
  "ㅇㅏㄹㅡㅁㄷㅏㅇㅜㄴ</w>": 2519,
  "ㅂㅐㅊㅣ</w>": 13798,
  "ㅇㅡㅁㅡㄹㅗ</w>": 3227,
  "ㅈㅗㅎㅇㅏ</w>": 6734,
  "ㅈㅓㄴㅈㅏㄹ": 12575,
  "ㅂㅜㄴㅅㅓㄱ": 1978,
  "20ㄴㅕㄴ</w>": 8211,
  "ㄱㅗㅇㅇㅣㄱ": 14201,
  "ㅂㅕㄴㅎㅗㅅㅏ</w>": 10087,
  "ㄷㅐㅎㅐㅅㅓ</w>": 2623,
  "ㄷㅐㅎㅏㄴ": 1482,
  "ㄷㅐㄹㅠㄱ": 12231,
  "ter": 2514,
  "ㄱㅕㅇㅎㅓㅁㅇㅡㄹ</w>": 4481,
  "31ㅇㅣㄹㄲㅏㅈㅣ</w>": 12736,
  "ㅏㅇㅛ</w>": 3410,
  "V</w>": 175,
  "ㅁㅜㅇㅓㅅ": 1310,
  "ㅅㅏㅁㅇㅣㄴㅈㅗ</w>": 13247,
  "ㅂㅏㄹㅏㅁㅇㅣ</w>": 7174,
  "ㅂㄷㅏ</w>": 6662,
  "ㅎㅛ": 952,
  "ㅁㅜㅅㅣ": 5533,
  "Cr": 12908,
  "ㅍㅡㄹㅗㅇ": 7970,
  "ㄱㅓㅅㄷㅡㄹㅇㅣ</w>": 6642,
  "ㅅㅏㅇㅅㅣㄱ": 15253,
  "ㅋ</w>": 230,
  "ㅊㅣㄹㅓ": 12452,
  "ㅈㅓㄴㅈㅏㅇㅜㅍㅕㄴ</w>": 14563,
  "ㅊㅟㅎㅏㄹ</w>": 13359,
  "ㅊㅗㄷㅡㅇ": 3705,
  "ㅂㅜㄴㄴㅗ": 12506,
  "ㅇㅏㄹㅂㅏ</w>": 13792,
  "U": 46,
  "ㅇㅣㄹㅂㅗㄴㅇㅔ</w>": 16243,
  "ㅅㅏㅇㄷㅏㅁㅇㅡㄹ</w>": 10235,
  "ㅅㅓㅇㄱㅘㄹㅡㄹ</w>": 8933,
  "29": 2860,
  "ㅇㅕㄴㄱㅘㄴㅅㅏㅇㅍㅜㅁ</w>": 13260,
  "ㅇㅕㅎㅐㅇㅇㅔㅅㅓ</w>": 13313,
  "ation</w>": 1994,
  "ㅇㅣㄹㅜㄱㅗ</w>": 14057,
  "ㅅㅓㅇㅝㄴ": 7619,
  "ber": 8788,
  "Free</w>": 16082,
  "ㅂㅏㄷ": 538,
  "ㄷㅏㅅㅣㄴㅡㄴ</w>": 13967,
  "ㅂㅏㅇㅊㅣㅁ</w>": 8905,
  "ㄴㅓㅁ": 805,
  "ㄱㅡㄹㅓㅎㅏㄴ</w>": 5343,
  "ㅅㅔㅅㅉㅐ</w>": 13066,
  "ㅕㅇㅑ</w>": 1946,
  "ㄱㅣㄹㅇㅣㄴㅡㄴ</w>": 7585,
  "ㅅㅓㅂㅓ</w>": 5183,
  "ㄴㅏㅁㄱㅡㄴ</w>": 14363,
  "30": 1106,
  "ㅁㅐㅁㅐ</w>": 9882,
  "]</w>": 247,
  "ㅈㅣㄴㅎㅐㅇㄷㅚㄹ</w>": 15497,
  "ㅈㅓㄴㅊㅔㄹㅡㄹ</w>": 10239,
  "ㅅㅓㅂㅣㅅㅡㅇㅘ</w>": 12132,
  "ㅊㅜㄹㅂㅏㄹ</w>": 5354,
  "As": 5991,
  "ㅁㅗㄴㅡㄴ</w>": 15864,
  "ㄱㅘㄴㄱㅖㄴㅡㄴ</w>": 14403,
  "''</w>": 14935,
  "ㅁㅗㄹㅣ</w>": 5978,
  "up": 3637,
  "ㅅㅗㄱㅏ</w>": 3234,
  "ㅈㅏㄷㅡㄹ</w>": 6522,
  "ㄷㅐㅅㅣㄴ</w>": 3393,
  "ㄱㅕㅇㅎㅓㅁ</w>": 6419,
  "ㅇㅗㅇㅢ</w>": 14223,
  "ㄱㅣㅍㅇㅣ</w>": 6777,
  "ㅅㅏㅇㄷㅏㅇㅎㅣ</w>": 4054,
  "ㅇㅗㅂㅓㅇㅝㅊㅣ</w>": 11736,
  "hw": 11213,
  "ㅂㅗㅇㅏㄴ</w>": 4105,
  ")</w>": 236,
  "km</w>": 2255,
  "ㅎㅏㅅㅣㄴㅡㄴ</w>": 2548,
  "ㄱㅞ": 10010,
  "ㄱㅏㅇㄴㅏㅁ</w>": 10623,
  "ㅅㅡㅋㅗㅇㅓ": 8583,
  "ㅅㅡㅌㅏㅇㅣㄹㅇㅢ</w>": 10253,
  "ㅈㅏㅅㅣㄴㅇㅢ</w>": 1364,
  "ㄷㅏㅇㅣㅇㅓ": 4058,
  "ㅈㅣㄱㅏㅂ</w>": 14837,
  "ㅍㅏㅇㅣㄹㅇㅔ</w>": 13119,
  "ㄱㅗㅇㄱㅐㅎㅐㅆㄷㅏ</w>": 13974,
  "ㄱㅡㄹㅜㅂ</w>": 2270,
  "ㅌㅏㄱㅇㅝㄹ": 11550,
  "ass</w>": 8447,
  "ㄷㅐㅅㅏ</w>": 11254,
  "ㅇㅗㄹㅔㄴㅈㅣ</w>": 15491,
  "ㅇㅟㅇㅘ</w>": 6311,
  "4K</w>": 13773,
  "ㅁㅐㄹㅕㄱㅇㅡㄹ</w>": 12571,
  "NEW</w>": 13135,
  "ㅈㅓㄴㄹㅕㄱ": 9130,
  "ㅅㅓㅇㄱㅕㄱㅇㅡㄹ</w>": 16189,
  "ㅂㅏㄹㄹㅔㄴ": 14930,
  "ㅂㅡㄹㅔ": 8053,
  "ics</w>": 4519,
  "ㅁㅔㄹㄹㅗ": 13657,
  "ㅊㅏㅅㅔㄷㅐ</w>": 11623,
  "ㄱㅓㅁㅈㅡㅇ": 7313,
  "ㅁㅗㅇㅑㅇㅇㅡㄹㅗ</w>": 10773,
  "ㄱㅏㅇㅘ</w>": 5853,
  "pdf</w>": 14752,
  "ㄱㅡㄹㄹㅜ": 16131,
  "ㅇㅏㅁ": 1257,
  "ㄱㅏㅌㄷㅏㄱㅗ</w>": 16228,
  "ㅅㅕㅆㄴㅏㅇㅛ</w>": 11562,
  "ㅈㅜㅅㅣㄴㅡㄴ</w>": 8867,
  "ㄷㅐㄱㅣ": 6882,
  "ㅂㅜㄴㄷㅡㄹ": 4996,
  "ㅇㅗㄹㅠ</w>": 8083,
  "ㅁㅜㅈㅏㄱ": 12726,
  "ast</w>": 7990,
  "ㅈㅏㅅㅣㄴㄱㅘ</w>": 14719,
  "ㄱㅣㅂㅜ": 6649,
  "ㄱㅏㄴㄷㅏㄴ": 2462,
  "2ㅍㅔㅇㅣㅈㅣ</w>": 4935,
  "OE": 11452,
  "ㅋㅗㄹㅣㅇㅏ</w>": 4703,
  "ㅅㅏㅇㅛㅇㄷㅚㄹ</w>": 15500,
  "ㄴㅠㅈㅣㄹ": 9948,
  "ㄱㅓㄷㄴㅡㄴ</w>": 16231,
  "ㅇㅓㅉㅓ": 3282,
  "ㅇㅏㄴㅣㄴㄱㅏ</w>": 4975,
  "ㅎㅐㅇㅇㅟㅇㅔ</w>": 15062,
  "ㅁㅏㅋㅡ</w>": 7130,
  "ㅊㅚㄱㅡㄴ": 3615,
  "ㅉㅗㄱㅇㅡㄴ</w>": 10985,
  "ㅁㅔㅁㅂㅓ": 5563,
  "ㅇㅜㅅㅇㅡㅁㅇㅡㄹ</w>": 14411,
  "ㅅㅡㅌㅔㅇㅣ": 3935,
  "ㅂㅓㄹㅕ": 4998,
  "ㅎㅏㄴㅍㅕㄴ</w>": 3023,
  "ㅆㄴㅔㅇㅛ</w>": 14388,
  "ㅌㅐㅇㅓㄴㅏ": 8314,
  "ㅅㅡㅌㅡㄹㅔㅅㅡ</w>": 9418,
  "ㄱㅙㄴㅊㅏㄶ": 3014,
  "ㄲㅏㄴ</w>": 6200,
  "pl": 2782,
  "ㅊㅔㅎㅓㅁㅎㅏㄹ</w>": 12368,
  "ㅋㅏ": 610,
  "ㅗㄱㅏ</w>": 11041,
  "abase</w>": 12735,
  "ㅇㅗㅌㅗ": 7465,
  "ㅡ": 131,
  "ㅇㅗㄹㄹㅕㅆㄷㅏ</w>": 11641,
  "ㅊㅣㄱㅣ</w>": 9183,
  "ㄷㅡㄹㅇㅔㄱㅔㄷㅗ</w>": 16345,
  "ㄷㅐㅌㅗㅇ": 1365,
  "ㅍㅜㅁㅇㅡㄹ</w>": 1701,
  "ㄸㅐㅁㅏㄴ</w>": 15656,
  "ㅍㅗㅌㅡ": 4392,
  "ㅊㅓㅇㄴㅕㄴ</w>": 9287,
  "ㄱㅡㄹㅈㅏ</w>": 14517,
  "ut": 2352,
  "ㅇㅣㄴㄱㅗㅇㅈㅣㄴㅡㅇ": 14310,
  "ㄷㅗㅇㄱㅖㅇㅗㄹㄹㅣㅁㅍㅣㄱ</w>": 15285,
  "ㄱㅡㅁㅅㅗㄱ": 13981,
  "ㅇㅣㄴㅌㅓㄴㅔ": 1031,
  "ment</w>": 5788,
  "ㅇㅣㄹㅇㅓㄴㅏㅈㅣ</w>": 8157,
  "ㅎㅣㅁㅇㅡㄹ</w>": 3844,
  "ㅇㅣㅁㅕㄴ</w>": 2881,
  "ㅊㅜㅇㅜㄴ</w>": 14112,
  "Io": 9969,
  "ㅈㅓㄴㅁㅜㄴㄱㅏ": 5804,
  "ㄷㅏㅇㅅㅣㄴㅇㅡㄹ</w>": 7059,
  "ㅅㅏㄹㅖㄱㅏ</w>": 13661,
  "ㅈㅏㅇㅁㅕㄴ</w>": 9042,
  "ㄹㅏㄷㅣㅇㅗ</w>": 9616,
  "ㄱㅐㄹㅗ</w>": 9166,
  "ㄱㅡㄹㅇㅣ</w>": 5956,
  "ock</w>": 14615,
  "ㅠㄴㅣ": 2905,
  "ㅂㅓㅈㅓㄴ": 3238,
  "ㅂㅜㄴㅅㅓㄱㅇㅡㄴ</w>": 14557,
  "ㅇㅐ": 562,
  "ㄴㅏㄹ": 612,
  "ㄴㅜㄱㅜ</w>": 11524,
  "ㄴㅕㅅㅓㄱ": 12977,
  "ㄸㅏㅇ": 2218,
  "ㅇㅔㄴㅌㅓㅌㅔㅇㅣㄴ": 7842,
  "ㅇㅣㅂㅓ</w>": 9441,
  "ㅈㅜㄴㅂㅣㅎㅏㄱㅗ</w>": 11710,
  "ㅎㅏㅂㅂㅓㅂ</w>": 15164,
  "ㅈㅓㅇㅂㅗㅌㅗㅇㅅㅣㄴ": 6575,
  "ㅇㅜㅁㅈㅣㄱㅇㅣㄴㅡㄴ</w>": 10974,
  "ㄸㅐ</w>": 711,
  "ㅅㅡㄹㄹㅏㅇㅣ": 4178,
  "ㅅㅏㄴㄷㅏ</w>": 13995,
  "ent</w>": 2186,
  "]": 54,
  "ㅍㅣㅂㅜ</w>": 6813,
  "ㅁㅗㅅㅎㅏㄱㅔ</w>": 9519,
  "ㅂㅐㄱㄱㅘ</w>": 4511,
  "ㅇㅛㅇㅣㄹ</w>": 3000,
  "ㅌㅜㄷㅔㅇㅣ</w>": 10631,
  "ㅋㅐㄴㅏ": 4400,
  "ㅇㅘㅇㅣ": 3968,
  "ㄷㅗㅇㄱㅜ</w>": 12732,
  "ㅇㅡㅁㅇㅢ</w>": 15517,
  "ㅅㅏㄴㅇㅡㄹ</w>": 3758,
  "ㄷㅡㄹㅇㅓㄱㅏㅆㄷㅏ</w>": 15528,
  "ㅂㅠ</w>": 7054,
  "ㅅㅏㅇㅌㅐㅇㅔ</w>": 10559,
  "ㅋㅣㄹㄹㅗ": 3162,
  "ㄱㅏㅁㅈㅣ": 14427,
  "ㄴㅐㅂㅜ</w>": 4884,
  "ㅇㅢㄱㅕㄴ</w>": 7316,
  "Min": 12608,
  "ㅇㅏㄹㅏ</w>": 10249,
  "am": 1132,
  "ㄴㅏㄴㅜㅁ": 7544,
  "ㅇㅣㅇㅓㅍㅗㄴ</w>": 15181,
  "ㅂㅓㅂㄹㅕㅇㅇㅔ</w>": 11362,
  "ㄱㅓㄹㄹㅣㄹ</w>": 14800,
  "ㅁㅗㅁㅇㅡㄹㅗ</w>": 15557,
  "ㅇㅣㄹㄹㅕㄴ": 14776,
  "ㅇㅣㅂㅓㄴㅇㅔㄴ</w>": 12242,
  "ㅅㅡㅌㅔㄹ": 13744,
  "fucking</w>": 10848,
  "ㅈㅏㄹㅏ": 8644,
  "ㅎㅏㄹㅏ</w>": 3146,
  "ㄹㅏㄱㅗ</w>": 991,
  "ㄹㅏㅇㅣ": 1212,
  "ㅇㅖㄹㅜㅅㅏㄹㄹㅔ": 15510,
  "ㅁㅏㄴㅇㅑㄱ</w>": 3104,
  "ㅂㅗㄴㅡㄴ": 11204,
  "ㅎㅐㅈㅜㅂㄴㅣㄷㅏ</w>": 15145,
  "--</w>": 4970,
  "ㅅㅏㄹㅏㅁㅇㅣ</w>": 1540,
  "Roo": 14271,
  "ㅇㅣㄴㅇㅕㄴ": 14004,
  "ㅇㅣ</w>": 282,
  "ㅂㅜㄹㅡ": 3858,
  "ㅅㅏㄱㅈㅔ</w>": 1760,
  "ㅅㅐㄱ</w>": 955,
  "ㅊㅏㄹㅑㅇ": 3670,
  "ㅌㅡㄴㅌㅡㄴ": 13568,
  "ㅇㅣㄴㅎㅕㅇ</w>": 11716,
  "ㄷㅜㅂㅓㄴㅉㅐ</w>": 9615,
  "0ㅇㅔ</w>": 6615,
  "ㅅㅏㅇㄱㅣ</w>": 4466,
  "ㅈㅏㅇㅁㅕㄴ": 9225,
  "ㅊㅜㄹ</w>": 1251,
  "ㄷㅏㅇㅂㅜ": 16058,
  "ㄴㅏㅁㅈㅏ": 3921,
  "ㅈㅣㅇㅓ</w>": 4632,
  "ㅇㅓㄹㄱㅜㄹㅁㅏㅅㅏㅈㅣ</w>": 16070,
  "ㅇㅣㄴㄱㅏㄴㅇㅡㄹ</w>": 14900,
  "ㄹㅔ": 559,
  "ㅊㅏㅈㅇㅡ": 8392,
  "2005ㄴㅕㄴ</w>": 11098,
  "ㅂㅣㄹㄹㅏ</w>": 14228,
  "44</w>": 8057,
  "ㅇㅣㅇㅑ</w>": 4754,
  "ㄱㅛㅇㅠㄱㅇㅡㄹ</w>": 4688,
  "ㅇㅜㄹㅣㄹㅡㄹ</w>": 5885,
  "ㅇㅟㅊㅣㅎㅏㄴ</w>": 2700,
  "ㄷㅓㅂㅗㄱㅣ</w>": 11584,
  "ㄹㅗㅇㅝ": 10933,
  "ㄲㅗㅁ": 4624,
  "ㄱㅓㅅㅇㅣㄷㅏ</w>": 791,
  "ㅎㅏㄱㄱㅛㅈㅓㅇㅂㅗㅇㅣㅁㅕ</w>": 5309,
  "ㄱㅣㅂㅏㄴㅇㅡㄹ</w>": 15044,
  "zz": 15076,
  "ㅂㅡㄹㅣ": 3557,
  "ㅎㅏㄴㅡㄹ": 3435,
  "ㅋㅙㅈㅓㄱ": 12502,
  "ㅍㅗㄹ</w>": 8972,
  "ㅇㅛㅊㅓㅇ": 2584,
  "ㅅㅣㅂㄷㅐ</w>": 7806,
  "ind": 2827,
  "ㅇㅣㄴㅅㅡㅌㅏ": 10252,
  "ㄱㅓㄹㄹㅣ": 2868,
  "ㅍㅔㅇㅣㅅㅡㅂㅜㄱ": 9054,
  "ㅂㅗㅅㅡㅌㅓㄴ": 14961,
  "ㄴㅣㅇ</w>": 2637,
  "ㅈㅔㄴ</w>": 12019,
  "ㄱㅏㅈㅣㄱㅏ</w>": 9901,
  "ㅌㅏㄹㅂㅜㄱ": 11519,
  "ㅅㅏㅇㅜ": 8407,
  "ㅅㅏㄱㅗㄱㅏ</w>": 10187,
  "ㄷㅏㅇㅟ": 15161,
  "ㄴㅏㄴㅜ": 2144,
  "ㅅㅐ</w>": 1730,
  "ㅎㅏㄹㅏㄴㅡㄴ</w>": 10483,
  "ㄱㅣㅅㅜㄹㅇㅣ</w>": 8497,
  "ㄹㅗㅆㅓ</w>": 12534,
  "ㄷㅚㄴㄷㅏㅁㅕㄴ</w>": 5994,
  "ㅁㅜㄹㅛㅂㅐㅅㅗㅇ</w>": 10918,
  "ㅈㅜㄴㅂㅣ</w>": 4867,
  "ㅁㅜㄴㅈㅔㄴㅡㄴ</w>": 3184,
  "KBS</w>": 6782,
  "ㅇㅕㄴㅅㅗㄱ": 8753,
  ".\"</w>": 1677,
  "ㅁㅔㅅㅣㅈㅣ</w>": 7360,
  "ㅌㅡㄴ</w>": 2667,
  "ㄲㅜㅈㅜㄴㅎㅣ</w>": 5728,
  "ㅂㅜㄴㄷㅡㄹㅇㅣ</w>": 3623,
  "AS": 3621,
  "ㅔㅅㅓㄷㅗ</w>": 14705,
  "ㅊㅗㄱㅘ": 5065,
  "IoT</w>": 11705,
  "ㅇㅣㅆㅇㅓㅆㄴㅡㄴㄷㅔ</w>": 5107,
  "ㅈㅓㄱㅇㅛㅇ": 1566,
  "ㅎㅏㄴㄱㅜㄱㄷㅏㅇ</w>": 10766,
  "ㅇㅕㄴㄱㅜ": 1210,
  "ㄱㅗㅇ</w>": 1127,
  "plication</w>": 14735,
  "ㄷㅏㅇㅡㅁㅇㅡㄹㅗ</w>": 14170,
  "ㄴㅗㄷㅗㅇ</w>": 11239,
  "ㄱㅕㅇㅜㄹ</w>": 5694,
  "ㄱㅏㄷㅗ</w>": 10835,
  "Cont": 8149,
  "ㅈㅏㅁㅜㄴ": 12750,
  "ㄷㅡㄹㅣㄴㅡㄴ</w>": 8101,
  "rec": 6128,
  "ㅇㅝㄴㅇㅣㄴ": 11147,
  "ㅋㅡㄱㅣㄹㅡㄹ</w>": 14273,
  "ㅅㅣㄱㅏㄴㅇㅔ</w>": 3698,
  "ㅅㅣㄱㅅㅏㄱㅏ</w>": 13427,
  "ㅇㅣㅁㅕㄴㅅㅓ</w>": 10916,
  "ㄶ</w>": 256,
  "ㅎㅏㅈㅏㅁㅕㄴ</w>": 7818,
  "ㅌㅡㄱㅈㅣㅇㅇㅡㄹ</w>": 12728,
  "ㅇㅠㅎㅕㅇ</w>": 6114,
  "ㄱㅗㄹㄷㅡㄴ": 10178,
  "ㄹㅣㄷㅓ": 3982,
  "ㅎㅘㄱㅇㅣㄴㅎㅏㄴㅡㄴ</w>": 12451,
  "Wor": 6851,
  "ㄱㅐㅅㅓㄴ": 2927,
  "ㅅㅗㄹㅣㄴㅡㄴ</w>": 16143,
  "ㅋㅐㅁㅍㅔ": 13961,
  "ㅂㅜㅍㅐ": 16355,
  "ㅈㅓㅇㅎㅏㄱㅗ</w>": 12791,
  "ㅋㅐㄹㄹㅣㅍㅗㄴㅣㅇㅏ</w>": 12978,
  "ㄱㅏㅅㅏㅇ</w>": 10421,
  "ㅁㅜㄴㅇㅢ</w>": 1981,
  "ㅇㅣㅁㅣ": 1582,
  "ㅊㅣㅇ": 2867,
  "ㅌㅏㄹㅗ</w>": 4011,
  "ㅅㅣㄹㄴㅐ": 9796,
  "ㅅㅣㄴㅅㅏㅇ": 14298,
  "ㅇㅓㄹㅁㅏㄴㅏ</w>": 2179,
  "ㅇㅏㄹㄹㅔㄱ": 14503,
  "ㄹㅏㄴ": 1214,
  "ㄱㅐㅇㅣㅂ</w>": 14678,
  "ㅇㅣㅌㅏㄹㄹㅣ": 7135,
  "ㄲㅏ": 539,
  "ㅇㅣㄱㅗㅅㅇㅔ</w>": 10436,
  "The</w>": 2609,
  "ㅂㅜㄹㅍㅕㄴㅎㅏㄴ</w>": 13165,
  "ㅎㅏㅇㅢ</w>": 10495,
  "anc": 7606,
  "ㅅㅏㄱㅟ": 11510,
  "ㄱㅏㅇㅇㅛ": 12232,
  "ational</w>": 8892,
  "ㅎㅚㅅㅏㄹㅡㄹ</w>": 9980,
  "ㅇㅐㄴㅣ": 11522,
  "ㅂㅏㄹㅍㅛㅎㅐㅆㄷㅏ</w>": 9502,
  "ㅇㅣㅆㄱㅔ</w>": 1652,
  "ㅇㅑㅇㅚ</w>": 4538,
  "ㅇㅣㅅㅏㅈㅏㅇ</w>": 15737,
  "ㅁㅇㅢ</w>": 1066,
  "ㅈㅣㄴㅏㄴㄷㅏㄹ</w>": 8219,
  "ㄴㅏㅂㅗㄷㅏ</w>": 16191,
  "ㄸㅐㅁㅜㄴㅇㅣㅂㄴㅣㄷㅏ</w>": 4439,
  "ㄴㅠㅅㅡ": 5307,
  "ㅡㄴㅗ</w>": 2713,
  "ㅂㅗㅇㅣㅂㄴㅣㄷㅏ</w>": 5915,
  "ㅅㅣㄹㅎㅓㅁ</w>": 5235,
  "ㅎㅏㄷㅡㅅ</w>": 14205,
  "13ㅇㅣㄹ</w>": 6077,
  "ㅂㅜㅂㅜㄴㅇㅢ</w>": 12483,
  "ㅋㅜ</w>": 11241,
  "2013</w>": 7121,
  ".)</w>": 1831,
  "ㅅㅜㅅㅜㄹㅛ": 6912,
  "ㄴㅐㅁㅅㅐ</w>": 15716,
  "ㅇ": 105,
  "ㅅㅜㄴㅇㅟ</w>": 4977,
  "ㄷㅏㅅㅣㅍㅣ</w>": 15959,
  "ㅇㅐㅇㅘㄴ": 14764,
  "you</w>": 9843,
  "ㄱㅗㅇㅌㅗㅇ": 7050,
  "ㅈㅗㅇㅈㅗㅇ</w>": 7070,
  "ㅈㅜㄱ</w>": 6768,
  "ㅈㅓㄴㅌㅜ</w>": 14193,
  "ㄷㅡㅇㄹㅗㄱㅇㅣ</w>": 15759,
  "ㅇㅣㄹㅇㅔ</w>": 1827,
  "ㅂㅣㅈㅡ": 2677,
  "ㄴㅗㅇㅖ": 14169,
  "yst": 4621,
  "ㅁㅔㄷㅣ": 10474,
  "ㅎㅚㅎㅘ</w>": 13282,
  "un</w>": 6032,
  "Black</w>": 15050,
  "ㅎㅏㄱㅣㄴㅡㄴ</w>": 9118,
  "MERRA</w>": 6751,
  "ㅎㅚㄱ": 1227,
  "ㅈㅓㄴㅈㅏㄹㅔ": 16293,
  "ㅂㅜㄹㅎㅐㅇ": 11488,
  "ㅊㅕㅇㅑ</w>": 12894,
  "ㅈㅣㅂㅎㅐㅇ": 7142,
  "ㅈㅓㄱㄹㅣㅂ": 5695,
  "ㄱㅖㅎㅚㄱㅅㅓ</w>": 9938,
  "ㅁㅣㄹㄹㅣㅁㅣㅌㅓㄹㅗ</w>": 9535,
  "ㅊㅣㄹㅛㄹㅡㄹ</w>": 6759,
  "ㅎㅓㅅ": 10970,
  "ㅎㅘㅇㅛㅇㅣㄹ</w>": 11603,
  "ㅅㅓㅇㅇㅢ</w>": 3138,
  "ㅇㅝㄴㅇㅡㄴ</w>": 2833,
  "ㅇㅡㅁㅅㅓㅇ</w>": 10083,
  "000": 2007,
  "WiFi</w>": 7048,
  "ㅇㅟㄱㅣㄹㅡㄹ</w>": 13547,
  "ㄱㅣㅁㅈㅣ": 14109,
  "ㅅㅗㄱㅇㅢ</w>": 5529,
  "ㅎㅘㅍㅖ</w>": 7947,
  "ife</w>": 12683,
  "ㄴㅏㅁㄱㅣㄴ</w>": 15248,
  "ㅎㅘㄱㄷㅐ": 5115,
  "ㅇㅣㅆㄴㅡㄴㄱㅏ</w>": 7060,
  "ㅅㅔㅅ</w>": 8174,
  "ㄱㅓㄱㅈㅓㅇ</w>": 10686,
  "ㅇㅓㅆㅈㅣㅁㅏㄴ</w>": 7000,
  "ㄱㅗㄱㅣ": 10978,
  "ㅅㅜㄹㅣㅂ": 10500,
  "DO": 11579,
  "ㅅㅏㅇㅇㅡㄴ</w>": 4872,
  "ㅅㅕㄴ</w>": 1055,
  "ㅋㅗㅁ": 5133,
  "ㅅㅏㅅㅣㄹ": 1381,
  "ㅌㅡㄱㅈㅣㅇ": 3596,
  "ㅉㅏㄱ": 5593,
  "ㅇㅣㄹㅡㄴ</w>": 13662,
  "ㅇㅣㅆ</w>": 6945,
  "ㅋㅔㅇㅣㅅㅡ</w>": 4966,
  "Bu": 12830,
  "ㄱㅓㄷㅡ": 7788,
  "ㅇㅏㅇ": 592,
  "ㅓㄹ</w>": 3188,
  "ㅇㅏㄹㄹㅔㄹㅡ": 15463,
  "ㅇㅡㅇㄷㅏㅂ": 9165,
  "ㅎㅐㅇㅅㅏ</w>": 3821,
  "ㅊㅣㅁㅇㅡㄹ</w>": 6358,
  "Porn": 3946,
  "ㄷㅏㅇㅡㅁㄱㅘ</w>": 2286,
  "ㅋㅣㄹㅡㄹ</w>": 6564,
  "ㄱㅏㅄㅇㅣ</w>": 8479,
  "ㅊㅓㄹㅈㅓㅎㅣ</w>": 12149,
  "ㄷㅏㄹㅣㄹㅡㄹ</w>": 12342,
  "ㅎㅑㅇㅎㅐ</w>": 5841,
  "ㅎㅘㄴㅏ</w>": 15913,
  "ㅎㅏㄴㄲㅓ": 14742,
  "me": 4513,
  "ㅅㅡㅁㅏㅌㅡㅍㅗㄴㅇㅡㄹ</w>": 14896,
  "ㄱㅣㅇㅓ</w>": 13971,
  "ㅎㅐㅇㅅㅏㄱㅏ</w>": 14227,
  "1ㅇㅝㄹ": 10863,
  "ㅍㅏㄴㅇㅔ</w>": 10642,
  "ㅊㅜㄹㅍㅏㄴ</w>": 12734,
  "ㄱㅏㄴㄹㅑㄱ": 8241,
  "ㅅㅣㄹㅎㅓㅁ": 4067,
  "ㅅㅓㄹㅈㅓㅇㅇㅡㄹ</w>": 7582,
  "ㅎㅏㄱ</w>": 855,
  "ㅊㅟㅅㅗ": 6269,
  "ㅌㅗㅇ</w>": 1391,
  "ㄴㅣㅁㄲㅔ</w>": 6506,
  "ㄱㅕㅆㄷㅏ</w>": 13980,
  "ㄱㅗㅁㅣㄴㅎㅐㅆㄴㅡㄴㄷㅔ</w>": 13877,
  "ㅇㅣㄹㅂㅗㄴㅇㅔㅅㅓ</w>": 12047,
  "ㅋㅗㄷㅣㅇ</w>": 14172,
  "ㅈㅜㄷㅗ": 7163,
  "ㅇㅣㅆㄴㅡㄴㄷㅔㅇㅛ</w>": 6333,
  "ㅈㅛ</w>": 983,
  "ㅈㅏㅈㅓㄴㄱㅓ": 7697,
  "ㅈㅜㅇㄱㅜㄱㅇㅓ</w>": 12806,
  "ㅇㅣㅂㅈㅏㅇㅇㅡㄹ</w>": 8158,
  "ㅇㅖㄱㅗ</w>": 4052,
  "ㄱㅏㅁㅅㅏㅇ</w>": 12309,
  "ㅊㅗㄱㅘㅎㅏㄱㅓㄴㅏ</w>": 9208,
  "ㅇㅣㄴㅈㅗㅇ</w>": 9302,
  "ㅂㅡㄹㄹㅗㄱㅊㅔㅇㅣㄴ</w>": 10368,
  "ㅇㅓㅆㄷㅏㄱㅗ</w>": 8552,
  "ㅇㅓㅈㅣㄹ</w>": 15990,
  "ㄱㅔㄴㅡㄴ</w>": 11563,
  "ㅇㅣㅆㅇㅓㅆㄱㅣ</w>": 14278,
  "ㄱㅗㅅㅓ</w>": 15831,
  "ㅋㅡㄱㅗ</w>": 7830,
  "ㅅㅏㅎㅚㅇㅢ</w>": 4718,
  "Mic": 4829,
  "ㅂㅡㄹㄹㅐㄱ</w>": 3342,
  "big</w>": 12504,
  "ㅇㅏㅁㅗㄴ": 12020,
  "ㄷㅔㅇㅣㅌㅓㅇㅢ</w>": 14864,
  "ㅁㅜㅎㅏㄴㄷㅗㅈㅓㄴ</w>": 13667,
  "ㄷㅐㅅㅓㄴ": 15914,
  "ㅁㅔㄴ": 2405,
  "ㄴㅏㄴㅜㅁ</w>": 11911,
  "ㅁㅗㅇㅔ</w>": 16092,
  "ㅎㅚㄱㅏ</w>": 4394,
  "ㅈㅜㄹ</w>": 1462,
  "ㅇㅣㄴㅅㅣㄱ</w>": 7210,
  "ㅌㅗㅇㄱㅖ</w>": 7318,
  "ver</w>": 9591,
  "ㅇㅣㄴㅌㅓㅂㅠ</w>": 3842,
  "ㅅㅗㄴㅇㅡㄹㅗ</w>": 6573,
  "ㅅㅏㄹㅏㅇㅇㅢ</w>": 6894,
  "ang": 3343,
  "ㅂㅏㄴㄷㅐ": 4737,
  "lin": 9331,
  "ㄴㅏㄷㅗ</w>": 3944,
  "ㅈㅡㅇㅅㅏㅇ</w>": 12162,
  "ㅇㅡㅁㅇㅏ": 2780,
  "method</w>": 10872,
  "ㅇㅓㄹㄱㅜㄹ</w>": 5085,
  "ㅅㅣㄱㅅㅏ</w>": 3531,
  "ㅅㅣㅅㅏㅇ": 9795,
  "00": 761,
  "ㄹㅗㄹ</w>": 8932,
  "im</w>": 8675,
  "ㅁㅜㅅㅓㅇ": 8388,
  "system</w>": 11936,
  "ㅊㅣㄴㅈㅓㄹㅎㅏㄱㅗ</w>": 11086,
  "ㄴㅗㄹㅐㄹㅡㄹ</w>": 9606,
  "ㅇㅓㅂㄱㅖ</w>": 7672,
  "ㄷㅐㅎㅕㅇ": 8522,
  "ㅜㄱ</w>": 5993,
  "ㅇㅣㅆㄷㅡㅅㅇㅣ</w>": 15882,
  "ㅈㅣㄴㄱㅘ</w>": 13697,
  "ㄴㅐㄱㅔ</w>": 5562,
  "ㅇㅡㄹㅗㅆㅓ</w>": 2556,
  "ㅈㅣㅅㅣㄱ": 3763,
  "ㅇㅏㅅㅣ": 1562,
  "IG": 9803,
  "ㄷㅏㅁㅇㅡㄹ</w>": 3571,
  "ㅁㅏㅇㅣㄴ": 5426,
  "ㅅㅓㄴㅈㅓㅇ": 3834,
  "ul</w>": 12957,
  "an</w>": 1467,
  "ㄷㅓㄹㅏㄱㅗㅇㅛ</w>": 7330,
  "ㅈㅏㄱㅏ</w>": 961,
  "res": 2818,
  "ㅈㅜㅁㅣㄴㄷㅡㅇㄹㅗㄱ": 10536,
  "ㅎㅘㄹㅇㅑㄱ": 8403,
  "ㄱㅘㅇㅈㅜ</w>": 7616,
  "ㅇㅣㄹㅏㄴㅡㄴ</w>": 1156,
  "ㅋㅓㄴㅌㅔㄴㅊㅡ</w>": 9161,
  "ㅂㅗㅊㅜㅇ": 12068,
  "ㄱㅔㅇㅣㅁ</w>": 1175,
  "ㅎㅏㄾ": 6790,
  "ㅈㅏㅊㅔ</w>": 5990,
  "ㄷㅡㄹㅇㅓㄱㅏㅅㅓ</w>": 12615,
  "ㅇㅓㄷㄴㅡㄴ</w>": 10893,
  "ㅂㅗㄴㅐㅅㅔㅇㅛ</w>": 12427,
  "ㅇㅗㄹㄹㅣㄴㅡㄴ</w>": 9836,
  "ㅇㅢㅇㅝㄴㅇㅢ</w>": 15027,
  "ㅇㅏㄷㅡㄹㅇㅣ</w>": 12812,
  "ㅑ": 115,
  "ㅂㅕㅇㅇㅢ</w>": 15199,
  "ㅇㅑㅇ</w>": 1708,
  "ㅁㅏㄴㅑㅇ</w>": 15850,
  "ㅋㅗㄴㅅㅓㅌㅡ</w>": 8545,
  "ㄷㅏㄱ": 5271,
  "ㅅㅜㅊㅣ": 11402,
  "ㅅㅜㅎㅐㅇㅎㅏㄴㅡㄴ</w>": 14283,
  "ㅇㅟㅊㅣㄹㅡㄹ</w>": 7105,
  "ㅇㅝㄴㄹㅐ": 10953,
  "EN": 6998,
  "ㄱㅣㅈㅗㄴㅇㅢ</w>": 5552,
  "ㅈㅓㅁㅈㅓㅁ</w>": 4006,
  "ㄷㅗㅇㅇㅣㄹㅈㅗㄱㅓㄴㅂㅕㄴㄱㅕㅇ": 6576,
  "ㅇㅡㄹㅗㄷㅗ</w>": 2568,
  "ㅈㅔㄷㅗㄱㅏ</w>": 15689,
  "ㅁㅏㅇㅅㅓㄹ": 14919,
  "ㅋㅡㄹㅣㅅㅡㅁㅏㅅㅡ</w>": 7221,
  "ㄱㅘㄴㄱㅖ": 1220,
  "ㅎㅜㄱㅣ</w>": 2866,
  "ㄷㅏㄹㅇㅢ</w>": 11619,
  "ke</w>": 13347,
  "ㅇㅓㄸㅓㄴ": 6385,
  "ㅁㅗㄱㄹㅗㄱㅇㅡㄹ</w>": 14794,
  "ㅊㅔㅋㅡㅇㅣㄴ</w>": 13841,
  "ㅎㅘㄱㅇㅣㄴㅎㅐ</w>": 8774,
  "ㅅㅏㅇㅅㅔㅎㅏㄴ</w>": 15799,
  "ㅇㅣㄹㅂㅜ": 6669,
  "ㅂㅜㄴ": 407,
  "ㅈㅓㅂ": 847,
  "ㅇㅏㅈㅣㄱㅇㅡㄴ</w>": 11572,
  "OS</w>": 3873,
  "ㅂㅗㅈㅏㅇ": 3292,
  "ㄷㅝ": 12428,
  "ㅂㅔㄴㅊㅓ": 8437,
  "ㅆㅓㅁ": 10391,
  "ㅇㅓㅈㅣㄴ</w>": 3139,
  "ㄱㅡㅁㅇㅛㅇㅣㄹ</w>": 11775,
  "ㅅㅏㅈㅣㄴㄱㅘ</w>": 12616,
  "ㅇㅓㅄㅇㅡㄴㅣ</w>": 11345,
  "ㄷㅜㄹ</w>": 4184,
  "2ㅇㅝㄹ": 11151,
  "CD</w>": 5277,
  "cre": 12881,
  "ㅅㅗㄱㅇㅣ</w>": 11755,
  "[</w>": 249,
  "porn</w>": 7559,
  "ㄸㅓ</w>": 15019,
  "ㅈㅜㄴㅂㅣㄹㅡㄹ</w>": 7256,
  "ㄹㅣㅍㅗ": 14727,
  "1000": 5878,
  "ㅈㅓㄱㅇㅣㅁㅕ</w>": 11893,
  "ㄱㅜㅅ</w>": 14233,
  "ㅇㅕㄴㅅㅗㄱ</w>": 4026,
  "ㅎㅣㅁㄷㅡㄹ</w>": 13090,
  "ㅌㅏㅇ": 1290,
  "ㅇㅏㄹㄹㅕㅈㅕㅆㄷㅏ</w>": 9383,
  "ㅇㅓㅄㅇㅓㅆㄷㅏ</w>": 2816,
  "ㅂㅏㄷㅇㅡㄴ</w>": 1577,
  "ㄱㅡㄴㄱㅓ": 3469,
  "ㅅㅣㅇㄱㅏㅍㅗㄹㅡ</w>": 11150,
  "ㅎㅏㅁㄲㅔ</w>": 823,
  "ㄷㅜㄹㅉㅐ</w>": 7237,
  "EV": 14001,
  "FO": 12994,
  "ㅈㅓㄹㅕㅁ": 3257,
  "ㅊㅜㅇ": 878,
  "ㄴㅔ": 678,
  "ㄴㅐㄹㅣ": 6646,
  "ㄹㅐㅂ</w>": 13293,
  "ㅇㅓㅄㅇㅡㅁ</w>": 5301,
  "ㅌㅏㄹㅌㅚ</w>": 12864,
  "ㅁㅗㄹㅡㅁ</w>": 11633,
  "ㅍㅗㅎㅏㅁㅎㅏㄱㅗ</w>": 13795,
  "ㅁㅓㄱㅇㅡㄹ</w>": 2948,
  "ㄱㅡㄹㅓㅁㅇㅔㄷㅗ</w>": 8170,
  "ㅇㅖㄹㅡㄹ</w>": 3218,
  "ㅂㅏㄹㄱㅕㄴㅅㅣ</w>": 3446,
  "ator</w>": 13014,
  "UN": 6740,
  "news</w>": 11970,
  "ㅅㅓㄹㅈㅓㅇ</w>": 3464,
  "ㄱㅕㄹㅎㅗㄴ</w>": 5503,
  "ㄱㅗㅂㅏㄹ": 16252,
  "ㅈㅏㅇㄹㅖ": 14984,
  "ㅈㅣㅅㅇㅡㄹ</w>": 11571,
  "ㅅㅗㅅㅡ</w>": 5815,
  "ㄷㅓㄴ": 1250,
  "ㄷㅙㅆㄴㅡㄴㄷㅔ</w>": 16164,
  "ㅇㅓㄱㅇㅜㄹ": 13386,
  "IF": 6953,
  "ㅇㅓ": 277,
  "ㄷㅙㅆ": 4358,
  "ㅅㅏㅇㅣㅌㅡㄴㅡㄴ</w>": 8897,
  "?!</w>": 9430,
  "ㅂㅜㅅㅏㅇ</w>": 12494,
  "ew</w>": 3843,
  "ㅋㅡㄹㄹㅏ": 14453,
  "ㅅㅏㅇㅛㅇ": 556,
  "ㅂㅐ</w>": 1887,
  "ㅊㅗㅇㅔ</w>": 7463,
  "ㄷㅗㅈㅓㄴ": 3820,
  "ㅇㅏㄷㅡㄹ": 6134,
  "ㅊㅏㅈㅇㅡㄹㅕ</w>": 9095,
  "ㅇㅣㅇㅛㅇㅎㅏㄴ</w>": 4802,
  "ai</w>": 13769,
  "ㅂㅐㄹㄹㅣ</w>": 16247,
  "ㅁㅏㅅㅣㅂㅅㅣㅇㅗ</w>": 14848,
  "ㅎㅓㄴㅅㅣㄴ": 15529,
  "ㅅㅐㅇㄱㅏㄱㅎㅏㄴㄷㅏ</w>": 4504,
  "ㅎㅕㅇ</w>": 948,
  "ㅁㅔㅅㅣㅈㅣㄹㅡㄹ</w>": 6493,
  "ㅇㅓㅄㄷㅓㄴ</w>": 13846,
  "ㅅㅠ</w>": 12836,
  "ㅈㅏㄹㅣ</w>": 3520,
  "KT": 7211,
  "ㄱㅏㅅㅣ": 9091,
  "ㄲㅏㅈㅣㅇㅢ</w>": 6703,
  "ㅅㅓㄴㅇㅡㄹㅗ</w>": 10499,
  "ㅇㅏㅂㄷㅗ": 10779,
  "ㅎㅕㅇㅌㅐㄹㅗ</w>": 5893,
  "ㅂㅣㅌㅏㅁㅣㄴ</w>": 11376,
  "GS": 10287,
  "ㄱㅕㄹㄱㅘ</w>": 1841,
  "ㅎㅡㄹㅡㅁ</w>": 14145,
  "ㅈㅣㅅㅣㄱㅇㅣ</w>": 15307,
  "ings</w>": 12182,
  "ㅊㅓㅇㅡㅁ": 1941,
  "ㅂㅏㅌ": 8110,
  "ㅎㅏㄱㅈㅏ</w>": 15141,
  "old</w>": 14301,
  "Net": 11700,
  "ㅂㅗㅇㅕ</w>": 6260,
  "ㅅㅡㅌㅗ": 2318,
  "ㅌㅡㄱㄱㅏㅇ</w>": 12893,
  "ㅍㅗㄹㄹㅣ": 5062,
  "CL": 13476,
  "ㄷㅙㅆㄷㅏ</w>": 1598,
  "ㅎㅡㄱㅇㅣㄴ</w>": 9298,
  "ㅎㅏㅅㅣㄴ</w>": 2105,
  "ㅁㅗㅅㅎㅐㅆㅅㅡㅂㄴㅣㄷㅏ</w>": 15174,
  "ㄱㅓㄹㄹㅣㄴ</w>": 13778,
  "ㅇㅡㅁㅅㅣㄱㅇㅡㄹ</w>": 5981,
  "ㅅㅟ": 826,
  "ㅅㅏㄴㅇㅓㅂ</w>": 3134,
  "ㅍㅏㅇㅣㄹㅇㅣ</w>": 11178,
  "ㄱㅝㄴㅇㅔ</w>": 8963,
  "ㅂㅜㄹㄱㅘ</w>": 10370,
  "ㄱㅣㄴㅡㅇ</w>": 2436,
  "ㅈㅏㅁㅈㅐ": 8360,
  "ㅂㅜㄱㅎㅏㄴ": 2259,
  "ㅇㅣㅆㅇㅓㅆㅇㅓㅇㅛ</w>": 11765,
  "ㄹㅣㄹㄹㅣ": 14337,
  "ㅅㅣㅋㅣ": 1130,
  "sex</w>": 6481,
  "ㅋㅡㄹㅗ": 2371,
  "ㅇㅠㅇㅔㄴ": 13145,
  "ㅇㅓㅄㅇㅡ": 12236,
  "ㅈㅡㄹㄱㅓ": 2253,
  "ㅉㅣㄱㅇㅓ</w>": 15695,
  "aph": 9861,
  "ㅈㅔ3": 3275,
  "ㅁㅗㅅㅎㅐㅆㄷㅏ</w>": 5592,
  "ㄱㅔㅅㅣ</w>": 12831,
  "ㅍㅕㅇ": 621,
  "ㅈㅓㅇㅊㅣ</w>": 2650,
  "ㅅㅣㄹㅅㅜ</w>": 12574,
  "ㄷㅔㅇㅔ</w>": 12597,
  "ㅅㅜㅈㅜㄴㅇㅡㄹㅗ</w>": 12875,
  "ㅈㅣㅅㅗㄱㅈㅓㄱㅇㅡㄹㅗ</w>": 6438,
  "ㅅㅏㄻㅇㅡㄹ</w>": 3598,
  "ㅁㅕㄴㅇㅕㄱ": 10862,
  "ㅅㅏㄴㅏ</w>": 10409,
  "ens": 7331,
  "ㅊㅚㄱㅗ</w>": 3300,
  "ㅅㅏㅇ": 324,
  "ㄴㅗㄹㅡ": 8272,
  "ㄱㅠㅊㅣㄱ</w>": 9811,
  "ㅆㅇㅡㄴㅏ</w>": 15617,
  "ㅊㅏㄱㅣ</w>": 13343,
  "ans": 6292,
  "ㄱㅏㅇㅢ</w>": 2861,
  "Fr": 8818,
  "ㅇㅣㅇㅠㄹㅗ</w>": 4763,
  "BL": 11413,
  "ㄷㅜㄲㅓ": 14435,
  "Str": 12996,
  "ㅌㅏㅇㅣ": 3351,
  "ㅇㅣㄱㅗㅅㅇㅔㅅㅓ</w>": 10840,
  "ㄴㅡㅈ": 2664,
  "ㅊㅜㅅㅔ": 12623,
  "ㅅㅐㅁㅍㅡㄹ": 8622,
  "ㅅㅜㅎㅓㅁ": 11320,
  "ㅂㅏㅇㅅㅗㅇ": 1879,
  "ㅅㅣㄴㅎㅕㅇ</w>": 14185,
  "ㅅㅓㄹㅗㅇㅢ</w>": 13219,
  "ㅈㅜㄴㅂㅣ": 1397,
  "ㄱㅗㅇㄹㅑㄱ": 13892,
  "ㄱㅐㅇㅣㄴㅇㅣ</w>": 13520,
  "ㅎㅐㅈㅜㄹ</w>": 9765,
  "ㅂㅜㅌㅏㄱㄷㅡㄹㅣㅂㄴㅣㄷㅏ</w>": 4344,
  "ㅇㅡㅇㅇㅛㅇ</w>": 5854,
  "ㄱㅡㄴㅏㄹ</w>": 11229,
  "CC": 6139,
  "ㅇㅖㅃㅡ": 14955,
  "ㅈㅜㄴㅣㅇㅓ</w>": 15106,
  "ㅇㅣㅌㅐ": 10531,
  "ㅇㅓㅄㅇㅓㅆㄱㅗ</w>": 14093,
  "ㄷㅐㄴ": 6490,
  "ㄹㅗㄱ</w>": 1223,
  "ㄱㅗㅇㅈㅣㄱ": 12139,
  "ㅇㅗ</w>": 888,
  "ㅍㅐㄱ": 3211,
  "ㄱㅐㄴㅕㅁ</w>": 4487,
  "av</w>": 10334,
  "ㄴㅏㅁㅓㅈㅣ</w>": 5830,
  "ㅅㅡㅍㅣㅋㅓ": 11341,
  "ㅂㅜㄱㅎㅏㄴㅇㅡㄴ</w>": 14075,
  "ㅅㅏㅇㅛㅇㅎㅏㅅㅣㄹ</w>": 11599,
  "ㅎㅜㅇㅔㄷㅗ</w>": 12418,
  "ㅁㅣㄱㅜㄱ": 1368,
  "ㅁㅣㄹ</w>": 5088,
  "ype</w>": 11081,
  "ㅈㅣㄹㅏㄷㅗ</w>": 9756,
  "ㅁㅜㄹㄹㅠ": 9797,
  "ㅁㅏㄴㄴㅏㅆㄷㅏ</w>": 15798,
  "ㅈㅓㅈㅏㄱㄱㅝㄴㄱㅘ</w>": 5253,
  "ㄷㅡㄴㄷㅏ</w>": 7208,
  "ㅎㅏㅅㅕㅇㅑ</w>": 6726,
  "ㅇㅣㅅㅡ</w>": 10401,
  "ㄹㅣㄱㅗ</w>": 1986,
  "ㅇㅗㄹㅡㄴㅉㅗㄱ</w>": 7863,
  "ㅈㅗㅅㅓㅇ": 6309,
  "ㅊㅔㅈㅔ": 12973,
  "AV": 12315,
  "ㅅㅏㅇㅅㅣㄹ": 13985,
  "ㅇㅏㄹㅇㅏㅆㄷㅏ</w>": 16235,
  "ㄱㅣㅁㅇㅕㅇ": 5767,
  "ㅊㅐㄴㅓㄹ</w>": 4893,
  "ㄱㅡㄹㅐㅍㅡ</w>": 4154,
  "ㅇㅣㄹㄷㅏㅇ</w>": 15002,
  "ㅎㅕㄴㅈㅏㅇㅇㅔㅅㅓ</w>": 8111,
  "ㄹㅓㄴㄷㅓㄴ</w>": 11161,
  "ll": 11988,
  "ㅈㅜㅇㅢ</w>": 1532,
  "ㅅㅏㅇㅌㅐㄹㅡㄹ</w>": 7226,
  "ㅇㅣㄹㅉㅣ": 5548,
  "ㄷㅓㅁ": 7018,
  "ㄱㅔㅈㅐ": 6509,
  "ㄱㅘㅇㅇㅕㄱㅅㅣ</w>": 8197,
  "ㅎㅐㅇㅂㅗㄱㅎㅏㄱㅔ</w>": 11473,
  "ㄷㅙ": 976,
  "ㅎㅐㅆㅇㅓㅆㄷㅏ</w>": 11611,
  "ㅍㅗㅇㅣㄴㅌㅡ": 13152,
  "ㅁㅏㄴㄷㅡㄴㅡㄴ</w>": 2502,
  "ㅇㅣㄴㅈㅡㅇㅇㅡㄹ</w>": 13041,
  "ㄱㅡㄹㅐㅍㅡㅂㅔㅌㅣㅇ</w>": 14092,
  "ㄸㅡㅅ": 2449,
  "ㅇㅖㅅㅜ": 2941,
  "ㄱㅓㅅ": 358,
  "ㅊㅜㄹㅍㅏㄴㅅㅏ</w>": 12686,
  "ㅃㅓㄷ": 14459,
  "ㅂㅓㅅㅇㅡㄴ</w>": 15182,
  "ㄷㅏㅅㅜㅇㅢ</w>": 8978,
  "ㄴㅏㅁㅍㅕㄴ": 4794,
  "ㅌㅗㅁ": 16073,
  "ly</w>": 4661,
  "ㅂㅏㅇㅎㅑㅇㅇㅡㄹㅗ</w>": 7277,
  "ㄱㅕㅇㅜ</w>": 9486,
  "ㅇㅓㄸㅓㅎㄱㅔ</w>": 1110,
  "ㅊㅜㄹㄱㅡㄴ": 10972,
  "ㄱㅣㅇㅝㄴ": 10208,
  "PA": 7946,
  "ㅂㅏㅇㅇㅔ</w>": 6011,
  "ㅍㅡㄹㅗㄷㅠ": 12647,
  "ㅇㅣㅆㄷㅏㄱㅏ</w>": 12554,
  "ㄹㅔㅇㅣㅈㅓ</w>": 14498,
  "ㅇㅣㄴㅇㅔㄱㅔ</w>": 5675,
  "ㅂㅏㅇㅌㅏㄴㅅㅗㄴㅕㄴㄷㅏㄴ</w>": 16330,
  "ㅈㅗㅎㅇㅏㅆㄷㅏ</w>": 9899,
  "ㅊㅐㄱㅇㅡㄹㅗ</w>": 12661,
  "14": 1493,
  "ㅅㅕㄹ</w>": 4488,
  "ㅎㅐㄱ</w>": 6054,
  "ㄹㅔㅇㅣㄷㅡ</w>": 15794,
  "ㅎㅏㄴㄱㅜㄱㅇㅔ</w>": 7553,
  "ㅊㅡㄱㅇㅣ</w>": 12611,
  "ㅜㅁ</w>": 4456,
  "ㅇㅣㄴㅅㅏ": 3949,
  "ㄱㅔㅇㅣ": 770,
  "ㄴㅏㄴㅜㄹ</w>": 11914,
  "?": 24,
  "ㅃㅡ": 4046,
  "Cent": 8889,
  "ㅊㅓㅇㄱㅜ</w>": 13922,
  "ㅂㅏㅇㅂㅓㅂㄱㅘ</w>": 13752,
  "ㅅㅠㅍㅓ": 4664,
  "ㅅㅣㄴㅇㅛㅇ": 2971,
  "dis": 7170,
  "ㅁㅐㅊㅜㄹ": 7061,
  "ㅎㅣㅁ": 1338,
  "ㅅㅐㅇㅌㅐㄱㅖ": 13443,
  "Manager</w>": 14083,
  "ㅈㅐㅅㅏㄴ": 5113,
  "ㅁㅕㅇㅎㅘㄱㅎㅣ</w>": 15710,
  "ㄷㅗㅇㄹㅛ": 7772,
  "ㅅㅕㄴㅇㅣ</w>": 5686,
  "ㅁㅏㄹㄲㅏㅈㅣ</w>": 9453,
  "ㅅㅣㅋㅣㅈㅣ</w>": 13790,
  "ading</w>": 14689,
  "ㅈㅓㅇㄷㅏㅇ": 5270,
  "ㄱㅐㅇㅣㄴㅈㅓㅇㅂㅗㅊㅟㄱㅡㅂ": 14780,
  "ㄴㅏㄹㅏㄹㅡㄹ</w>": 9949,
  "ㅇㅏㄴㅌㅏ</w>": 5002,
  "ㅇㅏㅆㄷㅓㄴ</w>": 5414,
  "ㄱㅔㅇㅣㅁㅇㅣ</w>": 10277,
  "ㅟ</w>": 219,
  "ㅈㅕㅆㅇㅡㄹ</w>": 14601,
  "ㄷㅚㅈㅏ</w>": 11561,
  "Plan": 14516,
  "ㅅㅛㅍㅣㅇ": 2657,
  "ㅍㅗㅅㅡㅌㅡ</w>": 9792,
  "ㄹㅗㅁㅏ</w>": 8886,
  "ㅂㅗㄱㅇㅡㄹ</w>": 5049,
  "ㅈㅗㄱㅓㄴ": 1874,
  "ㅂㅣㄱ": 3629,
  "ine</w>": 3590,
  "ㄲㅗㄹ</w>": 15543,
  "ㄱㅏㅁㄷㅗㄱㅇㅢ</w>": 11043,
  "ㄷㅏㅁㄷㅏㅇ": 3032,
  "ㅇㅣㄺㄱㅗ</w>": 4076,
  "ㅇㅗㄹㅡㄱㅏㅈㅡㅁ</w>": 13217,
  "ㅂㅣㅇㅛㅇ</w>": 4510,
  "ㅌㅡㅇㅢ</w>": 3121,
  "ㅂㅜㄹㅡㅋㅡ</w>": 16138,
  "ㅅㅡㅇㅇㅣㄴ": 9139,
  "ㅎㅛㄱㅘㄹㅡㄹ</w>": 4671,
  "ㅋㅏㅇㅣ</w>": 12447,
  "ㄱㅛㄹㅠ": 7112,
  "ㅂㅡㄹㅏㅇㅜ": 3239,
  "ㄴㅏㅁㄱㅣ": 5543,
  "ㅢ</w>": 137,
  "ㄸㅐㅂㅗㄷㅏ</w>": 14245,
  "ㅂㅏㅂ</w>": 4620,
  "ㅇㅕㄱㅣㄴㅡㄴ</w>": 11909,
  "ㄷㅚㄱㅓㄴㅏ</w>": 7298,
  "ㅇㅗㅂㅓㅇㅝㅊㅣ": 13770,
  "ㅇㅠㅅㅏㅎㅏㄴ</w>": 8384,
  "ㄷㅏㄱㅗ</w>": 609,
  "ㅇㅓㅇㅢ</w>": 4849,
  "ㅇㅣㄹㅏㅁㅕ</w>": 6030,
  "ㅍㅛㅅㅣㄷㅚㄴ</w>": 13589,
  "ㄴㅏㅇㅡㄴ</w>": 6714,
  "ㅍㅓㅅㅔㄴㅌㅡ</w>": 8715,
  "ㅅㅏㅇㅝㄴ": 8347,
  "ㄹㅕㄱㄱㅘ</w>": 7332,
  "ㅈㅔㄹㅗ</w>": 1785,
  "ㅈㅏㅊㅔㄱㅏ</w>": 4274,
  "ㄱㅕㅇㄱㅗ": 12491,
  "ㅎㅘㅇㅅㅐㄱ": 15037,
  "ㅂㅏㅇㅂㅓㅂㅇㅣㄷㅏ</w>": 15487,
  "ㅂㅡㄹㅐㄴ": 1667,
  "erv": 3103,
  "ㅁㅏㄹㅕㄴ</w>": 13866,
  "ㄴㅗㅍㅇㅣ</w>": 8425,
  "ㅀ": 98,
  "ㄴㅠ": 907,
  "ㅂㅏㄲㅇㅔ</w>": 1698,
  "4ㅊㅏ</w>": 7290,
  "ㅍㅡㄹㅏㄴㅅㅣ": 9276,
  "ㅇㅣㄹㅏ</w>": 1520,
  "ㄱㅖㅊㅡㅇ</w>": 15548,
  "Y</w>": 208,
  "ㅅㅣㅁㅇㅢ": 11257,
  "ㅅㅏㅎㅚㄱㅏ</w>": 9630,
  "ㄱㅅㅣ</w>": 1905,
  "ㅅㅐㅇㄱㅏㄱㄷㅚㅂㄴㅣㄷㅏ</w>": 13886,
  "ㅂㅜㄴㅡㄴ</w>": 3056,
  "ㅁㅏㄴㄷㅡㄴ": 12694,
  "ㅊㅐㄴㅓㄹㅇㅡㄹ</w>": 14720,
  "1ㅁㅏㄴㅇㅝㄴ</w>": 14509,
  "ㅇㅕㄹㅇㅓ": 11176,
  "ㄱㅕㄹㅇㅢ": 16211,
  "ㄴㅗㄷㅗㅇ": 2008,
  "ㅇㅠㅇㅏ</w>": 11721,
  "ㅅㅗㄴ": 736,
  "97": 13296,
  "ㅈㅗㅇㄹㅠ": 2993,
  "ㅅㅣㅍㅇㅓㅅㅓ</w>": 10908,
  "ㄱㅘㄴㅅㅣㅁ</w>": 5938,
  "ㅇㅣㄹㅏㅁ": 5227,
  "ㄱㅡㄷㅡㄹㅇㅣ</w>": 4526,
  "ㅊㅗㅇㅇㅡㄹ</w>": 15588,
  "ㅅㅣㅇㅔㅅㅓ</w>": 11336,
  "ㅈㅣㄴㅎㅐㅇㄷㅚㄱㅗ</w>": 13422,
  "XXX": 15249,
  "ㄷㅡㅇㅇㅡㄹ</w>": 1109,
  "ㅅㅗ": 360,
  "ㅌㅓㄴ": 901,
  "ㅍㅣㄹㅈㅏㄴㅡㄴ</w>": 16239,
  "ㅎㅕㅂㄷㅗㅇ": 9549,
  "ㅍㅡㄹㄹㅔㅇㅣㅇㅓ</w>": 10608,
  "ㅍㅕㄴㅇㅢㅈㅓㅁ</w>": 14349,
  "ㅇㅏㄴㅣ": 531,
  "ㅇㅓㄸㅓㅎㅏㄴ</w>": 3841,
  "ㅈㅣㄱㅇㅓㅂ</w>": 9416,
  "ㅆㅡㄹ": 2067,
  "ㄷㅔㅇㅣㅌㅓ</w>": 1971,
  "ㅅㅣㄴㅊㅔ": 6788,
  "ㅅㅡㅌㅏㄹ": 12268,
  "ㅇㅣㄱㅓ</w>": 5789,
  "ㅈㅏㄱㅡㅁㅇㅡㄹ</w>": 12016,
  "ㅁㅔㄱㅅㅣ": 6096,
  "ㅇㅣㄹㅇㅣ</w>": 1436,
  "ㄷㅗㄹㅇㅏㅇㅗ": 12674,
  "ㅅㅏㅇㅍㅜㅁㅁㅕㅇ</w>": 2343,
  "ㅈㅣㄴㅣㄴ</w>": 9733,
  "ㄱㅐㅁㅏㄱ": 9145,
  "ㅁㅜㄹㄱㅓㄴㅇㅡㄹ</w>": 9524,
  "ㅔㄱ": 7435,
  "ㅈㅣㄴㄷㅏㅁㅕㄴ</w>": 14686,
  "ㅊㅡㄹ": 14515,
  "ㄱㅔ</w>": 343,
  "ㄱㅕㅇㅇㅜ": 1016,
  "ES": 3575,
  "ㅏㅇㅘ</w>": 5286,
  "ㄱㅏㅈㅣㄹㅡㄹ</w>": 8831,
  "ㄹㅣㅈㅣ</w>": 4243,
  "ㅇㅕㄹㅇㅡㄹ</w>": 8373,
  "ㅋㅓㄴㅌㅡㄹ": 5120,
  "ㅎㅘㄴㄱㅕㅇㅇㅡㄹ</w>": 6496,
  "ㅁㅜㅇㅓㅅㅂㅗㄷㅏㄷㅗ</w>": 13463,
  "ㄱㅗㅊㅜ": 14107,
  "ㅇㅔㄴㅈㅣㄴ</w>": 8571,
  "ㅎㅐㅆㄱㅣ</w>": 6184,
  "ㅅㅗㅍㅡㅌㅡㅇㅞ": 2884,
  "ㅅㅓㅇㅅㅣㄹ": 15699,
  "ㄱㅓㄹㅊㅕㅅㅓ</w>": 13392,
  "ㄹㅏㅇㅣㅂㅡㄹㅓ": 9321,
  "ㄱㅗㄷㅗ</w>": 3432,
  "ㅈㅗㅇㄹㅛ": 6478,
  "ㅂㅏㄱㅏ</w>": 11327,
  "ㅂㅏㄹㄱㅡㅂ</w>": 12009,
  "ㅁㅏㅇㅡㅁㅇㅡㄴ</w>": 11618,
  "ㅇㅓㄴㅏㄴ</w>": 2892,
  "ㅇㅡㅁㅂㅜ</w>": 9745,
  "ㅁㅏㄴ</w>": 402,
  "ㅃㅏㄹㄱㅏㄴ": 9246,
  "ㅇㅜㄴㄷㅏ</w>": 13176,
  "ㅈㅡㅇㅁㅕㅇㅅㅓ</w>": 10580,
  "ㄷㅏㄴㅍㅏ</w>": 13718,
  "ㅁㅜㄴㅅㅓ": 1891,
  "ㅘㄴ</w>": 13891,
  "ㅇㅘㅇㅢ</w>": 3969,
  "ㄷㅐㅍㅛㅌㅣㅁ</w>": 12690,
  "out": 13680,
  "ㅈㅗㅎㅇㅡㄴ": 4405,
  "ㅅㅏㅎㅏㅇ": 1521,
  "ㅜㄴㅏ</w>": 14356,
  "ㄱㅡㅇㅑㅁㅏㄹㄹㅗ</w>": 12946,
  "ㅇㅜㅋㅡㄹㅏ": 16365,
  "ㅂㅏ</w>": 1451,
  "ㄱㅙㄴㅎㅣ</w>": 14909,
  "ㅈㅣㅇㅕㄱㅇㅔㅅㅓ</w>": 8156,
  "ㅂㅏㄴ</w>": 1154,
  "ㅂㅏㅇㅎㅏㄱ</w>": 16147,
  "ㅈㅓㄹㄷㅐ</w>": 4287,
  "ㄱㅐㄱㅐ": 13654,
  "E</w>": 171,
  "ㅌㅜㅈㅐㅇ": 8828,
  "ㅁㅣㅅㅏㅇㅣㄹ</w>": 13428,
  "ㅈㅏㄱㄴㅕㄴ</w>": 7310,
  "ㅇㅣㄷㅗㅇㅎㅏㄹ</w>": 15888,
  "ㄷㅐㅊㅐㄱㅇㅡㄹ</w>": 14437,
  "ㅂㅏㄴㅍㅜㅁ</w>": 8114,
  "ㅎㅏㄹㅇㅣㄴ": 6475,
  "ㄱㅣㄴㅡㅇㅇㅡㄹ</w>": 2484,
  "ㅇㅣㅅㅣㄱ": 16056,
  "ㅂㅐㅇㅜㄱㅗ</w>": 9008,
  "ㄷㅗㄹㅇㅏ": 2137,
  "ㄷㅡㅇㅇㅡㄴ</w>": 2987,
  "ㅇㅖㅂㅣ": 6831,
  "ㄷㅐㄹㅣㅂ": 15283,
  "ㅈㅗㄱㅡㅁㅇㅡㄴ</w>": 11636,
  "7ㄴㅕㄴ</w>": 2056,
  "ㄴㅡㄲㅕㅈㅣㄴㅡㄴ</w>": 13639,
  "ㅇㅣㅆㅇㅓㅅㅓ</w>": 1852,
  "ㅅㅣㄴㅎㅏㄴ</w>": 11332,
  "ㅎㅗㅁㅍㅔㅇㅣㅈㅣㅇㅔ</w>": 13695,
  "ㅇㅗㄴㅊㅓㄴ": 13872,
  "ㅂㅣㅂㅣ": 9731,
  "ㅎㅏㄱㅅㅐㅇㅇㅢ</w>": 13042,
  "ㅂㅣㄹㅗ": 4342,
  "ㄷㅗㅇㅇㅑㅇ": 8049,
  "ㅇㅏㅇㅔㅅㅓ</w>": 9059,
  "iz": 3521,
  "ㄱㅡㄹㅓㅎㄷㅏㄱㅗ</w>": 6580,
  "ㄷㅚㅅㅔㅇㅛ</w>": 16177,
  "ㅇㅛㅇㅑㄱ</w>": 10219,
  "ㄹㅔㅇㅣ</w>": 11196,
  "ㅇㅏㄴㄷㅚㅂㄴㅣㄷㅏ</w>": 12172,
  "ㅋㅓㄹㄹㅔㄱㅅㅕㄴ</w>": 14893,
  "ㅅㅡㅁㅏ": 1421,
  "ㅈㅏㅅㅔㅎㅏㄴ</w>": 2411,
  "ㅂㅗㅅㅏㅇ</w>": 12299,
  "ㅁㅝㄱㅏ</w>": 8432,
  "ood": 13963,
  "ㅈㅣㄹㅏ</w>": 12389,
  "ㅅㅗㄴㅡㄴ</w>": 3996,
  "ㅇㅟㅅㅓㅇ</w>": 8958,
  "ㄲㅡㄹ</w>": 15783,
  "ㅂㅜㄱ": 797,
  "ㅍㅓㄹㅓㄴ": 8075,
  "ㅅㅡㅂㄴㅣㄲㅏ</w>": 2278,
  "ㅂㅗㅇㅅㅏ</w>": 9752,
  "ㄱㅡㄹㅗ</w>": 11845,
  "ㄱㅐㅅ": 11515,
  "ㅍㅣㄹㄹㅣ": 5790,
  "ㅅㅣㄴㄱㅠ</w>": 5777,
  "ㅇㅣㄴㅈㅐ": 10744,
  "ㅅㅓㅇㅈㅏㅇ</w>": 4014,
  "ㅈㅣㅇㅝㄴㅇㅣ</w>": 12792,
  "ㅅㅔㅇㅔ</w>": 10619,
  "Hot": 5724,
  "ㄷㅏㄴㅡㄴ</w>": 564,
  "ㅂㅏㅇㅇㅣ</w>": 7159,
  "ㅅㅏㄹㅇㅣㄴ": 12697,
  "ㅇㅣㄷㅗㅇ": 2069,
  "MI</w>": 11800,
  "ㅂㅏㄴㅂㅗㄱ": 4298,
  "ㄱㅘㄴㅊㅏㄹ": 7145,
  "ㅅㅣㅎㅓㅁㅇㅡㄹ</w>": 9960,
  "ㅊㅕㅅㅓ</w>": 6606,
  "ㄱㅏㄱ</w>": 973,
  "ㅍㅔㅇㅣ</w>": 15598,
  "ㅋㅏㅈㅣㄴ": 1739,
  "ㅅㅜㅇㅛㅇㅣㄹ</w>": 11030,
  "ㅅㅗㅈㅏㅇ": 13458,
  "ㄱㅣㅁㅈㅓㅇ": 5444,
  "15ㅍㅔㅇㅣㅈㅣ</w>": 11199,
  "ㄱㅣㅁㅈㅐ": 12211,
  "ㄴㅐㄹㅕㅆㄷㅏ</w>": 15442,
  "ㄱㅣㄴㅡㅇ": 1242,
  "ㅈㅓㄱㅇㅡㄹ</w>": 3604,
  "ㅇㅣㄹㄷㅡㄹㅇㅣ</w>": 13478,
  "28": 2563,
  "M</w>": 199,
  "6ㅅㅣ</w>": 15033,
  "ㅍㅗㄹㅡㄴㅗ</w>": 2793,
  "ㅅㅏㅁㅏㅇ</w>": 8983,
  "ㅇㅕㅇㄱㅜㄱ": 5005,
  "ㅇㅘㄴㅅㅓㅇ": 4094,
  "ㄴㅏㄹㅏㄱㅏ</w>": 10003,
  "ㅇㅜㅅㅇㅡㅁ</w>": 8927,
  "ㅅㅡㅋㅡㄹㅣ": 2746,
  "ㅇㅏㄱ": 1060,
  "ㄴㅔㅌㅡㅇㅝㅋㅡ": 6356,
  "ㅍㅏㅇㅜ": 11526,
  "ㅊㅏㅁㅅㅓㄱ": 3854,
  "ㄸㅐㅇㅔ</w>": 6127,
  "ㄹㅣㄹㅗ</w>": 8710,
  "ㅅㅗㄴㅅㅣㄹ</w>": 15292,
  "ㅎㅘㄴㄱㅕㅇㅇㅔㅅㅓ</w>": 9972,
  "ㄴㅗㅍㄱㅗ</w>": 16325,
  "190": 12084,
  "ㄱㅡㅂㅎㅏㄴ</w>": 14009,
  "ㅁㅓㄹㄹㅣ</w>": 6170,
  "ㅇㅏㅆㄱㅗ</w>": 10660,
  "ㄹㅏㅂㅔㄹ</w>": 15400,
  "ㄱㅏㅈㅕ": 4012,
  "ㅇㅓㄸㅓㅎㄱㅔ": 12407,
  "ㄷㅏㅇㅡㅁㅇㅡㄴ</w>": 10365,
  "ㄷㅗㅇㅅㅣㅇㅔ</w>": 2727,
  "ㅈㅔㅇㅚ</w>": 6035,
  "ㅍㅕㅇㄱㅠㄴ</w>": 1647,
  "ㅈㅣㅂㅎㅏㅂ": 14060,
  "ㄷㅣㅇ": 3063,
  "ㅍㅕㄴㄹㅣㅎㅏㄱㅔ</w>": 10403,
  "1ㅊㅡㅇ</w>": 9444,
  "ㅇㅏㄶㅇㅏㅇㅛ</w>": 11648,
  "\u001e</w>": 264,
  "ㅂㅏㅇㅇㅓ": 9644,
  "ㅇㅏㅇㅜㄹㄹㅓ</w>": 9902,
  "ㅅㅣㅁㄹㅣ": 3271,
  "ㅇㅕㄴㅎㅏㅂ</w>": 7822,
  "ㅇㅣㅆㄷㅏㄱㅗ</w>": 1755,
  "ㅎㅘㄴㅂㅜㄹ": 7600,
  "ㅁㅔㅇㅣㅈㅓ": 5884,
  "ㄷㅓㄴㄷㅔ</w>": 8679,
  "ㄱㅕㅇㅇㅔ</w>": 13394,
  "ㄴㅜㄱㅏ</w>": 3527,
  "ㅃㅐㅇㅏㅅ": 11840,
  "ㄱㅐㅂㅏㄹㅎㅏㄴ</w>": 12079,
  "ㅎㅐㅆ": 496,
  "1ㄴㅕㄴ": 5760,
  "ㅈㅗㅂ": 10602,
  "ㅇㅇㅣ</w>": 1386,
  "ㅈㅏㅂ</w>": 8310,
  "new": 14553,
  "ㅃㅏㄹㅡㄱㅗ</w>": 10971,
  "ㄴㅐㅇㅛㅇㅇㅡㄹ</w>": 2159,
  "ㅌㅡㄹㅔㅇㅣ": 5725,
  "ㅎㅐㅈㅜㄴㅡㄴ</w>": 4362,
  "NA": 7563,
  "ㄱㅕㅇㅈㅔㅇㅢ</w>": 11941,
  "ㄷㅐㄷㅏㄴ": 4596,
  "ㄱㅡㄷㅡㄹㅇㅡㄹ</w>": 7985,
  "ㄱㅏㄹㅅㅐㄱ</w>": 7905,
  "ㅇㅕㅇㄷㅡㅇ": 12205,
  "ㄷㅚㄱㅔ</w>": 6000,
  "ㅈㅜㅇㅇㅣ</w>": 10563,
  "'": 6,
  "ㅍㅔㄴ</w>": 10293,
  "ㄱㅐㅇㅅㅣㄴ": 9447,
  "ㄲㅐㄷㅏㄹ": 7645,
  "ㄱㅗㄱㅡㅂ": 6507,
  "ㅅㅕㅆㄷㅏ</w>": 9381,
  "ㄸㅏㄹㅡㅁㅕㄴ</w>": 2894,
  "ㅈㅔㅍㅜㅁ": 1393,
  "ㅂㅗㄱㅇㅡㅁ</w>": 12314,
  "ㅇㅏㅁㅜㅌㅡㄴ</w>": 9768,
  "ㅇㅏㅈㅜ</w>": 1685,
  "3ㄱㅐ</w>": 6466,
  "ㅁㅗㄴㅣㅌㅓㄹㅣㅇ</w>": 12813,
  "ㄴㅏㅅㅓ</w>": 3998,
  "mem": 15332,
  "ㅑㅇㅇㅡㄴ</w>": 9627,
  "ㅃㅜㄴ</w>": 2777,
  "ㄹㄹㅣ": 813,
  "ㅗㄱㅣ</w>": 7090,
  "ㅇㅡㄹㅗㄴㅡㄴ</w>": 2178,
  "ㅈㅣㄱㅈㅏㅇ": 4721,
  "KBS": 13445,
  "ㄱㅣㄹㅇㅔ</w>": 8255,
  "ㅃㅏㄹ": 1017,
  "Gre": 11433,
  "ㅅㅔㄹㅕㄴ": 10616,
  "ㄱㅏㅈㄴㅡㄴ</w>": 7987,
  "ㅂㅏㄹㅏㄴㄷㅏ</w>": 7712,
  "ㄱㅏㅊㅣㄱㅏ</w>": 5753,
  "ㄴㅡㅇㄹㅕㄱㅇㅡㄹ</w>": 5186,
  "ㄷㅏㅇㅡㅁ": 1168,
  "ㅋㅗㄴㅌㅔㄴ": 1954,
  "Home</w>": 12668,
  "ㄱㅗㅇㅇㅝㄴ": 12470,
  "ㄴㅡㄲㅣㄱㅗ</w>": 10416,
  "ㅇㅣㅌㅡㄹ": 15310,
  "ㅈㅏㄱㅕㄱ</w>": 7684,
  "ㅇㅜㄴㅡㄴ</w>": 4098,
  "ㄷㅏㅅㅣ": 5642,
  "ㅅㅣㄴㅎㅏㄴ": 10394,
  "ㅅㅓㄴㅎㅐㅇ": 15170,
  "ㅈㅓㄴㄱㅗㅇ": 5219,
  "ㅈㅜㅇㅓ": 9568,
  "ㄷㅐㅎㅏㄱㄱㅛ": 5641,
  "ㅈㅣㄱㅜ": 3909,
  "ㅅㅓㅇㅔㅅㅓ</w>": 16165,
  "ㅊㅜㄱㅜ": 7025,
  "ern</w>": 11426,
  "ㅋㅣㅇㅇㅡㄹ</w>": 16121,
  "2ㅂㅜ</w>": 12240,
  "ㄷㅏㅁㄱㅗ</w>": 9310,
  "ㅇㅏㅃㅏ": 8833,
  "ㄱㅛㅇㅠㄱㅇㅢ</w>": 5599,
  "ㅂㅜㅂㅜㄴㅇㅔㅅㅓ</w>": 11868,
  "ㅅㅛㅂ</w>": 10023,
  "ㅍㅣㄱㅗ": 15583,
  "ㄱㅡㄹㅐㅍㅡ": 1479,
  "ㅂㅗㅇㅣ</w>": 12585,
  "ㄴㅡㄹㅏ</w>": 12809,
  "GM": 9021,
  "ㅇㅓㅁㅊㅓㅇ": 4189,
  "ㅅㅓㅅㅓ</w>": 8408,
  "ㅅㅓㄴㅇㅣ</w>": 5489,
  "ㅋㅏㄹㅡㄹ</w>": 12948,
  "ㅅㅡㅌㅗㄴ</w>": 10684,
  "ㅅㅗㅎㅕㅇ</w>": 11049,
  "ㅈㅗㅈㅓㄹ": 5089,
  "ㅈㅏㄹㅛㅇㅔ</w>": 4469,
  "ㅁㅗㅁ</w>": 6430,
  "ㅇㅏㅆㄴㅡㄴㄷㅔ</w>": 15004,
  "ong": 6274,
  "ext": 8549,
  "ㅎㅏㅈㅣ</w>": 658,
  "ㅈㅓㄱㄱㅡㄱ": 4514,
  "ㅂㅗㄷㅡ</w>": 4782,
  "ㅇㅣㄹㄹㅗ</w>": 3158,
  "ㄷㅚㄴ": 1504,
  "ㅁㅏㅇㅜㅅㅡ</w>": 9477,
  "ㅇㅏㄴㅑ</w>": 16182,
  "ㅊㅏㅈㄱㅣ</w>": 3193,
  "ㅅㅗㄱㅇㅔㅅㅓㄷㅗ</w>": 14703,
  "m</w>": 186,
  "ㅔㅅ</w>": 5933,
  "ㅇㅖㅊㅡㄱㅎㅏㄹ</w>": 12287,
  "ㅈㅣㅅㅏㅇ": 10343,
  "ㅈㅣㄱㅔ</w>": 4541,
  "ㅎㅐㅆㄴㅡㄴㄷㅔ</w>": 2058,
  "ㅇㅑㅇㅅㅓㅇ</w>": 16279,
  "ㅠㄹ": 5643,
  "ㄱㅕㅇㅎㅓㅁㅎㅏㄹ</w>": 16113,
  "ㅎㅏㄾㄱㅣ</w>": 13049,
  "ㄱㅣㅇㅓㅂㅇㅢ</w>": 4047,
  "ㅇㅢㅅㅏ</w>": 5925,
  "ㅅㅏㅇㅇㅔㅅㅓ</w>": 6789,
  "ㅇㅣㄴㅣ</w>": 4176,
  "ㄹㅠㄴ": 12871,
  "ㅎㅏㅂㄱㅕㄱ</w>": 11929,
  "ㅁㅓㄹ": 2240,
  "ㅌㅔㅅㅡㅌㅡ": 7309,
  "ㅅㅏㄹㅗ</w>": 3543,
  "ㅁㅣㅌㅓ</w>": 3220,
  "ㅎㅕㄴ": 500,
  "ㄴㅏㅇㅢ</w>": 1966,
  "ㄱㅕㅇㄹㅕㄱ": 6434,
  "ㅌㅔㄱㅅㅡㅌㅡ": 14704,
  "ㅇㅣㄹㅣ": 7602,
  "ㅅㅡㅌㅡㄹㅣㅂ</w>": 13315,
  "ㅈㅓㄴㅂㅏㄴ": 4557,
  "ㅇㅕㄴㄹㅏㄱㅊㅓ</w>": 5963,
  "!": 4,
  "ㄴㅡㄴ</w>": 272,
  "ㄱㅘㅈㅓㅇ": 1656,
  "ㅅㅕㄴㅇㅡㄴ</w>": 5461,
  "ㅋㅏㅌㅔㄱㅗㄹㅣㅇㅢ</w>": 4690,
  "ㄱㅏㅅ</w>": 12437,
  "ㄹㅓㅇ": 16044,
  "2km</w>": 10382,
  "usin": 13859,
  "ㅂㅗㅇㅣㅈㅣㅁㅏㄴ</w>": 15835,
  "ㅈㅏㄱㅇㅛㅇ</w>": 9885,
  "ㅎㅏㄴㅡㄴ": 1119,
  "ㅂㅏㄷㄴㅡㄴ</w>": 2262,
  "ㅁㅜㅈㅏㅇ": 12358,
  "ㅍㅏ": 517,
  "H": 33,
  "ㅅㅓㅂㅜㅌㅓ</w>": 13928,
  "ㄷㅐㅍㅛㅎㅏㄴㅡㄴ</w>": 12642,
  "ㅇㅏㄴㄴㅕㅇ": 2740,
  "ㅅㅐㅊㅏㅇ</w>": 15964,
  "ㅎㅏㄴㅡㄴㅈㅣ</w>": 4307,
  "ㅈㅣㅅㅣㄱㄱㅘ</w>": 15803,
  "ㅈㅜㅇㅇㅛㅎㅏㄴ</w>": 1720,
  "ㅇㅟㅇㅝㄴㅈㅏㅇㅇㅡㄴ</w>": 14512,
  "ㄷ": 89,
  "01</w>": 3108,
  "Data</w>": 14716,
  "ㅅㅏㅇㅔㄱㅔ</w>": 14052,
  "ㄱㅕㄱㅎㅏㄴ</w>": 9952,
  "ㅅㅣㄴㅈㅜㅇㅎㅏㄴ</w>": 14491,
  "sch": 14687,
  "ㅃㅏㅇ": 4899,
  "ㅂㅜㄴㅇㅟㄱㅣ</w>": 7545,
  "ㄱㅕㅇㄱㅘ": 11122,
  "ㅈㅓㄴㅊㅔ": 2325,
  "ㅅㅏㅈㅓㄴ</w>": 2434,
  "ㅇㅖㅅㅏㄴ": 5381,
  "ㅅㅗㄹㅈㅣㄱ": 4939,
  "ㅇㅣㅂㅓㄴ": 2206,
  "ㅈㅏㅇㅕㄴㅅㅡㄹㅓㅂㄱㅔ</w>": 7705,
  "ㄷㅗㅂㄴㅡㄴ</w>": 13943,
  "ㅇㅕㄷㅡㄹ": 14795,
  "ㄴㅗㄱ": 2201,
  "ㄷㅟㅅ": 4079,
  "ㅅㅏㄻㅇㅔ</w>": 10856,
  "ㅂㅗㄷㅗㅈㅏㄹㅛ</w>": 11591,
  "ㅇㅐ</w>": 2459,
  "ㅋㅏㄷㅡㄹㅗ</w>": 15214,
  "ㅇㅗㄱ</w>": 6911,
  "ㅇㅠㄴㄱㅏㄴ</w>": 13931,
  "ㄱㅏㅁㅅㅏㄷㅡㄹㅣㅂㄴㅣㄷㅏ</w>": 6144,
  "ㄷㅡㄹㅇㅣ": 8264,
  "ㄴㅡㄹㅇㅓㄴㅏ": 7653,
  "ㄱㅘㅇㅕㄴ</w>": 3898,
  "ㅍㅐㅇ": 6366,
  "ㄷㅟㅈㅣㅂ": 9991,
  "ㅈㅜㄹㅇㅓ": 6735,
  "ㄹㅣㅇㅢ</w>": 2431,
  "ㄷㅚㄴㄷㅏㄴㅡㄴ</w>": 4147,
  "ㅇㅓㄷㅇㅡㄹ</w>": 4543,
  "ㄷㅡㄹㅔㅅㅡ</w>": 11984,
  "ㅅㅣㅁㄹㅣㅎㅏㄱ</w>": 10768,
  "ㄱㅕㅇㅇㅜ</w>": 728,
  "ㄱㅘㄱ": 8257,
  "ㅂㅣㅇㅔ</w>": 9132,
  "ㅎㅐㅇㅑㅎㅏㄹ</w>": 11498,
  "ㅎㅣㄹㄹㅣㅇ": 13235,
  "ㅇㅠㅎㅏㄱ": 14965,
  "ㅍㅡㄹㅔㅇㅣ": 4856,
  "ㅇㅡㅁㅇㅏㄱㅇㅡㄹ</w>": 7250,
  "ST": 6859,
  "ㅅㅐㅇㅎㅘㄹ</w>": 2891,
  "ㄷㅣㅂㅏㅇㅣ": 8414,
  "ㅅㅓㄹㅁㅕㅇㅎㅏㄱㅗ</w>": 12399,
  "er": 704,
  "ㅍㅕㅇㅅㅗㅇㅔ</w>": 13306,
  "Korea</w>": 10677,
  "ㅌㅜㄹ</w>": 13677,
  "ㅇㅕㅇㅢ": 10983,
  "ㅁㅏㄹㅎㅏㅁㅕㄴ</w>": 10117,
  "1ㅊㅏ</w>": 5736,
  "ㄱㅏㄱㅕㄱ": 1816,
  "ㅁㅗㅂㅏ": 1696,
  "ㅊㅐㅌㅣㅇ</w>": 12468,
  "ㅇㅣㄴㄱㅏㅇㅛ</w>": 5591,
  "ㅅㅕㄴㅇㅡㄹㅗ</w>": 13818,
  "ㄲㅏㄷㅏㄹ": 15457,
  "ㅁㅓㄴㅈㅓ</w>": 1728,
  "ㅇㅣㄹㄲㅏㅇㅛ</w>": 6694,
  "ㅂㅏㄹㅇㅓㄴㅇㅡㄹ</w>": 16335,
  "ㅁㅏㄴㄷㅡㄹㅇㅓㅅㅓ</w>": 13094,
  "ㅂㅣㅈㅡㄴㅣ": 7542,
  "ㅅㅓㅇㅎㅑㅇ": 15784,
  "ㅇㅣㅂㅇㅔ</w>": 7472,
  "ㄱㅔㅅㅣㅍㅏㄴ": 5590,
  "ㄱㅜㅇ</w>": 8662,
  "ㄱㅕㅇㅇㅡㄹ</w>": 3523,
  "ㅍㅔㅅㅡㅌㅣㅂㅓㄹ</w>": 11153,
  "ㅁㅕㅇㄹㅕㅇㅇㅡㄹ</w>": 11024,
  "ㅇㅕㅈㅓㄴㅎㅣ</w>": 3222,
  "ㅇㅡㅂ</w>": 10333,
  "ㅂㅗㄷㅗㅎㅐㅆㄷㅏ</w>": 12849,
  "ㅅㅣㄹ": 429,
  "Next</w>": 15898,
  "ㅂㄱㅗ</w>": 3315,
  "ㅂㅓㄴㅎㅗ": 3002,
  "ㅅㅣㅋㅏ": 8735,
  "ㅎㅏㅂㅏㄴㄱㅣ</w>": 11029,
  "MD": 15801,
  "ㅇㅟㅇㅢ</w>": 3072,
  "ㄴㅕㄴㄷㅗ</w>": 3584,
  "ㅇㅓㄸㅐ": 13848,
  "ㅂㅓㅈㅓㄴㅇㅡㄹ</w>": 13047,
  "ㅅㅐㅇㄱㅏㄱㅎㅏㅁㅕㄴ</w>": 8632,
  "ㅔㄴ": 1150,
  "ㅎㅏㄴㄱㅖ": 6530,
  "ㄷㅣㅅㅡㅍㅡㄹㄹㅔㅇㅣ": 12774,
  "ㅇㅏㄹㅇㅏㅆㄴㅡㄴㄷㅔ</w>": 16071,
  "ㅂㅏㄴㄷㅐㄹㅗ</w>": 8001,
  "ㅈㅜㄱㅇㅡㅁ": 6830,
  "ㅈㅗㅇㅇㅡㄴ</w>": 15115,
  "ㄱㅡㄱㅓㄴ</w>": 5798,
  "ㅍㅗㅁ": 12681,
  "ㅋㅣㄴㅡㄴ</w>": 8142,
  "ㅈㅜㅅㅣㄹ</w>": 14874,
  "up</w>": 6526,
  "ㅇㅕㄴㅎㅏㅂㅎㅚ</w>": 14190,
  "ㅈㅏㄱㅇㅡㄴ</w>": 1544,
  "ㅂㅜㄴㅇㅟㄱㅣㄱㅏ</w>": 10467,
  "ㅈㅣㄴ": 423,
  "ㄱㅏㅄㅇㅡㄴ</w>": 12983,
  "ㄱㅓㄴㅇㅣ</w>": 11123,
  "ㅂㅗㄱㅗ": 1617,
  "15ㅂㅜㄴ</w>": 10294,
  "ㅅㅏㄱ": 1100,
  "ㅂㅣㅇ</w>": 7227,
  "ㅂㅣㅇㅢ</w>": 6355,
  "ㅅㅏㄻㅇㅡㄴ</w>": 13161,
  "ㄷㅏㄷㅎㅣㅁㅕ</w>": 11128,
  "ㄱㅣㅅ": 8872,
  "ㅎㅘㄴㅇㅕㅇㅎㅏㅂㄴㅣㄷㅏ</w>": 15209,
  "ㅈㅜㄴㅂㅣㄱㅏ</w>": 10763,
  "29</w>": 4896,
  "ㅈㅗㅇㅇㅢ</w>": 5141,
  "DI": 7663,
  "ㅁㅏㄴㅋㅡㅁㅇㅢ</w>": 14899,
  "ㅇㅝㄹㄷㅡㅋㅓㅂ": 11227,
  "ㅅㅣㅁㅕ</w>": 10173,
  "ㅋㅐㅁㅍㅓㅅㅡ</w>": 9988,
  "ㅅㅜㅇㅕ": 12827,
  "ㅈㅓㄱㅇㅡㄹㅗㄴㅡㄴ</w>": 5997,
  "ㅂㅣㅎㅐㄱㅎㅘ</w>": 15435,
  "ㅂㅏㅇㅁㅜㄴㅎㅏㅇㅕ</w>": 14573,
  "ㅎㅜㅇㅢ</w>": 6082,
  "ㅇㅗㄹㅐ": 2181,
  "ㅇㅡㅁㅇㅡㄹㅗ</w>": 14317,
  "ㄴㅗㄴ": 1183,
  "ㅎㅕㄴㄱㅡㅁ</w>": 9813,
  "ㅁㅜㄴㅎㅘㅈㅓㄱ</w>": 12183,
  "ㅂㅜㅇㅓ": 9509,
  "ㅊㅐㄱㅇㅣㅁㄷㅗ</w>": 13060,
  "ㅇㅏㄴㅌㅏㄲㅏ": 11509,
  "ㄷㅣㅇㅇㅡㄹ</w>": 16169,
  "val": 13440,
  "ㄱㅛㅂㅗ": 2852,
  "ㄱㅡㄹㅓㄴㅏ</w>": 1161,
  "ㅎㅏㅂㄹㅠ": 12264,
  "ㅅㅣㅋㅏㄱㅗ</w>": 13897,
  "ㅇㅠㄹㅇㅡㄹ</w>": 11581,
  "ㄴㅕㄴㅇㅝㄹ": 14886,
  "ㄱㅗㄹㄷㅡ</w>": 9689,
  "ㅇㅠㅇㅕㄴ": 8427,
  "ㅇㅏㄹ</w>": 1783,
  "ㄷㅏㅇㅅㅣ</w>": 2330,
  "ㅍㅕㅇㅎㅘ</w>": 12096,
  "ㅈㅜㅅㅣㄱㅣ</w>": 3480,
  "ㄴㅡㄲㅣㄱㅔ</w>": 10843,
  "ㅁㅗㄹㅡㄱㅔㅆㄷㅏ</w>": 9243,
  "ㄷㅔㄹ</w>": 13425,
  "ㅅㅗㅎㅘ": 6630,
  "ㅍㅡㄹㅗㄱㅡㄹㅐㅁㅇㅣ</w>": 8026,
  "ㄷㅐㅈㅓㄴ</w>": 4475,
  "ㄱㅗㅇㄷㅗㅇ": 2419,
  "ㄱㅡㄴㅇㅠㄱ": 9025,
  "ㅂㅗㅁ": 5202,
  "ㅂㅜㅊㅓㄴ": 11589,
  "ㅂㅣㅌㅡ": 5629,
  "ㅊㅚㅅㅜㄴ": 12837,
  "ㅅㅗㄴㄴㅣㅁ": 7550,
  "ㄴㅗㅁㅜㅎㅕㄴ</w>": 9793,
  "ㅇㅠㅂㅜㄴ": 12523,
  "Web</w>": 13479,
  "ㄴㅓㅁㅜㄴ": 4222,
  "ㅁㅏㅈㅣㅁㅏㄱ": 3507,
  "ㅂㅗㅅㅣㄱㅣ</w>": 14738,
  "ㄱㅜㄱㅈㅏㅇ</w>": 15300,
  "ㅌㅡㄴㅡㄴ</w>": 2801,
  "no</w>": 12196,
  "ㅇㅣㅅㅡㄹㅏㅇㅔㄹ</w>": 8826,
  "ㅇㅣㄱㅇㅡㄹ</w>": 4691,
  "ㅂㅣㅌㅏㄴ</w>": 8953,
  "ㄷㅚㄱㅣㄷㅗ</w>": 7632,
  "ㅇㅣㄹㅈㅗㅇㅇㅢ</w>": 10241,
  "ㄱㅏㅂ</w>": 6214,
  "ㅂㅗㄹㅅㅜ</w>": 10464,
  "ㅇㅣㅆㄷㅏㅁㅕㄴ</w>": 2478,
  "ㅌㅗㅇㅇㅡㄹ</w>": 12356,
  "ㅈㅣㅂㅇㅢ</w>": 15355,
  "ㅈㅏㄴㅕ</w>": 11805,
  "ㅈㅏㄹㅁㅗㅅㄷㅚㄴ</w>": 5459,
  "ㅁㅏㄶㅈㅣㅁㅏㄴ</w>": 15467,
  "ㅊㅗㄹ": 4983,
  "rom</w>": 9517,
  "ㅈㅏㅇㅎㅏㄱ": 7531,
  "37": 5743,
  "ㅊㅜㅇㅂㅜㄱ</w>": 6371,
  "ㅎㅑㅇㅅㅏㅇ": 5735,
  "ㄱㅏㄹㅡ": 3229,
  "ㅇㅗㅎㅜ": 15706,
  "ㅇㅜㄴ</w>": 979,
  "ㅇㅛㅅㅗㄹㅡㄹ</w>": 10860,
  "ㅇㅕㄴㄱㅡㄱ": 10701,
  "ㄷㅗㄱㄹㅣㅂ": 4215,
  "ㄷㅗㄱㅈㅓㅁ": 15731,
  "ㄱㅓㅅㅇㅣ": 4390,
  "ㅅㅏㅈㅣㄴㅇㅡㄴ</w>": 7443,
  "ㅇㅣㅇㅑㄱㅣ</w>": 1661,
  "ㅊㅜㅇㅈㅓㄴ": 6621,
  "ㅇㅝ": 325,
  "ㄱㅕㄹ</w>": 1963,
  "ㅇㅣㄹㅈㅜ": 5803,
  "ㅁㅕㅇㅇㅖㅎㅞㅅㅗㄴ</w>": 3329,
  "ㅁㅜㄴㅈㅔㄱㅏ</w>": 1882,
  "ㅂㅏㄹㅗ</w>": 1091,
  "ㅎㅣㄱㅗ</w>": 7792,
  "ㄱㅓㄹㅗㄴ": 14813,
  "ㅁㅗㄹㅡㄱㅔ</w>": 10480,
  "ㅁㅗㄷㅔㄹ": 2148,
  "ㅌㅔㄴㅣ": 13567,
  "ㄱㅏㅌㄷㅏ</w>": 1820,
  "ㅂㅏㄹㅎㅛ": 14336,
  "ㄷㅐㄱㅕㄹ": 7893,
  "ㄲㅓㅂ": 9736,
  "ㅇㅏㄴㅈㅓㄴ</w>": 5482,
  "URL</w>": 14821,
  "ㄷㅡㄹㅇㅓ": 821,
  "ㅅㅓㅅ</w>": 4875,
  "ㄸㅜㄲㅓ": 15889,
  "and</w>": 1944,
  "ㅅㅡㅌㅣㅇ</w>": 5075,
  "ㅎㅜㄹㄹㅠㅇ": 9368,
  "ㅈㅜㅌㅐㄱ</w>": 5742,
  "ㅅㅏㄴㅇㅓㅂ": 1506,
  "ㄱㅡㄴㅕ</w>": 10998,
  "ㄱㅏㅇㅈㅓㅇ": 14025,
  "ㄱㅓㅈㅣㄴ</w>": 13395,
  "ㅅㅔㅌㅡ</w>": 3411,
  "ㅂㅘㅆㄷㅏ</w>": 9076,
  "ㄸㅓㄴㅏ": 4461,
  "Off": 7706,
  "ㅇㅛㅈㅡㅁㅇㅡㄴ</w>": 9073,
  "ㄱㅣㅌㅏ": 10782,
  "ㅇㅏㅇㅜㄹ": 6589,
  "ㅕㅇㅑ": 8226,
  "ㅅㅓㅁ</w>": 6243,
  "ㅈㅕㅆㅅㅡㅂㄴㅣㄷㅏ</w>": 6097,
  "ㅍㅡㄹㅡㄹ</w>": 6647,
  "ㅌㅡㅁ": 11516,
  "ㅅㅐㄴㅍㅡㄹㅏㄴㅅㅣㅅㅡㅋㅗ</w>": 14890,
  "ㄱㅏㅈㅕ</w>": 11758,
  "ㅇㅝㄴ": 386,
  "ㅌㅣㄹㅡㄹ</w>": 11422,
  "ㅊㅏㅇㅇㅓㅂ": 4291,
  "ㅎㅏㅁ</w>": 1280,
  "ㄷㅏㄹㅇㅡㄹ</w>": 8651,
  "ㄱㅜㄱㅂㅏㅇ": 7835,
  "ㅈㅓㅈㅏㄱㄱㅝㄴㅊㅣㅁㅎㅐ</w>": 3450,
  "ㅅㅣㅈㅏㄱㅇㅡㄹㅗ</w>": 9450,
  "ㅈㅓㅂㅅㅜ": 6686,
  "ㅊㅜㄹㅊㅓ</w>": 5208,
  "ㅂㅏㄱㅁㅜㄹㄱㅘㄴ</w>": 5564,
  "ㅊㅏㅁㄱㅏ</w>": 7721,
  "ㅇㅠㅌㅠㅂㅡ</w>": 9296,
  "ㅇㅓㅍㅡㄹ</w>": 8434,
  "ㄷㅗㄹㅇㅏㄱㅏㄴㅡㄴ</w>": 12480,
  "ㄷㅔㄴㅡㄴ</w>": 11585,
  "K": 36,
  "ㅁㅐㄴㅕㄴ</w>": 5170,
  "ㅎㅐㄱㅕㄹ</w>": 5364,
  "ㄴㅣㅁㅇㅡㄹ</w>": 4883,
  "ㄷㅏㅇㅇㅡㄹ</w>": 7911,
  "ㄷㅏㅇㅇㅔ</w>": 10745,
  "ㅈㅐㅅㅐㅇ</w>": 8258,
  "ㅅㅣㄹㅣㅈㅡ</w>": 3762,
  "ㅅㅙ": 3840,
  "ㅇㅣㄹㅏㅇ</w>": 6416,
  "ㅂㅗㅇㅕㅈㅜㄴㄷㅏ</w>": 12874,
  "ㄴㅓㄼ": 4167,
  "ㄱㅙㄴ": 2672,
  "ㄷㅏㅂㅂㅕㄴㅇㅡㄹ</w>": 6864,
  "SN": 3510,
  "ㅇㅕㄱㄹㅑㅇ</w>": 15926,
  "ㅂㅡㄴ": 16099,
  "ㅁㅏㄹㅎㅏㄴㄷㅏ</w>": 4800,
  "KT</w>": 8198,
  "ㅎㅏㄴㅏㄴㅣㅁㅇㅡㄴ</w>": 10068,
  "ㅁㅗㅅㅡㅂㅇㅡㄴ</w>": 9694,
  "ㅈㅐㄴㅏㄴ": 13128,
  "ㅍㅗ": 443,
  "ㅊㅣㄱㅗ</w>": 2653,
  "ㅎㅏㄹㅕㅁㅕㄴ</w>": 3352,
  "ㅊㅜㄱㅏ</w>": 1837,
  "ㄱㅘㅇㅇㅕㄱ</w>": 8798,
  "ㅅㅡㅋㅏㅇㅣ": 13351,
  "Tim": 11253,
  "ㅍㅣㅇㅏ</w>": 11496,
  "ㅏ": 113,
  "ㅅㅓㅂㅣㅅㅡㅇㅢ</w>": 5664,
  "ㄹㅔㅅ": 11980,
  "ㄷㅣㅈㅣㅌㅓㄹ": 6148,
  "ㅎㅚㄱㅖ</w>": 10866,
  "ㅏㄹ": 275,
  "ystem</w>": 7649,
  "ㅁㅣㄴㅈㅗㄱ</w>": 10620,
  "ㄷㅗㅋㅛ": 10547,
  "ㅈㅣㄴㄷㅏㄱㅗ</w>": 14745,
  "ㅇㅛㅎㅏㄴ": 14585,
  "1ㅍㅔㅇㅣㅈㅣ</w>": 7505,
  "ㄱㅏㅂㅕㅂㄱㅔ</w>": 10596,
  "ㄴㅏㅁㅇㅡㄴ</w>": 4490,
  "ㅁㅏ": 304,
  "ㄴㅗㄹㅇㅣ</w>": 6909,
  "ㅇㅟㅎㅐㅅㅓ": 10645,
  "ㅈㅏㅇㅂㅣ</w>": 6265,
  "ㅎㅑㅇㅎㅏㄴ</w>": 9056,
  "ㅇㅝㅅㅣㅇㅌㅓㄴ</w>": 15032,
  "8ㅇㅝㄹ": 9835,
  "ㅇㅣㅇㅓ": 1301,
  "ㄷㅏㅇㅢ</w>": 7921,
  "ㅅㅣㅁㅇㅢ</w>": 11866,
  "ㄱㅕㄹㅈㅔ": 3338,
  "net": 10317,
  "ㄱㅣㅁㅅㅜ": 14270,
  "ㅁㅏㄹㅎㅏㄴㅡㄴ</w>": 4258,
  "ㅅㅣㅁㅇㅣ</w>": 5775,
  "ㄲㅡㄴ</w>": 10737,
  "ㅅㅣㅋㅣㄴ</w>": 7128,
  "ㄹㅣㅁㅗ": 13353,
  "26": 2603,
  "ㅈㅏㄱㅕㄱㅇㅡㄹ</w>": 12963,
  "ㅈㅏㅇㅂㅣ": 10175,
  "ㄱㅣㅅㅜㄹㅇㅡㄹ</w>": 4470,
  "ㅇㅣㅈㅜㅇ</w>": 12740,
  "ㅅㅏㄹㅏㅁㄷㅡㄹㅇㅡㄹ</w>": 5009,
  "ted</w>": 14204,
  "ㅏㄹㅡㄹ</w>": 2214,
  "ㅍㅜㄷㅡ": 15746,
  "ㅁㅣㅅㅜㄹㄱㅘㄴ</w>": 10439,
  "ㅍㅡㅌㅡ": 15671,
  "ㅅㅗㅇ</w>": 1302,
  "ㄱㅐㅇ": 5525,
  "months</w>": 10819,
  "ㅍㅣㄹㄹ": 8242,
  "ㅈㅓㄴㅎㅕㅇ": 5360,
  "ㄹㅚ</w>": 13383,
  "ㅇㅓㅍㅡㄹ": 9579,
  "ㄷㅐㅈㅜㅇ</w>": 15226,
  "ㅌㅐㅇㅑㅇㅇㅣ</w>": 15091,
  "ㄱㅔㅆㅈㅣㅇㅛ</w>": 9933,
  "10ㅂㅜㄴ</w>": 7958,
  "ㅂㅔㅇㅣㅈㅣ</w>": 14347,
  "ㅇㅗㄴㅡㄹㄴㅏㄹ</w>": 8426,
  "ㄱㅐㄴㅕㅁ": 4870,
  "ㅎㅣㅁㄷㅡㄴ</w>": 4662,
  "ㄱㅡㄴㄷㅔ</w>": 3993,
  "CN": 9064,
  "ㅂㅏㄴㄱㅣ</w>": 5907,
  "ㅈㅓㄱㅇㅛㅇㅎㅏㄹ</w>": 13784,
  "ㅎㅘㄱㅇㅣㄴ</w>": 2121,
  "ㅁㅏㅅㅇㅣㅆㄱㅔ</w>": 12466,
  "ㅇㅏㄹㅇㅏ": 2062,
  "ㄱㅗㅇㄱㅏㄴㅇㅡㄹ</w>": 7096,
  "ㅇㅑㅇ": 630,
  "ㅅㅕㄴㅇㅔ</w>": 9610,
  "ㅈㅓㅇ</w>": 573,
  "ㅈㅓㄴㄷㅗㅇ": 14230,
  "ㄱㅗㅁㅏ": 5261,
  "ㅎㅏㄱㄱㅛㄴㅡㄴ</w>": 13602,
  "ㅈㅣㄹㅣ</w>": 13563,
  "ㅈㅓㄴㅎㅣ</w>": 1955,
  "ㅇㅓㅆㄷㅏ</w>": 615,
  "ㄱㅡㅁㅇㅐㄱㅇㅡㄴ</w>": 12073,
  "ㄹㅇㅡㄴ</w>": 10342,
  "ㅅㅗㄱㄷㅗ</w>": 4928,
  "ㅂㅏㄺㅎㅕㅆㄷㅏ</w>": 2441,
  "ㅊㅜㄹㄹㅕㄱ": 6773,
  "ㅉㅣㄱㄱㅗ</w>": 12457,
  "ㅇㅡㅇㅇㅝㄴ": 7300,
  "App</w>": 14067,
  "ㅅㅡㅇㄹㅣ": 5842,
  "ㄷㅡㄹㅣㄱㅗ</w>": 6162,
  "ㅇㅓㅂㄷㅔㅇㅣㅌㅡ": 8299,
  "ㄷㅡㄹㄹㅓ": 14803,
  "ㄹㅏㅇㅣㅅㅓㄴ": 9734,
  "ㅁㅗㄱㅇㅛㄱ": 12680,
  "ㄱㅏㅌㅗㄹ": 11741,
  "ㄹㅣㅅㅡ": 12497,
  "ㅍㅡㄹㄹㅓ": 2385,
  "ㅁㅣㄴ": 513,
  "17ㅇㅣㄹ</w>": 6303,
  "ㅅㅣㄹㅅㅣ": 3247,
  "ㄱㅣㅅㅏㄱㅏ</w>": 15515,
  "ㅂㅜㄷㅗㅇ": 2968,
  "ㅕㄴㅅㅓㄷㅗ</w>": 4433,
  "ㅂㅣㅊㅇㅣ</w>": 9936,
  "ㅎㅛㄱㅘㅈㅓㄱㅇㅣㄴ</w>": 10163,
  "ㅈㅓㅇㅢ</w>": 5150,
  "ㄷㅏㅇㅎㅏㄴ</w>": 3672,
  "ㄱㅜㄷㅗㄱ</w>": 12479,
  "ㅇㅡㄴㅣㄲㅏ</w>": 8806,
  "ㅎㅏㅇㅣㅂㅡㄹㅣ": 13366,
  "ㅂㅜㄴㅅㅏㄴ": 14071,
  "ㅅㅡㅋㅏ": 5971,
  "ㅇㅓㄴㅇㅓ</w>": 4724,
  "ㅊㅐㄱㅇㅢ</w>": 8103,
  "ㅋㅠ": 2883,
  "ㅇㅣㄹㅓ": 646,
  "ㄸㅗㄱㄱㅏㅌㅇㅡㄴ</w>": 8757,
  "ㄷㅐㅁㅜㄴ": 11381,
  "ㅇㅗㅂㅅㅕㄴ": 8637,
  "??</w>": 3702,
  ":": 23,
  "ㅊㅘ": 2129,
  "ㅁㅕㄴㅇㅔㅅㅓ</w>": 4473,
  "ㅂㅣㅁㅣㄹ</w>": 8697,
  "ㅇㅏㅁㅏㅊㅠ": 5622,
  "ㅌㅏㅇㅣ</w>": 11512,
  "ㅇㅣㅆㅇㅡㅁ</w>": 3689,
  "ㅅㅐㅇㄱㅏㄱㄷㅗ</w>": 10018,
  "ㄱㅐㅇㅣㅂ": 10565,
  "ick": 11058,
  "ㄱㅗㅈㅣ": 9318,
  "ㄹㅣ</w>": 523,
  "ㅂㅏㄹㄷㅏㄹ</w>": 9714,
  "ㅈㅜㅇㅅㅣㅁㅇㅔ</w>": 13288,
  "de</w>": 2803,
  "ㅂㅔㄹㅣ</w>": 13059,
  "ㅇㅟㅇㅏㄴ": 11751,
  "ㄷㅏㄹㅜㄴㅡㄴ</w>": 11960,
  "ㅎㅏㅂㄴㅣㄷㅏ</w>": 464,
  "ㄷㅡㄹㅣ": 783,
  "ㅅㅡㅌㅡㄹㅐㅂ</w>": 15428,
  "ㅃㅗㅂ": 4080,
  "ㄲㅡㅀ": 8362,
  "ㅁㅏㅇㅡㅁㅇㅡㄹ</w>": 2743,
  "it": 967,
  "ㅊㅣㄴㅡㄴ</w>": 1859,
  "ㅂㅗㄴㄱㅕㄱ": 5619,
  "ㅇㅢㅎㅐ</w>": 1880,
  "ㅍㅡㄹㅗㄱㅡㄹㅐㅁㅇㅡㄴ</w>": 9411,
  "ㅇㅣㅆㄷㅏㅂㄴㅣㄷㅏ</w>": 11738,
  "ㅊㅏㅇㅇㅓㅂ</w>": 8018,
  "ㅇㅏㄹㅡㄹ</w>": 8076,
  "ㅇㅕㄹㄹㅣㅁ</w>": 11375,
  "ㅂㅏㅈㅣ</w>": 8212,
  "ㅅㅏㅇㅓㅂㅈㅏ</w>": 12271,
  "ㅇㅏㅇㅗ": 16265,
  "ㅡㅁㅇㅣ</w>": 5623,
  "ㅂㅏㄴㄷㅗ": 7762,
  "ㅈㅏㅇㅚ": 15925,
  "ㅇㅓㅉㅐㅆ": 8567,
  "ㄱㅏㄴ": 512,
  "ㄱㅗㅇㅇㅠ": 2165,
  "ㅂㅏㄱㅈㅣ": 11547,
  "ording</w>": 15725,
  "ㅊㅣㅁ": 889,
  "ㅂㅐㅌㅡ": 11079,
  "ㅍㅛ</w>": 1193,
  "ㅁㅏㅋㅔㅅ</w>": 9534,
  "serv": 8941,
  "ㅂㅓㄹㅇㅓㅈㅣㄴ</w>": 15111,
  "ㄱㅕㅇㅇㅕㅇ</w>": 4216,
  "ㅇㅝㄴㅊㅣㄱ": 5097,
  "ㅇㅠㅁㅕㅇㅎㅏㄴ</w>": 4601,
  "Q": 42,
  "ㅇㅣㄴㅌㅓㅂ": 2627,
  "ㅍㅡㄹㅗㄱㅡㄹㅐㅁㅇㅔ</w>": 9729,
  "ㅇㅕㅇㅎㅘㅇㅢ</w>": 9330,
  "ㅈㅜㄴㄷㅏㄱㅗ</w>": 15333,
  "ㄷㅗㄱㅇㅣㄹㅇㅢ</w>": 9886,
  "ㄲㅙ": 14398,
  "ㄴㅜㄴㅇㅡㄹㅗ</w>": 10564,
  "ㄱㅡㅇ": 4324,
  "13": 1522,
  "ㅋㅣㄹㄹㅗㅁㅣㅌㅓ</w>": 7169,
  "ㅂㅘㅆㄴㅡㄴㄷㅔ</w>": 10784,
  "ld</w>": 8168,
  "ㅁㅏㄴㅋㅡㅁㅇㅡㄴ</w>": 12669,
  "ㅅㅣㅈㅏㄱ</w>": 3020,
  "re": 914,
  "ㅂㅗㄱㄱㅟ</w>": 14693,
  "ㄴㅏㅇㅗㄱㅗ</w>": 7401,
  "ㄹㅣㅇ</w>": 2590,
  "ㅁㅜㄴㅇㅔ</w>": 7702,
  "ㅇㅑㄱㄱㅘㄴㅇㅔ</w>": 12115,
  "ㅎㅏㄹㅕ": 1546,
  "7ㅇㅝㄹ": 9732,
  "ㄷㅜㄴ</w>": 3974,
  "ㄱㅕㅇㅈㅔㅎㅏㄱ</w>": 15924,
  "ㅂㅏㅇㅌㅏㄴ": 11406,
  "ㅎㅢ": 974,
  "ㅈㅓㄹㅇㅡㄹ</w>": 9635,
  "ㅌㅡㄱㅇㅠㅇㅢ</w>": 11902,
  "ㅅㅏㅁㅜ": 2219,
  "ㅁㅏㄴㄷㅡㄹㄱㅣ</w>": 2830,
  "ㅇㅜㅅㅓㄴ</w>": 3182,
  "ㄹㅣㅅㅡㅌㅡ": 11065,
  "ㅅㅏㄴㅡㄴ</w>": 1140,
  "ㅌㅡㅇㅔㅅㅓ</w>": 6193,
  "ㅈㅗㅅㅓㅇ</w>": 15221,
  "ave</w>": 10177,
  "ㅍㅣㅌㅡㄴㅣㅅㅡ</w>": 9927,
  "ㄱㅏㄲㅏㅇ": 2394,
  "ㅇㅕㅇㅇㅝㄴ": 5407,
  "ㅇㅣㄹㄹㅓ": 6233,
  "ㅍㅏㄴㄷㅏㄴ": 2606,
  "ㅅㅓㅇㅑ</w>": 7368,
  "ㅇㅣㄴㅎㅐ</w>": 2530,
  "ㅇㅣㅎㅐㅎㅏㄱㅗ</w>": 9188,
  "ㅁㅣㄱㅜㄱㅇㅔ</w>": 12543,
  "...\"</w>": 10709,
  "1ㄹㅗ</w>": 11325,
  "ㅈㅜㄹㅠ</w>": 16069,
  "ㅊㅡㄱㅁㅕㄴ": 11061,
  "ㅂㅏㅇㅂㅓㅂㅇㅡㄹㅗ</w>": 4657,
  "ㅇㅓㅄㅇㅓㄷㅗ</w>": 14194,
  "ㅆㅡ": 842,
  "ㄱㅓㅈㅛ</w>": 5845,
  "ㅈㅏㅁㅅㅣ</w>": 4063,
  "ㅇㅣㄴㅅㅣㄱㅇㅡㄹ</w>": 15935,
  "ㅇㅖㅅㅜㄴㅣㅁㅇㅢ</w>": 12221,
  "ㅇㅕㄹㅓ": 1495,
  "ㄴㅗㄹㅕㄱ": 2128,
  "ㄱㅣㅃㅡ": 16102,
  "ㅇㅕㄴㅈㅜㅇ</w>": 14530,
  "(</w>": 225,
  "ㅈㅜㄴㅂㅣㅎㅏㄴ</w>": 15296,
  "ㄹㅣㄴㅜㄱㅅㅡ</w>": 14373,
  "ㅅㅣㄹㅇㅡㄹ</w>": 5524,
  "ㅊㅓㄹㅈㅓ": 9339,
  "ㅁㅏㄹㅇㅣㅈㅛ</w>": 8837,
  "ㅁㅜㅅㅏㅇ": 15566,
  "2ㅁㅕㅇ</w>": 9233,
  "ㅅㅡㅌㅣㅇㅇㅡㄹ</w>": 11132,
  "ㅅㅜㄷㅗㄱㅝㄴ</w>": 16266,
  "ㄴㅏㅁㅅㅓㅇ</w>": 5114,
  "ㄱㅜㄴㅇㅢ</w>": 6517,
  "ㅎㅐㅆㄴㅡㄴㄷㅔㅇㅛ</w>": 13231,
  "ㅈㅣㄴㅎㅏㄴ</w>": 9759,
  "ㅈㅏㄷㅡㄹㅇㅢ</w>": 3095,
  "ㅇㅏㅌㅡ": 8453,
  "ㄱㅖㅇㅑㄱ": 2602,
  "ㅋㅓㅁㅠㄴㅣㅋㅔㅇㅣ": 6326,
  "ㅅㅜㅁ</w>": 12877,
  "ㅅㅏㅇㅍㅛ": 14770,
  "ㅍㅡㄹㅗㅁㅗㅅ": 8746,
  "ㅂㅗㅎㅓㅁㅇㅡㄹ</w>": 15822,
  "ㅍㅏㅇㅓㅂ": 16084,
  "ㅈㅓㄴㅕㄱㅇㅔ</w>": 15771,
  "ㅉㅏ</w>": 1979,
  "ㅍㅡㅇㅢ</w>": 10189,
  "ㅍㅜㅁ</w>": 777,
  "ㅅㅡㅇㅇㅡㄹ</w>": 7371,
  "ㄸ": 90,
  "ㄷㅡㅇㅞ": 5891,
  "ㅇㅜㄴㅇㅕㅇㅈㅣㄴ</w>": 15367,
  "ㅊㅏㅁㅇㅕㄹㅡㄹ</w>": 13836,
  "ㄷㅗㅇㅁㅜㄹ": 4375,
  "ㅈㅣㅈㅣ": 4736,
  "ㄱㅔㅆㅅㅡㅂㄴㅣㄲㅏ</w>": 14751,
  "D": 29,
  "ㅎㅏㄴㅡ": 5505,
  "ㄻ</w>": 252,
  "ㅅㅐㅇㄱㅏㄱㅎㅐㅆㄷㅏ</w>": 10344,
  "ㅊㅗㄹㅗㄱ": 14269,
  "Comp": 10711,
  "ㅇㅏㄱㅏ": 6053,
  "ㄱㅛㅎㅘㄴ": 5462,
  "ㅅㅡㅍㅔ": 2632,
  "ㅌㅓㄱ": 10530,
  "ㅊㅓㅁㅂㅜ": 7957,
  "ㅎㅐㅈㅣㄴㅡㄴ</w>": 6727,
  "ㅅㅏㄷㅏㄹㅣ</w>": 12241,
  "ㄱㅡㄹㅜㅂㅇㅡㄹ</w>": 16093,
  "ㅈㅐㄹㅗ</w>": 13548,
  "ㅂㅐㄴㄷㅡ</w>": 6463,
  "ㄱㅣㄹ": 879,
  "ㄱㅗㅇㅎㅠ": 10668,
  "ㅂㅡㄹㅏㅇㅜㅈㅓ</w>": 10706,
  "ㅂㅗㄱㅣ": 8909,
  "ㅂㅣㅎㅐㅇ": 4101,
  "ㅇㅓㄹㅕㅇㅜㅁㅇㅡㄹ</w>": 10019,
  "ㄱㅜㅇㅕㄱ": 6716,
  "l": 66,
  "ㄱㅣㅇㅕ": 4559,
  "ㄷㅏㅇㅑㅇ": 935,
  "ㅂㅜㅊㅡ</w>": 15854,
  "ㅇㅜㅅㅡㅇ</w>": 6497,
  "ㅂㅡㄹㄹㅗㄱㅓ": 12465,
  "ㅇㅣㅎㅏㄴ</w>": 8292,
  "ㅇㅗㅋㅔ": 15593,
  "ㅅㅏㅈㅣㄴㅇㅡㄹㅗ</w>": 11587,
  "ㅋㅜㄹ": 3592,
  "0ㅇㅡㄹㅗ</w>": 16001,
  "2ㅁㅏㄴ</w>": 15761,
  "ㅌㅓㅁ": 11552,
  "Kore": 7099,
  "ㅎㅣㅂㅎㅏㅂ</w>": 16025,
  "yn": 6862,
  "Service</w>": 15953,
  "ㅂㅜㄱㅁㅣ": 8803,
  "ㅈㅗㅅㅓㄴ": 3012,
  "ㅈㅗㅎㅚ</w>": 6627,
  "ㅇㅐㄴ": 2776,
  "ud": 6183,
  "ㅆㄷㅓㄴ</w>": 1327,
  "ㅇㅣㅆ": 296,
  "ㅎㅕㄴㅎㅘㅇ</w>": 3919,
  "ㅇㅣㄴㄱㅝㄴ</w>": 11033,
  "ㅎㅗㄴㅈㅏ": 6925,
  "20": 477,
  "ㄱㅘㄴㅇㅔㅅㅓ</w>": 6197,
  "Sc": 6761,
  "ㅂㅗㅁㅕㄴㅅㅓ</w>": 4903,
  "24": 1648,
  "ㄷㅏㅂㄴㅣㄷㅏ</w>": 4074,
  "ㅈㅓㅂㄱㅡㄴ": 3004,
  "te": 4492,
  "ㄴㅗㅍㅇㅣㄴㅡㄴ</w>": 12147,
  "ㄱㅏㅁㅐㅇ": 12319,
  "ㄴㅗㅇㅎㅕㅂ": 13745,
  "ㅇㅣㄹㅗ": 6048,
  "ㄱㅓㅅㅣㄱㅣ</w>": 7100,
  "ㅇㅜㄹㅣㅇㅔㄱㅔ</w>": 5903,
  "ㅇㅓㅍㅡㄹㄹㅣㅋㅔㅇㅣ": 8221,
  "ㄷㅏㅇㅜㄴㄹㅗㄷㅡㄱㅏ</w>": 5084,
  "ㅅㅕㄷㅗ</w>": 11236,
  "ㅎㅏㄴㅣ</w>": 3117,
  "ㅈㅏㅂㅏㅅㅡㅋㅡㄹㅣㅂㅌㅡㄹㅡㄹ</w>": 15912,
  "PC": 2668,
  "ㅇㅣㄴㅁㅜㄴ": 15056,
  "ㄷㅚㅅㅓ</w>": 15837,
  "ㄱㅗㄷㅐ</w>": 11737,
  "ㅊㅓㅁㄱㅏ": 16047,
  "ㅇㅣㅂㅎㅏㄱ": 7399,
  "ㄸㅗㄷㅏㅅㅣ</w>": 16277,
  "ㅎㅏㄴㄱㅡㄹ": 5165,
  "ㅇㅣㄴㅎㅏㅇㅕ</w>": 6065,
  "ㅎㅐㅇㅔ</w>": 13159,
  "19ㅍㅔㅇㅣㅈㅣ</w>": 15372,
  "10</w>": 1216,
  "ㅅㅏㄹㅇㅏㄱㅏㄴㅡㄴ</w>": 8137,
  "ㅂㅗㄷㅗ": 4153,
  "ㅁㅏㄴㄷㅡㄴㄷㅏ</w>": 10470,
  "ㄷㅟㄹㅗ</w>": 7303,
  "ㄱㅏㄱㅕㄱㅇㅣ</w>": 6246,
  "ㄱㅣㅂㅓㅂ</w>": 14221,
  "ㅊㅓㅇㅅㅗㄴㅕㄴ</w>": 3566,
  "ㅅㅏㅎㅏㅇㅇㅔ</w>": 8429,
  "ㄴㅜㄱㅜㄷㅗ</w>": 10730,
  "ㅇㅓㅄㄴㅡㄴ": 8558,
  "ㅎㅕㅆㄷㅏ</w>": 13615,
  "ade</w>": 10410,
  "ㅂㅗㄱㅇㅡㅁㅇㅡㄹ</w>": 15645,
  "ㅈㅗㄱㅓㄴㅇㅡㄹ</w>": 9210,
  "4ㅇㅝㄹ": 8361,
  "ㅇㅕㄹ</w>": 2701,
  "ㅇㅓㅇㅛ</w>": 941,
  "ㄱㅣㄹㅗㄱㅎㅐㅆㄷㅏ</w>": 8084,
  "Con": 3905,
  "ㅇㅔ</w>": 291,
  "ㅇㅣㅈㅓㄴ</w>": 3003,
  "ㅁㅕㅊㅁㅕㅊ</w>": 6779,
  "ㄱㅘㄴㅇㅕ": 13190,
  "ㅂㅏㄲㅜ": 3650,
  "ㅋㅟㄴ": 10948,
  "ㅁㅗㄱㅇㅡㄹ</w>": 3871,
  "ㅈㅏㅇㄱㅘ</w>": 4843,
  "ㅌㅏㅇㅝ</w>": 10915,
  "ㅅㅡㅌㅏㅇㅣㄹ</w>": 3508,
  "ㅌㅓㄹㅇㅣ</w>": 7299,
  "ㄷㅗㅂㅏㄱ": 6856,
  "ㅈㅓㅇㅂㅣ": 10132,
  "ㅇㅣㅇㅓㅆㄷㅏ</w>": 1513,
  "ㅂㅕㄹ</w>": 1243,
  "ㅈㅣㅇㅝㄴㅎㅏㅈㅣ</w>": 10496,
  "ㅇㅓㅆㅅㅡㅂㄴㅣㄷㅏ</w>": 2150,
  "ㅇㅣㄹㅂㅜㄹㅡㄹ</w>": 12129,
  "ung": 14352,
  "ㄱㅣㄱㅏ": 16197,
  "ㅇㅕㅎㅗㅇㅘ": 12027,
  "ㄷㅏㄹㅡㄹ</w>": 4842,
  "ㅇㅏㄹㅔ": 12046,
  "ㅈㅏㅇㅠ": 1475,
  "200</w>": 11297,
  "ㅇㅣㅇㅚㅇㅔ</w>": 14819,
  "ㅈㅓㄴㅁㅜㄴㄱㅏ</w>": 5460,
  "ㅎㅛㄱㅘ": 1766,
  "ㅅㅣㄹㅗ</w>": 6893,
  "ㅇㅣㅈㅓㄴ": 3460,
  "ㅅㅏㅇㅇㅛㅇ": 13467,
  "ㄱㅘㅇㄱㅗㄹㅡㄹ</w>": 8885,
  "ㅅㅣㄱ</w>": 764,
  "ㅅㅣㄷㅗ</w>": 8838,
  "ㅅㅐㅇㄱㅏㄱㅎㅐㅇㅛ</w>": 15937,
  "ㅊㅣㄹㅛ</w>": 3911,
  "ㅊㅓㅇㅈㅜㅅㅣ</w>": 7454,
  "ㅈㅏㅇㄴㅏㄴㄱㅏㅁ</w>": 5035,
  "ion</w>": 1203,
  "160": 14508,
  "ㄷㅗㅋㅛ</w>": 10871,
  "ㄷㅣㅅㅡㅍㅡㄹㄹㅔㅇㅣ</w>": 8430,
  "ㄱㅏㅁㄷㅗㄱ": 2496,
  "ㅈㅔㅇㅣㄹ</w>": 3679,
  "Ital": 15421,
  "ㅇㅣㄹㅡㄹ": 12883,
  "ㅎㅘㄴㅅㅏㅇ": 9598,
  "ㅊㅏㅈㅇㅡㅅㅣㄹ</w>": 15266,
  "ㅆㅡㄹ</w>": 4261,
  "ㅇㅘㅇㅣㄹ": 12400,
  "ㅇㅒ": 2210,
  "ㅎㅕㄴㅈㅏㅇㅇㅔ</w>": 14464,
  "ㅁㅏㄺㅇㅡㄴ</w>": 14851,
  "ㅅㅟㅂㅅㅡㅂㄴㅣㄷㅏ</w>": 11942,
  "ㅎㅓㄹㅏㄱ</w>": 6069,
  ".....</w>": 6092,
  "ㅈㅐㅇ</w>": 2907,
  "ㄷㅣㅈㅡ": 12532,
  "ㄷㅡㄹㅇㅓㄱㅏㄴㅡㄴ</w>": 8607,
  "ㄷㅜㄹㄹㅓㅂㅗㄱㅣ</w>": 12237,
  "ㅅㅜㄷㅗㄱ": 9679,
  "ㅂㅕㄴㅎㅘㅇㅢ</w>": 16022,
  "ㄷㅡㄴㄱㅏ</w>": 12656,
  "ㅂㅕㅇㅇㅔ</w>": 13997,
  "ㅇㅡㄹㅕ</w>": 6668,
  "5</w>": 183,
  "ㅌㅡㄹㅐㄱ</w>": 13541,
  "ㄱㅜㅁㅓㅇ": 15547,
  "ㅁㅏㅇㅡㅁㅇㅣ</w>": 3744,
  "ㅅㅏㄷㅡㄹㅇㅣ</w>": 12209,
  "ㅂㅓㄴㅇㅕㄱㅇㅡㄹ</w>": 16298,
  "ㅇㅣㄹㅂㅏㄴㅈㅓㄱㅇㅡㄹㅗ</w>": 4722,
  "ㄱㅐㄹㄹㅓㄱㅅㅣS": 13905,
  "ㅈㅓㄴㅎㅏㄱㅗ</w>": 13994,
  "ㅂㅏㄷㅣ": 13312,
  "ong</w>": 6624,
  "ㅎㅐㅇㅑ": 2043,
  "ㅕㄴㅅㅓ</w>": 990,
  "198": 3751,
  "ㄷㅐㅂㅜㅂㅜㄴ</w>": 3094,
  "hy": 14526,
  "ㅅㅏㅇㅓㅂㅇㅣ</w>": 13863,
  "ㅇㅕㄹㄹㅕ</w>": 15530,
  "ㄴㅔㅇㅣㅁ": 4471,
  "ㅈㅓㄴ": 341,
  "ㅅㅏㄱㅏ</w>": 1435,
  "ㄷㅡㄹㅏㅁㅏ</w>": 4321,
  "ㅊㅏㄷㅏㄴ": 7160,
  "iPhone</w>": 11588,
  "ㅈㅓㄴㅌㅗㅇㅈㅓㄱㅇㅣㄴ</w>": 11156,
  "ㅇㅓㄴㅈㅔㄴㄱㅏ</w>": 12638,
  "ㄱㅝㄴㅇㅢ</w>": 6160,
  "ㅂㅜㄱㅏㄱ": 14747,
  "ㅅㅣㅁㅎㅏㄴ</w>": 5387,
  "ㅇㅜㄴㅇㅕㅇ</w>": 2031,
  "ㄷㅏㄴㅇㅓ</w>": 8345,
  "ㅊㅓㄴㅅㅏ</w>": 15003,
  "ㅇㅡㅁㅇㅔ</w>": 10785,
  "ㅊㅏㅈ": 794,
  "ㅇㅏㄱㅅㅔ": 16123,
  "ㅇㅣㄴㄷㅗㄴㅔ": 8580,
  "ㅁㅗㄹㅡㄱㅔㅆ": 6088,
  "ㄱㅓㅅㄷㅡㄹ</w>": 10404,
  "He": 9631,
  "Soc": 15957,
  "ㅇㅣㅇㅛㅇㅎㅐ</w>": 4480,
  "ㅊㅜㅇㄴㅏㅁ</w>": 11733,
  "ㅡㄹ</w>": 290,
  "ㅇㅏㅇㅣㅍㅗㄴ": 4801,
  "ㅁㅏㄷㅡㄹㅣ": 10793,
  "ㅇㅕㅁㅕㅇㅇㅢ</w>": 14798,
  "PL": 12591,
  "ㅎㅐㅇㅂㅗㄱ": 1858,
  "7": 20,
  "ㅇㅕㄴㅅㅡㅂ": 4798,
  "ㅍㅣㅎㅐㄱㅏ</w>": 16292,
  "ㄷㅐㄱㅐ</w>": 13791,
  "ㅂㅜㄺ": 12190,
  "ㅇㅣㅇㅛㅇㅈㅏㅇㅔㄱㅔ</w>": 16136,
  "ㅊㅓㄴ</w>": 1090,
  "ome</w>": 7009,
  "ㅅㅜㅇㅕㅇㅈㅏㅇ</w>": 5492,
  "ㅇㅝㄴㅇㅔ</w>": 3092,
  "ㅂㅓㄹㅇㅓ": 5881,
  "ㅈㅣㄱㅇㅝㄴㅇㅣ</w>": 11742,
  "700": 10033,
  "ㅈㅔㅈㅓㅇ": 16208,
  "ㅋㅡㄹㅗㅅㅡ": 11284,
  "ㄷㅗㄱㅜㄹㅡㄹ</w>": 13517,
  "ㄴㅏㄹㅇㅏ": 14927,
  "ㅈㅣㄴㅡㄴ</w>": 851,
  "ㅗㄹㅡㄹ</w>": 8132,
  "ㄱㅘㅈㅓㅇㄱㅘ</w>": 14599,
  "ㄱㅓㄹㅣㄱㅏ</w>": 7373,
  "ㅍㅓ": 932,
  "ㅂㅣㅁㅣㄹㅂㅓㄴㅎㅗㄹㅡㄹ</w>": 9542,
  "ㄹㅣㅊㅣㅍㅡㄹㄹㅓㅅㅡ</w>": 8300,
  "ㅡㄹㅓ": 6225,
  "ㅅㅣㄹㅎㅐㅇ</w>": 6849,
  "ㅋㅡㄹㅣㅇㅔㅇㅣ": 4440,
  "ㄱㅘㄴㅇㅡㄹㅗ</w>": 12558,
  "ㄷㅏㄴㅣㅁㅕ</w>": 15989,
  "ㅎㅗㄴㅈㅏ</w>": 3500,
  "ㅅㅓㅇㅜㄹ</w>": 1713,
  "ㄴㅡㅇㄹㅕㄱ": 3708,
  "ㄴㅐㅇㅣㄹ</w>": 7938,
  "ㅇㅣㄹㅐ": 10873,
  "ㅎㅣㄴㅡㄴ</w>": 5236,
  "ㅅㅗㅂㅣ": 1862,
  ".]</w>": 11724,
  "ㅈㅣㅁㅏㄴ</w>": 505,
  "ㅁㅏㅇㅣㅋㅡㄹㅗ</w>": 13626,
  "ㅈㅓㄱㅇㅡㄹㅗ</w>": 632,
  "ㅁㅣ": 323,
  "ㄱㅔㅇㅣㅁㅇㅡㄴ</w>": 10951,
  "ㄱㅜㅊㅓㅇ": 11778,
  "ㅂㅜㅇ": 6396,
  "ㄹㅣㄴㅣ</w>": 14338,
  "ㅇㅣㅎㅐ</w>": 4168,
  "ㄷㅗㄷㅓㄱ": 7871,
  "ㅈㅜㅁㅓㄱ": 14179,
  "ㅁㅏㅇㅡㄹ": 3447,
  "ㅈㅏㅊㅔ": 1997,
  "ㄱㅏㅇㅑ</w>": 4495,
  ":</w>": 253,
  "ㄱㅜㅇㄱㅡㅁ": 2103,
  "ㅈㅡㄹㄱㅣㄴㅡㄴ</w>": 7374,
  "ㅂㅏㅇㅊㅣㅁ": 10781,
  "IT</w>": 3828,
  "ㅊㅏㄹㅏㄹㅣ</w>": 10105,
  "ㅂㅗㄱㅡㅂ": 9353,
  "ㅈㅔㅅㅣ": 3143,
  "ㄷㅐㅊㅔ": 4530,
  "ㅌㅗㅇㅅㅏㄴ</w>": 11968,
  "ㅅㅜㅈㅣ</w>": 13203,
  "ㅅㅏㅇㅛㅇㅎㅏㄱㅣ</w>": 7997,
  "Y": 50,
  "ㅌㅏㄱㅔ": 15191,
  "ㅇㅓㄹㅕㅇㅜ": 3891,
  "ㅈㅣㅂㅜㄹ</w>": 13747,
  "ㅈㅗㅎㅈㅣ</w>": 5338,
  "ㅎㅐㄱ": 1712,
  "ㅇㅕㄴㄱㅜㅅㅗ</w>": 6014,
  "ㅎㅘㅇㅣ": 3106,
  "ㄷㅐㅎㅏㄱㅅㅐㅇ</w>": 9002,
  "ㅂㅏㄹㅏㅁㅈㅣㄱㅎㅏㄴ</w>": 13561,
  "ㅋㅔ": 880,
  "ㅅㅗㅅㅡ": 13061,
  "ㅅㅜㅅㅣㄴ</w>": 15415,
  "ㅑㄱㅗ</w>": 6440,
  "ㅈㅝㅆㄷㅏ</w>": 8672,
  "ㅂㅓㄴㅇㅡㄴ</w>": 12804,
  "ㅅㅣㄹㅂㅓ</w>": 14973,
  "ㅈㅏㅇㄱㅣ</w>": 9508,
  "ㅈㅜㅇㄱㅖ</w>": 5284,
  "ㅈㅗㅈㅣㄱ</w>": 5656,
  "ㅇㅣㅇㅓㅆㄷㅓㄴ</w>": 5388,
  "ㅇㅕㄴㅁㅐㅇ</w>": 9957,
  "ㅇㅣㄹㅁㅏㄴ</w>": 16344,
  "sub": 16049,
  "ㄱㅣㅈㅗㄴ</w>": 3082,
  "ㅅㅡㅋㅗ</w>": 6847,
  "ㄹㅔㅇㅣ": 1067,
  "ㅁㅣㄴㄱㅏㄴ</w>": 15896,
  "ㄱㅏㅂㄴㅣㄷㅏ</w>": 2622,
  "ㅋㅐㅂ": 5243,
  "ㅈㅔㄱ": 1917,
  "ㄷㅙㅇㅛ</w>": 13543,
  "ㅊㅜㅎㅜ</w>": 14452,
  "ㅂㅗㄱㄱㅜ</w>": 8647,
  "ㅅㅣㅁ</w>": 1492,
  "ㅈㅏㅅㅣㄴㅇㅣ</w>": 2578,
  "ㅈㅔㄷㅗ": 8844,
  "ㅅㅏㅅㅣㄹㅇㅣ</w>": 8202,
  "ㅁㅏㅇㅣ": 2155,
  "ㄱㅣㄱㅘㄴㅇㅣ</w>": 13942,
  "ized</w>": 16148,
  "ㅇㅣㄷㅏㄹ</w>": 16065,
  "ㅅㅏㅇㅍㅜㅁㄱㅝㄴ</w>": 16081,
  "ㄱㅘㄹ": 8686,
  "ㅇㅜㅅ": 1911,
  "ㅂㅏㄹㅡㅅㅔㄹㄹㅗ": 10876,
  "ㅈㅣㄴㅇㅢ</w>": 7766,
  "ㅊㅔㄱㅏ</w>": 4913,
  "ㅂㅏㄴㅈㅣ</w>": 15276,
  "ㅎㅓㅇㅛㅇ</w>": 14448,
  "ㅁㅜㄱㅅㅣㅈㅓㄱ</w>": 13210,
  "ㅋㅏㅁㅔㄹㅏㅇ": 16187,
  "ㅂㅓㅂㅁㅜ": 11607,
  "ㅇㅕㄱㅅㅏㅅㅏㅇ</w>": 12651,
  "ㄴㅏㄹㅇㅡㄴ</w>": 5647,
  "ㅊㅓㅇㅡㅁ</w>": 2172,
  "ㅎㅓ": 677,
  "ㅇㅏㄴㅣㅇㅓㅆ": 11092,
  "ㅇㅣㄴㅇㅛㅇ</w>": 15298,
  "ㅅㅡㅍㅔㅅㅕㄹ": 14859,
  "ㅈㅓㅎㅏㅇ": 8193,
  "ㅆㅣㄱ</w>": 2084,
  "Ge": 5168,
  "ㄹㅏㅇㅣㄴ</w>": 5384,
  "ㅌㅐㅇㅓㄴㅏㄴ</w>": 10295,
  "ㅊㅣ": 365,
  "ㄴㅏㅁㅇㅑㅇ": 15255,
  "ㅔㅇㅛ</w>": 2018,
  "ㅇㅠㄹㅓ": 2141,
  "ㅇㅣㅇㅛㅇㅈㅏ</w>": 7817,
  "ㄱㅡㄱㅏㄴ</w>": 14085,
  "ㄴㅏㅁㅕㄴㅅㅓ</w>": 13825,
  "ㄱㅓㅅㅇㅔ</w>": 2654,
  "ㅈㅓㄴㅎㅐㅆㄷㅏ</w>": 5636,
  "TAG</w>": 4027,
  "ㅈㅗㅇㄹㅠㄱㅏ</w>": 15534,
  "ㅈㅏㅈㅓㄴㄱㅓ</w>": 5655,
  "ㅌㅡㅇㅘ</w>": 6403,
  "ㄴㅡㄴㄱㅓ</w>": 12408,
  "han": 9674,
  "ㅂㅗㅁㅕㄴ</w>": 1201,
  "ㅂㅏㄹㄱㅡㅂ": 8417,
  "ㄱㅏㅅㅏㄴ": 15095,
  "ㄴㅐㅇㅛㅇㅇㅡㄹㅗ</w>": 15755,
  "ㅁㅏㄹㅎㅏㄱㅗ</w>": 7768,
  "ㄲㅜㅁㄲㅜㄴㅡㄴ</w>": 12797,
  "ㅅㅗㅅㅣ": 15551,
  "ㅕㅇ": 306,
  "ㅈㅜㅇㅅㅣㅁㅇㅢ</w>": 9946,
  "ㅅㅏㅇㅣㄴ</w>": 11288,
  "ㅇㅣㄺㅇㅡㄹ</w>": 9236,
  "ㄹㅣㄴㅜ": 9724,
  "ㅍㅏㅇㅝ": 4406,
  "ㅈㅓㅇㅎㅘㄱㅎㅏㄴ</w>": 4978,
  "ㄱㅓㅁㅈㅓㅇ": 13286,
  "ㅇㅕㅂ</w>": 15683,
  "ㅅㅡㅌㅡㄹㅐ": 11099,
  "ㄱㅡㄴㅁㅜ</w>": 11328,
  "ㅇㅏㅁㅣ": 15627,
  "ㅗㅇㅘ</w>": 12958,
  "ㅌㅏㄹㅡㄹ</w>": 6220,
  "KR": 11034,
  "ㄷㅐㄷㅏㅂ": 5786,
  "ㅈㅓㄴㄹㅑㄱㅈㅓㄱ</w>": 14308,
  "ㅇㅣㅇㅛㅇㅎㅏㅁㅕㄴ</w>": 13009,
  "ㅈㅡㄹㅗ</w>": 14291,
  "ㅈㅜㅇㄱㅜㄱ</w>": 1850,
  "ㅅㅔㅇㅝㄹㅎㅗ</w>": 9254,
  "ㅕㅇㅛ</w>": 5714,
  "Serv": 4840,
  "ㅍㅏㅋㅡ</w>": 6116,
  "ㅊㅚㄱㅗㅇㅢ</w>": 2312,
  "ㄱㅣㄹㅗㄱㅎㅏㄱㅗ</w>": 14970,
  "ㅈㅏㄴㅈㅏㄴ": 16328,
  "ㅌㅗㅇㅛ": 5326,
  "ㅈㅓㄱㄹㅣㅂ</w>": 15086,
  "14ㅍㅔㅇㅣㅈㅣ</w>": 10669,
  "MC": 9375,
  "ㅈㅓㄴㅂㅏㄴㅇㅔ</w>": 16201,
  "ㅇㅏㄱㅣ</w>": 3785,
  "ㅈㅏㄹㅏㅇㅎㅏㄴㅡㄴ</w>": 13682,
  "ㅇㅣㅂㅡㄹㅣ": 12902,
  "MB</w>": 7597,
  "ma</w>": 14275,
  "ㅇㅣㄴㄹㅠ": 5961,
  "ㅁㅔㅇㅣㅈㅓ</w>": 14761,
  "ㅁㅣㅇ</w>": 4245,
  "ㅅㅟㄴㅡㄴ</w>": 12821,
  "ㄴㅡㅈㅇㅡㄴ</w>": 10752,
  "ㅍㅏㄴㅁㅐ</w>": 3205,
  "ㄴㅣㅁㅔㅇㅣ": 5328,
  "ㅂㅗㅅㅜ</w>": 8291,
  "ㄴㅐㄴ</w>": 3920,
  "ㅇㅡㅁ</w>": 713,
  "ㅈㅣㄱㅁㅜ": 7906,
  "ㄱㅕㄹㅈㅓㅇ": 1839,
  "ㅐㄴ": 1082,
  "ㅂㅐㄷㅏㅇ</w>": 12069,
  "ㄸㅗ": 616,
  "ㅊㅜㄱㅏ": 1786,
  "ㅎㅜㅂㅗ": 4227,
  "ㅇㅓㅄㅈㅣㅁㅏㄴ</w>": 5280,
  "ㅁㅐㅂ": 12722,
  "ㄴㅕ": 1039,
  "ㄹㅗㄹ": 2391,
  "ㅂㅗㅇㅕㅆㄷㅏ</w>": 5374,
  "ㅁㅜㄴㅎㅏㄱ</w>": 3977,
  "ㅂㅣㅇㅔㄴ": 14493,
  "ㅎㅐㅂㅗㄴ</w>": 12122,
  "ㄷㅐㅎㅐㅅㅓㄷㅗ</w>": 9387,
  "ㅅㅣㅇㅝㄴ": 5362,
  "ㅈㅜㄴㅡㄴ</w>": 1322,
  "ㅂㅣㄹㅗㄱ</w>": 6964,
  "ㅅㅏㅇㅅㅔ</w>": 13710,
  "ㅊㅓㄹㅡㄹ</w>": 5756,
  "000</w>": 7611,
  "ㄷㅓㅂㅜㄹㅇㅓ</w>": 4833,
  "ㅅㅜㄹㅗㄱ": 13268,
  "ㅎㅡㄱㅅㅐㄱ</w>": 14176,
  "can</w>": 10171,
  "ㅈㅏㄱㄱㅗㄱ": 13227,
  "ㅈㅣㅅㅏㅇ</w>": 12370,
  "eg": 5396,
  "ㅈㅏㄹㅗㅅㅓ</w>": 9484,
  "ㅎㅏㄷㅏㄱㅗ</w>": 2838,
  "ㅍㅗㅅㅡ</w>": 13205,
  "ㅂㅜㅈㅗㄱㅎㅏㄴ</w>": 6549,
  "ㅅㅏㅇㅛㅇㅎㅏㅇㅕ</w>": 3444,
  "ㅇㅏㄹㅐㅇㅔ</w>": 9397,
  "ㅅㅡㄹ</w>": 7125,
  "ㅇㅝㄴㅈㅏㄹ": 10443,
  "ㄱㅓㅇㅖㅇㅛ</w>": 5807,
  "ㅇㅏㄶㅇㅡㅁ</w>": 13329,
  "ㅈㅏㅇㅝㄴㅂㅗㅇㅅㅏ": 11260,
  "ㄷㅣ</w>": 1632,
  "ㅅㅏㅇㅛㅇㅎㅏㅈㅣ</w>": 7024,
  "ㅈㅓㄱㅣ</w>": 9853,
  "ㅅㅓㄴㅇㅔ</w>": 8676,
  "ㅂㅜㅌ": 1643,
  "ㅈㅓㄴㅕㄱ</w>": 4190,
  "ㅎㅘㄱㅈㅓㅇ": 7232,
  "ㅍㅕㄴㅈㅣㄹㅡㄹ</w>": 15564,
  "ㅁㅏㄹㅇㅡㄹ</w>": 2019,
  "ㄷㅡㄹㅓㄴ": 15049,
  "ㅙㄴ": 1932,
  "ㄷㅏㅇㅇㅡㄴ</w>": 7945,
  "ㄹㅣㄷㅓ</w>": 12919,
  "ㅂㅏㄷㅈㅣ</w>": 3864,
  "ㄷㅚㅇㅓㅆㄷㅓㄴ</w>": 8402,
  "ㄱㅕㄴ</w>": 3377,
  "ㅈㅓㄹㅡㄹ</w>": 4373,
  "ㅅㅣㅅㅡㅌㅔㅁㅇㅔ</w>": 10750,
  "2ㄱㅐ</w>": 4612,
  "ㅅㅡㄹㅓ": 2002,
  "ㅂㅜㅅㅏㄴ</w>": 4015,
  "ㅌㅣㄱ</w>": 8318,
  "ㅈㅣㄴㅏㄴㅎㅐ</w>": 3704,
  "ㄱㅜㄱㅁㅣㄴㅇㅢ": 15824,
  "ㄱㅜㅁㅐㄹㅡㄹ</w>": 15405,
  "ㅎㅏㅈㅣㄴㅡㄴ</w>": 6527,
  "Sun</w>": 15370,
  "ㅅㅡㄷㅗ</w>": 12085,
  "ㅇㅣㄹㅏㅅㅓ</w>": 9611,
  "ㅎㅐㅆㅇㅡㄹ</w>": 2808,
  "rib": 11357,
  "ㄷㅚㄴㄷㅏㄱㅗ</w>": 4598,
  "ㅂㅘㅆㅇㅡㄹ</w>": 14728,
  "ㅇㅣㄴㄷㅡㄹㅇㅢ</w>": 6826,
  "ㅊㅓㄹㅣㅇㅔ</w>": 13025,
  "ㅅㅜㅇㅝㄴ": 6600,
  "ㅍㅡㄹㅏㅇㅅㅡㅇㅢ</w>": 14555,
  "ㅅㅏㅇㅛㅇㅎㅏㅁㅕㄴ</w>": 6595,
  "ㅈㅜㅇㅂㅗㄱ": 12932,
  "ㅂㅜㅌㅓㅇㅢ</w>": 11335,
  "ㅅㅓㅂㅣㅅㅡㄷㅗ</w>": 13668,
  "ㅅㅔㄱㅖㅇㅔ</w>": 9634,
  "ㄹㅗㅅㄷㅔ</w>": 10776,
  "ㅈㅏㅇㅇㅡㄴ</w>": 1924,
  "di": 2190,
  "ㅋㅡㄹㅗㅁ</w>": 12151,
  "ㅇㅕㄹㅓㅂㅜㄴ</w>": 6227,
  "ㄷㅓㅇㅜㄱ</w>": 1769,
  "()</w>": 7903,
  "ㅈㅣㅋ": 10393,
  "ㅅㅡㄹㅗ</w>": 2012,
  "ㄼㅇㅡㄴ</w>": 2424,
  "ㅂㅏㄹㅡㄴ": 11060,
  "ㅍㅏㄹㄹㅔ": 13005,
  "ㄱㅓㅇㅠ</w>": 5473,
  "ㄷㅏㄱㅏ": 8443,
  "ㅈㅜㅊㅚ": 10555,
  "ㄹㅕㄱ</w>": 1042,
  "ㅎㅘㄹㅗ</w>": 10191,
  "ㄹㅑ": 1308,
  "ㅇㅕㅍ</w>": 11762,
  "ET": 13885,
  "ㅎㅗㅌㅔㄹㅇㅔㄴㅡㄴ</w>": 7665,
  "ㅊㅏㄹㅡㄹ</w>": 2715,
  "ㄹㅣㅂㅠㅇㅔ</w>": 14287,
  "ㄱㅖㅎㅚㄱ</w>": 3358,
  "ㄷㅡㄹㅗ</w>": 2671,
  "ㅁㅜㄴㅎㅓㄴ": 16181,
  "ㄸㅟㅇㅓ": 9075,
  "ㅁㅏㄴㄷㅡㄹㅇㅓㅆㄷㅏ</w>": 10361,
  "ㅅㅕㄴ": 975,
  "ㅁㅗㄷㅜㅇㅔㄱㅔ</w>": 14404,
  "17</w>": 3102,
  "ㅇㅝㄹㄱㅡㅂ": 14575,
  "ㅇㅓㄹㅕㅇㅜㄹ</w>": 9912,
  "ㅈㅏㄱㄱㅏㅇㅢ</w>": 12423,
  "ㅁㅣㄹㄹㅣㅁㅣㅌㅓㅇㅣㅎㅏ": 10190,
  "ㅇㅕㅇㅎㅘㅈㅔ</w>": 12868,
  "ㄱㅣㄷㅐㄹㅡㄹ</w>": 9620,
  "ㅇㅏㄷㅗㅇㅇㅢ</w>": 12387,
  "ㄱㅏㅈㅓㄴ": 16107,
  "ㅈㅜㅇㅢㄱㅏ</w>": 13002,
  "ㄱㅏㅈㅊㅜㄴ</w>": 6558,
  "ㄱㅝㄴㄹㅕㄱ": 12940,
  "Univers": 12858,
  "ㅅㅏㅇㅛㅇㅈㅏㅇㅔㄱㅔ</w>": 13355,
  "ㄷㅐㅊㅜㄹㅇㅡㄹ</w>": 15880,
  "ㅇㅣㄴㄱㅣ</w>": 3399,
  "ㄴㅗㄹㅐ": 3299,
  "ㄷㅏㄱㅏㅇ": 5218,
  "ㅂㅓㄴㅉㅐㄴㅡㄴ</w>": 12261,
  "ㅁㅜㄴㅎㅘ</w>": 2288,
  "ㅂㅗㄱㅈㅏㅂㅎㅏㄴ</w>": 8441,
  "Book</w>": 10801,
  "ㅍㅕㄴㅈㅣㅂ</w>": 2951,
  "ㅈㅏㄷㅗㅇ": 1219,
  "ㄷㅗㅇㅇㅝㄴ": 10258,
  "ㅅㅐㅇㄱㅏㄱㅎㅏㄹ</w>": 9029,
  "ㅅㅔㄱㅖㄹㅡㄹ</w>": 7648,
  "ㅈㅏㅇㅇㅣㄴ</w>": 15018,
  "ㅍㅗㅇ": 3675,
  "ㅇㅕㅇㅇㅝㄴㅎㅏㄴ</w>": 10696,
  "ㅄ": 102,
  "ㅇㅕㄹㅁㅐ": 16159,
  "ㄷㅚㄴㅡㄴㄷㅔ</w>": 4732,
  "1ㄴㅕㄴ</w>": 2173,
  "ㅆㅣㅂ": 15423,
  "ㅇㅕㄱ</w>": 930,
  "ㅊㅜㄹㅈㅓㄴ": 10484,
  "ㄱㅕㅇㄱㅣ": 1676,
  "ect": 7704,
  "ㄱㅘㅇㅈㅜ": 6341,
  "ㅋㅓㄴㅌㅔㄴ": 3774,
  "ㅂㅏㄱㅁㅜㄹ": 3823,
  "Mus": 9838,
  "fe": 9358,
  "ㅎㅕㅁㅇㅢㄹㅗ</w>": 11075,
  "ㄱㅏㄴ</w>": 543,
  "ㄴㅏㄱㅏ</w>": 9372,
  "ㄷㅐㄱㅣㅇㅓㅂ</w>": 13972,
  "ㅍㅣㄹㅅㅜ</w>": 5050,
  "ㅇㅣㅆㅅㅡㅂㄴㅣㄲㅏ</w>": 7760,
  "ㅌㅗㄹ": 1706,
  "ㅁㅏㅋㅔㅌㅣㅇ</w>": 2552,
  "ㄱㅗㄱㅐㄱㅇㅡㄹ</w>": 12857,
  "ㄹㅠ": 751,
  "ㅎㅏㅇㅁㅜㄴ</w>": 5832,
  "ㄱㅡㄷㅗㅇㅇㅏㄴ</w>": 4000,
  "od</w>": 7780,
  "ㅊㅟㅈㅐ": 10151,
  "ㅇㅝㄴㅇㅡㄹㅗ</w>": 5136,
  "ㅇㅏㅇㅣㄷㅡㄹㅇㅢ</w>": 10230,
  "ㄴㅏㄹㅡㅁ": 8218,
  "ㄷㅗㅇㅇㅔ</w>": 10885,
  "ㅁㅏㅈㅇㅣ": 6715,
  "ㄷㅣㅈㅏㅇㅣㄴ": 2425,
  "ㅎㅕㅂㄹㅕㄱ</w>": 8501,
  "ㅇㅜㅈㅜ": 6880,
  "ㅎㅗㅁㄹㅓㄴ": 5197,
  "ㅉㅗㄱㅇㅔ</w>": 4894,
  "ㅎㅓㄱㅏ": 12604,
  "ㅇㅕㅎㅐㅇㅈㅏ</w>": 14375,
  "ㅂㅜㄴ</w>": 858,
  "ff": 3416,
  "ㅇㅣㅂ": 460,
  "ㄱㅣㅇㅓㅂㄱㅘ</w>": 14051,
  "ㅁㅣㄴㄱㅏㅁ": 8969,
  "ㅇㅏㅇㅣ": 720,
  "ㅎㅏㄴㄷㅏㄱㅗ</w>": 1960,
  "ml</w>": 5072,
  "ㅎㅏㄴㅏㄴㅡㄴ</w>": 5945,
  "ㅂㅗㅇㅘㄴ": 9406,
  "ㅇㅡㅁㅇㅏㄱ</w>": 3665,
  "ㅍㅐㅌㅓㄴ": 6932,
  "ㅌㅡㄹㅣ": 1664,
  "ㅎㅓㄴ": 2010,
  "ㅇㅣㅅㅡㅇ": 7022,
  "ㅅㅏㅇㅛㅇㅈㅏㄴㅡㄴ</w>": 11008,
  "ㅇㅘㄴㅈㅓㄴ": 3836,
  "2015": 13732,
  "ㅂㅏㄴㅏㄴ": 14670,
  "ㄲㅏㅈㅣㄷㅗ</w>": 6868,
  "ㅌㅏㅁ": 2368,
  "ㄱㅏㅅㅓ</w>": 2437,
  "ㅎㅗㅇㅋㅗㅇ</w>": 8593,
  "ㅁㅗㄷㅜㄱㅏ</w>": 4823,
  "ㄱㅡㄴㅊㅓ</w>": 7346,
  "ㅅㅣㄱㅇㅡㄹㅗ</w>": 3194,
  "ㅉ": 107,
  "ㅁㅜㄹㄹㅗㄴ</w>": 1442,
  "ㅅㅡㅋㅗㅇㅓ</w>": 7032,
  "ㅇㅓㅂㅘ": 11686,
  "ㅂㅗㅇㅠ</w>": 3908,
  "ㅋㅡㄹㄹㅗㅈㅡ": 15591,
  "C</w>": 213,
  "ㅈㅏㅇㅇㅔ</w>": 2739,
  "ㄱㅏㄴㅎㅗㅅㅏ</w>": 12424,
  "39": 6568,
  "ㅈㅓㅇㄱㅣ": 5196,
  "ㄷㅡㄹㅣㄹ": 9292,
  "ㄷㅏㄷㅡㅁ": 14256,
  "ㅇㅓㅂㄱㅖ": 6738,
  "ㄱㅜㅅㅗㄱ": 8181,
  "ㅇㅕㄹㅡㅁ": 3870,
  "ㄿ</w>": 261,
  "ㅇㅟㅈㅜㄹㅗ</w>": 11953,
  "3D": 8944,
  "ㄷㅡㅇㅇㅢ</w>": 1352,
  "ㄹㅔㅅㅣㅍㅣ</w>": 16080,
  "ㅎㅗㅇㅋㅗㅇ": 9510,
  "ㅅㅣㄱㄷㅏㅇ": 5787,
  "web": 13785,
  "ㅌㅗㅇㅈㅔ": 7703,
  "ㅂㅜㅁㅗㄱㅏ</w>": 12206,
  "ㅇㅕㄴㄹㅛ": 15331,
  "ㄹㅣㅂㅠ": 4040,
  "ㄱㅕㅇㅑ</w>": 14534,
  "ㅅㅏㄹㅏㅇ</w>": 3152,
  "ㄱㅘ</w>": 370,
  "ㅁㅏㅅㅡㅌㅓ": 9249,
  "ㅋㅡㄹㅣㅅㅡ</w>": 15338,
  "ㅇㅝㄴㅇㅣㄴㅇㅡㄴ</w>": 14360,
  "ㅊㅜㄹㅅㅣㄴ": 8994,
  "ㅇㅢㄹㅡㄹ</w>": 2108,
  "ㅈㅜㅇㅢ": 1409,
  "ㅎㅟ": 2065,
  "5km</w>": 12739,
  "ㅌㅏㅇㅣㄴ</w>": 15624,
  "ㅈㅏㄷㅡㄹㅇㅣ</w>": 2274,
  "ㅅㅣㄴㅁㅜㄴ": 4453,
  "ㅅㅏㄹㅏㅁ</w>": 1502,
  "ㄲㅡㅁ": 3796,
  "milf</w>": 9247,
  "ㅊㅐㄱㅅㅏㅇ</w>": 11631,
  "ㅎㅏㅇㄱㅗㅇ": 1825,
  "information</w>": 10820,
  "ㅁㅏㅇㅜㄴ": 7678,
  "ㄱㅏㄱㅕㄱㅇㅡㄴ</w>": 7285,
  "ㅇㅡㄴㅎㅐㅇㅇㅢ</w>": 14490,
  "ets</w>": 8625,
  "ㅌㅗㅇㅛㅇㅣㄹ</w>": 9419,
  "ㅈㅓㅂㅇㅓ": 14479,
  "ㅌㅡㄹㅜ": 9928,
  "MLB</w>": 16057,
  "ㄴㅜㄹㄹㅓ": 9465,
  "ㄱㅓㄷㅡㄴㅇㅛ</w>": 3994,
  "ㄱㅡㄹㅏㅇㅜㄴㄷㅡ</w>": 15742,
  "Tuber</w>": 14730,
  "ㅆㅏㄹ": 6126,
  "ㄷㅡㅇㅢ</w>": 2562,
  "ㅈㅓㄴㅎㅐ": 8512,
  "ㅈㅓㅈㅣㄹ": 10336,
  "ㅌㅗㅇㅇㅣ</w>": 15015,
  "ㅅㅏㅇㅇㅕㅇ": 15068,
  "ㄱㅗㄹㅇㅡㄹ</w>": 11206,
  "ㅈㅜㅇㅣㄴㅇㅣ</w>": 15845,
  "ㄱㅕㄹㅈㅔㅇㅘㄴㄹㅛ</w>": 10838,
  "ㄱㅕㅂ": 7395,
  "ㄹㅓㅂㅡ</w>": 15743,
  "ㅅㅓㄴㅌㅐㄱ": 1126,
  "ㅎㅖㅌㅐㄱㅇㅡㄹ</w>": 6952,
  "ㄴㅏㅇㅘ": 2237,
  "ㅇㅓㄴㅏ</w>": 4793,
  "ㅅㅣㄹㅊㅓㄴ</w>": 14089,
  "ㅇㅛㅇㅇㅣ": 13801,
  "ㄱㅐㅎㅕㄱ</w>": 9918,
  "48": 5481,
  "ㄷㅡㄹㅇㅣㅂㄴㅣㄷㅏ</w>": 2944,
  "ㅎㅏㄱㅜㅇㅛ</w>": 15877,
  "6ㅍㅔㅇㅣㅈㅣ</w>": 4902,
  "ㅆㄱㅣ</w>": 9206,
  "ㄱㅗㅇㄱㅡㅂ</w>": 7448,
  "ㅇㅣㅎㅏㅇㅣㄴ</w>": 16224,
  "ian</w>": 9431,
  "ㅈㅔㅎㅏㄴ</w>": 4171,
  "ㄷㅙㅇㅑ</w>": 12040,
  "ㅎㅏㄹㅇㅣㄴ</w>": 4486,
  "ㅈㅜㅇㄱㅜㄱㅇㅢ</w>": 5896,
  "ㅅㅣㅀㅇㅓ": 7914,
  "ㄹㅗㅅㅡ</w>": 14313,
  "ㅇㅕㄱㅣㅈㅓㄱㅣ</w>": 16282,
  "ㅅㅕㅊㅡ</w>": 5808,
  "ㅁㅏㅊㅣㄴ</w>": 11470,
  "ㄷㅐㅎㅏㄴ</w>": 602,
  "ap</w>": 13473,
  "ㅅㅣㄱㅗㅇ": 11594,
  "Acc": 13490,
  "ㅅㅐㄴㅜㄹㅣ": 12186,
  "ㄱㅓㄴㄱㅏ</w>": 12635,
  "ㅎㅚㅈㅏㅇ</w>": 3551,
  "98": 12199,
  "Pi": 13291,
  "with</w>": 6739,
  "ㄱㅘㄴ</w>": 922,
  "ㅇㅔㄷㅣ": 7626,
  "ㄴㅏㅇㅔㄱㅔ</w>": 5347,
  "ㄹㅗㄷㅗ</w>": 7664,
  "ob": 3335,
  "ㅁㅣㅅㅔ": 6462,
  "ㄷㅣㅂㅏㅇㅣㅅㅡ</w>": 15646,
  "ㄹㅜㅁ": 6524,
  "ㄷㅏㄴㅇㅓ": 11895,
  "ㅇㅣㄴㅌㅓㄴ": 1009,
  "ㅇㅓㅂㄷㅔㅇㅣㅌㅡㄹㅡㄹ</w>": 9184,
  "ㅊㅏㅈㅇㅏㅅㅓ</w>": 11952,
  "ㅈㅣㅇㅣㄴ</w>": 12823,
  "ㅅㅣㅋㅕㅆㄷㅏ</w>": 10217,
  "id": 3489,
  "ㅊㅟㄷㅡㄱ": 7157,
  "ㄷㅗㄱㅣ</w>": 13225,
  "ㅈㅔㅈㅜ</w>": 5709,
  "ㅅㅡㅅㅡㄹㅗ</w>": 3149,
  "ㅎㅏㅇㄱㅗㅇㄱㅝㄴㅇㅡㄹ</w>": 15243,
  "ㅅㅜㄹㅇㅡㄹ</w>": 5953,
  "ㅇㅏㄶ": 439,
  "ㅇㅣㅎㅐㅎㅏㄴㅡㄴ</w>": 13263,
  "ㄴㅡㄲㅣㄴㅡㄴ</w>": 7417,
  "ㅇㅣㄱ</w>": 4625,
  "ㄱㅔㅇㅣㅁㅇㅢ</w>": 9657,
  "ㄱㅡㅇㅔㄱㅔ</w>": 10411,
  "ㅇㅕㅇㅘㅇ</w>": 15571,
  "av": 2042,
  "ㅇㅏㅇㅣㅅㅡ": 15047,
  "ㅅㅏㅎㅚㅇㅘ</w>": 12950,
  "ㄱㅖㅅㅗㄱㅎㅐㅅㅓ</w>": 8096,
  "19": 845,
  "ㅅㅗㄱㅎㅏㄴㅡㄴ</w>": 15035,
  "ㅌㅗㄴ": 6482,
  "ㅈㅕ</w>": 1277,
  "ㅋㅐㄹㄹㅣ": 6605,
  "ㄱㅏㅈㅏㅇ": 9018,
  "ㅈㅠ": 8596,
  "2ㅇㅢ</w>": 12723,
  "ㅅㅏㅎㅏㅇㅇㅡㄹ</w>": 3907,
  "ㅎㅏㄴㄱㅜㄱㅇㅢ</w>": 3681,
  "ㄱㅕㄱ</w>": 1282,
  "ㄴㅡㄲㅣㅁ</w>": 7381,
  "ㅈㅓㄱㅈㅓㄹ": 3336,
  "ㅏㅇㅑ</w>": 6900,
  "ㅇㅠㅈㅣ</w>": 5177,
  "ㅇㅗㅇㅕㅁ": 10888,
  "ㅎㅔㄷㅡ": 8544,
  "ㅌㅜㅍㅛ": 6770,
  "ㅅㅔㅌㅏㄱ</w>": 10024,
  "ㄷㅓㄹㅏㄷㅗ</w>": 2298,
  "ㅇㅕㄴㅅㅡㅂㅇㅡㄹ</w>": 16033,
  "ㅊㅜㅇ</w>": 5809,
  "ㅇㅘㅇㅣㅍㅏㅇㅣ</w>": 12720,
  "tal": 12005,
  "ㄱㅘㅇㅣㄹ</w>": 13722,
  "ㄱㅜㄱㄱㅏㅇㅢ</w>": 7973,
  "at": 785,
  "ㅊㅏㅁㄱㅗ": 2089,
  "ㅈㅓㅇㅅㅏㅇ</w>": 8485,
  "ㅎㅏㄹㅜㅇㅔ</w>": 9085,
  "21</w>": 3617,
  "ㅊㅜㄱㅇㅡㄹ</w>": 9128,
  "ㅇㅣㅇㅛㅇㅅㅣㅇㅔㄴㅡㄴ</w>": 3376,
  "app": 10515,
  "ㅂㅏㅇ</w>": 1134,
  "ㅂㅏㅇㅅㅣㄱㅇㅢ</w>": 11059,
  "DC</w>": 11730,
  "ㅅㅜㅇㅔ</w>": 6064,
  "ㅅㅏㅇㅎㅘㅇㅇㅡㄴ</w>": 12927,
  "ㅍㅓㅍㅗ": 11492,
  "ㄷㅚㅇㅓㅆ": 909,
  "ㅎㅘㄹ</w>": 2501,
  "ㅅㅜㄹㅣ</w>": 9346,
  "CH": 7868,
  "ㄱㅘㄴㅅㅣㅁㄱㅘ</w>": 11659,
  "ㅇㅕㅅㅓ</w>": 6993,
  "ㅎㅏㄴㅈㅓㅇ": 6033,
  "ㄱㅓㅅㅣㄹ</w>": 13477,
  "ㅁㅗㄹㅇㅣㅂ": 15489,
  "ㄱㅕㅇㅂㅜㄱ": 9098,
  "ㅅㅏㅅㅣㄹ</w>": 1843,
  "88": 7343,
  "ㄷㅗㅇ</w>": 753,
  "ㅈㅣㄱㅗ</w>": 1593,
  "ㄱㅘㄴㄱㅖㅇㅓㅄㅇㅣ</w>": 14847,
  "ㅈㅓㄴㅇㅛㅇ</w>": 4812,
  "ㅇㅣㅈㅣㅇㅛ</w>": 9266,
  "ㅃㅣ": 10247,
  "illa</w>": 12492,
  "ㄱㅓㄹㅣㅇㅔㄴㅡㄴ</w>": 14811,
  "ㅌㅠ": 2702,
  "ㄴㅔㅇㅣ": 1655,
  "ㅅㅏㅇㅈㅏㅇ": 12077,
  "ㅇㅢㄹㅠ</w>": 12712,
  "ㅅㅣㅅㅗㄱ</w>": 7520,
  "ㅊㅣㄴㄷㅏ</w>": 9937,
  "ㅌㅏㅇㅣㅁㅣ": 14881,
  "ㅅㅣㄴㄱㅗ</w>": 4731,
  "ㅇㅑㄱㅇㅣ</w>": 13918,
  "ㅅㅏㄱㅗㄹㅗ</w>": 12829,
  "ㄷㅐㅊㅐㄱ": 9779,
  "ㄱㅓㅁㅌㅗ</w>": 8013,
  "ㅍㅗㅌㅡㅍㅗㄹㄹㅣ": 15942,
  "mon": 5681,
  "ㄷㅚㅇㅓㅆㄱㅗ</w>": 4547,
  "IA": 10331,
  "ㅅㅐㅇㅅㅓㅇ": 4136,
  "ㄱㅓㅅㅇㅣㅇㅓㅆㄷㅏ</w>": 8452,
  "ㅇㅐㄱㅅㅔ": 5222,
  "ㅋㅔㅁㅣ": 15005,
  "ㅈㅣㄴㅇㅡㄹㅗ</w>": 14805,
  "ㅁㅗㄱㅈㅓㄱㅇㅡㄹㅗ</w>": 4846,
  "ㅅㅣㄷㅐ</w>": 3236,
  "ㄱㅘㅇㄱㅗㄱㅏ</w>": 15116,
  "ㅈㅣㅂㅐ": 5015,
  "ㅎㅏㄴㅣㄲㅏ</w>": 8649,
  "ㄷㅏㅅㅗ</w>": 5857,
  "ㅌㅗㄹㅣ": 11497,
  "ㅋㅣㄴ": 6103,
  "ㅈㅜㄹㅠ": 13122,
  "ㄴㅗㄹㄹㅏ": 4619,
  "ㅕ": 119,
  "ㅎㅣㅁㅇㅣ</w>": 5357,
  "ㄹㅗㅂㅜㅌㅓ</w>": 2931,
  "Ro": 8678,
  "ish": 13656,
  "to": 11391,
  "ㄷㅐㅎㅚㄹㅡㄹ</w>": 12546,
  "ㅈㅓㅇㄹㅠ": 15034,
  "ㅇㅠㄹㅗ</w>": 8375,
  "ㅁㅔㅁㅗㄹㅣ</w>": 6619,
  "ㅋㅣㅇㅢ</w>": 11312,
  "ㅁㅏㅇㅣㅋㅡㄹㅗ": 7064,
  "ㅈㅡㅁ</w>": 2070,
  "ㅇㅕㅇㅇㅣ</w>": 10868,
  "gr": 7851,
  "ㄷㅡㄹㅇㅔ</w>": 2612,
  "ㅋㅏㅇ": 1552,
  "ㅈㅏㅈㅜ": 9602,
  "ㅋㅓㅁㅠㄴㅣㅌㅣ": 8279,
  "ㅁㅜㄴㅡㄴ</w>": 11912,
  "ㅈㅓㅈㅏ</w>": 11035,
  "ㅇㅣㅂㅡㄹ": 8335,
  "ㅅㅜㄴㅏㅂ": 15597,
  "ㄴㅇㅡㄹ</w>": 1202,
  "ㄱㅡㅂㅅㅗㄱ": 10072,
  "ㅁㅣㅇ": 6787,
  "ㅍㅏ</w>": 1812,
  "ㅈㅗㅇㅛㅇㅎㅣ</w>": 11992,
  "ㅂㅓㄴㅉㅐ</w>": 1477,
  "ㅅㅔㄱㅖㄱㅏ</w>": 15446,
  "ㄷㅏㄴㅇㅓㄹㅡㄹ</w>": 13816,
  "ㅈㅓㄱㄷㅗ</w>": 10727,
  "ㄷㅗㅇㄴㅏㅁ": 14132,
  "ㅇㅣㅁㅣㅈㅣ</w>": 3017,
  "ㅉㅗㄱㅇㅡㄹㅗ</w>": 3983,
  "180": 10155,
  "Gro": 13357,
  "ㅇㅕㄴㄱㅏㄴ</w>": 9707,
  "ㅎㅢㅁㅏㅇ": 3105,
  "ㅊㅡ</w>": 1162,
  "ㅁㅣㄹㄹㅣ</w>": 13375,
  "ㅌㅣㅁㅇㅡㄴ</w>": 6563,
  "ㄹㅔㅇㅏㄹ</w>": 12776,
  "ㅈㅔㅈㅏㄱ</w>": 3739,
  "tit": 9255,
  "ㅁㅗㅅㅡㅂㅇㅡㄹㅗ</w>": 10298,
  "ㅎㅘㄹㅇㅛㅇㅎㅏㄴ</w>": 10070,
  "ㅈㅏㅁㅅㅣㅁㅏㄴ</w>": 16151,
  "ㅎㅏㅇㅜㅅㅡ</w>": 4940,
  "ㅇㅏㅅㅣㅇㅏ</w>": 2813,
  "ㅅㅔㅁㅣ": 12768,
  "ㅇㅣㅈㅣ": 9178,
  "ㅁㅏㄴㄷㅡㄹㅇㅓㅈㅣㄴ</w>": 7412,
  "ㅈㅓㅇㅂㅜㄱㅏ</w>": 5355,
  "Bl": 7196,
  "ㅅㅣㅍㅇㅡㄴ": 11894,
  "ㅂㅏㄹㄹㅏ": 14654,
  "ㅂㅏㄹㅡㄱㅔ</w>": 9629,
  "ss": 13570,
  "ㅇㅣㅂㅔㄴㅌㅡ</w>": 2198,
  "ㄱㅜㅇㅔ</w>": 7264,
  "coun": 16142,
  "ark</w>": 12817,
  "In": 2174,
  "3ㅍㅔㅇㅣㅈㅣ</w>": 4221,
  "ㄱㅓㄴㅏ</w>": 885,
  "ㄷㅡㄹㅇㅓㄱㅏㄴ</w>": 10272,
  "ㅈㅓㄴㅈㅏㅅㅏㅇ": 9275,
  "p": 70,
  "07</w>": 3538,
  "ㅇㅣㅍ": 7188,
  "ㅎㅐㅅㅜㅇㅛㄱ": 11966,
  "ㅅㅏㅇㅓㅂㅇㅡㄴ</w>": 13789,
  "ㅈㅣㄱㅏ</w>": 1727,
  "ㅁㅕㅊ": 2199,
  "ㄱㅏㄴㄷㅏ</w>": 3986,
  "ㅇㅕㅇㅇㅓ</w>": 2610,
  "ㅅㅓㅇㄱㅘ": 4371,
  "ㄱㅓㅅㅇㅣㅈㅣㅇㅛ</w>": 15010,
  "ㄴㅔㅅㅇㅢ</w>": 4369,
  "ㅇㅓㄱㅇㅡㄹ</w>": 8334,
  "ㄹㅔㅍㅗㅌㅡ</w>": 5831,
  "ㅇㅓㅇㄷㅓ": 2579,
  "ㄱㅗㅅㅇㅡㄹ</w>": 4622,
  "ㅇㅣㄴㅇㅢ</w>": 1539,
  "ㅁㅏㅋㅔㅅ": 14091,
  "ㅁㅜㄴㅎㅘㅇㅔ</w>": 14644,
  "ㅎㅗㄴㅎㅏㅂ</w>": 11560,
  "ㄴㅏㅎ": 6552,
  "ㄱㅛ": 428,
  "ㄱㅣㅍㄱㅔ</w>": 13196,
  "5000": 11431,
  "ㅇㅏㄴㅏ</w>": 15660,
  "ㅇㅓㄴㅓㅎ": 13488,
  "ook</w>": 4639,
  "Brav": 13959,
  "Vol</w>": 13148,
  "ㅇㅣㅌㅏㄹㄹㅣㅇㅏㅇㅓ</w>": 14603,
  "ㅝㅆㄷㅏ</w>": 9826,
  "ㅎㅏㅅㅣㅁㅕㄴ</w>": 2781,
  "ㅅㅡㄹㅍㅡ": 9527,
  "ㄸㅏㄹㅇㅣ</w>": 12143,
  "ㄱㅏㄴㅡㅇㅎㅏㄱㅔ</w>": 12087,
  "ㅅㅔㄱㅏ</w>": 5976,
  "ㅂㅗㄴㅇㅣㄴㅇㅣ</w>": 7315,
  "ㅃㅏㄹㄹㅏ": 15135,
  "ㅇㅓㄷㅇㅓ": 11693,
  "ㅈㅜㄱㅗ</w>": 2225,
  "f": 60,
  "ㅇㅟㅇㅝㄴㅈㅏㅇ</w>": 7327,
  "ㄱㅚㅇㅈㅏㅇ": 3938,
  "ㅂㅜㄷㅗㅇㅅㅏㄴ</w>": 4704,
  "ㅂㅏㄲㅏㅌ": 13577,
  "ㅈㅡㄹㄱㅣㄱㅗ</w>": 15456,
  "ㅈㅏㄹㅂㅗㄱㅗ</w>": 4844,
  "ㅍㅏㄹㅣ</w>": 7215,
  "ㅋㅏㄴㅣ": 10919,
  "ㄸㅐㅂㅜㅌㅓ</w>": 6042,
  "ㅎㅏㄹㅡㄹ</w>": 16040,
  "ㄱㅡㄹㅓㄴㅈㅣ</w>": 8569,
  "ㅂㅜㄹㅓ": 10088,
  "ㅊㅏㅁ": 698,
  "ㅂㅗㄱㅘㄴ</w>": 11899,
  "ㅁㅏㅋㅏㅇ": 13017,
  "ㅂㅏㅃㅡㄴ</w>": 11046,
  "ㅇㅣㅈㅛ</w>": 2943,
  "ㅅㅣㅁㅕㄴㅅㅓ</w>": 13269,
  "ㅂㅜㄷㅡㄹㅓㅂ": 10282,
  "ㅊㅜㅊㅓㄴ": 1889,
  "72</w>": 14486,
  "ㅇㅑㅅㅐㅇ": 15608,
  "ㅈㅏㅇㅠ</w>": 6898,
  "Amazon</w>": 12434,
  "ㄹㅕㄱ": 689,
  "ㄱㅏㅁㅇㅕㅁ": 9226,
  "ㅈㅏㅇㅅㅣㄱ</w>": 11323,
  "ㅏㅁ": 482,
  "ㄱㅘㄴㄱㅖㅈㅏㄴㅡㄴ</w>": 5302,
  "ㅅㅔㄹ</w>": 6542,
  "ㅁㅣㅇㅣㄴ</w>": 12847,
  "le</w>": 1470,
  "ㄱㅓㄹㅏㄱㅗ</w>": 7979,
  "ㅇㅏㅇㅣㅌㅔㅁㅇㅡㄹ</w>": 14446,
  "ㅊㅓㄹㅎㅚ</w>": 15811,
  "ㅈㅓㄴㅇㅝㄴ</w>": 8971,
  "ㅅㅜㅈㅜㄴ": 2250,
  "ㅈㅔㄹ</w>": 7636,
  "ㅇㅜㄴㄷㅗㅇㅇㅡㄴ</w>": 15904,
  "ㅁㅜㄴㅅㅓ</w>": 5437,
  "ㅁㅗㅅㅎㅏㅁㅕㄴ</w>": 14318,
  "ㅇㅣㅈㅔ": 2348,
  "ㄱㅔㅆㅈㅣ</w>": 10101,
  "@": 25,
  "ㄱㅡ</w>": 504,
  "fuc": 5594,
  "ㅈㅏㅂㅈㅣ</w>": 8534,
  "ㅎㅔㄱ": 13984,
  "ㄸㅏㄹㅗ</w>": 3970,
  "ㄱㅡㄴㅏㄹ": 12380,
  "ㅎㅏㄱㅣㅇㅔ</w>": 5912,
  "ㅇㅏㅇㅜㅅ</w>": 5378,
  "ㄹㅣㅇㅓ": 10335,
  "ㅅㅓㄴㅌㅐㄱㅎㅏㄴㅡㄴ</w>": 12824,
  "ㅇㅕㅆㄱㅗ</w>": 11971,
  "yp": 5737,
  "ㅌㅐㄱ</w>": 1651,
  "ㅍㅣㄹㅇㅛㅎㅏㄴ</w>": 1517,
  "ㅅㅗㄱ</w>": 896,
  "ㅍㅣㅇㅏㄴㅗ</w>": 11687,
  "ㅎㅗㅌㅔㄹㅇㅡㄴ</w>": 5542,
  "ㅁㅗㅌㅓ": 10521,
  "ㅅㅓㅅㅣㄱ</w>": 14830,
  "ㅇㅗㅂㅅㅕㄴ</w>": 6257,
  "ㅊㅜㄴ": 2900,
  "ㅈㅏㅇㅠㄹㅗㅇㅜㄴ</w>": 12971,
  "ㄱㅓㄴㄱㅏㅇ</w>": 3958,
  "ㅅㅜㅇ": 7273,
  "ㄷㅐㅅㅏㅇㅇㅡㄹ</w>": 15422,
  "y</w>": 178,
  "ㄷㅏㄹㅏㄱㅗ</w>": 15127,
  "em": 1893,
  "ㅇㅙ": 5499,
  "P</w>": 211,
  "ㄴㅡㄲㅣㄹ</w>": 4641,
  "ㅁㅐㅁㅐ": 8561,
  "ale": 12402,
  "k": 65,
  "ㄱㅓㅅㅇㅣㄹㄲㅏ</w>": 9597,
  "ㅂㅗㄴㅇㅡㄹ</w>": 12599,
  "ㅊㅗㅊㅓㅇ": 9575,
  "ㅍㅜ": 442,
  "BO": 8834,
  "4ㅊㅡㅇ</w>": 12385,
  "ㅂㅡㄹㄹㅗㄱㅡ": 3847,
  "ㅂㅏㄹㄱㅕㄴ</w>": 7876,
  "ㄱㅘ": 333,
  "ㅁㅗㄱㅍㅛㄴㅡㄴ</w>": 12195,
  "ㅈㅜㅇㅇㅣ": 9569,
  "ㄱㅘㄴㄹㅣ": 1084,
  "ep</w>": 9034,
  "ㅁㅣㄴㅔ": 10131,
  "ㄱㅘㅇㄱㅗ</w>": 2726,
  "ㅇㅜㄴㄷㅗㅇ": 1680,
  "ㅇㅢㅁㅣ</w>": 5468,
  "ㅇㅔㅇㅓ": 3553,
  "ㅎㅗㄴㅈㅏㅅㅓ</w>": 12227,
  "ㅂㅏㅇㅢ</w>": 15357,
  "ㅋㅔㅅㅇㅡㄹ</w>": 12621,
  "ㄱㅓㄷ": 3528,
  "ㄷㅗㅇㅎㅑㅇ</w>": 6750,
  "52": 12388,
  "35</w>": 5924,
  "ㅇㅣㅅㅣ": 7799,
  "per": 4952,
  "ㅅㅏㅇㅅㅔ": 4518,
  "ㅂㅔㅅ": 10203,
  "ㅈㅓㄴㅅㅔ": 13207,
  "ㄹㅓㄴㄷㅓㄴ": 13441,
  "ㅇㅣㄱㅣㅇㅔ</w>": 9851,
  "ㅇㅣㅆㄴㅡㄴ</w>": 444,
  "ㅋㅓㄴㅂㅔㄴ": 14249,
  "ㅈㅏㅅㅣㄴㄷㅡㄹㅇㅢ</w>": 10845,
  "ㅇㅏㄴㄷㅚ": 8247,
  "ㅎㅏㄷㅡㅇㅞ": 7101,
  "ㅂㅗㄷㅏㄴ</w>": 13844,
  "In</w>": 9466,
  "ㅌㅔㄹㅏㅅㅡ</w>": 11898,
  "ㅆㅡㄴㄷㅏ</w>": 14350,
  "ㅈㅜㅁㅕ</w>": 13566,
  "ㅂㅓ": 339,
  "ㅁㅏㄴㄴㅏㄱㅗ</w>": 12482,
  "ㄱㅏㅇㅛ": 13149,
  "ㅌㅔㅅㅡㅌㅡㄹㅡㄹ</w>": 11354,
  "ㅇㅗㅎㅣㄹㅕ</w>": 2962,
  "ㅇㅣㄹㅇㅓㄴㅏ</w>": 11842,
  "ip</w>": 8068,
  "ㄱㅐㅇㅣㄴㅈㅓㅇㅂㅗㄹㅡㄹ</w>": 5182,
  "ㄱㅏㄴㅇㅢ</w>": 2387,
  "ㅈㅜㅇㅇㅣㄷㅏ</w>": 7044,
  "ㅎㅘㅁㅕㄴ</w>": 5313,
  "ㄲㅓㄴㅐ": 14660,
  "ㅈㅜㅇㄱㅏㄴ": 6512,
  "ㅇㅏㄴㅣㄴ</w>": 1654,
  "ㄱㅏㄴㅇㅡㄴ</w>": 16274,
  "ㅌㅡㄹㅏ</w>": 13889,
  "ㄷㅗㅇㅇㅏㄴㅇㅢ</w>": 12487,
  "ㅅㅡㄹㄹㅗ": 9328,
  "ㅇㅛㅇㄷㅗ</w>": 14430,
  "ㄱㅣㅈㅜㄴ</w>": 2766,
  "ㅁㅜㄴㅅㅣㄴ</w>": 12448,
  "ㅅㅓㄹㅁㅕㅇㅎㅏㄹ</w>": 13109,
  "ㄴㅔㅅ": 2725,
  "ㅅㅣㅁㅅㅏㅇㅟ": 15158,
  "ㅇㅏㄹㅇㅏㅇㅑ</w>": 7413,
  "ㅅㅓㅇㄱㅗㅇ</w>": 6286,
  "ㅎㅡㄴㅎㅣ</w>": 7084,
  "ㅊㅓㅁ</w>": 12076,
  "ㅁㅐㅊㅜㄴㅂㅜ</w>": 13903,
  "ㄷㅗㅂㅏㄱ</w>": 6063,
  "ㅇㅣㄴㅎㅏ": 12982,
  "ㄱㅏㅅㅡㅁㅇㅡㄹ</w>": 14268,
  "ㄱㅏㅇㅈㅔ": 9845,
  "ㅅㅣㄴㄱㅏㅇㅛ</w>": 7058,
  "ㄱㅖㄱㅣㄹㅗ</w>": 13308,
  "ㅊㅜㅅㅓㄱ": 13298,
  "ㅈㅜㅅㅗ</w>": 1468,
  "ㅈㅜㅇㅇㅡㄹ</w>": 9697,
  "ㄱㅏㄹㄹㅏ": 13694,
  "ㄱㅘㅇ": 685,
  "ㅎㅚㅅ": 8371,
  "ㅂㅏㄹㅍㅛ</w>": 3810,
  "ㄱㅖㅇㅢ</w>": 5450,
  "ㅅㅏㅁㅜㄹ": 11006,
  "ㅂㅐ": 480,
  "ㅌㅔㅇㅣ": 1990,
  "ㅋㅐㄹㅣㄱㅌㅓㄹㅡㄹ</w>": 15825,
  "ㅎㅕㄴㅅㅏㅇㅇㅣ</w>": 10210,
  "ㅁㅜㄴㅇㅢ": 1671,
  "ers": 10445,
  "ㅈㅓㄱㄷㅏㅇ": 8079,
  "ㄹㅓㄴㅣㅇ</w>": 14342,
  "ㅎㅏㄹㄲㅏㅇㅛ</w>": 7429,
  "ㅌㅏㅁㅅㅐㄱ": 12378,
  "ㄱㅜㅇㅕㄱ</w>": 8490,
  "ㅂㅏㄷㅊㅣㅁ": 15518,
  "ㅎㅏㅈㅏㄴㅡㄴ</w>": 13807,
  "indow": 3636,
  "G</w>": 223,
  "ㄹㅛㅇ": 8866,
  "ㅆㅡㅁㅕㄴ</w>": 11456,
  "ㄹㅑㅇ</w>": 2555,
  "ㅅㅏㄻㅇㅢ</w>": 4172,
  "ㄷㅏㅎㅐ</w>": 13525,
  "ㅅㅏㅁㅅㅓㅇ</w>": 4561,
  "int": 9581,
  "ㅂㅐㄱㅎㅘㅈㅓㅁ</w>": 10076,
  "ㅅㅓㅅㅜㄹ": 11369,
  "ㄱㅡㅁ": 524,
  "ㅃㅡㄴ": 7526,
  "ㄱㅓㅇㅑ</w>": 4574,
  "ㅈㅓㄴㅎㅘㄹㅡㄹ</w>": 6854,
  "ㄷㅗㅇㅜㅁㅇㅣ</w>": 2241,
  "ㄷㅡㅇ": 467,
  "ㄷㅡㄹㅣㅂㄴㅣㄷㅏ</w>": 1380,
  "ㅅㅓㄴㄱㅓ</w>": 5795,
  "ㅈㅣㅋㅣ": 3381,
  "16": 1395,
  "ㅈㅣㅂㅇㅔ</w>": 3662,
  "ㄱㅘㅇㅇㅕㄱ": 10630,
  "ㅇㅗㄴㄹㅏㅇㅣㄴ</w>": 2269,
  "ㅇㅟㅅㅐㅇ": 11643,
  "15ㅇㅣㄹ</w>": 5873,
  "ㄱㅜㄱㅇㅡㄹㅗ</w>": 12845,
  "ㅋㅗㅇㅓ</w>": 1920,
  "ㅋㅣㅇ</w>": 2226,
  "30ㄷㅐ": 12033,
  "ㅈㅜㅂㅕㄴㅇㅔ</w>": 7765,
  "ㄷㅚㄹㄲㅏ</w>": 9580,
  "ㄹㅏㄱ": 1452,
  "ㅅㅡㅋㅓㅌㅡ</w>": 15393,
  "ㄷㅗㅇㅣㅂ</w>": 10309,
  "ㅈㅓㅇㅊㅐㄱㅇㅣ</w>": 13923,
  "file</w>": 13988,
  "ㅃㅏㄹㅇㅏㄷㅡㄹㅇㅣㄴㅡㄴ</w>": 15922,
  "ㄱㅡㄹㅓㅁㅕㄴ</w>": 4081,
  "ㅌㅏㄺ</w>": 6971,
  "ㄴㅐㅇㅛㅇㅇㅣ</w>": 4742,
  "ㅅㅏㄴㅇㅓㅂㅎㅕㄱㅁㅕㅇ</w>": 12461,
  "ㅇㅣㄴㄷㅡㄹㅇㅡㄹ</w>": 13797,
  "dia</w>": 9614,
  "ㄴㅠㅅㅡ</w>": 1933,
  "ㅇㅖㅂㅣ</w>": 12555,
  "ㅇㅞㅂ": 1505,
  "ㅊㅏㅁㅈㅗ</w>": 6415,
  "tion</w>": 4007,
  "ㅇㅠㅇㅢ</w>": 7560,
  "ㄷㅣㅈㅣ": 2489,
  "ㅁㅐㅇㅣㄹ</w>": 2666,
  "ㅇㅜㄹㅣㄴ</w>": 10992,
  "ㅁㅣㄴㅇㅡㄴ</w>": 15416,
  "ㅂㅏㄴㅎㅘㄴ": 10437,
  "ㄷㅏㅇㅣㄹ": 14952,
  "ㅁㅏㄹㅎㅏㄴ</w>": 10028,
  "ㅇㅕㄱㅅㅏㅈㅓㄱㅇㅣㄴ</w>": 15129,
  "Server</w>": 8513,
  "ㅎㅡㄺ": 10954,
  "ㅇㅣㅆㄴㅏ</w>": 8129,
  "ner</w>": 15234,
  "ㄴㅏㅁㄷㅗㅇ</w>": 15438,
  "SK": 3790,
  "ㅋㅕ": 1759,
  "ㅈㅣㄹㅂㅕㅇ</w>": 13192,
  "Boo": 8093,
  "ㅈㅗㅁㅏㄴ": 12904,
  "ㅋㅓㅂㅓ</w>": 10794,
  "ㅎㅐㅅㅓㄴㅡㄴ</w>": 1722,
  "ㄲㅐ": 1507,
  "Wat": 14191,
  "ㅍㅗㅋㅔㅅ": 12930,
  "ㅈㅣㄱㅎㅏㄴ</w>": 7010,
  "ㅇㅣㄷㅗㅇ</w>": 3414,
  "ㅅㅣㄹㅈㅣㄹㅈㅓㄱㅇㅣㄴ</w>": 15118,
  "ㄱㅡㅁㅅㅗㄱ</w>": 10759,
  "ㄹㅏㅁ</w>": 5073,
  "Bo": 8516,
  "ㅅㅏㅇㄷㅐㄹㅗ</w>": 7913,
  "ㄷㅡㄹ": 319,
  "ㄴㅏㅁㄷㅗ</w>": 15879,
  "ㅅㅐㅇㅅㅏㄴ</w>": 5179,
  "ㅈㅏㅇㅠㅎㅏㄴㄱㅜㄱㄷㅏㅇ</w>": 15048,
  "Ch": 2460,
  "ol</w>": 7960,
  "ㅅㅣㄹㅈㅔㄹㅗ</w>": 2587,
  "ㄱㅡㅂㅇㅕ</w>": 13034,
  "org": 15757,
  "5ㅊㅓㄴ": 8302,
  "ㅁㅣㄷㅈㅣ</w>": 16249,
  "ㅈㅔㄱㅗㅇㄷㅚㅈㅣ</w>": 13087,
  "ㅈㅓㄱ</w>": 546,
  "1ㅅㅣㄱㅏㄴ</w>": 7943,
  "ㄱㅣㄹㅗㄱㅇㅣ</w>": 15741,
  "ㅂㅣㄱㄷㅔㅇㅣㅌㅓ</w>": 13930,
  "ys": 6585,
  "ㅇㅣㅁ</w>": 1588,
  "ㅌㅏㅈㅏ</w>": 14240,
  "ㄷㅗㅇㄴㅔ": 10064,
  "ㅗㅇㅔㅅㅓ</w>": 14165,
  "ㄱㅗㅇㅘ</w>": 10093,
  "ㅅㅜㅅㅏ</w>": 10615,
  "ㅕㅇㅘ</w>": 12133,
  "PG": 6038,
  "ㅅㅡㅌㅔㅇㅣㅋㅡ</w>": 16219,
  "ㅏㄴ": 279,
  "FA": 5494,
  "ㅇㅓㄴㅈㅔ": 1743,
  "G": 32,
  "ㅅㅏㄹㅏㅇㅇㅡㄹ</w>": 4048,
  "ㅇㅕㅈㅏㄱㅏ</w>": 8874,
  "ㅇㅝㄴㄹㅐ</w>": 4286,
  "ino</w>": 15603,
  "ㄲㅗㄱ": 7737,
  "ㅅㅡㄹ": 554,
  "ㅇㅔㄴ": 1336,
  "ㅂㅐㅅㅏㅇ": 13218,
  "st</w>": 7521,
  "ㅇㅣㄴㅈㅓㅇ": 2467,
  "ㄱㅏㅇ</w>": 1389,
  "ㄷㅏㄷ": 1995,
  "ㅋㅗㅇㅢ</w>": 12031,
  "ㅁㅐㄴㅠ": 11551,
  "ape</w>": 15863,
  "ㅇㅏㄶㅇㅡ": 6590,
  "ㅕㅇ</w>": 4095,
  "ㄹㅣㅍㅗㅌㅡ</w>": 12535,
  "ㅁㅜㄴㅎㅏㄱ": 3913,
  "ㅇㅓㄴㅇㅣ</w>": 12598,
  "ㅎㅗㅈㅜ": 10130,
  "ㅇㅔㄴㅓㅈㅣ</w>": 4694,
  "ec": 1488,
  "ㅅㅐㅇㄱㅏㄱㅎㅏㅂㄴㅣㄷㅏ</w>": 3789,
  "ㅂㅏㄹㅈㅓㄴ</w>": 5369,
  "ㅈㅏㄹㅡㄹ</w>": 1377,
  "ㅇㅖㅅㅏㄴ</w>": 9289,
  "ㄴㅗㅎ": 1239,
  "ㅋㅜㅍㅗㄴ</w>": 8663,
  "ㅈㅓㄴㅇㅡㄹㅗ</w>": 10925,
  "ㄹㅗㅂㅓ": 14316,
  "tion": 6959,
  "ㅇㅗㄹㅣㅈㅣㄴ": 12731,
  "ㅂㅗㄴㅣㄲㅏ</w>": 8858,
  "ㅈㅏㄹㅏㄴ</w>": 14390,
  "ㅂㅏㅇㅇㅢ</w>": 8269,
  "ㄱㅏㄱ": 497,
  "ㅇㅡㄹㄲㅏ</w>": 1714,
  "ㅅㅣㅅㅓㄹㅇㅡㄴ</w>": 12781,
  "ㅅㅗㅍㅡㅌㅡㄱㅏ</w>": 3318,
  "ㅇㅣㄱㅓㅅ": 7824,
  "ㄴㅓㅎㅇㅓ": 11933,
  "ㄸㅐㅁㅜㄴㅇㅣㄷㅏ</w>": 1800,
  "ㅂㅏㅇㅈㅣ</w>": 7967,
  "ㅇㅣㅆㄴㅡㄴㅈㅣ</w>": 3209,
  "ㅇㅗㄹ": 541,
  "ㅋㅔㅇㅣ": 1164,
  "ㅂㅕㄴㅎㅘ": 1709,
  "ㅅㅣㄹㅇㅔㅅㅓ</w>": 6140,
  "ㄷㅓㄴㄱㅏ</w>": 8748,
  "ㅇㅣㄹㅈㅏ</w>": 9151,
  "ㅇㅛㅇㅍㅜㅁ": 13599,
  "ㅁㅔㅇㅣㅋㅡㅇㅓㅂ</w>": 14125,
  "ㄱㅗㅇㅎㅏㅇㅇㅔㅅㅓ</w>": 13063,
  "ㄱㅡㄹㅡㄹ</w>": 4217,
  "ㅊㅜㄱ</w>": 2694,
  "ㄱㅓㄴㅊㅜㄱ": 3255,
  "ㅇㅗㅈㅓㄴ</w>": 2848,
  "ell": 5531,
  "Bravo": 15280,
  "ㅅㅐㅇㄱㅏㄱㅎㅏㅈㅣ</w>": 10591,
  "ㅈㅓㅁㅇㅢ</w>": 7482,
  "ㅂㅏㅇㅅㅣㄱ</w>": 6083,
  "ㅇㅣㅃㅡㄴ": 13966,
  "ㄷㅗㄱㅅㅓ</w>": 14497,
  "ㄷㅏㅇㅇㅣ</w>": 6464,
  "ㄴㅏㅈㅇㅏ": 13278,
  "ㄱㅘㄴㅇㅔ</w>": 5430,
  "ㅇㅏㅇㅣㄱㅏ</w>": 5687,
  "ts</w>": 5650,
  "ㅌㅡㄹㅐㄱㅂㅐㄱ</w>": 9761,
  "ㅇㅣㄹㅊㅜㄹ</w>": 9965,
  "ㅂㅏㅂ": 3634,
  "ㄷㅔㄴ": 4806,
  "par": 6044,
  "ㅎㅜㅂㅐ": 13064,
  "8ㄴㅕㄴ</w>": 1762,
  "http</w>": 2769,
  "ㄴㅏㄹㅆㅣ</w>": 6719,
  "ㅉㅓㄱ</w>": 9807,
  "ㅍㅣㄷㅡ": 9967,
  "ㄹㅠㅇㅢ</w>": 15765,
  "ㅈㅜㄱㅓ": 8823,
  "ㅇㅣㅇㅜ": 8845,
  "ㅇㅓㄷㅣㅅㅓ</w>": 7850,
  "may</w>": 13610,
  "e": 59,
  "ㄸㅡㅅㅎㅏㄴ</w>": 4930,
  "ㅃㅡㄴ</w>": 2643,
  "ㅁㅗㄹ</w>": 2541,
  "ㅊㅡㄱㅈㅓㅇ": 3945,
  "ㄱㅗㅁㅣㄴㅇㅣ</w>": 15871,
  "ㄷㅐㅇㅏㄴ": 12114,
  "ㅇㅑㄱㅁㅜㄹ": 14765,
  "ㅎㅓㅇ": 13805,
  "ㅏㅁㅏ</w>": 3541,
  "ㅇㅕㅇㅇㅝㄴㅎㅣ</w>": 10205,
  "ㅇㅣㄸㅐ</w>": 6352,
  "ㅈㅓㄴㅁㅕㄴ</w>": 12316,
  "ㅇㅗㄹㅠㄱㅏ</w>": 9199,
  "ㅍㅐㅌㅓㄴ</w>": 10371,
  "ㅈㅣㄴㄹㅛ": 8698,
  "ㅂㅜㅈㅏㅇ</w>": 10926,
  "One</w>": 13408,
  "ㄱㅗㄱㅇㅡㄹ</w>": 10212,
  "ㅇㅣㅇㅛㅇ": 714,
  "ㅇㅕㄱㅅㅏㅈㅓㄱ</w>": 9788,
  "ㅎㅏㄹㅈㅣ</w>": 5716,
  "ㅅㅡㅅㅡㄹ": 6277,
  "ㅎㅘㅎㅏㄱㅗ</w>": 14078,
  "ㄷㅡㄹㄱㅘㅇㅢ</w>": 11744,
  "ㄹㅣㄹㅡㄹ</w>": 1240,
  "ㅅㅣㅂㅈㅏㄱ": 12474,
  "Air": 12552,
  "1ㅇㅟㄹㅡㄹ</w>": 11739,
  "ㅈㅜㅇㅅㅣㅁ": 1804,
  "2ㅇㅟ</w>": 9200,
  "ㅅㅜㅁㅇㅡㄹ</w>": 7724,
  "ㄹㅗㅂ": 5549,
  "ㅅㅣㅁㅣㄴ": 2283,
  "kn": 14034,
  "ㅈㅓㄴㅅㅔㄱㅖ</w>": 11163,
  "My</w>": 15289,
  "ㄴㅗㅊㅜㄹ</w>": 13499,
  "ㄲㅡㄹㅇㅓ": 6907,
  "Korean</w>": 16106,
  "mp": 5834,
  "ㄷㅗㅇㄱㅣ": 7541,
  "ㅇㅣㄷㅏ</w>": 468,
  "3ㅇㅝㄹ</w>": 3051,
  "ㅁㅣㄷㅣㅇㅓ</w>": 3418,
  "3ㅊㅏ</w>": 11787,
  "ㅅㅜㄴㅅㅜㅎㅏㄴ</w>": 15707,
  "ㅋㅗㄴㅌㅔㄴㅊㅡ": 4550,
  "ㅈㅓㅇㄹㅣ</w>": 4726,
  "ㄷㅓㅇ": 6623,
  "ㅈㅗㅎㅇㅡㄹ</w>": 5209,
  "ㄷㅐㅇㅘ</w>": 7189,
  "ㄴㅕㅁ": 1949,
  "ㄱㅡㄴㄷㅐ": 14442,
  "ㅂㅏㄱㅎㅐ": 16011,
  "ㅇㅓㄹㅣㄴㅇㅣㅈㅣㅂ</w>": 10702,
  "ㅂㅕㄱㅇㅡㄹ</w>": 12029,
  "ㅇㅣㄴㄱㅣㄹㅡㄹ</w>": 7304,
  "ㅁㅕㄴㄷㅗ</w>": 6769,
  "ㄱㅕㄹㅎㅗㄴ": 2695,
  "ㄱㅏㄱㅔ": 7680,
  "ㅁㅡㄹㅗ</w>": 7385,
  "ㅇㅠㅌㅗㅇ</w>": 11266,
  "ath": 7320,
  "ㅅㅓㅇㄱㅗㅇㅈㅓㄱㅇㅡㄹㅗ</w>": 12292,
  "ㅌㅗㅇㅅㅏㅇ": 10904,
  "group": 15088,
  "ㄴㅓㅁㅇㅓ</w>": 7879,
  "ㅗㄱㅗ</w>": 11322,
  "ㅇㅓㅂ": 459,
  "ㅈㅐㅈㅓㅇ": 7289,
  "TE": 4679,
  "ㅈㅐㅅㅐㅇ": 2940,
  "ㅁㅣㄹㅣ": 8179,
  "ㅁㅓㄴㅌㅡ</w>": 5959,
  "ㄴㅏㄹㅂㅜㅌㅓ</w>": 13934,
  "ㅇㅣㅎㅏㅇㅢ</w>": 10618,
  "ㅐㄱ</w>": 2674,
  "ㅅㅏㅇㅛㅇㅇㅡㄹ</w>": 8042,
  "ㄹㅗㄷㅡ": 7558,
  "ㅊㅏㄴ": 1408,
  "ㅊㅓㅅ</w>": 1480,
  "58": 9423,
  "ㅂㅏㅇㅜㄹ": 12724,
  "ㅅㅜㄴㄱㅏㄴ</w>": 4379,
  "ㅗㅅㅓ</w>": 4185,
  "TO</w>": 12644,
  "ㅈㅣㄱㅇㅝㄴ": 2626,
  "ㅊㅜㅈㅓㄱ": 11495,
  "ㅈㅐㄱㅏ</w>": 2580,
  "ㅈㅏㄱㅕㄱ": 3403,
  "ㅇㅣㄹㅓㅎ": 7328,
  "ㅎㅐㅆㄱㅗ</w>": 2017,
  "ㅌㅣㄱㅏ</w>": 14468,
  "ㅇㅏㅇㅣㄷㅣㅇㅓㄹㅡㄹ</w>": 12313,
  "ㄷㅗㄹㄹㅕ</w>": 12865,
  "ㅂㅜㄴㅇㅕㄹ": 15404,
  "ata</w>": 5793,
  "ㄱㅓㅂ": 10658,
  "ㅇㅗㅍㅡ</w>": 11719,
  "ㄷㅗㄹㅗ": 5849,
  "ter</w>": 4582,
  "ㄷㅡㄹㄱㅘ</w>": 1404,
  "ㅌㅣㅇ": 1587,
  "ㄷㅗㄹㅍㅏ": 11573,
  "ㄹㅐㄱ</w>": 3225,
  "ㅅㅔㄹ": 2087,
  "ㄱㅜㄱㅁㅜ": 9062,
  "ㄱㅜㅂ": 8421,
  "ㄱㅗㅇㄱㅏㅁ": 6452,
  "ㄱㅘㅇㅂㅓㅁ": 12777,
  "ㅈㅜㅇㅇㅏㅇ</w>": 10220,
  "ㅇㅑㄼㅇㅡㄴ</w>": 11127,
  "2ㅈㅜ</w>": 13696,
  "ㅇㅣㄴㅈㅣ": 3999,
  "ㄴㅓㅁㅜ</w>": 1188,
  "ㅈㅓㄱㅇㅡㄹㅗㄷㅗ</w>": 15012,
  "ㅇㅕㄴㄹㅏㄱㅇㅡㄹ</w>": 12078,
  "ㅇㅚㄱㅘ</w>": 15358,
  "ㄱㅏㄱㅔ</w>": 4540,
  "ㅇㅏㅇㅣㄹㅡㄹ</w>": 7671,
  "ㅁㅜㄹㄹㅗㄴ": 10636,
  "Un": 4797,
  "ㅈㅓㄱㅇㅓ</w>": 15238,
  "ㄱㅜㄱㅇㅓ": 10316,
  "ㄱㅜㅈㅗㄹㅡㄹ</w>": 9020,
  "ㅍㅕㄴㅈㅣ</w>": 11349,
  "ㅂㅣㄴㅏㄴ": 7668,
  "ㅇㅐㄱㅇㅣ</w>": 15749,
  "ㄴㅏㅇㅕㄹ": 15782,
  "ㅈㅓㅁㅇㅔ</w>": 3601,
  "ate</w>": 3671,
  "ㅈㅔㅎㅠ": 8246,
  "500</w>": 11783,
  "ㄱㅜㅁㅓ": 5453,
  "ㄷㅏㄹㅏㄴ</w>": 8435,
  "more</w>": 11644,
  "ㅇㅣㄹㄹㅣ": 6098,
  "ㅊㅗㄹㅗ</w>": 6417,
  "ㅂㅡㄹㄹㅗㄱ": 1325,
  "ㅂㅣㄴㄱㅗㄴ": 15414,
  "ㄱㅏㄷㅏ</w>": 11078,
  "ㅑ</w>": 159,
  "ㅅㅏㄱㅗ</w>": 3365,
  "ㅇㅣㅈㅈㅣ</w>": 7908,
  "Goog": 5442,
  "ㄱㅓㄱㅣ": 6294,
  "ㄱㅕㅇㅂㅣ": 13199,
  "ㄷㅏㅅㅓㅅ</w>": 7528,
  "ㅁㅣㄹㅜ": 14200,
  "ㅁㅏㅈㅓ</w>": 8704,
  "ㅇㅏㅍ</w>": 5567,
  "ㅅㅗㅇㅠ": 3846,
  "ㅇㅖㅊㅡㄱ</w>": 13618,
  "ㄷㅗㅈㅓㅎㅣ</w>": 12239,
  "ㅈㅓㅇㅂㅗㄴㅡㄴ</w>": 2187,
  "ㄹㅔㅇㅣㅅㅡ</w>": 13202,
  "ㅇㅕㄴㄱㅕㄹ</w>": 5375,
  "ㅈㅣㄴㅈㅓㅇ</w>": 15219,
  "ㅇㅐㄴㅓㄹ</w>": 6397,
  "ㅅㅐㅁㅍㅡㄹ</w>": 13929,
  "ㅊㅐㅇㅝ": 9552,
  "ㅇㅣㄴㄱㅣㄱㅏ</w>": 10593,
  "ㄷㅗㄱㅡ</w>": 11500,
  "and": 3715,
  "ㄱㅗㅈㅓㅇ": 6392,
  "ㄱㅗㄱㅣㄹㅡㄹ</w>": 11802,
  "ㅇㅙㄱㅗㄱ": 12912,
  "ㄱㅗㅇㅠ": 7754,
  "ㄴㅜ": 977,
  "ㅈㅐㄱ</w>": 11290,
  "2011ㄴㅕㄴ</w>": 6489,
  "ㅈㅓㄴㅎㅘㄴ</w>": 6643,
  "ㅅㅓㅍㅣㅇ": 3250,
  "Hamster</w>": 3078,
  "ㄹㅐㄴ": 1554,
  "th</w>": 4709,
  "ㅍㅜㅇ": 1159,
  "are</w>": 4483,
  "ㅅㅓㄴㅊㅜㄹ": 11428,
  "ㄷㅗㅇㅇㅣ</w>": 10153,
  "Dat": 10570,
  "ㅈㅜㅅㅗㄱㅏ</w>": 15257,
  "ㅂㅜㄴㄹㅣ": 6163,
  "ㅎㅞ": 2299,
  "2019": 15655,
  "ㄱㅘㄴㅇㅣ</w>": 3979,
  "ㅈㅔㄱㅓ</w>": 7311,
  "ㅌㅡㄹㄹㅣㄴ</w>": 16315,
  "ㅍㅗㅎㅏㅇ": 12269,
  "ㄱㅜㅇㄱㅡㅁㅎㅏㅂㄴㅣㄷㅏ</w>": 13687,
  "ㅈㅡㄹㄱㅕㅊㅏㅈ": 12949,
  "ㅌㅓㅇㅘ</w>": 16232,
  "ㅅㅜㄹㅗㄱ</w>": 2795,
  "ㄱㅣㅁㅇㅛㅇ": 11814,
  "ㅅㅣㅋㅣㄱㅣ</w>": 8869,
  "ㅇㅣㄺㄱㅣ</w>": 6817,
  "6ㄴㅕㄴ</w>": 2291,
  "ㅒ": 116,
  "bo": 4604,
  "ㄹ</w>": 146,
  "ㄱㅜㄱㄱㅏㅇ": 7695,
  "ㅈㅓㄴㅎㅘㅂㅓㄴㅎㅗ</w>": 6901,
  "ㅎㅘ": 332,
  "ㅅㅔㅅㅏㅇㅇㅣ</w>": 9270,
  "ㅂㅏㄷㄱㅗ</w>": 1930,
  "ㅎㅏㄱㅗㄴㅡㄴ</w>": 9526,
  "ㅇㅓㄹㄱㅜㄹㅇㅢ</w>": 11129,
  "ㅎㅕㄱㅁㅕㅇ": 10185,
  "ㄱㅏㅇㅅㅓㄹ": 14224,
  "ㅇㅠㅊㅣ": 4868,
  "ㅇㅣㅁㅔ": 4527,
  "ㄱㅓㅅㅇㅣㅈㅛ</w>": 10110,
  "ㄴㅏㄱㅏㄹ</w>": 7148,
  "ㅇㅕㄴㄹㅏㄱ</w>": 9102,
  "ㄴㅏㅇㅗㄴ</w>": 3455,
  "ㅊㅚㅅㅗㅎㅏㄴ</w>": 9497,
  "ㅇㅗㅂ": 2118,
  "ㅁㅗㄱㅍㅛㄹㅡㄹ</w>": 7857,
  "ㅈㅔㅅㅣ</w>": 12331,
  "ㅅㅣㅁㅎㅣ</w>": 2954,
  "ㅇㅜㅅㅜ</w>": 11231,
  "ㅇㅡㄹㅅㅜ</w>": 8091,
  "ir": 1962,
  "ㄷㅏㄴㅣㄴㅡㄴ</w>": 6976,
  "ㅂㅐㅅㅗㅇㅂㅣ</w>": 11531,
  "ㅂㅜㄱㅁㅣ</w>": 10812,
  "ㅂㅗㄹㅗ</w>": 11173,
  "ㅎㅏㅅㅣㅂㅅㅣㅇㅗ</w>": 2239,
  "6</w>": 161,
  "ㅍㅣㄹㅌㅓ</w>": 12062,
  "ㅇㅗㅅㅡㅌㅡㄹㅣ": 15051,
  "ㅇㅏㅊㅣㅁㅇㅔ</w>": 7858,
  "ㄱㅜㄱㅈㅓㅇ": 6213,
  "bro": 15352,
  "ㅇㅓㅄㅇㅓㅆㅅㅡㅂㄴㅣㄷㅏ</w>": 8825,
  "ㅅㅗㅅㅣㄱ</w>": 5579,
  "comㅇㅔㅅㅓ</w>": 14058,
  "ㅊㅜㄹㅅㅣㄴ</w>": 7974,
  "ㄷㅡㅇㅈㅏㅇ</w>": 10796,
  "ㅡㅁ": 659,
  "ㅁㅕㄴ": 607,
  "led</w>": 12398,
  "ㅋㅡㄹㄹㅏㅇㅜㄷㅡ</w>": 6556,
  "ㄴㄷㅏㄴㅡㄴ</w>": 10595,
  "SW": 8482,
  "ㅈㅓㅇㅊㅐㄱ</w>": 2492,
  "ㅇㅕㄴㅎㅏㅂ": 3991,
  "ㄲㅗㄱ</w>": 1585,
  "ㅇㅏㄶㄱㅣ</w>": 7122,
  "ㄹㅔㅅㅡ</w>": 13835,
  "ㅈㅣㄹㅗ</w>": 3452,
  "ㄱㅗㅇㅇㅣ</w>": 15349,
  "ㅂㅡ</w>": 1568,
  "ㄱㅘㄴㅇㅡㄹ</w>": 2772,
  "ㅇㅣㄴㄱㅜ": 10460,
  "ㅇㅣㄴㅅㅏㅇ</w>": 9669,
  "ㅎㅘㅇㅢ</w>": 5608,
  "ㅇㅜㄱㅗ</w>": 5658,
  "ㄱㅘㄴㄹㅕㄴㄷㅚㄴ</w>": 2704,
  "ㅍㅜㅇㅂㅜ": 6467,
  "ㄷㅏㄴㄱㅖ</w>": 3719,
  "ㅋㅗㄴㅅㅓ": 5996,
  "ㅁㄱㅘ</w>": 2732,
  "ㅢ": 132,
  "ㄷㅗㅇㅔㅅㅓ</w>": 5469,
  "ㅁㅓㄱㅇㅡㄹ": 11003,
  "Jav": 10114,
  "ㅍㅔㅇㅣㅈㅣㅇㅔㅅㅓ</w>": 8685,
  "You</w>": 15092,
  "ㅁㅣㅊ": 10994,
  "ㅍㅏㅌㅡㄴㅓ": 5569,
  "ㅅㅣㄴㅇㅢ</w>": 5509,
  "ㅅㅣㅈㅏㅇㅇㅔ</w>": 7003,
  "ㅅㅡㅍㅏ": 7574,
  "ㅅㅓㅇㅘ</w>": 7092,
  "ㅁㅐㄹㅡㄹ</w>": 10725,
  "ㄱㅔㅇㅣㅁ": 1625,
  "ㅇㅣㅂㅂㅓㅂ": 15157,
  "ㄹㅓㅁ</w>": 981,
  "ㅎㅡㅁ": 13483,
  "ㅎㅏㄴㅡㄴㄱㅏ</w>": 6474,
  "ㅂㅏㄹㅡㄴ</w>": 4929,
  "ㄱㅜㅂㅜㄴ</w>": 10456,
  "ㅎㅐㅆㅈㅛ</w>": 11838,
  "ㅌㅜㄴ": 12629,
  "ㅇㅖㅃㅡㄴ</w>": 6748,
  "9ㅇㅝㄹ": 9261,
  "ㄱㅡㄹㅓㄹ": 12509,
  "ㄱㅏㄷㅡㄱ</w>": 6391,
  "ㄷㅔㄷㅗ</w>": 4545,
  "ㅎㅘㄴㅈㅏㄱㅏ</w>": 13184,
  "ㅇㅏㄹㄹㅜㅁㅣㄴ": 10749,
  "ㄷㅐㅂㅜㅂㅜㄴㅇㅡㄴ</w>": 13768,
  "ㄹㅛ</w>": 1146,
  "ㅍㅏㄴㅡㄴ</w>": 7785,
  "ㅅㅜ": 342,
  "ㄷㅡㅇㅇㅣ</w>": 1547,
  "ㅂㅣㅅㅡ": 2463,
  "ㄷㅣㅂ": 14463,
  "60": 2438,
  "ub</w>": 5215,
  "ㅎㅐㅆㅇㅓㅇㅛ</w>": 4370,
  "ㄱㅡㄹㅓㅎㅈㅣㅁㅏㄴ</w>": 8930,
  "ㅍㅗㄷㅗ": 12528,
  "ㅇㅗㄹㅐㄴ</w>": 5486,
  "PG</w>": 10613,
  "ㅈㅗㅈㅓㄹ</w>": 10574,
  "'(</w>": 6061,
  "ㄱㅡㅂㅇㅢ</w>": 11091,
  "ㅅㅜㄹㅇㅣ</w>": 16314,
  "ㅁㅗㄱㅈㅓㄱㅇㅣ</w>": 10085,
  "ㅁㅏㄶㅇㅏㅆ": 7971,
  "ㅈㅣㄷㅗㅇㅔㅅㅓ</w>": 14189,
  "ㅇㅢㄱㅏ</w>": 10364,
  "ㅈㅏㄱㄱㅏ</w>": 6176,
  "ㅎㅓㅁ": 776,
  "ㄷㅏㄴㅊㅔ</w>": 4158,
  "ㄲㅏㄹ": 2737,
  "ㅇㅣㄴㅣㄲㅏ</w>": 13429,
  "ㅌㅡㄹㅓㄱ</w>": 15678,
  "ㅋㅐㅍㅣ": 12899,
  "ㅊㅣㄴㄱㅜㄱㅏ</w>": 6502,
  "ㅋㅏㄹㄹㅓㅁ</w>": 6610,
  "ㅈㅓㅇㅊㅣ": 1747,
  "4ㅊㅓㄴ": 13874,
  "ㅁㅗ</w>": 1569,
  "ㅈㅗㅎㅇㅏ": 1357,
  "ㅇㅘㄴㄹㅛ</w>": 3402,
  "ㅈㅔㅈㅜㄷㅗ</w>": 8786,
  "ㄱㅏㅅㅡㅁ": 7186,
  "ㅍㅕㅇㅎㅘ": 4145,
  "ㅂㅏㅇㅅㅣㄱㅇㅡㄹ</w>": 7357,
  "ㅅㅣㄴㅏㅇㅛ</w>": 11745,
  "ㅈㅏㅊㅔㅇㅢ</w>": 15113,
  "ㄱㅗ</w>": 288,
  "ㄹㅐ": 650,
  "ㅅㅐㄴㅍㅡㄹㅏㄴㅅㅣ": 10031,
  "ㅇㅏㅇㅣㄷㅡㄹㅇㅔㄱㅔ</w>": 12747,
  "ㄴㅏㄹㅇㅢ</w>": 10296,
  "ㄱㅏㄴㄷㅏㄴㅎㅏㄱㅔ</w>": 8926,
  "ht": 1846,
  "ㅈㅗㄱㅡ": 13234,
  "100</w>": 6057,
  "ㅊㅗㅇㅈㅏㅇ</w>": 12915,
  "ㄸㅏㄹㅡㄴ</w>": 2264,
  "ㅇㅟㄱㅣ": 11188,
  "ㅇㅕㄴㅅㅔ": 14643,
  "ㅋㅏㅇㅜㄱㅓㄹ</w>": 14443,
  "ㄷㅣ": 461,
  "ㅎㅡㅌ": 15932,
  "ㅅㅣㄴㅇㅣㅂ": 8623,
  "ㅈㅓㄴㄱㅜㄱ</w>": 4099,
  "ㅇㅕㄱ": 510,
  "ㅈㅐㄱㅜㅅㅓㅇㅇㅔ</w>": 10648,
  "\",</w>": 8052,
  "ㅈㅣㅈㅓㅇ": 3392,
  "ㄷㅡㄹㅇㅓㄱㅏㄹ</w>": 9939,
  "CR": 9071,
  "ㅈㅔㅇㅢ</w>": 3812,
  "ㄱㅗㅅㅜ": 14502,
  "oft</w>": 5962,
  "ㄱㅡㅂ</w>": 1249,
  "ㅂㅔ": 682,
  "ㅁㅓㄹㅣㅅ": 14207,
  "ㄷㅏㅇㄴ": 8263,
  "ㄱㅣㅅㅏ</w>": 2152,
  "ㄴㅐㄱㅣ</w>": 8631,
  "ml": 14818,
  "ㅅㅗㄴㅇㅣ</w>": 9810,
  "ㅈㅓㅁㄷㅗ</w>": 8455,
  "ㅇㅗㄹㅔㄴ": 10232,
  "v": 76,
  "ㅇㅣㅂ</w>": 1122,
  "ㅁㅣㄴㅈㅜㄷㅏㅇ</w>": 6504,
  "ㅇㅓㅄㄷㅏ</w>": 1179,
  "ㅋㅏㄷㅡ</w>": 2217,
  "ㅇㅣ": 265,
  "ill": 5356,
  "ㅂㅜㄷㅏㅁ": 3609,
  "ㅎㅠㅇ": 7282,
  "ㄸㅗㄴㅡㄴ</w>": 836,
  "ㅅㅏㅈㅏㅇ": 7397,
  "ㅎㅐㅆㅇㅓㅆ": 11806,
  "ㅇㅣㅆㅇㅓㅆㅅㅡㅂㄴㅣㄷㅏ</w>": 2757,
  "ㄷㅔㅂㅟ</w>": 10125,
  "ㅊㅕㄴ": 9775,
  "ㅈㅔㅍㅜㅁㅇㅢ</w>": 6323,
  "ㅎㅚㅇㅘ</w>": 10172,
  "ㅅㅣㅋㅕ</w>": 4675,
  "ㅈㅚㄹㅡㄹ</w>": 9050,
  "ㅇㅏㅈㅣㄱ</w>": 2026,
  "PE": 10867,
  "ㅂㅓㄹㅣㄴ</w>": 5048,
  "ㄷㅐㅊㅜㅇ</w>": 10312,
  "ㅁㅕㅇㅇㅣ</w>": 1888,
  "LTE</w>": 14778,
  "ㄱㅘㄴㄹㅕㄴㅇㅣ</w>": 8562,
  "big": 14943,
  "ㄱㅠㅁㅗㄱㅏ</w>": 11978,
  "ㅌㅡㄹㅔ": 5839,
  "ㅂㅐㄱㅇㅣ</w>": 10896,
  "ㅁㅔㄱㅏ": 13108,
  "ㅍㅏㅇㅝ</w>": 11001,
  "ㄴㅣㄲㅏ</w>": 1840,
  "ㅇㅏㄶㅇㅏㅆㄷㅏ</w>": 2407,
  "ㅅㅜㄴㄱㅏㄴㅇㅔ</w>": 15531,
  "ㅎㅐㅈㅕ</w>": 13776,
  "ㅇㅏㄴㅇㅣ</w>": 6892,
  "LG": 4336,
  "65": 7539,
  "ㄷㅡㄹㅏㅇㅣㅂㅓ": 12495,
  "ㅇㅣㄱㅓㄴ</w>": 3770,
  "ㅁㅗㅇㅑㅇ</w>": 11442,
  "ㄱㅗㅁㅣㄴ</w>": 11928,
  "ㅇㅣㄹㅡㄴㅡㄴ</w>": 11305,
  "ㅅㅔㄱㅅㅣㅎㅏㄴ</w>": 8166,
  "ㅅㅔㄱㅡㅁ</w>": 8789,
  "ㄱㅗㅎㅏㄴ</w>": 11505,
  "ㅇㅣㄹㄱㅕㅇ": 15274,
  "ㅅㅓㄴㅇㅓㄴ</w>": 11023,
  "ㅅㅏㄱㅈㅔㅎㅏㅅㅣㄱㅔㅆㅅㅡㅂㄴㅣㄲㅏ</w>": 10717,
  "Office</w>": 9367,
  "ㅅㅗㄴㅣ</w>": 13150,
  "ㅋㅓㅁ</w>": 5125,
  "ㅈㅜㅇㄱㅗㅊㅏ</w>": 13951,
  "ㅁㅏㄴㅇㅢ</w>": 2585,
  "3ㅊㅡㅇ</w>": 10743,
  "ㅎㅡㄹㅡㅁㅇㅡㄹ</w>": 11419,
  "ㅅㅏㄹㅏㅁㅇㅡㄹ</w>": 3006,
  "ㅈㅗㅎㅇㅏㅎㅏㄴㅡㄴ</w>": 3145,
  "ㅂㅏㄹㄱㅕㄴ": 1781,
  "ㅅㅏㅅㅓㄹ": 6747,
  "ㅍㅛㄱㅣ": 10077,
  "ㄱㅗㅅㅇㅣ</w>": 4113,
  "ㅇㅛㄱ": 1246,
  "ㅈㅓㄴㅁㅏㅇ": 3635,
  "ㅍㅕㅇㅂㅓㅁㅎㅏㄴ</w>": 9599,
  "ㅘ</w>": 135,
  "ㅇㅛㅇㄹㅑㅇ</w>": 10066,
  "ㅊㅜㄱㅏㄹㅗ</w>": 7518,
  "ㄷㅗㅇㄱㅣ</w>": 7548,
  "ㅅㅣㅂ": 2193,
  "ㅊㅓㄹㅈㅓㅎㅏㄴ</w>": 15620,
  "ㅅㅓㄴㅁㅜㄹ</w>": 5077,
  "ㅇㅣㄹㅎㅏㄱㅗ</w>": 12278,
  "ㅎㅘㄴㄱㅕㅇㄱㅘ</w>": 14902,
  "ㅍㅡㄹㄹㅐㅅㅍㅗㅁ": 15225,
  "ㄱㅗㅅㄱㅗㅅㅇㅔ</w>": 14423,
  "ㅇㅣㅇㅛㅇ</w>": 1644,
  "ㄱㅣㅁㄷㅗㅇ": 8504,
  "ㅈㅓㄴㅂㅜㄱ": 10326,
  "ㅅㅡㅇㅁㅏ</w>": 11210,
  "ㅁㅏㄴㅇㅣ</w>": 2921,
  "ㄷㅏㄹㄹㅏㄱㅗ</w>": 6755,
  "ㅏㅇ": 269,
  "ㅈㅜㄹㅇㅡㄹ</w>": 9319,
  "ㅈㅜㄱㅣ</w>": 6159,
  "ㅅㅓㄹㅁㅕㅇㅅㅓ</w>": 15945,
  "ㅁㅣㄴㅈㅜㄴㅗ": 14673,
  "DrTuber</w>": 15165,
  "ㅎㅏㅅㅣㄴ": 4616,
  "ㅇㅣㄱㅕㄴ": 12602,
  "ㄱㅜㅅㅓㅇㅇㅡㄹ</w>": 15058,
  "45</w>": 7439,
  "ㄱㅜㅎㅕㄴ</w>": 15419,
  "ㄴㅓㅁㅇㅓ": 3217,
  "ㅈㅓㄱㅇㅡㄴ</w>": 3602,
  "els</w>": 15919,
  "ㄸㅓㄹㅇㅓ": 1784,
  "ㅋㅏㅇㅜ": 8802,
  "ㅇㅣㅆㄱㅣㅇㅔ</w>": 9084,
  "ㅊㅚㅅㅗ": 3830,
  "ㅇㅕㅇㄴㅏㅁ": 15246,
  "ㅇㅗㄴㄷㅏ</w>": 11995,
  "ㅅㅗㄱㅇㅡㄹ</w>": 9567,
  "ㅊㅏㅁㄱㅗㄹㅗ</w>": 6295,
  "ㅋㅡㄹㄹㅣㄱㅎㅏㅂㄴㅣㄷㅏ</w>": 13250,
  "ㄴㅏㄴㅟ": 9393,
  "ㅈㅏㅇㄱㅘㄴ": 14143,
  "ㅅㅔㄱㅖㅈㅓㄱㅇㅣㄴ</w>": 8988,
  "ㄷㅏㅁㅕㄴ</w>": 830,
  "ㅅㅡㄹㄹㅏㅇㅣㄷㅣㅇ</w>": 6024,
  "An": 2522,
  "ㅊㅔㅇㅔ</w>": 7715,
  "ㅍㅓㅁ": 6182,
  "ㅂㅗㅇ</w>": 4151,
  "ㄱㅜㄱㅡㄹ": 5405,
  "ㅇㅏㅍㅇㅔㅅㅓ</w>": 4177,
  "ㅅㅔㅅㅏㅇ": 1967,
  "ㅎㅏㄱㅅㅐㅇㄷㅡㄹㅇㅢ</w>": 9997,
  "ㄱㅗㅇㅇㅠㅎㅏㄱㅣ</w>": 14676,
  "ㅇㅣㄱㅣㄴㅡㄴ</w>": 14548,
  "ㄴㅏㅁ": 515,
  "ㄴㅜㄹㅣ": 3743,
  "ㅇㅢㅎㅚ</w>": 8768,
  "ㅁㅏㄴㅇㅡㄹㅗㄷㅗ</w>": 8228,
  "ㅇㅣㄴㅓ": 11309,
  "ㅅㅏㅇㅠ": 3850,
  "ㅌㅣㅂㅡ": 13270,
  "ㅁㅗㄱ": 589,
  "ㄷㅗㅇㅈㅏㄱ": 5158,
  "Dev": 13115,
  "ㅊㅗㅇㅎㅚ</w>": 10961,
  "ㅉㅗ": 6068,
  "ㅇㅕㄱㅅㅏㅇㅢ</w>": 12174,
  "ㅂㅣㅈㅡㄴㅣㅅㅡ</w>": 3668,
  "ㅈㅗㅇㅅㅏ": 9442,
  "15ㄴㅕㄴ</w>": 15006,
  "ㅍㅕㅇㅇㅑㅇ": 10104,
  "ㅅㅣㄴㅅㅗㄱㅎㅏㄱㅔ</w>": 14539,
  "ㅎㅏㄴㄱㅜㄱ</w>": 1412,
  "ㅅㅑㅇㅗ": 16027,
  "ㅈㅏㄱㅣㄱㅏ</w>": 8175,
  "ㅅㅜㄹㅕ": 12042,
  "ey": 9063,
  "ㄱㅗㅇㅈㅏㄱ": 16161,
  "ㅁㅗㅂㅏㅇㅣㄹ</w>": 2162,
  "E": 30,
  "Vide": 12984,
  "ㅇㅘㄷㅗ</w>": 14011,
  "ㅅㅓㄴㅇㅔㅅㅓ</w>": 10096,
  "ㅂㅗㄴㅅㅏ</w>": 12909,
  "ㄱㅗㅇㅎㅓㄴ": 14916,
  "ㄱㅡㄹㅓㅎㄱㅔ</w>": 1658,
  "ㅂㅣㅈ": 6680,
  "ㅈㅗㄹㅖ": 14274,
  "ㅅㅣㄴㅇㅣㅂ</w>": 11472,
  "ㅁㅐㄱㅈㅜ</w>": 9532,
  "ㅈㅗ</w>": 938,
  "ㄷㅣㅈㅏㅇㅣㄴㅓ": 10332,
  "ㄷㅐㅈㅜㅇ": 3237,
  "ㅜㄹㅣ": 12014,
  "ㄷㅣㅈㅏㅇㅣㄴㅇㅣ</w>": 15522,
  "ㅇㅣㄴㅅㅐㅇ": 2973,
  "ally</w>": 15114,
  "ㅇㅣㅆㅈㅣ</w>": 2345,
  "ㅇㅏㄴㅊㅓㄹ": 8498,
  "ㄷㅡㄹㅣㅁㅕ</w>": 13334,
  "ㄱㅡㄱㅓㄹ</w>": 6185,
  "ㅇㅝㄴㅇㅣㄴㅇㅡㄹ</w>": 13069,
  "ㄱㅡㄹㅣㄴ</w>": 6056,
  "Studio</w>": 13062,
  "ㅌㅗㄱ</w>": 5575,
  "ㅎㅐㅇㅘㅆㄷㅏ</w>": 13295,
  "ㅅㅣㅁㅕㄴ</w>": 1746,
  "ig": 1699,
  "ㅍㅔㅇㅣㄴ</w>": 4613,
  "ㅂㅕㄹㄷㅗㅇㅢ</w>": 5555,
  "ㅅㅓㅁㅇㅠ": 11863,
  "ㅇㅕㄴㅇㅢ</w>": 12332,
  "ㅇㅣㄹㅂㅗㄴ": 1261,
  "ㅎㅏㅇㅣㅌㅣㄴ</w>": 14426,
  "ㅇㅜㄱ": 9762,
  "ㅅㅣㄱㅏ</w>": 5977,
  "ㅈㅓㄱㄱㅡㄱㅈㅓㄱㅇㅡㄹㅗ</w>": 7790,
  "ㅋㅔㄴ": 10707,
  "ㅎㅏㄴㅇㅣ</w>": 16214,
  "ㅅㅓㅇㄱㅜ</w>": 12099,
  "ㅎㅘㄱ</w>": 9099,
  "ㅇㅘㅅㅓ</w>": 4234,
  "ㅇㅛㅊㅓㅇㅎㅏㄹ</w>": 15821,
  "ㅎㅢㄴㅅㅐㄱ</w>": 15899,
  "ㄸㅗㄱㄸㅗㄱ": 12657,
  "ㅈㅏㅇㅇㅡㄹㅗ</w>": 4383,
  "ㅊㅚㅊㅗ</w>": 6792,
  "ㅇㅣㄱㅅㅡㅍㅣ": 13537,
  "1ㄱㅐ</w>": 3588,
  "ㄷㅐㄴㅅㅡ</w>": 11521,
  "ㅅㅓㄴㅏ</w>": 6937,
  "ㅎㅏㄱㅂㅜ</w>": 12112,
  "ㅎㅐㅋㅣㅇ</w>": 14068,
  "ㅅㅏㄴㅇㅔ</w>": 9242,
  "ㅇㅓㅄㄷㅏㅁㅕㄴ</w>": 9284,
  "ㅊㅜㅈㅣㄴ</w>": 7307,
  "ㅁㅏ</w>": 1019,
  "000ㅇㅝㄴ</w>": 6948,
  "k</w>": 195,
  "oc": 2963,
  "ㅇㅏㅈㅜ": 4464,
  "ㄹㅣㅂㅠㄹㅡㄹ</w>": 12794,
  "1ㄱㅐ": 14217,
  "ㅇㅣㅁㄷㅐ</w>": 15993,
  "ㅇㅝㄴㄱㅕㄱ</w>": 13999,
  "ㅁㅜㄹㅇㅣ</w>": 2543,
  "ㅁㅜㄹㅡㅍ": 10837,
  "ㅈㅓㅁㅅㅜ</w>": 10352,
  "43": 12422,
  "ㅍㅣㅇ": 1281,
  "XX": 5596,
  "ㅈㅜㅎㅐㅇ</w>": 12017,
  "ㅈㅕㅆㄱㅗ</w>": 9737,
  "ㄴㅣㄹㅏ</w>": 9863,
  "ㅍㅗㅎㅏㅁㅎㅏㄴㅡㄴ</w>": 9487,
  "ㅅㅓㅇㅇㅔ</w>": 2092,
  "ㅂㅓㄴㅇㅕㄱ": 3620,
  "ㄷㅚㄴㅣ</w>": 11670,
  "ㅋㅗ</w>": 1646,
  "ㅊㅓㄹㅎㅏㄱ</w>": 8316,
  "ㅈㅓㅇㅇㅢ": 2974,
  "ㅎㅏㄴㅏㄴㅣㅁㄲㅔㅅㅓ</w>": 10268,
  "ㄱㅐㅇㅣㄴㅈㅓㅇㅂㅗ": 3754,
  "ㅁㅗㄹㅡㄴㅡㄴ</w>": 4350,
  "ㄴㅗㅍ": 953,
  "ㄱㅕㅇㅎㅓㅁㄱㅘ</w>": 15728,
  "ㅈㅏㅁㅏㅈㅏ</w>": 8957,
  "ㅇㅡㅇ": 1027,
  "ㅁㅏㄴㄷㅡㄹㅇㅓㅆ": 13831,
  "ㅂㅗㄹㅕㄱㅗ</w>": 14041,
  "tive</w>": 7951,
  "ㄱㅣㅃㅡㅁ": 11539,
  "ㅇㅗㄻㄱㅕ": 8691,
  "ㅇㅓㅂ</w>": 837,
  "ㅇㅏㄴㅏㄹ": 13507,
  "ㅅㅑㅇㅝ": 10989,
  "ㅁㅜㅅㅓㅇㅜㄴ</w>": 12496,
  "ㄷㅚㅇㅓㅅㅓ</w>": 8936,
  "ㅌㅣㅅㅕㅊㅡ</w>": 8906,
  "ㅁㅗㅈㅣㅂ": 5800,
  "ㅈㅣㅍ": 9964,
  "ㅁㅓㄱㅇㅓ": 9984,
  "ㅅㅣㄱㅏㄴㄷㅏㅇ</w>": 6071,
  "ㅂㅗㅇㅏ</w>": 14393,
  "ㅇㅗㄹㅗㅈㅣ</w>": 13757,
  "ㅂㅡㄹㅜ": 12070,
  "ㄲㅏㄹㄲㅡㅁㅎㅏㄴ</w>": 14570,
  "ㅊㅏㅇㅝㄴㅇㅢ</w>": 14789,
  "Bunker</w>": 11673,
  "ㅁㅗㄷㅔㄹㄹㅗ</w>": 14839,
  "ㄷㅗㄱㅌㅡㄱㅎㅏㄴ</w>": 7028,
  "ㄴㅗㅎㄱㅗ</w>": 3443,
  "ㅈㅓㅇㄱㅠ": 4337,
  "ㅇㅏㄴㅅㅣㅁ": 9308,
  "ㅈㅡㄴㅡㄴ</w>": 9216,
  "ㅂㅘㅇㅑ": 9940,
  "ㅈㅓㅇㅇㅝㄴ": 15796,
  "ㅎㅚㅇㅔㅅㅓ</w>": 5412,
  "ㅎㅣㅁㄷㅡㄹ": 3378,
  "ㅁㅓㅁㅊㅜ": 7840,
  "ㅅㅡㅇㅟㅊㅣ</w>": 13870,
  "ㅇㅣㄹㅅㅏㅇ</w>": 8032,
  "ㅈㅣㄴㄷㅗㅇ": 16141,
  "ㄴㅡㄴㅈㅣ</w>": 1844,
  "ㅊㅣㄹㅗ</w>": 13945,
  "ㄷㅏㄹㅋㅗㅁㅎㅏㄴ</w>": 14384,
  "ㅈㅜㄴㅂㅣㄷㅚㅇㅓ</w>": 10045,
  "iP": 14546,
  "ㅍㅏㄴㅇㅡㄴ</w>": 15780,
  "ㅂㅜㄴㄷㅏㅇ": 13723,
  "ㄱㅕㅇㅇㅜㄷㅗ</w>": 5265,
  "ㄷㅙㅆㄷㅏㄱㅗ</w>": 13674,
  "ㅈㅗㅁㄷㅓ</w>": 7713,
  "ㅌㅔㅋㅡ": 6108,
  "ㅎㅕㅇㅅㅣㄱㅇㅡㄹㅗ</w>": 11734,
  "ㄷㅏㄺ": 6023,
  "Park</w>": 10527,
  "M": 38,
  "ㅅㅔㅇㅣ</w>": 13309,
  "ㅁㅏㄶㅇㅣ</w>": 908,
  "ㅈㅣㅂㅈㅜㅇ": 2919,
  "ㅅㅣㅈㅓㅁ": 12966,
  "ㅊㅓㅅㅉㅐ</w>": 7530,
  "ㄽ": 95,
  "ㄱㅣㅁㅂㅕㅇ": 14725,
  "ㅍㅡㄹㅗㅇㅑㄱㅜ</w>": 14235,
  "ㅇㅝㄴㅎㅘㄹㅎㅏㄴ</w>": 14612,
  "ㅎㅐㅇㅂㅗㄱ</w>": 11165,
  "ㅈㅓㄴㅌㅗㅇ": 3181,
  "ㅇㅣㅌㅡㄹ</w>": 14102,
  "ㄹㅣㅇㅋㅡ</w>": 4702,
  "ㅇㅣㅅ": 3323,
  "ㄱㅡㄹㅐㅇㅑ</w>": 14374,
  "ㄷㅏㅁ": 760,
  "ㅇㅣㅇㅠㄹㅡㄹ</w>": 8398,
  "6ㄱㅐㅇㅝㄹ</w>": 8643,
  "ㅅㅜㄴㅇㅡㄹㅗ</w>": 11728,
  "ㅈㅕㄴ": 7400,
  "ㅁㅓㄱㅇㅡㅁㅕㄴ</w>": 9019,
  "ㄱㅜㅅ": 9482,
  "ㅇㅔㄱㅔ</w>": 672,
  "ㅂㅓㅂㅇㅣㄴ</w>": 6578,
  "ㅇㅣㅁㅅㅣㄴ": 9022,
  "ㅈㅔㄱㅏ</w>": 1128,
  "ㅇㅢㅇㅝㄴ</w>": 4376,
  "ㄱㅏㄹㄷㅡㅇ": 13857,
  "ㅇㅣㄷㅓㄴ</w>": 13003,
  "ㅎㅗㄴㅡㄴ</w>": 9862,
  "ㅇㅓㄷㅗ</w>": 2073,
  "ㅅㅜㄱㅏㅇ": 5814,
  "ㅁㅜㄴㅈㅔㅈㅓㅁㅇㅡㄹ</w>": 14198,
  "ㅇㅝㄹㅇㅛㅇㅣㄹ</w>": 13337,
  "ㅎㅏㅇㅕ": 921,
  "ㅇㅕㄱㅣㅇㅔㅅㅓ</w>": 11965,
  "ㅎㅐㅈㅜㄴㄷㅏ</w>": 11355,
  "ㅣ": 133,
  "ㅎㅏㅇㅕㅆㅇㅡㄹ</w>": 13763,
  "ㅂㅏㄲㅇㅢ</w>": 7778,
  "ㄴㅏㄹㅇㅔ</w>": 7066,
  "ㅂㅜㄴㅇㅑ": 2124,
  "ㅂㅏㄺㅎㅕ": 1928,
  "ㄷㅙㅅㅓ</w>": 15408,
  "ㅇㅗㄹㅎㅐ": 5026,
  "ㅇㅗㄴㄷㅗㅇㅣㅂㄴㅣㄷㅏ</w>": 12719,
  "ㄹㅣㅇ": 1642,
  "ㅅㅣㄹ</w>": 642,
  "ㅆㅡㄹㅓ": 10286,
  "ㅁㅏㄴㄷㅡㄹㅇㅓ": 1849,
  "ㄷㅐㅇㅡㅇ": 4277,
  "ㅍㅣㄱㅠ": 16241,
  "ㅈㅜㄹㅗ</w>": 2735,
  "ㅇㅓㄷㅣㅇㅔ</w>": 9167,
  "ㅔㄴㅌㅡ</w>": 15727,
  "ㅅㅣㄹㄴㅐ</w>": 8240,
  "ㅈㅣㄹㄱㅘ</w>": 15840,
  "1ㅇㅟ</w>": 3347,
  "ㅇㅟㄹㅗ": 16318,
  "ㄱㅏㅇㅑ": 7005,
  "ev": 5155,
  "ㅆㅡㄹㅣ</w>": 15345,
  "4ㅇㅣㄹ</w>": 6102,
  "put</w>": 15559,
  "ㅇㅝㄴㅍㅣㅅㅡ</w>": 7272,
  "ㅇㅢㄹㅛ</w>": 8113,
  "ㅊㅜㅇㄱㅕㄱㅈㅓㄱㅇㅣㄴ</w>": 15609,
  "ㅇㅕㄴㄹㅕㅇ": 8916,
  "C": 28,
  "ㅇㅣㅈㅔㄴ</w>": 6793,
  "ㄱㅣㅁㅅㅓㄴ": 15130,
  "ㅇㅣㅂㄹㅕㄱㅎㅏㅅㅔㅇㅛ</w>": 14746,
  "ㅇㅣㅁㅅㅣㄴ</w>": 10449,
  "ㅎㅐㅆㅇㅓㅆㄴㅡㄴㄷㅔ</w>": 12713,
  "ㅅㅏㅇㅍㅜㅁㅇㅢ</w>": 5772,
  "ay</w>": 2466,
  "ㄱㅗㅅㅇㅣㅂㄴㅣㄷㅏ</w>": 11678,
  "ㅈㅣㄹㅇㅢ": 14586,
  "ㅅㅓㄴㄱㅗ": 15569,
  "ㅇㅢㅁㅣㅎㅏㄴㄷㅏ</w>": 10254,
  "ㅇㅖㅂㅐ": 10221,
  "ㅁㅗㅎㅕㅇ</w>": 12051,
  "ㅇㅕㄴㄱㅣ</w>": 11097,
  "s": 73,
  "ㅈㅓㄱㅇㅓ": 10846,
  "ㅅㅗㄴㅇㅔ</w>": 6603,
  "ㅇㅟㄱㅣㅇㅔ</w>": 15429,
  "ㄱㅛㅌㅗㅇ": 3326,
  "ㅋㅡㄹㅜㅈㅡ</w>": 16094,
  "ㅍㅡㅌㅡ</w>": 6678,
  "ㄷㅐㅅㅏㅇㅇㅣ</w>": 8832,
  "ㅎㅘㄴㄱㅕㅇㅇㅔ</w>": 8524,
  "ㅇㅣㅇㅛㅇㅇㅔ</w>": 8390,
  "ㅇㅣㅎㅏ": 3701,
  "ㅅㅠㅍㅓ</w>": 9963,
  "ㅅㅗㄱㅐㅎㅐ</w>": 15313,
  "EU</w>": 15722,
  "9ㄴㅕㄴ</w>": 3364,
  "ㅇㅓㄸㅓㄴ</w>": 963,
  "ㅁㅔㅁㅗ": 6157,
  "ㅈㅜㅇㅓㅆ": 15196,
  "ㅈㅡㅇㅇㅡㄴ</w>": 14280,
  "ㅏㄱ": 1913,
  "ener": 8907,
  "ㅍㅕ": 1376,
  "ire</w>": 12128,
  "ㄱㅜㄴㅇㅡㄴ</w>": 8381,
  "r</w>": 172,
  "ㅂㅓㄱ": 8876,
  "ㅈㅣㅂㄷㅏㄴ</w>": 8063,
  "ㄱㅕㅇㅈㅔㅈㅓㄱ</w>": 7019,
  "ㅅㅓㅂㅣㅅㅡㄹㅡㄹ</w>": 1834,
  "ㅇㅕㅇㅅㅏㅇㅇㅡㄹ</w>": 4971,
  "ㅈㅓㄹㅂㅏㄴ": 11645,
  "3ㅋㅣㄹㄹㅗㅁㅣㅌㅓ": 14419,
  "ㅅㅏㄴㅣ": 4851,
  "ㄴㅏㅇㅗㄴ": 15458,
  "mar": 6562,
  "ㅎㅑㅇㅇㅡㄹ</w>": 7895,
  "ㄱㅜㄷㅗㅇ": 14786,
  "ㅈㅏㅁ</w>": 14377,
  "ㄴㅏㄴㅜㅇㅓ</w>": 9443,
  "ㅅㅣㅍㅇㅡㄴㄷㅔ</w>": 9537,
  "ach": 6093,
  "ㅍㅐ": 692,
  "port": 11308,
  "ㄱㅜㅊㅔㅈㅓㄱㅇㅣㄴ</w>": 7698,
  "ㅆㅇㅓ</w>": 11658,
  "ㅈㅣㄱㅣ</w>": 6013,
  "ㅇㅖㄱㅗ": 8745,
  "ㄱㅔㅅㅣㅍㅏㄴㅇㅔ</w>": 15466,
  "ㄱㅝㄴㅎㅏㄴ": 4206,
  "ㄱㅗㄹ</w>": 4508,
  "ㄹㅏㅇㅜㄴㄷㅡ</w>": 7802,
  "P": 41,
  "ㅇㅖㅈㅓㄴ": 13906,
  "is": 1258,
  "ㅇㅣㅇㅓㅈㅣㄹ</w>": 15841,
  "ㅅㅜㄱㅏ</w>": 1328,
  "ㅇㅞㅇㅓ</w>": 8830,
  "ㅂㅣ</w>": 887,
  "ㄲㅏㅁ": 4879,
  "ㅈㅗㅇㅔ</w>": 7117,
  "ㄱㅐㄱㅅㅣㄹ</w>": 2975,
  "ㅍㅔㅌㅣㅅㅟ</w>": 9966,
  "ㄷㅗㅅㅣ": 2126,
  "ㅇㅣㄴㅁㅜㄹ": 6086,
  "ㅇㅣㅅㅏ": 6962,
  "ㄴㅏㅁㅏㄴㅇㅢ</w>": 11574,
  "ㅊㅜㅇㄱㅕㄱ</w>": 14288,
  "2ㅎㅚ</w>": 9666,
  "ㅂㅗㄲ": 7085,
  "ㅁㅜㄹㅕ": 12103,
  "ㅂㅜㄹㅇㅏㄴ": 4674,
  "14</w>": 2663,
  "ㄱㅗㄷㅡㅇ": 3111,
  "ㅇㅓㄱㅇㅝㄴㅇㅡㄹ</w>": 16003,
  "ㅅㅏㄹㅏㅇㅎㅏㄴㅡㄴ</w>": 4676,
  "ㅍㅡㄹㅣㅁㅣㅇㅓㅁ</w>": 7138,
  "ㄷㅗㅇㄱㅖ": 8520,
  "ㅂㅓㄴㅇㅡㄹ</w>": 11808,
  "ㅈㅓㄱㅈㅓㄹㅎㅏㄴ</w>": 5547,
  "ㄴㅏㅇㅛ</w>": 1833,
  "sec": 10952,
  "ㄸㅡㄹㅣ": 7052,
  "ㅇㅗㅎㅣ": 2950,
  "ㅏㄹㅣ</w>": 8842,
  "ㅅㅏㅇㅌㅐㅇㅔㅅㅓ</w>": 6778,
  "ㅇㅕㄱㅎㅏㄹㅇㅡㄹ</w>": 3203,
  "ㅇㅔㅇㅛ</w>": 2822,
  "ㄷㅗㅈㅓㄴ</w>": 6776,
  "ㅁㅏㄶㄷㅏ</w>": 3506,
  "ㅅㅡㅍㅔㅇㅣㄴ</w>": 7067,
  "ㅅㅣㄹㅇㅔ</w>": 6955,
  "pos": 7770,
  "ㅈㅏㄶㅇㅏ</w>": 8536,
  "ㅁㅜㄴㅈㅔ</w>": 1925,
  "ㅅㅏㅇㅛㅇㅎㅏㄴ</w>": 7453,
  "ㄹㅠㄹㅇㅡㄹ</w>": 9723,
  "Sk": 11635,
  "ㅂㅣㄹㅡㄹ</w>": 3093,
  "ㅅㅡㅂ</w>": 2044,
  "ㅈㅓㅈㅏㄱㅁㅜㄹㅇㅡㄹ</w>": 3295,
  "ㅇㅓㄹㅡ": 10578,
  "ㄱㅕㄹㄹㅗㄴ</w>": 14144,
  "ㅍㅐㄱ</w>": 6711,
  "ㅇㅣㅎㅐㄹㅡㄹ</w>": 10355,
  "ㅈㅓㄱㅓㅅ</w>": 14428,
  "ㄷㅏㅇㅅㅣㄴㅇㅡㄴ</w>": 3646,
  "ㅋㅡㄴㅇㅓㅇㄷㅓㅇㅇㅣ</w>": 8022,
  "ㅂㅏㄷㅅㅡㅂㄴㅣㄷㅏ</w>": 10503,
  "ㅈㅗㄴ</w>": 1899,
  "ㅂㅜㄹㄱㅏ</w>": 8287,
  "ㅎㅐㅅㅓㄴ</w>": 9521,
  "ㅈㅓㄴㅇㅡㄴ</w>": 8619,
  "ㅂㅜㄱ</w>": 1516,
  "ㅋㅓㅅㅡ</w>": 12049,
  "ㅅㅣㅁㅇㅡㄴ</w>": 12464,
  "ㅊㅜㄱㅈㅓㄱㄷㅚㄴ</w>": 7968,
  "ㅈㅜㄴㄷㅏㄴㅡㄴ</w>": 15908,
  "ㅅㅓㄹㅠ": 5699,
  "ㅋㅗㅌㅡ</w>": 9512,
  "ㅈㅣㄴㅊㅜㄹ": 4643,
  "ㅅㅣㅁㅣㄴ</w>": 8081,
  "ㄷㅗㅇㅅㅓㅇㅇㅐ": 11244,
  "ㅋㅓㄴㄷㅣ": 13821,
  "ㄱㅏㄴㅎㅗㄱ</w>": 14835,
  "ㅅㅣㅈㅡㄴ</w>": 2447,
  "ㄱㅡㄹㅣㅅㅡ": 3235,
  "ㄴㅏㅃㅡㄴ</w>": 5457,
  "ㅅㅕㄴㅇㅡㄹ</w>": 2804,
  "89": 12671,
  "ㄱㅛㅅㅏ": 10493,
  "ㅅㅣㄹㅅㅓㄴ</w>": 15329,
  "ㅌㅔㅁ": 7376,
  "ㅋㅏㅈㅣㄴㅗ</w>": 2315,
  "ㅈㅜㅁㅜㄴㅇㅣ</w>": 9280,
  "ㄷㅗㅇㅣㅂ": 4450,
  "ㅅㅣㄱㅏㄴㅇㅣ</w>": 1901,
  "ㅇㅏㅇㅣㅋㅗㄴ": 9586,
  "ㄹㅑㄱ</w>": 5835,
  "ㄴㅓㅇㅢ</w>": 6978,
  "ㅊㅗㅇㄹㅣ</w>": 14992,
  "ㄹㅕㅁㅕㄴ</w>": 3767,
  "ㅁㅏㄴㅁㅏㄴ": 14885,
  "ㄴㅡㅇ</w>": 1073,
  "ㄸㅗㄱㄱㅏㅌㅇㅣ</w>": 11427,
  "ㅍㅛㅎㅕㄴㅎㅏㄴㅡㄴ</w>": 16075,
  "ㄴㅡㄴㄱㅔ</w>": 3386,
  "ㅅㅗㅇㅘ</w>": 6121,
  "stor": 16134,
  "ㅁㅕㅇㅍㅜㅁ": 14246,
  "ㅅㅐㄱㅇㅢ</w>": 10579,
  "ㅈㅣㄴㅎㅐㅇ</w>": 2980,
  "ㄲㅙ</w>": 4057,
  "ㅇㅣㄴㄱㅗㅇ": 2966,
  "ㅁㅗㅁㅇㅣ</w>": 6728,
  "r": 72,
  "ㅇㅜㅅㅓㄴ": 5238,
  "ㄱㅗㅂ": 7771,
  "ㄸㅐㄴ</w>": 6433,
  "ㅅㅜㅎㅏㄴ</w>": 7131,
  "ㅇㅏㄴ</w>": 663,
  "ㅇㅣㅆㅇㅓㄷㅗ</w>": 9163,
  "ㅂㅜㄴㅎㅏㄹ</w>": 14763,
  "ㄱㅏㄹㅡㅊㅕ": 16267,
  "ㅅㅓㄴㅌㅐㄱㅇㅣ</w>": 14163,
  "ㄱㅓㄴㄴㅓ": 9198,
  "ㅇㅑㅁㅏㄹㄹㅗ</w>": 11307,
  "ㅅㅓㄴㅈㅓㅇ</w>": 5458,
  "ㅎㅘ</w>": 623,
  "br": 11793,
  "ㄹㅔㅅㅡㅌㅗㄹㅏㅇ</w>": 5069,
  "ㅇㅏㄴㄴㅕㅇㅎㅏㅅㅔㅇㅛ</w>": 2979,
  "ㅇㅏㄹㅡㅁㄷㅏㅇ": 5960,
  "Ang": 13940,
  "1ㅊㅓㄴ": 9395,
  "ㅇㅣㅆㅇㅡㅁㅇㅡㄹ</w>": 5720,
  "ㄴㅣㅁㄲㅔㅅㅓ</w>": 5226,
  "ㅅㅏㅅㅣㄹㅅㅏㅇ</w>": 7080,
  "Point</w>": 13051,
  "ㅂㅘㅇㅑ</w>": 4834,
  "ㅌㅡ": 384,
  "2color</w>": 15379,
  "ㅅㅜㅎㅘ": 13659,
  "ㅂㅏㅂㅇㅡㄹ</w>": 8372,
  "ㅆㅜㄱ": 16202,
  "ㅊㅓㄹㅣㅎㅐ</w>": 3369,
  "ㅁㅜㄹㅍㅜㅁ": 14197,
  "ㄱㅏㅇㅜㄴ": 2132,
  "ㅊㅗㄱㅗ": 10734,
  "color</w>": 6348,
  "ㅈㅓㅁㅇㅣ</w>": 1883,
  "ㅇㅕㄹㅇㅓ</w>": 9820,
  "ㅋㅣㅈㅡ": 15410,
  "ㅈㅓㄴㅁㅜㄴ": 1298,
  "ㄱㅝㄴㅎㅏㄴㅇㅣ</w>": 8282,
  "ㄹㄹㅓ</w>": 11299,
  "ㅈㅜㅇㅘ</w>": 9832,
  "ㅈㅜㅇㅢㅈㅓㄱ</w>": 13076,
  "ㄲㅡㅁㅉㅣㄱ": 15558,
  "ㅇㅑㄱㅜ</w>": 7959,
  "ㄷㅚㅇㅓㅆㄷㅏㄱㅗ</w>": 8431,
  "ㄴㅗㅍㅇㅏㅈㅣㄱㅗ</w>": 16160,
  "FC</w>": 7484,
  "ㄱㅣㅇㅓㅂㅇㅡㄹ</w>": 12277,
  "ㅁㅜㄹㅡㅍ</w>": 16176,
  "ㄴㅕㅇ</w>": 14371,
  "ㅎㅚㅅㅏ</w>": 2257,
  "ㅌㅡㄹㅗ</w>": 3826,
  "ㅂㅓㅂㄱㅘ</w>": 8901,
  "ㅇㅡ": 267,
  "ㄴㅏㄹㅏ": 3666,
  "ㅈㅓㄴㅅㅣ": 3332,
  "ㅍㅗㄹㅓㅁ</w>": 9312,
  "ㅁㅣㅇㅑ": 11828,
  "ㅇㅑㅇㄷㅗ": 15163,
  "ㄲㅐㄲㅡㅅㅎㅏㄱㅗ</w>": 11096,
  "ㅋㅐㅁㅍㅡ</w>": 8450,
  "ㅎㅕㄱ": 1524,
  "ㅈㅓㅇㄷㅗ</w>": 1602,
  "ㅇㅠㄹㅛ": 9787,
  "ㅂㅓㄴㅇㅕㄱ</w>": 6617,
  "ㅎㅐㅇ": 401,
  "ㅂㅜㄴㅁㅕㅇㅎㅏㄴ</w>": 14005,
  "ㄸㅟㅇㅓㄴ": 13491,
  "ㅈㅓㄴㅁㅕㄴ": 16083,
  "ㅋㅜㅋㅣ</w>": 8913,
  "ㄴㅏㅁㄱㅕ": 4173,
  "ㄷㅣㅇㅗ": 5269,
  "ㅊㅐㅁㅍㅣㅇㅓㄴㅅㅡㄹㅣㄱㅡ</w>": 16068,
  "ㅅㅏㅇㅌㅐㄱㅏ</w>": 8440,
  "ㅂㅏㅇㅔ</w>": 12733,
  "ㄲㅏㅈㅣ</w>": 648,
  "ㄱㅏㅌㅇㅡㄴ": 6312,
  "ㅊㅔㅇㅣ": 3896,
  "ㄱㅘㅁㅗㄱ</w>": 10733,
  "ㄷㅏㅂㅇㅡㄴ</w>": 16155,
  "ㅇㅓㄴㄴㅣ</w>": 16236,
  "ㅎㅜㅂㅏㄴ</w>": 11979,
  "API</w>": 12503,
  "ㅋㅓㄴㅍㅓㄹㅓㄴ": 10828,
  "ㅈㅣㅁㅕ</w>": 10487,
  "ㅅㅡㅂ": 843,
  "ㅅㅣㄴ</w>": 719,
  "ㅇㅕㄱㅇㅡㄹㅗ</w>": 13271,
  "ㄱㅘㄴㅅㅣㅁㅇㅡㄹ</w>": 3661,
  "ㅁㅓㄱㅇㅓㅇㅑ</w>": 15893,
  "ㅎㅏㅅㅣ": 835,
  "ㄱㅠㅁㅗㅇㅢ</w>": 8333,
  "ㅎㅕㅇㅈㅔ</w>": 13965,
  "ㅏㄴㅣ": 1176,
  "ㅇㅏㅇㅣㄷㅡㄹㄱㅘ</w>": 14175,
  "ㅅㅜㅇㅓㅂ": 4434,
  "ㅁㅔㅌㅏ": 13946,
  "ㅇㅛㅊㅓㅇ</w>": 5212,
  "ㅅㅐㅇㅁㅕㅇㅇㅡㄹ</w>": 10997,
  "ㄱㅣㅁㅊㅣ</w>": 13585,
  "ㄱㅡㄷㅐ</w>": 14295,
  "Or": 8740,
  "ㅁㅣㅌㅣㅇ": 16304,
  "ㅇㅕㅅㅓㅇ": 1666,
  "ㅇㅔㅇㅢ</w>": 11087,
  "ㄱㅏㄴㅡㄴ</w>": 1033,
  "ㄱㅐㄴㅕㅁㄱㅘ</w>": 12923,
  "ㄱㅡㄹㅓㄹ</w>": 6290,
  "ㄷㅐㄹㅑㅇ": 15738,
  "ㄴㅓㅎㅢ": 5409,
  "ㅓㅅㅡ</w>": 8739,
  "ㄸㅏㄹ": 614,
  "ㅇㅣㄹㅂㅏㄴ</w>": 2656,
  "ㅊㅜㅇㅊㅓㅇ": 9777,
  "ㅍㅡㄹㄹㅐㅅㅍㅗㅁ</w>": 7155,
  "ㄷㅐㅎㅚ</w>": 2765,
  "ㅈㅓㅇㅎㅐㅈㅣㄴ</w>": 11454,
  "ㅇㅣㅎㅜㅇㅢ</w>": 12892,
  "ㄷㅓㄱㅜㄴㅇㅛ</w>": 3677,
  "ㅂㅣㅇ": 3926,
  "ㄴㅕㄴㅇㅔ</w>": 2451,
  "ㅇㅡㅁㅅㅣㄱㅇㅡㄴ</w>": 10914,
  "ㅇㅓㄱㅏ</w>": 3927,
  "SS</w>": 9303,
  "ㅍㅗㄱㅜ</w>": 9215,
  "ㅅㅟㅂㄱㅔ</w>": 1597,
  "ㄹㅗㅇㅔ</w>": 11441,
  "ㅋㅗㄹ</w>": 7108,
  "ㅎㅚㄱㅘㄴ</w>": 12533,
  "ㄹㄹㅓ": 1457,
  "ㅇㅏ</w>": 548,
  "ㄷㅡㅇㄱㅡㅂ": 6158,
  "ㅅㅡㅇㅢ</w>": 1817,
  "ㅍㅜㄹ</w>": 4656,
  "ent": 2147,
  "ㅂㅡㄹㄹㅜㅌㅜㅅㅡ</w>": 10059,
  "ㅅㅓㄴㅅㅜㄴㅡㄴ</w>": 11803,
  "ㅅㅔㅌㅡ": 15265,
  "ames</w>": 8533,
  "ㅅㅣㄴㅇㅣㄴ": 14953,
  "ㅅㅓㄴㅇㅣㅁ": 13701,
  "ㅎㅕㄴㅇㅣ</w>": 16278,
  "ㅇㅓㅇㅜㄹ": 4349,
  "ㅇㅢㄹㅚ": 11337,
  "ㄹㅗㄱㅡㅇㅣㄴㅇㅡㄹ</w>": 14787,
  "ㅅㅓㄹㄷㅡㄱ": 10243,
  "ㅎㅚㅇㅝㄴㅇㅔㄱㅔ</w>": 11608,
  "ㅅㅓㄹㅗㄴ</w>": 16347,
  "ber</w>": 9722,
  "ㅇㅕㄱㅎㅏㄹ</w>": 6437,
  "ㄷㅜㄹㅕㅇㅝ": 11172,
  "ㄱㅏㅈㅣㄱㅗ</w>": 1170,
  "ement</w>": 10176,
  "ㅜㄹㅗ</w>": 11110,
  "ㅂㅗㄴㅡㄴ</w>": 1434,
  "ㅁㅔㅁㅂㅓ</w>": 12578,
  "ㅅㅟ</w>": 4005,
  "ㅎㅚ": 387,
  "ㅂㅗㅇㅅㅏ": 4351,
  "ㅁㅣㄹㄹㅣㅁㅣㅌㅓㅇㅣㅎㅏㄹㅗㄴㅡㄴ</w>": 10654,
  "ear": 4759,
  "ㅂㅏㅇㅁㅜㄴ": 1774,
  "ㄱㅗㅇㄱㅐ": 2125,
  "ㅈㅓㄹㅇㅑㄱ</w>": 9553,
  "ㅅㅏㅅㅣㄹㅇㅡㄹ</w>": 3433,
  "ㅁㅏㄴㄷㅡㅂㄴㅣㄷㅏ</w>": 15151,
  "ㄱㅡㄹㅓㄷㅏ</w>": 12481,
  "og": 4317,
  "ㅁㅏㄹㅎㅐㅆㅅㅡㅂㄴㅣㄷㅏ</w>": 15412,
  "ㅈㅣㄴㅅㅣㄹㅅㅓㅇㅇㅔ</w>": 5340,
  "ㅂㅕㅇㅇㅝㄴ</w>": 3370,
  "ㅇㅣㅀ": 3114,
  "ㄹㅏㄴ</w>": 1975,
  "ㄱㅓㄹㅡㄹ</w>": 15726,
  "ㅊㅗㅇ": 969,
  "ㅂㅜㅍㅜㅁ</w>": 9068,
  "ㄹㅓㄴ</w>": 2871,
  "ㅅㅜㅈㅜㄴㅇㅣ</w>": 14069,
  "ㅕㄴ</w>": 328,
  "ㄹㅓㅁ": 9065,
  "ㅈㅜㄴ": 633,
  "ㅇㅣㅈㅏ</w>": 3524,
  "ㄷㅣㅈㅣㅌㅓㄹ</w>": 3591,
  "ㄱㅗㅇㄱㅏㄴㅈㅓㄱ</w>": 15984,
  "ㄷㅚㅇㅓ</w>": 798,
  "ㅊㅗㄱ</w>": 13485,
  "ㅕㄱㅗ</w>": 6287,
  "ㅅㅏㅇㅝㄴ</w>": 8538,
  "ㄴㅏㄴ": 827,
  "ㅍㅣㅎㅐ": 2569,
  "ㅅㅏㅇㅣㅈㅡㅊㅣㅁㄷㅐ</w>": 10716,
  "ㅇㅣㅇㄱㅡㄹㄹㅐㄴㄷㅡ</w>": 15407,
  "ㅎㅗㅅㅜ</w>": 12386,
  "ㅈㅏㅈㅗㄴ": 10115,
  "ㄴㅡㄴㅈㅣㄴㅡㄴ</w>": 16103,
  "ㅅㅣㄹㅎㅏㄴ</w>": 9739,
  "ㅇㅣㄹㅂㅗ</w>": 4972,
  "ㅇㅣㄹㅜㅇㅓㅈㅣㄴㅡㄴ</w>": 14841,
  "ㅈㅓㅇㅊㅐㄱㄱㅘ</w>": 14993,
  "ㅈㅏㅇㄴㅏㄴ": 3613,
  "ㅋㅗㅅㅡ</w>": 5667,
  ").</w>": 1439,
  "Comm": 12550,
  "ㅎㅐㄱㅅㅣㅁ</w>": 5761,
  "no": 9291,
  "ㄷㅗㅇㅅㅐㅇ</w>": 10936,
  "ㅅㅑㅁ": 11482,
  "ㅅㅣㄹㅂㅓ": 13973,
  "ㅅㅏㅇㅇㅣ</w>": 2879,
  "ㄷㅐㅂㅜㅂㅜㄴㅇㅢ</w>": 3956,
  "ㅇㅏㅅㅣㅇㅏㅇㅢ</w>": 8688,
  "ㄸㅐ": 520,
  "ㄷㅡㄹㅇㅓㅆㅅㅡㅂㄴㅣㄷㅏ</w>": 9804,
  "ㄱㅡㄹㅐㅅㅓ</w>": 1284,
  "ㄷㅡㄹㅁㅕㄴ</w>": 8210,
  "ㅁㅓㄱㅈㅣ</w>": 12052,
  "ㅇㅣㄱㅣ</w>": 2372,
  "ㄱㅡㄴㅁㅜ": 4774,
  "ㅍㅐ</w>": 3619,
  "ㄴㅏㅇㅗㅈㅣ</w>": 9915,
  "ㅊㅐㅁ": 4117,
  "ㄱㅡㄷㅏ": 10000,
  "ㅎㅐㅇㅘ": 12255,
  "ㅑㅇㅇㅣ</w>": 10661,
  "ㄴㅏㅁㅍㅕㄴ</w>": 6495,
  "ㅎㅓㅂㅡ</w>": 15950,
  "ㅂㅏㄹㅅㅏ": 14474,
  "ㅂㅕㄹㄷㅗㄹㅗ</w>": 7345,
  "ㅂㅗㄹㅏ</w>": 9824,
  "ㄷㅡㅅㅎㅏㄴ</w>": 5497,
  "ㅊㅚㄷㅐ": 9908,
  "ㄷㅐㅎㅏㄱ": 1057,
  "ㄱㅕㄹㄱㅘㄹㅗ</w>": 16038,
  "ㅊㅓ": 352,
  "ㅎㅐㅇㅏㄴ": 14376,
  "ㅇㅢㅇㅚㄹㅗ</w>": 14461,
  "ㄴㅜㄱㅜㄴㄱㅏㄱㅏ</w>": 16090,
  "ㅎㅏㄴㅏㄴㅣㅁ": 4262,
  "ㅇㅏㄶㅇㅏㅆㄱㅗ</w>": 12547,
  "ㄷㅏㅇㅣㅇㅓㅌㅡ</w>": 7634,
  "ㅇㅠㅈㅓ": 6519,
  "ㄷㅗㅇㅂㅏㄴ</w>": 15790,
  "ㄶ": 88,
  "ㄷㅣㄹㄷㅗ</w>": 13675,
  "ㅆㅗㄹ": 9672,
  "ㅇㅓㄹㅕㅇ": 1595,
  "ㅊㅓㅇㅡㅁㅇㅔㄴㅡㄴ</w>": 8873,
  "ㄱㅏㅈㅗㄱㅇㅣ</w>": 9410,
  "ㄷㅡㄹㄱㅔ</w>": 13611,
  "W</w>": 228,
  "ㅅㅗㅅㅕㄹㄱㅡㄹㅐㅍㅡ</w>": 5101,
  "ㅂㅏㄹㅣ": 11901,
  "ㅅㅓㅂㅊㅟ": 7370,
  "ㅇㅕㅈㅏ": 2799,
  "ㄴㅓㅁㄱㅕ": 11892,
  "ㄹㅛㄱㅏ</w>": 11954,
  "ㅂㄴㅣㄷㅏㅁㅏㄴ</w>": 4739,
  "ㅇㅜㅁㅇㅣ</w>": 11238,
  "ㅇㅔㄴㅈㅣㄴㅣ": 7774,
  "ㅎㅐㅈㅣㄴ</w>": 4962,
  "ㅌㅜㅅㅜㄱ": 11752,
  "ㅅㅓㅇㅜㄹ": 1153,
  "ㅎㅐㅇㅈㅓㅇㅎㅐㅅㅓㄱ</w>": 11913,
  "ㄴㅜㄹㅡ": 8754,
  "ㅍㅡㄹㄹㅓㅅㅡ": 16193,
  "ㅎㅏㄱㅔ": 1228,
  "ㅇㅣㅆㅇㅓㅇㅑ</w>": 3471,
  "ㄷㅏㄴㅊㅔ": 2752,
  "ㅇㅓㄷㅐ": 15137,
  "ㄱㅕㅌ": 6965,
  "ㅊㅜㄹㅅㅣ": 3423,
  "ㅂㅓㅌㅡㄴ": 7961,
  "ㄱㅡㄹㄹㅗㅂㅓㄹ</w>": 3395,
  "ㅎㅏㄴㄱㅜㄱㅅㅣㄱㅏㄴ</w>": 10814,
  "ㅅㅐㄱㅇㅡㄹㅗ</w>": 7931,
  "ㄱㅜㅁㅐ": 1222,
  "ㅆㄷㅏㅁㅕㄴ</w>": 14636,
  "ㅊㅜㄱ": 807,
  "DS</w>": 14015,
  "ㅊㅜㄴㅡㄴ</w>": 13404,
  "ㅅㅡㅌㅐㄴ": 3735,
  "ㅁㅜㅈㅗㄱㅓㄴ</w>": 6443,
  "ㅇㅕㅇㅇㅜㅇ": 9525,
  "ㅅㅏㅈㅓㅇ": 14140,
  "ㅍㅛㅈㅜㄴ</w>": 6874,
  "ㄴㅏㄴㅡㄴ": 14174,
  "ㄸㅐㄷㅗ</w>": 4804,
  "ㄱㅜㄱㄱㅏ": 2251,
  "ㅔㅇㅣㅌㅡ</w>": 10147,
  "ㅇㅘㅇㅇㅣ</w>": 13274,
  "ㅇㅣㄹㅇㅓㄴㅏ": 3353,
  "ㅈㅗㅎㄷㅏ</w>": 3317,
  "ㅇㅗㄹㅐ</w>": 3641,
  "ㅈㅣㄴ</w>": 585,
  "ㅈㅏㄴ</w>": 6870,
  "ㄹㅣㅁ</w>": 2596,
  "ㅁㅏㄱㄱㅣ</w>": 15082,
  "ㅂㅏㄱ</w>": 1426,
  "ㅈㅏㄱㅣㅅㅗㄱㅐ": 6151,
  "ㅅㅣㅈㅏㅇㅇㅔㅅㅓ</w>": 7124,
  "ㅅㅣㅋㅣㄱㅗ</w>": 5456,
  "ㅎㅡㅇㅁㅣ": 4743,
  "ㅈㅓㅇㅇㅡㄹ</w>": 1173,
  "ㄷㅏㅇㅇㅣㄹ": 11798,
  "ㅋㅗㄴㅌㅔㄴㅊㅡㄹㅡㄹ</w>": 7643,
  "ㅇㅝㄹㅇㅔ</w>": 4599,
  "ㅇㅝㄴㅓ": 11767,
  "ㅁㅏㅊㅣㅁㄴㅐ</w>": 12212,
  "ㅇㅢㄱㅕㄴ": 2707,
  "ㄷㅗㅅㅓ": 3069,
  "ㄱㅓㄱ": 2689,
  "ㅅㅣㅈㅏㄱㅎㅐ</w>": 14436,
  "ㅅㅏㅇㅎㅘㅇㅇㅡㄹ</w>": 5199,
  "ㅂㅐㅅㅗㅇ</w>": 3167,
  "play</w>": 12988,
  "ㅇㅘㅆㄷㅓㄴ</w>": 13368,
  "eㅇㅢ</w>": 8364,
  "ㄱㅣㅁㅅㅏㅇ": 13630,
  "ㅅㅣㅇㅔㄴㅡㄴ</w>": 2597,
  "La</w>": 14605,
  "ㅌㅣㅂ": 13531,
  "ㅅㅏㄱㅣ": 10965,
  "ㄱㅓㄴㅁㅜㄹ": 7629,
  "ㄷㅏㄷㅡㄹ</w>": 6565,
  "ㅎㅐㅇㅢ</w>": 13038,
  "ㅈㅓㅇㅅㅣㄴㅇㅣ</w>": 12853,
  "ㅅㅗㅎㅘㄴ": 15180,
  "ㄷㅐㅅ": 1133,
  "ㅍㅣㄹㅇㅛㅎㅏㅂㄴㅣㄷㅏ</w>": 6927,
  "ㄹㅡ": 1334,
  "ㄱㅗㅇㄱㅗ": 14385,
  "ㅅㅏ</w>": 498,
  "ㄲㅜㅁㅕ": 14588,
  "ㅅㅏㄹㅏㅇㅎㅏㄱㅗ</w>": 15376,
  "ㅅㅐㄹㅗ</w>": 4017,
  "ㅂㅗㅎㅗ</w>": 3339,
  "ㅈㅓㅁㅇㅣㄷㅏ</w>": 6744,
  "ㅈㅜㅈㅔ</w>": 8539,
  "ㅆㅣㅌㅡㄹㅣㅂㅇㅔㅅㅓ</w>": 10688,
  "ㅈㅓㄴㄱㅐ": 8224,
  "ㅎㅘㅇㅣㅌㅡ": 11386,
  "ㅅㅣㄴㅂㅏㄹ</w>": 11159,
  "ㅅㅣㅂㄴㅣㄷㅏ</w>": 14781,
  "13ㅍㅔㅇㅣㅈㅣ</w>": 9884,
  "ㅈㅣㄹㅣ": 8633,
  "ㅊㅓㅇ": 577,
  "ㅇㅛㅇ": 420,
  "ㄷㅐㅎㅏㄱ</w>": 2321,
  "ㅂㅜㅂㅜ</w>": 9036,
  "ㄴㅏㅅㅓ": 4981,
  "ical</w>": 5553,
  "ㅎㅏ": 266,
  "vi": 2289,
  "ub": 2053,
  "ㅊㅜㅊㅜㄹ": 6041,
  "ㅍㅡㄹㄹㅏ": 4144,
  "ㅋㅙㅎㅏㄴ</w>": 12273,
  "ㅁㅕㅇㅎㅘㄱㅎㅏㄱㅔ</w>": 14576,
  "ㅈㅔ6": 12605,
  "ㅅㅣㄹㅅㅣ</w>": 5941,
  "ㅇㅣㄹㅇㅡㅋㅣㄴㅡㄴ</w>": 16194,
  "ㄱㅕㅁ</w>": 7614,
  "\u001c": 0,
  "ㅂㅕㄴㅎㅘㄱㅏ</w>": 4042,
  "Cor": 12060,
  "ㅅㅡㅋㅓ": 10514,
  "11ㅇㅣㄹ</w>": 6005,
  "ㅊㅜㅇㅓㄱㅇㅡㄹ</w>": 15694,
  "ㄱㅣㅁㅅㅓㅇ": 7568,
  "ㅊㅜㄱㅈㅔ": 12439,
  "ㅇㅕㄴㄱㅕㄹㄷㅚㄴ</w>": 11676,
  "ㅊㅏㅈㄱㅗ</w>": 6674,
  "ㅂㅕㅇㅇㅣ</w>": 11843,
  "ㅅㅏㅇㅛㅇㄷㅚㄱㅗ</w>": 15077,
  "ㄱㅘㄴㄱㅖㅈㅏ</w>": 14981,
  "ㅈㅗㅇㅝㄴ": 14904,
  "ㅈㅏㄱㅅㅓㅇ</w>": 3917,
  "10ㄱㅐ</w>": 10448,
  "Lo": 7894,
  "ㅝ": 127,
  "ㅇㅟㄴㅡㄴ</w>": 4982,
  "ㅎㅛㄱㅘ</w>": 4579,
  "ㄱㅜㄱㅈㅔㄱㅗㅇ": 10566,
  "ㅅㅓㅅㅓㅎㅣ</w>": 11688,
  "ㅈㅗㄹㅇㅓㅂ</w>": 8493,
  "ㄱㅏㅇㅈㅔ</w>": 15902,
  "ㄷㅚㅁㅕ</w>": 2409,
  "ㅇㅣㅂㄱㅡㅁ</w>": 10042,
  "ㅈㅏㅅㅔ</w>": 13029,
  "ㅂㅏㅇㅂㅓㅂㅇㅡㄴ</w>": 4088,
  "ㄱㅏㄹㅑㅇ</w>": 13224,
  "ㅇㅛㄱㅡㅁㅇㅣ</w>": 13412,
  "ㅅㅜㄷㅗ</w>": 1274,
  "riv": 12890,
  "ㅋㅟ": 3291,
  "ㅎㅘㄴㅈㅏ</w>": 7337,
  "ㅇㅓㄹㅣ": 7247,
  "ㅂㅏㄱㄱㅡㄴㅎㅖ": 11629,
  "ㅎㅏㅇㅣ": 2540,
  "ㅇㅏㄶㅇㅡㅁㅕㄴ</w>": 3529,
  "ㅊㅟㅇㅣㅁ</w>": 15987,
  "years</w>": 10193,
  "ㄱㅏㅅㅏㅇ": 4585,
  "ㄷㅏㄴㄱㅘ</w>": 10955,
  "ㄹㅜㄹ": 6583,
  "ㄸㅐㄹㅗ</w>": 14348,
  "co</w>": 2748,
  "id</w>": 4578,
  "ㅅㅏㄹㅏㅁㄷㅡㄹㅇㅔㄱㅔ</w>": 5316,
  "ㄸㅓㄱ</w>": 13111,
  "ㅅㅓㅇㅜㄹㅌㅡㄱㅂㅕㄹ": 5232,
  "ㅇㅕㄴㅊㅜㄹ": 6518,
  "fr": 12952,
  "SSD</w>": 15542,
  "ㅈㅓㄹㅊㅏㅇㅔ</w>": 15394,
  "Inter": 6066,
  "ㄹㅑㄱ": 3992,
  "ㅈㅔㅎㅏㄴ": 2682,
  "ㅈㅣㅇㅕㄱㅇㅡㄴ</w>": 9112,
  "ㅇㅕㄴㄱㅕㄹㅇㅣ</w>": 14972,
  "ㅇㅓㄴㅈㅔㄴㅏ</w>": 3073,
  "ㅅㅐㄱ": 910,
  "ㅎㅏㅅ": 3483,
  "ㅋㅏㅇㅢ</w>": 12344,
  "ㄷㅐㅎㅏㄱㅇㅡㄹ</w>": 16306,
  "ㅈㅣㄱㅡㅁㅇㅡㄴ</w>": 3660,
  "ㅂㅗㄴㅐㄱㅗ</w>": 8568,
  "ㅁㅜㅎㅏㄴ</w>": 16199,
  "uss": 9258,
  "ㅎㅚㅇㅝㄴㄱㅏㅇㅣㅂ</w>": 7901,
  "ㄷㅚㅁㅕㄴ</w>": 1693,
  "ㅁㅜㄱㅣ": 8609,
  "ㅂㅗㄴㅅㅏㄴㅡㄴ</w>": 15173,
  "ㅎㅏㅂㅇㅢ": 6695,
  "ㄴㅠㅅㅡㄹㅔ": 16009,
  "ㅊㅐ</w>": 2638,
  "ㅁㅐㅇㅝㄹ</w>": 12513,
  "ㄷㅔㅇㅣㄹㄹㅣ": 11855,
  "ㅊㅚㅈㅓㄱ": 3372,
  "ㅁㅜㄹㅍㅜㅁ</w>": 15453,
  "ㄷㅏㅇㅎㅏㄹ</w>": 11517,
  "ㅎㅚㅅㅜ": 16178,
  "fin": 15250,
  "ㅎㅘㄹㅂㅏㄹ": 8274,
  "ㅇㅜㄴㅇㅕㅇㅎㅏㄱㅗ</w>": 9077,
  "ㅈㅏㄱㄱㅗ</w>": 15478,
  "ㅅㅏㅇㅇㅓㅂ": 3485,
  "ㅊㅏㅈㅇㅏ": 2510,
  "ㅁㅗㄹㅡㄴ": 10999,
  "ㅅㅏㄴ</w>": 865,
  "ㅇㅗㅃㅏ</w>": 16051,
  "ㄱㅕㅇㄱㅣㅇㅔㅅㅓ</w>": 6641,
  "ㅋㅕ</w>": 3463,
  "ㅁㅕㄴㅇㅢ</w>": 7551,
  "ㅌㅡㄱㅈㅓㅇ</w>": 2624,
  "ㅎㅐㅅㅓㄱ</w>": 6677,
  "ㅊㅏㅁ</w>": 2110,
  "4ㄱㅐㅇㅢ</w>": 13182,
  "ㅅㅏㅁㅜㅅㅣㄹ</w>": 7168,
  "ㅌㅏㄱㅗ</w>": 3569,
  "ㅂㅈㅣ</w>": 13464,
  "ㄱㅗㅇㅁㅜㅇㅝㄴ": 9116,
  "ㄱㅣㅇㅓㅂㅇㅡㄴ</w>": 12116,
  "ㅎㅕㄹㅇㅐㄱ": 10699,
  "ㄱㅣㅈㅏㅎㅚ": 12828,
  "ㄱㅓㄱㅣ</w>": 13352,
  "ㅇㅗㄹㅡㄱㅏ": 11770,
  "ㄱㅏㅇㅈㅘ": 11632,
  "ㅈㅓㅇㄷㅗㅇ": 7752,
  "ㅅㅏㅇㅛㅇㅈㅏ</w>": 3232,
  "ㅇㅓㄴㄱㅡㅂㅎㅏㄴ</w>": 13596,
  "ㄱㅏㄴㅡㅇㅎㅏㅂㄴㅣㄷㅏ</w>": 1958,
  "ㅛㅌㅗㅇ": 14021,
  "ㅎㅏㄹㅅㅜ": 14905,
  "ㅈㅜㅁㅗㄱㅇㅡㄹ</w>": 14964,
  "ㅅㅡㅍㅗㅊㅡ</w>": 2428,
  "2ㅈㅜㄱㅏㄴ</w>": 5087,
  "TP</w>": 11740,
  "ㄷㅓㄴㅣ</w>": 3519,
  "re</w>": 10508,
  "ㅇㅕㄴㄱㅜ</w>": 2300,
  "ㅇㅣㅇㅛㅇㅈㅏㅇㅢ</w>": 6825,
  "ㅅㅣㄴㄹㅚㅅㅓㅇ</w>": 16257,
  "//</w>": 2109,
  "2007ㄴㅕㄴ</w>": 8351,
  "ㅇㅈㅏㅇ": 2592,
  "ㅁㅜㄹㅛㄹㅗ</w>": 3782,
  "ㄷㅏㄹㄹㅏ": 2913,
  "ㅂㅏㄴㅇㅡㅇㅇㅡㄹ</w>": 9271,
  "ㅈㅏㄹㅁㅗㅅ</w>": 6939,
  "ㅇㅠㅇㅛㅇ": 4123,
  "ㅊㅓㄴ": 661,
  "ㄷㅡㄹㅇㅕ</w>": 13106,
  "US": 2824,
  "ㅊㅗㅇ</w>": 1797,
  "ㅆㅡㄴㅡㄴ</w>": 3431,
  "ㄱㅜㅅㅓㅇㅎㅏㄴㅡㄴ</w>": 15512,
  "ㄱㅡㅁㅇㅐㄱ</w>": 6353,
  "ㅍㅣㅇ</w>": 3442,
  "ㅈㅗㅇㄹㅛ</w>": 7301,
  "ㅂㅏㅇㅁㅜㄴㅎㅏㄴㅡㄴ</w>": 10857,
  "ㅂㅏㄴㄷㅡㅅㅣ</w>": 2557,
  "ㅊㅝ</w>": 5315,
  "ㅊㅜㅅㅓㄱ</w>": 11160,
  "air</w>": 15606,
  "ㄷㅡㄹㄹㅗ</w>": 4359,
  "ㅈㅓㅇㅎㅘㄱ": 1983,
  "ㅂㅏㅇㅌㅏㄴㅅㅗㄴㅕㄴ": 12612,
  "ㅇㅓㅁㅓㄴㅣ</w>": 5272,
  "ㅇㅕㄱㄹㅑㅇ": 14898,
  "ㅈㅔ8": 13888,
  "ㅇㅜ</w>": 586,
  "ㅍㅏㄴㅁㅜㄴ": 14505,
  "ㄷㅣㅌㅔ": 13953,
  "ㄸㅏㄴ</w>": 14997,
  "ㅈㅓㅁㅅㅜㄹㅡㄹ</w>": 9893,
  "ㅎㅘㄱㅇㅣㄴㅎㅏㄱㅣ</w>": 13653,
  "ㅅㅓㅇㅇㅡㄴ</w>": 3600,
  "ㄱㅐㅇㅣㄴㅈㅓㅇㅂㅗ</w>": 2673,
  "ㅂㅡㄹㅐㄴㄷㅡㅁㅕㅇ</w>": 7269,
  "ㄱㅡㄹㄹㅗ</w>": 14744,
  "ㅅㅗㄹㄹㅗ": 13734,
  "ㄱㅓㄴㅇㅡㄹ</w>": 8294,
  "ㄱㅏㅈㅣㄴㅡㄴ</w>": 8021,
  "ㅁㅜㄹㅛ": 1868,
  "ㅎㅗㅊㅜㄹ": 10967,
  "ㅌㅡㄹㅇㅡㄹ</w>": 16369,
  "ㄷㅗㅅㅣㅁㅇㅔㅅㅓ</w>": 13098,
  "ㅂㅗㅈㅗ</w>": 10795,
  "ㅊㅗㄱㅣ</w>": 6866,
  "ㅁㅏㅁ</w>": 9808,
  "ㅇㅕㄴㅅㅡㅂ</w>": 12997,
  "ㅇㅣㄴㄱㅡㄴ</w>": 8115,
  "ㅍㅡㄹㄹㅗㄹㅣ": 14568,
  "ㄱㅏㄹㅇㅏ": 13702,
  "ㅍㅜㅇㄱㅕㅇ": 8822,
  "ㅛㅇ</w>": 4437,
  "ㅇㅕㅇㄱㅖ</w>": 15672,
  "ㅂㅗㄱㅔ</w>": 5974,
  "ㅈㅜㅇㄷㅏㄴ": 6402,
  "ㅍㅔㅁㅣㄴㅣ": 11795,
  "Window": 3818,
  "ㅊㅓㄹㅓㅁ</w>": 1044,
  "ㅇㅏㄴㅊㅓㄹㅅㅜ</w>": 13539,
  "ㅎㅏㅇㅁㅗㄱ</w>": 6602,
  "ㅇㅣㅁ": 503,
  "ㅈㅔㅇㅑㄱ": 9180,
  "ㅅㅣㅎㅓㅁ": 3045,
  "ㄱㅛㅌㅗㅇ</w>": 8024,
  "ㅈㅣㄹ": 657,
  "ㄱㅜㄱㅎㅚㅇㅢㅇㅝㄴ</w>": 11689,
  "ㅈㅔㄱㅗㅇ</w>": 2157,
  "(": 7,
  "ㅇㅢㄹㅛㅅㅣㄹㅂㅣ": 12795,
  "ㅇㅏㄴㄷㅚㄴㅡㄴ</w>": 7297,
  "ㄷㅗㄱㅜ": 11019,
  "ㄷㅜㄹㅡㄹ</w>": 7676,
  "43</w>": 8759,
  "ㅇㅖㄴㅡㅇ</w>": 14608,
  "ㅊㅗㄱㅈㅣㄴ</w>": 14814,
  "ㄷㅓㄹ": 4841,
  "ㄴㅗㄹㅇㅣ": 4251,
  "ㄱㅗㅂ</w>": 15207,
  "ㅇㅣㄴㄱㅜ</w>": 11514,
  "ㅅㅐㅇㅌㅐ": 9347,
  "Web": 15486,
  "ㅊㅐ": 694,
  "ㅊㅏㅈㅣㅎㅐㅆㄷㅏ</w>": 15237,
  "ㅁㅜㄹㄹㅓ": 11209,
  "ㅇㅓㅅ": 1253,
  "ㅍㅡㄹ</w>": 2127,
  "ㄱㅗㅁ": 7867,
  "ㅍㅣㅅ": 11857,
  "ㄱㅛㅎㅚㄴㅡㄴ</w>": 11469,
  "ㄱㅡㄱㅓㅅㄷㅗ</w>": 7595,
  "ㅌㅣㅂㅣ</w>": 7723,
  "ㅎㅘㄱㅇㅣㄴㅎㅏㅅㅔㅇㅛ</w>": 10524,
  "ㅂㅏㅇㅎㅑㅇㅇㅡㄴ</w>": 14642,
  "ㅇㅣㄹㅅㅣ": 9040,
  "ㅋㅡㄹㄹㅣㄴ": 12566,
  "ㅇㅐㅁ": 9038,
  "3": 16,
  "ㅈㅏㄹㅣㄱㅏ</w>": 10226,
  "ㅅㅣㅍㅇㅓ": 8290,
  "ㄸㅜㄱ": 11225,
  "ㄹㅓㄱㅅㅕ": 8475,
  "ㄸㅡ": 1052,
  "A</w>": 185,
  "ㅂㅜㄴㅎㅏㄴ</w>": 16076,
  "ㅈㅣㄴㅎㅐㅇㄷㅚㄴㅡㄴ</w>": 11476,
  "18</w>": 2476,
  "ㄱㅣㅁㄱㅣ": 9541,
  "2ㅇㅝㄹ</w>": 3723,
  "ㅈㅏㅇㅅㅗ": 10622,
  "ㅅㅗㄱㅐㅎㅏㅂㄴㅣㄷㅏ</w>": 12168,
  "fer": 10345,
  "ㅇㅏㅅㅟㅂ": 8007,
  "1ㄱㅐㅇㅢ</w>": 14417,
  "ㅎㅝㄹㅆㅣㄴ</w>": 3296,
  "ㅊㅓㅁㅂㅜ</w>": 13362,
  "ㅇㅓㄴ</w>": 1929,
  "ㅇㅣㄹㅓㄹ</w>": 13660,
  "ㅅㅜㅅㅏㅇ": 3906,
  "ver": 3357,
  "ㅍㅗㄹㅓ": 8466,
  "ㅃㅏ</w>": 4442,
  "ㄱㅣㄷㅐ": 1832,
  "ㄱㅜㄱㄴㅐㅇㅚ</w>": 10408,
  "ㅍㅣㄹㄹㅏㄷㅔㄹ": 16146,
  "ㅂㅔㄹㅣ": 13276,
  "ㄹㅕㄴ</w>": 4878,
  "ㅁㅜㅇㅓㅅㅇㅣㄴㅈㅣ</w>": 8706,
  "ㅈㅟ": 5117,
  "ㄷㅗㄹㅇㅣ</w>": 10259,
  "ㅁㅏㄶ": 511,
  "ㅂㅣㄴㅣ": 11240,
  "2ㅅㅣ</w>": 15302,
  "ㅁㅜㄹㅇㅓㅆㄷㅏ</w>": 13613,
  "ㅂㅏㅇㅁㅜㄴㄱㅐㄱ": 13493,
  "ㅎㅏㅇㄱㅗㅇㅅㅏ</w>": 10913,
  "ㄸㅏㄹ</w>": 5718,
  "ㄱㅘㄱㅓㅇㅔ</w>": 15319,
  "ㅁㅜㄱㅓ": 7898,
  "LED</w>": 4363,
  "ㅇㅚㄱㅛ": 7358,
  "ㅍㅕㅇㅅㅐㅇㄱㅛㅇㅠㄱ": 15072,
  "ㅂㅜㄹㅍㅕㄴㅎㅏㅅㅣㄴ</w>": 11977,
  "ㄱㅡㄴㅊㅓ": 5377,
  "ㄷㅔㅇㅛ</w>": 1469,
  "ㅈㅣㄴㅇㅣㅂ": 10519,
  "ㅅㅏㅇㅎㅘㅇㅇㅔ</w>": 5221,
  "ㅈㅏㅇㅅㅗ</w>": 4250,
  "ㅋㅝ": 4328,
  "ㅅㅣㅍㄷㅏㅁㅕㄴ</w>": 10011,
  "ㅂㅓㄹㅣㄱㅗ</w>": 7280,
  "ㅇㅛㄱㅡㅁ": 3669,
  "ㅎㅗㅌㅔㄹㄹㅗ</w>": 9174,
  "ㄱㅜㅇㅣㅂㅎㅏㄹ</w>": 14402,
  "ㅈㅜㄴㅣㅁㅇㅢ</w>": 9995,
  "ㄱㅡㅁㅂㅏㄹ": 5513,
  "ㄱㅏㅇㅜㄴㄷㅔ</w>": 2453,
  "on</w>": 902,
  "ㅇㅜㅅㅜㅎㅏㄴ</w>": 8119,
  "Jizz": 12000,
  "ㄷㅠ": 2505,
  "ㄱㅚㄹㅗㅂ": 12670,
  "ㄱㅏㅇㅇㅢ</w>": 4666,
  "ㅇㅟㅈㅔ": 15581,
  "ㅈㅏㄹㅛㄴㅡㄴ</w>": 5751,
  "ㅃㅓㄴ": 8244,
  "tv</w>": 11359,
  "ㅇㅏㄴㄷㅡㄹㅗ": 3962,
  "ㅁㅣㅊㅣ": 15437,
  "ㅌㅡㄱㅇㅣ": 14681,
  "49</w>": 8999,
  "ㅈㅓㅁㅅㅣㅁ</w>": 7909,
  "ㅅㅏㅇㅈㅏ</w>": 9659,
  "ㅅㅑㅅ</w>": 8391,
  "ㅅㅕㅌㅡㄹ</w>": 11749,
  "ㄱㅐㅇㅣㄴ</w>": 2469,
  "ㄱㅏㄷㅣ": 14357,
  "ㅎㅏㄱㅔㄷㅗ</w>": 11915,
  "ace</w>": 5969,
  "ㅎㅐㅆㄷㅏㅁㅕㄴ</w>": 8903,
  "ㄴㅗㄹㅕㄱ</w>": 11372,
  "ㅅㅡㅋㅜㄹ</w>": 13612,
  "ㅇㅕㅆㅅㅡㅂㄴㅣㄷㅏ</w>": 5303,
  "ros": 4854,
  "ㄴㅏㄴㅡㄴ</w>": 926,
  "ㄴㅓㅎ": 1885,
  "EX": 10338,
  "ㄱㅓㄹㅇㅓㅅㅓ</w>": 6399,
  "ㅁㅔㅇㅣㅋㅓ</w>": 12579,
  "ㄱㅏㅌㅇㅡㄴㄷㅔ</w>": 5241,
  "ㄴㅗㅍㅇㅣㄹ</w>": 15988,
  "ㅋㅗㄷㅣ": 11243,
  "ㅂㅕㄴ</w>": 1489,
  "ㄷㅗㅅㅣ</w>": 3221,
  "6ㄱㅐㅇㅝㄹ": 11592,
  "ㄷㅜㅁㅕㄴ</w>": 12074,
  ")\"</w>": 10787,
  "ㅅㅜㅇㅣㅂ": 4865,
  "ㄱㅏㄴㅡㅇㅎㅏㅁㅕ</w>": 7431,
  "ㅈㅓㅈㅏㄱㄱㅝㄴ": 1329,
  "ㅁㅣㄷㅇㅡㅁ": 7745,
  "ㅇㅣㄹㅓㄴ": 4984,
  "ㅂㅗ": 298,
  "ㄱㅣㄷㅗ": 4214,
  "IS": 3319,
  "ㅎㅏㄴㅏㄴㅣㅁㅇㅢ</w>": 2983,
  "ㅍㅡ": 683,
  "ㅁㅏㅇㅇㅡㄹ</w>": 8030,
  "ㄱㅖ</w>": 767,
  "ㅇㅣㅇㅠ": 1244,
  "ㅋㅡㄱㅣ</w>": 7102,
  "ㅈㅏㄴㅇㅢ</w>": 15303,
  "ㅍㅕㄴㅇㅢ": 5110,
  "ㅇㅣㅅㅏㅇ</w>": 1235,
  "ㅅㅏㅇㅅㅗㄱ": 11028,
  "ㅇㅓㅄ</w>": 12505,
  "ㄴㅓㅎㅢ</w>": 13360,
  "ㅌㅡㅇㅟㅌㅓ</w>": 8352,
  "ㅂㅜㄴㅇㅡㄴ</w>": 5033,
  "ㄸㅏㅇㅇㅡㄹ</w>": 13426,
  "ㄱㅓㅌ": 9260,
  "ㅈㅏㅅㅔ": 1592,
  "ㅂㅜㄱㅇㅡㄹ</w>": 12250,
  "ㅈㅓ</w>": 920,
  "ㅎㅏㅇㅕㅆㄴㅡㄴㄷㅔ</w>": 15069,
  "ㅊㅓㅇㅅㅗ</w>": 9954,
  "ㅂㅣㅊㅇㅢ</w>": 16382,
  "ㅅㅜㄱ</w>": 4810,
  "ㅈㅓㅁㅇㅣㅂㄴㅣㄷㅏ</w>": 14801,
  "da": 10240,
  "ㄷㅗㄷ": 7002,
  "ㅈㅐㅇㅘ</w>": 7377,
  "in</w>": 1370,
  "ㄱㅏㄴㄹㅑㄱㅅㅓㄹㅁㅕㅇ</w>": 14124,
  ")": 8,
  "ㄱㅜㄱㅏㄴ": 9751,
  "NG": 11908,
  "ㅅㅏㅇㄷㅐ</w>": 10771,
  "ㅎㅐㅅ": 5266,
  "ㅊㅣㅇㅢ</w>": 8003,
  "ㅇㅣㅆㅣ": 16373,
  "ㄴㅏㅇㅘㅆㄷㅏ</w>": 6836,
  "ㅇㅣㄱㅣㄹ</w>": 15676,
  "ㅎㅓ</w>": 7245,
  "ㅁㅣㅇㅛㅇ": 11027,
  "196": 6142,
  "ㄴㅏㅌㅏㄴㅏㄴㅡㄴ</w>": 7323,
  "ㅈㅓㅇㅈㅏㄱ</w>": 9846,
  "ㄱㅡㄴㅏㅁㅏ</w>": 8268,
  "ㅁㅏㄹㅏ</w>": 9904,
  "ㅎㅏㅅㅕㅆ": 4594,
  "ㅅㅔㅇㅜ": 9354,
  "ㅅㅣㅈㅏㅇㅇㅡㄴ</w>": 8506,
  "4</w>": 168,
  "ㅇㅛㄱㅜㅎㅏㅂㄴㅣㄷㅏ</w>": 15894,
  "ㅈㅣㄱㅡㅂ</w>": 8436,
  "ㅂㅗㄱㅈㅣ</w>": 4777,
  "ㅌㅔㅁㅏ</w>": 14059,
  "https</w>": 8095,
  "ㅊㅏㄹㅣ": 8046,
  "ㅈㅔㄹ": 6762,
  "ㅁㅜㄴㅈㅏㄹㅡㄹ</w>": 13544,
  "ㅇㅣㅇㅢ</w>": 3824,
  "ㅅㅓㅇㅈㅓㄱ": 7446,
  "ㅇㅣㄴㄷㅔ</w>": 1731,
  "ㅇㅣㅅㅣㄱ</w>": 15540,
  "3ㄱㅐ": 16168,
  "box</w>": 13187,
  "ㅅㅔㅇㅜㄱㅗ</w>": 14297,
  "ㅅㅓㄹㅗ</w>": 2215,
  "ㄴㅗㄹㄹㅏㅇ": 5794,
  "ㅇㅗㅁㅕㄴ</w>": 9726,
  "ㅂㅗㅇㅏㅇㅑ</w>": 14422,
  "ㅇㅣㄹㅂㅏㅇ": 13102,
  "ㅂㅜㄷㅏㅁ</w>": 9455,
  "ㅈㅓㄴㅊㅔㅈㅓㄱㅇㅣㄴ</w>": 12071,
  "ㅈㅣㄴㅎㅐㅇㅎㅏㄹ</w>": 11625,
  "ㅇㅏㄱㅎㅘ": 14679,
  "ㅂㅗㅈㅗㄴ": 7356,
  "ㅅㅜㄷㅗ": 9974,
  "ㅈㅏㅇㅁㅕㄴㅇㅡㄹ</w>": 11801,
  "ㅇㅏㅁㅔㄹㅣ": 7093,
  "Tag</w>": 14626,
  "ㄴㅐㅇㅈㅏㅇㄱㅗ</w>": 8724,
  "ㅗㄴ": 1472,
  "ㅇㅓㅂㄷㅔㅇㅣ": 2106,
  "ㄴㅗㅇㅊㅗㄴ": 12286,
  "ㅊㅡ": 634,
  "ㅆㅣㄱㅏ</w>": 3695,
  "ㅇㅏㄴㅣㄹㅏㄴㅡㄴ</w>": 9092,
  "ㅂㅏㅇㅇㅡㄹㅗ</w>": 13494,
  "ㅎㅑㅇ": 748,
  "ㄷㅏㅁㅂㅗ": 7955,
  "ㄴㅣㅇㅏ</w>": 6949,
  "ㅎㅐㅆㄷㅏ</w>": 540,
  "ㅈㅏㅇㅣㅇㅓㄴ": 15614,
  "ㅡ</w>": 148,
  "ㅈㅜㅇㅢㅎㅏㅅㅣㄱㅣ</w>": 15740,
  "ㅊㅓㅇㅅㅐㄱ</w>": 15340,
  "El": 16342,
  "ㅂㅏㄼ": 7994,
  "ㅊㅏㅁㅈㅗㅎㅏㅅㅣㅂㅅㅣㅇㅗ</w>": 12577,
  "ㅈㅔㅂㅏㄹ</w>": 11118,
  "ㄱㅡㄹㅐㅆ": 9834,
  "ㄱㅔㅆㄷㅏ</w>": 2418,
  "ㅊㅓㅇㅅㅗㄴㅕㄴ": 2911,
  "ㅎㅏㅁㅇㅡㄹㅗㅆㅓ</w>": 3829,
  "ㅊㅣㄱ": 2724,
  "ㅌㅡㅇㅟ": 3356,
  "ㄱㅗㅇㄱㅐㄷㅚㄴ</w>": 12628,
  "bab": 14910,
  "ㅂㅏㄹㅏ": 993,
  "ㅇㅕㅇㅎㅘ": 1660,
  "ㄱㅏㅁㅈㅓㅇ": 7615,
  "ㄱㅕㅇㅇㅢ</w>": 15848,
  "ㅍㅡㄱㅏ</w>": 9920,
  "ㅇㅚㄱㅜㄱ": 2339,
  "ㅎㅕㅇㅅㅓㅇ</w>": 14832,
  "ㅁㅜㄷㄴㅡㄴ</w>": 11198,
  "ㅇㅓㄸㅓ": 676,
  "ㄴㅏㅌㅏㄴ": 1494,
  "ㅇㅖㅂㅏㅇ</w>": 8989,
  "Car": 9994,
  "ㅎㅏㅁㅕㄴㅅㅓ</w>": 1305,
  "ㅌㅓ": 489,
  "ㅂㅏㄹㅏㅁ</w>": 6858,
  "ㄷㅚㅇㅓ": 2404,
  "ㅂㅜㄷㅏㅇ": 15061,
  "ㅇㅣㅇㅔㅇㅛ</w>": 4944,
  "ㄱㅏㅇㅅㅜㄹ": 6471,
  "ㅌㅡㄱㅎㅣ</w>": 1344,
  "ㅍㅗㅇㅣㄴㅌㅡ</w>": 3559,
  "23ㅇㅣㄹ</w>": 7859,
  "ㄱㅏㄴㅈㅓㄹ": 10523,
  "Android</w>": 10386,
  "ㅅㅣㄱㅗㄹ": 13724,
  "ㅂㅏㅇㅅㅗㅇㄷㅚㄴ</w>": 14394,
  "ㅊㅡㅇㅇㅡㄹ</w>": 13510,
  "ㄷㅏㄴㄷㅏㄴ": 8259,
  "W": 48,
  "ㅊㅣㄴㄱㅜㄹㅡㄹ</w>": 11999,
  "ㅌㅜㅁㅕㅇ": 9469,
  "ㅍㅓㄹ": 16204,
  "ㅕㄱ": 1267,
  "ㅊㅚ": 506,
  "ㅂㅕㄹㄹㅗ</w>": 2491,
  "ㅎㅘㄹㅅㅓㅇㅎㅘ</w>": 6673,
  "ㅇㅕㅍ": 3137,
  "ㄷㅓㄴㅡㄴ</w>": 15203,
  "ㅎㅏㅅㅣㄱㅗ</w>": 4985,
  "ㅍㅡㄹㄹㅐㅅㅍㅗ": 3536,
  "ㅂㅗㄹㄹㅠ": 10841,
  "ㅂㅏㅁ": 4458,
  "ㅈㅣㅇㅝㄴㅅㅔㄴㅌㅓ</w>": 14882,
  "ㅎㅏㄴㅎㅐ</w>": 12985,
  "ㅎㅏㄱㅔㅆ": 6492,
  "ㅂㅏㅇ": 416,
  "ㄷㅗㅇㅂㅏㄴ": 8465,
  "ㅅㅡㅋㅣ": 2416,
  "ㅈㅜㄴ</w>": 1266,
  "ㅎㅘㅇㅅㅐㄱ</w>": 10008,
  "ㅅㅓㅂㅓ": 3560,
  "ㅓㄹ": 4417,
  "ㅈㅗㄱ</w>": 1780,
  "ㅈㅐㅍㅏㄴ": 4957,
  "ㄷㅏㄹㅅㅓㅇ": 5264,
  "ㅁㅔㄴ</w>": 10643,
  "ㅇㅏㅇㅣㄷㅗㄹ</w>": 12012,
  "ㅎㅏㄴㅁㅣ</w>": 14554,
  "ㅇㅣㄹㅏㄴ": 8693,
  "ㄱㅕㅇㅂㅜㄱ</w>": 10663,
  "ㄱㅠㅈㅓㅇ": 5558,
  "cm": 11171,
  "iano</w>": 14824,
  "15</w>": 2524,
  "ㄱㅏㅇㅡㄹ": 5244,
  "Ret": 13916,
  "ㅇㅏㅃㅏ</w>": 5967,
  "75": 8919,
  "Tab": 12507,
  "ㄸㅓㄹㅇㅓㅈㅣㄴㅡㄴ</w>": 11166,
  "ㅂㅏㄹㅎㅐㅇㅇㅣㄴ</w>": 16380,
  "ㄱㅘㄱㅓㅇㅢ</w>": 11167,
  "ㅋㅓㄹ": 2311,
  "ㅈㅏㅈㅜ</w>": 2723,
  "ㅌㅣㅂㅡ</w>": 4083,
  "ㄷㅗㅇㅜㅁㅇㅡㄹ</w>": 3680,
  "ㅇㅣㄹㅇㅡㄹ</w>": 1215,
  "char": 15649,
  "ㄷㅗㄴㅡㄴ</w>": 2778,
  "ㄷㅐㅇㅚ": 16340,
  "ㅇㅓㄹㅡㄹ</w>": 1998,
  "ㅎㅏㄴㄱㅜㄱㄱㅘ</w>": 12113,
  "ㅅㅓㄴㅌㅐㄱㅎㅏㅇㅕ</w>": 13365,
  "ㅇㅐㄹ": 3699,
  "ㅈㅏㅇㅔㄱㅔ</w>": 1584,
  "ㅇㅑㄱㄱㅏㄴㅇㅢ</w>": 8992,
  "ㅅㅗㅅㅓㄹ</w>": 6692,
  "sm": 12357,
  "ㄹㅕㄱㅇㅣ</w>": 1980,
  "ㅇㅓㄴㄹㅗㄴ": 3090,
  "sㅇㅢ</w>": 12441,
  "ㄱㅐㄱㄱㅘㄴ": 8467,
  "ce</w>": 3142,
  "ㄱㅐㅂㅗㅇ</w>": 15087,
  "IB": 10273,
  "ㄴㅐㅁ": 5052,
  "ㄷㅗㅅㅣㄹㅡㄹ</w>": 14243,
  "ㅅㅏㅌㅐ</w>": 13239,
  "ㅇㅗㄹㄹㅣㅂ": 13982,
  "ㄷㅔㅇㅣㅌㅓㄱㅏ</w>": 12632,
  "ㅇㅣㅇㅛㅇㅈㅏㄴㅡㄴ</w>": 13262,
  "ㄱㅣㄴㅡㅇㅇㅣ</w>": 5322,
  "ㄴㅕㄴㅇㅔㄴㅡㄴ</w>": 9550,
  "ㅍㅗㄱㅂㅏㄹ": 8550,
  "ㄱㅓㅅㅇㅡㄹㅗ</w>": 1077,
  "ㅇㅏㄴㅣㄴㄷㅔ</w>": 12553,
  "ㄱㅓㅅㅇㅣㄱㅗ</w>": 4950,
  "ㅍㅡㄹㅏㄴ": 6786,
  "ㄹㅓㄱ": 5635,
  "ㅈㅣㅅㅗㄱㅈㅓㄱㅇㅣㄴ</w>": 9297,
  "ㄷㅗㅇㄴㅔ</w>": 8008,
  "ㅇㅘㅆㅅㅡㅂㄴㅣㄷㅏ</w>": 6992,
  "ㅇㅣㅇㅑㄱㅣㄴㅡㄴ</w>": 10320,
  "Po": 5324,
  "ㅇㅗㄹㅣ": 5027,
  "ㅁㅕㅇㅇㅖㄹㅡㄹ</w>": 10726,
  "ㅇㅣㄺㅇㅡㄴ</w>": 12593,
  "ㅂㅓㅂㄹㅠㄹㅇㅔ</w>": 16308,
  "ㄷㅔㅅㅡㅋㅡ</w>": 11875,
  "ㅁㅗㅅ": 722,
  "ㄴㅐㅇㅔ</w>": 3259,
  "ㅈㅣㄱ</w>": 1097,
  "ys</w>": 15647,
  "ㅁㅏㄱㅏㅁ": 8029,
  "ㅂㅗㅈㅏㅇ</w>": 7784,
  "ㅅㅗㄴㄱㅏㄹㅏㄱ</w>": 11601,
  "ㅈㅏㄹㅣ": 1341,
  "ㅅㅏㄹㅖㄹㅡㄹ</w>": 9424,
  "ㄷㅏㅇㅅㅣㄴㅇㅔㄱㅔ</w>": 12310,
  "ㅅㅓㅇㅛ</w>": 9867,
  "ㅇㅢㅁㅣㅎㅏㄴㅡㄴ</w>": 15224,
  "ㄱㅔㅈㅐㄷㅚㄴ</w>": 13095,
  "ㅊㅜㄹㄹㅕㄱ</w>": 9176,
  "ㅎㅏㄴㄸㅐ</w>": 15327,
  "ㅅㅔㅅㅏㅇㅇㅢ</w>": 9554,
  "ㅅㅏㅇㅛㅇㅇㅣ</w>": 8342,
  "ㅅㅣㄱㅔㅆㅅㅡㅂㄴㅣㄲㅏ</w>": 5520,
  "ㅅㅡㅌㅡㄹㅏㅇㅣ": 7302,
  "ㅇㅣㄹㅜㅇㅓ": 2607,
  "ㅜㄹㅡㄹ</w>": 2953,
  "ㅇㅢㅅㅏㅅㅗㅌㅗㅇ": 15584,
  "ㅎㅗㄱ</w>": 6488,
  "ㄱㅡㄷㅡㄹㅇㅢ</w>": 3334,
  "ㅍㅗㄹㅓㅁ": 15031,
  "ㅅㅣㄱㅖ": 7440,
  "ㄱㅗㄴㅏㄴ": 13679,
  "ㄴㅡㄴ": 413,
  "HD": 5434,
  "ㅇㅏㅇㅣㄷㅣ</w>": 4391,
  "ㅅㅐㅇㄱㅕㅆㄷㅏ</w>": 14524,
  "ㅅㅔㅇㅝ</w>": 13035,
  "ㅇㅣㅆㄷㅏㄴㅡㄴ</w>": 1499,
  "ㅈㅗㅎㅏㅂ": 3653,
  "ㅈㅣㄴㅏ": 2135,
  "log": 6720,
  "ㄱㅣㄱㅣㄹㅡㄹ</w>": 15353,
  "ㄱㅣㄱㅏㄴ": 2052,
  "ㅍ</w>": 197,
  "ㅈㅏㄱㅣ</w>": 1828,
  "ㅇㅣㅁㅕ</w>": 1141,
  "ㅎㅝㄹ": 3243,
  "ㄱㅗㅇㅑㅇ": 2855,
  "ce": 10892,
  "ㅇㅛㅅㅗ</w>": 2797,
  "one</w>": 3966,
  "ㄱㅕㅇㅇㅡㄴ</w>": 14251,
  "ㄲㅗㅂ": 5957,
  "ㅅㅜㅇㅢ</w>": 2280,
  "..\"</w>": 16378,
  "ㅈㅓㄱㅇㅓㄷㅗ</w>": 6191,
  "ㄹㄹㅗ": 2383,
  "27": 2577,
  "ㅈㅓㄹ</w>": 1679,
  ",,,</w>": 11437,
  "ㄱㅗㄴ</w>": 4443,
  "ㅅㅐㅇㅎㅘㄹㅇㅡㄹ</w>": 4720,
  "ㄱㅣㄱㅘㄴㅇㅔ</w>": 12043,
  "ㅇ</w>": 141,
  "ㅈㅏㅂㅗㄴ": 4186,
  "ㄴㅏㅁㅜ": 3456,
  "ㄱㅛㅎㅚ</w>": 2790,
  "ㅂㅜㄴㅁㅕㅇ</w>": 6531,
  "ㅎㅘㅇㅔ</w>": 6919,
  "ㅍㅣㄹㅇㅛㅎㅏㄷㅏ</w>": 4586,
  "ㄴㅓㅁㄴㅡㄴ</w>": 6282,
  "ㅂㅓㅁㅇㅟ</w>": 7166,
  "1ㅇㅣㄴㄷㅏㅇ</w>": 13327,
  "ㅎㅐㅈㅜㄴ</w>": 12431,
  "ㅈㅓㅇㅇㅝㄴ</w>": 7407,
  "ㅇㅓㅂㄹㅗㄷㅡ</w>": 8216,
  "61</w>": 14289,
  "ㅎㅏㄹㅜㄹㅡㄹ</w>": 12542,
  "ㅅㅡㅋㅡ</w>": 5613,
  "ㅇㅣㅂㅓㄴ</w>": 1394,
  "ㅅㅏㄴㅇㅢ</w>": 8346,
  "ㅇㅠㅇㅣㄹ": 4852,
  "ㅍㅡㄹㅏㅇㅣ": 6374,
  "ㅈㅓㅇㄷㅗ": 1422,
  "ㅇㅣㅇㅓㅆㅅㅡㅂㄴㅣㄷㅏ</w>": 3753,
  "ㅇㅟㄴㄷㅗㅇㅜ": 6974,
  "eBook</w>": 16111,
  "}</w>": 241,
  "ㅅㅏㄱㅈㅔㄷㅚㄹ</w>": 4269,
  "ㅎㅐㅁ": 9819,
  "ㅈㅜㅅㅔㅇㅛ</w>": 1710,
  "ㄱㅜㄱㅏㅇ</w>": 14487,
  "ㄴㅐㄴㅐ</w>": 5701,
  "ㅇㅏㄹㄹㅔ": 8785,
  "ㅂㅗㅎㅓㅁ": 1681,
  "ㅎㅏㅂㄱㅕㄱ": 5292,
  "ㅂㅏㅇㄱㅡㅁ</w>": 13741,
  "ㅈㅔㄱㅗㅇㅎㅏㄴ</w>": 10905,
  "ㄱㅛㅎㅚㄹㅡㄹ</w>": 11145,
  "ㅋㅣㅇㅝ": 5379,
  "ㅅㅣㅅㅡㅌㅔㅁㅇㅣ</w>": 10399,
  "TV</w>": 2160,
  "ㄱㅗㅇㅌㅗㅇ</w>": 13670,
  "ㄱㅘㅇ</w>": 2487,
  "ㄴㅏㅌㅏㄴㅏㄴ</w>": 10233,
  "3ㄱㅐㅇㅝㄹ</w>": 9384,
  "ㄷㅓㅁ</w>": 8981,
  "ㄱㅣㅇㅓㄱ</w>": 9790,
  "ㄴㅣㅁㄱㅘ</w>": 6268,
  "ㅇㅐㅍㅡㄹㄹㅣㅋㅔㅇㅣ": 6380,
  "ㅅㅗㅅ": 13121,
  "ㄴㅏㅇㅁㅏㄴ": 16285,
  "ㅇㅕㄴㄱㅡㅁ</w>": 10777,
  "ㅇㅑㅁㅏㄴ</w>": 9468,
  "ㅇㅣㄷㅐ": 13453,
  "ㅈㅗㅇㅇㅣ": 12959,
  "LL": 10004,
  "ㅂㅣㅌㅡ</w>": 10006,
  "ㅇㅣㄹㅂㅏㄴ": 1601,
  "ㅇㅣㄲㅡㄹㅇㅓ</w>": 12217,
  "ㅍㅡㄹㅏㅇㅅㅡ": 8092,
  "ㅇㅣㄱㅣ": 6406,
  "ㄴㅓㄹ</w>": 2342,
  "ㄱㅓㄹㄹㅣㄴㅡㄴ</w>": 12563,
  "ㄱㅣㅁㅕ</w>": 12662,
  "ㅈㅣㄹㅇㅔ</w>": 16045,
  "ㅋㅐㄹㅣㄱ": 3076,
  "ㅈㅔㅇㅣㅁ": 12898,
  "ㅕㄴㅐ": 11174,
  "Be": 5589,
  "ㅍㅏㄹㅏㄴ": 13311,
  "30ㅂㅜㄴ</w>": 7152,
  "ㅅㅓㄹㄱㅖ": 3564,
  "ㅎㅘㅇㄱㅡㅁ": 8718,
  ":)</w>": 5095,
  "ㄼ": 94,
  "ㅇㅓㄴㅡㅈㅓㅇㄷㅗ</w>": 11849,
  "ㅈㅓㅇㅅㅜ": 12772,
  "ㅅㅜㄹㅣㅂ</w>": 13883,
  "ㅇㅕㄱㅎㅏㄹ": 2234,
  "ㄱㅏㅌㅇㅏㅆㄷㅏ</w>": 10541,
  "2016": 7922,
  "ㅅㅐㅇㄱㅣ": 4727,
  "ㄷㅔㄹㅣㄱㅗ</w>": 10314,
  "ㅇㅜㄹㅣㄴㅏㄹ": 2169,
  "ㅆㅇㅡㅁㅕ</w>": 8829,
  "ㅇㅓㄷㅇㅓ</w>": 14685,
  "ㅈㅣㄹㅇㅢ</w>": 7317,
  "ㅈㅣㄴㅅㅣㅁㅇㅡㄹㅗ</w>": 8124,
  "ㅇㅏㅇㅣㄷㅡㄹㅇㅡㄹ</w>": 10479,
  "ㅇㅏㅇㅔ</w>": 9313,
  "ㄱㅡㅁ</w>": 818,
  "ㅅㅜㅅㅣㄹㅗ</w>": 11854,
  "ㄱㅜㅎㅏㄱㅗ</w>": 3682,
  "ㅂㅗㄹ": 1262,
  "ㅇㅗㄴㅈㅓㄴㅎㅣ</w>": 16067,
  "ㄷㅣㅈㅓ": 12581,
  "ㅇㅕㄱㅣ": 1809,
  "ㅅㅡㅁㅏㅌㅡㅍㅗㄴ": 5098,
  "ㄱㅓㄴㄱㅏㅇ": 1454,
  "ㅂㅐㅇㅜㄹ": 12630,
  "ㅊㅐㅇㅛㅇ</w>": 4783,
  "ㅎㅐㅇㅅㅏ": 5855,
  "ㄱㅗㅇㄱㅏㅁ</w>": 15732,
  "ㅎㅏㄴㄷㅏㄴㅡㄴ</w>": 1782,
  "ㅍㅏㄴ": 654,
  "ㄹㅐㄴㄷㅡ</w>": 3419,
  "ㅇㅞㅂ</w>": 2571,
  "UEFA</w>": 15795,
  "ㅎㅕㄴㅅㅣㄹㅇㅡㄹ</w>": 12610,
  "ㅁㅕ</w>": 828,
  "ㅇㅡㄴ</w>": 294,
  "ㄱㅚ": 1744,
  "ㅎㅗㄹㅡㄹ</w>": 10279,
  "ㅋㅔㅇㅣㅂㅡㄹ</w>": 5965,
  "ㄴㅏㅁㄱㅕㅈㅜㅅㅔㅇㅛ</w>": 8659,
  "ㅂㅜㅈㅓㅇ": 3960,
  "ㅇㅚㄴㅉㅗㄱ</w>": 8664,
  "ㄴㅡㄴㄷㅔㄷㅗ</w>": 10683,
  "ㅂㅗㅅㅣㄱㅗ</w>": 16124,
  "Le": 6705,
  "ㅋㅓㅂ</w>": 3297,
  "ㄱㅏㅇㅔㄱㅔ</w>": 14358,
  "ㅅㅡㅂㄱㅘㄴㅇㅡㄹ</w>": 15883,
  "...)</w>": 8899,
  "ㅌㅔㄹㄹㅔ": 5334,
  "ㄱㅡㄹㅔ": 6407,
  "ㅎㅏㅂ": 688,
  "ㅇㅏㄵㅇㅏㅅㅓ</w>": 13587,
  "ㅈㅜㅇㄱㅜ</w>": 12127,
  "ㅅㅇㅢ</w>": 7512,
  "ㅇㅜㄴㅇㅣ</w>": 9478,
  "ㅇㅣㅆㅇㅡㄹㄲㅏㅇㅛ</w>": 6015,
  "ㅎㅓㅇㅛㅇ": 5104,
  "ㅎㅕㅁ": 4648,
  "ㅌㅗㅇㅎㅏㅂ": 3169,
  "ㄷㅏㅂㅗㄴㅣ</w>": 5551,
  ")(</w>": 8363,
  "ㅇㅏㅂ": 1715,
  "ㅋㅐㅁㅍㅓ": 3252,
  "ㅇㅓㄹㅗ</w>": 4922,
  "ㅎㅗㅁ": 1157,
  "ㅊㅚㅈㅓㄱㅎㅘ</w>": 11070,
  "ㅌㅡㄱㅅㅜ</w>": 13223,
  "ㄱㅜㄷ": 4127,
  "ㅁㅗㅇㅏ": 6190,
  "ㅅㅓㄱ": 799,
  "ㄴㅔㅌㅡㅇㅝㅋㅡㄹㅡㄹ</w>": 14315,
  "ㅈㅗㄱㅏ</w>": 10798,
  "ㅅㅓㄹㄹㅣㅂ": 4771,
  "ㅅㅏㅈㅓㄴ": 6276,
  "ㅇㅑㅇㅚ": 10472,
  "ㅈㅓㄱㄱㅡㄱㅈㅓㄱㅇㅣㄴ</w>": 10909,
  "ㄴㅏㅁㅈㅏㄱㅏ</w>": 10213,
  "ㅈㅓㄻ": 2421,
  "ㅎㅏㄴㅡㄹㅇㅡㄹ</w>": 13147,
  "ㄴㅕㄴ": 591,
  "....</w>": 2076,
  "ㅅㅜㅍ": 6876,
  "ㅂㅗㅇㅕㅈㅜ": 3404,
  "ㅅㅏㄹㅇㅣ</w>": 6878,
  "ㅎㅘㄷㅚㄴ</w>": 3901,
  "II</w>": 6545,
  "ㅂㅕㅇㅇㅡㄹ</w>": 9324,
  "ㅅㅡㅋㅣㄹ</w>": 15715,
  "ㄱㅗㅇㅇㅡㄹ</w>": 6712,
  "Fe": 10861,
  "ㄱㅏㄱㄱㅏㄱㅇㅢ</w>": 5848,
  "yr": 6147,
  "ㅈㅓㅇㅈㅣ</w>": 10148,
  "ㅎㅗㅁㄹㅓㄴ</w>": 5016,
  "ㅅㅓㅂㅣㅅㅡㄹ": 12655,
  "ㅁㅗㅅㅎㅏㄴㅡㄴ</w>": 3555,
  "ㅟ": 129,
  "51</w>": 9402,
  "ㅇㅏㄵ": 2817,
  "ㅅㅗㄱㅇㅡㄹㅗ</w>": 5779,
  "05</w>": 2922,
  "ㅇㅗㄹㅡ": 3581,
  "ㄱㅏㅅ": 11809,
  "ㅁㅣㅅㅜㄹ</w>": 9307,
  "ㅁㅏㄹㄹㅏ</w>": 7677,
  "ㅇㅚㅇㅢ</w>": 5958,
  "ㅈㅏㄹㅣㅎㅏㄱㅗ</w>": 15805,
  "ㅅㅏㅇㅕㄴ": 14135,
  "ㄱㅜㄹ</w>": 3685,
  "ㅌㅚ": 1952,
  "ㅡㄴㅡㄴ</w>": 2191,
  "ㄷㅏㄴㅁㅏㄹㄱㅣ</w>": 15417,
  "ㄱㅏㅎㅐ": 13506,
  "ㅇㅓㄲㅐ": 9536,
  "ㅈㅜㅇㅅㅣㅁ</w>": 6657,
  "ㅅㅣㅈㅏㄱㅎㅏㄴㅡㄴ</w>": 9069,
  "ㅅㅔㅈㅗㅇ": 6671,
  "ㄱㅓㅅㄷㅡㄹㅇㅡㄴ</w>": 14861,
  "ㅋㅣㅇㅜㄴㅡㄴ</w>": 14151,
  "ㅂㅜㅁㅗㄴㅣㅁ": 13191,
  "ㅅㅣㅁㄱㅏㄱ": 4509,
  "ㄷㅏㅇㅜㄴ</w>": 1904,
  "of</w>": 1735,
  "ㅇㅕㄴㅇㅡㄹ</w>": 8996,
  "ㅅㅣㄱㅏㄴㅈㅓㄱ</w>": 9415,
  "ㄱㅕㅇㅎㅓㅁㅇㅡㄴ</w>": 12725,
  "der</w>": 9461,
  "ㅇㅣㄹㅡㄹ</w>": 1115,
  "ㅡㅁ</w>": 897,
  "ㅂㅏㄴㅇㅡㅇㅇㅣ</w>": 13421,
  "ㅁㅣㄷㄴㅡㄴ</w>": 9437,
  "ㅍㅡㄹㄹㅔㅇㅣ": 2261,
  "ㅂㅣㅇㅛㅇ": 2601,
  "ㅈㅜㄴㅂㅣㅎㅏㄴㅡㄴ</w>": 11614,
  "ㄱㅖㅎㅚㄱㅇㅣ</w>": 14538,
  "ㅇㅔㄴㅌㅓ": 5823,
  "ㅇㅠㅂㅏㄹ": 8019,
  "ㄱㅗㄱㅏ</w>": 8586,
  "ㅅㅣㄹㅁㅏㅇ": 8817,
  "ㅎㅘㄹㅇㅛㅇ": 1741,
  "ㅇㅣㄴㅔㅇㅛ</w>": 6263,
  "ㅈㅔ9": 15806,
  "4ㄷㅐ</w>": 15233,
  "ㅌㅗㅇㅎㅏㅂ</w>": 6400,
  "LA": 5710,
  "ir</w>": 13213,
  "ㅂㅣㄴ": 2060,
  "ㅎㅘㄱㅂㅗ": 4567,
  "ㅇㅕㄴㄱㅜㄹㅡㄹ</w>": 9105,
  "ㄱㅕㅇㄴㅏㅁ</w>": 8836,
  "ㅂㅜㅁㅗ</w>": 7115,
  "ㄱㅏㅇㅇㅝㄴ": 4904,
  "ㅇㅓㄹㅡㅅㅣㄴ": 16130,
  "ㄹㅡㅁ": 13813,
  "ㄴㅏㅁㅂㅜㄱ": 4323,
  "ㅇㅖㅇㅑㄱㅎㅏㄱㅗ</w>": 13356,
  "ㅇㅓㄴㅡ": 4512,
  "ㅂㅕㄴㅎㅕㅇ": 14979,
  "ㅅㅓㅇㅜㄹㅇㅔㅅㅓ</w>": 14638,
  "ㄱㅗㄹㅣ</w>": 7758,
  "ㄱㅡㄹㄲㅗㄹ": 10816,
  "ㄱㅡㅁㅁㅔ": 11164,
  "TOP</w>": 15278,
  "ㅎㅜㄱㅣㄹㅡㄹ</w>": 15705,
  "ㅌㅗㅇㅎㅏㅇㅕ</w>": 3929,
  "ㅂㅡㄹ": 537,
  "ㅅㅡㄹㅡㄹ</w>": 1037,
  "ㅈㅣ</w>": 327,
  "sc": 7449,
  "ㅁㅗㄹㅡㅈㅣㅁㅏㄴ</w>": 11467,
  "ㅅㅡㅍㅗㅊㅡㅌㅗㅌㅗ": 9452,
  "ㅇㅝㄴㅂㅗㄴ</w>": 14022,
  "ㅇㅕㄱㅅㅏㄱㅏ</w>": 13731,
  "ㅂㅏㅇㅜㄴ": 14581,
  "ㅁㅐㅇㅣㄹ": 9618,
  "ㄹㅓㄴ": 1790,
  "ㅁㅓㄱㅇㅓㅆㄷㅏ</w>": 14282,
  "ㄱㅓㅇㅢ</w>": 1543,
  "Trans": 14845,
  "ㅁㅜㅈㅣ</w>": 12549,
  "ㅊㅣㄴㄱㅜㄷㅡㄹㄱㅘ</w>": 10815,
  "ㅇㅣㅂㅡ</w>": 8062,
  "man</w>": 13101,
  "ㄸㅓㄹㅇㅓㅈㅣㅁ</w>": 11983,
  "ㅅㅡㅌㅓㄴ</w>": 7154,
  "ㅈㅏㅂㅏㅅㅡㅋㅡㄹㅣㅂ": 8551,
  "ㄱㅐㅊㅚ": 3607,
  "ㅈㅓㅂㅅㅗㄱ": 4001,
  "ㅈㅣㅇㅕㄴ</w>": 12004,
  "ㅇㅔㅇㅣㅈㅓㄴㅌㅡ": 3269,
  "ㅇㅗㅈㅣㄱ</w>": 6079,
  "ㅅㅓㅇㅂㅕㄹ</w>": 11423,
  "ㅂㅜㄹㄹㅣㄴㅡㄴ</w>": 8628,
  "ㅈㅓㅎㅣ</w>": 5852,
  "ㄱㅏㄱㅗㅇ": 9822,
  "ㅁㅏㄴㅇㅡㄹㅗ</w>": 6034,
  "ㅇㅚㄱㅜㄱㅇㅣㄴ": 10656,
  "ㄷㅚㅇㅓㅆㅇㅡㅁㅕ</w>": 6112,
  "ㅅㅜㄴㄱㅏㄴ": 4408,
  "ㄱㅏㅈㅣㄹ</w>": 7577,
  "ㅇㅠㅎㅗㄱ": 10748,
  "ㅈㅣㄴㅎㅐㅇㄷㅚㄴ</w>": 11729,
  "ㅂㅣㅈㅣㄴㅣㅅㅡ</w>": 15791,
  "ㅁㅓㄴ": 998,
  "ㅈㅓㄹㄷㅐㄹㅗ</w>": 11219,
  "ㅈㅡㄹㄱㅓㅇㅜㅁㅇㅡㄹ</w>": 15382,
  "ㄱㅘㄴㄹㅕㄴㅎㅐㅅㅓ</w>": 16371,
  "Com": 4654,
  "100": 1754,
  "ㅇㅣㄴㅌㅓㅍㅔㅇㅣ": 12403,
  "ㅅㅏㅈㅓㅇ</w>": 3511,
  "ㅎㅐㄴㄷㅡ": 4312,
  "ㅇㅣㅅㅏㅇㅇㅢ</w>": 2546,
  "ㅈㅐㄴㅡㄴ</w>": 13642,
  "ㅇㅕㄹㄹㅣㄴㅡㄴ</w>": 7255,
  "ㅇㅜㄹㅣㄴㅏㄹㅏㅇㅢ</w>": 8446,
  "ㄲㅡㄹㅓ": 7104,
  "ㅈㅗㅎㅇㅡㄹ": 10895,
  "ㅈㅜㅇㅅㅗㄱㅣㅇㅓㅂ": 9975,
  "ㅎㅜㄹㄹㅠㅇㅎㅏㄴ</w>": 4871,
  "ㅇㅏㄶㄱㅓㄴㅏ</w>": 15807,
  "ㅎㅚㅈㅏㅇㅇㅢ</w>": 15940,
  "20ㅇㅣㄹ</w>": 6224,
  "ents</w>": 7654,
  "ㅈㅐㅁㅣㅆ": 7613,
  "ㅎㅣㅈㅣ</w>": 15909,
  "\"'</w>": 13834,
  "ㄱㅕㄹㅎㅏㅁ": 15431,
  "ㄷㅏㄹㄹㅓ": 4208,
  "ㅇㅓㅇㅑ</w>": 1414,
  "ㄱㅡㄹㅓㅎㄷㅏ</w>": 9039,
  "ㅌㅗ</w>": 1285,
  "ㅓㄱ": 11276,
  "ㅁㅜㄹㅇㅔ</w>": 3518,
  "ㅇㅔㄱㅔㅁㅏㄴ</w>": 13339,
  "ㄴㅏㅇㅣㅌㅡ</w>": 16039,
  "ㅅㅏㅇㅣㅈㅡ</w>": 5588,
  "ㅈㅏㅈ": 13762,
  "ㅊㅗㅇㅡㅁ": 15520,
  "ㅇㅐㅌㅡㄹ": 10874,
  "ㅅㅓㅇㄷㅗ</w>": 7623,
  "ㅅㅣㄹㅅㅡㅂ</w>": 9544,
  "ㅋㅏㄴ": 3155,
  "ㄴㅗㄴㅈㅐㅇ": 12449,
  "ㅊㅐㄹㅗ</w>": 12970,
  "ㅅㅏㅇㅏㄴ": 10966,
  "ㅎㅚㅅㅏㅇㅢ</w>": 4733,
  "ㅈㅏㅇㄷㅗ</w>": 11779,
  "ㅅㅜㄹㄱㅘ</w>": 14600,
  "ㄴㅗㄴㄹㅏㄴ</w>": 9378,
  "ㅊㅏㅇㅢ</w>": 7274,
  "ph": 4572,
  "ㅌㅏㄱㅏ</w>": 16238,
  "ㅎㅡㄱㄷㅏㄴ</w>": 11884,
  "ㅈㅏㅊㅔㄴㅡㄴ</w>": 13240,
  "ㄱㅓㅁㅅㅐㄱㅇㅡㄹ</w>": 13046,
  "con": 3174,
  "ㅇㅓㅁㅁㅏㄱㅏ</w>": 9277,
  "ㄱㅏㅈㅣㄱㅔ</w>": 14123,
  "ㅇㅠㅈㅓㄴㅈㅏ</w>": 15745,
  "ㅅㅐㅇㄱㅣㄴㅡㄴ</w>": 10053,
  "ㅌㅔㄴㅣ</w>": 13498,
  "ㅈㅓㄴ</w>": 516,
  "ㅇㅏㄴㅡㄴ</w>": 2679,
  "ㅈㅏㄹㅛ</w>": 1560,
  "ㅊㅜㅊㅓㄴㅎㅏㄴㅡㄴ</w>": 16309,
  "ㅍㅏㅌㅣ</w>": 5741,
  "ㅎㅘㄴㄱㅕㅇ</w>": 2779,
  "ㅎㅘㅁㅕㄴㅇㅣ</w>": 12364,
  "ㅎㅏㅁㄲㅔ": 3545,
  "ㅈㅓㄱㅈㅣ</w>": 10303,
  "ㅅㅗㅅㅕㄹㄱㅡㄹㅐㅍㅡ": 2895,
  "ㄱㅓㅂㅜ": 4310,
  "ㅅㅏㅇㅇㅟ</w>": 8954,
  "ㅀ</w>": 248,
  "ㅈㅏㅂㅜ": 14074,
  "ㅈㅏㅇㅇㅐㅇㅣㄴ</w>": 5784,
  "ㄱㅡㄹㅓㅁㅡㄹㅗ</w>": 4772,
  "ㅅㅓㄹㅠㄹㅡㄹ</w>": 16133,
  "ㄷㅡㅇㅈㅏㅇㅎㅏㄴㅡㄴ</w>": 12477,
  "j": 64,
  "ㄴㅐ": 400,
  "ㅅㅜㅅㅏ": 7477,
  "ㄷㅐㅇㅔㅅㅓ</w>": 6332,
  "ㄱㅜㄱㅇㅔ</w>": 7776,
  "KO": 12463,
  "ㅎㅑㅇ</w>": 1745,
  "ㅂㅣㅅㅡㅅ": 5372,
  "ㅇㅠㅇㅏ": 5653,
  "ㅈㅓㅈㅇㅡㄴ</w>": 13634,
  "ㅇㅣㄴㄱㅏ</w>": 1788,
  "ㅈㅜㅇㄱㅏㄴ</w>": 6037,
  "ㅇㅔㄱㅔㄷㅗ</w>": 5844,
  "ㅈㅕㅇㅑ</w>": 6845,
  "ㅂㅗㅈㅣ</w>": 3888,
  "ㅂㅕㄱ</w>": 3554,
  "ㄴㅏㅇㅏ": 3742,
  "ㅅㅏㅇㅠㄹㅗ</w>": 11121,
  "!\"</w>": 6115,
  "ㅅㅐㅇㄱㅕ": 5021,
  "ㅈㅐㅇㅢ</w>": 12120,
  "ㅂㅜ": 335,
  "ㅈㅣㅇㅇㅣ</w>": 15316,
  "ㅈㅣㄴㅎㅐㅇㅎㅏㄱㅗ</w>": 9653,
  "ㅅㅓㄴㅌㅐㄱㅇㅡㄹ</w>": 8805,
  "ㅎㅟㄹ": 9850,
  "ㄴㅡㄲㅣ": 1124,
  "ㅊㅗ</w>": 1795,
  "ㅁㅗㄷㅔ": 1335,
  "ㅇㅜㅇㅜㄹ": 7056,
  "ㅇㅏㄲㅏ</w>": 13519,
  "ㅅㅡㅌㅡㄹㅏㅇㅣㅋㅡ</w>": 16207,
  "ㅅㅓㄴㅌㅐㄱㅎㅏㄹ</w>": 6752,
  "ㅅㅏㅇㅇㅢ</w>": 2322,
  "ㅇㅜㅅㅡㅇㅇㅡㄹ</w>": 9342,
  "ㅈㅜㅇㅓ</w>": 12169,
  "ㅍㅏㅇㅣ": 4575,
  "ㅂㅕㄴ": 588,
  "ㅊㅚㅈㅓㄱㅏ</w>": 8694,
  "ㅁㅣㅁㅏㄴㅇㅢ</w>": 14420,
  "ㅁㅜㄴㅅㅓㄱㅓㅁㅅㅐㄱ</w>": 3383,
  "ㄴㅜㄴㅁㅜㄹ</w>": 12709,
  "ㅇㅙㄴㅑㅎㅏㅁㅕㄴ</w>": 7596,
  "ㅅㅏㅎㅚㅇㅔ</w>": 7929,
  "F</w>": 173,
  "ㅃㅏㅈㅕ": 8464,
  "ㅇㅔㄱㅔㅅㅓ</w>": 6966,
  "ㅎㅏㅇㅕㅆㄱㅗ</w>": 6025,
  "ㅁㅜㄴ</w>": 756,
  "ㅈㅜㄹㅕㄱ": 13438,
  "ㅊㅏㅁㅇㅡㄹ</w>": 13469,
  "ㅊㅣㄱㅏ</w>": 4233,
  "ㅈㅣㄹㄴㅐ</w>": 15464,
  "ㄱㅣㅊㅗ</w>": 8209,
  "ㅋㅡㄴㄱㅏㅅㅡㅁ</w>": 4741,
  "ㄱㅗㅇㄱㅏㄴㅇㅔ</w>": 14234,
  "ㅇㅣㄹㅂㅜㄴㅡㄴ</w>": 11725,
  "ㅈㅔ4": 8797,
  "ㅇㅜㅇ</w>": 8606,
  "ㅈㅏㅅㅜ</w>": 15536,
  "ㅂㅏㅌㅏㅇ": 4068,
  "ㄸㅓㄴ": 3570,
  "ㅅㅗㅇㅢ</w>": 4629,
  "ㅍㅜㄹㅇㅓ</w>": 14816,
  "ㄱㅓㄹㅇㅓ": 6806,
  "ㅇㅑㄱㅏㄴ</w>": 16157,
  "ㅈㅜㄹ": 874,
  "GP": 12037,
  "ㅂㅗㄴㅐㄱㅣ</w>": 7565,
  "ㅎㅕㅇㅇㅣ</w>": 8188,
  "ㅌㅡㄱㅂㅕㄹ</w>": 7878,
  "ㄱㅔㅇㅣ</w>": 8078,
  "ㅎㅣㄹ</w>": 5325,
  "ㅈㅏㅂㄴㅡㄴ</w>": 10516,
  "ㄷㅏㄴㅈㅓㅁㅇㅣ</w>": 16221,
  "il</w>": 3819,
  "ㅇㅏㅇㅣㄹㄹㅐㄴㄷㅡ</w>": 11508,
  "ㅇㅓㄹㅕㅇㅝ": 7392,
  "ㅇㅣㅂㅊㅏㄹ": 11031,
  "ㅅㅗㅅㅕㄹㄱㅡㄹㅐㅍㅡㅅㅏㅇㅣㅌㅡ</w>": 14543,
  "ㅇㅑ</w>": 747,
  "ㅇㅖㅅㅏㅇㄷㅚㄴㄷㅏ</w>": 16206,
  "ㄱㅡㅁㅇㅣ</w>": 6084,
  "ㅅㅏㅇㄷㅐㅈㅓㄱ</w>": 14361,
  "ㅇㅔㄴㅏ</w>": 15819,
  "CI": 16064,
  "ㄷㅡㅇㄱㅘ</w>": 6117,
  "ㅎㅜㅎㅚ": 11245,
  "ㄷㅜㄱㅗ</w>": 2208,
  "ㅊㅜㅇㄴㅏㅁ": 10419,
  "ㅈㅜㅈㅔㄹㅗ</w>": 9749,
  "ㅁㅛㅎㅏㄴ</w>": 14229,
  "ㅎㅐㅆㅇㅡㅁㅕ</w>": 4680,
  "ㅐㅆㄷㅏ</w>": 13609,
  "ㅇㅠㅇㅢ": 9373,
  "ㅂㅐㅇㅜㄴ</w>": 12350,
  "ㅈㅜㅇㅔ</w>": 6012,
  "ㅅㅜㅅㅣㅂ": 12756,
  "ㄱㅕㅇ</w>": 995,
  "ㅍㅔㅇㅣㅈㅣㄱㅏ</w>": 15718,
  "ㄴㅐㅈㅏㅇ</w>": 14248,
  "ㅇㅗㄱㅔ</w>": 15830,
  "ㅅㅏㅇㅕㄱ": 10207,
  "ㅇㅓ</w>": 410,
  "ㅈㅜㅁㅏㄹㅇㅔ</w>": 16302,
  "ㅍㅏㄴㅁㅐㄹㅡㄹ</w>": 15029,
  "ㅈㅜㅅㅣㄴ</w>": 4611,
  "ㅇㅣㅆㄱㅣ</w>": 2276,
  "U</w>": 196,
  "ㄱㅣㄴㅡㅇㄱㅘ</w>": 14351,
  "ㄹㅜㅁㅣㄴ": 10049,
  "ㅅㅣㅈㅡㄴ": 3535,
  "ㅁㅜㄴㅅㅓㅇㅢ</w>": 14793,
  "ㅅㅣㄹㄹㅣㅋㅗㄴ</w>": 15669,
  "ㄴㅗㅎㅇㅕ</w>": 15256,
  "ㅇㅕㄴㅈㅜ": 7537,
  "ㄷㅐㄷㅏㄴㅎㅣ</w>": 10639,
  "!!</w>": 1608,
  "ㄷㅗㄴㅇㅡㄹㅗ</w>": 15100,
  "ap": 1869,
  "ㅈㅓㅇㄷㅗㄱㅏ</w>": 8855,
  "ㅁㅐㄱㅐ": 14865,
  "CEO": 14153,
  "ㄱㅕㄹㄱㅘㅇㅔ</w>": 9129,
  "ㄱㅗㄱㅐㄱㅇㅣ</w>": 8235,
  "ㄹㅠ</w>": 1811,
  "for</w>": 3900,
  "ㅁㅏㄴㅇㅝㄴ</w>": 2168,
  "ㅍㅣㅂㅜ": 5847,
  "ing": 2789,
  "ㅇㅛㅇㅣㄴ</w>": 10129,
  "ㅍㅕㄴㅇㅢ</w>": 3832,
  "puss": 11943,
  "ㅇㅏㄹㄹㅕㅈㅜㅅㅔㅇㅛ</w>": 10901,
  "ㄹㅣㅅㅡㅌㅡ</w>": 6684,
  "ㄱㅏㅇㅛ</w>": 2209,
  "ㅁㅜㅊㅓㄱ</w>": 9326,
  "ㅇㅗㄴㅡㄹ": 1700,
  "ㅅㅏㅇㅘ</w>": 2681,
  "ㄹㅏㅇㅣㅂ": 2811,
  "ㅁㅔㅅㅣ": 2686,
  "40": 2096,
  "ㅈㅣㅇㅝㄴㅅㅏㅇㅓㅂ</w>": 16170,
  "ty</w>": 9705,
  "ㄲㅓㄴ": 16364,
  "pris": 12583,
  "ㅁㅏㄴㅎㅏㄴ</w>": 2319,
  "ㅎㅏㄴㅏ</w>": 1590,
  "ㅎㅘㅇ": 867,
  "ㅁㅏㄷㅏ</w>": 1805,
  "ㅇㅕㅅㅓㅇㅇㅣ</w>": 12926,
  "ㄷㅐㅎㅏㄴㅁㅣㄴㄱㅜㄱ</w>": 2758,
  "ㅊㅓㅇㄴㅕㄴ": 4524,
  "ㅇㅜㅁ": 2090,
  "ㅎㅏㄱㅣㄹㅗ</w>": 4355,
  "ㅊㅜㄱㄱㅜ</w>": 4236,
  "ㄱㅐㄱㅅㅣㄹㅇㅡㄴ</w>": 14792,
  "ㅈㅜㄱㅏ</w>": 5149,
  "end": 5465,
  "ㅅㅏㅇㅛㅇㅎㅐ</w>": 8582,
  "vis": 6905,
  "ㅁㅗㅇ": 1054,
  "ㅈㅜㅇㅇㅏㅇ": 2403,
  "ㄱㅣㅅㅏㅇ": 9196,
  "ㄱㅐ</w>": 812,
  "ㅗㅎㅇㅡㄴ</w>": 13924,
  "-": 10,
  "ㅇㅣㅁㅔㅇㅣㄹㄹㅗ</w>": 10586,
  "ㅅㅓㅇ</w>": 598,
  "ㄱㅜㅁㅐㅎㅏㄹ</w>": 14590,
  "ㅈㅣㄱㅡㅁㄲㅏㅈㅣ</w>": 3798,
  "ㅅㅣㅈㅏㄱㅎㅏㄴㄷㅏ</w>": 11504,
  "ㅈㅚㅅㅗㅇ": 5082,
  "ㅂㅗㄴㄱㅕㄱㅈㅓㄱㅇㅡㄹㅗ</w>": 10646,
  "ㅈㅔㅈㅗ</w>": 6645,
  "ㅇㅑㄱ</w>": 905,
  "3ㅎㅚㅁㅏㄴ</w>": 5299,
  "ㅇㅜㅇㅠ</w>": 13333,
  "ㅇㅏㄶㅇㅡㄴ</w>": 1371,
  "ㄱㅏㅁㅕㄴ</w>": 3289,
  "ㄱㅣㅂㅗㄷㅏㄴㅡㄴ</w>": 14406,
  "ㅇㅣㄴㅍㅡㄹㅏ</w>": 14106,
  "ㄱㅏㄴㅇㅣ</w>": 11511,
  "ㅎㅏㄷㅏ": 12730,
  "ㅅㅏㅇㅡㄴ": 13400,
  "ㄷㅚㄱㅔㅆㅅㅡㅂㄴㅣㄷㅏ</w>": 14017,
  "ㄴㅗㅇㅇㅓㅂ": 7259,
  "79": 16180,
  "ㅉㅗㄱ": 1304,
  "ㅂㅏㅇㅊㅣㅁㅇㅔ</w>": 4869,
  "ㅇㅗㅅㅇㅡㄹ</w>": 6250,
  "2005</w>": 16374,
  "ㅈㅣㅇㅕㄱㄹㅗㄱㅡ</w>": 9149,
  "ㅇㅠㅈㅣㅎㅏㄱㅗ</w>": 13556,
  "ㄷㅏㅇㅅㅓㄴ": 9496,
  "ㅋㅗㄹㅣ": 4780,
  "ㅍㅡㄹㅣㅁㅣㅇㅓ": 14767,
  "ㅇㅕㄴㄱㅕㄹㅇㅡㄹ</w>": 15770,
  "ㅂㅏㄱㅎㅏㄴ</w>": 11149,
  "ㅅㅏㅇㅜㄴㄷㅡ</w>": 13926,
  "ㄹㅛㄹㅡㄹ</w>": 4568,
  "ㅈㅜ": 305,
  "ㅁㅜㄹㄹㅗ</w>": 6757,
  "ㅋㅓㅁㅍㅠ": 1572,
  "ㅎㅏㄴㄱㅔㅇㅣㅁ": 16028,
  "ㅇㅔㅅㅓ": 635,
  "ㅇㅔㄴ</w>": 1750,
  "3ㄷㅐ</w>": 9999,
  "ㅁㅗㄱㅈㅓㄱ</w>": 4228,
  "ㅎㅘㅈㅣㄹ</w>": 12262,
  "ㅇㅖㅇㅑㄱㅅㅣㅈㅓㅁㅇㅡㄴ</w>": 11972,
  "ㅊㅣㅋㅣㄴ</w>": 13369,
  "ㅎㅏㄱㅅㅐㅇ": 1416,
  "ㅍㅛㄹㅡㄹ</w>": 5504,
  "ㄷㅗㄹㅗㄱ": 10979,
  "ㅇㅣㄹㅓㅎㅏㄴ</w>": 1433,
  "ㄱㅜㅂㅜㄴ": 4705,
  "ㅌㅏㅈㅓㅁ</w>": 11727,
  "ㅎㅏㅅㅣㄹ": 8239,
  "ㄴㅡㄹ</w>": 1255,
  "ㅇㅑㄱㅅㅗㄱ</w>": 13454,
  "ㅎㅚㅈㅏㅇ": 9978,
  "Dr": 8275,
  "ㄱㅓㅁㅅㅐㄱ</w>": 1441,
  "ㅡㅁㅕㄴ</w>": 2222,
  "ㅂㅜㄴㄷㅡㄹㄲㅔ</w>": 10549,
  "ㅅㅣㄴㅂㅣ": 12173,
  "ㄷㅔㅅㅡㅋㅡ": 8548,
  "ㄱㅜㅂㅕㄹ": 11523,
  "ㅂㅣㅅㅡ</w>": 14591,
  "ㄱㅐㅅㅓㄴ</w>": 5123,
  "ㅎㅗㅁㄹㅓㄴㅇㅡㄹ</w>": 10485,
  "ㅇㅣㄹㅇㅓㄴㅏㄴ</w>": 10444,
  "ㅅㅏㄹㅣ</w>": 14668,
  "ㅁㅗㄱㄱㅕㄱ": 15881,
  "ib": 5783,
  "ㅁㅗㄹ": 786,
  "ㄴㅓㅇㅘ</w>": 13601,
  "ㅌㅗㅇㅅㅣㄴ</w>": 4758,
  "xHamster</w>": 3875,
  "ㅇㅡㅁㅇㅡㄹ</w>": 1950,
  "ere": 12645,
  "ㅂㅏㄷㅏ": 2802,
  "ㅂㅓㅂㅈㅓㅇ": 9144,
  "ㄷㅓㄱ": 1612,
  "ㅋㅓㄴㅅㅓㄹㅌㅣㅇ</w>": 9082,
  "ㅈㅜㄴㅕㄴㅇㅡㄹ</w>": 13134,
  "ㅎㅡㄹㅣ": 13216,
  "ㄱㅕㄹㄱㅘㄴㅡㄴ</w>": 8220,
  "ㄴㅏㅇㅔㄱㅔ": 15968,
  "ㅅㅓㅇㅊㅜ": 12667,
  "ㅇㅣㅅㅡ": 15153,
  "ㅍㅏㅌㅡㄴㅓ</w>": 12030,
  "ㄷㅏㄹㄹㅕ": 4723,
  "ews</w>": 6837,
  "ㅊㅓㄴㅇㅕㄴ": 9829,
  "ㄴㅏㅁㅏ</w>": 6626,
  "ㄷㅜㄹ": 1166,
  "ㄷㅏㄴㅅㅜㄴㅎㅏㄴ</w>": 8077,
  "ㅂㅔㄴ</w>": 12521,
  "ㅅㅣㅇㄱㅏ": 6920,
  "ㅊㅚㄱㅗ": 6019,
  "ㅍㅏㅁ": 9413,
  "ㄱㅗ": 368,
  "ㄱㅏㄹㅣ": 4033,
  "ㄴㅓㅁㅊㅣㄴㅡㄴ</w>": 9110,
  "ㅂㅏㅇㅣ": 1758,
  "ㅈㅏㅇㅕㅇ": 16046,
  "ㅅㅏㅇㅣㅌㅡㅇㅢ</w>": 4822,
  "ㅈㅏㅁ": 1396,
  "ㄱㅜㄱㅇㅔㅅㅓ</w>": 8912,
  "ㅅㅓㅇㄱㅣ</w>": 9816,
  "30ㅇㅣㄹ</w>": 5417,
  "ㅇㅣㅆㄴㅏㅇㅛ</w>": 3778,
  "ㅍㅐㄴㅓㄹ": 11776,
  "load</w>": 13935,
  "v</w>": 221,
  "ㅅㅓㄹㄹㅔ": 12417,
  "ㅈㅜㅇㄱㅗ": 5493,
  "ㄱㅜㄹㅗ</w>": 9523,
  "ㅇㅣㅁㅅㅏㅇ": 9929,
  "ㅈㅏㅈㅣ</w>": 3805,
  "ㄱㅣㅁㄱㅘㅇ": 16183,
  "ㅇㅕㅅㅓㅇㅇㅢ</w>": 7510,
  "ㄴㅡㄲㅣㄴ</w>": 12432,
  "ㅅㅏㅇㄷㅏㅁ": 3195,
  "ㅈㅣㅇㅝㄴㅎㅏㅂㄴㅣㄷㅏ</w>": 9794,
  "ㅈㅔㄹㅡㄹ</w>": 2354,
  "ide</w>": 9014,
  "ㄱㅗㄱㅐㄱ": 1207,
  "ㅆㅏㅎ": 3707,
  "ㅎㅏㅁㅇㅣ</w>": 5145,
  "!</w>": 235,
  "ㄴㅕ</w>": 4187,
  "ㅍㅐㅋㅣ": 4295,
  "ㄷㅡㄹㄷㅗ</w>": 1798,
  "ㄱㅏㄴㄷㅏㅁ": 12743,
  "ㄱㅝㄴㅈㅏㅇ": 9596,
  "ㄴㅗㅍㄷㅏ</w>": 8194,
  "Ex": 4089,
  "ㅁㅏㄶㅇㅡㄴ": 10141,
  "ㅇㅓㅄ": 417,
  "ㅌㅡㄹㅣㅂㅇㅓㄷㅡㅂㅏㅇㅣㅈㅓ</w>": 10525,
  "ㄱㅏㅁㅅㅏㅇㅁㅜㄴ</w>": 7549,
  "ㅁㅣㄹ": 968,
  "ㅍㅕㄴㅇㅏㄴㅎㅏㄴ</w>": 6887,
  "ㅇㅕㅇㅇㅡㄴ</w>": 12990,
  "ㅎㅏㄱㄱㅛㅈㅓㅇㅂㅗ</w>": 5293,
  "ame</w>": 7086,
  "ㅂㅡㄹㄹㅜ": 4041,
  "ㅇㅣㄹㅏㄱㅗ</w>": 1005,
  "2014</w>": 7072,
  "800": 8711,
  "ㅅㅣㄹㅊㅓㄴ": 4381,
  "ㅌㅜㄹ": 3957,
  "ㅇㅣㅇㅣㄱ": 6414,
  "ㅅㅓㅇㅇㅣㄴ": 4502,
  "ㄷㅡㄱㅏ</w>": 2205,
  "jp": 4556,
  "ㅇㅐㄱ</w>": 2295,
  "20ㅍㅔㅇㅣㅈㅣ</w>": 15552,
  "Ap": 3791,
  "ㄴㅏㄹㄹㅕ</w>": 11720,
  "ㅈㅜㅇ</w>": 715,
  "1980": 8799,
  "ㅋㅣㅇ": 2988,
  "ㅈㅓㄹㅇㅑㄱ": 11873,
  "ㅇㅣㄴㄱㅘ</w>": 3750,
  "ㅂㅔㅌㅡㄴㅏㅁ</w>": 7140,
  "ㅇㅕㅎㅗㅇ": 8229,
  "ri": 1453,
  "9ㅇㅣㄹ</w>": 5813,
  "ㅋㅐㄹㄹㅣㅍㅗ": 9147,
  "ㅅㅏㄹㅏㅁㄱㅘ</w>": 6721,
  "ㅁㅗㄱㅅㅗㄹㅣㄹㅡㄹ</w>": 11242,
  "ㅅㅏㅇㅛㅇㅎㅏㅂㄴㅣㄷㅏ</w>": 8985,
  "ㅁㅏㅊㅣ": 15585,
  "ㅈㅡㅇㅢ</w>": 9162,
  "ㅇㅡㅇㅅㅣ": 13433,
  "te</w>": 8248,
  "ㄴㅏㅁㅈㅏ</w>": 2834,
  "ㅈㅣㄴㄷㅏㄴㅡㄴ</w>": 10641,
  "ㅅㅣㄴㄱㅕㅇ": 4364,
  "ㄹㅕㅇㅑ</w>": 10021,
  "ㅂㅚ": 11405,
  "ㅈㅓㄹㅓㄴ</w>": 6484,
  "ㅇㅣㄱㅣㄴ</w>": 9812,
  "ㄱㅕㄴㄷㅣ": 11754,
  "ㅇㅚㄴ": 4241,
  "ion": 2945,
  "ㄱㅘㅎㅏㄱ</w>": 4468,
  "Porn</w>": 4415,
  "ㅌㅗㅇㅅㅣㄴ": 2212,
  "ㅂㅕㄹㄷㅗ</w>": 6569,
  "ㅁㅗㅁㅇㅔ</w>": 6340,
  "ㄱㅡㅁㅇㅢ</w>": 13756,
  "ㅎㅘㄹㅕ": 5727,
  "ㄱㅕㅇㄱㅖ": 8038,
  "19ㅇㅣㄹ</w>": 6736,
  "2017ㄴㅕㄴ": 13455,
  "ㅁㅗㅅㅎㅐㅆ": 15918,
  "ㅅㅡㅍㅣ": 2649,
  "ㅊㅏㅈㅇㅏㄱㅏㄴㅡㄴ</w>": 15067,
  "ㄴㅡ": 268,
  "Analdin</w>": 14604,
  "ure": 8086,
  "ㅍㅏㄱㅣ": 12338,
  "ㅇㅡㅁㅅㅣㄱ": 2059,
  "ㄱㅣㅁㅁㅣㄴ": 10289,
  "tx": 15216,
  "ㅂㅗㄱㅘㄴ": 4329,
  "ㅇㅒㄱㅣ": 4073,
  "ㅈㅣㄱㅈㅓㅂ</w>": 1324,
  "ㄷㅓㅇㅣㅅㅏㅇ</w>": 12425,
  "mp3</w>": 10310,
  "ㅊㅓㅇㅡㅁㅂㅜㅌㅓ</w>": 9033,
  "ㅅㅣㄹㅎㅣ</w>": 10930,
  "ㄹㅗㄸㅗ": 8696,
  "ㅇㅚㅂㅜ": 7529,
  "low</w>": 10369,
  "ㄹㅗㅁ": 13582,
  "ㄱㅡㄱㅓㅅㅇㅣ</w>": 3868,
  "ㅌㅣㅁㅇㅡㄹ</w>": 8359,
  "ㅈㅏㄲㅜ</w>": 6969,
  "ㅎㅐㄷㅏㅇ</w>": 1320,
  "mi": 14477,
  "ㄱㅣ</w>": 353,
  "ㅇㅗㄹㄹㅣㅁㅍㅣㄱ": 6288,
  "ㅂㅐㄱㅕㅇ": 5242,
  "ㅈㅏㄱㅇㅓㅂㅇㅔ</w>": 14314,
  "ㅈㅣㄴㄷㅏ</w>": 2400,
  "ㄹㅏㅇㅣㅍㅡ": 11263,
  "ㄱㅓㅁㅌㅗ": 6125,
  "ㅂㅅㅣ": 1355,
  "ㅁㅔㄹㅡ": 9815,
  "ㅅㅏㄹㅇㅏㄴㅏㅁ": 11558,
  "ㄱㅠㅈㅓㅇㅇㅔ</w>": 8416,
  "ㄱㅗㄹㅁㅗㄱ": 11713,
  "ㅊㅜ": 404,
  "ㅃㅕ": 8066,
  "ㅍㅗㅌㅓㄹ</w>": 12947,
  "ㅇㅣㄹㅗㄴㅇㅢ</w>": 15662,
  "22</w>": 3797,
  "3ㅊㅓㄴ": 11781,
  "ㅌㅐㄷㅗㄹㅡㄹ</w>": 14876,
  "16ㅍㅔㅇㅣㅈㅣ</w>": 12280,
  "ㅎㅏㄹㅁㅏㄴㅎㅏㄴ</w>": 8890,
  "ㅅㅏㅎㅚㄴㅡㄴ</w>": 11396,
  "ㅂㅜㄴㅇㅑㄹㅡㄹ</w>": 14424,
  "ㅎㅗㅇㅘ</w>": 10679,
  "ㄱㅜㄱ</w>": 583,
  "ㄷㅙㅈㅣ</w>": 15494,
  "ㅇㅘㅇㅇㅢ</w>": 15096,
  "ㅎㅏㅁ": 453,
  "ㄹㅏㅁㅕ</w>": 6258,
  "Eng": 8297,
  "ㅁㅜㄷㅐㄹㅡㄹ</w>": 14966,
  "ㅁㅏㄴㄴㅏㅁ": 9917,
  "ㅅㅗㄴㅕㄴ": 6094,
  "ㄴㅐㅁㅅㅐ": 8190,
  "Da": 9006,
  "ㅅㅓㅂㅜ": 15802,
  "ㅂㅔㅌㅔ": 12839,
  "ㅅㅓㅇㅜㄹㄷㅐ</w>": 14072,
  "ㅅㅡㄹㅍㅡㄴ</w>": 14756,
  "ㄱㅗㅇㅛ</w>": 2344,
  "ㅁㅣㅅㅗ</w>": 15200,
  "ㄷㅗㅇㅜ</w>": 5464,
  "ㅅㅗㅅㅡㄹㅡㄹ</w>": 13082,
  "ㄱㅜㄴㅇㅡㄹ</w>": 11104,
  "ㅂㅗㄹ</w>": 985,
  "ㅈㅓㅇㅊㅔ": 7838,
  "ㅋㅐㄴㅏㄷㅏ</w>": 6153,
  "ㅅㅣㅅㅓㄹㅇㅔ</w>": 13738,
  "ㅁㅣㅌㅓ": 1922,
  "ㅇㅏㄹㅍㅏ": 10877,
  "ㅇㅓㄴ": 581,
  "ㅌㅡㄹㅡㄹ</w>": 1307,
  "ㅁㅐㄴ</w>": 3154,
  "ㅎㅕㅂ</w>": 6313,
  "ㅅㅏㅇㄷㅏㅇㅎㅏㄴ</w>": 6143,
  "ㅁㅣㄹㅐ": 2306,
  "ㄷㅐㅅㅏㅇ</w>": 3074,
  "ese</w>": 16085,
  "ㅈㅝㅇㅑ</w>": 8131,
  "ㅅㅓㅁㅇㅠ</w>": 15480,
  "5ㄱㅐ</w>": 8023,
  "ㅏㅇㅣ</w>": 8624,
  "ㄱㅣㅁㄱㅕㅇ": 9156,
  "Database</w>": 15391,
  "ㅌㅏㅇㅣㅇㅓ": 15691,
  "com</w>": 1483,
  "ou</w>": 6133,
  "ㅎㅡㄹㅡㅁ": 7982,
  "ㅅㅛ": 1385,
  "ㄷㅏ": 312,
  "j</w>": 203,
  "ㅅㅡㅌㅏㅋㅣㅇ</w>": 6192,
  "ㅂㅐㄷㅏㄹ</w>": 13643,
  "ㅍㅡㄹㅗㅈㅔㄱㅌㅡ": 13495,
  "EL": 12873,
  "ㅎㅏㄱㅣㅇㅔㄴㅡㄴ</w>": 13118,
  "ㄱㅏㄹㅕ": 8995,
  "ㅌㅏㅇㅣㅁ</w>": 8488,
  "ㅍㅡㄹㄹㅗ": 8507,
  "SA": 7171,
  "ㅊㅝ": 3731,
  "ㅅㅏㄴ": 486,
  "ㅅㅗㅇㅛ": 5837,
  "DA</w>": 16062,
  "ㅊㅓㅇㄱㅜ": 8039,
  "ㅎㅐㅇㅂㅗㄱㅇㅡㄹ</w>": 11042,
  "ㅌㅣㅂ</w>": 4183,
  "ㅇㅣㅂㅅㅏ</w>": 11638,
  "ㅁㅏㄴㅏ</w>": 2123,
  "ㅁㅗㄷㅜㅇㅢ</w>": 4609,
  "ㅅㅔㅁㅜ": 11548,
  "ㅎㅏㄴㄱㅜㄱㅇㅣ</w>": 14734,
  "ㅎㅏㅁㅇㅡㄴ</w>": 8185,
  "ㅎㅕㄴㄱㅡㅁ": 7650,
  "ign</w>": 12022,
  "ㅈㅓㄴㅈㅣ</w>": 14117,
  "DA": 8203,
  "ㅍㅗㄱ</w>": 6693,
  "ㅍㅣㄹㅇㅛㄹㅗ</w>": 8376,
  "ㅈㅜㅈㅔㅇㅔ</w>": 15774,
  "ㅇㅔㄹㄹㅣ": 4938,
  "Se": 5782,
  "ㄴㅣㄷㅏ</w>": 6667,
  "ㅇㅣㄴㄹㅕㄱ</w>": 11520,
  "ㅆㅏㄴ": 9646,
  "ㅊㅕㄷㅏ": 16122,
  "ㄲㅕ": 2608,
  "ㅔㅅㅓㅇㅢ</w>": 9202,
  "ㅁㅔㅇㅣㄹ</w>": 5561,
  "ㅇㅡㅇㄷㅏㅂ</w>": 16026,
  "ㅇㅏㄶㅇㅡㄴ": 10911,
  "act</w>": 11537,
  "HT": 5757,
  "ㅅㅏㅇㅍㅜㅁㅇㅔ</w>": 9989,
  "ㄹㅣㅈㅗㅌㅡ</w>": 7187,
  "ㅎㅐㅈㅕㅆㄷㅏ</w>": 13201,
  "ㄹㅣㅇㅇㅡㄹ</w>": 12562,
  "ㅅㅓㄴ": 425,
  "ㅇㅣㄹㅈㅓㅇ</w>": 3309,
  "ㅅㅔㅁㅣㄴㅏ</w>": 8702,
  "ㅎㅐㅅㅜ": 9941,
  "ㅅㅔㅂㅜ": 9104,
  "yc": 16004,
  "ㅍㅣㅇㅋㅡ": 15097,
  "ㅇㅣㄴㅏ": 9234,
  "ㄷㅡㄹㅗㄴ": 16264,
  "VO": 10091,
  "ㄱㅓㅅㅇㅣㄴㄷㅔ</w>": 11277,
  "ㅌㅓㄱㅏ</w>": 7694,
  "ㅅㅐㅇㄱㅏㄱㅇㅡㄴ</w>": 8141,
  "!'</w>": 12281,
  "ㅊㅐㅁㅍㅣㅇㅓㄴㅅㅡㄹㅣ": 12075,
  "ㅇㅜㅊㅔ": 14128,
  "ㅍㅣㄹㅇㅛ</w>": 4130,
  "ㄱㅣㅍㅇㅡㄴ</w>": 4013,
  "ㅈㅣㅂㄴㅣㄷㅏ</w>": 4412,
  "ㄴㅏㅇㅣㄷㅡㄴㅇㅕㅈㅏ</w>": 7235,
  "ㄱㅣㅇㅓㅂㄷㅡㄹㅇㅣ</w>": 13112,
  "ㅅㅏㄱㅗㄹㅡㄹ</w>": 10853,
  "ㅈㅓㄱㅇㅣㅈㅣ</w>": 13233,
  "ㄴㅗㅍㄱㅔ</w>": 14081,
  "ㅈㅣㅇㅓ": 13430,
  "ㄷㅐㅇㅜ": 11536,
  "ㅇㅡㄹ</w>": 278,
  "ㅇㅢㅇㅝㄴㅇㅡㄴ</w>": 9485,
  "ㅈㅗㅊㅣㄹㅡㄹ</w>": 6995,
  "ㅍㅡㄹㅗㄱㅡㄹㅐㅁㅣㅇ</w>": 9896,
  "ㄷㅏㅁㅂㅐ": 14939,
  "ㄱㅓㅈㅣㅅ": 5985,
  "ㅎㅚㅇㅢ</w>": 2705,
  "ㅇㅕㄴㅅㅜ</w>": 10209,
  "ㅁㅗ": 356,
  "ㅅㅣㄹㅌㅐ</w>": 14036,
  "ㅌㅗㅌㅡ": 12980,
  "ㄷㅓㅅ": 5147,
  "ㅁㅏㄹㅇㅣㅂㄴㅣㄷㅏ</w>": 8480,
  "ㅊㅓㅅㅂㅓㄴㅉㅐ</w>": 5576,
  "ㄱㅏㅇㅔㅅㅓ</w>": 12410,
  "ㅎㅕㄴ</w>": 1523,
  "ㄲㅡㅁ</w>": 4860,
  "ㅇㅏㅍㅡ": 4850,
  "ㅈㅓㄴㅇㅢ</w>": 5306,
  "ㄴㅏㄹㅇㅡㄹ</w>": 7228,
  "ㅈㅐㅅㅐㅇㅅㅜ</w>": 6654,
  "ㅊㅜㄱㅏㅈㅓㄱㅇㅣㄴ</w>": 5645,
  "ㅉㅡㅁ": 7231,
  "ㅁㅣㄹㅡㄹ</w>": 8265,
  "ㅎㅏㄴㅂㅏㄴ": 5432,
  "uc": 2307,
  "ㅇㅙㄴㅈㅣ</w>": 10216,
  "ㅇㅓㄴㅏ": 1807,
  "ㅅㅎㅏㄴ</w>": 1473,
  "lic</w>": 13521,
  "ㅇㅔㄹㄹㅣㅂㅔㅇㅣ": 13578,
  "ㄱㅣㅂㅏㄴㅇㅡㄹㅗ</w>": 7199,
  "ㄲㅡㅌ": 1163,
  "ㅁㅓㄹㅌㅣ</w>": 13079,
  "ㄱㅏㅁㅅㅏ": 1167,
  "ㄴㅏㅆㄷㅏ</w>": 8827,
  "ㅎㅗㅌㅔㄹㅇㅔㅅㅓ</w>": 6293,
  "SO": 11011,
  "ㅇㅏㄶㄷㅏㄴㅡㄴ</w>": 12312,
  "ㅇㅔㅂㅓ": 14062,
  "aㅇㅢ</w>": 10739,
  "ㄱㅖㅈㅓㅇㅇㅡㄹ</w>": 9868,
  "4ㅊㅏ": 13385,
  "ㄴㅣㄴ": 8721,
  "ㅍㅡㄹㅗㄱㅡㄹㅐㅁ</w>": 1935,
  "ㅈㅜㅇㅇㅛ</w>": 10655,
  "ㅈㅗㅇㄹㅠ</w>": 5126,
  "ㄴㅏㄱㅔ</w>": 5871,
  "ㅂㅜㅌㅇㅓ</w>": 12222,
  "ㅈㅔㅍㅜㅁㅇㅡㄴ</w>": 6187,
  "ㅇㅓㄹㅁㅏ</w>": 4837,
  "ㅁㅏㅌㅡ</w>": 8666,
  "ㄱㅜㅈㅗ": 2566,
  "ㄱㅜㄱㄴㅐㅇㅔㅅㅓ</w>": 12181,
  "ation": 4416,
  "ㅅㅣㄱㅍㅜㅁ</w>": 6324,
  "ㅎㅏㄱㄴㅕㄴ": 11528,
  "ㅆㄷㅏㄴㅡㄴ</w>": 2521,
  "18ㅍㅔㅇㅣㅈㅣ</w>": 14042,
  "ㅈㅝ</w>": 8591,
  "ㅈㅏㄱㄴㅕㄴ": 15962,
  "ㄱㅕㄹㅎㅗㄴㅅㅣㄱ</w>": 14485,
  "ㄱㅣㅅㅗ": 15147,
  "ㄱㅗㅇㄱㅣ": 10509,
  "ㅅㅣㅈㅡㄴㅇㅔ</w>": 15101,
  "ㄷㅐㅂㅣ": 6802,
  "ㅅㅏㅇㅢ</w>": 1350,
  "ㄷㅣㄹㅡㄹ</w>": 11906,
  "ㅇㅟㅇㅝㄴㅎㅚㄴㅡㄴ</w>": 12024,
  "ㄱㅜㅇㅣㅂ</w>": 8448,
  "ㄱㅓㅈㅣ</w>": 9348,
  "ㅆㅏㅇㅣ": 12376,
  "ㄱㅡㄹㅓㅁ</w>": 3422,
  "ㅋㅡㄹㅔ": 7570,
  "ㅂㅗㄹㅣ": 16173,
  "ㄴㅐㄹㅣㄱㅗ</w>": 15342,
  "ㄷㅔㅇㅣㅌㅡ</w>": 9774,
  "ㄱㅣㅇㅓㄱㅇㅔ</w>": 12677,
  "ㅇㅏㄴㅣㄹ": 16362,
  "ㅇㅏㅍㅏㅌㅡ</w>": 4020,
  "ㅇㅗㄹㄹㅣ": 3321,
  "ㅇㅜㄱㅣ</w>": 15013,
  "ㄷㅔㅂ": 5224,
  "BB": 15426,
  "ㅁㅏㄴㅡㄴ</w>": 8779,
  "ㅌㅣㅁㄱㅘ</w>": 16016,
  "ㅅㅣㅋ": 9572,
  "ㄴㅏ": 340,
  "ㄱㅘㅇㅢ</w>": 2230,
  "ㅎㅏㄷㅏ</w>": 917,
  "ag": 1354,
  "ㅇㅣㄱㅣㄷㅗ</w>": 3640,
  "ㅅㅓㅅㅓ": 11304,
  "ㄷㅣㅈㅏㅇㅣㄴㅇㅡㄹ</w>": 10323,
  "ㅊㅟ": 817,
  "ㅈㅗㅇㅓㄴ": 8117,
  "ㅆㅣㄱ": 13209,
  "ㅈㅓㄴㅇㅔ</w>": 1144,
  "ㄷㅗ": 373,
  "ㄱㅡㄹㅓㄴㅣ</w>": 7907,
  "ㅍㅏㄴㅁㅐ": 1574,
  "ㅇㅘㅇㅂㅗㄱ</w>": 15282,
  "ㅈㅜㅊㅔ": 10693,
  "ㄱㅓㅅㅇㅣㄴㄱㅏ</w>": 4684,
  "ㅈㅣㄴㅎㅡㅇ": 5666,
  "GT": 13044,
  "ㅈㅔㅇㅏㄴ": 4570,
  "ㅈㅔㅇㅘ</w>": 6869,
  "ㅂㅗㄷㅏ</w>": 857,
  "1ㅈㅏㅇ</w>": 14825,
  "ㄱㅏㅂㅕㅇ": 7410,
  "ㅁㅏㅇㅢ</w>": 6581,
  "ㅇㅠㄹ</w>": 3164,
  "ㅊㅜㄱㅂㅗㄱ": 11557,
  "ㅅㅣㅁㄹㅣㅈㅓㄱ</w>": 15721,
  "ㅍㅡㄹㅓㄴㅌㅡ</w>": 12185,
  "ㅎㅑㅇㅎㅜ</w>": 5207,
  "ㅇㅜㄹㅣㄴㅏㄹㅏ</w>": 4078,
  "ㅇㅕㄱㅇㅔ</w>": 11418,
  "ㄱㅔ": 488,
  "ㄱㅓㄴㅊㅜㄱ</w>": 7691,
  "ㅇㅏㄹㅏㅂ": 15053,
  "ㅅㅓㅇㄱㅗㅇㅎㅏㄴ</w>": 11073,
  "ㅇㅠㅇㅔㄴ</w>": 15123,
  "ㅂㅏㅇㅣㄹㅓ": 6124,
  "ㄷㅡㄹㄹㅗㅂㅜㅌㅓ</w>": 13727,
  "ㅈㅓㅇㅂㅜㅇㅢ</w>": 4813,
  "pe": 12230,
  "ㅈㅣㅇㅕㄱ": 1112,
  "ㄷㅓㅅㅂㅜㅌㅇㅕㅆㄷㅏ</w>": 8713,
  "ㅌㅗㅇㅈㅔ</w>": 13633,
  "Mat": 14863,
  "ㅅㅓㄴㅂㅏㄹ</w>": 7564,
  "ㅋㅓㄴ": 1187,
  "ㅇㅞㄹ": 8367,
  "ㅈㅓㅇㅘ</w>": 11706,
  "Stre": 12061,
  "ㅇㅔㄱㅔㄴㅡㄴ</w>": 3226,
  "ser": 14433,
  "ㅇㅘ</w>": 458,
  "ㅎㅘㄱㄹㅠㄹ": 13586,
  "ㄱㅘㄹㅡㄹ</w>": 16234,
  "ㄷㅏㄱ</w>": 14499,
  "ㅈㅏㅂㅏㄹ": 12148,
  "ㅎㅏㄷㅓㄱㅜㄴㅇㅛ</w>": 12539,
  "ㅡㄹㅗ</w>": 1369,
  "ㄹㅏㄹ": 3415,
  "ㅁㅏㅅㅡㅋㅡ</w>": 15496,
  "ㅁㅜㄹ": 430,
  "ㅅㅓㄹㄱㅖ</w>": 5546,
  "ㅎㅞㅅㅗㄴ</w>": 3176,
  "ㅁㅝㄹ</w>": 7321,
  "ㄷㅡㄷㄱㅣ</w>": 11416,
  "ㅍㅕㅇㄷㅡㅇ": 13996,
  "ㄱㅘㄴㅅㅣㅁㅇㅣ</w>": 4249,
  "ㄹㅏㅇㅣㅂㅡㅅㅡㅋㅗㅇㅓ": 13569,
  "ㅁㅗㅅㅎㅐ</w>": 7369,
  "ㅂㅜㅇㅢ</w>": 3284,
  "ㅁㅣㄷㅇㅡㄹ</w>": 8668,
  "ㅇㅔㅋㅗ": 14311,
  "ㅇㅓㄱㅇㅝㄴ</w>": 5883,
  "ㄴㅡㄴㄱㅓㄴ</w>": 12334,
  "ㄱㅣㅃㅓ": 10434,
  "ㅇㅏㅂㅏ": 13553,
  "ㅂㅏㄹㅗㄱㅏㄱㅣ</w>": 6172,
  "Sec": 12766,
  "ㅅㅏㅈㅣㄴ": 1297,
  "ㅈㅓㅇㄱㅠ</w>": 14983,
  "ㅇㅗㄹㅐㄴㅁㅏㄴㅇㅔ</w>": 8515,
  "ㅍㅣㄴㅡㄴ</w>": 12886,
  "ㅅㅡㅇㅞㄷㅔㄴ</w>": 12471,
  "ㅁㅣㄱㅜㄱㅇㅣ</w>": 9897,
  "ㄱㅡㄹㅐㅍㅡㅂㅜㄹㅂㅓㅂ</w>": 13402,
  "ㅊㅔㄱㅖ": 4668,
  "ㅂㅏㄷㅇㅏㅇㅑ</w>": 7447,
  "ㅅㅏㄹㅏㅈㅣㄴ</w>": 16222,
  "ㅇㅏㅇㅣㅅㅡㅋㅡㄹㅣ": 12056,
  "ㅇㅜㅈㅜ</w>": 10468,
  "ㅅㅓㅇㄴㅡㅇ</w>": 6644,
  "ㅈㅏㄷㅡㄹㄷㅗ</w>": 16087,
  "ㅅㅣㅈㅏㄱ": 931,
  "ㅎㅡㄴㄷㅡㄹ": 7107,
  "ㅈㅏㄹㅁㅗㅅ": 3013,
  "lish</w>": 10644,
  "ㅈㅓㄴㅌㅜ": 7218,
  "ㅎㅡㄱㅇㅣㄴ": 10539,
  "ㅈㅏㄱㅇㅓㅂㅇㅡㄹ</w>": 3814,
  "ㅎㅏㄴㄱㅕㄹ": 12790,
  "ㄱㅡㄹㅣㄴ": 7347,
  "ㅁㅗㄴㅣㅌㅓ": 5733,
  "90": 4352,
  "DV": 5677,
  "any</w>": 12178,
  "ㅅㅣㅇㅔ</w>": 1684,
  "ㅂㅏㅇㅂㅓㅂㅇㅣ</w>": 4991,
  "ㄱㅘㅈㅓㅇㅇㅢ</w>": 11830,
  "ㅂㅗㅇㅣㄴ</w>": 10633,
  "ㅇㅣㅁㅕㅇ": 5908,
  "ㅅㅔㄱㅖㅇㅔㅅㅓ</w>": 7409,
  "ㄱㅓㅅ</w>": 656,
  "ㅂㅏㅁ</w>": 3398,
  "ㅁㅔㄴㅠㄹㅡㄹ</w>": 11021,
  "ㅇㅣㄹㅂㅗㄴㅇㅓ</w>": 9890,
  "ㅅㅏㄴㅅㅣ</w>": 13619,
  "ㅊㅟㅇㅓㅂ": 4642,
  "ㅍㅕㄴㄹㅣ": 3954,
  "ㄷㅏㄴㅇㅔㅅㅓ</w>": 14731,
  "ㅅㅣㄴㄱㅠ": 8737,
  "ㅅㅣㄹㅌㅐ": 12594,
  "ㅂㄴㅣㄲㅏ</w>": 1367,
  "ㄷㅗㄴㅇㅡㄹ</w>": 3053,
  "ㅅㅔㄹㅗ</w>": 9361,
  "ㅂㅟ": 10264,
  "ㅇㅢㅈㅗㄴㅎㅏㅁㅕ</w>": 11082,
  "ㅈㅔㄱㅗㅇㅎㅏㄴㄷㅏ</w>": 7932,
  "ㅈㅣㅂㅓㅂ</w>": 14164,
  "ㅅㅜㄴㅅㅓ": 14985,
  "ㅇㅓㄷ": 1379,
  "ㅇㅐㅍㅡㄹㄹㅣㅋㅔㅇㅣㅅㅕㄴ</w>": 12327,
  "ㅉㅗㄱㅇㅔㅅㅓ</w>": 9742,
  "ㅎㅕㄹ</w>": 12167,
  "ㅅㅡㅋㅞ": 11347,
  "ㅂㅜㅈㅏㅇ": 7726,
  "ㄷㅏㄻ": 8147,
  "ㄱㅡㄹㅐㅍㅣㄱ": 9955,
  "ㅅㅏㅇㅛㅇㅎㅏㄱㅗ</w>": 4607,
  "ㄱㅕㅇㅇㅜㅇㅔ</w>": 5281,
  "ㅂㅏㄹㄹㅗ</w>": 12991,
  "ㅍㅣㄹㅇㅛㄴㅡㄴ</w>": 11140,
  "ㅂㅜㄴㅅㅜ</w>": 8793,
  "ㅇㅕㅇㄹㅣ": 10830,
  "ㅅㅏㅁㅋㅣ": 13511,
  "eㄴㅡㄴ</w>": 14911,
  "ㅊㅣㄹ</w>": 3062,
  "ㄱㅅㅡ": 3294,
  "ㅎㅗㅇㅢ</w>": 5402,
  "ㅁㅏㄹㅆㅡㅁ</w>": 5731,
  "ㅇㅟㄱㅏ</w>": 4588,
  "ㄱㅗㅇㄷㅗㅇㅊㅔ</w>": 10074,
  "ㄹㅗㅁㅏ": 14701,
  "est</w>": 4247,
  "ㄷㅏㅇㅡㅁ</w>": 1359,
  "ㅁㅜㅇㅓㅅㅇㅣㄹㄲㅏ</w>": 14511,
  "ㅁㅜㄴㅈㅔㅈㅓㅁ</w>": 6973,
  "ㅂㅏㅋㅟ": 13900,
  "ㅂㅏㄹㅡㅅㅔㄹㄹㅗㄴㅏ</w>": 16196,
  "ㅍㅗㅁㅐ": 9476,
  "?</w>": 220,
  "ㅇㅏㅁㅏㅊㅜㅇㅓ</w>": 3147,
  "ㅁㅓㅅ": 2338,
  "MER": 6329,
  "ㅇㅡㄹㅗㅅㅓ</w>": 3340,
  "ㄱㅗㄱㅐㄱㅅㅔㄴㅌㅓ</w>": 4032,
  "ㅈㅏㅇㅇㅐ</w>": 5327,
  "ㄴㅗㅎㅏㅇ": 8616,
  "ㄱㅝㄴㅇㅡㄹ</w>": 2937,
  "ㅅㅣㄹㅍㅐ": 3627,
  "ㅈㅗㄱㅓㄴㅇㅔ</w>": 13390,
  "500": 3261,
  "ㅍㅣㄱㅗㄴ": 9986,
  "ㅈㅣㅎㅏ": 3542,
  "int</w>": 6508,
  "ㅇㅓㄹㅕㅂㅈㅣ</w>": 13685,
  "OS": 3755,
  "34": 5882,
  "ㄴㅕㄴㅁㅏㄴㅇㅔ</w>": 15389,
  "ㅅㅣㄱㅅㅏㄴㅡㄴ</w>": 14782,
  "ㄱㅓㅁㅇㅡㄴ</w>": 6028,
  "ul": 2477,
  "ㅊㅏㅂㅕㄹ": 4414,
  "ㅈㅣㅈㅣㄴ</w>": 14912,
  "ㄱㅗㅇㅇㅠㅎㅐㅅㅓ</w>": 14611,
  "ㅇㅑㅈㅣ</w>": 15499,
  "as</w>": 3752,
  "own</w>": 9362,
  "ㅅㅗㅇㅝㄴ": 16319,
  "ㄱㅣㅇㅓㅂㅇㅡㄹㅗ</w>": 15862,
  "ㅈㅐㅁㅜ": 6796,
  "ㄹㅏㅁㅕㄴ</w>": 3952,
  "jpg</w>": 4738,
  "ㅈㅓㄴㅈㅐ</w>": 8949,
  "Exc": 15081,
  "ㄱㅡㅁㄱㅗ</w>": 14458,
  "ㄴㅡㅇ": 547,
  "ㅍㅗㄱㅣ": 4948,
  "ㅎㅐㅈㅣ": 3649,
  "ㅁㅏㅅㅏㅈㅣ</w>": 4266,
  "ㅈㅐㅁㅣ</w>": 10465,
  "form": 5449,
  "ㅇㅑㄱㅅㅗㄱㅇㅡㄹ</w>": 14177,
  "ㄲㅏㄹㄲㅡㅁ": 6239,
  "ㄱㅓㅅㄷㅗ</w>": 1268,
  "ㅂㅏㅇㅎㅑㅇ": 2680,
  "ㄷㅓㅂㅜㄹ": 3786,
  "ㅅㅗㅅㅕㄹㄱㅡㄹㅐㅍㅡㄱㅔㅇㅣㅁ</w>": 7403,
  "ㅁㅏㅇㅣ</w>": 15143,
  "ㅊㅜㅁ</w>": 16052,
  "ㅎㅏㄴㅏㅁㅏㄴ</w>": 12785,
  "ㅇㅣㄹㅊㅣ": 7190,
  "ㅈㅏㅅㅣㄴㅁㅏㄴㅇㅢ</w>": 13780,
  "ㅅㅔㄱㅅㅡ": 9748,
  "ㅌㅔㅁㅍㅡㄹㄹㅣ": 13194,
  "ive</w>": 6387,
  "ㅇㅏㅇㅣ</w>": 4008,
  "ㅍㅕㅇㅊㅏㅇ": 8085,
  "ㅇㅣㄴㅗ": 9078,
  "BEST</w>": 11131,
  "ㄱㅅㅡ</w>": 1007,
  "ㄱㅏㅈㅣㄴ</w>": 2260,
  "ㅇㅗㄹㄹㅏㅇ": 4655,
  "ㅈㅏㅅㅏㄴ</w>": 14528,
  "ㄱㅘㄴㄹㅣㅎㅏㄴㅡㄴ</w>": 12305,
  "ㅈㅗㄴㅈㅐ": 1873,
  "ㅂㅣㅇㅠㄹ": 7622,
  "ㄱㅡㅁㅇㅠㅇ": 2525,
  "ㅂㅜㅂㅜㄴㅇㅔ</w>": 5802,
  "ㅍㅣㅅㅡ</w>": 4534,
  "ㅋㅓㄴㅌㅔㄴㅊㅡ": 6975,
  "ㅁㅜㄹㄱㅓㄴ": 4887,
  "ㅈㅣㅎㅑㅇ": 8199,
  "ㅈㅔㄱㅗㅇㅎㅏㄴㅡㄴ</w>": 2942,
  "ㅅㅡㄹㅓㅂㄷㅏ</w>": 14307,
  "ㄷㅔㅇㅣㅂㅣ": 11695,
  "ㅌㅗㄴㅣ": 14518,
  "ㅂㅔㅇㅣㅂㅣ": 14457,
  "67": 9438,
  "ㄷㅐㅂㅕㄴ": 8895,
  "ㅈㅏㅇㅕㄴ": 1763,
  "ㄱㅏㅆㄷㅏ</w>": 3189,
  "ㅇㅜㄹ": 495,
  "ㄱㅣㄴ": 2388,
  "ㅂㅐㄱㅇㅓㅂ</w>": 13226,
  "ㅈㅗㅎㅚㅅㅜ</w>": 14088,
  "ㅍㅣㄴ</w>": 4990,
  "ㅇㅟㅊㅣㄴㅡㄴ</w>": 15948,
  "und": 11812,
  "ㅣ</w>": 140,
  "ㄱㅣㄹㅇㅡㄹ</w>": 2670,
  "ㄷㅡㅇㅇㅔ</w>": 2323,
  "ㅂㄱㅔ</w>": 1006,
  "EU": 13077,
  "ㅅㅡㅂㄴㅣㄷㅏ</w>": 350,
  "ㄴㅏㄹㅏㅇㅔ</w>": 15519,
  "ia</w>": 4016,
  "ㅁㅏㄹㅏ": 9131,
  "ㄱㅏㄷㅡㄱㅎㅏㄴ</w>": 8366,
  "ick</w>": 7203,
  "ㅋㅣㄹㅗ</w>": 13285,
  "ㅅㅓㄹ</w>": 1071,
  "ㄹㅗㅅㅓㅇㅢ</w>": 11316,
  "5ㄱㅏㅈㅣ</w>": 11841,
  "ㅇㅏㄴㅣㅂㄴㅣㄷㅏ</w>": 3042,
  "ㄱㅐㅂㅏㅇ": 9323,
  "ㅅㅗㅅㅕㄹㄱㅡㄹㅐㅍㅡㅅㅗㅅㅕㄹㄱㅡㄹㅐㅍㅡ": 11494,
  "ㅁㅗㄹㅡㄹ</w>": 5617,
  "ㅇㅣㅇㅠㄴ": 16195,
  "ㅌㅗㄷㅐㄹㅗ</w>": 12270,
  "ㄷㅏㄹㅜ": 4831,
  "ㅎㅕㄴㄷㅐ": 1892,
  "ㅅㅡㄴㅐ": 11829,
  "ㅇㅣㄹㅁㅗㄹ</w>": 6389,
  "ol": 1796,
  "ㄱㅏㅄ": 2324,
  "ㅇㅏㅇㅓ</w>": 9394,
  "ㅇㅣㅇㅜㅅ</w>": 14322,
  "des": 9089,
  "ㅎㅚㄱㄷㅡㄱ": 6994,
  "ㅇㅓㅂㅊㅔ": 2490,
  "ㅇㅣㄱㅓㅅㅇㅡㄹ</w>": 6807,
  "ㅅㅓㄴㅡㄴ</w>": 928,
  "ㅁㅣㄴㅈㅜ": 2143,
  "ㄱㅡㅁㅂㅏㅇ</w>": 10797,
  "ㅂㅜㅅㅏㄴ": 2796,
  "ㅇㅏㄶㅇㅏㅆㄷㅓㄴ</w>": 10325,
  "PD": 5070,
  "ㄱㅡㄱㅂㅗㄱ": 6535,
  "ㄱㅜㅅㅓㅇ": 1401,
  "ㅋㅣ": 508,
  "ㅅㅓㄱㅜ</w>": 11045,
  "ㅅㅡㅇㅇㅣㄴ</w>": 10968,
  "ㅅㅏㅇㅣㅈㅡ": 5441,
  "ㅂㅏㄹㅅㅗㅇ": 6259,
  "ㅎㅕㅇㅈㅔ": 9676,
  "ㅅㅏㅌㅐ": 7305,
  "ㅁㅏㄹㅎㅏㅈㅏㅁㅕㄴ</w>": 14872,
  "ㅌㅏㄴ</w>": 2965,
  "Moon</w>": 16273,
  "BM": 7514,
  "ㅊㅐㄱㅇㅔ</w>": 12960,
  "ㅌㅗㅂ</w>": 11014,
  "ㅁㅏㅁ": 6609,
  "ㅈㅔ2": 4591,
  "ㅍㅜㅇㅅㅗㄱㅇㅡㄴ</w>": 9844,
  "ㅊㅣㅈㅡ": 13766,
  "ㅇㅣㅇㅓㅆㅇㅓㅇㅛ</w>": 15232,
  "ton</w>": 10322,
  "ㅇㅘㄴㅂㅕㄱㅎㅏㄴ</w>": 6152,
  "ㄷㅏㄹㄹㅕ</w>": 10694,
  "Je": 11974,
  "ㅅㅡㄹㅓㅂㄱㅔ</w>": 4331,
  "ㄱㅕ": 376,
  "ㄴㅔㅌㅡㅇㅝ": 2305,
  "ㅇㅕㄴㅂㅏㅇ": 13284,
  "ㄹㅓ": 465,
  "ㅁㅜㅇㅛㅇ": 13127,
  "ㅎㅐㅅㅓ": 5279,
  "ㅎㅚㅅㅏㅇㅔㅅㅓ</w>": 9294,
  "ㅈㅏㅅㅣㄴㄱㅏㅁㅇㅡㄹ</w>": 16152,
  "ㅎㅠㄷㅐㅇㅛㅇ</w>": 12803,
  "ㅅㄱㅏㄹ": 11774,
  "ㅁㅕㅇ</w>": 735,
  "ㅅㅐㄲㅣ": 12653,
  "ㅁㅗㄱㅍㅛ": 2576,
  "ㅅㅣㅇㅓ": 14171,
  "ㄷㅡㄹ</w>": 697,
  "o</w>": 189,
  "ㅂㅣㄱㅛㅎㅏㄹ</w>": 13964,
  "ㄹㅇㅢ</w>": 8645,
  "ㅅㅏㅎㅏㄴ</w>": 5349,
  "ㄴㅠ</w>": 8484,
  "ㅅㅕㄴㄱㅘ</w>": 14160,
  "ㅇㅣㅆㅇㅓㅅㅓㄴㅡㄴ</w>": 15892,
  "ㅂㅗㅇㅏ": 2384,
  "ㄷㅚㄹㄲㅏㅇㅛ</w>": 13131,
  "ㅎㅏㅇㅕㅇㅑ</w>": 3777,
  "ㅍㅡㅇㅘ</w>": 15915,
  "ㅁㅣㄴㅈㅗㄱㅇㅢ</w>": 15579,
  "ㅍㅜㄹㅇㅣ</w>": 12170,
  "ㅂㅐㄱ</w>": 2369,
  "ㅂㅗㄱㅏ</w>": 10269,
  "ㅇㅣㅅㅏㅇ": 1108,
  "ㅈㅏㅇㅅㅗㅇ": 10568,
  "ㅎㅐㅅㅏㅇ": 7162,
  "ㅊㅏㅇㅇㅢ": 6300,
  "ㅂㅗㄹㄲㅏㅇㅛ</w>": 13938,
  "ㅅㅣㄷㅗㅎㅐ</w>": 14540,
  "37</w>": 6838,
  "ㄸㅡㄹ": 4410,
  "ㄱㅏㄷ": 13914,
  "ㅂㅐㅇㅋㅡ</w>": 13890,
  "1ㅁㅕㅇ</w>": 10638,
  "ㅇㅏㄴ": 372,
  "ㅅㅣㅈㅏㄱㅎㅏㅁㅕ</w>": 14355,
  "ㅅㅜㅈㅓㅇ</w>": 2474,
  "ㅂㅏㄷㅏㄱ</w>": 11272,
  "ㅇㅕㄴㄱㅜㅇㅝㄴ</w>": 6707,
  "ㅌㅏㅂㅅㅡㅇ": 12104,
  "ㅇㅗㅂㅓㅇㅝ": 6839,
  "ㅎㅏㄴㄱㅜㄱㅇㅣㄴ</w>": 10506,
  "ㅁㅏㄴㅇㅡㄹ</w>": 3186,
  "ㅌㅗㅇㄱㅖ": 6168,
  "ㄱㅕㅇㅇㅜㅇㅔㄴㅡㄴ</w>": 2365,
  "ㄷㅏㅇㄱㅘ</w>": 12900,
  "ㅎㅘㄹㅇㅛㅇㅎㅏㄴㅡㄴ</w>": 13742,
  "ㅂㅔㄹㅌㅡ</w>": 15090,
  "ㄷㅗㅇㅁㅜㄹ</w>": 6138,
  "ㄴㅗㅇㅣㄴ</w>": 8911,
  "ㅌㅏㅅㅜ</w>": 15567,
  "ㄱㅏㅅㅡㅁ</w>": 1332,
  "ㅁㅜㄹㅇㅡㄹ</w>": 1384,
  "ㄱㅡㄱㅇㅡㄹ</w>": 11624,
  "ㅎㅣㄴㄷㅏ</w>": 14053,
  "ㅍㅡㄹㄹㅣ": 2930,
  "ㅅㅏㅎㅚㅈㅓㄱ</w>": 3712,
  "ㅊㅓㄱ</w>": 4491,
  "ㄷㅏㅂㅂㅕㄴ": 2923,
  "ㅎㅏㄱㄱㅣ</w>": 5748,
  "ㅅㅜㄱㅗ": 15521,
  "ㅇㅓㅄㄱㅣ</w>": 6915,
  "ㅌㅗㄹㅣ</w>": 10199,
  "ㅇㅏㄴㄷㅡㄹㅗㅇㅣㄷㅡ</w>": 5204,
  "ㄴㅐㅇㅈㅏㅇ": 6002,
  "ㅊㅐㅇㅛㅇ": 4293,
  "ㄱㅗㄴㅡㄴ</w>": 3434,
  "ㄹㄹㅗ</w>": 11532,
  "ㅇㅑㄱㄱㅘㄴㅇㅡㄹ</w>": 5739,
  "ㅂㅜㄴㅇㅡㄹ</w>": 3856,
  "ㅇㅏㄶㄴㅡㄴ": 3893,
  "ant": 6599,
  "ㄷㅚㅈㅣ</w>": 1070,
  "ㅅㅓㅁㅕㅇ": 15046,
  "w": 77,
  "ㅅㅔㅇㅣㄴㅌㅡㄹㅜ": 14774,
  "ㄷㅗㅇㅇㅣㄹ": 2535,
  "ㄱㅘㅈㅓㅇㅇㅔ</w>": 9051,
  "ㅂㅣㄹ</w>": 8148,
  "ㅎㅗ</w>": 848,
  "ㄷㅏㄹㅅㅓㅇ</w>": 15754,
  "12": 980,
  "ㅌ": 110,
  "udi": 7219,
  "at</w>": 2376,
  "ㄴㅠㅇㅛㄱ</w>": 7575,
  "ㅎㅏㄱㄱㅛ": 1155,
  "ㄱㅡㄹㅓㅁ": 2716,
  "ㄴㅕㄴㄲㅏㅈㅣ</w>": 9583,
  "rect": 15607,
  "ㄱㅡㅇㅔ</w>": 5103,
  "12ㅇㅝㄹ</w>": 2787,
  "ㅁㅕㅇㅂㅐㄱ": 12590,
  "ㅈㅏㄹㅣㅇㅔㅅㅓ</w>": 7829,
  "ㅅㅗㄱㅇㅔㅅㅓ</w>": 2888,
  "ㅈㅗㅁ</w>": 1180,
  "ㅂㅐㅊㅣ": 6036,
  "ㅂㅣㅂㅏㅇ": 4789,
  "ana</w>": 14733,
  "ㅆㅡㅁ": 2164,
  "ㅈㅔㄷㅗㄹㅡㄹ</w>": 10339,
  "ㄷㅡㄹㅏㅁ": 12446,
  "ㅇㅣㄹㅂㅗㄴㅇㅢ</w>": 4143,
  "ㄷㅗㅇㅇㅢㄹㅡㄹ</w>": 9150,
  "ㅍㅛㅁㅕㄴ</w>": 15503,
  "ㅅㅣㅁㅈㅏㅇ": 9338,
  "ㄹㅣㅂㅠ</w>": 3024,
  "ㅍㅕㅇ</w>": 4056,
  "ㄷㅏㅂㅗㅁㅕㄴ</w>": 8394,
  "ㅈㅗㄴㅈㅐㅎㅏㄴㅡㄴ</w>": 9079,
  "ㅂㅜㅇㅔ</w>": 3534,
  "ㄱㅐㄹㄹㅓㄹㅣ</w>": 5750,
  "ㅇㅣㅇㅠㄴㅡㄴ</w>": 2836,
  "35": 4409,
  "ㅇㅣㄴㅌㅓㄴㅔㅅ": 2399,
  "No": 12856,
  "ㄱㅏㅇㅇㅝㄴㄷㅗ</w>": 10428,
  "ㅎㅐㅇㄷㅗㅇ": 2258,
  "ㅈㅜㅇㅈㅣ</w>": 15502,
  "ㄱㅡㄹㅗ": 14296,
  "ㅈㅣㅅ": 2533,
  "ㅅㅏㄹㅏㅇㅎㅐ</w>": 14869,
  "ㅈㅣㅇㅡㄴ</w>": 11314,
  "ㄱㅗㄷ": 7729,
  "ㄴㅡㄲㅣㅁ": 5602,
  "ㄹㅣㄹ</w>": 2445,
  "ㄷㅗㅊㅏㄱ</w>": 4542,
  "ㄱㅓㄹㅣ": 1498,
  "ㄷㅏㄹㄹㅣㄴㅡㄴ</w>": 13136,
  "ㅈㅓㅁㅊㅏ</w>": 8389,
  "ㅅㅣㄱㅔ": 3851,
  "ㅇㅣㄷㅡㄹㅇㅡㄹ</w>": 10158,
  "ㅎㅣㄹ": 6672,
  "ㅂㅜㅇㅘ</w>": 7242,
  "ain": 11015,
  "ㅗㅇㅏ": 9504,
  "ㅂㅏㄹ</w>": 944,
  "ㅍㅔ": 825,
  "ㅂㅓㅈ": 11175,
  "ㄱㅘㄴㄱㅖㅇㅢ</w>": 13468,
  "ㅍㅏㄱㅕㄴ": 13794,
  "X": 49,
  "ㅅㅇㅔ</w>": 6946,
  "ㅇㅟㅎㅏㅇㅕ</w>": 2104,
  "ㄱㅡㄹㄹㅐ": 15126,
  "ㅍㅣㅇㅋㅡ</w>": 7341,
  "ㄱㅗㅇㅅㅏ": 10757,
  "ㄷㅏㅎㅐㅇ": 5676,
  "ㅇㅜㄹㅣㄱㅏ</w>": 1594,
  "ect</w>": 5920,
  "ㅈㅓㄴㄲㅏㅈㅣ</w>": 7696,
  "ㄴㅗㄴㅁㅜㄴ</w>": 7930,
  "VS</w>": 10958,
  "FC": 11493,
  "ㄹㅣㄹㅏ</w>": 5690,
  "ㄴㅏㅅㅓㅆㄷㅏ</w>": 12058,
  "ㅇㅣㄴㄷㅗ</w>": 4199,
  "ㄴㅡㄴㄷㅏㄱㅗ</w>": 11069,
  "ㄷㅏㅅㅣ</w>": 950,
  "ㅁㅗㅅㅡㅂ": 1340,
  "ㅇㅝㄴㅇㅣㄴ</w>": 6784,
  "ㅇㅋㅡ</w>": 13562,
  "ㅈㅓㄴㅈㅐㅇ": 3517,
  "ㅅㅓㄹㅁㅕㅇ</w>": 3495,
  "ㅅㅜㅎㅏㄱ</w>": 8986,
  "ㄱㅜ</w>": 700,
  "ㅊㅜㅈㅣㄴ": 3305,
  "ㄷㅔㅇㅣㅌㅓ": 1559,
  "ㅊㅓㄴㅊㅓㄴㅎㅣ</w>": 8526,
  "ㄱㅗㅅ": 853,
  "ㅋㅏㅌㅏㄹ": 12191,
  "VP": 10742,
  "ㄱㅣㅇㅓㅂㅇㅣ</w>": 7359,
  "ㅇㅕㄴㄱㅕㄹㄷㅚㅇㅓ</w>": 13627,
  "lo": 1366,
  "ㅂㅏㄴㄱㅏㅂ": 14120,
  "46</w>": 8910,
  "kg</w>": 7161,
  "ㅂㅕㅇㅇㅝㄴㅇㅔㅅㅓ</w>": 12688,
  "ㄷㅏㅇㅜㄴ": 1372,
  "ㄸㅏㅁ": 10571,
  "50": 1561,
  "IL": 13183,
  "ㄱㅣㄱㅏㄴㅇㅡㄴ</w>": 8795,
  "ㄷㅏㄴㅇㅟ</w>": 10015,
  "ㅘㅇㅢ</w>": 5887,
  "ㅂㅡㄹㅜㄴ": 7473,
  "ㅈㅣㅅㅏ</w>": 8783,
  "ㅈㅕㅆ": 3478,
  "ㅂㅜㄴㅍㅕㅇㄹㅗ</w>": 8301,
  "ㄱㅓㄴㅇㅡㄴ</w>": 14846,
  "ㅁㅗㄹㅗ</w>": 14711,
  "ㅎ": 112,
  "ㅇㅏㅍㅇㅡㄹㅗㅇㅢ</w>": 15928,
  "ㄱㅛㅅㅏ</w>": 6264,
  "ㄷㅗㅇㅅㅓㅇ": 6479,
  "ㄱㅜㄱㅈㅔ": 1733,
  "ㅅㅐㅇㅅㅐㅇ": 9035,
  "ㅇㅏㅈㅓ": 9138,
  "ㄹㅕㄱㅇㅔ</w>": 9505,
  "ㅇㅔㄴㅓㅈㅣ": 7853,
  "ㅈㅚ": 1609,
  "us</w>": 3513,
  "ㅈㅗㅈㅓㅇ</w>": 7352,
  "ㅁㅗㄹㅐ": 14300,
  "ㅅㅗㄱㄷㅗㄹㅗ</w>": 13583,
  "az": 7362,
  "ㅏㅇㅢ</w>": 1623,
  "ㅍㅐㅅㅡ</w>": 11856,
  "ㄱㅝㄴㄹㅣㄹㅡㄹ</w>": 8419,
  "ㅈㅜㅇㅇㅔㄷㅗ</w>": 15359,
  "ㅁㅣㄴㅇㅢ</w>": 10150,
  "ㅁㅜㄲ": 6553,
  "ㅇㅜㅅㄱㅗ</w>": 16167,
  "SNS": 7747,
  "ㅅㅡㄹㅣ": 4449,
  "ㅍㅏㅇ": 1198,
  "ㅈㅐㄹㅛ": 5673,
  "xxx</w>": 14418,
  "OST</w>": 12896,
  "ㅇㅏㄵㅇㅏ</w>": 6123,
  "ㅈㅗ": 348,
  "ㅆㅣㄴㅡㄴ</w>": 3572,
  "ㅎㅕㄴㅅㅣㄹ": 2390,
  "ain</w>": 10959,
  "ㅇㅢㅇㅢ</w>": 7428,
  "ㄱㅏㄱㅈㅏㅇㅢ</w>": 13093,
  "w</w>": 181,
  "ㅂㅏㅇㅅㅣㄱㅇㅡㄴ</w>": 12260,
  "ㅌㅓㅇㅢ</w>": 8945,
  "ㅍㅡㄹㅗㄴ": 10949,
  "ㅍㅏㄹ": 1099,
  "ㅊㅓㅇㅇㅑㄱ": 11389,
  "ㅇㅏㄶㅇㅏㅅㅓ</w>": 7882,
  "ㅈㅓㄴㅁㅜㄴ</w>": 2846,
  "ㄲㅗ": 1072,
  "\"": 5,
  "ㅅㅓㄹㅊㅣㄷㅚㄴ</w>": 11486,
  "ㅇㅓㅂㅁㅜㅇㅔ</w>": 14768,
  "ㅇㅣㄴㄱㅏㄴㅇㅣ</w>": 8254,
  "Gu": 9467,
  "ㄱㅗㅇㅂㅜㄹㅡㄹ</w>": 6879,
  "Play": 13023,
  "ㅁㅜㄴㅈㅔㅇㅘ</w>": 12373,
  "ㅜㅁ": 8176,
  "ㅈㅓㄱㄱㅡㄱ</w>": 8528,
  "ㅇㅡㄹㅗㅅㅓㅇㅢ</w>": 9633,
  "32": 4441,
  "ㅊㅏㅇ": 706,
  "ㅇㅣㄹㅡㅁ</w>": 2613,
  "ㄷㅐㅊㅔㄹㅗ</w>": 12306,
  "ㄷㅡㄹㅇㅔㄱㅔㄴㅡㄴ</w>": 10431,
  "ㅂㅏㄲㅝ": 6483,
  "ㅎㅐㅇㅛ</w>": 2508,
  "ㅌㅔㄱㅅㅡ</w>": 15687,
  "ㅈㅔㅁㅗㄱ</w>": 4539,
  "ㅈㅣㅂㅜ": 16018,
  "ㄹㅗㅇㅜㄴ</w>": 1014,
  "ㄱㅗㅅㅇㅡㄴ</w>": 4747,
  "ㅂㅡㄹㄹㅗㄱㅡ</w>": 2357,
  "ㄱㅡㄹㅇㅡㄴ</w>": 4626,
  "que</w>": 15681,
  "Lyrics</w>": 7079,
  "ㅇㅕㅇㄱㅜ": 12307,
  "ㅁㅜㄷㅐ</w>": 9371,
  "ㅇㅣㄴㅅㅏㄹㅡㄹ</w>": 9730,
  "ㄱㅏㅂㅏㅇ</w>": 7049,
  "ㅓ</w>": 149,
  "ㅊㅔㅇㅘ</w>": 13407,
  "ㅊㅜㅊㅓㄴㅎㅏㅂㄴㅣㄷㅏ</w>": 12627,
  "ㅇㅏㅇㅣㅍㅐ": 14379,
  "ㅇㅣㅈㅔㄴㅡㄴ</w>": 4615,
  "ㅅㅡㅍㅣㅋㅓ</w>": 11119,
  "ㅅㅓㄴㅅㅜ</w>": 3396,
  "ㄴㅏㅁㅈㅏㄴㅡㄴ</w>": 12816,
  "ㄱㅐㅇㅣㄴㅈㅓㅇㅂㅗㄱㅘㄴㄹㅣ": 16212,
  "ㅇㅗㄹㄹㅏ": 2317,
  "fir": 13579,
  "1ㅇㅝㄹ</w>": 2972,
  "ㅊㅜㄴ</w>": 10581,
  "ㄱㅓㄹㄱㅗ</w>": 12339,
  "ㅂㅣㄱㅛㅎㅐ</w>": 15110,
  "0</w>": 165,
  "ㅈㅏㄱ": 440,
  "ㅇㅔㄹ": 3210,
  "ㅌㅣ": 470,
  "ㅍㅣㄱ</w>": 2575,
  "ㅂㅓㅈㅓㄴ</w>": 5631,
  "ㅅㅣㅇ": 1988,
  "ㅇㅣㅁㅅㅣ": 9776,
  "ㅅㅡㄹㄹㅗㅅ": 13635,
  "ㅈㅜㅈㅓ": 15955,
  "ㅁㅜㅇㅕㄱ</w>": 8980,
  "ㄴㅏㅈ</w>": 10453,
  "ㅈㅐㅁㅣ": 1989,
  "ㅁㅏㄶㅇㅡㄴㄷㅔ</w>": 10977,
  "ㅂㅓㄴㅉㅐ": 4427,
  "ㅈㅜㄷㅗ</w>": 14118,
  "ug": 6016,
  "USB": 14574,
  "ㅇㅣㅆㅇㅡㄴㅏ</w>": 7042,
  "ㄱㅗㅌㅗㅇㅇㅡㄹ</w>": 11501,
  "ㅍㅕㄴㅇㅣ</w>": 9221,
  "ㄱㅖㅎㅚㄱㅇㅣㄷㅏ</w>": 9070,
  "ㅇㅣㄹㅗㄴㅇㅡㄹ</w>": 15462,
  "ㅇㅣㅆㄱㅓㄴㅏ</w>": 9766,
  "ㄱㅜㄱㄱㅏㄱㅏ</w>": 12673,
  "ㅎㅐㅂㅗㅁㅕㄴ</w>": 12445,
  "ㅇㅏㄹㅡㅁㄷㅏㅂ": 9686,
  "ㅂㅗㄱㅅㅏ</w>": 4861,
  "ㅇㅜㄴ": 628,
  "ㅇㅣㅂㅕㅇ": 13107,
  "ㅇㅢㅁㅣㅇㅔㅅㅓ</w>": 15424,
  "ㄱㅣㄱㅏㄴㅇㅣ</w>": 7885,
  "ㅁㅏㄷㅣ": 15403,
  "ㅂㅣㄹㄹㅣ": 7546,
  "ㄹㅔㄴ": 2039,
  "ㄷㅗㄹㅇㅏ</w>": 9448,
  "ㅁㅐㄹㅕㄱㅈㅓㄱㅇㅣㄴ</w>": 10099,
  "ㅎㅘㄹㅇㅛㅇㅎㅐ</w>": 13901,
  "son</w>": 12676,
  "ㅈㅗㅎㄴㅔㅇㅛ</w>": 15981,
  "ㄸㅓㄹ": 7605,
  "ㅇㅏㅈㅜㅁㅁㅏ</w>": 11246,
  "ㅇㅡㄹㅗㅁㅏㄴ</w>": 7935,
  "ㅇㅡㅇㅇㅛㅇ": 9016,
  "ㅂㅐㅌㅣㅇ</w>": 6306,
  "ㅊㅔ</w>": 832,
  "TS</w>": 10395,
  "ㅈㅗㅇㅛㅇㅎㅏㄴ</w>": 14948,
  "ㄱㅔㅆㄷㅏㄴㅡㄴ</w>": 4689,
  "ㄷㅔ</w>": 462,
  "ㅅㅜㄷㅗㅇ": 8841,
  "ㄷㅏㄴㄱㅖㅇㅔㅅㅓ</w>": 13708,
  "ㅇㅕㄴㄱㅜㄱ": 13650,
  "41</w>": 8104,
  "ㅎㅏㄹ": 594,
  "ㄱㅣㅁ</w>": 2840,
  "77": 8187,
  "Amaz": 11541,
  "ㅇㅕㄴㅈㅐ": 15906,
  "ㄱㅐㅂㅏㄹㅇㅔ</w>": 11457,
  "ㅈㅜㅇㅇㅔ</w>": 1478,
  "][</w>": 3046,
  "ㅅㅏㄹㅏㅇ": 1069,
  "ㅋㅓㄹ</w>": 5060,
  "ㅈㅓㅎㅢ</w>": 3845,
  "ㄷㅏㄴㄱㅣ": 10533,
  "ㅅㅔㅁㅣㄴ": 6700,
  "ㅇㅏㅍㅇㅡㄹㅗㄷㅗ</w>": 6458,
  "ㅂㅣㄱㅛ</w>": 3486,
  "ㄴㅏㅊ": 7986,
  "ㅋㅣㄴ</w>": 7988,
  "ㄱㅔㅅㅣㅍㅏㄴ</w>": 5063,
  "ㄹㅗㅂㄱㅔ</w>": 2870,
  "):</w>": 7014,
  "ㅇㅏㅍㅅㅓ</w>": 4462,
  "ㅁㅏㄴㄴㅏㄱㅔ</w>": 13221,
  "ㅅㅗㄹ": 1147,
  "ㅇㅏㄴㅌㅏ": 6146,
  "ㅊ</w>": 218,
  "ㅁㅏㄹㅗ</w>": 14054,
  "ㄴㅗㅁ</w>": 13303,
  "inf": 16035,
  "ㄴㅏㅇㅣㄱㅏ</w>": 8794,
  "ㅇㅝㄷㅡ</w>": 7074,
  "ㅊㅣㅁㄷㅐ</w>": 4318,
  "ㅅㅡㅇㅟㅌㅡ</w>": 7599,
  "21ㅇㅣㄹ</w>": 7029,
  "ㅈㅔㅇㅚ": 2857,
  "ㅇㅡㅇㄱㅡㅂ": 11350,
  "ㅅㅐㅇㄴㅕㄴㅇㅝㄹ": 15574,
  "ㅅㅏㅇㅜㄴ": 5352,
  "ily</w>": 15008,
  "ㅎㅔㅇㅓ": 6477,
  "ㅂㅘㅆㅅㅡㅂㄴㅣㄷㅏ</w>": 9685,
  "ㄷㅙㅈㅣ": 14617,
  "ㅂㅏㄷㅇㅏㅆㄷㅓㄴ</w>": 15162,
  "ㄱㅏㅇㅎㅘ": 3734,
  "SP": 7200,
  "ㅌㅡㄹㅏ": 10678,
  "ㄱㅡㅁㅎㅏㅂㄴㅣㄷㅏ</w>": 6289,
  "ㅂㅣㄹ": 1620,
  "ㄹㅓㅂㅡ": 15317,
  "ㅇㅝㄴㅎㅘㄹ": 8510,
  "ㅈㅜ</w>": 595,
  "ㅁㅏㅅㅣ": 9582,
  "ㅁㅏㄱㅅㅏㅇ</w>": 12907,
  "ㅂㅗㅇㅕ": 1283,
  "ㅂㅡㄹㄹㅐㄱ": 3903,
  "ㅊㅣㄴㄱㅜㅇㅢ</w>": 15277,
  "ㅂㅓㄴㄷㅗ</w>": 11484,
  "ㅈㅜㅇㅛ</w>": 2539,
  "23": 2523,
  "ㄱㅜㅅㅗㄱ</w>": 11885,
  "ㅗㅈㅣ</w>": 9356,
  "ㅇㅢㅅㅣㅁ": 6916,
  "ㄴㅗㄴㅁㅜㄴ": 11201,
  "ㅍㅏㄴㅇㅣ</w>": 10106,
  "et</w>": 1974,
  "ㄱㅡㅁㅇㅡㄴ</w>": 8657,
  "21": 2761,
  "ㄱㅡㄹㅐㄴㄷㅡ</w>": 12822,
  "ㄱㅗㅇㅁㅜㅇㅝㄴ</w>": 6272,
  "ㄹㅣㄷㅓㅅㅣㅂ</w>": 12729,
  "ㄷㅐㅅㄱㅡㄹ": 1570,
  "ㅈㅗㅇㅎㅏㅂ": 2985,
  "FA</w>": 9625,
  "ㅇㅣㄹㅇㅛㅇㅣㄹ</w>": 9998,
  "ㅇㅣㅆㅇㅡㅁㅕ</w>": 1003,
  "ㅎㅡㄹㄹㅓ": 7693,
  "ㅅㅣㅁㄱㅘ</w>": 15420,
  "ㅊㅏㅇㅝㄴ": 4900,
  "20</w>": 2413,
  "ㄱㅓㄹㅐㅅㅗ</w>": 16043,
  "ㄸㅓㄹㅇㅓㅈㅕ</w>": 6298,
  "ㅇㅓㅆㄱㅗ</w>": 4501,
  "ㅅㅓㅂㅡ": 14381,
  "ㅈㅏㅇㅇㅣ</w>": 1772,
  "ㅎㅏㄴㄱㅖㄹㅡㄹ</w>": 14855,
  "ㄱㅡㄴㄱㅓㅎㅏㄴ</w>": 13623,
  "ㅃㅏㅇ</w>": 8811,
  "ㅊㅟㅇㅓㅂ</w>": 8500,
  "ㅁㅏㄹ": 455,
  "ㄹㅗㄴㅣ": 14616,
  "ㅎㅐㄴㄷㅡㅍㅗㄴ": 15347,
  "ㅇㅏㅇㅣㅌㅔ": 3585,
  "ㅇㅜㄴㅇㅕㅇㄷㅚㄴㅡㄴ</w>": 15638,
  "3ㄱㅐㅇㅢ</w>": 12863,
  "ㅅㅡㅌㅡㄹㅣ": 3075,
  "ㄱㅣㅈㅣ</w>": 9240,
  "2ㅊㅡㅇ</w>": 9117,
  "ㅅㅏㅁㅅㅓㅇ": 2367,
  "ㅎㅗㅇㅂㅗ</w>": 6455,
  "ㅆㄴㅡㄴㄷㅔ</w>": 1663,
  "ㅌㅐㅇㅑㅇ": 3251,
  "ㅊㅐㄱㅇㅡㄴ</w>": 5297,
  "ㅈㅜㅂㅜ</w>": 14901,
  "ㅇㅣㄺㅇㅓ": 5744,
  "col": 9780,
  "ㅁㅜㅅㅡㄴ</w>": 2841,
  "ㅁㅜㄴㅈㅔㅇㅢ</w>": 6679,
  "ㅂㅣㅈㅏ</w>": 12036,
  "ㅇㅓㅇㅔㅅㅓ</w>": 13389,
  "ㄷㅏㅂㄷㅏㅂ": 9203,
  "eng": 12450,
  "ast": 6468,
  "ㅋㅡㄹㄹㅏㅇㅜ": 4997,
  "ㅎㅚ</w>": 631,
  "ㅇㅠㄷㅗㅇ": 13523,
  "ㅂㅗㅇㅔ</w>": 9224,
  "ㅂㅜㄷㅡㄹ": 9201,
  "ㅈㅓㅂㅎㅏㄴ</w>": 9753,
  "ㄱㅕㅇㅎㅓㅁㅇㅣ</w>": 6899,
  "ity": 13259,
  "ㅇㅓㄷㅇㅡㄴ</w>": 8438,
  "ㅂㅗㅇㅕㅈㅜㄹ</w>": 15472,
  "ㅇㅣㄹㅇㅔㄴㅡㄴ</w>": 9317,
  "ㅌㅡㄴ": 2614,
  "ㅁㅗㅅㅎㅏㅂㄴㅣㄷㅏ</w>": 15651,
  "bl": 9594,
  "ㅂㅜㄴㄱㅣ</w>": 9556,
  "ㅈㅜㅈㅏㅇㅎㅐㅆㄷㅏ</w>": 12832,
  "ㅈㅏㅇ</w>": 466,
  "ㅅㅗㄴㅅㅟㅂㄱㅔ</w>": 10350,
  "ㅊㅜㄱㄱㅜ": 3077,
  "ㅅㅏㅇㅊㅓ": 8951,
  "ㅎㅕㅂㅈㅓㅇ</w>": 15475,
  "ㄷㅐㅌㅗㅇㄹㅕㅇㄱㅘ</w>": 13236,
  "ㅁㅜㅇㅓㅅㅇㅡㄹ</w>": 4316,
  "ㅌㅏㄱ</w>": 3879,
  "ㄱㅟㅎㅏㅇㅢ</w>": 6613,
  "Sing": 16104,
  "ㅋㅏㅌㅔㄱㅗ": 3749,
  "ㅇㅏㄹㄱㅗㄹㅣ": 8677,
  "ㄷㅚㅇㅓㅆㅅㅡㅂㄴㅣㄷㅏ</w>": 1689,
  "ㄷㅗㅇ": 359,
  "ㅁㅏㅈ": 822,
  "ㅇㅟㅇㅝㄴㅎㅚㅇㅢ</w>": 13104,
  "ㅁㅔㄹ": 7133,
  "ㄷㅐㅎㅏㄱㅇㅢ</w>": 12007,
  "ㅁㅕㅇㅎㅘㄱ": 5550,
  "vention</w>": 11626,
  "ㅌㅏㄴㅇㅡㄹ</w>": 13869,
  "ㄷㅐㅎㅏㄴㅁㅣㄴ": 1957,
  "Vi": 3768,
  "ㅅㅏㅇㅛㅇㅎㅏㄴㄷㅏ</w>": 11674,
  "ㅎㅗㅌㅔ": 780,
  "ㅇㅐㅇ": 7306,
  "ㅅㅗㄹㄹㅜㅅㅕㄴㅇㅡㄹ</w>": 14332,
  "ㄱㅟㅇㅕㅇㅜㄴ</w>": 5079,
  "ㅎㅘㄴㄱㅕㅇㅇㅢ</w>": 13688,
  "ㄱㅖㅇㅑㄱ</w>": 4805,
  "ㅋㅏㅈㅣㄴㅗ": 4811,
  "ㅁㅜㄹㅇㅡㄴ</w>": 4031,
  "ㅊㅏㄱㅏ</w>": 4515,
  "ㅐㄴ</w>": 13532,
  "ㅇㅝㅌㅓ": 12596,
  "ㅋㅣㅇㅅㅏㅇㅣㅈㅡㅊㅣㅁㄷㅐ</w>": 15080,
  "ㅋㅡㄹㄹㅓㅂ</w>": 4653,
  "{</w>": 254,
  "ㅎㅐㅇㅅㅏㅇㅔ</w>": 14698,
  "ㅂㅗㅇㅣㄹ</w>": 8572,
  "ㅂㅣㅇㅛㅇㅇㅣ</w>": 8722,
  "ㄱㅔㅇㅣㅁㅣㅇ</w>": 14222,
  "ㅂㅜㅈㅓㅇ</w>": 13759,
  "ㅂㅗㅇㅣㄱㅔ</w>": 15599,
  "ey</w>": 6487,
  "ㄱㅐㄱㅅㅣㄹ": 3068,
  "ㄱㅜㄱㅎㅚㅇㅢ": 6375,
  "ㄷㅏㄴㅡㄴ": 6875,
  "ㅁㅣㄴㅕ</w>": 13208,
  "ㅈㅕㅆㄷㅓㄴ</w>": 15133,
  "ㄱㅐㅅㅣ": 14799,
  "ㄱㅕㅇㅊㅏㄹㅇㅡㄴ</w>": 14661,
  "ㅂㅏㅂㅗ</w>": 8495,
  "ㅇㅏㄶㅅㅡㅂㄴㅣㄷㅏ</w>": 1296,
  "ㅇㅓㄹㅕㅂㄷㅏ</w>": 7714,
  "ㅅㅡㅋㅣㄴ": 10095,
  "ㄲㅓㅅ</w>": 6210,
  "ㅎㅣㅁㄷㅡㄹㄱㅔ</w>": 14434,
  "ㅊㅔㅇㅠㄱ": 3912,
  "ㅇㅏㅍㅇㅔ</w>": 3151,
  "yle</w>": 10122,
  "ㅇㅠㅊㅜㄹ": 8576,
  "ㅈㅏㅊㅟ": 8968,
  "ㄹㅗㄷㅡ</w>": 5833,
  "ㅍㅏㅇㅣㄹㅇㅡㄹ</w>": 3710,
  "ㅎㅏㄴㅏㄹ": 12080,
  "ㅅㅏㅇㅣ</w>": 6039,
  "ㅅㅣㅍㅇㅡㄹ</w>": 11652,
  "ㅇㅘㄴㅡㄴ</w>": 6174,
  "ㅂㅗㅇㅠㅎㅏㄱㅗ</w>": 9345,
  "ㅅㅏㅇㅛㅇㄷㅚㄴㅡㄴ</w>": 7655,
  "ㅇㅡㄴㅎㅖ": 8250,
  "ㅌㅔㄴ": 1171,
  "ㅅㅣㅅㅓㄹ": 1749,
  "de": 1819,
  "ㅅㅓㅇㅅㅜㄱㅎㅏㄴ</w>": 6656,
  "ㅜㄴ": 292,
  "ㅊㅜㅊㅓㄴ</w>": 1611,
  "ㅅㅕㄴㅇㅔㅅㅓ</w>": 13808,
  "ㅈㅜㅊㅏ": 3630,
  "ㄸㅏㅇㅟ": 11839,
  "ㅎㅐㅈㅝ": 11654,
  "ㄷㅡㅇㅘ</w>": 6318,
  "ㅇㅣㅇㅓㅈㅣㄴㅡㄴ</w>": 11197,
  "ital</w>": 12861,
  "ㅂㅡㄹㅏ": 4140,
  "ㅈㅗㅈㅏㄱ</w>": 10425,
  "ㄱㅏㄴㅡㅇㅅㅓㅇㅇㅡㄴ</w>": 15341,
  "ㅂㅣㄱ</w>": 10384,
  "ㅈㅓㅇㄹㅕㄹ": 16190,
  "th": 875,
  "ㄱㅘㄴㄹㅛ": 14500,
  "ㅇㅕㄹㅓㅂㅜㄴㅇㅢ</w>": 7336,
  "ㅌㅓㅋㅣ</w>": 12933,
  "ㅎㅐㅇㅏㄴ</w>": 11214,
  "38": 5765,
  "ㄱㅏㅁㅏㄴㅎㅣ</w>": 11583,
  "ㅇㅣㅆㅈㅣㅇㅛ</w>": 12913,
  "ㅁㅕㄴㅇㅔ</w>": 4546,
  "ㅁㅜㄹㅣ</w>": 6660,
  "ㅇㅔㄹㅡ": 12745,
  "ㄴㅐㅇㅕㄱ</w>": 13377,
  "ㅇㅖㅅㅓㄴ": 13137,
  "ㄱㅣㅇㅓㅂ": 1081,
  "duc": 7825,
  "ㄷㅏㄷㅇㅡㅅㅣㅁㅕㄴ</w>": 11089,
  "ㅕㅆ": 5625,
  "ㅈㅜㄱㅘㄴ": 8033,
  "ㅈㅏㄹㅏㄴㅡㄴ</w>": 12034,
  "B</w>": 190,
  "ㅈㅜㄱㅗ": 13246,
  "ㅎㅏㄴㅌㅔ": 12592,
  "ㅁㅣㄱ": 10808,
  "ㅁㅣㅊㅣㄴㅡㄴ</w>": 6666,
  "ㅅㅣㅍㅇㅓ</w>": 6472,
  "ㅇㅐㅍㅡㄹ</w>": 6577,
  "ㅂㅓㄴㅇㅔ</w>": 5443,
  "ㅋㅏㅌㅔ": 3030,
  "ㅅㅓㄴㅍㅗ": 15865,
  "ㅉㅣㅈ": 13944,
  "ㅍㅗㄹ": 1087,
  "ㅇㅗㄹㄹㅣㄴ</w>": 6846,
  "ㅎㅐㅍㅣㅋㅐㅁㅍㅓ": 4630,
  "ㅈㅗㅇㅇㅡㄹ</w>": 10014,
  "ㅈㅗㄱㅡㅁㅆㅣㄱ</w>": 6429,
  "ㅅㅓㄴㅎㅏㄴ</w>": 14982,
  "ㅈㅗㄱㅕㅇ": 13955,
  "ㅍㅛ": 557,
  "ㅅㅓㄹㅡㄹ</w>": 2410,
  "ust": 7430,
  "ㅎㅏㄹㅕㄱㅗ</w>": 3587,
  "ㅋㅏㄹㅡ": 9204,
  "ㅈㅏㅁㅕㄴ</w>": 4646,
  "ㅋㅓㅅ": 11125,
  "ㅁㅏㅊㅏㄴ": 3492,
  "ㅂㅡㄹㄹㅜ</w>": 6943,
  "ㅇㅟㅂㅏㄴ": 5773,
  "ㅊㅏㅇㅇㅡㄴ</w>": 9849,
  "ㅋㅡㄹㅣㅅㅡㅁㅏ": 5824,
  "ㄴㅣ": 286,
  "ㅎㅏㄴㄴㅏㄹㅏ": 13403,
  "ar": 782,
  "ㅅㅗㄱㅡㅁ": 14345,
  "ㅇㅜ": 415,
  "ㅃㅜㄴㅇㅣㄷㅏ</w>": 5624,
  "ㅇㅏㅍㅡㄴ</w>": 9172,
  "ㅅㅣㅈㅏㅇㅇㅡㄹ</w>": 7418,
  "ㅇㅏㅇㅣㄷㅡㄹㅇㅡㄴ</w>": 10442,
  "2012</w>": 7441,
  "ㅍㅡㄹㅐㄴㅊㅏㅇㅣ": 13113,
  "ㅎㅘㄹ": 626,
  "ㅇㅣㄴㅈㅗㅇ": 6983,
  "um</w>": 3897,
  "ㅔㅇㅣㄹ</w>": 2542,
  "ㅅㅏㅁㅇㅏ</w>": 13513,
  "ㄹㅣㅇㅓㄹ": 7660,
  "ㄴㅗㄴㄹㅣ": 8059,
  "ㅇㅏㅋㅏ": 6398,
  "ㅈㅏㄱㅇㅡㄴ": 9701,
  "ㅁㅕㅇㅅㅣ": 5382,
  "AT": 4239,
  "ㄱㅕㅇㅈㅐㅇㄹㅕㄱㅇㅡㄹ</w>": 14892,
  "ㅂㅣ": 349,
  "ell</w>": 8267,
  "ㅈㅣㄴㅎㅐㅇㄷㅚㄴㄷㅏ</w>": 15192,
  "ㅇㅣㄴㄷㅡㄹㅇㅣ</w>": 4994,
  "ㄱㅘㄴㄱㅖ</w>": 3097,
  "ㄱㅡㄱ": 1093,
  "ㅅㅣㅅㅡㅌㅔㅁㅇㅡㄹ</w>": 4920,
  "ㅈㅡㅇ</w>": 1484,
  "user</w>": 12784,
  "00</w>": 2327,
  "Ac": 4988,
  "ㅁㅔㅇㅣㅈㅓㄹㅣㄱㅡ</w>": 9828,
  "ㅅㅜㅌㅏㄺ</w>": 8462,
  "ㅈㅣㅎㅖ": 7701,
  "ㅇㅣㅇㅑ": 925,
  "ㄷㅏㅇㅜㄴㅂㅏㄷㅇㅡㄴ</w>": 5201,
  "1ㅊㅏ": 9913,
  "ㄹㅏㅇㅣㄴ": 4563,
  "ㅇㅣㄷㅡㄹㅇㅔㄱㅔ</w>": 14161,
  "ㅊㅗㄹㅐ": 11363,
  "ㅈㅔㄱㅜㄱ": 15977,
  "ㅅㅡㅋㅣㄴ</w>": 11817,
  "ㅎㅏㄱㅅㅜㄹ": 6060,
  "ㅁㅐㅈㄱㅗ</w>": 16250,
  "ㅅㅐㅇㄱㅏㄱㅇㅔ</w>": 9778,
  "ㅁㅐㅂㅓㄴ</w>": 9269,
  "ㅅㅟㅂㄱㅗ</w>": 7037,
  "ㅎㅘㅁㅕㄴㅇㅔㅅㅓ</w>": 15183,
  "be</w>": 6302,
  "ㅊㅣㄴ": 854,
  "ㅇㅣㄱㅓㅅㅇㅣ</w>": 4553,
  "Me": 6840,
  "ㅅㅓㅇㅑㅇ": 7206,
  "ㅇㅗㅂㅅㅕㄴㅇㅡㄹ</w>": 8499,
  "ok": 7224,
  "ㅂㅏㄹㅅㅐㅇㅎㅏㄹ</w>": 6494,
  "ㅇㅠㅌㅗㅇ": 4961,
  "ㅂㅣㄷㅣㅇㅗ": 11022,
  "ㅃㅏㅈㅣㄴ</w>": 9337,
  "ㅂㅏㄹㅁㅐ</w>": 13480,
  "ㅂㅜㄴㅇㅔ</w>": 3461,
  "ㅈㅓㄴㄷㅗ</w>": 14329,
  "ㄱㅐ": 403,
  "ㅎㅏㄱㅅㅐㅇㅇㅡㄴ</w>": 15884,
  "ㅁㅏㅇㅜ": 5598,
  "ㅉㅏㄹㅗ</w>": 14000,
  "ㅇㅓㅄㄴㅡㄴㄷㅔ</w>": 9718,
  "ㄱㅡㄹ": 351,
  "Red": 13275,
  "RA": 7103,
  "ㅈㅓㅇㅂㅗㅇㅢ</w>": 4169,
  "ㅅㅜㅈㅜㄴ</w>": 6746,
  "ㅇㅕㅇㅇㅜㅇ</w>": 16333,
  "ㅈㅔㅂㅓㅂ</w>": 14250,
  "ㅇㅡㅁㅕㄴㅅㅓ</w>": 4114,
  "ㅊㅓㄹㄷㅗ</w>": 12188,
  "ㄱㅏㄴㅡㅇㅅㅓㅇ</w>": 11144,
  "ㅋㅏㅁㅔㄹㅏㄹㅡㄹ</w>": 13593,
  "ㅁㅏㄴㄷㅡ": 4365,
  "ㅈㅣㅂㅊㅏㄱ": 15632,
  "S</w>": 194,
  "ㄱㅣㄱㅏㄴㅇㅡㄹ</w>": 8409,
  "ㅋㅏㅋㅏㅇㅗ</w>": 14645,
  "ㅆㅡㄹㅔ": 6394,
  "ㅇㅛㄱㅅㅣㄹ</w>": 8489,
  "ㅊㅔㅎㅓㅁ</w>": 6167,
  "ㄱㅗㄱㅐㄱㅇㅔㄱㅔ</w>": 11881,
  "ㅕㄹ": 4242,
  "ㅇㅏㄴㅣㄴ": 2455,
  "ㅇㅣㄹㅡㄴㅂㅏ</w>": 13472,
  "2014": 14097,
  "ㅃㅜㄴㅁㅏㄴ</w>": 2422,
  "ㅇㅑㄱㅇㅢ</w>": 13450,
  "ㅊㅣㄹ": 2675,
  "ㅈㅔㄱㅗㅇㅎㅏㅂㄴㅣㄷㅏ</w>": 3087,
  "ㄴㅗ</w>": 6625,
  "ㅎㅘㄴㅇㅕㅇ": 7246,
  "ㅈㅓㄴㅇㅣ</w>": 5877,
  "HO": 5672,
  "ㅁㅔ": 647,
  "ㄱㅏㅌㅇㅏㅇㅛ</w>": 2696,
  "ㅅㅓㅊㅗㄱㅜ</w>": 15561,
  "ㅈㅓㄴㅅㅣ</w>": 7795,
  "ㅊㅓㅂ": 9608,
  "ㅂㅜㄴㄷㅡㄹ</w>": 6047,
  "ㅅㅓㅍㅣㅇㅇㅔ</w>": 3453,
  "ㅇㅣㄱㅔ</w>": 3268,
  "ㅎㅘㅎㅏㄱ": 6226,
  "ㅎㅗㄱㅣ": 10450,
  "ㅇㅣㅅㅡㄹㅏㅇㅔ": 5448,
  "ㅇㅕㅇㅎㅑㅇ": 1890,
  "ㅈㅐㄴㅡㅇ": 10040,
  "ㅋㅓㄴㅅㅓㄹ": 5875,
  "ㄱㅗㅇㄷㅗㅇ</w>": 5216,
  "ㅂㅜㄴㅁㅕㅇ": 3975,
  "ㅍㅜㄹ": 1345,
  "ㅁㅇㅔ</w>": 1321,
  "ㄱㅛㅅㅜㄴㅣㅁ</w>": 16119,
  "ㄴㅏㄴㅜㄴㅡㄴ</w>": 12296,
  "ㅊㅓㅁ": 2272,
  "ㅍㅏㄴㅁㅐㅎㅏㄴㅡㄴ</w>": 13514,
  "ㄱㅣㄹㅡㄹ</w>": 771,
  "ㅂㅏㅇㅂㅓㅂㅇㅡㄹ</w>": 2812,
  "ram</w>": 11684,
  "ㅎㅗㅌㅔㄹ": 1288,
  "ㅇㅣㄴㄷㅏ</w>": 2331,
  "ㅌㅐㅂㅡㄹㄹㅣ": 8457,
  "ㅈㅡㅇ": 674,
  "ㅅㅓㅂㅓㅇㅔ</w>": 12843,
  "ㅁㅏㄴㄷㅡㄹㄱㅗ</w>": 4665,
  "ㅈㅣㅇㅝㄴ</w>": 1748,
  "ㅊㅜㅊㅓㄴㅋㅗㄷㅡ</w>": 11691,
  "ㄱㅏㅁㄱㅏㄱ": 9513,
  "ㅂㅐㄹㅕ": 9848,
  "ㅎㅏㄴㅍㅕㄴ": 10507,
  "ㅇㅗㄹㅐㄷㅚㄴ</w>": 6942,
  "ㅂㅜㄷㅐ</w>": 12935,
  "ㅈㅣㄴㅣ": 2982,
  "ㅌㅣㅁㅇㅣ</w>": 5385,
  "RA</w>": 5661,
  "ㅇㅜㄴㄷㅗㅇㅇㅢ</w>": 11766,
  "TripAdvisor</w>": 9173,
  "ㅇㅗㅇㅕ": 5371,
  "ㅅㅡㅍㅏ</w>": 7700,
  "ㅌㅏㅇㅝ": 12620,
  "ㅋㅡㄹㄹㅗ": 8140,
  "ㅈㅡㄹㄱㅓㅇㅜㄴ</w>": 4628,
  "ㄷㅏㅇㅇㅕㄴㅎㅣ</w>": 4967,
  "ㅉㅓ": 2414,
  "PP": 8812,
  "ㅇㅣㄹㅏㄴ</w>": 2047,
  "ㄱㅗㅇㅇㅕㄴ": 3246,
  "ㅎㅏㄱㄱㅘ": 10050,
  "ㅇㅠㅇ</w>": 6865,
  "ㄱㅡㄴㅕㄹㅡㄹ</w>": 11761,
  "ㄷㅐㅅㅏㅇ": 1775,
  "ㅎㅚㅇㅝㄴㅅㅜㅇㅘ</w>": 5305,
  "ㅅㅡㅌㅡㅇㅢ</w>": 12682,
  "Mark": 14828,
  "ㄸㅜㅇ": 5294,
  "ㅇㅏㅁㅏㄷㅗ</w>": 6459,
  "oun": 4603,
  "ㅇㅢㅎㅏㅇㅕ</w>": 5081,
  "ㅊㅣㅁㅕㄴ</w>": 9693,
  "ㅅㅐㅇㄱㅏㄱㅇㅣ</w>": 2454,
  "ㅁㅕ": 590,
  "ㅇㅏㅋㅣ": 9088,
  "ㅇㅏㅇㅜㅅㅇㅡㄹ</w>": 11878,
  "ㅅㅓㅁㅇㅢ</w>": 12833,
  "ㅊㅏㅇㅈㅗ": 5948,
  "I": 34,
  "ㄱㅘㄴㄱㅐㄱ": 7805,
  "ㅈㅓㄴㅈㅜ": 14312,
  "ㅎㅠㅅㅣㄱㅇㅡㄹ</w>": 11732,
  "ㅅㅏㅇㅛㅇㅇㅔ</w>": 7534,
  "ers</w>": 5140,
  "ㅇㅓㅂㄷㅔㅇㅣㅌㅡ</w>": 3362,
  "rip": 4701,
  "ㅈㅓㅇㄱㅛ": 16010,
  "ㅇㅔㅅㅓㄷㅗ</w>": 1491,
  "ㅁㅣㅇㅏㄴ": 8177,
  "ㅅㅡㅋㅡㄹㅐ": 10225,
  "ㄴㅏㅁㅓ": 4717,
  "ㄱㅡㄹㅣㅅㅡㄷㅗ</w>": 14833,
  "ㅅㅏㅇㄷㅐㄱㅏ</w>": 16184,
  "ㅈㅗㅎㅇㅡㄴ</w>": 850,
  "ㅇㅓㅅㅡ</w>": 16262,
  "ㅂㅓㄹㅣ": 3626,
  "ㅅㅓㄴㄱㅓ": 3120,
  "IM": 6018,
  "ㄷㅏㅇㅅㅏㅇㅢ</w>": 14797,
  "ㅇㅕㄴㄱㅣ": 7011,
  "ㄱㅐㄴㅡㄴ</w>": 10486,
  "ㅇㅠㅁㅕㅇ": 5568,
  "ㅌㅡㄱㅅㅓㅇㅇㅡㄹ</w>": 9604,
  "ㅅㅣㄴㄱㅕㅇ</w>": 8276,
  "ㅁㅜㄴㅈㅏ": 9878,
  "ㅇㅣㄴㅌㅓㄴㅔㅅ</w>": 1411,
  "ㅎㅕㄱㅅㅣㄴ</w>": 9721,
  "ㅎㅕㅇㅅㅏ": 8819,
  "ㅅㅡㅋㅡㄹ": 14618,
  "ㄷㅐㅎㅐㅇ</w>": 12137,
  "mat": 10057,
  "ㅇㅣㅂㅈㅜ": 12906,
  "ㅇㅟㅌㅏㄱ": 8305,
  "ㄱㅏㄴㅏㄴㅎㅏㄴ</w>": 11048,
  "ㄸㅏㄸㅡㅅㅎㅏㄴ</w>": 5100,
  "52</w>": 9695,
  "ㅆㅡㄱㅣ</w>": 2586,
  "ㅅㅏㅇㅛㅇㄷㅚㄴ</w>": 13706,
  "ㅎㅏㄱㅇㅓㅂ": 15700,
  "ㅂㅗㅈㅗㄴ</w>": 15991,
  "ㄱㅏㅇㅇㅏㅈㅣ</w>": 13001,
  "ㅅㅚ": 5472,
  "BC</w>": 7007,
  "ㅋㅔㅇㅣㅋㅡ</w>": 14572,
  "ㅍㅕㄴ": 629,
  "ㅂㅗㄱㅔㅆㅅㅡㅂㄴㅣㄷㅏ</w>": 10202,
  "ㅇㅣㄹㅜㅇㅓㅈㅣㄴ</w>": 10420,
  "ㅇㅕㅅㅓㅇ</w>": 1985,
  "ㅅㅡㅌㅔ": 954,
  "ㅅㅏㄹㅉㅏㄱ</w>": 6546,
  "ㅊㅐㅁㅜ": 12659,
  "ㄱㅗㅇㅅㅣ": 14451,
  "ㅁㅣㄴㅈㅗㄱ": 4188,
  "ㅂㅏㄹㅅㅐㅇㅎㅏㄱㅣ</w>": 14975,
  "ㅇㅠㄷㅗ": 9495,
  "ㅅㅜㅁㄱㅣㅁ</w>": 15473,
  "ㄷㅏㄹㄹㅕㅆㅅㅡㅂㄴㅣㄷㅏ</w>": 9906,
  "cont": 6314,
  "ㅅㅜㅇㅓㅂㅇㅡㄹ</w>": 9570,
  "ㅎㅐㅆㅇㅡㄴㅣ</w>": 15099,
  "ㅅㅡㅌㅓㄴ": 4792,
  "he": 9412,
  "ㅁㅜㄴㅈㅐ": 3614,
  "ㅇㅠㅌㅠ": 4937,
  "ㄷㅏㄹㅡㄷㅏ</w>": 8656,
  "ㅂㅣㅅ</w>": 15369,
  "ㄱㅣㅇㅢ</w>": 2249,
  "At": 11084,
  "ㅁㅗㄷㅜ</w>": 1041,
  "ㄴㅐㅂㅜ": 6204,
  "ㅇㅣㅍ</w>": 14056,
  "ㅎㅓㄴㅂㅓㅂ</w>": 15398,
  "ㅎㅜㅂㅗㄱㅏ</w>": 15326,
  "ㅅㅣㄴㅂㅜ</w>": 15604,
  "ㅅㅣㅌㅡ</w>": 11666,
  "ㄱㅏㄴㅡㅇ": 746,
  "ㄷㅏㅇ</w>": 738,
  "ㄲㅗㅊㅇㅡㄹ</w>": 12200,
  "q": 71,
  "ㄹㅏㅇ": 1029,
  "ㅁㅕㅇㅊㅣㅇ</w>": 16370,
  "ㅋㅓㅁㅠㄴㅣㅌㅣ</w>": 6803,
  "ㅊㅣㄴㅎㅘ": 12992,
  "ㅈㅜㅊㅏㅈㅏㅇ</w>": 11993,
  "ㅅㅡㅁㅏㅌㅡ</w>": 5719,
  "ㄷㅡㄱㅈㅓㅁ": 13326,
  "ㅈㅗㅅㅏ</w>": 3031,
  "ated</w>": 9231,
  "rid": 13358,
  "ㅟㄴ": 8683,
  "ia": 13843,
  "ㅋㅐㅁㅍㅡ": 13894,
  "ㅅㅏㅎㅏㅇ</w>": 2378,
  "ㄴㅗㅎㅇㅡㄹ</w>": 12895,
  "ㅁㅣㄱㅜㄱㅇㅔㅅㅓ</w>": 8761,
  "ㅌㅔㄴ</w>": 13591,
  "600": 8411,
  "ㄲㅏㄲ": 12524,
  "ㅇㅞㅂㅋㅐㅁ</w>": 8857,
  "ㄷㅔㄹㅕ": 16295,
  "ㄲㅏㄴ": 11869,
  "ㅈㅡㄹ": 1001,
  "3ㅇㅕㄴ": 15808,
  "CO</w>": 13604,
  "ㅇㅕㅇㅇㅢ</w>": 11193,
  "ㅂㅠㅌㅣ</w>": 11986,
  "hwp</w>": 14729,
  "ㄱㅣㅁㅈㅣㄴ": 11709,
  "MC</w>": 12107,
  "ㅎㅐㅂㅗㄹ</w>": 10822,
  "ㄱㅕㄹㅎㅏㅂ": 5288,
  "ㅅㅏㅇㅣㅇㅢ</w>": 6222,
  "DR": 14387,
  "ㅅㅐㅂㅕㄱ</w>": 8614,
  "ㄱㅏㄱㅖ": 15980,
  "ㅅㅏㅇㅂㅏㄴㄱㅣ</w>": 10799,
  "ㅁㅗㅂㅏㅇㅣㄹ": 5300,
  "ㄱㅏㅅㅏㅇㅎㅘㅍㅖ</w>": 14372,
  "-</w>": 242,
  "ho": 14552,
  "ㅈㅚ</w>": 5245,
  "ㅅㅕㄴㅇㅢ</w>": 7821,
  "ㅅㅡㄹㄹㅣ": 11708,
  "ㅂㅏㄹㅎㅐㅇ": 5539,
  "ㄱㅣㄷㅗㄹㅡㄹ</w>": 15205,
  "ㅇㅗㄱ": 1851,
  "ㄱㅏㅆㅅㅡㅂㄴㅣㄷㅏ</w>": 14236,
  "ㅈㅔㄱㅗㅇㅎㅏㄹ</w>": 7275,
  "ㄲㅡㄶ": 3274,
  "as": 1217,
  "ㄸㅗㅇ": 7573,
  "ㅅㅗㅎㅏㄴ</w>": 7220,
  "ㅑㄴㅡㄴ</w>": 7082,
  "ㅍㅏㄹㅡ": 16166,
  "ㅅㅣㄹㅈㅔ": 6532,
  "ㅅㅡㅇㅟ": 2728,
  "act": 9539,
  "ㅇㅛㄱㅡㅁ</w>": 5480,
  "ㄹㅣㅊㅣ": 7021,
  "ㅇㅔㄴㅌㅓㅌㅔㅇㅣㄴㅁㅓㄴ": 15613,
  "ㅎㅠㄷㅐ": 2906,
  "ㄱㅜㄱㅁㅣㄴ</w>": 5983,
  "ㅌㅗㅇㅈㅣ": 12500,
  "ㅇㅣㄹㅎㅏㄴㅡㄴ</w>": 8368,
  "ㅁㅗㄱㄹㅗㄱ</w>": 3248,
  "ㅇㅛㄱㅜ": 2221,
  "ㅂㅜㄴㅈㅐㅇㅇㅛㅅㅗ</w>": 3466,
  "ㄱㅣㅂㅗㄴ": 1789,
  "ㅈㅏㅂㄱㅣ</w>": 14932,
  "ㅁㅐㅈ": 4752,
  "ㅅㅡㅂㄷㅡㄱ": 13838,
  "ㄱㅓㄹㅐ": 2224,
  "low": 9274,
  "ㅇㅓㅄㅇㅓㅇㅛ</w>": 6970,
  "ㄸㅓㅇㅗㄹ": 8012,
  "ㅇㅣㄴㅌㅓㅍㅔㅇㅣㅅㅡ</w>": 14726,
  "ㅇㅣㅂㅈㅏㅇㅇㅔㅅㅓ</w>": 9109,
  "ㅂㅏㄹㅅㅐㅇ": 1361,
  "ㅌㅣㅁ": 2216,
  "ㅂㅜㅅㅡㅌㅏㅂㅣㅅ": 3567,
  "ㅇㅢㅈㅗㄴ": 4580,
  "ㅇㅝㅆㄷㅏ</w>": 11851,
  "ㅁㅏㅈㅣㅁㅏㄱㅇㅡㄹㅗ</w>": 5268,
  "ㅍㅣㅂㅜㅇㅔ</w>": 15785,
  "mail</w>": 6554,
  "ㅇㅣㄴㄱㅕㄱ": 12654,
  "ㄴㅏㅃㅡ": 9257,
  "ㅈㅏㅂㅇㅏ</w>": 9533,
  "ㅂㅡㄹㄹㅗㄱㅡㄹㅡㄹ</w>": 8519,
  "ㄱㅕㅇㄱㅣㄷㅗ</w>": 4587,
  "ㅎㅏㅅㅕㅆㄷㅏ</w>": 12640,
  "ㅂㅏㄴ": 507,
  "ㅇㅕㅇㅠ": 4857,
  "ㅁㅐㅌㅡㄹㅣ": 15028,
  "ㄸㅐㄲㅏㅈㅣ</w>": 4407,
  "ㄴㅓㅎㅇㅓ</w>": 8341,
  "ㅅㅓㅇㅇㅣ</w>": 1449,
  "ㅁㅕㄴㅅㅓ</w>": 1120,
  "ㅅㅏㄲㅏㅅㅣ</w>": 3942,
  "ㅎㅗㅎㅡ": 13530,
  "ㅇㅏㅇㅣㄷㅣㄷㅏㅇ</w>": 5290,
  "ㄱㅐㄱㅅㅣㄹㅇㅔㄴㅡㄴ</w>": 9840,
  "ㅅㅏㅇㄷㅐㅈㅓㄱㅇㅡㄹㅗ</w>": 8472,
  "ㅂㅜㄴㅎㅏㄹ": 12848,
  "ㅅㅏㄹㅏㅁ": 574,
  "ㅂㅐㄴㄷㅡㄹㅗ</w>": 8755,
  "um": 2659,
  "ㅌㅐㅂ</w>": 14978,
  "ㅈㅏㄷㅡㄹㅇㅡㄴ</w>": 3091,
  "ㅇㅏㄹㅐㅇㅘ</w>": 4880,
  "ㄴㅗㄹㄹㅏㅇㅜㄴ</w>": 6794,
  "ㄷㅐㅊㅐㄱ</w>": 9119,
  "ㄴㅐㄹㅗ</w>": 15511,
  "BS</w>": 4925,
  "sk": 8251,
  "ㅊㅓㅇㅇㅘ": 5395,
  "ㄱㅏㅁ": 514,
  "erㄹㅡㄹ</w>": 16144,
  "ㄲㅏㄹㄲㅡㅁㅎㅏㄱㅔ</w>": 15963,
  "ㅋㅡㄹㅡㄹ</w>": 3265,
  "ㅊㅔㅇㅢ</w>": 3928,
  "4000": 16153,
  "ㄱㅏㄱㅕㄱㅇㅡㄹㅗ</w>": 11491,
  "ㅇㅣㅅㅏㅇㅎㅏㄴ</w>": 7314,
  "gir": 8780,
  "ㅊㅏㅈㅇㅏㅂㅗㄹ</w>": 15450,
  "ㅇㅗㄹㅏㄱ": 11361,
  "ㄱㅣㅌㅏㄹㅗ</w>": 5255,
  "ㅘㄴㅡㄴ</w>": 13120,
  "ㅈㅔㅇㅣ": 8736,
  "ㅅㅣㅁㅠㄹ": 11690,
  "ㅏㅇ</w>": 2814,
  "ㅇㅓㅆㄷㅓㄴ</w>": 2581,
  "ㅎㅜㅂㅗㄴㅡㄴ</w>": 15231,
  "ㅌㅡㄱ": 579,
  "ㅅㅏㄹㅏㅁㄷㅡㄹㅇㅢ</w>": 4353,
  "ㄱㅏㄴㅏㄴ": 6891,
  "ㅕㅆㄷㅓㄴ</w>": 10511,
  "ㅅㅜㅁㄱㅕ": 8000,
  "ㅌㅏㅇㅢ</w>": 11415,
  "ㅁㅜㄴㅈㅔㄹㅡㄹ</w>": 2759,
  "ㅇㅢㅈㅗㄴㅎㅏㄴㅡㄴ</w>": 14184,
  "ㅇㅔㅇㅣ": 1542,
  "ㅈㅓㅇㅅㅣㄴ</w>": 8451,
  "ㅅㅜㅁ": 2583,
  "ㅁㅗㄹㄹㅐ</w>": 13169,
  "ㄱㅡㅇㅢ</w>": 1703,
  "ㄱㅏㅂ": 1942,
  "ㅗㅇ": 280,
  "ㅔㅇㅣㅁ": 13812,
  "ㅌㅗㄹㅗ": 11215,
  "T": 45,
  "ㅊㅓㅇㅡㅁㅇㅔ</w>": 11016,
  "ㄷㅡㄴㅡㄴ</w>": 1356,
  "24</w>": 3350,
  "ㅇㅏㅅ": 8326,
  "ㅇㅕㄹㄹㅣㄴㄷㅏ</w>": 13847,
  "ㅎㅘㄱㅂㅗ</w>": 11577,
  "ㄱㅔㅆ": 945,
  "ㄱㅏㄴㅡㄴ": 9571,
  "ㄷㅏㅂ": 1063,
  "ary</w>": 8325,
  "ㅇㅏㄹㅡ": 5310,
  "ㅖ": 120,
  "ㄱㅛㅅㅜ": 4276,
  "ㄱㅡㄹㅣㄹ</w>": 15469,
  "ㅅㅏㅇㅣㅌㅡㄹㅡㄹ</w>": 4853,
  "ㅍㅛㅈㅜㄴ": 4770,
  "ㄷㅏㅁㅇㅏ</w>": 7375,
  "ㅈㅜㅇㅣㄴㄱㅗㅇ</w>": 11949,
  "ㄷㅏㅎㅏㄱㅗ</w>": 15563,
  "AWS</w>": 11604,
  "ㅅㅡㅌㅗㄴ": 15961,
  "ㅍㅔㅇㅣㅈㅣ</w>": 707,
  "ㅇㅢㅅㅏ": 4092,
  "ㄱㅗㅇㅅㅣㄱ": 4986,
  "ㄷㅏㅁ</w>": 1773,
  "ㅇㅗㅂㅡ</w>": 8327,
  "ㅌㅐㅂ": 11303,
  "ㄱㅡㄹㅣㅁ": 4489,
  "ㅂㅓㄹㅣㄴㅡㄴ</w>": 8626,
  "ㅅㅜㅅ": 4139,
  "ㅅㅜㄹㅕㅇ": 8336,
  "ㅇㅣㅆㅇㅡㅅㅣ": 9046,
  "ㅅㅜㄴㅡㅇ": 13195,
  "ㅂㅗㄴㅐㅆㄷㅏ</w>": 13243,
  "ㅁㅜㄹㅈㅣㄹ</w>": 9823,
  "ㅁㅏㄹㄱㅗ</w>": 3691,
  "ㅇㅡㄹㅇㅟㅎㅏㄴ</w>": 13124,
  "ㄱㅖㄹㅡㄹ</w>": 3862,
  "ㅇㅣㄴㅈㅣ</w>": 1717,
  "ㄷㅐㅇㅕ": 12882,
  "ㅇㅣㄷㅡㄴ</w>": 5321,
  "ㅅㅡㅋㅡㄹㅣㅂ": 5020,
  "ㅅㅗㅇ": 622,
  "ㄴㅗㅇㅣㄴ": 4548,
  "ㄱㅗㅅㄷㅗ</w>": 14757,
  "ㄷㅏㄴㅇㅣㄹ</w>": 10192,
  "ㅆㅡㅇㅣㄴㅡㄴ</w>": 15577,
  "ㅇㅣㄹㅂㅜㅌㅓ</w>": 2786,
  "ㅂㅜㄹㅡㄹ</w>": 1953,
  "ㅎㅐㅇㅘ</w>": 12520,
  "ㅊㅐㅌㅣㅇ": 13912,
  "AI</w>": 8089,
  "ㅠ": 130,
  "ㅇㅓㅎㅏㄱ": 5510,
  "ㅌㅏㄴㅌㅏㄴ": 15041,
  "ㅈㅓㅇㄱㅘ</w>": 9475,
  "ai": 6308,
  "ㅂㅣㅊㅣ</w>": 6936,
  "ㄴㅏㅇㅘ</w>": 3314,
  "ㅇㅣㄴㅅㅏㅇㅇㅡㄹ</w>": 14181,
  "ㄱㅣㅅㅜㄹㄱㅘ</w>": 12609,
  "ㅈㅓㅁㅇㅡㄹ</w>": 1326,
  "ㅅㅓㅇㅎㅕㅇ": 11232,
  "Al": 4125,
  "ㅅㅐㅇㄱㅏㄱㄱㅘ</w>": 15839,
  "ㅇㅓㄷㄱㅔ</w>": 13625,
  "UR": 5257,
  "ㅎㅚㅂㅗㄱ": 5304,
  "ㅅㅓㅇㅈㅓㄱㅇㅡㄹ</w>": 11612,
  "120": 8074,
  "ㄱㅡㄴㅕ": 2016,
  "ㅍㅣㅎㅐㄹㅡㄹ</w>": 7353,
  "ㄱㅏㅁㅕㄴㅅㅓ</w>": 6984,
  "ㄴㅣㅁㅇㅢ</w>": 1900,
  "R": 43,
  "ㅎㅘㅎㅏㅂ": 14340,
  "ㅁㅗㄷㅜㄹㅡㄹ</w>": 11834,
  "ㄱㅐㅇㅝㄹ": 3997,
  "ㄱㅖㄱㅡㅂ": 14079,
  "ㄱㅏㄴㅡㅇㅎㅏㄷㅏ</w>": 4735,
  "ㅂㅣㅌㅡㅋㅗ": 7222,
  "ㄷㅜㄲㅔ": 16097,
  "ㅈㅗㅎㄱㅔㅆㅅㅡㅂㄴㅣㄷㅏ</w>": 8952,
  "ㅅㅔㄴㅌㅓ</w>": 1443,
  "ㅓㄹㄹㅣ": 11746,
  "ㅇㅣㅆㅇㅓㅆㄴㅔㅇㅛ</w>": 14399,
  "ㅎㅜㄴ": 1726,
  "ㅈㅜㅇㅓㅆㄷㅏ</w>": 9498,
  "ㅇㅣㅂㅔㄴ": 1636,
  "kg": 12624,
  "ㅊㅏㅈㅇㅏㅇ": 5501,
  "ㄷㅗㄴㅓㄹ": 13129,
  "MM": 13156,
  "ㅇㅛㅅㅗㄱㅏ</w>": 11478,
  "ㄱㅡㄴㅕㄱㅏ</w>": 9637,
  "ㄱㅏㄲㅡㅁ": 12435,
  "ㅊㅜㅊㅡㄱ": 15052,
  "30ㄴㅕㄴ</w>": 12695,
  "ㅈㅜㅇㅛ": 5799,
  "ㄱㅗㅇㅇㅠ</w>": 4963,
  "ㄹㅏㅇㅣㅂㅡ": 5603,
  "ㄷㅜㄹㄹㅓㅆㅏㄴ</w>": 12855,
  "ㅋㅓㄹㄹㅔㄱ": 9470,
  "ㅈㅣㅂㅈㅜㅇ</w>": 10032,
  "ㅂㅔㄱ": 9642,
  "ㄷㅐㅅㅏㅇㅇㅡㄹㅗ</w>": 3899,
  "ㅈㅣㅋㅕ": 4282,
  "ㅊㅓ</w>": 1629,
  "eㄹㅡㄹ</w>": 9830,
  "ㄱㅏㅈㅣㄹㅗ</w>": 10094,
  "ㅈㅜㅁㅣㄴ": 2717,
  "ㅇㅣㅎㅐㅇ": 6913,
  "ㄸㅏㅇㅇㅔ</w>": 9866,
  "ㅅㅜㅅㅜ": 13397,
  "ㄱㅕㅇㅇㅜㄴㅡㄴ</w>": 4338,
  "ㅇㅚㅁㅕㄴ": 16237,
  "ㅎㅐㅈㅜㅅㅣㄱㅣ</w>": 12401,
  "ㅇㅖㄹㅜ": 15190,
  "ㅈㅓㄱ": 371,
  "ㄱㅗㅁㅜ": 14580,
  "ㅂㅗㅇㅣㅈㅣ</w>": 4638,
  "ㅇㅢㅁㅜ": 5811,
  "ㄱㅏㄱㄱㅣ</w>": 14771,
  "ㄷㅔㄴ</w>": 9074,
  "ㅅㅣㅁ": 532,
  "ㅊㅣㅁㅅㅣㄹ</w>": 12321,
  "ㄲㅔㅅㅓ</w>": 2340,
  "ㄱㅡㅁㅇㅡㄹ</w>": 2764,
  "po": 7497,
  "ㅇㅓㅄㅅㅡㅂㄴㅣㄷㅏ</w>": 1143,
  "ㄴㅓㅁㅜ": 10963,
  "9": 22,
  "ㅎㅜ": 638,
  "ㅅㅓㅇㄷㅏㅇ</w>": 12851,
  "ㅇㅕㅇㅇㅓㄹㅗ</w>": 12501,
  "ㅇㅓㄹㄱㅜㄹㅇㅡㄹ</w>": 8738,
  "ㅁㅓㄱㄴㅡㄴ</w>": 3678,
  "ㅇㅠㄴㅏㅇㅣ": 16327,
  "ㄱㅗㅇㄱㅕㄱ": 3036,
  "ㅋㅔㅅ</w>": 3988,
  "ㅌㅐㄱㅂㅐ</w>": 12981,
  "ㄱㅘㄴㅡㄴ</w>": 3168,
  "ㅇㅣㄹㅡㅁㅇㅡㄹㅗ</w>": 7588,
  "ㅍㅗㄹㄷㅓ</w>": 13058,
  "play": 14082,
  "ㅈㅓㄴㅊㅔ</w>": 1875,
  "ㅈㅔㅈㅏㄱ": 2366,
  "ㄹㅏㄷㅗ</w>": 1503,
  "ㅉㅏㄼㅇㅡㄴ</w>": 4104,
  "ㅎㅐㅈㅔ": 11969,
  "ㄲㅜㅁㅇㅡㄹ</w>": 5785,
  "ㄱㅏㅁㅅㅏ</w>": 6119,
  "ㅇㅢㅇㅑㄱ": 9483,
  "ㅌㅗㅂ": 9970,
  "LPGA</w>": 13993,
  "ㅇㅏㄴㅣㅇㅗ</w>": 10569,
  "ㄱㅏㄱㅈㅗㅇ</w>": 2692,
  "ㅅㅗㄴㅇㅡㄹ</w>": 4751,
  "ㅅㅔㅅㅏㅇㅇㅔㅅㅓ</w>": 8183,
  "ㅅㅣㅅㅓㄴㅇㅡㄹ</w>": 12844,
  "ㅅㅡㅌㅏㄷㅣ": 11506,
  "ㄷㅡㄹㅣㅁ": 9869,
  "ㄷㅏㅇㅡㅁㄴㅏㄹ</w>": 10775,
  "ㄷㅏㅂㅂㅕㄴ</w>": 5353,
  "ㄷㅏㅂㅇㅣ</w>": 13212,
  "ㅅㅐㅇㅁㅜㄹ</w>": 15501,
  "ㅎㅕㄴㅅㅣㄹ</w>": 5008,
  "ㄱㅐㅈㅓㅇ": 4821,
  "ㅅㅏㅇㅎㅘㅇ": 1286,
  "My": 11922,
  "ㄷㅗㄴ</w>": 3457,
  "ㄷㅓㅅㅂㅜㅌ": 6500,
  "ㅎㅏㅇㅕㅆㅇㅡㅁㅕ</w>": 8154,
  "TA</w>": 9111,
  "ㅇㅏㄴㅈㅓㄴㅎㅏㄱㅔ</w>": 9480,
  "un": 1536,
  "ㄱㅕㄹㄹㅗㄴ": 8160,
  "ㄲㅏㅈㅣ": 8461,
  "ㅇㅔㅅㅓ</w>": 366,
  "ㅇㅣㄹㅈㅣ</w>": 12320,
  "ㅇㅣㅈㅓㄴㅇㅢ</w>": 13423,
  "ㅊㅣㄴㄱㅜ": 1692,
  "ㄱㅗㅈㅓㄴ</w>": 15339,
  "ㅇㅣㅇㅠ</w>": 2829,
  "ㄴㅗㅈㅗ</w>": 13817,
  "ㅏ</w>": 147,
  "ㅈㅗㅎㅏㅂ</w>": 7787,
  "ㅋㅓㄹㄹㅓ": 5188,
  "ㅈㅓㅈㅣ</w>": 14633,
  "ㅎㅢㄴ": 7886,
  "ㄴㅏㅇㅣ</w>": 6774,
  "ㅎㅠㄷㅐㅍㅗㄴ</w>": 7088,
  "ㅈㅣㅎㅕㅇ": 13105,
  "ㄹㅔㅂㅔㄹ": 7620,
  "ㄴㅔㅌㅡㅇㅝㅋㅡ</w>": 3816,
  "ㅈㅔㅇㅑㄱ</w>": 13758,
  "ㅇㅢㄹㅗ</w>": 6473,
  "ㅂㅣㅇㅘ</w>": 6698,
  "ㄱㅓㅁㅇㅡㄹ</w>": 15998,
  "ㅁㅕㅊㅣㄹ</w>": 10165,
  "ㅎㅏㅇㅣ</w>": 6541,
  "ㅈㅣㅇㅛ</w>": 1815,
  "ㅠ</w>": 153,
  "ㄷㅗㄷㅜ": 13839,
  "rol</w>": 12430,
  "ㅎㅏㄱㅓㄴㅏ</w>": 1459,
  "110": 12976,
  "ㅎㅐㅇㅑ</w>": 871,
  "Ph": 4968,
  "ㄷㅏㄹ</w>": 1272,
  "ㅔ</w>": 143,
  "ㅂㅏㄹㅈㅓㄴㅇㅔ</w>": 13175,
  "ㄲㅡㅌㄴㅐ": 14827,
  "ㅇㅝ</w>": 3673,
  "ㅋㅐㅁㅍㅔㅇㅣㄴ</w>": 10732,
  "ㅇㅐㄴㅣㅁㅔㅇㅣ": 5508,
  "ㅋㅗㄱ</w>": 12625,
  "ㅋㅐ": 774,
  "ㅇㅕㄹㅡㅁ</w>": 4555,
  "ㅂㅏㄴㅇㅡㅇ</w>": 10081,
  "Ad": 3947,
  "ㄷㅏㄴㅇㅡㄹㅗ</w>": 7759,
  "ㅈㅣㅇㅕㄱㅇㅔ</w>": 6279,
  "ㅇㅔㅅㅓㄴㅡㄴ</w>": 895,
  "ㄷㅗㅇㅔ</w>": 3058,
  "ㅅㅔㄹㅍㅡ</w>": 7434,
  "2019</w>": 16296,
  "ㅈㅏㅂㅇㅡㄴ</w>": 8315,
  "ㅅㅏㅂ": 5345,
  "ge</w>": 6431,
  "ㄴㅡㄱ": 13590,
  "ㅂㅏㅇㅣㅇㅗ": 9212,
  "ㅈㅏㄹㅗ</w>": 2615,
  "ㅇㅠㄱㅝㄴ": 14907,
  "ㅈㅓㄴㄴㅏㅁ</w>": 14822,
  "ㄴㅏㄹㅡㅁ</w>": 8967,
  "ㅈㅜㅍㅏ": 10973,
  "ㅇㅕㅇㅠㄱㅏ</w>": 13437,
  "ale</w>": 10587,
  "ㅈㅓㄱㅇㅣ</w>": 2003,
  "ㄴㅏㅇㅘㅅㅓ</w>": 10166,
  "bu": 15849,
  "Trip": 8674,
  "ㅅㅏㄹㅏㅁㄷㅡㄹㄷㅗ</w>": 10375,
  "ㄷㅣㅇ</w>": 2014,
  "ㅇㅣㅆㄴㅔㅇㅛ</w>": 7389,
  "ㄴㅏㅈㅜㅇㅇㅔ</w>": 4700,
  "ㅅㅡㅌㅡㄹ": 1233,
  "ㅗ": 121,
  "ㄷㅏㄹㅡㄴ</w>": 701,
  "ㅈㅗㅇㄹㅗㄱ": 15455,
  "ㅇㅗㄴㅣ</w>": 9655,
  "ㅇㅕㅈㅏㅇㅢ</w>": 13991,
  "1ㅁㅏㄴ": 9545,
  "ㅇㅣㅂㅔㄴㅌㅡ": 10910,
  "ㄴㅣㅁㅇㅡㄴ</w>": 4255,
  "ㄷㅜ</w>": 693,
  "ㅅㅡㅋㅗ": 3366,
  "ㄷㅣㅈㅏㅇㅣㄴㅇㅢ</w>": 14806,
  "ㅈㅓㄴㅈㅏ</w>": 2703,
  "BS": 9136,
  "ㅅㅡㅂㄱㅘㄴ</w>": 12100,
  "ㅅㅣㅋㅣㄹ</w>": 3915,
  "ㅅㅗㄱㅠ": 13788,
  "ㅇㅓㄴㅈㅔㄷㅡㄴㅈㅣ</w>": 7718,
  "ㅎㅏㄴ": 337,
  "ㅂㅜㄴㄱㅏㄴ</w>": 13849,
  "ㅆㅗ": 3838,
  "ㅈㅣㅎㅏㅊㅓㄹ</w>": 7796,
  "ㅎㅔㄷㅡ</w>": 14699,
  "comp": 10956,
  "ㅂㅓㅁㅈㅚ</w>": 9013,
  "ㄱㅛㅇㅠ": 1330,
  "ㅈㅓㅇㄱㅣ</w>": 11598,
  "ㅅㅛ</w>": 5630,
  "ㅈㅓㄴㄹㅑㄱ": 3253,
  "ㅇㅣㅌㅏㄹ": 3656,
  "ㅇㅟㅋㅣ": 3363,
  "ㅅㅡㅌㅔㅇㅣㄴ": 15509,
  "ㅂㅗㄴㅣ</w>": 1641,
  "ㅁㅏㄶㅇㅡ": 14987,
  "se": 2770,
  "ㄴㅚ": 3436,
  "ㅂㅏㄹㅅㅗㅇ</w>": 7547,
  "ㅅㅏㅇㅣㄷㅡ</w>": 7813,
  "ㅂㅓㄹㅕㅆㄷㅏ</w>": 8964,
  "3ㅇㅝㄹ": 8087,
  "ㄷㅚㅁㅇㅡㄹ</w>": 15433,
  "ㄱㅣㅅㅜㄹㄹㅗ</w>": 16077,
  "ㅇㅓㅉㅐ": 6860,
  "ㅈㅣㅇㅏㄶㅇㅡㄴ</w>": 12275,
  "au": 9049,
  "ㅅㅔㅇㅣㄹ</w>": 15254,
  "ㅇㅗㄴㄹㅏ": 1606,
  "CO": 4134,
  "ㅊㅟㅅㅗ</w>": 4784,
  "ㅇㅞ": 810,
  "ㅅㅔㄴㅌㅓㅇㅔ</w>": 14883,
  "ㅎㅖㅌㅐㄱ": 4284,
  "ㅅㅏㅇㄷㅏㅇ": 2314,
  "ㄷㅗㄱ": 660,
  "ㄱㅗㅇㅇㅕㄴ</w>": 5059,
  "ㅈㅣㅂㄷㅏㄴ": 6404,
  "ㅍㅣㄹㅡㄹ</w>": 8673,
  "ㄴㅣㄱㅏ</w>": 7045,
  "ㅇㅏㅆ": 923,
  "ㅅㅗㄴㄱㅏㄹ": 6202,
  "58</w>": 9191,
  "ster</w>": 2433,
  "ㅂㅏㅇㅅㅗㅇㅇㅡㄹ</w>": 10261,
  "ㅎㅘㄹㄷㅗㅇ</w>": 2843,
  "ㅁㅜㄴㅎㅘㄱㅏ</w>": 11267,
  "ㅁㅕㄴㅅㅔ": 14077,
  "mer": 9364,
  "ㄷㅡㅇㄹㅗㄱㄷㅚㄴ</w>": 6725,
  "MV": 14949,
  "ㅍㅔㄹ": 12802,
  "ㅈ</w>": 212,
  "ㄷㅡㅇㄷㅡㅇ</w>": 6409,
  "ㄱㅜㄴㅇㅔ</w>": 13410,
  "ㄷㅏㄴㅕㅇ": 5476,
  "ㅈㅓㅎㅢ": 3283,
  "ㅇㅑㅇㅇㅡㄹ</w>": 8298,
  "ㄷㅡㄹㅔ": 5640,
  "ㄷㅐㅎㅘ": 4265,
  "ㄹ": 91,
  "ㅎㅓㄹㅏㄱ": 10297,
  "ㅇㅣㄹㄷㅡㄹㅇㅡㄹ</w>": 15287,
  "ㅇㅜㄴㅇㅛㅇ": 8942,
  "2008ㄴㅕㄴ</w>": 7116,
  "ㄷㅐㅊㅜㄹ": 3544,
  "ㅅㅣㄹㄹㅕㄱ": 15461,
  "ㅈㅔㅇㅔ</w>": 5174,
  "ㅎㅘㄱㅈㅏㅇ</w>": 9528,
  "st": 841,
  "ㅡㅌㅡ</w>": 13011,
  "ㅁㅏㅈㄴㅡㄴ</w>": 3127,
  "ㅅㅏㄴㅇㅣ</w>": 8397,
  "ㅇㅓㄴㅇㅓㄹㅗ</w>": 14963,
  "gu": 12811,
  "ㅎㅏㄱㄱㅛ</w>": 1538,
  "2019ㄴㅕㄴ</w>": 13228,
  "ㅎㅏㅅㅣㄱㅔㅆㅅㅡㅂㄴㅣㄲㅏ</w>": 7051,
  "ㅅㅣㅁㅎㅏㄱㅔ</w>": 10082,
  "ㅅㅔㄹㄹㅗ": 10324,
  "ㅁㅜㄷㅐㅇㅔ</w>": 15621,
  "ㄷㅏㄹㄹㅓㄹㅡㄹ</w>": 12751,
  "ㅁㅇㅣ</w>": 725,
  "ㅁㅐㅊㅔ</w>": 11055,
  "ㅈㅣㄹㅡㄹ</w>": 1058,
  "SE": 6052,
  "ㅎㅚㅇ": 8016,
  "ㄱㅣㅅㅜㄱ": 12429,
  "ㅇㅜㅁ</w>": 5693,
  "ㅇㅏㄴㅏ": 12748,
  "ㅏㄴㄷㅏ</w>": 3848,
  "ㅎㅜㄴㄹㅕㄴㅇㅡㄹ</w>": 10458,
  "ㅂㅓㅅㅡㄹㅡㄹ</w>": 12025,
  "ㄴㅐㅅㅕㄴ": 8420,
  "ㅎㅘㄱㅇㅣㄴㅎㅏㄱㅗ</w>": 10079,
  "ㄱㅓㅁㅊㅏㄹ": 6155,
  "ㅅㅏㅇㅇㅛㅇ</w>": 8153,
  "ㅈㅓㄴㅅㅗㅇ": 4954,
  "ㄱㅡㅁㅈㅣ": 5646,
  "ㄱㅖㅅㅏㄴ": 3360,
  "ㅁㅐㄴㅌㅜ": 15441,
  "ㅎㅘㅈㅐ</w>": 8660,
  "ㅂㅐㄱㅜ": 15160,
  "09</w>": 4785,
  "ㅇㅣㅇㅣㄱㅇㅡㄹ</w>": 7767,
  "ow": 1848,
  "ㅇㅣㄴㅌㅓㅂㅠ": 5556,
  "ㅅㅗㅇㅏ": 16217,
  "ㅎㅏㄷㅡㄴ</w>": 15817,
  "ㅇㅣㄹㅂㅗㄴ</w>": 1635,
  "ㄷㅏㅇㅅㅣㄴㅇㅢ</w>": 2929,
  "ㅅㅣㄱㅁㅣㄴ": 11748,
  "ㅎㅘㄴㄱㅡㅂ": 16013,
  "ㅈㅓㄴㅈㅐㅇ</w>": 5283,
  "ㅘㅆ": 5865,
  "ㅇㅣㄴㅅㅜ": 9961,
  "ㅊㅐㅁㅍㅣㅇㅓㄴ": 5628,
  "ㄱㅠㅁㅗ</w>": 5071,
  "ㅂㅗㄷㅏㄷㅗ</w>": 6091,
  "ㅎㅜㄷㅡ</w>": 15947,
  "Tag": 10164,
  "ㅋㅓㄴㅍㅓㄹㅓㄴㅅㅡ</w>": 15539,
  "ㅅㅏㅇㅌㅐ</w>": 4686,
  "ㅈㅣㄱㅈㅓㅂㅈㅓㄱㅇㅣㄴ</w>": 12646,
  "ㅍㅔㄴㅅㅕㄴ</w>": 14634,
  "ㅈㅓㅇㅊㅏㄱ": 11474,
  "ㅁㅣㅅㅏ": 7873,
  "ㄷㅏㄴㅣ</w>": 7036,
  "ㅇㅢㄱㅕㄹ": 13416,
  ":::</w>": 15314,
  "ㅅㅜㅎㅏㄱ": 7425,
  "ㅇㅏㄹㅣ": 4506,
  "ㄷㅏㄹㅇㅡㄴ</w>": 13465,
  "ㄴㅓ</w>": 3933,
  "ity</w>": 3244,
  "16ㅇㅣㄹ</w>": 5403,
  "ㅁㅏㅅㅇㅣ</w>": 6228,
  "ㄱㅗㅇㅗㄴ</w>": 15659,
  "ㄱㅔㅆㄴㅔㅇㅛ</w>": 11883,
  "ㅅㅓㅇㅈㅏㅇ": 2470,
  "ㄱㅏㅂㅕ": 7515,
  "ㅂㅜㄷㅣ": 11753,
  "ㅇㅣㅇㅓㅆㅈㅣㅁㅏㄴ</w>": 10804,
  "ㄸㅜㅀ": 8379,
  "17": 1633,
  "ㄷㅡㄴ</w>": 608,
  "ㅁㅔㄹㅣ": 4431,
  "ㅗ</w>": 136,
  "ㅈㅏㄷㅡㄹㅇㅡㄹ</w>": 5612,
  "ㅈㅡㄱㄱㅏㄱ": 12472,
  "ㄱㅛㅇㅢ</w>": 16290,
  "ㄱㅔㅅㅣㅁㅜㄹㅇㅡㄹ</w>": 11157,
  "ㅂㅗㄴㅇㅣㄴ": 8231,
  "ㄴㅓ": 624,
  "ㅜ</w>": 166,
  "ㅈㅜㄱㅏㄴ</w>": 3502,
  "ㅅㅜㄹㅛ": 15775,
  "ㅆㅡㄱㅗ</w>": 4019,
  "ㅅㅡㅇㅟㅅㅡ</w>": 10186,
  "ㄱㅛㅈㅓㅇ": 9143,
  "1ㅇㅢ</w>": 14595,
  "ㄲㅡㅌㅇㅔ</w>": 6076,
  "ㅅㅗㄱㅅㅓㅇ</w>": 13550,
  "ㄷㅐㅇㅢ</w>": 2821,
  "ㅇㅠㅈㅣㅎㅏㄹ</w>": 13388,
  "ㅇㅗㅍㅡㄹㅏㅇㅣㄴ</w>": 10653,
  "Mil": 15711,
  "ㅂㅗㄱ</w>": 2075,
  "ㅈㅏㄷㅗㅇㅇㅡㄹㅗ</w>": 4496,
  "ㅇㅣㄴㄱㅏㄴㅇㅢ</w>": 4507,
  "ㄱㅗㄱㅐㄱㅇㅢ</w>": 7225,
  "ㅇㅢㅅㅣㄱㅇㅡㄹ</w>": 13508,
  "ㅌㅣㅅㅡㅌㅗㄹㅣ</w>": 11634,
  "ㅈㅏㅇㅟ</w>": 5921,
  "ㅈㅜㅁㅜㄹ</w>": 14365,
  "ㅂㅏㄹㅇㅣ</w>": 10969,
  "ㄷㅐㅅㄱㅡㄹ</w>": 2243,
  "ㅈㅣㄴㅅㅣㄹ": 3088,
  "ㄱㅏㅅㅡ</w>": 7912,
  "ㅇㅣㅇㅛㅇㅎㅐㅅㅓ</w>": 10517,
  "ㅁㅣㄹㅣ</w>": 3140,
  "ㅅㅓㅇㄴㅡㅇㅇㅣ</w>": 16338,
  "ㄱㅏㅁㅇㅡㄴ</w>": 9388,
  "ㅈㅣㄴㅇㅡㄹ</w>": 5651,
  "ㅏㄱㅗ</w>": 2427,
  "ㄱㅜㅁㅐㅈㅏㅇㅢ</w>": 5169,
  "ㅂㅘ</w>": 6007,
  "Fi</w>": 4992,
  "ㄷㅚㄴㅔㅇㅛ</w>": 14596,
  "193": 13103,
  "ㄴㅜㄷㅡ</w>": 15612,
  "ㅈㅣㄱㅡㅁㄷㅗ</w>": 6393,
  "ㅌㅐㄷㅗ</w>": 14917,
  "ㅎㅏㄷㅏㄱㅏ</w>": 4836,
  "ㅇㅏㄷㅗㅇ": 2946,
  "ㅜㄹ</w>": 1125,
  "ㅈㅓㄴㅁㅜㄴㅈㅓㄱㅇㅣㄴ</w>": 14561,
  "ㅆㅡㄴ": 5604,
  "ㅊㅏㄶ": 2509,
  "ㅇㅜㄷㅡ</w>": 9681,
  "ㄱㅓㄷㅡㄴ": 3964,
  "ㅅㅔㄴㅌㅓ": 2486,
  "ㅇㅣㅂㅇㅡㄹ</w>": 3922,
  "ㅋㅗㅁㅔㄴ": 11963,
  "T</w>": 192,
  "\"</w>": 229,
  "CE": 5416,
  "ㅌㅜㅇㅣㅂ": 9026,
  "ㅍㅣㄹㅅㅜ": 5527,
  "ㅂㅣㅆㅏ": 8069,
  "ㄱㅣㅂㅗㄴ</w>": 2536,
  "Cal": 14753,
  "age</w>": 3448,
  "ㅎㅘㄹㅅㅓㅇ": 2996,
  "ㅈㅓㅇㅊㅐㄱㅇㅡㄴ</w>": 14843,
  "ㅇㅢㅎㅏㅁㅕㄴ</w>": 10466,
  "ㄴㅏㅇ": 601,
  "ㅂㄴㅣ": 299,
  "ㅊㅚㅇㅏㄱㅇㅢ</w>": 13085,
  "ㄱㅗㅈㅓㄴ": 9170,
  "ㅈㅗㄹㅇㅓㅂ": 4459,
  "co": 890,
  "ㅇㅣㄷㅡ": 5665,
  "ㅇㅓㄵ": 15308,
  "ㅁㅜㄴㅎㅘㄹㅡㄹ</w>": 6733,
  "48</w>": 7543,
  "ㅈㅔㅇㅚㅎㅏㄱㅗ</w>": 7769,
  "ㅅㅣㄹㅅㅣㄱㅏㄴ</w>": 4858,
  "ㅇㅢㄱㅕㄴㅇㅣ</w>": 9771,
  "ㅇㅣㄹㅇㅣㅂㄴㅣㄷㅏ</w>": 7919,
  "ㅂㅜㄴㄷㅡㄹㅇㅢ</w>": 9874,
  "ㄴㅡㄲㅣㅁㅇㅡㄹ</w>": 6897,
  "ㅇㅕㅇㅅㅏㅇ": 2439,
  "ㅈㅗㅈㅗㅇ": 14666,
  "ㅇㅗㄹㄹㅏㅆㄷㅏ</w>": 7378,
  "ㄱㅕㄴㅇㅡㄹ</w>": 11507,
  "ㅎㅐㅂㅕㄴ</w>": 11653,
  "ㅇㅏㄴㅣㄱㅗ</w>": 3837,
  "ㄷㅚㄷㅓㄴ</w>": 14569,
  "ㅇㅐㄱ": 1200,
  "ㅈㅏㅅㅗㅅㅓ</w>": 13678,
  "ㅂㅏㅇㅊㅣ": 13580,
  "ㅊㅣㄴㅎㅏㄴ</w>": 15965,
  "ㅇㅐㅍㅡㄹ": 5634,
  "ㄴㅜㄴㅇㅣ</w>": 5237,
  "ㅇㅣㄲㅡㄹㅇㅓ": 12649,
  "ㅍㅖㄱㅣ": 9279,
  "ㅆㅣㅅ": 9272,
  "ㅅㅏㄹㅏㅁㅇㅡㄴ</w>": 2247,
  "ㅍㅡㄹㄹㅏㅇ": 9011,
  "io</w>": 8871,
  "ㄱㅓㅅㅇㅣㄹㅏㄱㅗ</w>": 3943,
  "ㅅㅣㅅㅡㅌㅔㅁㅇㅡㄴ</w>": 12201,
  "TO": 5167,
  "ㅇㅓㄹㅣㄴ": 1857,
  "ㅇㅣㄹㅏㄷㅗ</w>": 3344,
  "ㄷㅚㄴㅡㄴ</w>": 710,
  "ㅈㅔ1": 4024,
  "ㄷㅏㅈㅣㅁ": 16012,
  "ㄹㅗㄱㅡㅇㅣㄴ": 8630,
  "ㄷㅚㄴㅡㄴ": 4959,
  "ㅂㅗㄱㅇㅝㄴ</w>": 11910,
  "ㅉㅏㄱ</w>": 3214,
  "ㅇㅜㄴㄷㅗㅇㅇㅣ</w>": 14937,
  "ㅆㅅㅡㅂㄴㅣㄲㅏ</w>": 4915,
  "ㅇㅟㅎㅓㅁ": 2992,
  "ST</w>": 13686,
  "ㅇㅏㄴㅣㄹ</w>": 8597,
  "ㄴㅗㄴㅇㅢ": 5471,
  "ㄱㅡㄹㅡ": 7485,
  "ㅁㅏㅌ": 2710,
  "ㅎㅏㄱㅗㄷㅗ</w>": 13629,
  "ㅈㅓㅁㄹㅕㅇ": 16036,
  "ㅂㅣㅁㅣㄹ": 2310,
  "ㅇㅏㄱㅎㅏㄴ</w>": 11317,
  "ㄷㅏㄴㅈㅓㅁ</w>": 13893,
  "ㅇㅕㄴㄱㅣㄹㅡㄹ</w>": 15995,
  "ㅂㅗㄴㄷㅏㅁㅕㄴ</w>": 13341,
  "ㄱㅏㅈㅗㄱ</w>": 2736,
  "ㅊㅏㅈㅇㅡㄴ</w>": 10412,
  "ㄱㅛㅎㅚㅇㅢ</w>": 8308,
  "ㄴㅏㄹㅏ</w>": 3865,
  "ㅇㅝㄹㄷㅡ</w>": 4246,
  "ㄷㅐㅌㅗㅇㄹㅕㅇ": 1777,
  "ㄷㅗㅇㅇㅢ</w>": 4314,
  "ㅍㅗㅋㅓ": 8227,
  "ograph": 13554,
  "ㅇㅓㄹㅕ": 2301,
  "ㅁㅐㅈㅜ</w>": 8503,
  "26</w>": 4385,
  "ㅈㅓㅇㅂㅗ": 723,
  "ㅁㅔㄴㅠㄱㅏ</w>": 15851,
  "1ㄱㅓㄴ</w>": 8182,
  "ㄱㅝㄴㅎㅏㄴㅇㅡㄹ</w>": 10611,
  "ㅇㅣㅁㅔㅇㅣㄹㅇㅡㄹ</w>": 15975,
  "ㅅㅗㅍㅡㅌㅡㅇㅞㅇㅓ</w>": 4452,
  "ㅁㅣㄹㅐㄹㅡㄹ</w>": 6997,
  "ㅅㅏㅎㅚ</w>": 2025,
  "ㅊㅣㄹㅡ": 11763,
  "ㅁㅏㅈㅇㅡㄴ</w>": 8034,
  "ㅎㅚㅈㅓㄴ": 11352,
  "ㅅㅣㄴㅅㅐㅇ": 14096,
  "\\": 53,
  "ㅌㅐ</w>": 2088,
  "ㅈㅓㅇㅂㅗㅇㅔ</w>": 8810,
  "ㅇㅛㅇㅑㄱ": 5206,
  "ㄷㅏㅇㅇㅢ</w>": 6841,
  "ㅂㅗㅇㅣㅁㅕ</w>": 14741,
  "ㅏㄹㅗ</w>": 4886,
  "ㄹㅗㅇㅜ</w>": 8734,
  "ㅅㅗㄱㅐ</w>": 2899,
  "ㄷㅏㄹㄱㅑ": 15168,
  "ㅗㄱ": 317,
  "ㅅㅐㄹㄹㅓ": 11927,
  "ㄷㅗㅇㅂㅜㄱ": 13424,
  "ㅇㅕㅇㅅㅜ": 12613,
  "ㅇㅕㅂ": 7722,
  "ㅎㅡㅂㅅㅜ": 11973,
  "ㅎㅢㅅㅐㅇ": 7628,
  "ㅍㅣㄴ": 4634,
  "ㅎㅐㄱㅕㄹ": 1792,
  "ㅁㅟㄴ": 10553,
  "ㅇㅣㄹㅕㄱ": 9168,
  "ㅇㅢㅈㅣㄹㅡㄹ</w>": 14244,
  "ㅊㅗㄷㅐ": 7642,
  "ㅈㅏㅇㅇㅢ</w>": 2600,
  "ㅁㅜㄹㅕㄱ": 16086,
  "ㄷㅗㅊㅏㄱ": 3449,
  "ㅇㅔㄱ": 5135,
  "ㅁㅔㄴㅠ</w>": 5943,
  "22": 2176,
  "ㅂㅜㄴㅈㅐㅇ": 2639,
  "ㅅㅡㅇㅞ": 5483,
  "ㅇㅢㅎㅐㅅㅓ</w>": 2902,
  "ㄲㅣㄹㅣ</w>": 7720,
  "ㅈㅐㅎㅘ</w>": 12962,
  "ㅎㅘㄹㅕㅎㅏㄴ</w>": 7807,
  "ㅅㅏㅂㅓㅂ": 10441,
  "ㅉㅐ": 2134,
  "ㄹㅑㅇㅇㅡㄴ</w>": 8814,
  "ㅇㅛㅇㅇㅡㄹㅗ</w>": 7964,
  "ㄷㅜㅇㅔ</w>": 11694,
  "ㅇㅜㅁㅈㅣㄱㅇㅣㅁ": 10055,
  "ㅅㅗㅅㅓ</w>": 5914,
  "ㄱㅡㄷㅡㄹㅇㅡㄴ</w>": 3112,
  "ㅅㅡㅇㅘ</w>": 3792,
  "ㄱㅣㅇㅜㄹ": 5979,
  "ㅎㅕㅇㅌㅐ</w>": 9661,
  "ㅎㅘㅇㅣㅌㅡ</w>": 5652,
  "ㅇㅝㄴㅊㅓㄴ": 15506,
  "ㅇㅣㄴㄷㅣ": 8689,
  "ㅊㅣㅇㅠ": 11848,
  "ㅇㅣㅇㅓㅆ": 1289,
  "5ㅇㅝㄹ</w>": 3148,
  "ㄷㅣㅈㅏㅇㅣㄴ</w>": 2401,
  "ㅁㅏㄹㄱㅘ</w>": 14671,
  "ㄲ": 84,
  "ㅁㅕㄴㅇㅡㄴ</w>": 15103,
  "ㅇㅓㄹㅕㅂㄱㅔ</w>": 12954,
  "ㅋㅜㅍㅗㄴ": 14055,
  "ㅈㅜㄹㅡㄹ</w>": 4223,
  "ㅇㅛㄱㅡㅁㅇㅡㄴ</w>": 12404,
  "ㅋㅗㄷㅡㄹㅡㄹ</w>": 7046,
  "ㄹㅕㅇ</w>": 1861,
  "ㅁㅏㅁㅜㄹㅣ</w>": 7682,
  "Advisor</w>": 9114,
  "ㄱㅣㄴㅡㅇㅇㅔ</w>": 15365,
  "ㅈㅡㄱㅏ</w>": 10736,
  "ute</w>": 14130,
  "ㅈㅣㅇㅕㄱ</w>": 1631,
  "ㄹㅏㅁㅣ": 11940,
  "20ㅂㅜㄴ</w>": 14999,
  "ㅎㅘㅈㅏㅇ": 2625,
  "ㅁㅗㅅㅎㅏㄹ</w>": 5886,
  "ㅊㅜㅇㅂㅜㄱ": 13325,
  "ㅈㅣㅇㅜ": 12634,
  "s</w>": 152,
  "ㅇㅑㅇㅅㅣㄱ</w>": 8728,
  "ㅅㅜㅇㅣㄱ</w>": 12786,
  "ㅠㄹ</w>": 10625,
  "ㅅㅔㅇㅢ</w>": 8383,
  "ㅁㅕㅇㄱㅘ</w>": 7870,
  "ㄷㅐㅎㅘ</w>": 6491,
  "loc": 7506,
  "ㅈㅗㅇㅇㅣㄹ</w>": 9160,
  "ㅈㅏㄴㅣ": 9268,
  "ㅅㅓㅂ</w>": 7848,
  "ㅈㅓㅇㄱㅠㅈㅣㄱ": 16227,
  "ㄱㅓㄹㅣㅇㅔ</w>": 3359,
  "ㅇㅚ</w>": 1829,
  "ㅇㅣㅆㅇㅡㅁㅡㄹㅗ</w>": 5047,
  "ㄱㅣㄴㅡㅇㅇㅡㄴ</w>": 9135,
  "8ㅇㅣㄹ</w>": 6296,
  "ㄱㅓㄹㅇㅣ</w>": 10196,
  "ㄴㅗㅇ": 1065,
  "ㅇㅏㅅㅟ": 5999,
  "ㅇㅣㄴㄱㅏㄴ": 1571,
  "ㅎㅏㄴㅏㄴㅣ": 1347,
  "ㅎㅏㄴㅇㅢ</w>": 8667,
  "ㅎㅏㅅ</w>": 11152,
  "ㅍㅏㄴ</w>": 1466,
  "ms</w>": 16350,
  "ㅈㅣㄴㅉㅏ</w>": 2771,
  "ㅇㅕㅎㅐㅇㄱㅐㄱ": 15929,
  "Q</w>": 222,
  "ㅊㅓㄹ</w>": 2386,
  "ㄴㅜㄴㅁㅜㄹㅇㅡㄹ</w>": 13501,
  "TXXX</w>": 15866,
  "ㅂㅣㄱㅛㅈㅓㄱ</w>": 7918,
  "ㄲㅜㄴ</w>": 12779,
  "ㄷㅡㄹㅇㅓㅅㅓ": 14988,
  "ㅅㅡㅋㅡㄹㅣㄴ": 10526,
  "ㄴㄷㅏ</w>": 662,
  "ㅂㅜㄹㄹㅓ": 4436,
  "1ㄴㅕㄴㄱㅏㄴ</w>": 14519,
  "ㅇㅓㅉㅓㅁㅕㄴ</w>": 7239,
  "ㄱㅣㄹㅗㄱ": 1508,
  "ㄱㅐㅂㅏㄹ": 1299,
  "ㅇㅏㄶㅇㅏㄷㅗ</w>": 5506,
  "ㅇㅏㅋㅣㅌㅔㄱ": 14319,
  "ㄱㅡㄴㅕㄴㅡㄴ</w>": 5446,
  "ㅎㅏㄴㅏㅇㅣㅂㄴㅣㄷㅏ</w>": 15673,
  "ㅂㅗㄱㅓㄴ": 3955,
  "20ㄷㅐ</w>": 8355,
  "..</w>": 390,
  "ㄷㅏㄹㅇㅔ</w>": 10387,
  "ㅁㅣㄷㅣ": 1910,
  "ㅂㅏㄺㅎㅣ": 10607,
  "ㅌㅣㅁㅇㅔ</w>": 11559,
  "ㄷㅡㄹㅣㄹ</w>": 6691,
  "ㅇㅓㅂㅊㅔㄱㅏ</w>": 13564,
  "ㄹㅐㅇ": 5090,
  "ㅏㅇㅜㄴ": 5418,
  "ㅁㅏㄴㅋㅡ": 1437,
  "ㅈㅗㅁ": 4740,
  "ㄷㅏㄹ": 433,
  "ㅇㅣㄴㅊㅓㄴ</w>": 5614,
[...]
