{
  "!": 0,
  "!\"</w>": 1,
  "!</w>": 2,
  "!”": 3,
  "!”</w>": 4,
  "\"": 5,
  "\"ㅁㅕㅇㄱㅣㄹㅇㅏ!</w>": 6,
  "\"ㅅㅜㄴㅏㅁㅇㅏ!</w>": 7,
  "\"ㅇㅏ!</w>": 8,
  "\"ㅇㅏㅇㅣㄱㅜ,</w>": 9,
  "\"ㅇㅒ": 10,
  "\"ㅇㅒ,</w>": 11,
  "'": 12,
  "'ㅂㅕㅇㅅㅏㅇ</w>": 13,
  "(": 14,
  "(*": 15,
  "(⁎": 16,
  ")": 17,
  ")</w>": 18,
  ")ㄹㅡㄹ</w>": 19,
  ")ㅇㅡㄴ</w>": 20,
  ")ㅇㅡㄹ</w>": 21,
  ")ㅇㅣ</w>": 22,
  "**": 23,
  "***": 24,
  "***</w>": 25,
  ",": 26,
  ",</w>": 27,
  "-": 28,
  "--": 29,
  "---": 30,
  "-</w>": 31,
  ".": 32,
  ".\"</w>": 33,
  "......": 34,
  "......\"</w>": 35,
  "......</w>": 36,
  "......”</w>": 37,
  ".</w>": 38,
  ".’</w>": 39,
  ".“</w>": 40,
  ".”</w>": 41,
  "0": 42,
  "0ㅁㅕㅇㅇㅣㄴㅏ</w>": 43,
  "0ㅇㅕ</w>": 44,
  "1": 45,
  "1.</w>": 46,
  "10": 47,
  "10ㅇㅝㄴ": 48,
  "14ㅅㅏㄹ</w>": 49,
  "15": 50,
  "17": 51,
  "18</w>": 52,
  "19": 53,
  "1936": 54,
  "1</w>": 55,
  "1ㅇㅝㄴ": 56,
  "1ㅈㅏㅇㅆㅣㄱ</w>": 57,
  "2": 58,
  "2,</w>": 59,
  "2.</w>": 60,
  "20": 61,
  "200ㅁㅕㅇㅇㅣㄴㅏ</w>": 62,
  "200ㅇㅕ</w>": 63,
  "2</w>": 64,
  "2ㅎㅏㄱ": 65,
  "3": 66,
  "3.</w>": 67,
  "30": 68,
  "300ㅁㅕㅇㅇㅣㄴㅏ</w>": 69,
  "30ㅁㅕㅇㅇㅣㄴㅏ</w>": 70,
  "33": 71,
  "33ㅂㅓㄴ": 72,
  "33ㅂㅓㄴㅈㅣ</w>": 73,
  "3</w>": 74,
  "3ㄴㅕㄴ</w>": 75,
  "3ㄷㅏㄹ</w>": 76,
  "3ㅎㅏㄱㄴㅕㄴ</w>": 77,
  "4": 78,
  "4.</w>": 79,
  "4</w>": 80,
  "5": 81,
  "50": 82,
  "5</w>": 83,
  "5ㅇㅝㄴ": 84,
  "5ㅎㅏㄱㄴㅕㄴ</w>": 85,
  "5ㅎㅏㄱㄴㅕㄴㅇㅣ</w>": 86,
  "6": 87,
  "7": 88,
  "7ㅇㅝㄹ</w>": 89,
  "8": 90,
  "80": 91,
  "8</w>": 92,
  "9": 93,
  ":": 94,
  "<": 95,
  "</w>": 96,
  "<ㄴㅜㄴㅣㅁㅇㅢ</w>": 97,
  "<ㅇㅓㄹㅣㄴㅇㅣ": 98,
  "<ㅇㅓㄹㅣㄴㅇㅣ>": 99,
  ">": 100,
  "></w>": 101,
  "?": 102,
  "?\"</w>": 103,
  "?</w>": 104,
  "?’</w>": 105,
  "?”</w>": 106,
  "OO": 107,
  "OOㅅㅣㅁㅅㅏㅇㅅㅗ": 108,
  "Oㅇㅝㄹ": 109,
  "X": 110,
  "XX": 111,
  "XXX": 112,
  "XXㅅㅣㄴㅁㅜㄴ": 113,
  "XXㅅㅣㄴㅁㅜㄴㅅㅏ</w>": 114,
  "―</w>": 115,
  "‘": 116,
  "‘ㅁㅗㅅㄴㅏㄴㅇㅣ’": 117,
  "‘ㅂㅣㄴ</w>": 118,
  "‘ㅅㅔㄱㅓㅁㅈㅓㅇ": 119,
  "‘ㅇㅙ</w>": 120,
  "‘ㅇㅛ": 121,
  "‘ㅇㅜㄹㅣ</w>": 122,
  "‘ㅈㅏㅇㅁㅣㄲㅗㅊ</w>": 123,
  "‘ㅋㅡㄹㅔㅇㅛㅇ": 124,
  "’": 125,
  "’</w>": 126,
  "’ㄴㅏㄹㅏ</w>": 127,
  "’ㅇㅔㅅㅓ</w>": 128,
  "’ㅇㅡㄹ</w>": 129,
  "’ㅇㅣㄹㅏㄴ</w>": 130,
  "“": 131,
  "“6": 132,
  "“</w>": 133,
  "“……”</w>": 134,
  "“‧‧‧‧‧‧.”</w>": 135,
  "“ㄱㅏㅂㅈㅏㄱㅣ</w>": 136,
  "“ㄱㅕㅇㄴㅏㅁ": 137,
  "“ㄱㅕㅇㄴㅏㅁㅇㅏ!</w>": 138,
  "“ㄱㅕㅇㅎㅢㅇㅑ,</w>": 139,
  "“ㄱㅗㄱㅜㄹㅕ</w>": 140,
  "“ㄱㅗㅁㅏㅂ": 141,
  "“ㄱㅡ": 142,
  "“ㄱㅡ</w>": 143,
  "“ㄱㅡㄱㅓㄴ</w>": 144,
  "“ㄱㅡㄱㅓㅅㅇㅡㄴ</w>": 145,
  "“ㄱㅡㄹㅆㅔ": 146,
  "“ㄱㅡㄹㅆㅔ</w>": 147,
  "“ㄱㅡㄹㅐ": 148,
  "“ㄱㅡㄹㅐ!”</w>": 149,
  "“ㄱㅡㄹㅐ,</w>": 150,
  "“ㄱㅡㄹㅐ</w>": 151,
  "“ㄱㅡㄹㅐㄷㅗ</w>": 152,
  "“ㄱㅡㄹㅓㄴ</w>": 153,
  "“ㄱㅡㄹㅓㅁ": 154,
  "“ㄱㅡㄹㅓㅁ,</w>": 155,
  "“ㄱㅡㄹㅓㅁ</w>": 156,
  "“ㄱㅡㄹㅓㅁㅕㄴ</w>": 157,
  "“ㄱㅡㄹㅓㅎ": 158,
  "“ㄴㅏㄴ</w>": 159,
  "“ㄴㅏㄴㅡㄴ</w>": 160,
  "“ㄴㅏㄷㅗ</w>": 161,
  "“ㄴㅏㅁㄷㅐㅁㅜㄴ</w>": 162,
  "“ㄴㅐ</w>": 163,
  "“ㄴㅐㄱㅏ</w>": 164,
  "“ㄴㅓ!</w>": 165,
  "“ㄴㅓ</w>": 166,
  "“ㄴㅓㄴㅡㄴ</w>": 167,
  "“ㄴㅔ": 168,
  "“ㄴㅔ!”</w>": 169,
  "“ㄴㅔ,</w>": 170,
  "“ㄴㅔ.”</w>": 171,
  "“ㄴㅔ</w>": 172,
  "“ㄴㅔ……</w>": 173,
  "“ㄴㅔㄱㅏ</w>": 174,
  "“ㄴㅜ": 175,
  "“ㄴㅜㄴㅏ,</w>": 176,
  "“ㄴㅜㅇㅜ-ㄴㅏ": 177,
  "“ㄴㅜㅇㅜ-ㄴㅏㅇㅏ-”</w>": 178,
  "“ㅁㅏㄴㅏ": 179,
  "“ㅁㅗㄹㅡ": 180,
  "“ㅁㅜㅅㅡㄴ</w>": 181,
  "“ㅁㅜㅇㅓ</w>": 182,
  "“ㅁㅜㅇㅓㅅ?</w>": 183,
  "“ㅁㅝ,</w>": 184,
  "“ㅁㅝ</w>": 185,
  "“ㅁㅝ?</w>": 186,
  "“ㅂㅗㄱㅎㅢㅇㅑ,</w>": 187,
  "“ㅂㅣㄴ</w>": 188,
  "“ㅅㅐㅇㅗㄱㅇㅏ!</w>": 189,
  "“ㅅㅓㄴㅅㅐㅇㄴㅣㅁ!</w>": 190,
  "“ㅅㅓㄴㅅㅐㅇㄴㅣㅁ!”</w>": 191,
  "“ㅅㅓㄴㅅㅐㅇㄴㅣㅁ</w>": 192,
  "“ㅅㅜㄱㅎㅢㅇㅑ,</w>": 193,
  "“ㅅㅜㄱㅣㄹ": 194,
  "“ㅅㅜㄴㅏㅁ-ㅇㅏ-”</w>": 195,
  "“ㅅㅜㄴㅏㅁㅇㅏ,</w>": 196,
  "“ㅇㅏ": 197,
  "“ㅇㅏ!</w>": 198,
  "“ㅇㅏ,</w>": 199,
  "“ㅇㅏㄲㅏ</w>": 200,
  "“ㅇㅏㄴ</w>": 201,
  "“ㅇㅏㄴㅣ": 202,
  "“ㅇㅏㄴㅣ,</w>": 203,
  "“ㅇㅏㄴㅣㄷㅏ.</w>": 204,
  "“ㅇㅏㄴㅣㅇㅔㅇㅛ.</w>": 205,
  "“ㅇㅏㄸㅏ": 206,
  "“ㅇㅏㄸㅏ,</w>": 207,
  "“ㅇㅏㅁ": 208,
  "“ㅇㅏㅁ,</w>": 209,
  "“ㅇㅏㅁㅏ</w>": 210,
  "“ㅇㅏㅂㅓㅈㅣ": 211,
  "“ㅇㅏㅂㅓㅈㅣ!</w>": 212,
  "“ㅇㅏㅆㅣ,</w>": 213,
  "“ㅇㅏㅇㅣ": 214,
  "“ㅇㅏㅇㅣㄱㅗ,</w>": 215,
  "“ㅇㅒ": 216,
  "“ㅇㅒ!</w>": 217,
  "“ㅇㅒ,</w>": 218,
  "“ㅇㅒ</w>": 219,
  "“ㅇㅓ": 220,
  "“ㅇㅓㄴㄴㅣ": 221,
  "“ㅇㅓㅁㅓㄴㅣ!</w>": 222,
  "“ㅇㅓㅁㅓㄴㅣ,</w>": 223,
  "“ㅇㅓㅇㅣ!</w>": 224,
  "“ㅇㅔ": 225,
  "“ㅇㅔㅇㅣ,</w>": 226,
  "“ㅇㅕㅁㄹㅏㄷㅐㅇㅘㅇㄴㅣㅁ!</w>": 227,
  "“ㅇㅕㅁㄹㅕ</w>": 228,
  "“ㅇㅕㅂㅗ": 229,
  "“ㅇㅕㅂㅗ,</w>": 230,
  "“ㅇㅕㅂㅗㄱㅔ,</w>": 231,
  "“ㅇㅕㅂㅗㄱㅔ</w>": 232,
  "“ㅇㅕㅇㅎㅗㅇㅑ!</w>": 233,
  "“ㅇㅖ": 234,
  "“ㅇㅗ": 235,
  "“ㅇㅗ!</w>": 236,
  "“ㅇㅗㄴㅡㄹ</w>": 237,
  "“ㅇㅗㄴㅡㄹㅇㅡㄴ</w>": 238,
  "“ㅇㅗㅀ": 239,
  "“ㅇㅗㅀㄷㅏ,</w>": 240,
  "“ㅇㅗㅃㅏ": 241,
  "“ㅇㅗㅃㅏ!</w>": 242,
  "“ㅇㅙ</w>": 243,
  "“ㅇㅛ": 244,
  "“ㅇㅛㄴㅗㅁ,</w>": 245,
  "“ㅇㅛㅇㅁㅏㄴㅇㅏ!</w>": 246,
  "“ㅇㅜㄹㅈㅣ</w>": 247,
  "“ㅇㅜㄹㅣ</w>": 248,
  "“ㅇㅡㄴㄷㅗㅇ": 249,
  "“ㅇㅡㄴㄷㅗㅇㅇㅏ!</w>": 250,
  "“ㅇㅡㅇ!</w>": 251,
  "“ㅇㅡㅇ,</w>": 252,
  "“ㅇㅡㅇㅡㅇ,</w>": 253,
  "“ㅇㅣ</w>": 254,
  "“ㅇㅣㄱㅔ</w>": 255,
  "“ㅇㅣㄴ": 256,
  "“ㅇㅣㄴㄹㅕㄱㄱㅓ": 257,
  "“ㅇㅣㄴㅈㅔ</w>": 258,
  "“ㅇㅣㄴㅕㄴㅇㅏ,</w>": 259,
  "“ㅇㅣㄴㅗ": 260,
  "“ㅇㅣㄴㅗㅁ": 261,
  "“ㅇㅣㄴㅗㅁ!</w>": 262,
  "“ㅇㅣㄴㅗㅁ</w>": 263,
  "“ㅇㅣㄴㅗㅁㅇㅏ!</w>": 264,
  "“ㅇㅣㄴㅗㅁㅇㅏ</w>": 265,
  "“ㅇㅣㄴㅗㅁㅇㅢ</w>": 266,
  "“ㅇㅣㄹ</w>": 267,
  "“ㅇㅣㄹㅓㄴ</w>": 268,
  "“ㅇㅣㅈㅔ</w>": 269,
  "“ㅈㅏ!</w>": 270,
  "“ㅈㅏㄴㅔ": 271,
  "“ㅈㅏㅅㅔㅎㅣ</w>": 272,
  "“ㅈㅓ": 273,
  "“ㅈㅓ!</w>": 274,
  "“ㅈㅓ</w>": 275,
  "“ㅈㅓㄴㅡㄴ</w>": 276,
  "“ㅈㅓㅇㅅㅜㄱㅇㅏ!</w>": 277,
  "“ㅈㅓㅇㅓ,</w>": 278,
  "“ㅈㅓㅇㅓ</w>": 279,
  "“ㅈㅗㅇㄷㅡㄱㅇㅣ!</w>": 280,
  "“ㅈㅜㄱㄱㅣㄴㅡㄴ</w>": 281,
  "“ㅈㅣㄱㅡㅁ</w>": 282,
  "“ㅈㅣㄴㅅㅜ": 283,
  "“ㅈㅣㄴㅅㅜㅇㅑ!</w>": 284,
  "“ㅊㅏㅁ": 285,
  "“ㅊㅏㅁ!</w>": 286,
  "“ㅊㅏㅁ</w>": 287,
  "“ㅊㅏㅁㅁㅏㄹ</w>": 288,
  "“ㅊㅚ</w>": 289,
  "“ㅎㅏㄱㅂㅗㅇ": 290,
  "“ㅎㅏㄱㅂㅗㅇㅇㅏ!</w>": 291,
  "“ㅎㅏㄹㅇㅏㅂㅓㅈㅣ": 292,
  "“ㅎㅓㅎㅓㅎㅓㅎㅓ!</w>": 293,
  "“ㅎㅖㅅㅜㄱㅇㅏ!</w>": 294,
  "”": 295,
  "”</w>": 296,
  "……": 297,
  "…….</w>": 298,
  "…….”</w>": 299,
  "……</w>": 300,
  "……”</w>": 301,
  "‧": 302,
  "‧‧‧‧": 303,
  "‧‧‧‧‧‧": 304,
  "‧‧‧‧‧‧.”</w>": 305,
  "‧‧‧‧‧‧</w>": 306,
  "‧‧‧‧‧‧?”</w>": 307,
  "‧‧‧‧‧‧”</w>": 308,
  "⁎": 309,
  "⁎</w>": 310,
  "⁎⁎": 311,
  "⁎⁎⁎</w>": 312,
  "ㄱ": 313,
  "ㄱ!</w>": 314,
  "ㄱ</w>": 315,
  "ㄱㄱㅓㄹㅣㄱㅗ</w>": 316,
  "ㄱㅇㅔ</w>": 317,
  "ㄱㅇㅡㄴ</w>": 318,
  "ㄱㅇㅡㄹ</w>": 319,
  "ㄱㅇㅡㄹㅗ</w>": 320,
  "ㄱㅇㅣ</w>": 321,
  "ㄱㅎㅏㄱㅗ</w>": 322,
  "ㄱㅎㅏㄴ</w>": 323,
  "ㄱㅎㅏㅇㅕ</w>": 324,
  "ㄱㅎㅏㅇㅕㅆㄷㅏ.</w>": 325,
  "ㄱㅎㅣ</w>": 326,
  "ㄱㅏ": 327,
  "ㄱㅏ.”</w>": 328,
  "ㄱㅏ</w>": 329,
  "ㄱㅏㄱ": 330,
  "ㄱㅏㄱ</w>": 331,
  "ㄱㅏㄱㄱㅣ</w>": 332,
  "ㄱㅏㄱㅇㅣ</w>": 333,
  "ㄱㅏㄱㅓㄹㅏ.</w>": 334,
  "ㄱㅏㄱㅓㄹㅏ.”</w>": 335,
  "ㄱㅏㄱㅔ": 336,
  "ㄱㅏㄱㅔ</w>": 337,
  "ㄱㅏㄱㅗ</w>": 338,
  "ㄱㅏㄱㅜ": 339,
  "ㄱㅏㄱㅜㄹㅡㄹ</w>": 340,
  "ㄱㅏㄱㅜㅇㅔ</w>": 341,
  "ㄱㅏㄱㅜㅇㅢ</w>": 342,
  "ㄱㅏㄱㅣㄹㅗ</w>": 343,
  "ㄱㅏㄲㅏ": 344,
  "ㄱㅏㄲㅏㅅㅡㄹㅗ</w>": 345,
  "ㄱㅏㄲㅏㅇㅜㄴ</w>": 346,
  "ㄱㅏㄲㅏㅇㅝ</w>": 347,
  "ㄱㅏㄲㅏㅇㅣ</w>": 348,
  "ㄱㅏㄲㅡㅁ</w>": 349,
  "ㄱㅏㄴ": 350,
  "ㄱㅏㄴ</w>": 351,
  "ㄱㅏㄴㄷㅏ.</w>": 352,
  "ㄱㅏㄴㄷㅏㄴㅡㄴ</w>": 353,
  "ㄱㅏㄴㅅㅣㄴㅎㅣ</w>": 354,
  "ㄱㅏㄴㅇㅔ</w>": 355,
  "ㄱㅏㄴㅇㅔㅅㅓ</w>": 356,
  "ㄱㅏㄴㅈㅓㄹ": 357,
  "ㄱㅏㄴㅈㅓㄹㅎㅣ</w>": 358,
  "ㄱㅏㄴㅎㅗ": 359,
  "ㄱㅏㄴㅎㅗㅂㅜ": 360,
  "ㄱㅏㄴㅏ</w>": 361,
  "ㄱㅏㄴㅏ?</w>": 362,
  "ㄱㅏㄴㅏㄴ": 363,
  "ㄱㅏㄴㅏㄴㅎㅏㄴ</w>": 364,
  "ㄱㅏㄴㅡㄴ</w>": 365,
  "ㄱㅏㄴㅡㄷㅏㄹㅏㄴ</w>": 366,
  "ㄱㅏㄷㅓㄴ</w>": 367,
  "ㄱㅏㄷㅓㄴㅣ</w>": 368,
  "ㄱㅏㄷㅡㄱ</w>": 369,
  "ㄱㅏㄸㅡㄱㅇㅣㄴㅏ</w>": 370,
  "ㄱㅏㄹ": 371,
  "ㄱㅏㄹ</w>": 372,
  "ㄱㅏㄹㄱ": 373,
  "ㄱㅏㄹㄹㅏ": 374,
  "ㄱㅏㄹㅅㅜㄹㅗㄱ</w>": 375,
  "ㄱㅏㄹㅇㅏㄴㅐ": 376,
  "ㄱㅏㄹㅏ": 377,
  "ㄱㅏㄹㅑㅇ</w>": 378,
  "ㄱㅏㄹㅕ": 379,
  "ㄱㅏㄹㅕㄱㅗ</w>": 380,
  "ㄱㅏㄹㅗ": 381,
  "ㄱㅏㄹㅗ</w>": 382,
  "ㄱㅏㄹㅡ": 383,
  "ㄱㅏㄹㅡㄹ</w>": 384,
  "ㄱㅏㄹㅡㄹ……</w>": 385,
  "ㄱㅏㄹㅡㅊㅕ": 386,
  "ㄱㅏㄹㅡㅊㅕㅈㅜ": 387,
  "ㄱㅏㄹㅡㅊㅣ": 388,
  "ㄱㅏㄹㅡㅊㅣㅅㅣㄴㅡㄴ</w>": 389,
  "ㄱㅏㄹㅣ": 390,
  "ㄱㅏㄹㅣㄴㅡㄴ</w>": 391,
  "ㄱㅏㄹㅣㅇㅓㅆㄷㅓㄴ</w>": 392,
  "ㄱㅏㄹㅣㅋㅕ": 393,
  "ㄱㅏㄹㅣㅋㅣ": 394,
  "ㄱㅏㅁ": 395,
  "ㄱㅏㅁ</w>": 396,
  "ㄱㅏㅁㄱㅕ": 397,
  "ㄱㅏㅁㄱㅕㄱ": 398,
  "ㄱㅏㅁㄱㅗ</w>": 399,
  "ㄱㅏㅁㄱㅣㄱㅏ</w>": 400,
  "ㄱㅏㅁㄷㅗㅇㅇㅣ</w>": 401,
  "ㄱㅏㅁㅅㅏ": 402,
  "ㄱㅏㅁㅅㅏㅎㅏㄴ</w>": 403,
  "ㄱㅏㅁㅇㅡㄴ</w>": 404,
  "ㄱㅏㅁㅇㅣ</w>": 405,
  "ㄱㅏㅁㅈㅏ</w>": 406,
  "ㄱㅏㅁㅈㅏㄹㅡㄹ</w>": 407,
  "ㄱㅏㅁㅈㅓㅇㅇㅡㄴ</w>": 408,
  "ㄱㅏㅁㅊㅜㅇㅓ</w>": 409,
  "ㄱㅏㅁㅌㅜ": 410,
  "ㄱㅏㅁㅌㅜㅂㅏㅇㅟ": 411,
  "ㄱㅏㅁㅌㅜㅂㅏㅇㅟㅇㅔ</w>": 412,
  "ㄱㅏㅁㅎㅣ</w>": 413,
  "ㄱㅏㅁㅏ": 414,
  "ㄱㅏㅁㅏ</w>": 415,
  "ㄱㅏㅁㅏㄴ": 416,
  "ㄱㅏㅁㅏㄴㅎㅣ</w>": 417,
  "ㄱㅏㅁㅕ</w>": 418,
  "ㄱㅏㅁㅕㄴ</w>": 419,
  "ㄱㅏㅁㅕㄴㅅㅓ</w>": 420,
  "ㄱㅏㅁㅕㄴㅅㅓㄷㅗ</w>": 421,
  "ㄱㅏㅁㅜ": 422,
  "ㄱㅏㅁㅜㅁㅇㅣ</w>": 423,
  "ㄱㅏㅁㅡㄹㅗ</w>": 424,
  "ㄱㅏㅂ": 425,
  "ㄱㅏㅂㄴㅣㄷㅏ.</w>": 426,
  "ㄱㅏㅂㄷㅡㄱ": 427,
  "ㄱㅏㅂㅈㅏㄱㅣ</w>": 428,
  "ㄱㅏㅂㅏㅇ</w>": 429,
  "ㄱㅏㅂㅏㅇㅇㅡㄹ</w>": 430,
  "ㄱㅏㅂㅕ": 431,
  "ㄱㅏㅂㅕㅂㄱㅔ</w>": 432,
  "ㄱㅏㅂㅕㅇㅝ": 433,
  "ㄱㅏㅂㅗ": 434,
  "ㄱㅏㅄ": 435,
  "ㄱㅏㅄ</w>": 436,
  "ㄱㅏㅄㅇㅡㄹ</w>": 437,
  "ㄱㅏㅄㅇㅡㄹㅗ</w>": 438,
  "ㄱㅏㅅ</w>": 439,
  "ㄱㅏㅅㅓ</w>": 440,
  "ㄱㅏㅅㅕㅅㅓ</w>": 441,
  "ㄱㅏㅅㅡㅁ": 442,
  "ㄱㅏㅅㅡㅁ</w>": 443,
  "ㄱㅏㅅㅡㅁㅅㅗㄱㅇㅔ</w>": 444,
  "ㄱㅏㅅㅡㅁㅅㅗㄱㅇㅔㄴㅡㄴ</w>": 445,
  "ㄱㅏㅅㅡㅁㅅㅗㄱㅇㅡㄹ</w>": 446,
  "ㄱㅏㅅㅡㅁㅇㅔ</w>": 447,
  "ㄱㅏㅅㅡㅁㅇㅡㄴ</w>": 448,
  "ㄱㅏㅅㅡㅁㅇㅡㄹ</w>": 449,
  "ㄱㅏㅅㅡㅁㅇㅣ</w>": 450,
  "ㄱㅏㅅㅣ": 451,
  "ㄱㅏㅅㅣㄱㅏㅌㅇㅣ</w>": 452,
  "ㄱㅏㅅㅣㄱㅔ</w>": 453,
  "ㄱㅏㅅㅣㄱㅗ</w>": 454,
  "ㄱㅏㅅㅣㄴ</w>": 455,
  "ㄱㅏㅅㅣㄴㄷㅏ": 456,
  "ㄱㅏㅆ": 457,
  "ㄱㅏㅆㄴㅡㄴㅈㅣ</w>": 458,
  "ㄱㅏㅆㄷㅏ.</w>": 459,
  "ㄱㅏㅆㄷㅏ</w>": 460,
  "ㄱㅏㅆㄷㅏㄱㅏ</w>": 461,
  "ㄱㅏㅆㄷㅓㄴ</w>": 462,
  "ㄱㅏㅆㅅㅡㅂㄴㅣㄷㅏ.</w>": 463,
  "ㄱㅏㅆㅇㅓㅇㅛ.”</w>": 464,
  "ㄱㅏㅆㅇㅡㄹ</w>": 465,
  "ㄱㅏㅆㅇㅡㅁㅕㄴ</w>": 466,
  "ㄱㅏㅆㅈㅣㅁㅏㄴ</w>": 467,
  "ㄱㅏㅇ": 468,
  "ㄱㅏㅇㄷㅏㅇㅇㅔ</w>": 469,
  "ㄱㅏㅇㅇㅏ": 470,
  "ㄱㅏㅇㅇㅣㄹㅡㄹ</w>": 471,
  "ㄱㅏㅇㅎㅏㄴ</w>": 472,
  "ㄱㅏㅇㅑ": 473,
  "ㄱㅏㅇㅑㄱㅔㅆㄷㅏ.</w>": 474,
  "ㄱㅏㅇㅔ</w>": 475,
  "ㄱㅏㅇㅕ": 476,
  "ㄱㅏㅇㅕㅄㄱㅔ</w>": 477,
  "ㄱㅏㅇㅕㅄㅇㅓㅅㅓ</w>": 478,
  "ㄱㅏㅇㅕㅄㅇㅡㄴ</w>": 479,
  "ㄱㅏㅇㅕㅄㅇㅣ</w>": 480,
  "ㄱㅏㅇㅜㄴ</w>": 481,
  "ㄱㅏㅇㅜㄴㄷㅔ": 482,
  "ㄱㅏㅇㅜㄴㄷㅔ</w>": 483,
  "ㄱㅏㅇㅜㄴㄷㅔㅅㅓㄴㅡㄴ</w>": 484,
  "ㄱㅏㅇㅡㄹ": 485,
  "ㄱㅏㅇㅡㄹㅇㅔ</w>": 486,
  "ㄱㅏㅇㅡㄹㅇㅣ</w>": 487,
  "ㄱㅏㅇㅢ</w>": 488,
  "ㄱㅏㅈ": 489,
  "ㄱㅏㅈㄱㅗ</w>": 490,
  "ㄱㅏㅈㄷㅏ</w>": 491,
  "ㄱㅏㅈㅇㅡㄴ</w>": 492,
  "ㄱㅏㅈㅏ.</w>": 493,
  "ㄱㅏㅈㅏㅇ</w>": 494,
  "ㄱㅏㅈㅕ": 495,
  "ㄱㅏㅈㅕ</w>": 496,
  "ㄱㅏㅈㅕㅆㅅㅡㅂㄴㅣㄷㅏ.</w>": 497,
  "ㄱㅏㅈㅕㅇㅗ": 498,
  "ㄱㅏㅈㅕㅇㅗㄴㅡㄴ</w>": 499,
  "ㄱㅏㅈㅣ": 500,
  "ㄱㅏㅈㅣ</w>": 501,
  "ㄱㅏㅈㅣㄱㅏㄱ": 502,
  "ㄱㅏㅈㅣㄱㅏㄱㅅㅐㄱ</w>": 503,
  "ㄱㅏㅈㅣㄱㅗ</w>": 504,
  "ㄱㅏㅈㅣㄱㅗㄴㅡㄴ</w>": 505,
  "ㄱㅏㅈㅣㄴ</w>": 506,
  "ㄱㅏㅈㅣㄹㅓㄴㅎㅣ</w>": 507,
  "ㄱㅏㅈㅣㄹㅗ</w>": 508,
  "ㄱㅏㅈㅣㄹㅡㄹ</w>": 509,
  "ㄱㅏㅈㅣㅁㅏㄴ</w>": 510,
  "ㄱㅏㅈㅣㅁㅏㄷㅏ</w>": 511,
  "ㄱㅏㅌ": 512,
  "ㄱㅏㅌㄱㅗ</w>": 513,
  "ㄱㅏㅌㄴㅡㄴ</w>": 514,
  "ㄱㅏㅌㄷㅏ": 515,
  "ㄱㅏㅌㄷㅏ.</w>": 516,
  "ㄱㅏㅌㄷㅓㄴㅣ</w>": 517,
  "ㄱㅏㅌㅅㅗ.</w>": 518,
  "ㄱㅏㅌㅇㅏ": 519,
  "ㄱㅏㅌㅇㅏ</w>": 520,
  "ㄱㅏㅌㅇㅏㅅㅓ</w>": 521,
  "ㄱㅏㅌㅇㅏㅅㅓㄴㅡㄴ</w>": 522,
  "ㄱㅏㅌㅇㅏㅆㄷㅏ.</w>": 523,
  "ㄱㅏㅌㅇㅏㅆㅅㅡㅂㄴㅣㄷㅏ.</w>": 524,
  "ㄱㅏㅌㅇㅡ": 525,
  "ㄱㅏㅌㅇㅡㄴ": 526,
  "ㄱㅏㅌㅇㅡㄴ</w>": 527,
  "ㄱㅏㅌㅇㅡㄴㅣ.”</w>": 528,
  "ㄱㅏㅌㅇㅡㅁㅕㄴ</w>": 529,
  "ㄱㅏㅌㅇㅡㅁㅡㄹㅗ</w>": 530,
  "ㄱㅏㅌㅇㅣ,</w>": 531,
  "ㄱㅏㅌㅇㅣ</w>": 532,
  "ㄱㅏㅌㅈㅣ</w>": 533,
  "ㄱㅐ": 534,
  "ㄱㅐ</w>": 535,
  "ㄱㅐㄱ": 536,
  "ㄱㅐㄱㅏ</w>": 537,
  "ㄱㅐㄱㅗㄹ": 538,
  "ㄱㅐㄴㅏ": 539,
  "ㄱㅐㄴㅏㄹㅣ": 540,
  "ㄱㅐㄴㅏㄹㅣㄲㅗㅊ</w>": 541,
  "ㄱㅐㄴㅏㄹㅣㄲㅗㅊㅇㅣ</w>": 542,
  "ㄱㅐㄴㅏㄹㅣㅇㅘ</w>": 543,
  "ㄱㅐㄷㅗ</w>": 544,
  "ㄱㅐㄸㅗㅇ": 545,
  "ㄱㅐㄸㅗㅇ</w>": 546,
  "ㄱㅐㄹㅡㄹ</w>": 547,
  "ㄱㅐㅁㅣ": 548,
  "ㄱㅐㅅ": 549,
  "ㄱㅐㅇ": 550,
  "ㄱㅐㅇㅢ</w>": 551,
  "ㄱㅑ": 552,
  "ㄱㅓ": 553,
  "ㄱㅓ</w>": 554,
  "ㄱㅓㄱ": 555,
  "ㄱㅓㄱㅈㅓㅇ": 556,
  "ㄱㅓㄱㅈㅓㅇ</w>": 557,
  "ㄱㅓㄱㅈㅓㅇㄷㅚㄴㅡㄴ</w>": 558,
  "ㄱㅓㄱㅈㅓㅇㅇㅡㄹ</w>": 559,
  "ㄱㅓㄱㅈㅓㅇㅇㅣ</w>": 560,
  "ㄱㅓㄱㅣ": 561,
  "ㄱㅓㄱㅣ</w>": 562,
  "ㄱㅓㄱㅣㅅㅓ</w>": 563,
  "ㄱㅓㄱㅣㅇㅔ</w>": 564,
  "ㄱㅓㄴ": 565,
  "ㄱㅓㄴ</w>": 566,
  "ㄱㅓㄴㄴㅓ": 567,
  "ㄱㅓㄴㄴㅓ</w>": 568,
  "ㄱㅓㄴㄴㅓㅍㅕㄴ</w>": 569,
  "ㄱㅓㄴㄴㅔ": 570,
  "ㄱㅓㄴㅁㅏㄴ,</w>": 571,
  "ㄱㅓㄴㅁㅏㄴ</w>": 572,
  "ㄱㅓㄴㅂㅏㅇㅈㅣㄴ</w>": 573,
  "ㄱㅓㄴㅈㅓㄴ": 574,
  "ㄱㅓㄴㅈㅓㄴㅈㅣ": 575,
  "ㄱㅓㄴㅈㅓㄴㅈㅣㄹㅡㄹ</w>": 576,
  "ㄱㅓㄴㅈㅕ</w>": 577,
  "ㄱㅓㄴㅏ</w>": 578,
  "ㄱㅓㄴㅡㄹ</w>": 579,
  "ㄱㅓㄴㅡㄹㅣㄱㅗ</w>": 580,
  "ㄱㅓㄴㅣㅇㅘ</w>": 581,
  "ㄱㅓㄷ": 582,
  "ㄱㅓㄷㅇㅓ": 583,
  "ㄱㅓㄷㅇㅓㅊㅣ": 584,
  "ㄱㅓㄷㅈㅏㅂㅇㅡㄹ</w>": 585,
  "ㄱㅓㄷㅜ": 586,
  "ㄱㅓㄷㅡㄴ": 587,
  "ㄱㅓㄷㅡㄴ</w>": 588,
  "ㄱㅓㄷㅡㄹ": 589,
  "ㄱㅓㄹ": 590,
  "ㄱㅓㄹ,</w>": 591,
  "ㄱㅓㄹ.’</w>": 592,
  "ㄱㅓㄹ</w>": 593,
  "ㄱㅓㄹㄱㅡㄹㅓㅇ": 594,
  "ㄱㅓㄹㄹㅓ</w>": 595,
  "ㄱㅓㄹㄹㅕ</w>": 596,
  "ㄱㅓㄹㄹㅕㅅㅓ</w>": 597,
  "ㄱㅓㄹㄹㅣㄴ</w>": 598,
  "ㄱㅓㄹㅇㅓ": 599,
  "ㄱㅓㄹㅇㅓ</w>": 600,
  "ㄱㅓㄹㅇㅓㄱㅏ": 601,
  "ㄱㅓㄹㅇㅓㄱㅏㅆㅅㅡㅂㄴㅣㄷㅏ.</w>": 602,
  "ㄱㅓㄹㅇㅓㅇㅗㄹ</w>": 603,
  "ㄱㅓㄹㅇㅡㅁ": 604,
  "ㄱㅓㄹㅇㅡㅁ</w>": 605,
  "ㄱㅓㄹㅇㅡㅁㅇㅡㄹ</w>": 606,
  "ㄱㅓㄹㅇㅡㅁㅇㅣ</w>": 607,
  "ㄱㅓㄹㅈㅏㄱ": 608,
  "ㄱㅓㄹㅈㅏㄱㅍㅜㅁㅇㅣ</w>": 609,
  "ㄱㅓㄹㅊㅣㄱㅗ</w>": 610,
  "ㄱㅓㄹㅌㅓ": 611,
  "ㄱㅓㄹㅏ": 612,
  "ㄱㅓㄹㅏ.</w>": 613,
  "ㄱㅓㄹㅏ.”</w>": 614,
  "ㄱㅓㄹㅕㅆㄷㅏ.</w>": 615,
  "ㄱㅓㄹㅕㅆㅅㅡㅂㄴㅣㄷㅏ.</w>": 616,
  "ㄱㅓㄹㅜ": 617,
  "ㄱㅓㄹㅣ": 618,
  "ㄱㅓㄹㅣ</w>": 619,
  "ㄱㅓㄹㅣㄱㅗ</w>": 620,
  "ㄱㅓㄹㅣㄴㄷㅏ.</w>": 621,
  "ㄱㅓㄹㅣㄴㅡㄴ</w>": 622,
  "ㄱㅓㄹㅣㄹㅗ</w>": 623,
  "ㄱㅓㄹㅣㄹㅡㄹ</w>": 624,
  "ㄱㅓㄹㅣㅁㅕ</w>": 625,
  "ㄱㅓㄹㅣㅁㅕㄴㅅㅓ</w>": 626,
  "ㄱㅓㄹㅣㅂㄴㅣㄷㅏ.</w>": 627,
  "ㄱㅓㄹㅣㅇㅢ</w>": 628,
  "ㄱㅓㅁ": 629,
  "ㄱㅓㅁㅇㅡㄴ</w>": 630,
  "ㄱㅓㅂ": 631,
  "ㄱㅓㅂㅇㅣ</w>": 632,
  "ㄱㅓㅂㅈㅐㅇ": 633,
  "ㄱㅓㅂㅈㅐㅇㅇㅣ</w>": 634,
  "ㄱㅓㅂㅜㄱ": 635,
  "ㄱㅓㅂㅜㄱㅅㅏㄹ": 636,
  "ㄱㅓㅅ": 637,
  "ㄱㅓㅅ)": 638,
  "ㄱㅓㅅ</w>": 639,
  "ㄱㅓㅅㄱㅏㅌㅇㅣ</w>": 640,
  "ㄱㅓㅅㄱㅘ</w>": 641,
  "ㄱㅓㅅㄷㅗ</w>": 642,
  "ㄱㅓㅅㄷㅡㄹㅇㅡㄴ</w>": 643,
  "ㄱㅓㅅㅁㅏㄴ</w>": 644,
  "ㄱㅓㅅㅂㅗㄷㅏㄷㅗ</w>": 645,
  "ㄱㅓㅅㅇㅡㄴ</w>": 646,
  "ㄱㅓㅅㅇㅡㄹ": 647,
  "ㄱㅓㅅㅇㅡㄹ</w>": 648,
  "ㄱㅓㅅㅇㅡㄹㅗ</w>": 649,
  "ㄱㅓㅅㅇㅢ</w>": 650,
  "ㄱㅓㅅㅇㅣ": 651,
  "ㄱㅓㅅㅇㅣ</w>": 652,
  "ㄱㅓㅅㅇㅣㄱㅗ,</w>": 653,
  "ㄱㅓㅅㅇㅣㄴ": 654,
  "ㄱㅓㅅㅇㅣㄴ</w>": 655,
  "ㄱㅓㅅㅇㅣㄴㄷㅔ</w>": 656,
  "ㄱㅓㅅㅇㅣㄴㅏ</w>": 657,
  "ㄱㅓㅅㅇㅣㄴㅣ": 658,
  "ㄱㅓㅅㅇㅣㄴㅣ</w>": 659,
  "ㄱㅓㅅㅇㅣㄴㅣㄲㅏ.</w>": 660,
  "ㄱㅓㅅㅇㅣㄷㅏ": 661,
  "ㄱㅓㅅㅇㅣㄷㅏ.</w>": 662,
  "ㄱㅓㅅㅇㅣㄷㅏ.”</w>": 663,
  "ㄱㅓㅅㅇㅣㄹㄲㅏ?</w>": 664,
  "ㄱㅓㅅㅇㅣㄹㅏ": 665,
  "ㄱㅓㅅㅇㅣㄹㅗㄱㅜㄴㅏ": 666,
  "ㄱㅓㅅㅇㅣㅂㄴㅣㄷㅏ.</w>": 667,
  "ㄱㅓㅅㅇㅣㅂㄴㅣㄷㅏ.”</w>": 668,
  "ㄱㅓㅅㅇㅣㅇㅓㅆㄷㅏ.</w>": 669,
  "ㄱㅓㅅㅇㅣㅇㅓㅆㅅㅡㅂㄴㅣㄷㅏ.</w>": 670,
  "ㄱㅓㅅㅇㅣㅇㅛ,</w>": 671,
  "ㄱㅓㅅㅇㅣㅈㅣㅁㅏㄴ</w>": 672,
  "ㄱㅓㅅㅡㄹ": 673,
  "ㄱㅓㅅㅡㄹㅡㅈㅣ</w>": 674,
  "ㄱㅓㅅㅣㄱㅣ</w>": 675,
  "ㄱㅓㅇ": 676,
  "ㄱㅓㅇㅑ.”</w>": 677,
  "ㄱㅓㅇㅘ</w>": 678,
  "ㄱㅓㅇㅜㄹ": 679,
  "ㄱㅓㅇㅜㄹㅇㅡㄹ</w>": 680,
  "ㄱㅓㅇㅢ</w>": 681,
  "ㄱㅓㅈㅣㄴ</w>": 682,
  "ㄱㅓㅈㅣㅅ": 683,
  "ㄱㅓㅈㅣㅅㅁㅏㄹ</w>": 684,
  "ㄱㅓㅈㅣㅅㅁㅏㄹㅇㅡㄹ</w>": 685,
  "ㄱㅓㅊㅓ": 686,
  "ㄱㅔ": 687,
  "ㄱㅔ,</w>": 688,
  "ㄱㅔ.</w>": 689,
  "ㄱㅔ.”</w>": 690,
  "ㄱㅔ</w>": 691,
  "ㄱㅔㄱㅏ</w>": 692,
  "ㄱㅔㄲㅏㅈㅣ</w>": 693,
  "ㄱㅔㄴㅡㄴ</w>": 694,
  "ㄱㅔㄷㅏ.</w>": 695,
  "ㄱㅔㄷㅏ</w>": 696,
  "ㄱㅔㄷㅗ</w>": 697,
  "ㄱㅔㄹ": 698,
  "ㄱㅔㅁㅏㄴ</w>": 699,
  "ㄱㅔㅆ": 700,
  "ㄱㅔㅆㄴㅡㄴㄷㅔ</w>": 701,
  "ㄱㅔㅆㄴㅣ.</w>": 702,
  "ㄱㅔㅆㄴㅣ?</w>": 703,
  "ㄱㅔㅆㄷㅏ.</w>": 704,
  "ㄱㅔㅆㄷㅏ.”</w>": 705,
  "ㄱㅔㅆㄷㅏ</w>": 706,
  "ㄱㅔㅆㄷㅏㄱㅗ</w>": 707,
  "ㄱㅔㅆㅅㅡㅂㄴㅣ": 708,
  "ㄱㅔㅆㅅㅡㅂㄴㅣㄲㅏ.</w>": 709,
  "ㄱㅔㅆㅅㅡㅂㄴㅣㄲㅏ?</w>": 710,
  "ㄱㅔㅆㅅㅡㅂㄴㅣㄲㅏ?”</w>": 711,
  "ㄱㅔㅆㅅㅡㅂㄴㅣㄷㅏ.</w>": 712,
  "ㄱㅔㅆㅅㅡㅂㄴㅣㄷㅏ.”</w>": 713,
  "ㄱㅔㅆㅇㅓㅇㅛ.</w>": 714,
  "ㄱㅔㅆㅇㅓㅇㅛ.”</w>": 715,
  "ㄱㅔㅆㅈㅣ": 716,
  "ㄱㅔㅆㅈㅣ-</w>": 717,
  "ㄱㅔㅆㅈㅣ.</w>": 718,
  "ㄱㅔㅆㅈㅣㅁㅏㄴ</w>": 719,
  "ㄱㅔㅆㅈㅣㅇㅛ.</w>": 720,
  "ㄱㅔㅇㅡㄹ": 721,
  "ㄱㅔㅇㅡㄹㅡㄴ</w>": 722,
  "ㄱㅕ": 723,
  "ㄱㅕ</w>": 724,
  "ㄱㅕㄱ": 725,
  "ㄱㅕㄱㅇㅣ</w>": 726,
  "ㄱㅕㄴ": 727,
  "ㄱㅕㄴㄷㅣ": 728,
  "ㄱㅕㄴㄷㅣㄱㅔㅆ": 729,
  "ㄱㅕㄴㄷㅣㄹ</w>": 730,
  "ㄱㅕㄴㄷㅣㅇㅓ</w>": 731,
  "ㄱㅕㄴㅑㅇ": 732,
  "ㄱㅕㄴㅜㄱㅗ</w>": 733,
  "ㄱㅕㄹ": 734,
  "ㄱㅕㄹ</w>": 735,
  "ㄱㅕㄹㄱㅏㅌㅇㅣ</w>": 736,
  "ㄱㅕㄹㅅㅓㄱ": 737,
  "ㄱㅕㄹㅅㅣㅁ": 738,
  "ㄱㅕㄹㅅㅣㅁ</w>": 739,
  "ㄱㅕㄹㅅㅣㅁㅇㅡㄹ</w>": 740,
  "ㄱㅕㄹㅅㅣㅁㅎㅏㄱㅗ</w>": 741,
  "ㄱㅕㄹㅅㅣㅁㅎㅏㅇㅕㅆㅅㅡㅂㄴㅣㄷㅏ.</w>": 742,
  "ㄱㅕㄹㅇㅔ</w>": 743,
  "ㄱㅕㄹㅈㅓㅇ": 744,
  "ㄱㅕㄹㅋㅗ</w>": 745,
  "ㄱㅕㄹㅡㄹㄷㅗ</w>": 746,
  "ㄱㅕㅁ": 747,
  "ㄱㅕㅁ</w>": 748,
  "ㄱㅕㅂ": 749,
  "ㄱㅕㅅㅓ</w>": 750,
  "ㄱㅕㅆ": 751,
  "ㄱㅕㅆㅅㅡㅂㄴㅣㄷㅏ.</w>": 752,
  "ㄱㅕㅇ": 753,
  "ㄱㅕㅇ</w>": 754,
  "ㄱㅕㅇㄴㅏㅁ": 755,
  "ㄱㅕㅇㄴㅏㅁㅇㅣ</w>": 756,
  "ㄱㅕㅇㄴㅏㅁㅇㅣㄴㅡㄴ</w>": 757,
  "ㄱㅕㅇㄴㅏㅁㅇㅣㄹㅡㄹ</w>": 758,
  "ㄱㅕㅇㄴㅏㅁㅇㅣㅇㅢ</w>": 759,
  "ㄱㅕㅇㅅㅓㅇ": 760,
  "ㄱㅕㅇㅅㅓㅇㅇㅕ": 761,
  "ㄱㅕㅇㅅㅓㅇㅇㅕㄱ</w>": 762,
  "ㄱㅕㅇㅇㅔ</w>": 763,
  "ㄱㅕㅇㅇㅜ": 764,
  "ㄱㅕㅇㅇㅜㄱㅏ</w>": 765,
  "ㄱㅕㅇㅇㅜㄹㅡㄹ</w>": 766,
  "ㄱㅕㅇㅇㅜㅇㅔ</w>": 767,
  "ㄱㅕㅇㅇㅡㄹ</w>": 768,
  "ㄱㅕㅇㅇㅣ</w>": 769,
  "ㄱㅕㅇㅊㅏㄹㅅㅓ": 770,
  "ㄱㅕㅇㅎㅛ": 771,
  "ㄱㅕㅇㅎㅛㄱㅏ</w>": 772,
  "ㄱㅕㅇㅎㅛㄴㅡㄴ</w>": 773,
  "ㄱㅕㅇㅎㅛㄹㅡㄹ</w>": 774,
  "ㄱㅕㅇㅎㅛㅇㅢ</w>": 775,
  "ㄱㅕㅇㅎㅢ": 776,
  "ㄱㅕㅇㅎㅢ</w>": 777,
  "ㄱㅕㅇㅎㅢㄴㅡㄴ</w>": 778,
  "ㄱㅕㅇㅎㅢㄹㅡㄹ</w>": 779,
  "ㄱㅕㅇㅎㅢㅇㅑ,</w>": 780,
  "ㄱㅕㅇㅎㅢㅇㅘ</w>": 781,
  "ㄱㅕㅇㅎㅢㅇㅢ</w>": 782,
  "ㄱㅕㅇㅜ</w>": 783,
  "ㄱㅕㅇㅜㄹ": 784,
  "ㄱㅕㅇㅜㄹㅇㅔ</w>": 785,
  "ㄱㅕㅌ": 786,
  "ㄱㅖ": 787,
  "ㄱㅖㄱㅏ</w>": 788,
  "ㄱㅖㄱㅛㄹㅡㄹ</w>": 789,
  "ㄱㅖㄹㅏㄴ": 790,
  "ㄱㅖㄹㅡㄹ</w>": 791,
  "ㄱㅖㅁㅗ": 792,
  "ㄱㅖㅁㅗㄴㅏ</w>": 793,
  "ㄱㅖㅅㅕㅅㅓ</w>": 794,
  "ㄱㅖㅅㅕㅆㅅㅡㅂㄴㅣㄷㅏ.</w>": 795,
  "ㄱㅖㅅㅗㄱ": 796,
  "ㄱㅖㅅㅗㄱㅎㅏㅇㅕ</w>": 797,
  "ㄱㅖㅅㅣ": 798,
  "ㄱㅖㅅㅣㄴ</w>": 799,
  "ㄱㅖㅅㅣㄹ</w>": 800,
  "ㄱㅖㅅㅣㅇㅓㅆㅅㅡㅂㄴㅣㄷㅏ.</w>": 801,
  "ㄱㅖㅅㅣㅈㅣ</w>": 802,
  "ㄱㅖㅈㅣㅂ": 803,
  "ㄱㅖㅈㅣㅂㅇㅐ": 804,
  "ㄱㅖㅈㅣㅂㅇㅐㄱㅏ</w>": 805,
  "ㄱㅖㅈㅣㅂㅇㅐㅇㅣㄴ</w>": 806,
  "ㄱㅗ": 807,
  "ㄱㅗ,</w>": 808,
  "ㄱㅗ---": 809,
  "ㄱㅗ.</w>": 810,
  "ㄱㅗ.”</w>": 811,
  "ㄱㅗ</w>": 812,
  "ㄱㅗㄱ": 813,
  "ㄱㅗㄱㅅㅣㄱㅇㅡㄴ</w>": 814,
  "ㄱㅗㄱㅐ": 815,
  "ㄱㅗㄱㅐㄷㅗ</w>": 816,
  "ㄱㅗㄱㅐㄹㅡㄹ</w>": 817,
  "ㄱㅗㄱㅜㄹ": 818,
  "ㄱㅗㄱㅜㄹㅕ": 819,
  "ㄱㅗㄱㅜㄹㅕ</w>": 820,
  "ㄱㅗㄱㅜㄹㅕㄹㅡㄹ</w>": 821,
  "ㄱㅗㄱㅜㄹㅕㅇㅢ</w>": 822,
  "ㄱㅗㄱㅣ": 823,
  "ㄱㅗㄴ": 824,
  "ㄱㅗㄴㄹㅏㄴ": 825,
  "ㄱㅗㄴㅡㄴ,</w>": 826,
  "ㄱㅗㄴㅡㄴ</w>": 827,
  "ㄱㅗㄷ": 828,
  "ㄱㅗㄷ</w>": 829,
  "ㄱㅗㄷㅇㅣ": 830,
  "ㄱㅗㄷㅗ</w>": 831,
  "ㄱㅗㄷㅡㅇㅂㅗㅌㅗㅇ": 832,
  "ㄱㅗㄷㅡㅇㅂㅗㅌㅗㅇㅎㅏㄱㄱㅛㅇㅔ</w>": 833,
  "ㄱㅗㄹ": 834,
  "ㄱㅗㄹ</w>": 835,
  "ㄱㅗㄹㄷㅔ": 836,
  "ㄱㅗㄹㄷㅔㄴ</w>": 837,
  "ㄱㅗㄹㄹㅏ</w>": 838,
  "ㄱㅗㄹㄹㅏㅅㅓ</w>": 839,
  "ㄱㅗㄹㄹㅕ": 840,
  "ㄱㅗㄹㅁㅗㄱㅇㅔ</w>": 841,
  "ㄱㅗㄹㅁㅗㄹ": 842,
  "ㄱㅗㄹㅉㅏ": 843,
  "ㄱㅗㄹㅉㅏㄱㅣ</w>": 844,
  "ㄱㅗㄹㅗ</w>": 845,
  "ㄱㅗㄹㅡㄹ</w>": 846,
  "ㄱㅗㅀ": 847,
  "ㄱㅗㅁㅅㅏㄹㄱㅜㅈㄱㅔ</w>": 848,
  "ㄱㅗㅁㅏ": 849,
  "ㄱㅗㅁㅏㄴ</w>": 850,
  "ㄱㅗㅁㅏㄹㄱㅗ": 851,
  "ㄱㅗㅁㅏㄹㄱㅗ.</w>": 852,
  "ㄱㅗㅁㅏㅂ": 853,
  "ㄱㅗㅁㅏㅂㄱㅔ</w>": 854,
  "ㄱㅗㅁㅏㅂㄷㅏ.</w>": 855,
  "ㄱㅗㅁㅏㅂㅅㅡㅂㄴㅣㄷㅏ.”</w>": 856,
  "ㄱㅗㅁㅏㅇㅜㄴ</w>": 857,
  "ㄱㅗㅁㅏㅇㅜㅁㄱㅘ</w>": 858,
  "ㄱㅗㅁㅜ": 859,
  "ㄱㅗㅂ": 860,
  "ㄱㅗㅂㄱㅔ</w>": 861,
  "ㄱㅗㅂㄱㅔㄱㅗㅂㄱㅔ</w>": 862,
  "ㄱㅗㅂㅂㅐㄱㅣ</w>": 863,
  "ㄱㅗㅅ": 864,
  "ㄱㅗㅅ</w>": 865,
  "ㄱㅗㅅㄱㅏㄴ</w>": 866,
  "ㄱㅗㅅㅇㅔ</w>": 867,
  "ㄱㅗㅅㅇㅔㄴㅡㄴ</w>": 868,
  "ㄱㅗㅅㅇㅔㅅㅓ</w>": 869,
  "ㄱㅗㅅㅇㅡㄴ</w>": 870,
  "ㄱㅗㅅㅇㅡㄹ</w>": 871,
  "ㄱㅗㅅㅇㅡㄹㅗ</w>": 872,
  "ㄱㅗㅅㅇㅣ</w>": 873,
  "ㄱㅗㅅㅇㅣㄹㅏ</w>": 874,
  "ㄱㅗㅅㅇㅣㅇㅓㅆㅅㅡㅂㄴㅣㄷㅏ.</w>": 875,
  "ㄱㅗㅅㅐㅇ": 876,
  "ㄱㅗㅅㅐㅇㅇㅡㄹ</w>": 877,
  "ㄱㅗㅅㅓ</w>": 878,
  "ㄱㅗㅇ": 879,
  "ㄱㅗㅇㄱㅣㄹㅡㄹ</w>": 880,
  "ㄱㅗㅇㅂㅜ": 881,
  "ㄱㅗㅇㅂㅜ</w>": 882,
  "ㄱㅗㅇㅂㅜㄹㅡㄹ</w>": 883,
  "ㄱㅗㅇㅂㅜㅎㅏ": 884,
  "ㄱㅗㅇㅂㅜㅎㅏㄱㅗ</w>": 885,
  "ㄱㅗㅇㅂㅜㅎㅏㄴㅡㄴ</w>": 886,
  "ㄱㅗㅇㅇㅕㄴㅎㅣ</w>": 887,
  "ㄱㅗㅇㅇㅡㄹ</w>": 888,
  "ㄱㅗㅇㅈㅏㅇ": 889,
  "ㄱㅗㅇㅈㅏㅇ</w>": 890,
  "ㄱㅗㅇㅈㅏㅇㄱㅘ</w>": 891,
  "ㄱㅗㅇㅈㅏㅇㅇㅡㄹ</w>": 892,
  "ㄱㅗㅇㅈㅏㅇㅇㅣ</w>": 893,
  "ㄱㅗㅇㅊㅐㄱ": 894,
  "ㄱㅗㅇㅕ</w>": 895,
  "ㄱㅗㅇㅛ": 896,
  "ㄱㅗㅇㅛㅎㅏㄴ</w>": 897,
  "ㄱㅗㅇㅛㅎㅐ": 898,
  "ㄱㅗㅇㅛㅎㅣ</w>": 899,
  "ㄱㅗㅇㅜ": 900,
  "ㄱㅗㅇㅜㄴ</w>": 901,
  "ㄱㅗㅇㅡㄹ": 902,
  "ㄱㅗㅇㅡㄹ</w>": 903,
  "ㄱㅗㅊㅕ": 904,
  "ㄱㅗㅊㅜ": 905,
  "ㄱㅗㅊㅜㅈㅏㅇ</w>": 906,
  "ㄱㅗㅊㅜㅈㅏㅇㅇㅡㄹ</w>": 907,
  "ㄱㅗㅊㅣㄱㅗ</w>": 908,
  "ㄱㅗㅊㅣㅈㅣ</w>": 909,
  "ㄱㅗㅌㅗㅇ": 910,
  "ㄱㅗㅎㅏㅇㅕ</w>": 911,
  "ㄱㅗㅎㅑㅇ": 912,
  "ㄱㅗㅎㅑㅇㅇㅡㄹ</w>": 913,
  "ㄱㅘ": 914,
  "ㄱㅘ</w>": 915,
  "ㄱㅘㄴ": 916,
  "ㄱㅘㄴ</w>": 917,
  "ㄱㅘㄴㄱㅖ": 918,
  "ㄱㅘㄴㄱㅖㄱㅏ</w>": 919,
  "ㄱㅘㄴㅡㄴ</w>": 920,
  "ㄱㅘㄷㅗ</w>": 921,
  "ㄱㅘㅂㅜ": 922,
  "ㄱㅘㅇ": 923,
  "ㄱㅘㅇ</w>": 924,
  "ㄱㅘㅇㄱㅕㅇㅇㅡㄹ</w>": 925,
  "ㄱㅘㅇㄱㅗ": 926,
  "ㄱㅘㅇㄱㅗㄹㅡㄹ</w>": 927,
  "ㄱㅘㅇㄷㅐ": 928,
  "ㄱㅘㅇㄷㅐ</w>": 929,
  "ㄱㅘㅇㄷㅐㄱㅏ</w>": 930,
  "ㄱㅘㅇㄷㅐㄴㅡㄴ</w>": 931,
  "ㄱㅘㅇㅊㅐ": 932,
  "ㄱㅘㅇㅕㄴ</w>": 933,
  "ㄱㅘㅈㅏ</w>": 934,
  "ㄱㅘㅈㅏㄱㅏ</w>": 935,
  "ㄱㅘㅈㅏㄹㅡㄹ</w>": 936,
  "ㄱㅙ": 937,
  "ㄱㅙㄴㅊㅏㄶ": 938,
  "ㄱㅙㅇ": 939,
  "ㄱㅙㅇㅇㅣ</w>": 940,
  "ㄱㅚ": 941,
  "ㄱㅚㄹㅗㅇ": 942,
  "ㄱㅚㄹㅗㅇㅜ": 943,
  "ㄱㅚㄹㅗㅇㅜㅁㅇㅡㄹ</w>": 944,
  "ㄱㅚㄹㅗㅇㅝ": 945,
  "ㄱㅚㄹㅗㅇㅝㅆㅅㅡㅂㄴㅣㄷㅏ.</w>": 946,
  "ㄱㅚㄹㅗㅇㅝㅎㅏㄴㅡㄴ</w>": 947,
  "ㄱㅚㅇㅈㅏㅇ": 948,
  "ㄱㅚㅇㅈㅏㅇㅎㅏㄴ</w>": 949,
  "ㄱㅚㅇㅈㅏㅇㅎㅣ</w>": 950,
  "ㄱㅛ": 951,
  "ㄱㅛ</w>": 952,
  "ㄱㅛㄹㅡㄹ</w>": 953,
  "ㄱㅛㅁㅜㄴㅇㅡㄹ</w>": 954,
  "ㄱㅛㅈㅏ": 955,
  "ㄱㅛㅈㅏㅇ</w>": 956,
  "ㄱㅛㅈㅓㅇ": 957,
  "ㄱㅜ": 958,
  "ㄱㅜ,</w>": 959,
  "ㄱㅜ.</w>": 960,
  "ㄱㅜ</w>": 961,
  "ㄱㅜㄱ": 962,
  "ㄱㅜㄱ</w>": 963,
  "ㄱㅜㄱㄱㅕㅇ": 964,
  "ㄱㅜㄱㅏ</w>": 965,
  "ㄱㅜㄱㅕㅇ": 966,
  "ㄱㅜㄱㅕㅇ</w>": 967,
  "ㄱㅜㄱㅕㅇㄷㅗ</w>": 968,
  "ㄱㅜㄱㅕㅇㅇㅡㄹ</w>": 969,
  "ㄱㅜㄴ": 970,
  "ㄱㅜㄴ</w>": 971,
  "ㄱㅜㄴㄷㅔ</w>": 972,
  "ㄱㅜㄴㅅㅏ": 973,
  "ㄱㅜㄴㅅㅏㄱㅏ</w>": 974,
  "ㄱㅜㄴㅅㅏㄴㅡㄴ</w>": 975,
  "ㄱㅜㄴㅅㅏㄹㅡㄹ</w>": 976,
  "ㄱㅜㄴㅅㅏㅇㅘ</w>": 977,
  "ㄱㅜㄴㅅㅏㅇㅢ</w>": 978,
  "ㄱㅜㄴㅊㅓㅇ": 979,
  "ㄱㅜㄴㅏ": 980,
  "ㄱㅜㄴㅏ!”</w>": 981,
  "ㄱㅜㄴㅏ,</w>": 982,
  "ㄱㅜㄴㅏ.\"</w>": 983,
  "ㄱㅜㄴㅏ.</w>": 984,
  "ㄱㅜㄴㅏ.”</w>": 985,
  "ㄱㅜㄴㅏ</w>": 986,
  "ㄱㅜㄴㅡㄴ</w>": 987,
  "ㄱㅜㄷ": 988,
  "ㄱㅜㄷㄱㅔ</w>": 989,
  "ㄱㅜㄷㅅㅔㄴ</w>": 990,
  "ㄱㅜㄷㅜ</w>": 991,
  "ㄱㅜㄷㅜㄹㅡㄹ</w>": 992,
  "ㄱㅜㄹ": 993,
  "ㄱㅜㄹ</w>": 994,
  "ㄱㅜㄹㄸㅜㄱ</w>": 995,
  "ㄱㅜㄹㄹㅓ</w>": 996,
  "ㄱㅜㄹㄹㅣㅁㅕㄴㅅㅓ</w>": 997,
  "ㄱㅜㄹㅇㅓ": 998,
  "ㄱㅜㄹㅇㅓ!’</w>": 999,
  "ㄱㅜㄹㅇㅓ</w>": 1000,
  "ㄱㅜㄹㅓㅇ": 1001,
  "ㄱㅜㄹㅡ": 1002,
  "ㄱㅜㄹㅡㄹ</w>": 1003,
  "ㄱㅜㄹㅡㅁ": 1004,
  "ㄱㅜㄹㅡㅁㅅㅓㄴㄴㅕㄱㅏ</w>": 1005,
  "ㄱㅜㄹㅡㅁㅇㅔ</w>": 1006,
  "ㄱㅜㄹㅡㅁㅇㅡㄹ</w>": 1007,
  "ㄱㅜㄹㅡㅁㅇㅣ</w>": 1008,
  "ㄱㅜㄺ": 1009,
  "ㄱㅜㄺㅇㅡㄴ</w>": 1010,
  "ㄱㅜㄻ": 1011,
  "ㄱㅜㅁㅓㄴ": 1012,
  "ㄱㅜㅁㅓㅇ": 1013,
  "ㄱㅜㅁㅓㅇㅇㅡㄹ</w>": 1014,
  "ㄱㅜㅁㅓㅇㅇㅡㄹㅗ</w>": 1015,
  "ㄱㅜㅂ": 1016,
  "ㄱㅜㅂㅇㅣㅊㅕ</w>": 1017,
  "ㄱㅜㅅㅂㅏㅇㅣ": 1018,
  "ㄱㅜㅅㅂㅏㅇㅣ.</w>": 1019,
  "ㄱㅜㅅㅓ": 1020,
  "ㄱㅜㅅㅓㄱ": 1021,
  "ㄱㅜㅅㅓㄱ</w>": 1022,
  "ㄱㅜㅅㅓㄱㅇㅔ</w>": 1023,
  "ㄱㅜㅅㅡㄹ": 1024,
  "ㄱㅜㅇ": 1025,
  "ㄱㅜㅇㄱㅡㅁ": 1026,
  "ㄱㅜㅇㄹㅣ": 1027,
  "ㄱㅜㅇㄹㅣㄹㅡㄹ</w>": 1028,
  "ㄱㅜㅇㅝ": 1029,
  "ㄱㅜㅈ": 1030,
  "ㄱㅜㅈㄱㅔ</w>": 1031,
  "ㄱㅜㅈㅇㅡㄴ": 1032,
  "ㄱㅜㅈㅇㅡㄴ</w>": 1033,
  "ㄱㅜㅈㅓㄹㅇㅡㄹ</w>": 1034,
  "ㄱㅜㅊㅏ": 1035,
  "ㄱㅜㅊㅏㅎㅏㄴ</w>": 1036,
  "ㄱㅜㅊㅏㅎㅐㅅㅓ</w>": 1037,
  "ㄱㅜㅎㅐ": 1038,
  "ㄱㅜㅎㅐ</w>": 1039,
  "ㄱㅝ": 1040,
  "ㄱㅝㄴ": 1041,
  "ㄱㅝㄴ</w>": 1042,
  "ㄱㅞㅉㅏㄱ": 1043,
  "ㄱㅞㅉㅏㄱ</w>": 1044,
  "ㄱㅞㅉㅏㄱㅇㅡㄹ</w>": 1045,
  "ㄱㅟ": 1046,
  "ㄱㅟ</w>": 1047,
  "ㄱㅟㄹㅡㄹ</w>": 1048,
  "ㄱㅟㅂㅗㄱ": 1049,
  "ㄱㅟㅂㅗㄱㅇㅣㄱㅏ</w>": 1050,
  "ㄱㅟㅂㅗㄱㅇㅣㄴㅡㄴ</w>": 1051,
  "ㄱㅟㅂㅗㄱㅇㅣㄹㅡㄹ</w>": 1052,
  "ㄱㅟㅂㅗㄱㅇㅣㅇㅔㄱㅔ</w>": 1053,
  "ㄱㅟㅅㅣㄴ": 1054,
  "ㄱㅟㅅㅣㄴ</w>": 1055,
  "ㄱㅟㅅㅣㄴㅇㅣ</w>": 1056,
  "ㄱㅟㅇㅐ": 1057,
  "ㄱㅟㅇㅔ</w>": 1058,
  "ㄱㅟㅇㅔㄷㅏ</w>": 1059,
  "ㄱㅟㅇㅕ": 1060,
  "ㄱㅟㅇㅕㅇㅜㄴ</w>": 1061,
  "ㄱㅟㅊㅏㄶ": 1062,
  "ㄱㅠ": 1063,
  "ㄱㅡ": 1064,
  "ㄱㅡ</w>": 1065,
  "ㄱㅡㄱ": 1066,
  "ㄱㅡㄱㅈㅣㄴㅎㅣ</w>": 1067,
  "ㄱㅡㄱㅓㄹ</w>": 1068,
  "ㄱㅡㄱㅓㄹㄹㅗ</w>": 1069,
  "ㄱㅡㄱㅓㅅ": 1070,
  "ㄱㅡㄱㅓㅅ</w>": 1071,
  "ㄱㅡㄱㅓㅅㄷㅗ</w>": 1072,
  "ㄱㅡㄱㅓㅅㄷㅡㄹㅇㅡㄴ</w>": 1073,
  "ㄱㅡㄱㅓㅅㅁㅏㄴ": 1074,
  "ㄱㅡㄱㅓㅅㅇㅡㄴ</w>": 1075,
  "ㄱㅡㄱㅓㅅㅇㅡㄹ</w>": 1076,
  "ㄱㅡㄱㅓㅅㅇㅣ</w>": 1077,
  "ㄱㅡㄱㅔ</w>": 1078,
  "ㄱㅡㄱㅗㅅ": 1079,
  "ㄱㅡㄱㅗㅅ</w>": 1080,
  "ㄱㅡㄱㅗㅅㅇㅔㄴㅡㄴ</w>": 1081,
  "ㄱㅡㄴ": 1082,
  "ㄱㅡㄴ</w>": 1083,
  "ㄱㅡㄴㅅㅣㅁ": 1084,
  "ㄱㅡㄴㅅㅣㅁㅇㅣ</w>": 1085,
  "ㄱㅡㄴㅊㅓ": 1086,
  "ㄱㅡㄴㅊㅓㄹㅡㄹ</w>": 1087,
  "ㄱㅡㄴㅊㅓㅇㅔㄴㅡㄴ</w>": 1088,
  "ㄱㅡㄴㅊㅓㅇㅢ</w>": 1089,
  "ㄱㅡㄴㅏㄹ</w>": 1090,
  "ㄱㅡㄴㅏㄹㄷㅗ</w>": 1091,
  "ㄱㅡㄴㅑㅇ</w>": 1092,
  "ㄱㅡㄴㅔ": 1093,
  "ㄱㅡㄴㅗㅁ": 1094,
  "ㄱㅡㄴㅗㅁㄷㅡㄹㅇㅡㄹ</w>": 1095,
  "ㄱㅡㄴㅡㄴ</w>": 1096,
  "ㄱㅡㄷㅏ": 1097,
  "ㄱㅡㄷㅐ": 1098,
  "ㄱㅡㄷㅐㄹㅗ</w>": 1099,
  "ㄱㅡㄷㅗㅇㅇㅏㄴ</w>": 1100,
  "ㄱㅡㄷㅡㄹ</w>": 1101,
  "ㄱㅡㄷㅡㄹㅇㅡㄴ</w>": 1102,
  "ㄱㅡㄷㅡㄹㅇㅢ</w>": 1103,
  "ㄱㅡㄸㅐ": 1104,
  "ㄱㅡㄸㅐ</w>": 1105,
  "ㄱㅡㄸㅐㄲㅏㅈㅣ</w>": 1106,
  "ㄱㅡㄸㅐㄴㅡㄴ</w>": 1107,
  "ㄱㅡㄸㅐㅁㅏㄷㅏ</w>": 1108,
  "ㄱㅡㄸㅐㅂㅜㅌㅓ</w>": 1109,
  "ㄱㅡㄸㅐㅇㅔ": 1110,
  "ㄱㅡㄸㅐㅇㅔ</w>": 1111,
  "ㄱㅡㄹ": 1112,
  "ㄱㅡㄹ</w>": 1113,
  "ㄱㅡㄹㅂㅏㅇ</w>": 1114,
  "ㄱㅡㄹㅂㅏㅇㅇㅔㅅㅓ</w>": 1115,
  "ㄱㅡㄹㅆ": 1116,
  "ㄱㅡㄹㅆㅓㅇㄱㅡㄹㅆㅓㅇ": 1117,
  "ㄱㅡㄹㅇㅡㄹ</w>": 1118,
  "ㄱㅡㄹㅏ": 1119,
  "ㄱㅡㄹㅐ": 1120,
  "ㄱㅡㄹㅐ,</w>": 1121,
  "ㄱㅡㄹㅐ.</w>": 1122,
  "ㄱㅡㄹㅐ.”</w>": 1123,
  "ㄱㅡㄹㅐ</w>": 1124,
  "ㄱㅡㄹㅐㄷㅗ</w>": 1125,
  "ㄱㅡㄹㅐㅅㅓ</w>": 1126,
  "ㄱㅡㄹㅐㅆㄴㅡㄴㅈㅣ</w>": 1127,
  "ㄱㅡㄹㅐㅆㄷㅓㄴㅣ</w>": 1128,
  "ㄱㅡㄹㅓ": 1129,
  "ㄱㅡㄹㅓ</w>": 1130,
  "ㄱㅡㄹㅓㄱㅔㅆㅅㅡㅂㄴㅣㄷㅏ.”</w>": 1131,
  "ㄱㅡㄹㅓㄱㅗ</w>": 1132,
  "ㄱㅡㄹㅓㄴ</w>": 1133,
  "ㄱㅡㄹㅓㄴㄷㅔ</w>": 1134,
  "ㄱㅡㄹㅓㄴㅈㅣ</w>": 1135,
  "ㄱㅡㄹㅓㄴㅏ</w>": 1136,
  "ㄱㅡㄹㅓㄴㅑ.</w>": 1137,
  "ㄱㅡㄹㅓㄴㅡㄴ</w>": 1138,
  "ㄱㅡㄹㅓㄴㅣ</w>": 1139,
  "ㄱㅡㄹㅓㄴㅣㄲㅏ</w>": 1140,
  "ㄱㅡㄹㅓㄴㅣㄲㅏㄴ</w>": 1141,
  "ㄱㅡㄹㅓㄹ</w>": 1142,
  "ㄱㅡㄹㅓㅁ": 1143,
  "ㄱㅡㄹㅓㅁ</w>": 1144,
  "ㄱㅡㄹㅓㅁㅕㄴ</w>": 1145,
  "ㄱㅡㄹㅓㅁㅕㄴㅅㅓㄷㅗ</w>": 1146,
  "ㄱㅡㄹㅓㅁㅡㄹㅗ</w>": 1147,
  "ㄱㅡㄹㅓㅅㅣ": 1148,
  "ㄱㅡㄹㅓㅇㅜ.</w>": 1149,
  "ㄱㅡㄹㅓㅈㅏ</w>": 1150,
  "ㄱㅡㄹㅓㅎ": 1151,
  "ㄱㅡㄹㅓㅎㄱㅔ</w>": 1152,
  "ㄱㅡㄹㅓㅎㄷㅏ.</w>": 1153,
  "ㄱㅡㄹㅓㅎㄷㅏㄱㅗ</w>": 1154,
  "ㄱㅡㄹㅓㅎㅅㅡㅂㄴㅣ": 1155,
  "ㄱㅡㄹㅓㅎㅅㅡㅂㄴㅣㄲㅏ.</w>": 1156,
  "ㄱㅡㄹㅓㅎㅈㅣ</w>": 1157,
  "ㄱㅡㄹㅓㅎㅈㅣㅁㅏㄴ</w>": 1158,
  "ㄱㅡㄹㅓㅎㅏㄴ</w>": 1159,
  "ㄱㅡㄹㅔ": 1160,
  "ㄱㅡㄹㅔ</w>": 1161,
  "ㄱㅡㄹㅕ": 1162,
  "ㄱㅡㄹㅕ.</w>": 1163,
  "ㄱㅡㄹㅕ.”</w>": 1164,
  "ㄱㅡㄹㅕ</w>": 1165,
  "ㄱㅡㄹㅕㅆㅅㅡㅂㄴㅣㄷㅏ.</w>": 1166,
  "ㄱㅡㄹㅗㅂㅜㅌㅓ</w>": 1167,
  "ㄱㅡㄹㅡ": 1168,
  "ㄱㅡㄹㅡㅅ</w>": 1169,
  "ㄱㅡㄹㅡㅅㅇㅡㄹ</w>": 1170,
  "ㄱㅡㄹㅣ": 1171,
  "ㄱㅡㄹㅣ</w>": 1172,
  "ㄱㅡㄹㅣㄱㅗ,</w>": 1173,
  "ㄱㅡㄹㅣㄱㅗ</w>": 1174,
  "ㄱㅡㄹㅣㄴ</w>": 1175,
  "ㄱㅡㄹㅣㅁ": 1176,
  "ㄱㅡㄹㅣㅁ</w>": 1177,
  "ㄱㅡㄹㅣㅁㄱㅏㅌㅇㅣ</w>": 1178,
  "ㄱㅡㄹㅣㅁㅇㅔ</w>": 1179,
  "ㄱㅡㄹㅣㅁㅇㅡㄴ</w>": 1180,
  "ㄱㅡㄹㅣㅁㅇㅡㄹ</w>": 1181,
  "ㄱㅡㄹㅣㅁㅇㅣ</w>": 1182,
  "ㄱㅡㄹㅣㅇㅝ": 1183,
  "ㄱㅡㄹㅣㅇㅝㅎㅏㄴㅡㄴ</w>": 1184,
  "ㄱㅡㄹㅣㅎㅏㅇㅕ</w>": 1185,
  "ㄱㅡㅁ": 1186,
  "ㄱㅡㅁ</w>": 1187,
  "ㄱㅡㅁㄱㅗ": 1188,
  "ㄱㅡㅁㄱㅗ</w>": 1189,
  "ㄱㅡㅁㄱㅗㅎㅕㅇ</w>": 1190,
  "ㄱㅡㅁㄷㅓㅇ": 1191,
  "ㄱㅡㅁㄷㅓㅇㅇㅓㄹㅣ": 1192,
  "ㄱㅡㅁㄷㅓㅇㅇㅓㄹㅣ</w>": 1193,
  "ㄱㅡㅁㄷㅓㅇㅇㅓㄹㅣㄹㅡㄹ</w>": 1194,
  "ㄱㅡㅁㄷㅓㅇㅇㅣ</w>": 1195,
  "ㄱㅡㅁㄷㅓㅇㅇㅣㄹㅡㄹ</w>": 1196,
  "ㄱㅡㅁㅂㅏㄴㅈㅣ</w>": 1197,
  "ㄱㅡㅁㅂㅏㅇ</w>": 1198,
  "ㄱㅡㅁㅂㅜㅇ": 1199,
  "ㄱㅡㅁㅂㅜㅇㅇㅓ": 1200,
  "ㄱㅡㅁㅅㅣㄱㅖ": 1201,
  "ㄱㅡㅁㅇㅠㅇㅈㅗ": 1202,
  "ㄱㅡㅁㅇㅠㅇㅈㅗㅎㅏㅂ": 1203,
  "ㄱㅡㅁㅇㅣ</w>": 1204,
  "ㄱㅡㅁㅏㄴ": 1205,
  "ㄱㅡㅁㅏㄴ</w>": 1206,
  "ㄱㅡㅁㅏㄴㄷㅜ": 1207,
  "ㄱㅡㅁㅏㄴㅋㅡㅁ</w>": 1208,
  "ㄱㅡㅁㅏㄴㅎㅏㄴ</w>": 1209,
  "ㄱㅡㅁㅏㅎㅏㄴ</w>": 1210,
  "ㄱㅡㅁㅓㄴㅣ</w>": 1211,
  "ㄱㅡㅁㅡㅁ": 1212,
  "ㄱㅡㅂ": 1213,
  "ㄱㅡㅂ</w>": 1214,
  "ㄱㅡㅂㅇㅡㄹ</w>": 1215,
  "ㄱㅡㅂㅈㅏㅇ": 1216,
  "ㄱㅡㅂㅎㅏㄱㅗ</w>": 1217,
  "ㄱㅡㅂㅎㅏㄴ</w>": 1218,
  "ㄱㅡㅂㅎㅣ</w>": 1219,
  "ㄱㅡㅂㅗㄷㅏㄷㅗ</w>": 1220,
  "ㄱㅡㅅ": 1221,
  "ㄱㅡㅅ</w>": 1222,
  "ㄱㅡㅅㅎㅏㄴ</w>": 1223,
  "ㄱㅡㅇㅑㅁㅏㄹㄹㅗ</w>": 1224,
  "ㄱㅡㅇㅡㄱㅎㅏㄴ</w>": 1225,
  "ㄱㅡㅇㅡㄹ": 1226,
  "ㄱㅡㅇㅢ</w>": 1227,
  "ㄱㅡㅈㅓ</w>": 1228,
  "ㄱㅡㅈㅔ": 1229,
  "ㄱㅡㅈㅔㅇㅑ</w>": 1230,
  "ㄱㅡㅈㅜㅇ</w>": 1231,
  "ㄱㅡㅈㅜㅇㅇㅔㄷㅗ</w>": 1232,
  "ㄱㅡㅊㅣ": 1233,
  "ㄱㅡㅊㅣㄱㅗ</w>": 1234,
  "ㄱㅡㅊㅣㅈㅣ</w>": 1235,
  "ㄱㅣ": 1236,
  "ㄱㅣ</w>": 1237,
  "ㄱㅣㄱㅏ</w>": 1238,
  "ㄱㅣㄱㅗ</w>": 1239,
  "ㄱㅣㄲㅏㅈㅣ</w>": 1240,
  "ㄱㅣㄴ": 1241,
  "ㄱㅣㄴ</w>": 1242,
  "ㄱㅣㄴㄱㅏㅁㅣㄴ": 1243,
  "ㄱㅣㄴㅏㄱㅣㄴ</w>": 1244,
  "ㄱㅣㄴㅡㄴ</w>": 1245,
  "ㄱㅣㄷㅏ": 1246,
  "ㄱㅣㄷㅏㄹㅕ": 1247,
  "ㄱㅣㄷㅏㄹㅕ</w>": 1248,
  "ㄱㅣㄷㅏㄹㅕㅆ": 1249,
  "ㄱㅣㄷㅏㄹㅕㅆㄷㅏ.</w>": 1250,
  "ㄱㅣㄷㅏㄹㅣ": 1251,
  "ㄱㅣㄷㅏㄹㅣㄱㅗ</w>": 1252,
  "ㄱㅣㄷㅏㄹㅣㄷㅓㄴ</w>": 1253,
  "ㄱㅣㄷㅏㄹㅣㅁㅕㄴㅅㅓㄷㅗ</w>": 1254,
  "ㄱㅣㄷㅏㄹㅣㅅㅣㄹ</w>": 1255,
  "ㄱㅣㄷㅗ</w>": 1256,
  "ㄱㅣㄹ": 1257,
  "ㄱㅣㄹ</w>": 1258,
  "ㄱㅣㄹㄱㅏ</w>": 1259,
  "ㄱㅣㄹㄱㅓㄹㅣ": 1260,
  "ㄱㅣㄹㄱㅓㄹㅣㄹㅗ</w>": 1261,
  "ㄱㅣㄹㄱㅔ</w>": 1262,
  "ㄱㅣㄹㄱㅣㄹㅇㅣ</w>": 1263,
  "ㄱㅣㄹㄷㅗ</w>": 1264,
  "ㄱㅣㄹㄹㅓ": 1265,
  "ㄱㅣㄹㄹㅓㅈㅜㄴ</w>": 1266,
  "ㄱㅣㄹㄹㅗ</w>": 1267,
  "ㄱㅣㄹㅇㅔ</w>": 1268,
  "ㄱㅣㄹㅇㅔㅅㅓ</w>": 1269,
  "ㄱㅣㄹㅇㅡㄹ</w>": 1270,
  "ㄱㅣㄹㅇㅣ</w>": 1271,
  "ㄱㅣㄹㅇㅣㄴㅏ</w>": 1272,
  "ㄱㅣㄹㅇㅣㄴㅡㄴ</w>": 1273,
  "ㄱㅣㄹㅗ</w>": 1274,
  "ㄱㅣㄹㅡㄴ</w>": 1275,
  "ㄱㅣㄹㅡㄹ</w>": 1276,
  "ㄱㅣㄹㅡㅁ": 1277,
  "ㄱㅣㄹㅡㅁ</w>": 1278,
  "ㄱㅣㅁ": 1279,
  "ㄱㅣㅁ</w>": 1280,
  "ㄱㅣㅁㅇㅔ</w>": 1281,
  "ㄱㅣㅁㅊㅓ": 1282,
  "ㄱㅣㅁㅊㅓㅁ": 1283,
  "ㄱㅣㅁㅊㅓㅁㅈㅣ": 1284,
  "ㄱㅣㅁㅊㅓㅁㅈㅣ</w>": 1285,
  "ㄱㅣㅁㅊㅓㅁㅈㅣㄱㅏ</w>": 1286,
  "ㄱㅣㅁㅊㅓㅁㅈㅣㄴㅡㄴ</w>": 1287,
  "ㄱㅣㅁㅊㅓㅁㅈㅣㄹㅡㄹ</w>": 1288,
  "ㄱㅣㅁㅊㅓㅁㅈㅣㅇㅢ</w>": 1289,
  "ㄱㅣㅁㅏㄴ</w>": 1290,
  "ㄱㅣㅁㅕㄴㅅㅓ</w>": 1291,
  "ㄱㅣㅃ": 1292,
  "ㄱㅣㅃㅓ": 1293,
  "ㄱㅣㅃㅓㅅㅓ</w>": 1294,
  "ㄱㅣㅃㅓㅆ": 1295,
  "ㄱㅣㅃㅓㅎㅏㄴㅡㄴ</w>": 1296,
  "ㄱㅣㅃㅓㅎㅏㅁㅕ</w>": 1297,
  "ㄱㅣㅃㅓㅎㅏㅇㅕㅆㅅㅡㅂㄴㅣㄷㅏ.</w>": 1298,
  "ㄱㅣㅃㅡ": 1299,
  "ㄱㅣㅃㅡㄴ</w>": 1300,
  "ㄱㅣㅃㅡㄷㅓㄴㅈㅣ</w>": 1301,
  "ㄱㅣㅃㅡㅁ": 1302,
  "ㄱㅣㅃㅡㅁㄱㅘ</w>": 1303,
  "ㄱㅣㅃㅡㅁㅇㅔ</w>": 1304,
  "ㄱㅣㅃㅡㅁㅇㅡㄹ</w>": 1305,
  "ㄱㅣㅃㅡㅁㅇㅡㄹㅗ</w>": 1306,
  "ㄱㅣㅃㅡㅁㅇㅣ</w>": 1307,
  "ㄱㅣㅅㅐ": 1308,
  "ㄱㅣㅅㅐㄱㅇㅣ</w>": 1309,
  "ㄱㅣㅅㅜㄱ": 1310,
  "ㄱㅣㅇㅓ": 1311,
  "ㄱㅣㅇㅓ</w>": 1312,
  "ㄱㅣㅇㅓㄱ": 1313,
  "ㄱㅣㅇㅓㄱㅎㅏㄱㅗ</w>": 1314,
  "ㄱㅣㅇㅓㅅㅓ</w>": 1315,
  "ㄱㅣㅇㅓㅆㅅㅡㅂㄴㅣㄷㅏ.</w>": 1316,
  "ㄱㅣㅇㅓㅇㅣ</w>": 1317,
  "ㄱㅣㅇㅔ</w>": 1318,
  "ㄱㅣㅇㅔㄴㅡㄴ</w>": 1319,
  "ㄱㅣㅇㅔㄷㅗ</w>": 1320,
  "ㄱㅣㅇㅘ": 1321,
  "ㄱㅣㅇㅘ</w>": 1322,
  "ㄱㅣㅇㅜㄴ": 1323,
  "ㄱㅣㅇㅜㄴㅇㅡㄹ</w>": 1324,
  "ㄱㅣㅇㅜㄴㅇㅣ</w>": 1325,
  "ㄱㅣㅇㅜㄹ": 1326,
  "ㄱㅣㅈㅓㄱ": 1327,
  "ㄱㅣㅈㅓㄱ</w>": 1328,
  "ㄱㅣㅈㅓㄱㅇㅡㄹ</w>": 1329,
  "ㄱㅣㅈㅓㄹㅇㅡㄹ</w>": 1330,
  "ㄱㅣㅈㅣ</w>": 1331,
  "ㄱㅣㅊㅏ": 1332,
  "ㄱㅣㅊㅏ</w>": 1333,
  "ㄱㅣㅊㅏㄱㅏ</w>": 1334,
  "ㄱㅣㅊㅏㄴㅡㄴ</w>": 1335,
  "ㄱㅣㅊㅏㄹㅡㄹ</w>": 1336,
  "ㄱㅣㅊㅓ": 1337,
  "ㄱㅣㅊㅓㄱㅇㅣ</w>": 1338,
  "ㄱㅣㅌㅡ": 1339,
  "ㄱㅣㅌㅡㄱㅎㅏㄷㅏ.</w>": 1340,
  "ㄱㅣㅍ": 1341,
  "ㄱㅣㅍㅇㅡㄴ</w>": 1342,
  "ㄱㅣㅍㅇㅣ</w>": 1343,
  "ㄱㅣㅎㅚ": 1344,
  "ㄱㅣㅎㅚㄹㅡㄹ</w>": 1345,
  "ㄲ": 1346,
  "ㄲㄴㅡㄴ</w>": 1347,
  "ㄲㅏ": 1348,
  "ㄲㅏ.</w>": 1349,
  "ㄲㅏ.’</w>": 1350,
  "ㄲㅏ.”</w>": 1351,
  "ㄲㅏ</w>": 1352,
  "ㄲㅏ?</w>": 1353,
  "ㄲㅏ?”</w>": 1354,
  "ㄲㅏ”</w>": 1355,
  "ㄲㅏㄱ": 1356,
  "ㄲㅏㄱ!</w>": 1357,
  "ㄲㅏㄴ</w>": 1358,
  "ㄲㅏㄴㅡㄴ</w>": 1359,
  "ㄲㅏㄷㅏㄺ": 1360,
  "ㄲㅏㄷㅏㄺ</w>": 1361,
  "ㄲㅏㄷㅏㄺㅇㅔ</w>": 1362,
  "ㄲㅏㄷㅏㄺㅇㅡㄴ</w>": 1363,
  "ㄲㅏㄷㅏㄺㅇㅡㄹ</w>": 1364,
  "ㄲㅏㄷㅏㄺㅇㅡㄹㅗ</w>": 1365,
  "ㄲㅏㄷㅏㄺㅇㅣ": 1366,
  "ㄲㅏㄷㅏㄺㅇㅣ</w>": 1367,
  "ㄲㅏㄷㅏㄺㅇㅣㄴㅈㅣ</w>": 1368,
  "ㄲㅏㄷㅏㄺㅇㅣㄷㅏ.</w>": 1369,
  "ㄲㅏㄷㅏㄺㅇㅣㅂㄴㅣㄷㅏ.</w>": 1370,
  "ㄲㅏㄷㅏㄺㅇㅣㅇㅓㅆㅅㅡㅂㄴㅣㄷㅏ.</w>": 1371,
  "ㄲㅏㄹ": 1372,
  "ㄲㅏㄹㄲㅏㄹ": 1373,
  "ㄲㅏㄹㄲㅏㄹ</w>": 1374,
  "ㄲㅏㅁ": 1375,
  "ㄲㅏㅁㅂㅏㄱ": 1376,
  "ㄲㅏㅁㅂㅏㄱ</w>": 1377,
  "ㄲㅏㅁㅉㅏㄱ</w>": 1378,
  "ㄲㅏㅁㅏ": 1379,
  "ㄲㅏㅁㅏㅎㄱㅔ</w>": 1380,
  "ㄲㅏㅁㅜㄹㅓ": 1381,
  "ㄲㅏㅁㅜㄹㅓㅊㅣㄹ</w>": 1382,
  "ㄲㅏㅈㅣ</w>": 1383,
  "ㄲㅏㅈㅣㄴㅡㄴ</w>": 1384,
  "ㄲㅏㅈㅣㄷㅗ</w>": 1385,
  "ㄲㅏㅈㅣㅅ</w>": 1386,
  "ㄲㅏㅊㅣㅅ": 1387,
  "ㄲㅐ": 1388,
  "ㄲㅐ</w>": 1389,
  "ㄲㅐㄲㅡㅅㅇㅣ</w>": 1390,
  "ㄲㅐㄲㅡㅅㅎㅏㄴ</w>": 1391,
  "ㄲㅐㄷㅏㄹ": 1392,
  "ㄲㅐㄷㅏㄹㅇㅏㅆㄷㅏ.</w>": 1393,
  "ㄲㅐㅇ": 1394,
  "ㄲㅐㅇㅓ": 1395,
  "ㄲㅐㅇㅓㄴㅏㄴ</w>": 1396,
  "ㄲㅐㅇㅓㅆㅇㅡㄹ</w>": 1397,
  "ㄲㅐㅌㅡㄹ": 1398,
  "ㄲㅓ": 1399,
  "ㄲㅓㄱ": 1400,
  "ㄲㅓㄲ": 1401,
  "ㄲㅓㄲㅇㅓ</w>": 1402,
  "ㄲㅓㄴㅐ": 1403,
  "ㄲㅓㄴㅐ</w>": 1404,
  "ㄲㅓㄴㅐㄷㅏㄱㅏ</w>": 1405,
  "ㄲㅓㄴㅐㅅㅓ</w>": 1406,
  "ㄲㅓㄴㅐㅇㅓ</w>": 1407,
  "ㄲㅓㄹ": 1408,
  "ㄲㅓㄹ</w>": 1409,
  "ㄲㅓㄹㄲㅓㄹ</w>": 1410,
  "ㄲㅓㅂㄷㅔ": 1411,
  "ㄲㅓㅂㅈㅣㄹㄹㅗ</w>": 1412,
  "ㄲㅓㅅ</w>": 1413,
  "ㄲㅔ": 1414,
  "ㄲㅔ</w>": 1415,
  "ㄲㅔㄴㅡㄴ</w>": 1416,
  "ㄲㅔㄷㅗ</w>": 1417,
  "ㄲㅔㄹㅗ</w>": 1418,
  "ㄲㅔㄹㅡㄹ</w>": 1419,
  "ㄲㅔㅅㅓ": 1420,
  "ㄲㅔㅅㅓ</w>": 1421,
  "ㄲㅔㅅㅓㄴㅡㄴ</w>": 1422,
  "ㄲㅔㅅㅓㄷㅗ</w>": 1423,
  "ㄲㅕ": 1424,
  "ㄲㅕㅇㅏㄴㄱㅗ</w>": 1425,
  "ㄲㅗ": 1426,
  "ㄲㅗㄱ": 1427,
  "ㄲㅗㄱ</w>": 1428,
  "ㄲㅗㄱㄷㅐㄱㅣㄹㅗ</w>": 1429,
  "ㄲㅗㄹ": 1430,
  "ㄲㅗㄹㅇㅡㄹ</w>": 1431,
  "ㄲㅗㄹㅇㅣ</w>": 1432,
  "ㄲㅗㄹㅣㄹㅡㄹ</w>": 1433,
  "ㄲㅗㅁㅉㅏㄱ": 1434,
  "ㄲㅗㅁㅉㅏㄱ</w>": 1435,
  "ㄲㅗㅂ": 1436,
  "ㄲㅗㅇ": 1437,
  "ㄲㅗㅈ": 1438,
  "ㄲㅗㅊ": 1439,
  "ㄲㅗㅊ,</w>": 1440,
  "ㄲㅗㅊ</w>": 1441,
  "ㄲㅗㅊㄷㅡㄹㅇㅣ</w>": 1442,
  "ㄲㅗㅊㅇㅡㄴ</w>": 1443,
  "ㄲㅗㅊㅇㅡㄹ</w>": 1444,
  "ㄲㅗㅊㅇㅡㄹㅗ</w>": 1445,
  "ㄲㅗㅊㅇㅣ</w>": 1446,
  "ㄲㅗㅊㅍㅣㄴㅡㄴ</w>": 1447,
  "ㄲㅘㄱ</w>": 1448,
  "ㄲㅙ</w>": 1449,
  "ㄲㅙㄱ</w>": 1450,
  "ㄲㅚ": 1451,
  "ㄲㅚㄲㅗㄹㅣ</w>": 1452,
  "ㄲㅚㅅㅚ": 1453,
  "ㄲㅚㅅㅚㄱㅏ</w>": 1454,
  "ㄲㅚㅅㅚㄴㅡㄴ</w>": 1455,
  "ㄲㅚㅅㅚㅇㅑ!</w>": 1456,
  "ㄲㅚㅈㅚㅈㅚ</w>": 1457,
  "ㄲㅜ": 1458,
  "ㄲㅜ</w>": 1459,
  "ㄲㅜㄱ</w>": 1460,
  "ㄲㅜㄴ": 1461,
  "ㄲㅜㄴ</w>": 1462,
  "ㄲㅜㄴㅇㅢ</w>": 1463,
  "ㄲㅜㄴㅇㅣ</w>": 1464,
  "ㄲㅜㄴㅡㄴ</w>": 1465,
  "ㄲㅜㄹ": 1466,
  "ㄲㅜㄹㄲㅓㄱㄲㅜㄹㄲㅓㄱ</w>": 1467,
  "ㄲㅜㄹㅗ</w>": 1468,
  "ㄲㅜㅀ": 1469,
  "ㄲㅜㅁ": 1470,
  "ㄲㅜㅁㅅㅗㄱㅇㅔㅅㅓ</w>": 1471,
  "ㄲㅜㅁㅇㅔㄷㅗ</w>": 1472,
  "ㄲㅜㅁㅇㅡㄹ</w>": 1473,
  "ㄲㅜㅁㅕ": 1474,
  "ㄲㅜㅁㅣ": 1475,
  "ㄲㅜㅂㅜㄹ</w>": 1476,
  "ㄲㅜㅇㅓㅆ": 1477,
  "ㄲㅜㅈㅣㄹㅏ": 1478,
  "ㄲㅜㅈㅣㄹㅏㅁㅇㅡㄹ</w>": 1479,
  "ㄲㅜㅈㅣㅈ": 1480,
  "ㄲㅝ": 1481,
  "ㄲㅡ": 1482,
  "ㄲㅡㄴ": 1483,
  "ㄲㅡㄴ</w>": 1484,
  "ㄲㅡㄴㅡㄴ</w>": 1485,
  "ㄲㅡㄶ": 1486,
  "ㄲㅡㄶㅇㅓㅈㅣ": 1487,
  "ㄲㅡㄷㅓㄱ": 1488,
  "ㄲㅡㄷㅓㄱㄲㅡㄷㅓㄱ</w>": 1489,
  "ㄲㅡㄹ": 1490,
  "ㄲㅡㄹㄱㅗ,</w>": 1491,
  "ㄲㅡㄹㄱㅗ</w>": 1492,
  "ㄲㅡㄹㅁㅕㄴㅅㅓ</w>": 1493,
  "ㄲㅡㅀ": 1494,
  "ㄲㅡㅀㄴㅡㄴ</w>": 1495,
  "ㄲㅡㅀㅇㅣㄴㅡㄴ</w>": 1496,
  "ㄲㅡㅁ": 1497,
  "ㄲㅡㅁ</w>": 1498,
  "ㄲㅡㅌ": 1499,
  "ㄲㅡㅌ</w>": 1500,
  "ㄲㅡㅌㄲㅏㅈㅣ</w>": 1501,
  "ㄲㅡㅌㄴㅏ": 1502,
  "ㄲㅡㅌㄴㅏㅈㅏ</w>": 1503,
  "ㄲㅡㅌㄴㅐ</w>": 1504,
  "ㄲㅡㅌㅁㅏㄴㅎㅏㄴ</w>": 1505,
  "ㄲㅡㅌㅇㅓㅄㅇㅣ</w>": 1506,
  "ㄲㅡㅌㅇㅔ</w>": 1507,
  "ㄲㅡㅌㅇㅣ</w>": 1508,
  "ㄲㅣ": 1509,
  "ㄲㅣ</w>": 1510,
  "ㄲㅣㄱㅗ</w>": 1511,
  "ㄲㅣㄴㅣ": 1512,
  "ㄲㅣㄴㅣㄱㅏ</w>": 1513,
  "ㄲㅣㄷㅗ</w>": 1514,
  "ㄲㅣㄹ": 1515,
  "ㄲㅣㄹ</w>": 1516,
  "ㄲㅣㄹㅡㄹ</w>": 1517,
  "ㄲㅣㅇㅓ</w>": 1518,
  "ㄲㅣㅇㅣㄱ!</w>": 1519,
  "ㄲㅣㅊㅕ": 1520,
  "ㄲㅣㅊㅕㄷㅡㄹㅣ": 1521,
  "ㄳ": 1522,
  "ㄴ": 1523,
  "ㄴ.”</w>": 1524,
  "ㄴ</w>": 1525,
  "ㄴㄱㅏ": 1526,
  "ㄴㄱㅏ.</w>": 1527,
  "ㄴㄱㅏ</w>": 1528,
  "ㄴㄷㅏ.</w>": 1529,
  "ㄴㄷㅔ</w>": 1530,
  "ㄴㅇㅣ</w>": 1531,
  "ㄴㅈㅣ</w>": 1532,
  "ㄴㅎㅣ</w>": 1533,
  "ㄴㅏ": 1534,
  "ㄴㅏ!</w>": 1535,
  "ㄴㅏ,</w>": 1536,
  "ㄴㅏ.</w>": 1537,
  "ㄴㅏ.”</w>": 1538,
  "ㄴㅏ</w>": 1539,
  "ㄴㅏ?</w>": 1540,
  "ㄴㅏ’</w>": 1541,
  "ㄴㅏㄱ": 1542,
  "ㄴㅏㄱㄷㅗㅇㄱㅏㅇ": 1543,
  "ㄴㅏㄱㄷㅗㅇㄱㅏㅇ</w>": 1544,
  "ㄴㅏㄱㄷㅗㅇㄱㅏㅇㅇㅢ</w>": 1545,
  "ㄴㅏㄱㅅㅣㅁ": 1546,
  "ㄴㅏㄱㅏ": 1547,
  "ㄴㅏㄱㅏ</w>": 1548,
  "ㄴㅏㄱㅏㄱㅔㅆㄷㅏ.</w>": 1549,
  "ㄴㅏㄱㅏㄱㅗ</w>": 1550,
  "ㄴㅏㄱㅏㄴ</w>": 1551,
  "ㄴㅏㄱㅏㄴㅡㄴ</w>": 1552,
  "ㄴㅏㄱㅏㄹ</w>": 1553,
  "ㄴㅏㄱㅏㅅㅓ</w>": 1554,
  "ㄴㅏㄱㅏㅅㅕㅆ": 1555,
  "ㄴㅏㄱㅏㅅㅣ": 1556,
  "ㄴㅏㄱㅏㅆㄴㅡㄴㄷㅔ</w>": 1557,
  "ㄴㅏㄱㅏㅆㄴㅡㄴㅈㅣ</w>": 1558,
  "ㄴㅏㄱㅏㅆㄷㅏㄱㅏ</w>": 1559,
  "ㄴㅏㄱㅏㅆㄷㅓㄴ</w>": 1560,
  "ㄴㅏㄱㅏㅆㅅㅡㅂㄴㅣㄷㅏ.</w>": 1561,
  "ㄴㅏㄱㅏㅈㅣ</w>": 1562,
  "ㄴㅏㄱㅏㅌㅇㅣ</w>": 1563,
  "ㄴㅏㄱㅔ</w>": 1564,
  "ㄴㅏㄱㅗ</w>": 1565,
  "ㄴㅏㄱㅣ</w>": 1566,
  "ㄴㅏㄴ": 1567,
  "ㄴㅏㄴ</w>": 1568,
  "ㄴㅏㄴㄷㅏ.</w>": 1569,
  "ㄴㅏㄴㄹㅗ</w>": 1570,
  "ㄴㅏㄴㅏㄹㅇㅣ</w>": 1571,
  "ㄴㅏㄴㅡㄴ</w>": 1572,
  "ㄴㅏㄴㅣ</w>": 1573,
  "ㄴㅏㄷㅓㄴㅣ</w>": 1574,
  "ㄴㅏㄷㅗ</w>": 1575,
  "ㄴㅏㄷㅗㄹㅗㄱ</w>": 1576,
  "ㄴㅏㄷㅜ</w>": 1577,
  "ㄴㅏㄷㅜㅇㄱㅡㄹㅓ": 1578,
  "ㄴㅏㄹ": 1579,
  "ㄴㅏㄹ,</w>": 1580,
  "ㄴㅏㄹ</w>": 1581,
  "ㄴㅏㄹㄱㅘ</w>": 1582,
  "ㄴㅏㄹㄷㅗ</w>": 1583,
  "ㄴㅏㄹㄹㅣㄴㅡㄴ</w>": 1584,
  "ㄴㅏㄹㅁㅏㄷㅏ</w>": 1585,
  "ㄴㅏㄹㅂㅜㅌㅓ</w>": 1586,
  "ㄴㅏㄹㅆㅐ": 1587,
  "ㄴㅏㄹㅇㅏ": 1588,
  "ㄴㅏㄹㅇㅡㄴ</w>": 1589,
  "ㄴㅏㄹㅇㅡㄹ</w>": 1590,
  "ㄴㅏㄹㅇㅣ</w>": 1591,
  "ㄴㅏㄹㅇㅣㄴㅏ</w>": 1592,
  "ㄴㅏㄹㅇㅣㅁㅕㄴ</w>": 1593,
  "ㄴㅏㄹㅇㅣㅇㅓㅆㄷㅏ.</w>": 1594,
  "ㄴㅏㄹㅇㅣㅇㅓㅆㅅㅡㅂㄴㅣㄷㅏ.</w>": 1595,
  "ㄴㅏㄹㅈㅏ.</w>": 1596,
  "ㄴㅏㄹㅉㅏ": 1597,
  "ㄴㅏㄹㅏ": 1598,
  "ㄴㅏㄹㅏ</w>": 1599,
  "ㄴㅏㄹㅏㄴㅎㅣ</w>": 1600,
  "ㄴㅏㄹㅏㄴㅡㄴ</w>": 1601,
  "ㄴㅏㄹㅏㄹㅗ</w>": 1602,
  "ㄴㅏㄹㅏㄹㅡㄹ</w>": 1603,
  "ㄴㅏㄹㅏㅇㅔ</w>": 1604,
  "ㄴㅏㄹㅏㅇㅢ</w>": 1605,
  "ㄴㅏㄹㅡㄹ</w>": 1606,
  "ㄴㅏㅁ": 1607,
  "ㄴㅏㅁ</w>": 1608,
  "ㄴㅏㅁㄱㅕ": 1609,
  "ㄴㅏㅁㄱㅗ</w>": 1610,
  "ㄴㅏㅁㄱㅣㄱㅗ</w>": 1611,
  "ㄴㅏㅁㄴㅡㄴ</w>": 1612,
  "ㄴㅏㅁㄷㅐㅁㅜㄴ</w>": 1613,
  "ㄴㅏㅁㅁㅐ": 1614,
  "ㄴㅏㅁㅁㅐㄴㅡㄴ</w>": 1615,
  "ㄴㅏㅁㅁㅐㄹㅡㄹ</w>": 1616,
  "ㄴㅏㅁㅇㅏ</w>": 1617,
  "ㄴㅏㅁㅇㅔㄱㅔ</w>": 1618,
  "ㄴㅏㅁㅇㅡㄴ</w>": 1619,
  "ㄴㅏㅁㅇㅡㄹ</w>": 1620,
  "ㄴㅏㅁㅇㅢ</w>": 1621,
  "ㄴㅏㅁㅇㅣ</w>": 1622,
  "ㄴㅏㅁㅇㅣㄴㅡㄴ</w>": 1623,
  "ㄴㅏㅁㅈㅏ": 1624,
  "ㄴㅏㅁㅈㅏㄱㅏ</w>": 1625,
  "ㄴㅏㅁㅈㅏㄴㅡㄴ</w>": 1626,
  "ㄴㅏㅁㅈㅏㅇㅢ</w>": 1627,
  "ㄴㅏㅁㅈㅣ</w>": 1628,
  "ㄴㅏㅁㅉㅗㄱ": 1629,
  "ㄴㅏㅁㅉㅗㄱ</w>": 1630,
  "ㄴㅏㅁㅍㅕㄴㅇㅣ</w>": 1631,
  "ㄴㅏㅁㅏㄴ</w>": 1632,
  "ㄴㅏㅁㅕㄴ</w>": 1633,
  "ㄴㅏㅁㅕㄴㅅㅓ</w>": 1634,
  "ㄴㅏㅁㅜ": 1635,
  "ㄴㅏㅁㅜ</w>": 1636,
  "ㄴㅏㅁㅜㄹ": 1637,
  "ㄴㅏㅁㅜㄹㅏ": 1638,
  "ㄴㅏㅁㅜㄹㅏㄱㅗ</w>": 1639,
  "ㄴㅏㅁㅜㄹㅏㄷㅡㄴㅈㅣ</w>": 1640,
  "ㄴㅏㅁㅜㄹㅡㄹ</w>": 1641,
  "ㄴㅏㅁㅜㅅ": 1642,
  "ㄴㅏㅂㅗㄷㅏ": 1643,
  "ㄴㅏㅂㅗㄷㅏ.</w>": 1644,
  "ㄴㅏㅂㅗㄷㅏ</w>": 1645,
  "ㄴㅏㅂㅣ": 1646,
  "ㄴㅏㅃㅡㄴ</w>": 1647,
  "ㄴㅏㅅ": 1648,
  "ㄴㅏㅅㅈㅣ</w>": 1649,
  "ㄴㅏㅅㅓ": 1650,
  "ㄴㅏㅅㅓ</w>": 1651,
  "ㄴㅏㅅㅓㄴㅡㄴ,</w>": 1652,
  "ㄴㅏㅅㅓㄴㅡㄴ</w>": 1653,
  "ㄴㅏㅅㅓㅅㅓ</w>": 1654,
  "ㄴㅏㅅㅓㅆㄷㅏ.</w>": 1655,
  "ㄴㅏㅅㅓㅈㅣ</w>": 1656,
  "ㄴㅏㅅㅕㅅㅓ</w>": 1657,
  "ㄴㅏㅅㅣㄴ</w>": 1658,
  "ㄴㅏㅆ": 1659,
  "ㄴㅏㅆㄴㅡㄴㄷㅔ</w>": 1660,
  "ㄴㅏㅆㄷㅏ.</w>": 1661,
  "ㄴㅏㅆㅅㅡㅂㄴㅣㄷㅏ.</w>": 1662,
  "ㄴㅏㅇㅏㅅㅓ</w>": 1663,
  "ㄴㅏㅇㅔㄱㅔ</w>": 1664,
  "ㄴㅏㅇㅔㄱㅔㄴㅡㄴ</w>": 1665,
  "ㄴㅏㅇㅗ": 1666,
  "ㄴㅏㅇㅗㄴ</w>": 1667,
  "ㄴㅏㅇㅗㄴㄷㅏ.</w>": 1668,
  "ㄴㅏㅇㅗㄴㅓㄹㅏ.”</w>": 1669,
  "ㄴㅏㅇㅗㄴㅡㄴ</w>": 1670,
  "ㄴㅏㅇㅗㄷㅓㄴㅣ</w>": 1671,
  "ㄴㅏㅇㅗㄹ</w>": 1672,
  "ㄴㅏㅇㅗㅁㅕㄴㅅㅓ</w>": 1673,
  "ㄴㅏㅇㅗㅈㅣ</w>": 1674,
  "ㄴㅏㅇㅘ</w>": 1675,
  "ㄴㅏㅇㅘㅅㅓ</w>": 1676,
  "ㄴㅏㅇㅘㅆ": 1677,
  "ㄴㅏㅇㅘㅆㄷㅏ.</w>": 1678,
  "ㄴㅏㅇㅘㅆㅅㅡㅂㄴㅣㄷㅏ.</w>": 1679,
  "ㄴㅏㅇㅡㄴ</w>": 1680,
  "ㄴㅏㅇㅢ</w>": 1681,
  "ㄴㅏㅇㅣ</w>": 1682,
  "ㄴㅏㅈ": 1683,
  "ㄴㅏㅈ</w>": 1684,
  "ㄴㅏㅈㅇㅡㄴ</w>": 1685,
  "ㄴㅏㅈㅇㅣㄴㅏ</w>": 1686,
  "ㄴㅏㅈㅈㅏㅁㅇㅡㄹ</w>": 1687,
  "ㄴㅏㅈㅜㅇㅇㅔ</w>": 1688,
  "ㄴㅏㅈㅜㅇㅇㅔㄴㅡㄴ</w>": 1689,
  "ㄴㅏㅈㅣ": 1690,
  "ㄴㅏㅈㅣㅁㅏㄱㅎㅏㄴ</w>": 1691,
  "ㄴㅏㅊ": 1692,
  "ㄴㅏㅊㅇㅡㄹㅗ</w>": 1693,
  "ㄴㅏㅊㅇㅣ</w>": 1694,
  "ㄴㅏㅌㅏ": 1695,
  "ㄴㅏㅌㅏㄴㅏㄴㅡㄴ</w>": 1696,
  "ㄴㅏㅎ": 1697,
  "ㄴㅏㅎㅇㅡㄴ</w>": 1698,
  "ㄴㅏㅎㅏㄱㅗ</w>": 1699,
  "ㄴㅏㅎㅏㄴㅌㅔ</w>": 1700,
  "ㄴㅐ": 1701,
  "ㄴㅐ,</w>": 1702,
  "ㄴㅐ</w>": 1703,
  "ㄴㅐㄱㅏ</w>": 1704,
  "ㄴㅐㄱㅐ": 1705,
  "ㄴㅐㄱㅐㄱ": 1706,
  "ㄴㅐㄱㅐㄱㄷㅡㄹㅇㅡㄴ</w>": 1707,
  "ㄴㅐㄱㅐㄱㄷㅡㄹㅇㅣ</w>": 1708,
  "ㄴㅐㄱㅐㄱㅇㅣ</w>": 1709,
  "ㄴㅐㄱㅔ</w>": 1710,
  "ㄴㅐㄱㅔㄴㅡㄴ</w>": 1711,
  "ㄴㅐㄱㅗ</w>": 1712,
  "ㄴㅐㄴ</w>": 1713,
  "ㄴㅐㄴㅏ</w>": 1714,
  "ㄴㅐㄴㅕㄴ": 1715,
  "ㄴㅐㄴㅕㄴ</w>": 1716,
  "ㄴㅐㄴㅕㄴㅇㅣ</w>": 1717,
  "ㄴㅐㄴㅗㅎㅇㅏㄹㅏ.”</w>": 1718,
  "ㄴㅐㄴㅡㄴ</w>": 1719,
  "ㄴㅐㄷㅏ</w>": 1720,
  "ㄴㅐㄷㅏㄱㅏ</w>": 1721,
  "ㄴㅐㄷㅏㅂㅗ": 1722,
  "ㄴㅐㄷㅓㄴㅈㅣㄱㅗ</w>": 1723,
  "ㄴㅐㄷㅗㅇㄷㅐㅇㅇㅣ": 1724,
  "ㄴㅐㄹ</w>": 1725,
  "ㄴㅐㄹㅕ": 1726,
  "ㄴㅐㄹㅕ</w>": 1727,
  "ㄴㅐㄹㅕㄱㅏ": 1728,
  "ㄴㅐㄹㅕㄱㅏㄷㅓㄴ</w>": 1729,
  "ㄴㅐㄹㅕㄱㅏㅅㅓ</w>": 1730,
  "ㄴㅐㄹㅕㄱㅏㅆㅅㅡㅂㄴㅣㄷㅏ.</w>": 1731,
  "ㄴㅐㄹㅕㄴㅗㅎㄱㅗ</w>": 1732,
  "ㄴㅐㄹㅕㄷㅏㅂㅗ": 1733,
  "ㄴㅐㄹㅕㄷㅏㅂㅗㄴㅡㄴ</w>": 1734,
  "ㄴㅐㄹㅕㄷㅏㅂㅗㅇㅏㅆㄷㅏ.</w>": 1735,
  "ㄴㅐㄹㅕㄷㅏㅂㅗㅇㅏㅆㅅㅡㅂㄴㅣㄷㅏ.</w>": 1736,
  "ㄴㅐㄹㅕㅆㅅㅡㅂㄴㅣㄷㅏ.</w>": 1737,
  "ㄴㅐㄹㅕㅇㅗ": 1738,
  "ㄴㅐㄹㅕㅇㅗㄴㅓㄹㅏ.</w>": 1739,
  "ㄴㅐㄹㅕㅇㅗㄹ</w>": 1740,
  "ㄴㅐㄹㅕㅇㅘㅅㅓ</w>": 1741,
  "ㄴㅐㄹㅕㅇㅘㅆㄷㅏ.</w>": 1742,
  "ㄴㅐㄹㅡㄹ</w>": 1743,
  "ㄴㅐㄹㅣ": 1744,
  "ㄴㅐㄹㅣ</w>": 1745,
  "ㄴㅐㄹㅣㄴㅡㄴ</w>": 1746,
  "ㄴㅐㅁ": 1747,
  "ㄴㅐㅁㅅㅐ": 1748,
  "ㄴㅐㅁㅅㅐ</w>": 1749,
  "ㄴㅐㅁㅅㅐㄱㅏ</w>": 1750,
  "ㄴㅐㅁㅕ,</w>": 1751,
  "ㄴㅐㅁㅕ</w>": 1752,
  "ㄴㅐㅁㅕㄴㅅㅓ</w>": 1753,
  "ㄴㅐㅁㅣㄴㅡㄴ</w>": 1754,
  "ㄴㅐㅁㅣㄹ": 1755,
  "ㄴㅐㅂㅐ": 1756,
  "ㄴㅐㅂㅓㄹㅕ</w>": 1757,
  "ㄴㅐㅅ": 1758,
  "ㄴㅐㅅㄱㅏㅇㅔ</w>": 1759,
  "ㄴㅐㅅㅁㅜㄹ</w>": 1760,
  "ㄴㅐㅅㅁㅜㄹㅇㅔ</w>": 1761,
  "ㄴㅐㅇ": 1762,
  "ㄴㅐㅇㅑ": 1763,
  "ㄴㅐㅇㅓ": 1764,
  "ㄴㅐㅇㅓ</w>": 1765,
  "ㄴㅐㅇㅓㄷㅏㄹㅇㅏ</w>": 1766,
  "ㄴㅐㅇㅓㅆㅅㅡㅂㄴㅣㄷㅏ.</w>": 1767,
  "ㄴㅐㅇㅣㄹ": 1768,
  "ㄴㅐㅇㅣㄹ</w>": 1769,
  "ㄴㅐㅈㅣ</w>": 1770,
  "ㄴㅐㅉㅗㅊ": 1771,
  "ㄴㅐㅉㅗㅊㄱㅣㄱㅗ</w>": 1772,
  "ㄴㅑ": 1773,
  "ㄴㅑ?</w>": 1774,
  "ㄴㅑ?”</w>": 1775,
  "ㄴㅑㅇ": 1776,
  "ㄴㅓ": 1777,
  "ㄴㅓ</w>": 1778,
  "ㄴㅓㄱㄴㅓㄱㅎㅣ</w>": 1779,
  "ㄴㅓㄱㅏㅌㅇㅣ</w>": 1780,
  "ㄴㅓㄴ": 1781,
  "ㄴㅓㄴ</w>": 1782,
  "ㄴㅓㄴㅡㄴ</w>": 1783,
  "ㄴㅓㄷㅗ</w>": 1784,
  "ㄴㅓㄹ": 1785,
  "ㄴㅓㄹ</w>": 1786,
  "ㄴㅓㄹㄷㅓㄹㅓ</w>": 1787,
  "ㄴㅓㄹㅗㄱㅜㄴㅏ.</w>": 1788,
  "ㄴㅓㄹㅡㄹ</w>": 1789,
  "ㄴㅓㄼ": 1790,
  "ㄴㅓㄼㅇㅡㄴ</w>": 1791,
  "ㄴㅓㅁ": 1792,
  "ㄴㅓㅁㅇㅓ": 1793,
  "ㄴㅓㅁㅇㅓ</w>": 1794,
  "ㄴㅓㅁㅇㅓㄱㅏ": 1795,
  "ㄴㅓㅁㅇㅓㄱㅏㄴ</w>": 1796,
  "ㄴㅓㅁㅇㅓㄱㅏㄴㅡㄴ</w>": 1797,
  "ㄴㅓㅁㅇㅓㅅㅓ</w>": 1798,
  "ㄴㅓㅁㅇㅓㅆㅅㅡㅂㄴㅣㄷㅏ.</w>": 1799,
  "ㄴㅓㅁㅇㅓㅈㅕ": 1800,
  "ㄴㅓㅁㅇㅓㅈㅣㄴ</w>": 1801,
  "ㄴㅓㅁㅊㅕ": 1802,
  "ㄴㅓㅁㅊㅣㄴㅡㄴ</w>": 1803,
  "ㄴㅓㅁㅓ": 1804,
  "ㄴㅓㅁㅜ": 1805,
  "ㄴㅓㅁㅜ</w>": 1806,
  "ㄴㅓㅁㅜㄴㅏ</w>": 1807,
  "ㄴㅓㅁㅜㄷㅗ</w>": 1808,
  "ㄴㅓㅇㅔㄱㅔ</w>": 1809,
  "ㄴㅓㅇㅢ</w>": 1810,
  "ㄴㅓㅌㅓㄹㅇㅜㅅㅇㅡㅁㅇㅡㄹ</w>": 1811,
  "ㄴㅓㅎ": 1812,
  "ㄴㅓㅎㄱㅗ</w>": 1813,
  "ㄴㅓㅎㅇㅓ</w>": 1814,
  "ㄴㅓㅎㅇㅓㄷㅜ": 1815,
  "ㄴㅓㅎㅇㅓㅆㅅㅡㅂㄴㅣㄷㅏ.</w>": 1816,
  "ㄴㅓㅎㅇㅡㄴ</w>": 1817,
  "ㄴㅓㅎㅏㄴㅌㅔ</w>": 1818,
  "ㄴㅓㅎㅢ": 1819,
  "ㄴㅓㅎㅢ</w>": 1820,
  "ㄴㅓㅎㅢㄷㅡㄹ</w>": 1821,
  "ㄴㅓㅎㅢㄷㅡㄹㅇㅡㄴ</w>": 1822,
  "ㄴㅓㅎㅢㄷㅡㄹㅇㅣ</w>": 1823,
  "ㄴㅔ": 1824,
  "ㄴㅔ,</w>": 1825,
  "ㄴㅔ.</w>": 1826,
  "ㄴㅔ.”</w>": 1827,
  "ㄴㅔ</w>": 1828,
  "ㄴㅔㄱㅏ</w>": 1829,
  "ㄴㅔㄱㅓㄹㅣ</w>": 1830,
  "ㄴㅔㄱㅔ</w>": 1831,
  "ㄴㅔㅁㅗ</w>": 1832,
  "ㄴㅔㅅ": 1833,
  "ㄴㅕ": 1834,
  "ㄴㅕㄴ": 1835,
  "ㄴㅕㄴ,</w>": 1836,
  "ㄴㅕㄴ</w>": 1837,
  "ㄴㅕㄴㄱㅏㄴ</w>": 1838,
  "ㄴㅕㄴㅇㅡㄹ</w>": 1839,
  "ㄴㅕㄴㅇㅣ</w>": 1840,
  "ㄴㅕㄴㅇㅣㄴㅏ</w>": 1841,
  "ㄴㅕㅅㅓㄱ": 1842,
  "ㄴㅗ": 1843,
  "ㄴㅗ</w>": 1844,
  "ㄴㅗㄱ": 1845,
  "ㄴㅗㄱㅣㄱㅏ</w>": 1846,
  "ㄴㅗㄴ": 1847,
  "ㄴㅗㄴㄱㅘ</w>": 1848,
  "ㄴㅗㄴㄷㅏ.</w>": 1849,
  "ㄴㅗㄴㄷㅜㄱ": 1850,
  "ㄴㅗㄴㄷㅜㄱ</w>": 1851,
  "ㄴㅗㄴㄷㅜㄱㄱㅣㄹㅇㅡㄹ</w>": 1852,
  "ㄴㅗㄴㅇㅔ</w>": 1853,
  "ㄴㅗㄴㅡㄴ</w>": 1854,
  "ㄴㅗㄹ": 1855,
  "ㄴㅗㄹ</w>": 1856,
  "ㄴㅗㄹㄹㅏ": 1857,
  "ㄴㅗㄹㄹㅏ</w>": 1858,
  "ㄴㅗㄹㄹㅏㄴ</w>": 1859,
  "ㄴㅗㄹㄹㅏㄴㅡㄴ</w>": 1860,
  "ㄴㅗㄹㄹㅏㄹ</w>": 1861,
  "ㄴㅗㄹㄹㅏㅁㅕㄴㅅㅓ</w>": 1862,
  "ㄴㅗㄹㄹㅏㅅㅓ</w>": 1863,
  "ㄴㅗㄹㄹㅏㅆㄴㅡㄴㅈㅣ</w>": 1864,
  "ㄴㅗㄹㄹㅏㅆㄷㅏ.</w>": 1865,
  "ㄴㅗㄹㄹㅏㅆㅅㅡㅂㄴㅣㄷㅏ.</w>": 1866,
  "ㄴㅗㄹㄹㅏㅇㅜㄴ</w>": 1867,
  "ㄴㅗㄹㄹㅏㅈㅣ</w>": 1868,
  "ㄴㅗㄹㄹㅕ": 1869,
  "ㄴㅗㄹㄹㅣ": 1870,
  "ㄴㅗㄹㄹㅣㄴㅡㄴ</w>": 1871,
  "ㄴㅗㄹㅈㅣ</w>": 1872,
  "ㄴㅗㄹㅏㄴ</w>": 1873,
  "ㄴㅗㄹㅐ": 1874,
  "ㄴㅗㄹㅐ</w>": 1875,
  "ㄴㅗㄹㅐㄷㅗ</w>": 1876,
  "ㄴㅗㄹㅐㄹㅡㄹ</w>": 1877,
  "ㄴㅗㄹㅐㅎㅏㄱㅗ</w>": 1878,
  "ㄴㅗㄹㅕ": 1879,
  "ㄴㅗㄹㅕㄱㅎㅏㅇㅕ</w>": 1880,
  "ㄴㅗㄹㅡ": 1881,
  "ㄴㅗㄹㅡㅅ": 1882,
  "ㄴㅗㄹㅡㅅㅇㅡㄹ</w>": 1883,
  "ㄴㅗㄹㅡㅅㅇㅣ</w>": 1884,
  "ㄴㅗㄹㅣ": 1885,
  "ㄴㅗㅁ": 1886,
  "ㄴㅗㅁ,</w>": 1887,
  "ㄴㅗㅁ</w>": 1888,
  "ㄴㅗㅁㄷㅐㄹㅗ</w>": 1889,
  "ㄴㅗㅁㄷㅡㄹ</w>": 1890,
  "ㄴㅗㅁㄷㅡㄹㅇㅣ</w>": 1891,
  "ㄴㅗㅁㅇㅡㄴ</w>": 1892,
  "ㄴㅗㅁㅇㅡㄹ</w>": 1893,
  "ㄴㅗㅁㅇㅢ</w>": 1894,
  "ㄴㅗㅁㅇㅣ</w>": 1895,
  "ㄴㅗㅇ": 1896,
  "ㄴㅗㅇㅕ": 1897,
  "ㄴㅗㅍ": 1898,
  "ㄴㅗㅍㄱㅔ</w>": 1899,
  "ㄴㅗㅍㅇㅏ": 1900,
  "ㄴㅗㅍㅇㅕ</w>": 1901,
  "ㄴㅗㅍㅇㅡㄴ</w>": 1902,
  "ㄴㅗㅍㅇㅣ</w>": 1903,
  "ㄴㅗㅍㅏ": 1904,
  "ㄴㅗㅎ": 1905,
  "ㄴㅗㅎ</w>": 1906,
  "ㄴㅗㅎㄱㅗ</w>": 1907,
  "ㄴㅗㅎㄱㅗㄴㅡㄴ</w>": 1908,
  "ㄴㅗㅎㄴㅡㄴ</w>": 1909,
  "ㄴㅗㅎㄴㅡㄴㄷㅏ.</w>": 1910,
  "ㄴㅗㅎㄷㅏㄱㅏ</w>": 1911,
  "ㄴㅗㅎㅇㅏ": 1912,
  "ㄴㅗㅎㅇㅏ</w>": 1913,
  "ㄴㅗㅎㅇㅏㅆㄷㅏ.</w>": 1914,
  "ㄴㅗㅎㅇㅏㅆㅅㅡㅂㄴㅣㄷㅏ.</w>": 1915,
  "ㄴㅗㅎㅇㅕ</w>": 1916,
  "ㄴㅗㅎㅇㅡㄴ</w>": 1917,
  "ㄴㅗㅎㅇㅡㄹ</w>": 1918,
  "ㄴㅗㅎㅇㅣㄴ</w>": 1919,
  "ㄴㅗㅎㅈㅣ</w>": 1920,
  "ㄴㅘ": 1921,
  "ㄴㅜ": 1922,
  "ㄴㅜ</w>": 1923,
  "ㄴㅜㄱㅏ</w>": 1924,
  "ㄴㅜㄱㅜ": 1925,
  "ㄴㅜㄱㅜ</w>": 1926,
  "ㄴㅜㄱㅜㄴㅏ</w>": 1927,
  "ㄴㅜㄱㅜㄷㅡㄴㅈㅣ</w>": 1928,
  "ㄴㅜㄱㅜㄹㅡㄹ</w>": 1929,
  "ㄴㅜㄱㅜㅇㅔㄱㅔ</w>": 1930,
  "ㄴㅜㄱㅡㄹㅓ": 1931,
  "ㄴㅜㄴ": 1932,
  "ㄴㅜㄴ</w>": 1933,
  "ㄴㅜㄴㄲㅏㄹ!</w>": 1934,
  "ㄴㅜㄴㄲㅏㄹㅇㅣ</w>": 1935,
  "ㄴㅜㄴㅁㅏㅇㅇㅜㄹㅇㅡㄹ</w>": 1936,
  "ㄴㅜㄴㅁㅜㄹ": 1937,
  "ㄴㅜㄴㅁㅜㄹ-</w>": 1938,
  "ㄴㅜㄴㅁㅜㄹ</w>": 1939,
  "ㄴㅜㄴㅁㅜㄹㄲㅏㅈㅣ</w>": 1940,
  "ㄴㅜㄴㅁㅜㄹㅁㅏㄴ</w>": 1941,
  "ㄴㅜㄴㅁㅜㄹㅇㅔ</w>": 1942,
  "ㄴㅜㄴㅁㅜㄹㅇㅡㄴ</w>": 1943,
  "ㄴㅜㄴㅁㅜㄹㅇㅡㄹ</w>": 1944,
  "ㄴㅜㄴㅁㅜㄹㅇㅢ</w>": 1945,
  "ㄴㅜㄴㅁㅜㄹㅇㅣ</w>": 1946,
  "ㄴㅜㄴㅁㅜㄹㅇㅣㅇㅓㅆㅅㅡㅂㄴㅣㄷㅏ.</w>": 1947,
  "ㄴㅜㄴㅁㅜㄹㅈㅣ": 1948,
  "ㄴㅜㄴㅁㅜㄹㅈㅣㅅㄱㅗ</w>": 1949,
  "ㄴㅜㄴㅂㅗㄹㅏ": 1950,
  "ㄴㅜㄴㅂㅗㄹㅏ</w>": 1951,
  "ㄴㅜㄴㅂㅗㄹㅏㅊㅣㄴㅡㄴ</w>": 1952,
  "ㄴㅜㄴㅇㅏㅍㅇㅔ</w>": 1953,
  "ㄴㅜㄴㅇㅔ</w>": 1954,
  "ㄴㅜㄴㅇㅔㄴㅡㄴ</w>": 1955,
  "ㄴㅜㄴㅇㅔㅅㅓ</w>": 1956,
  "ㄴㅜㄴㅇㅔㅅㅓㄴㅡㄴ</w>": 1957,
  "ㄴㅜㄴㅇㅔㅅㅓㄷㅗ</w>": 1958,
  "ㄴㅜㄴㅇㅡㄴ</w>": 1959,
  "ㄴㅜㄴㅇㅡㄹ</w>": 1960,
  "ㄴㅜㄴㅇㅡㄹㅗ</w>": 1961,
  "ㄴㅜㄴㅇㅣ</w>": 1962,
  "ㄴㅜㄴㅊ": 1963,
  "ㄴㅜㄴㅊㅗㅇㅇㅡㄹ</w>": 1964,
  "ㄴㅜㄴㅊㅣ": 1965,
  "ㄴㅜㄴㅊㅣ</w>": 1966,
  "ㄴㅜㄴㅊㅣㄹㅗ</w>": 1967,
  "ㄴㅜㄴㅊㅣㄹㅡㄹ</w>": 1968,
  "ㄴㅜㄴㅏ": 1969,
  "ㄴㅜㄴㅏ</w>": 1970,
  "ㄴㅜㄴㅏㄱㅏ</w>": 1971,
  "ㄴㅜㄴㅏㄴ</w>": 1972,
  "ㄴㅜㄴㅏㄴㅡㄴ</w>": 1973,
  "ㄴㅜㄴㅏㄷㅜ</w>": 1974,
  "ㄴㅜㄴㅏㄹㅡㄹ</w>": 1975,
  "ㄴㅜㄴㅣㅁ": 1976,
  "ㄴㅜㄴㅣㅁ!</w>": 1977,
  "ㄴㅜㄴㅣㅁㄱㅘ</w>": 1978,
  "ㄴㅜㄴㅣㅁㄲㅔㅅㅓㄴㅡㄴ</w>": 1979,
  "ㄴㅜㄴㅣㅁㅇㅡㄴ</w>": 1980,
  "ㄴㅜㄴㅣㅁㅇㅡㄹ</w>": 1981,
  "ㄴㅜㄴㅣㅁㅇㅢ</w>": 1982,
  "ㄴㅜㄴㅣㅁㅇㅣ</w>": 1983,
  "ㄴㅜㄴㅣㅁㅇㅣㅇㅑ": 1984,
  "ㄴㅜㄹ": 1985,
  "ㄴㅜㄹㄹㅓ</w>": 1986,
  "ㄴㅜㄹㅓㄴ</w>": 1987,
  "ㄴㅜㅁㅕㅇ": 1988,
  "ㄴㅜㅂ": 1989,
  "ㄴㅜㅂㄱㅗ</w>": 1990,
  "ㄴㅜㅂㄴㅡㄴ</w>": 1991,
  "ㄴㅜㅇㅜㄴ</w>": 1992,
  "ㄴㅜㅇㅝ</w>": 1993,
  "ㄴㅜㅇㅝㅅㅓ</w>": 1994,
  "ㄴㅜㅇㅣ": 1995,
  "ㄴㅜㅇㅣㄷㅗㅇㅅㅐㅇ</w>": 1996,
  "ㄴㅟ": 1997,
  "ㄴㅟㅇㅜ": 1998,
  "ㄴㅡ": 1999,
  "ㄴㅡ</w>": 2000,
  "ㄴㅡㄲㅕ": 2001,
  "ㄴㅡㄲㅕ</w>": 2002,
  "ㄴㅡㄲㅕㅆㄷㅏ.</w>": 2003,
  "ㄴㅡㄲㅣ": 2004,
  "ㄴㅡㄲㅣㅁㅇㅣ</w>": 2005,
  "ㄴㅡㄴ": 2006,
  "ㄴㅡㄴ,</w>": 2007,
  "ㄴㅡㄴ</w>": 2008,
  "ㄴㅡㄴ‧‧‧‧‧‧.”</w>": 2009,
  "ㄴㅡㄴㄱㅓㄹ": 2010,
  "ㄴㅡㄴㄱㅓㄹ.”</w>": 2011,
  "ㄴㅡㄴㄷㅏ": 2012,
  "ㄴㅡㄴㄷㅏ.</w>": 2013,
  "ㄴㅡㄴㄷㅏㄱㅗ</w>": 2014,
  "ㄴㅡㄴㄷㅏㄴㅡㄴ</w>": 2015,
  "ㄴㅡㄴㄷㅏㅁㅕㄴ</w>": 2016,
  "ㄴㅡㄴㄷㅔ": 2017,
  "ㄴㅡㄴㄷㅔ,</w>": 2018,
  "ㄴㅡㄴㄷㅔ</w>": 2019,
  "ㄴㅡㄴㄷㅔㄷㅗ</w>": 2020,
  "ㄴㅡㄴㅈㅣ": 2021,
  "ㄴㅡㄴㅈㅣ</w>": 2022,
  "ㄴㅡㄴㅈㅣㄷㅗ</w>": 2023,
  "ㄴㅡㄴㅑ": 2024,
  "ㄴㅡㄴㅑ,</w>": 2025,
  "ㄴㅡㄴㅑ?</w>": 2026,
  "ㄴㅡㄴㅑ?”</w>": 2027,
  "ㄴㅡㄴㅑㄱㅗ</w>": 2028,
  "ㄴㅡㄴㅣ": 2029,
  "ㄴㅡㄴㅣ</w>": 2030,
  "ㄴㅡㄴㅣㄹㅏ.</w>": 2031,
  "ㄴㅡㄴㅣㅂㅗㄷㅏ</w>": 2032,
  "ㄴㅡㄷㅏㄹㅏㄴ</w>": 2033,
  "ㄴㅡㄹ": 2034,
  "ㄴㅡㄹ</w>": 2035,
  "ㄴㅡㄹㅇㅓ": 2036,
  "ㄴㅡㄹㅇㅓ</w>": 2037,
  "ㄴㅡㄹㅇㅓㅈㅣㄱㅔ</w>": 2038,
  "ㄴㅡㄹㅏㄱㅗ</w>": 2039,
  "ㄴㅡㄺ": 2040,
  "ㄴㅡㄺㅇㅓㄱㅏ": 2041,
  "ㄴㅡㄺㅇㅡㄴ</w>": 2042,
  "ㄴㅡㅇ": 2043,
  "ㄴㅡㅇㄱㅡㅁ": 2044,
  "ㄴㅡㅇㅎㅣ</w>": 2045,
  "ㄴㅡㅈ": 2046,
  "ㄴㅡㅈㄱㅔ</w>": 2047,
  "ㄴㅡㅈㄷㅗㄹㅗㄱ</w>": 2048,
  "ㄴㅡㅈㅇㅡㄴ</w>": 2049,
  "ㄴㅣ": 2050,
  "ㄴㅣ,</w>": 2051,
  "ㄴㅣ.</w>": 2052,
  "ㄴㅣ.”</w>": 2053,
  "ㄴㅣ</w>": 2054,
  "ㄴㅣ?\"</w>": 2055,
  "ㄴㅣ?</w>": 2056,
  "ㄴㅣ?”</w>": 2057,
  "ㄴㅣ”</w>": 2058,
  "ㄴㅣㄲㅏ": 2059,
  "ㄴㅣㄲㅏ,</w>": 2060,
  "ㄴㅣㄲㅏ</w>": 2061,
  "ㄴㅣㄲㅏㄴ</w>": 2062,
  "ㄴㅣㄷㅏ.</w>": 2063,
  "ㄴㅣㄹㅡㄹ</w>": 2064,
  "ㄴㅣㅁ": 2065,
  "ㄴㅣㅁ!</w>": 2066,
  "ㄴㅣㅁ</w>": 2067,
  "ㄴㅣㅁㄱㅘ</w>": 2068,
  "ㄴㅣㅁㄲㅔ</w>": 2069,
  "ㄴㅣㅁㄲㅔㅅㅓ</w>": 2070,
  "ㄴㅣㅁㄷㅗ</w>": 2071,
  "ㄴㅣㅁㅇㅡㄴ</w>": 2072,
  "ㄴㅣㅁㅇㅡㄹ</w>": 2073,
  "ㄴㅣㅁㅇㅢ</w>": 2074,
  "ㄴㅣㅁㅇㅣ</w>": 2075,
  "ㄴㅣㅇㅘ</w>": 2076,
  "ㄶ": 2077,
  "ㄷ": 2078,
  "ㄷㅏ": 2079,
  "ㄷㅏ!\"</w>": 2080,
  "ㄷㅏ!</w>": 2081,
  "ㄷㅏ!”</w>": 2082,
  "ㄷㅏ,</w>": 2083,
  "ㄷㅏ-</w>": 2084,
  "ㄷㅏ.": 2085,
  "ㄷㅏ.</w>": 2086,
  "ㄷㅏ.’</w>": 2087,
  "ㄷㅏ.”</w>": 2088,
  "ㄷㅏ</w>": 2089,
  "ㄷㅏㄱ": 2090,
  "ㄷㅏㄱㅊㅕ": 2091,
  "ㄷㅏㄱㅊㅣ": 2092,
  "ㄷㅏㄱㅏ": 2093,
  "ㄷㅏㄱㅏ,</w>": 2094,
  "ㄷㅏㄱㅏ</w>": 2095,
  "ㄷㅏㄱㅏㄴㅡㄴ</w>": 2096,
  "ㄷㅏㄱㅗ</w>": 2097,
  "ㄷㅏㄱㅗㄷㅗ</w>": 2098,
  "ㄷㅏㄲ": 2099,
  "ㄷㅏㄴ": 2100,
  "ㄷㅏㄴ</w>": 2101,
  "ㄷㅏㄴㄷㅏ.</w>": 2102,
  "ㄷㅏㄴㄷㅏ.”</w>": 2103,
  "ㄷㅏㄴㄷㅏㄴㅎㅏㄴ</w>": 2104,
  "ㄷㅏㄴㄷㅏㄴㅎㅣ</w>": 2105,
  "ㄷㅏㄴㅎㅏㄴ</w>": 2106,
  "ㄷㅏㄴㅎㅣ</w>": 2107,
  "ㄷㅏㄴㅔ.”</w>": 2108,
  "ㄷㅏㄴㅕ": 2109,
  "ㄷㅏㄴㅕㅆㅅㅡㅂㄴㅣㄷㅏ.</w>": 2110,
  "ㄷㅏㄴㅕㅇㅗㄴㅓㄹㅏ.</w>": 2111,
  "ㄷㅏㄴㅡㄴ</w>": 2112,
  "ㄷㅏㄴㅡㄴㅣㅂㅗㄷㅏ</w>": 2113,
  "ㄷㅏㄴㅣ": 2114,
  "ㄷㅏㄴㅣ,</w>": 2115,
  "ㄷㅏㄴㅣ</w>": 2116,
  "ㄷㅏㄴㅣ?</w>": 2117,
  "ㄷㅏㄴㅣㄱㅔ</w>": 2118,
  "ㄷㅏㄴㅣㄴㅡㄴ</w>": 2119,
  "ㄷㅏㄷ": 2120,
  "ㄷㅏㄷㄱㅗ</w>": 2121,
  "ㄷㅏㄷㅏㄹㅏ": 2122,
  "ㄷㅏㄹ": 2123,
  "ㄷㅏㄹ</w>": 2124,
  "ㄷㅏㄹㄱㅗ</w>": 2125,
  "ㄷㅏㄹㄹㅏ": 2126,
  "ㄷㅏㄹㄹㅏㄱㅗ</w>": 2127,
  "ㄷㅏㄹㄹㅐ": 2128,
  "ㄷㅏㄹㄹㅕ": 2129,
  "ㄷㅏㄹㄹㅕ</w>": 2130,
  "ㄷㅏㄹㄹㅕㄷㅡㄹ": 2131,
  "ㄷㅏㄹㄹㅕㄷㅡㄹㄷㅓㄴㅣ</w>": 2132,
  "ㄷㅏㄹㄹㅕㄷㅡㄹㅇㅓ</w>": 2133,
  "ㄷㅏㄹㄹㅕㄷㅡㄹㅇㅓㅅㅓ</w>": 2134,
  "ㄷㅏㄹㄹㅣㄴ</w>": 2135,
  "ㄷㅏㄹㅇㅏ": 2136,
  "ㄷㅏㄹㅇㅏㄴㅏ": 2137,
  "ㄷㅏㄹㅇㅏㄴㅏㄴㅡㄴ</w>": 2138,
  "ㄷㅏㄹㅇㅏㄴㅏㄹㅕㄱㅗ</w>": 2139,
  "ㄷㅏㄹㅇㅏㄴㅏㅆㅅㅡㅂㄴㅣㄷㅏ.</w>": 2140,
  "ㄷㅏㄹㅇㅔ</w>": 2141,
  "ㄷㅏㄹㅇㅕ</w>": 2142,
  "ㄷㅏㄹㅇㅡㄹ</w>": 2143,
  "ㄷㅏㄹㅇㅡㅁ": 2144,
  "ㄷㅏㄹㅇㅡㅁㅈㅣㄹ": 2145,
  "ㄷㅏㄹㅇㅣ</w>": 2146,
  "ㄷㅏㄹㅏㄴ</w>": 2147,
  "ㄷㅏㄹㅏㅎㄱㅔ</w>": 2148,
  "ㄷㅏㄹㅡ": 2149,
  "ㄷㅏㄹㅡㄴ</w>": 2150,
  "ㄷㅏㄹㅡㄹ</w>": 2151,
  "ㄷㅏㄹㅡㅁㅇㅓㅄㅇㅣ</w>": 2152,
  "ㄷㅏㄹㅡㅁㅇㅣ</w>": 2153,
  "ㄷㅏㄹㅣ": 2154,
  "ㄷㅏㄹㅣ</w>": 2155,
  "ㄷㅏㄹㅣㄱㅏ</w>": 2156,
  "ㄷㅏㄹㅣㄴㅡㄴ</w>": 2157,
  "ㄷㅏㄹㅣㄹㅡㄹ</w>": 2158,
  "ㄷㅏㄹㅣㅁㅏㄴ</w>": 2159,
  "ㄷㅏㄹㅣㅇㅔㅅㅓ</w>": 2160,
  "ㄷㅏㄺ": 2161,
  "ㄷㅏㄺ</w>": 2162,
  "ㄷㅏㄺㄷㅗ</w>": 2163,
  "ㄷㅏㄺㅇㅡㄴ</w>": 2164,
  "ㄷㅏㄺㅇㅡㄹ</w>": 2165,
  "ㄷㅏㄺㅇㅢ</w>": 2166,
  "ㄷㅏㄺㅇㅣ</w>": 2167,
  "ㄷㅏㅁ": 2168,
  "ㄷㅏㅁ.</w>": 2169,
  "ㄷㅏㅁ</w>": 2170,
  "ㄷㅏㅁㅂㅐ</w>": 2171,
  "ㄷㅏㅁㅂㅐㅅ": 2172,
  "ㄷㅏㅁㅂㅕㄹㅏ": 2173,
  "ㄷㅏㅁㅇㅏ</w>": 2174,
  "ㄷㅏㅁㅇㅏㅈㅜ": 2175,
  "ㄷㅏㅁㅇㅔ</w>": 2176,
  "ㄷㅏㅁㅇㅡㄹ</w>": 2177,
  "ㄷㅏㅁㅇㅣㅁ</w>": 2178,
  "ㄷㅏㅁㅏㄴ</w>": 2179,
  "ㄷㅏㅁㅏㄴㅡㄴ</w>": 2180,
  "ㄷㅏㅁㅕㄴ</w>": 2181,
  "ㄷㅏㅁㅗㅅㅎㅏㅇㅕ</w>": 2182,
  "ㄷㅏㅂ": 2183,
  "ㄷㅏㅂㄱㅔ</w>": 2184,
  "ㄷㅏㅂㄴㅣㄷㅏ.”</w>": 2185,
  "ㄷㅏㅂㅇㅡㄹ</w>": 2186,
  "ㄷㅏㅂㅗ</w>": 2187,
  "ㄷㅏㅂㅗㄱㅗ</w>": 2188,
  "ㄷㅏㅂㅘㄹㅏ.</w>": 2189,
  "ㄷㅏㅂㅘㅆㄷㅏ.</w>": 2190,
  "ㄷㅏㅅㅓㅅ</w>": 2191,
  "ㄷㅏㅅㅣ": 2192,
  "ㄷㅏㅅㅣ</w>": 2193,
  "ㄷㅏㅅㅣㄱㅡㅁ</w>": 2194,
  "ㄷㅏㅅㅣㄴㅡㄴ</w>": 2195,
  "ㄷㅏㅅㅣㅇㅓㅄㄴㅡㄴ</w>": 2196,
  "ㄷㅏㅅㅣㅍㅣ</w>": 2197,
  "ㄷㅏㅇ": 2198,
  "ㄷㅏㅇ</w>": 2199,
  "ㄷㅏㅇㄴㅏㄹㅏ</w>": 2200,
  "ㄷㅏㅇㅁㅗㄱ</w>": 2201,
  "ㄷㅏㅇㅂㅓㄴ": 2202,
  "ㄷㅏㅇㅅㅣㄴ": 2203,
  "ㄷㅏㅇㅇㅔ</w>": 2204,
  "ㄷㅏㅇㅇㅕㄴㅎㅏㄴ</w>": 2205,
  "ㄷㅏㅇㅈㅏㅇ</w>": 2206,
  "ㄷㅏㅇㅈㅏㅇㅇㅔ</w>": 2207,
  "ㄷㅏㅇㅎㅏㄴ</w>": 2208,
  "ㄷㅏㅇㅎㅏㅇㅑ</w>": 2209,
  "ㄷㅏㅇㅗ.</w>": 2210,
  "ㄷㅏㅇㅗ.”</w>": 2211,
  "ㄷㅏㅇㅜ.</w>": 2212,
  "ㄷㅏㅇㅜ.”</w>": 2213,
  "ㄷㅏㅇㅜㄴ</w>": 2214,
  "ㄷㅏㅇㅡㅁ": 2215,
  "ㄷㅏㅇㅡㅁ</w>": 2216,
  "ㄷㅏㅇㅡㅁㄴㅏㄹ</w>": 2217,
  "ㄷㅏㅈㅓㅇ": 2218,
  "ㄷㅏㅈㅓㅇㅎㅏㄴ</w>": 2219,
  "ㄷㅏㅈㅣ": 2220,
  "ㄷㅏㅈㅣㅁㅇㅡㄹ</w>": 2221,
  "ㄷㅏㅊㅣ": 2222,
  "ㄷㅏㅌㅜ": 2223,
  "ㄷㅏㅎ": 2224,
  "ㄷㅏㅎㅐㅇ": 2225,
  "ㄷㅏㅎㅐㅇㅎㅣ</w>": 2226,
  "ㄷㅐ": 2227,
  "ㄷㅐ</w>": 2228,
  "ㄷㅐㄱ</w>": 2229,
  "ㄷㅐㄱㅇㅔ</w>": 2230,
  "ㄷㅐㄱㅇㅡㄹㅗ</w>": 2231,
  "ㄷㅐㄱㅏ</w>": 2232,
  "ㄷㅐㄱㅏㅇ": 2233,
  "ㄷㅐㄱㅏㅇ</w>": 2234,
  "ㄷㅐㄱㅏㅇㅇㅣㄱㅏ</w>": 2235,
  "ㄷㅐㄱㅗ</w>": 2236,
  "ㄷㅐㄱㅘㄴㅈㅓㄹ</w>": 2237,
  "ㄷㅐㄱㅣㄹㅗ</w>": 2238,
  "ㄷㅐㄱㅣㄹㅡㄹ</w>": 2239,
  "ㄷㅐㄷㅏㄴㅎㅣ</w>": 2240,
  "ㄷㅐㄷㅏㅂ": 2241,
  "ㄷㅐㄷㅏㅂㅇㅡㄹ</w>": 2242,
  "ㄷㅐㄷㅏㅂㅇㅣ</w>": 2243,
  "ㄷㅐㄷㅏㅂㅎㅏㄴㅡㄴ</w>": 2244,
  "ㄷㅐㄷㅏㅂㅎㅏㅁㅕㄴㅅㅓ</w>": 2245,
  "ㄷㅐㄷㅏㅂㅎㅏㅇㅕㅆㅅㅡㅂㄴㅣㄷㅏ.</w>": 2246,
  "ㄷㅐㄷㅏㅂㅎㅐㅆㅅㅡㅂㄴㅣㄷㅏ.</w>": 2247,
  "ㄷㅐㄷㅗ</w>": 2248,
  "ㄷㅐㄷㅡㄹ": 2249,
  "ㄷㅐㄷㅡㄹㅂㅗㄱㅏ</w>": 2250,
  "ㄷㅐㄷㅡㄹㅂㅗㄹㅡㄹ</w>": 2251,
  "ㄷㅐㄸㅡㅁ</w>": 2252,
  "ㄷㅐㄹ</w>": 2253,
  "ㄷㅐㄹㅕㄴ": 2254,
  "ㄷㅐㄹㅕㄴㄲㅏㅈㅣ</w>": 2255,
  "ㄷㅐㄹㅕㄴㅇㅔ</w>": 2256,
  "ㄷㅐㄹㅕㄴㅇㅡㄹㅗ</w>": 2257,
  "ㄷㅐㄹㅕㄴㅎㅐㅇ</w>": 2258,
  "ㄷㅐㄹㅗ</w>": 2259,
  "ㄷㅐㄹㅗㅁㅏㄴ</w>": 2260,
  "ㄷㅐㄹㅡㄹ</w>": 2261,
  "ㄷㅐㅁㅜㄴ": 2262,
  "ㄷㅐㅁㅜㄴ</w>": 2263,
  "ㄷㅐㅁㅜㄴㄱㅏㄴㅇㅔ</w>": 2264,
  "ㄷㅐㅁㅜㄴㅇㅔ</w>": 2265,
  "ㄷㅐㅁㅜㄴㅇㅡㄹ</w>": 2266,
  "ㄷㅐㅅ": 2267,
  "ㄷㅐㅅㅏ": 2268,
  "ㄷㅐㅅㅏ</w>": 2269,
  "ㄷㅐㅅㅜㄹㅗㅂㅈㅣ</w>": 2270,
  "ㄷㅐㅅㅣㄴ</w>": 2271,
  "ㄷㅐㅅㅣㄴㅇㅔ</w>": 2272,
  "ㄷㅐㅅㅣㄴㅇㅡㄹㅗ</w>": 2273,
  "ㄷㅐㅇ": 2274,
  "ㄷㅐㅇㅓ": 2275,
  "ㄷㅐㅇㅓ</w>": 2276,
  "ㄷㅐㅇㅓㅆㅅㅡㅂㄴㅣㄷㅏ.</w>": 2277,
  "ㄷㅐㅇㅔ": 2278,
  "ㄷㅐㅈㅏㅂㅗ": 2279,
  "ㄷㅐㅈㅏㅇ": 2280,
  "ㄷㅐㅈㅏㅇㅇㅡㄴ</w>": 2281,
  "ㄷㅐㅈㅏㅇㅇㅣ</w>": 2282,
  "ㄷㅐㅈㅓㅂ": 2283,
  "ㄷㅐㅈㅣ</w>": 2284,
  "ㄷㅐㅊㅓ": 2285,
  "ㄷㅐㅊㅓㅇ</w>": 2286,
  "ㄷㅐㅊㅓㅇㅇㅢ</w>": 2287,
  "ㄷㅐㅊㅔ</w>": 2288,
  "ㄷㅐㅍㅏㄴ": 2289,
  "ㄷㅐㅎㅏㄴ</w>": 2290,
  "ㄷㅐㅎㅏㅂ": 2291,
  "ㄷㅐㅎㅏㅇ": 2292,
  "ㄷㅐㅎㅏㅇㅕ</w>": 2293,
  "ㄷㅓ": 2294,
  "ㄷㅓ</w>": 2295,
  "ㄷㅓㄱ": 2296,
  "ㄷㅓㄱ</w>": 2297,
  "ㄷㅓㄱㄱㅓㄹㅣㄴㅡㄴ</w>": 2298,
  "ㄷㅓㄱㅌㅐ": 2299,
  "ㄷㅓㄱㅌㅐㄱㅇㅡㄹㅗ</w>": 2300,
  "ㄷㅓㄱㅜㄴㅏ</w>": 2301,
  "ㄷㅓㄴ": 2302,
  "ㄷㅓㄴ</w>": 2303,
  "ㄷㅓㄴㄱㅏ": 2304,
  "ㄷㅓㄴㄷㅡㄹ</w>": 2305,
  "ㄷㅓㄴㅈㅕ": 2306,
  "ㄷㅓㄴㅈㅣ": 2307,
  "ㄷㅓㄴㅈㅣ</w>": 2308,
  "ㄷㅓㄴㅑ": 2309,
  "ㄷㅓㄴㅑ.”</w>": 2310,
  "ㄷㅓㄴㅣ": 2311,
  "ㄷㅓㄴㅣ,</w>": 2312,
  "ㄷㅓㄴㅣ</w>": 2313,
  "ㄷㅓㄴㅣㅁㅏㄴ</w>": 2314,
  "ㄷㅓㄷㅡㅁ": 2315,
  "ㄷㅓㄹ": 2316,
  "ㄷㅓㄹ</w>": 2317,
  "ㄷㅓㄹㄷㅓㄹ": 2318,
  "ㄷㅓㄹㅏ.\"</w>": 2319,
  "ㄷㅓㄹㅏ.</w>": 2320,
  "ㄷㅓㄹㅏ.”</w>": 2321,
  "ㄷㅓㄹㅏㄷㅗ</w>": 2322,
  "ㄷㅓㄹㅏㅁㅕㄴ</w>": 2323,
  "ㄷㅓㄹㅓ</w>": 2324,
  "ㄷㅓㄹㅓㅂ": 2325,
  "ㄷㅓㄹㅓㅇㅜㄴ</w>": 2326,
  "ㄷㅓㅁ": 2327,
  "ㄷㅓㅁㅂㅓㅇ": 2328,
  "ㄷㅓㅁㅂㅓㅇ</w>": 2329,
  "ㄷㅓㅁㅂㅕ": 2330,
  "ㄷㅓㅂ": 2331,
  "ㄷㅓㅂㅅㅓㄱ</w>": 2332,
  "ㄷㅓㅂㅜㄹㅇㅓ</w>": 2333,
  "ㄷㅓㅅ": 2334,
  "ㄷㅓㅇ": 2335,
  "ㄷㅓㅇ</w>": 2336,
  "ㄷㅓㅇㅇㅓㄹㅣ</w>": 2337,
  "ㄷㅓㅇㅇㅣ</w>": 2338,
  "ㄷㅓㅇㅜㄱ": 2339,
  "ㄷㅓㅇㅜㄱ</w>": 2340,
  "ㄷㅓㅇㅜㄱㄷㅓㅇㅜㄱ</w>": 2341,
  "ㄷㅓㅇㅜㄱㅇㅣ</w>": 2342,
  "ㄷㅓㅇㅜㄴ</w>": 2343,
  "ㄷㅓㅍ": 2344,
  "ㄷㅓㅍㅊㅣㄴ</w>": 2345,
  "ㄷㅓㅎㅏㄴㅊㅡㅇ</w>": 2346,
  "ㄷㅔ": 2347,
  "ㄷㅔ.</w>": 2348,
  "ㄷㅔ.”</w>": 2349,
  "ㄷㅔ</w>": 2350,
  "ㄷㅔㄱㅏ</w>": 2351,
  "ㄷㅔㄱㅡㄹㅕ.</w>": 2352,
  "ㄷㅔㄲㅏㅈㅣ</w>": 2353,
  "ㄷㅔㄴㅡㄴ</w>": 2354,
  "ㄷㅔㄷㅏㄱㅏ</w>": 2355,
  "ㄷㅔㄹㅕ": 2356,
  "ㄷㅔㄹㅕㄷㅏㄱㅏ</w>": 2357,
  "ㄷㅔㄹㅗ</w>": 2358,
  "ㄷㅔㄹㅣㄱㅗ</w>": 2359,
  "ㄷㅔㄹㅣㄹㅓ</w>": 2360,
  "ㄷㅗ": 2361,
  "ㄷㅗ,</w>": 2362,
  "ㄷㅗ</w>": 2363,
  "ㄷㅗㄱ": 2364,
  "ㄷㅗㄱㅎㅏㄴ</w>": 2365,
  "ㄷㅗㄱㅏ</w>": 2366,
  "ㄷㅗㄴ": 2367,
  "ㄷㅗㄴ</w>": 2368,
  "ㄷㅗㄴㅂㅓㄹ": 2369,
  "ㄷㅗㄴㅇㅡㄴ</w>": 2370,
  "ㄷㅗㄴㅇㅡㄹ</w>": 2371,
  "ㄷㅗㄴㅇㅡㄹㅗ</w>": 2372,
  "ㄷㅗㄴㅇㅢ</w>": 2373,
  "ㄷㅗㄴㅇㅣ</w>": 2374,
  "ㄷㅗㄴㅈㅣㄱㅏ": 2375,
  "ㄷㅗㄴㅈㅣㄱㅏㅂ": 2376,
  "ㄷㅗㄴㅡㄴ</w>": 2377,
  "ㄷㅗㄷ": 2378,
  "ㄷㅗㄷㅇㅏㅆㄷㅓㄴ</w>": 2379,
  "ㄷㅗㄷㅜㄱ": 2380,
  "ㄷㅗㄷㅜㄱㄴㅗㅁ": 2381,
  "ㄷㅗㄹ": 2382,
  "ㄷㅗㄹ</w>": 2383,
  "ㄷㅗㄹㄹㅕ": 2384,
  "ㄷㅗㄹㄹㅕㄱㅏㅁㅕㄴㅅㅓ</w>": 2385,
  "ㄷㅗㄹㄹㅣ": 2386,
  "ㄷㅗㄹㄹㅣㄴㄷㅏ.</w>": 2387,
  "ㄷㅗㄹㅁㅔㅇ": 2388,
  "ㄷㅗㄹㅁㅔㅇㅇㅣ</w>": 2389,
  "ㄷㅗㄹㅁㅔㅇㅇㅣㄹㅡㄹ</w>": 2390,
  "ㄷㅗㄹㅁㅕ</w>": 2391,
  "ㄷㅗㄹㅇㅏ": 2392,
  "ㄷㅗㄹㅇㅏ</w>": 2393,
  "ㄷㅗㄹㅇㅏㄱㅏ": 2394,
  "ㄷㅗㄹㅇㅏㄱㅏㄴ</w>": 2395,
  "ㄷㅗㄹㅇㅏㄱㅏㄴㅡㄴ</w>": 2396,
  "ㄷㅗㄹㅇㅏㄱㅏㄴㅣㄲㅏ</w>": 2397,
  "ㄷㅗㄹㅇㅏㄱㅏㄹ</w>": 2398,
  "ㄷㅗㄹㅇㅏㄱㅏㅅㅣ": 2399,
  "ㄷㅗㄹㅇㅏㄱㅏㅅㅣㄴ</w>": 2400,
  "ㄷㅗㄹㅇㅏㄱㅏㅅㅣㅁㅕㄴ</w>": 2401,
  "ㄷㅗㄹㅇㅏㄱㅏㅆ": 2402,
  "ㄷㅗㄹㅇㅏㄱㅏㅆㅅㅡㅂㄴㅣㄷㅏ.</w>": 2403,
  "ㄷㅗㄹㅇㅏㄱㅏㅈㅣ</w>": 2404,
  "ㄷㅗㄹㅇㅏㄷㅏㄴㅕ": 2405,
  "ㄷㅗㄹㅇㅏㄷㅏㄴㅕㅆㅅㅡㅂㄴㅣㄷㅏ.</w>": 2406,
  "ㄷㅗㄹㅇㅏㄷㅏㄴㅣ": 2407,
  "ㄷㅗㄹㅇㅏㄷㅏㅂㅗ": 2408,
  "ㄷㅗㄹㅇㅏㄷㅏㅂㅗㄴㅣ</w>": 2409,
  "ㄷㅗㄹㅇㅏㅂㅗ": 2410,
  "ㄷㅗㄹㅇㅏㅅㅓ</w>": 2411,
  "ㄷㅗㄹㅇㅏㅇㅗ": 2412,
  "ㄷㅗㄹㅇㅏㅇㅗㄱㅣㄹ</w>": 2413,
  "ㄷㅗㄹㅇㅏㅇㅗㄱㅣㄹㅡㄹ</w>": 2414,
  "ㄷㅗㄹㅇㅏㅇㅗㄴ</w>": 2415,
  "ㄷㅗㄹㅇㅏㅇㅗㄴㅡㄴ</w>": 2416,
  "ㄷㅗㄹㅇㅏㅇㅗㄹ</w>": 2417,
  "ㄷㅗㄹㅇㅏㅇㅗㅁㅕㄴ</w>": 2418,
  "ㄷㅗㄹㅇㅏㅇㅗㅅㅕㅆㅅㅡㅂㄴㅣㄷㅏ.</w>": 2419,
  "ㄷㅗㄹㅇㅏㅇㅗㅅㅣ": 2420,
  "ㄷㅗㄹㅇㅏㅇㅗㅅㅣㄹ": 2421,
  "ㄷㅗㄹㅇㅏㅇㅗㅅㅣㄹ</w>": 2422,
  "ㄷㅗㄹㅇㅏㅇㅗㅈㅣ</w>": 2423,
  "ㄷㅗㄹㅇㅏㅇㅘ</w>": 2424,
  "ㄷㅗㄹㅇㅏㅇㅘㅅㅓ</w>": 2425,
  "ㄷㅗㄹㅇㅏㅇㅘㅆㅅㅡㅂㄴㅣㄷㅏ.</w>": 2426,
  "ㄷㅗㄹㅇㅣ</w>": 2427,
  "ㄷㅗㄹㅗ</w>": 2428,
  "ㄷㅗㄹㅗㄱ</w>": 2429,
  "ㄷㅗㄹㅣㄱㅏ</w>": 2430,
  "ㄷㅗㄹㅣㅇㅓ</w>": 2431,
  "ㄷㅗㅁㅏㅇ": 2432,
  "ㄷㅗㅁㅏㅇㄱㅏㄹ</w>": 2433,
  "ㄷㅗㅁㅜㅈㅣ</w>": 2434,
  "ㄷㅗㅅㅣㄹㅏ": 2435,
  "ㄷㅗㅅㅣㄹㅏㄱ": 2436,
  "ㄷㅗㅅㅣㄹㅏㄱ!”</w>": 2437,
  "ㄷㅗㅅㅣㄹㅏㄱ</w>": 2438,
  "ㄷㅗㅅㅣㄹㅏㄱ’": 2439,
  "ㄷㅗㅅㅣㄹㅏㄱ’ㅇㅣㄹㅏㄱㅗ</w>": 2440,
  "ㄷㅗㅅㅣㄹㅏㄱㅂㅏㅂㅇㅡㄹ</w>": 2441,
  "ㄷㅗㅅㅣㄹㅏㄱㅇㅡㄴ</w>": 2442,
  "ㄷㅗㅅㅣㄹㅏㄱㅇㅡㄹ": 2443,
  "ㄷㅗㅅㅣㄹㅏㄱㅇㅡㄹ</w>": 2444,
  "ㄷㅗㅅㅣㄹㅏㄱㅇㅣ</w>": 2445,
  "ㄷㅗㅅㅣㄹㅏㄱㅇㅣㄹㅏㄱㅗ</w>": 2446,
  "ㄷㅗㅇ": 2447,
  "ㄷㅗㅇ</w>": 2448,
  "ㄷㅗㅇㄴㅔ": 2449,
  "ㄷㅗㅇㄴㅔㄹㅡㄹ</w>": 2450,
  "ㄷㅗㅇㄷㅐㅁㅜㄴ</w>": 2451,
  "ㄷㅗㅇㄷㅐㅇㅇㅣ": 2452,
  "ㄷㅗㅇㄹㅣ": 2453,
  "ㄷㅗㅇㄹㅣ</w>": 2454,
  "ㄷㅗㅇㄹㅣㅇㅔ</w>": 2455,
  "ㄷㅗㅇㄹㅣㅇㅔㅅㅓ</w>": 2456,
  "ㄷㅗㅇㄹㅣㅇㅢ</w>": 2457,
  "ㄷㅗㅇㅁㅜ": 2458,
  "ㄷㅗㅇㅁㅜ</w>": 2459,
  "ㄷㅗㅇㅁㅜㄱㅏ</w>": 2460,
  "ㄷㅗㅇㅁㅜㄴㅏ</w>": 2461,
  "ㄷㅗㅇㅁㅜㄴㅣㅁㄴㅔㅇㅑ</w>": 2462,
  "ㄷㅗㅇㅁㅜㄷㅡㄹ</w>": 2463,
  "ㄷㅗㅇㅁㅜㄷㅡㄹㅇㅔㄱㅔ</w>": 2464,
  "ㄷㅗㅇㅁㅜㄷㅡㄹㅇㅡㄴ</w>": 2465,
  "ㄷㅗㅇㅁㅜㄷㅡㄹㅇㅣ</w>": 2466,
  "ㄷㅗㅇㅁㅜㄹ": 2467,
  "ㄷㅗㅇㅁㅜㄹㅏ": 2468,
  "ㄷㅗㅇㅁㅜㄹㅡㄹ</w>": 2469,
  "ㄷㅗㅇㅁㅜㅇㅔㄱㅔ</w>": 2470,
  "ㄷㅗㅇㅁㅜㅇㅢ</w>": 2471,
  "ㄷㅗㅇㅂㅐㄱ": 2472,
  "ㄷㅗㅇㅅㅏㄴ</w>": 2473,
  "ㄷㅗㅇㅅㅏㄴㅇㅔ</w>": 2474,
  "ㄷㅗㅇㅅㅐㅇ": 2475,
  "ㄷㅗㅇㅅㅐㅇ</w>": 2476,
  "ㄷㅗㅇㅅㅐㅇㅇㅡㄴ</w>": 2477,
  "ㄷㅗㅇㅅㅐㅇㅇㅡㄹ</w>": 2478,
  "ㄷㅗㅇㅅㅐㅇㅇㅢ</w>": 2479,
  "ㄷㅗㅇㅅㅐㅇㅇㅣ</w>": 2480,
  "ㄷㅗㅇㅅㅓㄴ": 2481,
  "ㄷㅗㅇㅅㅓㄴ</w>": 2482,
  "ㄷㅗㅇㅅㅓㄴㅇㅣ</w>": 2483,
  "ㄷㅗㅇㅅㅓㄴㅇㅣㄱㅏ</w>": 2484,
  "ㄷㅗㅇㅅㅓㄴㅇㅣㄴㅡㄴ</w>": 2485,
  "ㄷㅗㅇㅅㅓㄴㅇㅣㄹㅡㄹ</w>": 2486,
  "ㄷㅗㅇㅅㅓㄴㅇㅣㅇㅢ</w>": 2487,
  "ㄷㅗㅇㅅㅗㅁㅜㄴ</w>": 2488,
  "ㄷㅗㅇㅅㅣㅇㅔ</w>": 2489,
  "ㄷㅗㅇㅇㅏ": 2490,
  "ㄷㅗㅇㅇㅏㄴ": 2491,
  "ㄷㅗㅇㅇㅏㄴ</w>": 2492,
  "ㄷㅗㅇㅇㅏㄴㅇㅔ</w>": 2493,
  "ㄷㅗㅇㅇㅏㄴㅇㅡㄴ</w>": 2494,
  "ㄷㅗㅇㅇㅏㄴㅇㅡㄹ</w>": 2495,
  "ㄷㅗㅇㅇㅏㄴㅇㅣㄴㅏ</w>": 2496,
  "ㄷㅗㅇㅇㅏㅈㅜㄹ</w>": 2497,
  "ㄷㅗㅇㅇㅏㅈㅜㄹㅇㅡㄹ</w>": 2498,
  "ㄷㅗㅇㅇㅡㄹ</w>": 2499,
  "ㄷㅗㅇㅇㅣ</w>": 2500,
  "ㄷㅗㅇㅈㅓㅇ": 2501,
  "ㄷㅗㅇㅈㅓㅇㅇㅡㄹ</w>": 2502,
  "ㄷㅗㅇㅊㅏㅇㅔ</w>": 2503,
  "ㄷㅗㅇㅊㅔ": 2504,
  "ㄷㅗㅇㅔ</w>": 2505,
  "ㄷㅗㅇㅘ": 2506,
  "ㄷㅗㅇㅜ": 2507,
  "ㄷㅗㅇㅜㅁㅇㅣ</w>": 2508,
  "ㄷㅗㅈㅓㄱ": 2509,
  "ㄷㅗㅈㅓㄱ</w>": 2510,
  "ㄷㅗㅈㅓㄱㄴㅗㅁ": 2511,
  "ㄷㅗㅈㅓㄱㄴㅗㅁㅇㅡㄴ</w>": 2512,
  "ㄷㅗㅈㅓㄱㄴㅗㅁㅇㅣ</w>": 2513,
  "ㄷㅗㅈㅓㄱㅇㅣ</w>": 2514,
  "ㄷㅗㅊㅏㄱ": 2515,
  "ㄷㅗㅎㅏㄱㅗ</w>": 2516,
  "ㄷㅗㅎㅘ": 2517,
  "ㄷㅙ": 2518,
  "ㄷㅙㅅㅓ</w>": 2519,
  "ㄷㅙㅆ": 2520,
  "ㄷㅚ": 2521,
  "ㄷㅚ-</w>": 2522,
  "ㄷㅚ</w>": 2523,
  "ㄷㅚㄱㅔ</w>": 2524,
  "ㄷㅚㄱㅔㅆ": 2525,
  "ㄷㅚㄱㅗ</w>": 2526,
  "ㄷㅚㄱㅣ</w>": 2527,
  "ㄷㅚㄴ": 2528,
  "ㄷㅚㄴ</w>": 2529,
  "ㄷㅚㄴㄷㅏ": 2530,
  "ㄷㅚㄴㄷㅏ.</w>": 2531,
  "ㄷㅚㄴㄷㅏ.”</w>": 2532,
  "ㄷㅚㄴㄷㅏㄴ</w>": 2533,
  "ㄷㅚㄴㄷㅏㄴㅡㄴ</w>": 2534,
  "ㄷㅚㄴㄷㅏㅁㅕㄴ</w>": 2535,
  "ㄷㅚㄴㅡㄴ": 2536,
  "ㄷㅚㄴㅡㄴ</w>": 2537,
  "ㄷㅚㄴㅣㄲㅏㄴ</w>": 2538,
  "ㄷㅚㄷㅓㄴ</w>": 2539,
  "ㄷㅚㄷㅗㄹㅗㄱ</w>": 2540,
  "ㄷㅚㄹ": 2541,
  "ㄷㅚㄹ</w>": 2542,
  "ㄷㅚㄹㄴㅡㄴㅈㅣ</w>": 2543,
  "ㄷㅚㄹㄴㅡㄴㅈㅣㄷㅗ</w>": 2544,
  "ㄷㅚㄹㅣㄹㅏㄱㅗ</w>": 2545,
  "ㄷㅚㅁㅕㄴ</w>": 2546,
  "ㄷㅚㅂㄴㅣㄷㅏ.</w>": 2547,
  "ㄷㅚㅇㅓ": 2548,
  "ㄷㅚㅇㅓ</w>": 2549,
  "ㄷㅚㅇㅓㅅㅓ</w>": 2550,
  "ㄷㅚㅇㅓㅆ": 2551,
  "ㄷㅚㅇㅓㅆㄴㅡㄴㅈㅣ</w>": 2552,
  "ㄷㅚㅇㅓㅆㄷㅏ.</w>": 2553,
  "ㄷㅚㅇㅓㅆㄷㅏㄴㄷㅏ.</w>": 2554,
  "ㄷㅚㅇㅓㅆㅅㅡㅂㄴㅣㄷㅏ.</w>": 2555,
  "ㄷㅚㅇㅓㅆㅈㅣㅁㅏㄴ</w>": 2556,
  "ㄷㅚㅈㅏ</w>": 2557,
  "ㄷㅚㅈㅣ</w>": 2558,
  "ㄷㅚㅍㅜㄹㅇㅣㅎㅏㄱㅗ</w>": 2559,
  "ㄷㅜ": 2560,
  "ㄷㅜ</w>": 2561,
  "ㄷㅜㄱ</w>": 2562,
  "ㄷㅜㄱㅗ</w>": 2563,
  "ㄷㅜㄱㅡㄴ": 2564,
  "ㄷㅜㄱㅡㄴㄱㅓㄹㅣㄴㅡㄴ</w>": 2565,
  "ㄷㅜㄴ</w>": 2566,
  "ㄷㅜㄴㅡㄴ</w>": 2567,
  "ㄷㅜㄷㅏㅅㅣㅍㅣ</w>": 2568,
  "ㄷㅜㄷㅡㄹ": 2569,
  "ㄷㅜㄷㅡㄹㅣ": 2570,
  "ㄷㅜㄹ": 2571,
  "ㄷㅜㄹ</w>": 2572,
  "ㄷㅜㄹㄹㅓ": 2573,
  "ㄷㅜㄹㄹㅓㅆㅏ": 2574,
  "ㄷㅜㄹㅇㅣ</w>": 2575,
  "ㄷㅜㄹㅇㅣㅅㅓ</w>": 2576,
  "ㄷㅜㄹㅇㅣㅅㅓㄴㅡㄴ</w>": 2577,
  "ㄷㅜㄹㅉㅐ</w>": 2578,
  "ㄷㅜㄹㅔ": 2579,
  "ㄷㅜㄹㅔㅂㅏ": 2580,
  "ㄷㅜㄹㅔㅂㅏㄱㅇㅡㄹ</w>": 2581,
  "ㄷㅜㄹㅔㅂㅏㄱㅇㅣ</w>": 2582,
  "ㄷㅜㄹㅕ": 2583,
  "ㄷㅜㄹㅕㅇㅜㄴ</w>": 2584,
  "ㄷㅜㄹㅜ</w>": 2585,
  "ㄷㅜㄹㅜㅁㅏㄱㅣ</w>": 2586,
  "ㄷㅜㄹㅡㄴ</w>": 2587,
  "ㄷㅜㄹㅣ": 2588,
  "ㄷㅜㅂㅜㄹㅡㄹ</w>": 2589,
  "ㄷㅜㅅㅓㄴㅓ</w>": 2590,
  "ㄷㅜㅇ": 2591,
  "ㄷㅜㅇ</w>": 2592,
  "ㄷㅜㅇㄱㅏㅌㅇㅣ</w>": 2593,
  "ㄷㅜㅇㅓ": 2594,
  "ㄷㅜㅇㅓ</w>": 2595,
  "ㄷㅜㅇㅓㄹㅏ.”</w>": 2596,
  "ㄷㅜㅇㅓㅆ": 2597,
  "ㄷㅜㅇㅓㅆㄷㅏ.</w>": 2598,
  "ㄷㅜㅇㅓㅆㄷㅓㄴ</w>": 2599,
  "ㄷㅜㅇㅓㅆㅅㅡㅂㄴㅣㄷㅏ.</w>": 2600,
  "ㄷㅜㅌㅓ": 2601,
  "ㄷㅟ": 2602,
  "ㄷㅟ</w>": 2603,
  "ㄷㅟㄲㅕ": 2604,
  "ㄷㅟㄲㅕㅌ</w>": 2605,
  "ㄷㅟㄷㅏ.</w>": 2606,
  "ㄷㅟㄷㅗ</w>": 2607,
  "ㄷㅟㄸㅡㄹ": 2608,
  "ㄷㅟㄹㅗ</w>": 2609,
  "ㄷㅟㄹㅗㄴㅡㄴ</w>": 2610,
  "ㄷㅟㄹㅡㄹ</w>": 2611,
  "ㄷㅟㅅ": 2612,
  "ㄷㅟㅇ": 2613,
  "ㄷㅟㅇㄱㅜㄹ</w>": 2614,
  "ㄷㅟㅇㅔ</w>": 2615,
  "ㄷㅟㅇㅔㄴㅡㄴ</w>": 2616,
  "ㄷㅟㅇㅔㅅㅓ</w>": 2617,
  "ㄷㅟㅇㅢ</w>": 2618,
  "ㄷㅟㅈㅣㅂㅇㅓㅆ": 2619,
  "ㄷㅟㅈㅣㅂㅇㅓㅆㅓ": 2620,
  "ㄷㅟㅈㅣㅂㅇㅓㅆㅡㄱㅗ</w>": 2621,
  "ㄷㅟㅊㅜㄱ</w>": 2622,
  "ㄷㅡ": 2623,
  "ㄷㅡㄱ": 2624,
  "ㄷㅡㄱ</w>": 2625,
  "ㄷㅡㄱㅍㅜㄷㅡ": 2626,
  "ㄷㅡㄴ": 2627,
  "ㄷㅡㄴ</w>": 2628,
  "ㄷㅡㄴㄷㅏ.</w>": 2629,
  "ㄷㅡㄴㅈㅣ</w>": 2630,
  "ㄷㅡㄴㅏㄷㅡㄹ</w>": 2631,
  "ㄷㅡㄴㅡㄴ</w>": 2632,
  "ㄷㅡㄷ": 2633,
  "ㄷㅡㄷㄱㅗ</w>": 2634,
  "ㄷㅡㄷㄴㅡㄴ</w>": 2635,
  "ㄷㅡㄷㄷㅓㄴㅣ</w>": 2636,
  "ㄷㅡㄷㅈㅣ</w>": 2637,
  "ㄷㅡㄷㅣㅇㅓ</w>": 2638,
  "ㄷㅡㄹ": 2639,
  "ㄷㅡㄹ,</w>": 2640,
  "ㄷㅡㄹ</w>": 2641,
  "ㄷㅡㄹㄱㅗ,</w>": 2642,
  "ㄷㅡㄹㄱㅗ</w>": 2643,
  "ㄷㅡㄹㄱㅗㄴㅡㄴ</w>": 2644,
  "ㄷㅡㄹㄱㅘ</w>": 2645,
  "ㄷㅡㄹㄱㅣ</w>": 2646,
  "ㄷㅡㄹㄷㅗ</w>": 2647,
  "ㄷㅡㄹㄷㅗㄹㅗㄱ</w>": 2648,
  "ㄷㅡㄹㄹㅓ": 2649,
  "ㄷㅡㄹㄹㅓㅅㅓ</w>": 2650,
  "ㄷㅡㄹㄹㅕ": 2651,
  "ㄷㅡㄹㄹㅕ</w>": 2652,
  "ㄷㅡㄹㄹㅕㅆㄷㅏ.</w>": 2653,
  "ㄷㅡㄹㄹㅕㅆㅅㅡㅂㄴㅣㄷㅏ.</w>": 2654,
  "ㄷㅡㄹㄹㅕㅇㅗㄴㄷㅏ.</w>": 2655,
  "ㄷㅡㄹㄹㅕㅇㅘㅅㅓ</w>": 2656,
  "ㄷㅡㄹㄹㅕㅇㅘㅆㅅㅡㅂㄴㅣㄷㅏ.</w>": 2657,
  "ㄷㅡㄹㄹㅗ</w>": 2658,
  "ㄷㅡㄹㄹㅣㄱㅣ</w>": 2659,
  "ㄷㅡㄹㄹㅣㄴㄷㅏ.</w>": 2660,
  "ㄷㅡㄹㄹㅣㄴㅡㄴ</w>": 2661,
  "ㄷㅡㄹㅁㅕㄴㅅㅓ</w>": 2662,
  "ㄷㅡㄹㅇㅓ": 2663,
  "ㄷㅡㄹㅇㅓ</w>": 2664,
  "ㄷㅡㄹㅇㅓㄱㅏ": 2665,
  "ㄷㅡㄹㅇㅓㄱㅏ</w>": 2666,
  "ㄷㅡㄹㅇㅓㄱㅏㄴ": 2667,
  "ㄷㅡㄹㅇㅓㄱㅏㄴ</w>": 2668,
  "ㄷㅡㄹㅇㅓㄱㅏㄴㅡㄴ</w>": 2669,
  "ㄷㅡㄹㅇㅓㄱㅏㅅㅓ</w>": 2670,
  "ㄷㅡㄹㅇㅓㄱㅏㅅㅕㅆㅅㅡㅂㄴㅣㄷㅏ.</w>": 2671,
  "ㄷㅡㄹㅇㅓㄱㅏㅆㄷㅏ.</w>": 2672,
  "ㄷㅡㄹㅇㅓㄱㅏㅆㄷㅏㄱㅏ</w>": 2673,
  "ㄷㅡㄹㅇㅓㄱㅏㅆㅅㅡㅂㄴㅣㄷㅏ.</w>": 2674,
  "ㄷㅡㄹㅇㅓㅅㅓ": 2675,
  "ㄷㅡㄹㅇㅓㅅㅓ</w>": 2676,
  "ㄷㅡㄹㅇㅓㅅㅓㅆㅅㅡㅂㄴㅣㄷㅏ.</w>": 2677,
  "ㄷㅡㄹㅇㅓㅆ": 2678,
  "ㄷㅡㄹㅇㅓㅆㄷㅏ.</w>": 2679,
  "ㄷㅡㄹㅇㅓㅆㅅㅡㅂㄴㅣㄷㅏ.</w>": 2680,
  "ㄷㅡㄹㅇㅓㅆㅇㅡㄴㅣ</w>": 2681,
  "ㄷㅡㄹㅇㅓㅆㅇㅡㄹ</w>": 2682,
  "ㄷㅡㄹㅇㅓㅇㅗ": 2683,
  "ㄷㅡㄹㅇㅓㅇㅗㄴ</w>": 2684,
  "ㄷㅡㄹㅇㅓㅇㅗㄴㅡㄴ</w>": 2685,
  "ㄷㅡㄹㅇㅓㅇㅗㅁㅕㄴ</w>": 2686,
  "ㄷㅡㄹㅇㅓㅇㅘ": 2687,
  "ㄷㅡㄹㅇㅓㅇㅘ</w>": 2688,
  "ㄷㅡㄹㅇㅓㅇㅘㅅㅓ</w>": 2689,
  "ㄷㅡㄹㅇㅓㅇㅘㅆ": 2690,
  "ㄷㅡㄹㅇㅓㅇㅘㅆㄷㅏ.</w>": 2691,
  "ㄷㅡㄹㅇㅓㅇㅘㅆㅅㅡㅂㄴㅣㄷㅏ.</w>": 2692,
  "ㄷㅡㄹㅇㅔㄱㅔ</w>": 2693,
  "ㄷㅡㄹㅇㅕ": 2694,
  "ㄷㅡㄹㅇㅕ</w>": 2695,
  "ㄷㅡㄹㅇㅕㄴㅗㅎ": 2696,
  "ㄷㅡㄹㅇㅕㄴㅗㅎㅇㅡㄴ</w>": 2697,
  "ㄷㅡㄹㅇㅕㄷㅏㅂㅗ": 2698,
  "ㄷㅡㄹㅇㅕㄷㅏㅂㅗㄱㅗ</w>": 2699,
  "ㄷㅡㄹㅇㅕㄷㅏㅂㅗㄴㅡㄴ</w>": 2700,
  "ㄷㅡㄹㅇㅕㄷㅏㅂㅗㅁㅕㄴㅅㅓ</w>": 2701,
  "ㄷㅡㄹㅇㅡㄴ</w>": 2702,
  "ㄷㅡㄹㅇㅡㄹ</w>": 2703,
  "ㄷㅡㄹㅇㅡㅁㅕㄴㅅㅓ</w>": 2704,
  "ㄷㅡㄹㅇㅡㅅㅣ": 2705,
  "ㄷㅡㄹㅇㅢ</w>": 2706,
  "ㄷㅡㄹㅇㅣ": 2707,
  "ㄷㅡㄹㅇㅣ</w>": 2708,
  "ㄷㅡㄹㅇㅣㅁㅏ": 2709,
  "ㄷㅡㄹㅇㅣㅇㅓㅆㅅㅡㅂㄴㅣㄷㅏ.</w>": 2710,
  "ㄷㅡㄹㅇㅣㅋㅕ": 2711,
  "ㄷㅡㄹㅈㅏㅁㅏㅈㅏ</w>": 2712,
  "ㄷㅡㄹㅈㅣ</w>": 2713,
  "ㄷㅡㄹㅊㅏㅇ": 2714,
  "ㄷㅡㄹㅊㅏㅇㅇㅔ</w>": 2715,
  "ㄷㅡㄹㅊㅕ</w>": 2716,
  "ㄷㅡㄹㅋㅣ": 2717,
  "ㄷㅡㄹㅋㅣㄷㅡㄴㅈㅣ</w>": 2718,
  "ㄷㅡㄹㅏ": 2719,
  "ㄷㅡㄹㅓ": 2720,
  "ㄷㅡㄹㅕ": 2721,
  "ㄷㅡㄹㅕㅆㅅㅡㅂㄴㅣㄷㅏ.</w>": 2722,
  "ㄷㅡㄹㅣ": 2723,
  "ㄷㅡㄹㅣㄱㅗ</w>": 2724,
  "ㄷㅡㄹㅣㄴ</w>": 2725,
  "ㄷㅡㄹㅣㄹ</w>": 2726,
  "ㄷㅡㄹㅣㄹㅕㄱㅗ</w>": 2727,
  "ㄷㅡㅁ": 2728,
  "ㄷㅡㅁㅜㄴ</w>": 2729,
  "ㄷㅡㅁㅜㄴㄷㅡㅁㅜㄴ</w>": 2730,
  "ㄷㅡㅅ": 2731,
  "ㄷㅡㅅ</w>": 2732,
  "ㄷㅡㅅㅅㅣㅍ": 2733,
  "ㄷㅡㅅㅅㅣㅍㄷㅏ.</w>": 2734,
  "ㄷㅡㅅㅇㅣ,</w>": 2735,
  "ㄷㅡㅅㅇㅣ</w>": 2736,
  "ㄷㅡㅅㅎㅏㄴ</w>": 2737,
  "ㄷㅡㅅㅎㅏㄷㅏ.</w>": 2738,
  "ㄷㅡㅅㅎㅏㄷㅓㄴㅣ</w>": 2739,
  "ㄷㅡㅅㅎㅏㅇㅕㅆㄷㅏ.</w>": 2740,
  "ㄷㅡㅅㅎㅏㅇㅕㅆㅅㅡㅂㄴㅣㄷㅏ.</w>": 2741,
  "ㄷㅡㅇ": 2742,
  "ㄷㅡㅇ</w>": 2743,
  "ㄷㅡㅇㄱㅓㄹ": 2744,
  "ㄷㅡㅇㅇㅔ</w>": 2745,
  "ㄷㅡㅇㅇㅡㄹ</w>": 2746,
  "ㄷㅡㅇㅇㅣ</w>": 2747,
  "ㄷㅣ": 2748,
  "ㄷㅣ</w>": 2749,
  "ㄷㅣㄷ": 2750,
  "ㄷㅣㄷㅏ.”</w>": 2751,
  "ㄷㅣㄷㅣ": 2752,
  "ㄷㅣㄷㅣㄱㅗ</w>": 2753,
  "ㄸ": 2754,
  "ㄸㅏ": 2755,
  "ㄸㅏㄱ": 2756,
  "ㄸㅏㄱ</w>": 2757,
  "ㄸㅏㄱㄸㅏㄱ</w>": 2758,
  "ㄸㅏㄱㅡㄴ": 2759,
  "ㄸㅏㄴ": 2760,
  "ㄸㅏㄴㅍㅏㄴㅇㅡㄹㅗ</w>": 2761,
  "ㄸㅏㄷㅡㅅㅎㅏㄴ</w>": 2762,
  "ㄸㅏㄸㅡㅅ": 2763,
  "ㄸㅏㄸㅡㅅㅎㅏㄴ</w>": 2764,
  "ㄸㅏㄹ": 2765,
  "ㄸㅏㄹ</w>": 2766,
  "ㄸㅏㄹㅇㅏ</w>": 2767,
  "ㄸㅏㄹㅇㅡㄹ</w>": 2768,
  "ㄸㅏㄹㅏ": 2769,
  "ㄸㅏㄹㅏ</w>": 2770,
  "ㄸㅏㄹㅏㅅㅓ</w>": 2771,
  "ㄸㅏㄹㅡ": 2772,
  "ㄸㅏㄹㅡㄱㅗ</w>": 2773,
  "ㄸㅏㅁ</w>": 2774,
  "ㄸㅏㅁㅇㅣ</w>": 2775,
  "ㄸㅏㅅㅓ</w>": 2776,
  "ㄸㅏㅇ": 2777,
  "ㄸㅏㅇ</w>": 2778,
  "ㄸㅏㅇㅂㅏㄷㅏㄱㅇㅔ</w>": 2779,
  "ㄸㅏㅇㅇㅔ</w>": 2780,
  "ㄸㅏㅇㅇㅡㄹ</w>": 2781,
  "ㄸㅏㅇㅇㅣ</w>": 2782,
  "ㄸㅏㅇㅟ</w>": 2783,
  "ㄸㅐ": 2784,
  "ㄸㅐ,</w>": 2785,
  "ㄸㅐ</w>": 2786,
  "ㄸㅐㄱㅏ</w>": 2787,
  "ㄸㅐㄲㅏ": 2788,
  "ㄸㅐㄲㅏㅈㅣ</w>": 2789,
  "ㄸㅐㄴㅡㄴ</w>": 2790,
  "ㄸㅐㄷㅡㄴㅈㅣ</w>": 2791,
  "ㄸㅐㄹㅕ": 2792,
  "ㄸㅐㄹㅕ</w>": 2793,
  "ㄸㅐㄹㅕㅆ": 2794,
  "ㄸㅐㄹㅕㅆㅅㅡㅂㄴㅣㄷㅏ.</w>": 2795,
  "ㄸㅐㄹㅡㄹ</w>": 2796,
  "ㄸㅐㄹㅣ": 2797,
  "ㄸㅐㄹㅣㄴㅡㄴ</w>": 2798,
  "ㄸㅐㅁㅏㄴ</w>": 2799,
  "ㄸㅐㅁㅏㄷㅏ</w>": 2800,
  "ㄸㅐㅁㅕㄴ</w>": 2801,
  "ㄸㅐㅁㅜㄴ": 2802,
  "ㄸㅐㅁㅜㄴㅇㅔ</w>": 2803,
  "ㄸㅐㅁㅜㄴㅇㅣㄷㅏ.</w>": 2804,
  "ㄸㅐㅂㅜㅌㅓ</w>": 2805,
  "ㄸㅐㅇ": 2806,
  "ㄸㅐㅇㅔ": 2807,
  "ㄸㅐㅇㅔ</w>": 2808,
  "ㄸㅐㅇㅔㄴㅡㄴ</w>": 2809,
  "ㄸㅐㅇㅕㅆㅅㅡㅂㄴㅣㄷㅏ.</w>": 2810,
  "ㄸㅓ": 2811,
  "ㄸㅓ</w>": 2812,
  "ㄸㅓㄱ": 2813,
  "ㄸㅓㄱ</w>": 2814,
  "ㄸㅓㄴㅏ": 2815,
  "ㄸㅓㄴㅏㄱㅏ": 2816,
  "ㄸㅓㄴㅏㄱㅏㅅㅣㄴ</w>": 2817,
  "ㄸㅓㄴㅏㄴㅡㄴ</w>": 2818,
  "ㄸㅓㄴㅏㄹ</w>": 2819,
  "ㄸㅓㄴㅏㅅㅓ</w>": 2820,
  "ㄸㅓㄴㅏㅅㅕㅆ": 2821,
  "ㄸㅓㄷㅡㄹㅁㅕㄴㅅㅓ</w>": 2822,
  "ㄸㅓㄹ": 2823,
  "ㄸㅓㄹ!</w>": 2824,
  "ㄸㅓㄹㄱㅗ</w>": 2825,
  "ㄸㅓㄹㄱㅣ</w>": 2826,
  "ㄸㅓㄹㄹㅓ": 2827,
  "ㄸㅓㄹㄹㅕ</w>": 2828,
  "ㄸㅓㄹㄹㅕㅆ": 2829,
  "ㄸㅓㄹㄹㅣㄴㄷㅏ.</w>": 2830,
  "ㄸㅓㄹㅇㅓ": 2831,
  "ㄸㅓㄹㅇㅓ</w>": 2832,
  "ㄸㅓㄹㅇㅓㄸㅡㄹㅕ</w>": 2833,
  "ㄸㅓㄹㅇㅓㅈㅕ": 2834,
  "ㄸㅓㄹㅇㅓㅈㅕ</w>": 2835,
  "ㄸㅓㄹㅇㅓㅈㅕㅅㅓ</w>": 2836,
  "ㄸㅓㄹㅇㅓㅈㅕㅆ": 2837,
  "ㄸㅓㄹㅇㅓㅈㅕㅆㄷㅏ.</w>": 2838,
  "ㄸㅓㄹㅇㅓㅈㅕㅆㅅㅡㅂㄴㅣㄷㅏ.</w>": 2839,
  "ㄸㅓㄹㅇㅓㅈㅣ": 2840,
  "ㄸㅓㄹㅇㅓㅈㅣㄱㅗ</w>": 2841,
  "ㄸㅓㄹㅇㅓㅈㅣㄱㅗㄴㅡㄴ</w>": 2842,
  "ㄸㅓㄹㅇㅓㅈㅣㄱㅣㄱㅏ</w>": 2843,
  "ㄸㅓㄹㅇㅓㅈㅣㄴ</w>": 2844,
  "ㄸㅓㄹㅇㅓㅈㅣㄴㄷㅏ.</w>": 2845,
  "ㄸㅓㄹㅇㅓㅈㅣㄹ</w>": 2846,
  "ㄸㅓㄹㅇㅓㅈㅣㅁㅕㄴ</w>": 2847,
  "ㄸㅓㄹㅇㅓㅌㅡㄹ": 2848,
  "ㄸㅓㄹㅇㅓㅌㅡㄹㅕ": 2849,
  "ㄸㅓㄹㅇㅓㅌㅡㄹㅕㅆ": 2850,
  "ㄸㅓㅅㅓ</w>": 2851,
  "ㄸㅓㅇㅗㄹ": 2852,
  "ㄸㅓㅇㅗㄹㄹㅏ": 2853,
  "ㄸㅓㅇㅗㄹㄹㅏㅅㅓ</w>": 2854,
  "ㄸㅓㅇㅗㄹㄹㅏㅆㅅㅡㅂㄴㅣㄷㅏ.</w>": 2855,
  "ㄸㅓㅇㅗㄹㅡ": 2856,
  "ㄸㅓㅇㅗㄹㅡㄴㅡㄴ</w>": 2857,
  "ㄸㅓㅇㅗㄹㅡㄹ</w>": 2858,
  "ㄸㅔ": 2859,
  "ㄸㅔㄱㅏ</w>": 2860,
  "ㄸㅔㄱㅗ</w>": 2861,
  "ㄸㅔㅇㅓ": 2862,
  "ㄸㅔㅇㅓ</w>": 2863,
  "ㄸㅗ": 2864,
  "ㄸㅗ</w>": 2865,
  "ㄸㅗㄱ": 2866,
  "ㄸㅗㄱ</w>": 2867,
  "ㄸㅗㄱㄱㅏㅌㅇㅣ</w>": 2868,
  "ㄸㅗㄱㄸㅗㄱ": 2869,
  "ㄸㅗㄱㄸㅗㄱㅎㅏㄴ</w>": 2870,
  "ㄸㅗㄱㄸㅗㄱㅎㅣ</w>": 2871,
  "ㄸㅗㄴㅡㄴ</w>": 2872,
  "ㄸㅗㄷㅏㅅㅣ</w>": 2873,
  "ㄸㅗㅇ": 2874,
  "ㄸㅗㅇ</w>": 2875,
  "ㄸㅗㅎㅏㄴ</w>": 2876,
  "ㄸㅜ": 2877,
  "ㄸㅜㄱ": 2878,
  "ㄸㅜㄱ</w>": 2879,
  "ㄸㅜㄱㄸㅜㄱ</w>": 2880,
  "ㄸㅜㄲㅓㅇㅇㅡㄹ</w>": 2881,
  "ㄸㅜㄷㅡㄹㄱㅣ": 2882,
  "ㄸㅜㄹ": 2883,
  "ㄸㅜㅀ": 2884,
  "ㄸㅜㅇ": 2885,
  "ㄸㅜㅇㄸㅜㅇ": 2886,
  "ㄸㅟ": 2887,
  "ㄸㅟㄱㅗ</w>": 2888,
  "ㄸㅟㄴㅗㄹ": 2889,
  "ㄸㅟㄴㅗㄹㄱㅗ</w>": 2890,
  "ㄸㅟㅇㅓ": 2891,
  "ㄸㅟㅇㅓ</w>": 2892,
  "ㄸㅟㅇㅓㄱㅏㄴㅡㄴ</w>": 2893,
  "ㄸㅟㅇㅓㄱㅏㅅㅓ</w>": 2894,
  "ㄸㅟㅇㅓㄱㅏㅆㄷㅏ.</w>": 2895,
  "ㄸㅟㅇㅓㄱㅏㅆㅅㅡㅂㄴㅣㄷㅏ.</w>": 2896,
  "ㄸㅟㅇㅓㅇㅗㄴ</w>": 2897,
  "ㄸㅟㅇㅓㅇㅘㅅㅓ</w>": 2898,
  "ㄸㅟㅇㅓㅇㅘㅆㅅㅡㅂㄴㅣㄷㅏ.</w>": 2899,
  "ㄸㅡ": 2900,
  "ㄸㅡㄱ": 2901,
  "ㄸㅡㄱ</w>": 2902,
  "ㄸㅡㄱㅓ": 2903,
  "ㄸㅡㄱㅓㅇㅜㄴ</w>": 2904,
  "ㄸㅡㄱㅗ</w>": 2905,
  "ㄸㅡㄲㅡㄴ": 2906,
  "ㄸㅡㄴ</w>": 2907,
  "ㄸㅡㄷ": 2908,
  "ㄸㅡㄷㅇㅓ": 2909,
  "ㄸㅡㄹ": 2910,
  "ㄸㅡㄹㅣ": 2911,
  "ㄸㅡㄹㅣㄴㅡㄴ</w>": 2912,
  "ㄸㅡㅅ": 2913,
  "ㄸㅡㅅ</w>": 2914,
  "ㄸㅡㅅㅂㅏㄲㅇㅔ</w>": 2915,
  "ㄸㅡㅅㅂㅏㄲㅇㅔㄷㅗ</w>": 2916,
  "ㄸㅡㅅㅇㅡㄹ</w>": 2917,
  "ㄸㅡㅅㅇㅡㄹㅗ</w>": 2918,
  "ㄸㅢ": 2919,
  "ㄸㅢㅇㅓㅆㄷㅏ.</w>": 2920,
  "ㄸㅢㅇㅜ": 2921,
  "ㄸㅢㅇㅜㄱㅗ</w>": 2922,
  "ㄸㅣ": 2923,
  "ㄸㅣㄱㅗ</w>": 2924,
  "ㄸㅣㅇㅜ": 2925,
  "ㄹ": 2926,
  "ㄹ</w>": 2927,
  "ㄹㅇㅡㄹ</w>": 2928,
  "ㄹㅇㅣ</w>": 2929,
  "ㄹㅎㅏㄴ</w>": 2930,
  "ㄹㅏ": 2931,
  "ㄹㅏ,</w>": 2932,
  "ㄹㅏ.</w>": 2933,
  "ㄹㅏ.”</w>": 2934,
  "ㄹㅏ</w>": 2935,
  "ㄹㅏㄱㅗ,</w>": 2936,
  "ㄹㅏㄱㅗ</w>": 2937,
  "ㄹㅏㄱㅗㄷㅗ</w>": 2938,
  "ㄹㅏㄴ": 2939,
  "ㄹㅏㄴ</w>": 2940,
  "ㄹㅏㄴㄷㅏ.</w>": 2941,
  "ㄹㅏㄴㅇㅡㄹ</w>": 2942,
  "ㄹㅏㄴㅡㄴ</w>": 2943,
  "ㄹㅏㄷㅗ</w>": 2944,
  "ㄹㅏㅁ": 2945,
  "ㄹㅏㅁㅇㅣ</w>": 2946,
  "ㄹㅏㅁㅕㄴ</w>": 2947,
  "ㄹㅏㅇ": 2948,
  "ㄹㅏㅇ</w>": 2949,
  "ㄹㅏㅎㄱㅔ</w>": 2950,
  "ㄹㅐ": 2951,
  "ㄹㅐ</w>": 2952,
  "ㄹㅐㄹㅡㄹ</w>": 2953,
  "ㄹㅑㅇ</w>": 2954,
  "ㄹㅓ": 2955,
  "ㄹㅓ</w>": 2956,
  "ㄹㅓㄱ</w>": 2957,
  "ㄹㅓㄴ</w>": 2958,
  "ㄹㅓㄴㅎㅣ</w>": 2959,
  "ㄹㅓㄴㅏ</w>": 2960,
  "ㄹㅓㅁ</w>": 2961,
  "ㄹㅓㅅㅣ": 2962,
  "ㄹㅓㅅㅣㅇㅏ</w>": 2963,
  "ㄹㅓㅆㄷㅏ.</w>": 2964,
  "ㄹㅓㅇ</w>": 2965,
  "ㄹㅓㅎ": 2966,
  "ㄹㅓㅎㄱㅔ</w>": 2967,
  "ㄹㅔ": 2968,
  "ㄹㅕ": 2969,
  "ㄹㅕ</w>": 2970,
  "ㄹㅕㄱ": 2971,
  "ㄹㅕㄱㅇㅡㄹ</w>": 2972,
  "ㄹㅕㄱㅗ</w>": 2973,
  "ㄹㅕㄴ": 2974,
  "ㄹㅕㄴ</w>": 2975,
  "ㄹㅕㄴㅡㄴ</w>": 2976,
  "ㄹㅕㄷㅓㄴ</w>": 2977,
  "ㄹㅕㅅㅓ</w>": 2978,
  "ㄹㅕㅆ": 2979,
  "ㄹㅕㅆㄷㅏ.</w>": 2980,
  "ㄹㅕㅆㅅㅡㅂㄴㅣㄷㅏ.</w>": 2981,
  "ㄹㅕㅇ": 2982,
  "ㄹㅕㅇㅇㅡㄹ</w>": 2983,
  "ㄹㅗ": 2984,
  "ㄹㅗ,</w>": 2985,
  "ㄹㅗ</w>": 2986,
  "ㄹㅗㄴ": 2987,
  "ㄹㅗㄴㅡㄴ</w>": 2988,
  "ㄹㅗㅁㅏㄴ</w>": 2989,
  "ㄹㅗㅂ": 2990,
  "ㄹㅗㅂㅜㅌㅓ,</w>": 2991,
  "ㄹㅗㅂㅜㅌㅓ</w>": 2992,
  "ㄹㅗㅇ": 2993,
  "ㄹㅗㅇㅜㄴ</w>": 2994,
  "ㄹㅜ": 2995,
  "ㄹㅜ</w>": 2996,
  "ㄹㅜㄱ": 2997,
  "ㄹㅠ": 2998,
  "ㄹㅡ": 2999,
  "ㄹㅡㄹ</w>": 3000,
  "ㄹㅡㅁ": 3001,
  "ㄹㅣ": 3002,
  "ㄹㅣ</w>": 3003,
  "ㄹㅣㄱㅏ</w>": 3004,
  "ㄹㅣㄱㅗ</w>": 3005,
  "ㄹㅣㄱㅣ</w>": 3006,
  "ㄹㅣㄴ": 3007,
  "ㄹㅣㄴ</w>": 3008,
  "ㄹㅣㄴㄷㅏ,</w>": 3009,
  "ㄹㅣㄴㄷㅏ.</w>": 3010,
  "ㄹㅣㄴㅡㄴ</w>": 3011,
  "ㄹㅣㄷㅓㄴㅣ</w>": 3012,
  "ㄹㅣㄹ</w>": 3013,
  "ㄹㅣㄹㅏ</w>": 3014,
  "ㄹㅣㄹㅏㄱㅗ</w>": 3015,
  "ㄹㅣㄹㅡㄹ</w>": 3016,
  "ㄹㅣㅁ": 3017,
  "ㄹㅣㅇㅓ</w>": 3018,
  "ㄹㅣㅇㅓㅆㄷㅏ.</w>": 3019,
  "ㄹㅣㅇㅔ</w>": 3020,
  "ㄹㅣㅈㅣ</w>": 3021,
  "ㄺ": 3022,
  "ㄺㅇㅡㄴ</w>": 3023,
  "ㄼ": 3024,
  "ㄼㅇㅡㄴ</w>": 3025,
  "ㅁ": 3026,
  "ㅁ</w>": 3027,
  "ㅁㄱㅘ</w>": 3028,
  "ㅁㅇㅔ</w>": 3029,
  "ㅁㅇㅡㄴ</w>": 3030,
  "ㅁㅇㅡㄹ</w>": 3031,
  "ㅁㅇㅣ</w>": 3032,
  "ㅁㅊㅓ": 3033,
  "ㅁㅎㅏㄴ</w>": 3034,
  "ㅁㅏ": 3035,
  "ㅁㅏ.</w>": 3036,
  "ㅁㅏ.”</w>": 3037,
  "ㅁㅏ</w>": 3038,
  "ㅁㅏㄱ": 3039,
  "ㅁㅏㄱ</w>": 3040,
  "ㅁㅏㄱㄱㅗ</w>": 3041,
  "ㅁㅏㄱㄷㅐㄱㅣㄹㅡㄹ</w>": 3042,
  "ㅁㅏㄱㄷㅗㅇ": 3043,
  "ㅁㅏㄱㄷㅗㅇㅇㅣ</w>": 3044,
  "ㅁㅏㄱㄷㅗㅇㅇㅣㄴㅡㄴ</w>": 3045,
  "ㅁㅏㄱㄷㅗㅇㅇㅣㄹㅡㄹ</w>": 3046,
  "ㅁㅏㄱㄷㅜㅇ": 3047,
  "ㅁㅏㄱㄷㅜㅇㅇㅣㄴㅡㄴ</w>": 3048,
  "ㅁㅏㄱㅇㅏ": 3049,
  "ㅁㅏㄱㅎㅏㄴ</w>": 3050,
  "ㅁㅏㄱㅎㅕㅅㅓ</w>": 3051,
  "ㅁㅏㄱㅎㅣㄴㅡㄴ</w>": 3052,
  "ㅁㅏㄱㅐㄹㅡㄹ</w>": 3053,
  "ㅁㅏㄱㅜ</w>": 3054,
  "ㅁㅏㄴ": 3055,
  "ㅁㅏㄴ,</w>": 3056,
  "ㅁㅏㄴ</w>": 3057,
  "ㅁㅏㄴㄴㅏ": 3058,
  "ㅁㅏㄴㄴㅏ</w>": 3059,
  "ㅁㅏㄴㄴㅏㄴ</w>": 3060,
  "ㅁㅏㄴㄴㅏㄴㅡㄴ</w>": 3061,
  "ㅁㅏㄴㄴㅏㄹ</w>": 3062,
  "ㅁㅏㄴㄴㅏㅂㅗ": 3063,
  "ㅁㅏㄴㄴㅏㅂㅗㄱㅔ</w>": 3064,
  "ㅁㅏㄴㄴㅏㅅㅓ</w>": 3065,
  "ㅁㅏㄴㄴㅏㅈㅏ.</w>": 3066,
  "ㅁㅏㄴㄷㅏ.</w>": 3067,
  "ㅁㅏㄴㄷㅡㄴ</w>": 3068,
  "ㅁㅏㄴㄷㅡㄹㄱㅗ": 3069,
  "ㅁㅏㄴㄷㅡㄹㄹㅕ</w>": 3070,
  "ㅁㅏㄴㄷㅡㄹㅇㅓ": 3071,
  "ㅁㅏㄴㄷㅡㄹㅇㅓ</w>": 3072,
  "ㅁㅏㄴㅅㅔ": 3073,
  "ㅁㅏㄴㅅㅔ!</w>": 3074,
  "ㅁㅏㄴㅅㅔ!”</w>": 3075,
  "ㅁㅏㄴㅅㅔ!”ㄹㅡㄹ</w>": 3076,
  "ㅁㅏㄴㅇㅑㄱ</w>": 3077,
  "ㅁㅏㄴㅇㅔ</w>": 3078,
  "ㅁㅏㄴㅇㅡㄴ</w>": 3079,
  "ㅁㅏㄴㅇㅡㄹ</w>": 3080,
  "ㅁㅏㄴㅇㅣㄹ</w>": 3081,
  "ㅁㅏㄴㅈㅕ": 3082,
  "ㅁㅏㄴㅈㅗㄱ": 3083,
  "ㅁㅏㄴㅈㅜ": 3084,
  "ㅁㅏㄴㅈㅜㄱㅜㄱ": 3085,
  "ㅁㅏㄴㅈㅜㄹ": 3086,
  "ㅁㅏㄴㅊㅣ</w>": 3087,
  "ㅁㅏㄴㅋㅡㅁ</w>": 3088,
  "ㅁㅏㄴㅎㅏㄴ</w>": 3089,
  "ㅁㅏㄴㅏ": 3090,
  "ㅁㅏㄴㅏㄴㅣㅁㄲㅔㅅㅓ</w>": 3091,
  "ㅁㅏㄴㅏㄴㅣㅁㅇㅡㄹ</w>": 3092,
  "ㅁㅏㄴㅏㄴㅣㅁㅇㅣ</w>": 3093,
  "ㅁㅏㄴㅜㄹㅏ": 3094,
  "ㅁㅏㄴㅜㄹㅏ</w>": 3095,
  "ㅁㅏㄴㅜㄹㅏㄱㅏ</w>": 3096,
  "ㅁㅏㄴㅡㄴ</w>": 3097,
  "ㅁㅏㄴㅣㅁ": 3098,
  "ㅁㅏㄴㅣㅁㄲㅔㅅㅓ</w>": 3099,
  "ㅁㅏㄴㅣㅁㅇㅣ</w>": 3100,
  "ㅁㅏㄶ": 3101,
  "ㅁㅏㄶ</w>": 3102,
  "ㅁㅏㄶㄱㅗ</w>": 3103,
  "ㅁㅏㄶㅇㅏㅆㅅㅡㅂㄴㅣㄷㅏ.</w>": 3104,
  "ㅁㅏㄶㅇㅡㄴ": 3105,
  "ㅁㅏㄶㅇㅡㄴ</w>": 3106,
  "ㅁㅏㄶㅇㅣ</w>": 3107,
  "ㅁㅏㄷㅏ</w>": 3108,
  "ㅁㅏㄷㅗ</w>": 3109,
  "ㅁㅏㄷㅣ</w>": 3110,
  "ㅁㅏㄹ": 3111,
  "ㅁㅏㄹ</w>": 3112,
  "ㅁㅏㄹㄱㅗ": 3113,
  "ㅁㅏㄹㄱㅗ</w>": 3114,
  "ㅁㅏㄹㄱㅘ</w>": 3115,
  "ㅁㅏㄹㄱㅜ</w>": 3116,
  "ㅁㅏㄹㄲㅡㅌ": 3117,
  "ㅁㅏㄹㄷㅗ": 3118,
  "ㅁㅏㄹㄷㅗ</w>": 3119,
  "ㅁㅏㄹㄹㅏ": 3120,
  "ㅁㅏㄹㄹㅕ": 3121,
  "ㅁㅏㄹㄹㅕ</w>": 3122,
  "ㅁㅏㄹㄹㅗ</w>": 3123,
  "ㅁㅏㄹㅁㅏㄸㅏㄴㅏ</w>": 3124,
  "ㅁㅏㄹㅁㅣㅇㅏㅁㅇㅏ</w>": 3125,
  "ㅁㅏㄹㅅㅗㄹㅣㄴㅡㄴ</w>": 3126,
  "ㅁㅏㄹㅆㅡㅁ": 3127,
  "ㅁㅏㄹㅆㅡㅁ</w>": 3128,
  "ㅁㅏㄹㅆㅡㅁㄷㅡㄹㅕ": 3129,
  "ㅁㅏㄹㅆㅡㅁㅇㅡㄴ</w>": 3130,
  "ㅁㅏㄹㅆㅡㅁㅇㅡㄹ</w>": 3131,
  "ㅁㅏㄹㅆㅡㅁㅇㅣ</w>": 3132,
  "ㅁㅏㄹㅆㅡㅁㅎㅏㅅㅕㅆㅅㅡㅂㄴㅣㄷㅏ.</w>": 3133,
  "ㅁㅏㄹㅆㅡㅁㅎㅏㅅㅣ": 3134,
  "ㅁㅏㄹㅆㅡㅁㅎㅏㅅㅣㄴ</w>": 3135,
  "ㅁㅏㄹㅆㅡㅁㅎㅏㅅㅣㅁㅕㄴㅅㅓ</w>": 3136,
  "ㅁㅏㄹㅆㅡㅁㅎㅏㅅㅣㅇㅓㅆㅅㅡㅂㄴㅣㄷㅏ.</w>": 3137,
  "ㅁㅏㄹㅇㅏ": 3138,
  "ㅁㅏㄹㅇㅏㄹㅏ.</w>": 3139,
  "ㅁㅏㄹㅇㅏㄹㅏ.”</w>": 3140,
  "ㅁㅏㄹㅇㅏㅆ": 3141,
  "ㅁㅏㄹㅇㅏㅆㄷㅏ.</w>": 3142,
  "ㅁㅏㄹㅇㅏㅆㅅㅡㅂㄴㅣㄷㅏ.</w>": 3143,
  "ㅁㅏㄹㅇㅏㅇㅑ</w>": 3144,
  "ㅁㅏㄹㅇㅑ,</w>": 3145,
  "ㅁㅏㄹㅇㅔ</w>": 3146,
  "ㅁㅏㄹㅇㅔㄴㅡㄴ</w>": 3147,
  "ㅁㅏㄹㅇㅡㄴ</w>": 3148,
  "ㅁㅏㄹㅇㅡㄹ</w>": 3149,
  "ㅁㅏㄹㅇㅣ": 3150,
  "ㅁㅏㄹㅇㅣ</w>": 3151,
  "ㅁㅏㄹㅇㅣㄴㄱㅏ": 3152,
  "ㅁㅏㄹㅇㅣㄴㄱㅏ?</w>": 3153,
  "ㅁㅏㄹㅇㅣㄴㅈㅣ</w>": 3154,
  "ㅁㅏㄹㅇㅣㄴㅑ": 3155,
  "ㅁㅏㄹㅇㅣㄴㅑ?</w>": 3156,
  "ㅁㅏㄹㅇㅣㄴㅑ?”</w>": 3157,
  "ㅁㅏㄹㅇㅣㄴㅑ”</w>": 3158,
  "ㅁㅏㄹㅇㅣㄷㅏ.</w>": 3159,
  "ㅁㅏㄹㅇㅣㄷㅏ.”</w>": 3160,
  "ㅁㅏㄹㅇㅣㅇㅑ": 3161,
  "ㅁㅏㄹㅇㅣㅇㅗ.</w>": 3162,
  "ㅁㅏㄹㅇㅣㅈㅣ.</w>": 3163,
  "ㅁㅏㄹㅎㅏ": 3164,
  "ㅁㅏㄹㅎㅏㄱㅗ</w>": 3165,
  "ㅁㅏㄹㅎㅏㄴ</w>": 3166,
  "ㅁㅏㄹㅎㅏㄴㅡㄴ</w>": 3167,
  "ㅁㅏㄹㅎㅏㄷㅓㄹㅏ.</w>": 3168,
  "ㅁㅏㄹㅎㅏㄹ</w>": 3169,
  "ㅁㅏㄹㅎㅏㅁㅕㄴ</w>": 3170,
  "ㅁㅏㄹㅎㅏㅁㅕㄴㅅㅓ</w>": 3171,
  "ㅁㅏㄹㅎㅏㅇㅕ": 3172,
  "ㅁㅏㄹㅎㅏㅇㅕㅆㄷㅏ.</w>": 3173,
  "ㅁㅏㄹㅎㅏㅇㅕㅆㅅㅡㅂㄴㅣㄷㅏ.</w>": 3174,
  "ㅁㅏㄹㅎㅏㅈㅏㅁㅕㄴ</w>": 3175,
  "ㅁㅏㄹㅎㅏㅈㅣ</w>": 3176,
  "ㅁㅏㄹㅎㅐ": 3177,
  "ㅁㅏㄹㅎㅐㅂㅗㄹ": 3178,
  "ㅁㅏㄹㅎㅐㅆㅅㅡㅂㄴㅣㄷㅏ.</w>": 3179,
  "ㅁㅏㄹㅏ": 3180,
  "ㅁㅏㄹㅏ.</w>": 3181,
  "ㅁㅏㄹㅏㅌㅗㄴㅇㅡㄹ</w>": 3182,
  "ㅁㅏㄹㅜ": 3183,
  "ㅁㅏㄹㅜㅅ": 3184,
  "ㅁㅏㄹㅡ": 3185,
  "ㅁㅏㄹㅣ": 3186,
  "ㅁㅏㄹㅣㄱㅏ</w>": 3187,
  "ㅁㅏㄺ": 3188,
  "ㅁㅏㅁ": 3189,
  "ㅁㅏㅁㄲㅓㅅ</w>": 3190,
  "ㅁㅏㅁㄷㅐㄹㅗ</w>": 3191,
  "ㅁㅏㅁㅏㄴㅣㅁ": 3192,
  "ㅁㅏㅅ": 3193,
  "ㅁㅏㅅㅇㅡㄹ</w>": 3194,
  "ㅁㅏㅅㅇㅣ</w>": 3195,
  "ㅁㅏㅅㅇㅣㅆㄱㅔ</w>": 3196,
  "ㅁㅏㅅㅕㅆㄷㅏ.</w>": 3197,
  "ㅁㅏㅅㅣ": 3198,
  "ㅁㅏㅅㅣㄱㅗ</w>": 3199,
  "ㅁㅏㅇ": 3200,
  "ㅁㅏㅇ</w>": 3201,
  "ㅁㅏㅇㅈㅓㅇ</w>": 3202,
  "ㅁㅏㅇㅎㅏㄴ</w>": 3203,
  "ㅁㅏㅇㅎㅏㄹ</w>": 3204,
  "ㅁㅏㅇㅡㅁ": 3205,
  "ㅁㅏㅇㅡㅁ</w>": 3206,
  "ㅁㅏㅇㅡㅁㄲㅓㅅ</w>": 3207,
  "ㅁㅏㅇㅡㅁㄷㅐㄹㅗ</w>": 3208,
  "ㅁㅏㅇㅡㅁㅅㅗㄱㅇㅔ</w>": 3209,
  "ㅁㅏㅇㅡㅁㅅㅗㄱㅇㅔㅅㅓ</w>": 3210,
  "ㅁㅏㅇㅡㅁㅅㅗㄱㅇㅡㄹ</w>": 3211,
  "ㅁㅏㅇㅡㅁㅅㅗㄱㅇㅡㄹㅗ</w>": 3212,
  "ㅁㅏㅇㅡㅁㅇㅔ</w>": 3213,
  "ㅁㅏㅇㅡㅁㅇㅔㄷㅗ</w>": 3214,
  "ㅁㅏㅇㅡㅁㅇㅡㄴ</w>": 3215,
  "ㅁㅏㅇㅡㅁㅇㅡㄹ</w>": 3216,
  "ㅁㅏㅇㅡㅁㅇㅡㄹㅗ</w>": 3217,
  "ㅁㅏㅇㅡㅁㅇㅣ</w>": 3218,
  "ㅁㅏㅇㅡㅁㅈㅗㅊㅏ</w>": 3219,
  "ㅁㅏㅈ": 3220,
  "ㅁㅏㅈㄱㅗ</w>": 3221,
  "ㅁㅏㅈㄴㅡㄴ</w>": 3222,
  "ㅁㅏㅈㄷㅐㄱㅗ</w>": 3223,
  "ㅁㅏㅈㅂㅜㅌ": 3224,
  "ㅁㅏㅈㅂㅜㅌㅇㅓ</w>": 3225,
  "ㅁㅏㅈㅂㅜㅌㅇㅓㅅㅓ</w>": 3226,
  "ㅁㅏㅈㅇㅏ</w>": 3227,
  "ㅁㅏㅈㅇㅏㅅㅓ</w>": 3228,
  "ㅁㅏㅈㅇㅏㅆ": 3229,
  "ㅁㅏㅈㅇㅡㄴ</w>": 3230,
  "ㅁㅏㅈㅇㅡㄹ</w>": 3231,
  "ㅁㅏㅈㅇㅡㅁㅕ</w>": 3232,
  "ㅁㅏㅈㅇㅣ": 3233,
  "ㅁㅏㅈㅈㅣ</w>": 3234,
  "ㅁㅏㅈㅊㅜㅇㅓ</w>": 3235,
  "ㅁㅏㅈㅓ</w>": 3236,
  "ㅁㅏㅈㅜ</w>": 3237,
  "ㅁㅏㅈㅜㅇ</w>": 3238,
  "ㅁㅏㅈㅣ": 3239,
  "ㅁㅏㅊㅣ": 3240,
  "ㅁㅏㅊㅣ</w>": 3241,
  "ㅁㅏㅊㅣㅁ</w>": 3242,
  "ㅁㅏㅌ": 3243,
  "ㅁㅏㅌㄱㅣㄱㅗ</w>": 3244,
  "ㅁㅏㅌㅇㅏ</w>": 3245,
  "ㅁㅏㅎㅏㄴ</w>": 3246,
  "ㅁㅐ": 3247,
  "ㅁㅐ</w>": 3248,
  "ㅁㅐㄱㅇㅓㅄㅇㅣ</w>": 3249,
  "ㅁㅐㄱㅏ</w>": 3250,
  "ㅁㅐㄱㅗ</w>": 3251,
  "ㅁㅐㄴ": 3252,
  "ㅁㅐㄴ</w>": 3253,
  "ㅁㅐㄷㅏㄹ": 3254,
  "ㅁㅐㄷㅏㄹㅇㅔ</w>": 3255,
  "ㅁㅐㄹㅡㄹ</w>": 3256,
  "ㅁㅐㅇ": 3257,
  "ㅁㅐㅇㅅㅔ": 3258,
  "ㅁㅐㅇㅅㅔ</w>": 3259,
  "ㅁㅐㅇㅅㅔㄹㅡㄹ</w>": 3260,
  "ㅁㅐㅇㅅㅔㅎㅏㄴ</w>": 3261,
  "ㅁㅐㅇㅜ</w>": 3262,
  "ㅁㅐㅇㅣㄴ</w>": 3263,
  "ㅁㅐㅇㅣㄹ</w>": 3264,
  "ㅁㅐㅈ": 3265,
  "ㅁㅓ": 3266,
  "ㅁㅓㄱ": 3267,
  "ㅁㅓㄱ</w>": 3268,
  "ㅁㅓㄱㄱㅗ</w>": 3269,
  "ㅁㅓㄱㄱㅣ</w>": 3270,
  "ㅁㅓㄱㄴㅡㄴ</w>": 3271,
  "ㅁㅓㄱㄷㅓㄴ</w>": 3272,
  "ㅁㅓㄱㅇㅓ": 3273,
  "ㅁㅓㄱㅇㅓ</w>": 3274,
  "ㅁㅓㄱㅇㅓㄷㅗ</w>": 3275,
  "ㅁㅓㄱㅇㅓㄹㅏ.”</w>": 3276,
  "ㅁㅓㄱㅇㅓㅆ": 3277,
  "ㅁㅓㄱㅇㅓㅆㄷㅏ.</w>": 3278,
  "ㅁㅓㄱㅇㅓㅆㅅㅡㅂㄴㅣㄷㅏ.</w>": 3279,
  "ㅁㅓㄱㅇㅓㅇㅑㅈㅣ</w>": 3280,
  "ㅁㅓㄱㅇㅕ</w>": 3281,
  "ㅁㅓㄱㅇㅡㄴ</w>": 3282,
  "ㅁㅓㄱㅇㅡㄹ</w>": 3283,
  "ㅁㅓㄱㅇㅡㅁㅕㄴ</w>": 3284,
  "ㅁㅓㄱㅇㅡㅁㅕㄴㅅㅓ</w>": 3285,
  "ㅁㅓㄱㅇㅣ": 3286,
  "ㅁㅓㄱㅇㅣㄹㅡㄹ</w>": 3287,
  "ㅁㅓㄱㅈㅣㄹㅡㄹ</w>": 3288,
  "ㅁㅓㄴ": 3289,
  "ㅁㅓㄴ</w>": 3290,
  "ㅁㅓㄴㅈㅓ</w>": 3291,
  "ㅁㅓㄴㅣ": 3292,
  "ㅁㅓㄴㅣㄱㅏ</w>": 3293,
  "ㅁㅓㄹ": 3294,
  "ㅁㅓㄹ-ㄹㅣ</w>": 3295,
  "ㅁㅓㄹㄱㅓㄴㅣ</w>": 3296,
  "ㅁㅓㄹㄱㅗ</w>": 3297,
  "ㅁㅓㄹㄹㅣ</w>": 3298,
  "ㅁㅓㄹㅈㅣ</w>": 3299,
  "ㅁㅓㄹㅣ": 3300,
  "ㅁㅓㄹㅣ</w>": 3301,
  "ㅁㅓㄹㅣㄱㅏ</w>": 3302,
  "ㅁㅓㄹㅣㄴㅡㄴ</w>": 3303,
  "ㅁㅓㄹㅣㄹㅡㄹ</w>": 3304,
  "ㅁㅓㄹㅣㅁㅏㅌ": 3305,
  "ㅁㅓㄹㅣㅁㅏㅌㅇㅔ</w>": 3306,
  "ㅁㅓㄹㅣㅅ": 3307,
  "ㅁㅓㄹㅣㅅㅅㅗㄱㅇㅔ</w>": 3308,
  "ㅁㅓㄹㅣㅇㅔ</w>": 3309,
  "ㅁㅓㄹㅣㅇㅘ</w>": 3310,
  "ㅁㅓㅁ": 3311,
  "ㅁㅓㅁㅊㅜ": 3312,
  "ㅁㅓㅁㅊㅜㄱㅗ</w>": 3313,
  "ㅁㅓㅁㅜㅅ": 3314,
  "ㅁㅓㅅ": 3315,
  "ㅁㅓㅇ": 3316,
  "ㅁㅓㅇㅁㅓㅇ": 3317,
  "ㅁㅓㅇㅇㅡㄹ</w>": 3318,
  "ㅁㅓㅇㅎㅏㄴㅣ</w>": 3319,
  "ㅁㅓㅈㅣ": 3320,
  "ㅁㅔ": 3321,
  "ㅁㅔㄷㅏㄹ": 3322,
  "ㅁㅔㄷㅏㄹ</w>": 3323,
  "ㅁㅔㄷㅏㄹㅇㅡㄴ</w>": 3324,
  "ㅁㅔㄷㅏㄹㅇㅡㄹ</w>": 3325,
  "ㅁㅔㅇㅏ": 3326,
  "ㅁㅔㅇㅏㄹㅣ": 3327,
  "ㅁㅔㅇㅕ</w>": 3328,
  "ㅁㅕ": 3329,
  "ㅁㅕ,</w>": 3330,
  "ㅁㅕ</w>": 3331,
  "ㅁㅕㄱ": 3332,
  "ㅁㅕㄱㅅㅏㄹㅇㅡㄹ</w>": 3333,
  "ㅁㅕㄴ": 3334,
  "ㅁㅕㄴ,</w>": 3335,
  "ㅁㅕㄴ</w>": 3336,
  "ㅁㅕㄴㄷㅜㄹㅡㄹ</w>": 3337,
  "ㅁㅕㄴㅅㅓ": 3338,
  "ㅁㅕㄴㅅㅓ,</w>": 3339,
  "ㅁㅕㄴㅅㅓ</w>": 3340,
  "ㅁㅕㄴㅅㅓㄷㅗ</w>": 3341,
  "ㅁㅕㄴㅇㅡㄴ</w>": 3342,
  "ㅁㅕㅇ": 3343,
  "ㅁㅕㅇ</w>": 3344,
  "ㅁㅕㅇㄱㅣㄹ": 3345,
  "ㅁㅕㅇㄱㅣㄹ</w>": 3346,
  "ㅁㅕㅇㄱㅣㄹㅇㅏ!\"</w>": 3347,
  "ㅁㅕㅇㄱㅣㄹㅇㅏ!</w>": 3348,
  "ㅁㅕㅇㄱㅣㄹㅇㅢ</w>": 3349,
  "ㅁㅕㅇㄱㅣㄹㅇㅣ</w>": 3350,
  "ㅁㅕㅇㄱㅣㄹㅇㅣㄱㅏ</w>": 3351,
  "ㅁㅕㅇㄱㅣㄹㅇㅣㄴㅡㄴ</w>": 3352,
  "ㅁㅕㅇㄱㅣㄹㅇㅣㄹㅡㄹ</w>": 3353,
  "ㅁㅕㅇㄴㅏㅁ": 3354,
  "ㅁㅕㅇㄴㅏㅁㅇㅣ</w>": 3355,
  "ㅁㅕㅇㄴㅏㅁㅇㅣㄱㅏ</w>": 3356,
  "ㅁㅕㅇㄴㅏㅁㅇㅣㄴㅡㄴ</w>": 3357,
  "ㅁㅕㅇㄴㅏㅁㅇㅣㄹㅡㄹ</w>": 3358,
  "ㅁㅕㅇㄴㅏㅁㅇㅣㅇㅢ</w>": 3359,
  "ㅁㅕㅇㄹㅏㅇㅎㅏㄴ</w>": 3360,
  "ㅁㅕㅇㄹㅕㅇㅇㅡㄹ</w>": 3361,
  "ㅁㅕㅇㅅㅜㄴ": 3362,
  "ㅁㅕㅇㅅㅣㄱ": 3363,
  "ㅁㅕㅇㅅㅣㄱㅇㅣ</w>": 3364,
  "ㅁㅕㅇㅅㅣㄱㅇㅣㅇㅘ</w>": 3365,
  "ㅁㅕㅇㅇㅡㄹ</w>": 3366,
  "ㅁㅕㅇㅇㅢ</w>": 3367,
  "ㅁㅕㅇㅇㅣ</w>": 3368,
  "ㅁㅕㅇㅇㅣㄴㅏ</w>": 3369,
  "ㅁㅕㅇㅈㅏㅇ</w>": 3370,
  "ㅁㅕㅇㅈㅜ</w>": 3371,
  "ㅁㅕㅇㅎㅏ": 3372,
  "ㅁㅕㅊ": 3373,
  "ㅁㅕㅊ</w>": 3374,
  "ㅁㅕㅊㅣㄹ</w>": 3375,
  "ㅁㅗ": 3376,
  "ㅁㅗ</w>": 3377,
  "ㅁㅗㄱ": 3378,
  "ㅁㅗㄱ</w>": 3379,
  "ㅁㅗㄱㄷㅗㄹㅣ": 3380,
  "ㅁㅗㄱㅁㅔ": 3381,
  "ㅁㅗㄱㅁㅔㅇㅣㄴ</w>": 3382,
  "ㅁㅗㄱㅅㅗㄹㅣㄹㅗ</w>": 3383,
  "ㅁㅗㄱㅅㅗㄹㅣㄹㅡㄹ</w>": 3384,
  "ㅁㅗㄱㅅㅜㅁㅇㅣ</w>": 3385,
  "ㅁㅗㄱㅇㅔ</w>": 3386,
  "ㅁㅗㄱㅇㅛㄱ": 3387,
  "ㅁㅗㄱㅇㅛㄱㅇㅡㄹ</w>": 3388,
  "ㅁㅗㄱㅇㅛㄱㅌㅏㅇ": 3389,
  "ㅁㅗㄱㅇㅡㄹ</w>": 3390,
  "ㅁㅗㄱㅇㅣ</w>": 3391,
  "ㅁㅗㄱㅈㅓㄱ": 3392,
  "ㅁㅗㄴㅕㄹㅡㄹ</w>": 3393,
  "ㅁㅗㄷㅜ": 3394,
  "ㅁㅗㄷㅜ</w>": 3395,
  "ㅁㅗㄷㅜㄷㅡㄹ</w>": 3396,
  "ㅁㅗㄷㅡㄴ</w>": 3397,
  "ㅁㅗㄹ": 3398,
  "ㅁㅗㄹㄱㅗ</w>": 3399,
  "ㅁㅗㄹㄹㅏ": 3400,
  "ㅁㅗㄹㄹㅏ</w>": 3401,
  "ㅁㅗㄹㄹㅏㅅㅓ</w>": 3402,
  "ㅁㅗㄹㄹㅏㅆ": 3403,
  "ㅁㅗㄹㄹㅏㅆㄱㅜㄴㅏ.</w>": 3404,
  "ㅁㅗㄹㄹㅏㅆㄷㅏ.</w>": 3405,
  "ㅁㅗㄹㄹㅏㅆㄷㅓㄴㅣ</w>": 3406,
  "ㅁㅗㄹㄹㅏㅆㅅㅡㅂㄴㅣㄷㅏ.</w>": 3407,
  "ㅁㅗㄹㄹㅐ</w>": 3408,
  "ㅁㅗㄹㄹㅕ": 3409,
  "ㅁㅗㄹㄹㅕ</w>": 3410,
  "ㅁㅗㄹㅔ</w>": 3411,
  "ㅁㅗㄹㅡ": 3412,
  "ㅁㅗㄹㅡㄱㅔ</w>": 3413,
  "ㅁㅗㄹㅡㄱㅔㅆ": 3414,
  "ㅁㅗㄹㅡㄱㅔㅆㄷㅏ.</w>": 3415,
  "ㅁㅗㄹㅡㄱㅗ</w>": 3416,
  "ㅁㅗㄹㅡㄴ": 3417,
  "ㅁㅗㄹㅡㄴ</w>": 3418,
  "ㅁㅗㄹㅡㄴㄷㅏ.</w>": 3419,
  "ㅁㅗㄹㅡㄴㅡㄴ</w>": 3420,
  "ㅁㅗㄹㅡㄷㅏㄱㅏ</w>": 3421,
  "ㅁㅗㄹㅡㄹ</w>": 3422,
  "ㅁㅗㅁ": 3423,
  "ㅁㅗㅁ</w>": 3424,
  "ㅁㅗㅁㄸㅜ": 3425,
  "ㅁㅗㅁㄸㅜㅇ": 3426,
  "ㅁㅗㅁㅇㅔ</w>": 3427,
  "ㅁㅗㅁㅇㅡㄴ</w>": 3428,
  "ㅁㅗㅁㅇㅡㄹ</w>": 3429,
  "ㅁㅗㅁㅇㅡㄹㅗ</w>": 3430,
  "ㅁㅗㅁㅇㅣ</w>": 3431,
  "ㅁㅗㅂ": 3432,
  "ㅁㅗㅂㅅㅣ": 3433,
  "ㅁㅗㅂㅅㅣ</w>": 3434,
  "ㅁㅗㅂㅅㅣㄷㅗ</w>": 3435,
  "ㅁㅗㅅ": 3436,
  "ㅁㅗㅅ</w>": 3437,
  "ㅁㅗㅅㄴㅏㄴ</w>": 3438,
  "ㅁㅗㅅㄷㅚㄴ</w>": 3439,
  "ㅁㅗㅅㅅㅏㄹㄱㅔ</w>": 3440,
  "ㅁㅗㅅㅇㅣ</w>": 3441,
  "ㅁㅗㅅㅎㅏ": 3442,
  "ㅁㅗㅅㅎㅏㄱㅔ</w>": 3443,
  "ㅁㅗㅅㅎㅏㄱㅗ</w>": 3444,
  "ㅁㅗㅅㅎㅏㄴ": 3445,
  "ㅁㅗㅅㅎㅏㄴ</w>": 3446,
  "ㅁㅗㅅㅎㅏㄴㄷㅏ.</w>": 3447,
  "ㅁㅗㅅㅎㅏㄴㅡㄴ</w>": 3448,
  "ㅁㅗㅅㅎㅏㄹ</w>": 3449,
  "ㅁㅗㅅㅎㅏㅇㅕ</w>": 3450,
  "ㅁㅗㅅㅎㅏㅇㅕㅆ": 3451,
  "ㅁㅗㅅㅎㅏㅇㅕㅆㄷㅏ.</w>": 3452,
  "ㅁㅗㅅㅎㅏㅇㅕㅆㅅㅡㅂㄴㅣㄷㅏ.</w>": 3453,
  "ㅁㅗㅅㅎㅐ</w>": 3454,
  "ㅁㅗㅅㅎㅐㅅㅓ</w>": 3455,
  "ㅁㅗㅅㅎㅐㅆ": 3456,
  "ㅁㅗㅅㅎㅐㅆㅅㅡㅂㄴㅣㄷㅏ.</w>": 3457,
  "ㅁㅗㅅㅕ": 3458,
  "ㅁㅗㅅㅕㄷㅏ</w>": 3459,
  "ㅁㅗㅅㅡㅂㅇㅡㄹ</w>": 3460,
  "ㅁㅗㅅㅣㄱㅗ</w>": 3461,
  "ㅁㅗㅇ": 3462,
  "ㅁㅗㅇㅏ": 3463,
  "ㅁㅗㅇㅏ</w>": 3464,
  "ㅁㅗㅇㅏㄴㅗㅎㄱㅗ</w>": 3465,
  "ㅁㅗㅇㅏㅅㅓ</w>": 3466,
  "ㅁㅗㅇㅑㅇ": 3467,
  "ㅁㅗㅇㅑㅇ</w>": 3468,
  "ㅁㅗㅇㅑㅇㅇㅡㄴ</w>": 3469,
  "ㅁㅗㅇㅑㅇㅇㅡㄹ</w>": 3470,
  "ㅁㅗㅇㅑㅇㅇㅡㄹㅗ</w>": 3471,
  "ㅁㅗㅇㅑㅇㅇㅣ": 3472,
  "ㅁㅗㅇㅑㅇㅇㅣ</w>": 3473,
  "ㅁㅗㅇㅑㅇㅇㅣㄹ": 3474,
  "ㅁㅗㅇㅑㅇㅇㅣㄹㅅㅔㄱㅡㄹㅕ.</w>": 3475,
  "ㅁㅗㅇㅕ</w>": 3476,
  "ㅁㅗㅇㅕㅅㅓ</w>": 3477,
  "ㅁㅗㅇㅕㅆㄷㅏ.</w>": 3478,
  "ㅁㅗㅇㅡ": 3479,
  "ㅁㅗㅇㅡㄴ</w>": 3480,
  "ㅁㅗㅇㅣㄹㅡㄹ</w>": 3481,
  "ㅁㅗㅈㅏㄹㅡㄹ</w>": 3482,
  "ㅁㅗㅈㅗㄹㅣ</w>": 3483,
  "ㅁㅗㅎㅓㅁ": 3484,
  "ㅁㅛ": 3485,
  "ㅁㅛ</w>": 3486,
  "ㅁㅛㅂㅗㅇ</w>": 3487,
  "ㅁㅜ": 3488,
  "ㅁㅜ</w>": 3489,
  "ㅁㅜㄱ": 3490,
  "ㅁㅜㄱㅁㅜㄱㅎㅣ</w>": 3491,
  "ㅁㅜㄱㅓ": 3492,
  "ㅁㅜㄱㅓㅇㅜㄴ</w>": 3493,
  "ㅁㅜㄱㅓㅇㅝ": 3494,
  "ㅁㅜㄴ": 3495,
  "ㅁㅜㄴ</w>": 3496,
  "ㅁㅜㄴㄷㅡㄱ</w>": 3497,
  "ㅁㅜㄴㅇㅏㄴ</w>": 3498,
  "ㅁㅜㄴㅇㅔ</w>": 3499,
  "ㅁㅜㄴㅇㅔㅅㅓ</w>": 3500,
  "ㅁㅜㄴㅇㅡㄴ</w>": 3501,
  "ㅁㅜㄴㅇㅡㄹ</w>": 3502,
  "ㅁㅜㄴㅇㅡㄹㅗ</w>": 3503,
  "ㅁㅜㄴㅇㅣ</w>": 3504,
  "ㅁㅜㄴㅈㅔ": 3505,
  "ㅁㅜㄴㅈㅔ</w>": 3506,
  "ㅁㅜㄴㅈㅔㄷㅏ.</w>": 3507,
  "ㅁㅜㄴㅈㅣㄹㄹㅓ": 3508,
  "ㅁㅜㄴㅍㅐㄹㅡㄹ</w>": 3509,
  "ㅁㅜㄴㅓ": 3510,
  "ㅁㅜㄴㅢㄱㅏ</w>": 3511,
  "ㅁㅜㄷ": 3512,
  "ㅁㅜㄷㅇㅓ": 3513,
  "ㅁㅜㄷㅇㅡㄴ</w>": 3514,
  "ㅁㅜㄷㅓ": 3515,
  "ㅁㅜㄷㅓㅁ</w>": 3516,
  "ㅁㅜㄹ": 3517,
  "ㅁㅜㄹ</w>": 3518,
  "ㅁㅜㄹㄱㅏㅌㅇㅣ</w>": 3519,
  "ㅁㅜㄹㄱㅓㄴ": 3520,
  "ㅁㅜㄹㄱㅓㄴㅇㅡㄹ</w>": 3521,
  "ㅁㅜㄹㄱㅕㄹㅇㅣ</w>": 3522,
  "ㅁㅜㄹㄱㅗ</w>": 3523,
  "ㅁㅜㄹㄲㅡㄹㅓㅁㅣ</w>": 3524,
  "ㅁㅜㄹㄹㅓ": 3525,
  "ㅁㅜㄹㄹㅗ</w>": 3526,
  "ㅁㅜㄹㄹㅗㄴ": 3527,
  "ㅁㅜㄹㄹㅗㄴ</w>": 3528,
  "ㅁㅜㄹㄹㅗㄴㅎㅏㄱㅗ</w>": 3529,
  "ㅁㅜㄹㄹㅣ": 3530,
  "ㅁㅜㄹㅅㅗㄱㅇㅔ</w>": 3531,
  "ㅁㅜㄹㅇㅓ": 3532,
  "ㅁㅜㄹㅇㅓ</w>": 3533,
  "ㅁㅜㄹㅇㅓㄷㅗ</w>": 3534,
  "ㅁㅜㄹㅇㅓㄸㅡㄷ": 3535,
  "ㅁㅜㄹㅇㅓㅂㅗ": 3536,
  "ㅁㅜㄹㅇㅓㅆㄷㅏ.</w>": 3537,
  "ㅁㅜㄹㅇㅓㅆㅅㅡㅂㄴㅣㄷㅏ.</w>": 3538,
  "ㅁㅜㄹㅇㅔ</w>": 3539,
  "ㅁㅜㄹㅇㅡㄴ</w>": 3540,
  "ㅁㅜㄹㅇㅡㄹ</w>": 3541,
  "ㅁㅜㄹㅇㅡㅁㅕㄴ</w>": 3542,
  "ㅁㅜㄹㅇㅡㅅㅕㅆㅅㅡㅂㄴㅣㄷㅏ.</w>": 3543,
  "ㅁㅜㄹㅇㅡㅅㅣㄴㅡㄴ</w>": 3544,
  "ㅁㅜㄹㅇㅣ</w>": 3545,
  "ㅁㅜㄹㅎㅘ</w>": 3546,
  "ㅁㅜㄹㅡㄴㅗㄱ": 3547,
  "ㅁㅜㄹㅡㄹ</w>": 3548,
  "ㅁㅜㄹㅡㅂ": 3549,
  "ㅁㅜㄹㅡㅂㅆㅡㅅㅣㄱㅗ</w>": 3550,
  "ㅁㅜㄹㅡㅍ</w>": 3551,
  "ㅁㅜㄹㅡㅍㅇㅡㄹ</w>": 3552,
  "ㅁㅜㅅ": 3553,
  "ㅁㅜㅅㅏ": 3554,
  "ㅁㅜㅅㅏㅎㅣ</w>": 3555,
  "ㅁㅜㅅㅓ": 3556,
  "ㅁㅜㅅㅓㅂㄱㅔ</w>": 3557,
  "ㅁㅜㅅㅓㅇㅜㄴ</w>": 3558,
  "ㅁㅜㅅㅓㅇㅝ": 3559,
  "ㅁㅜㅅㅜㅎㅣ</w>": 3560,
  "ㅁㅜㅅㅡㄴ</w>": 3561,
  "ㅁㅜㅅㅣ": 3562,
  "ㅁㅜㅅㅣ</w>": 3563,
  "ㅁㅜㅅㅣㅎㅏㄴ</w>": 3564,
  "ㅁㅜㅇ": 3565,
  "ㅁㅜㅇㄱㅔ</w>": 3566,
  "ㅁㅜㅇㄱㅔㅁㅜㅇㄱㅔ</w>": 3567,
  "ㅁㅜㅇㅓ": 3568,
  "ㅁㅜㅇㅓ</w>": 3569,
  "ㅁㅜㅇㅓㄹ</w>": 3570,
  "ㅁㅜㅇㅓㄹㅏ</w>": 3571,
  "ㅁㅜㅇㅓㄹㅏㄱㅗ</w>": 3572,
  "ㅁㅜㅇㅓㅅ": 3573,
  "ㅁㅜㅇㅓㅅ</w>": 3574,
  "ㅁㅜㅇㅓㅅ?</w>": 3575,
  "ㅁㅜㅇㅓㅅㄱㅏㅌㅇㅣ</w>": 3576,
  "ㅁㅜㅇㅓㅅㅂㅗㄷㅏㄷㅗ</w>": 3577,
  "ㅁㅜㅇㅓㅅㅇㅔ</w>": 3578,
  "ㅁㅜㅇㅓㅅㅇㅡㄹ</w>": 3579,
  "ㅁㅜㅇㅓㅅㅇㅣ</w>": 3580,
  "ㅁㅜㅇㅓㅅㅇㅣㄴㄱㅏㄹㅡㄹ</w>": 3581,
  "ㅁㅜㅇㅓㅅㅇㅣㄴㅈㅣ</w>": 3582,
  "ㅁㅜㅇㅓㅅㅇㅣㄴㅑ": 3583,
  "ㅁㅜㅇㅓㅅㅇㅣㄹㅏㄱㅗ</w>": 3584,
  "ㅁㅜㅈㅣ</w>": 3585,
  "ㅁㅜㅊㅏㅁ": 3586,
  "ㅁㅜㅊㅓㄱ</w>": 3587,
  "ㅁㅝ": 3588,
  "ㅁㅝ</w>": 3589,
  "ㅁㅝㄴㅑ.</w>": 3590,
  "ㅁㅝㄹ</w>": 3591,
  "ㅁㅝㄹㅏㄱㅗ</w>": 3592,
  "ㅁㅝㅅ": 3593,
  "ㅁㅡㄹㅗ</w>": 3594,
  "ㅁㅣ": 3595,
  "ㅁㅣ</w>": 3596,
  "ㅁㅣㄱㅏ</w>": 3597,
  "ㅁㅣㄲㅡㄹㅓ": 3598,
  "ㅁㅣㄲㅡㄹㅓㅈㅕ</w>": 3599,
  "ㅁㅣㄴ": 3600,
  "ㅁㅣㄴㅡㄴ</w>": 3601,
  "ㅁㅣㄷ": 3602,
  "ㅁㅣㄷㄱㅗ</w>": 3603,
  "ㅁㅣㄷㅏㄷ": 3604,
  "ㅁㅣㄷㅏㄷㅇㅣ</w>": 3605,
  "ㅁㅣㄷㅏㄷㅇㅣㄱㅏ</w>": 3606,
  "ㅁㅣㄷㅏㄷㅇㅣㄹㅡㄹ</w>": 3607,
  "ㅁㅣㄹ": 3608,
  "ㅁㅣㄹㄱㅏㄹ": 3609,
  "ㅁㅣㄹㄱㅗ</w>": 3610,
  "ㅁㅣㄹㅁㅜㄹ</w>": 3611,
  "ㅁㅣㄹㅁㅜㄹㅇㅣ</w>": 3612,
  "ㅁㅣㄹㅡㄹ</w>": 3613,
  "ㅁㅣㄹㅣ": 3614,
  "ㅁㅣㄹㅣ</w>": 3615,
  "ㅁㅣㅁㅏㅇㅇㅣㄴ": 3616,
  "ㅁㅣㅅㅗㄹㅡㄹ</w>": 3617,
  "ㅁㅣㅅㅜㄹ</w>": 3618,
  "ㅁㅣㅇㅏㄴ": 3619,
  "ㅁㅣㅇㅝ": 3620,
  "ㅁㅣㅇㅝㅎㅏㄱㅗ</w>": 3621,
  "ㅁㅣㅇㅝㅎㅏㄴㅡㄴ</w>": 3622,
  "ㅁㅣㅊㅕㅆ": 3623,
  "ㅁㅣㅊㅣㄴ": 3624,
  "ㅁㅣㅊㅣㄴ</w>": 3625,
  "ㅁㅣㅌ": 3626,
  "ㅁㅣㅌ</w>": 3627,
  "ㅁㅣㅌㅇㅔ</w>": 3628,
  "ㅁㅣㅌㅇㅔㄷㅏ</w>": 3629,
  "ㅁㅣㅌㅇㅔㅅㅓ</w>": 3630,
  "ㅁㅣㅌㅇㅣ</w>": 3631,
  "ㅁㅣㅎㅏㄴ</w>": 3632,
  "ㅂ": 3633,
  "ㅂ</w>": 3634,
  "ㅂㄱㅔ</w>": 3635,
  "ㅂㄱㅗ</w>": 3636,
  "ㅂㄱㅣㄷㅗ</w>": 3637,
  "ㅂㄴㅣ": 3638,
  "ㅂㄴㅣㄲㅏ.</w>": 3639,
  "ㅂㄴㅣㄲㅏ?”</w>": 3640,
  "ㅂㄴㅣㄲㅏ”</w>": 3641,
  "ㅂㄴㅣㄷㅏ": 3642,
  "ㅂㄴㅣㄷㅏ.</w>": 3643,
  "ㅂㄴㅣㄷㅏ.”</w>": 3644,
  "ㅂㄷㅏ.</w>": 3645,
  "ㅂㄷㅏㄴㅡㄴ</w>": 3646,
  "ㅂㄷㅓㄴ</w>": 3647,
  "ㅂㄷㅣㄷㅏ.”</w>": 3648,
  "ㅂㅅㅣ": 3649,
  "ㅂㅅㅣㄷㅏ.</w>": 3650,
  "ㅂㅅㅣㄷㅏ.”</w>": 3651,
  "ㅂㅅㅣㅇㅛ.”</w>": 3652,
  "ㅂㅅㅣㅇㅛ</w>": 3653,
  "ㅂㅇㅡㄹ</w>": 3654,
  "ㅂㅇㅣ</w>": 3655,
  "ㅂㅈㅣ</w>": 3656,
  "ㅂㅏ": 3657,
  "ㅂㅏ</w>": 3658,
  "ㅂㅏㄱ": 3659,
  "ㅂㅏㄱㅎㅣ": 3660,
  "ㅂㅏㄱㅜㄴㅣ": 3661,
  "ㅂㅏㄱㅜㄴㅣㄹㅗ</w>": 3662,
  "ㅂㅏㄱㅜㄴㅣㄹㅡㄹ</w>": 3663,
  "ㅂㅏㄲ": 3664,
  "ㅂㅏㄲ</w>": 3665,
  "ㅂㅏㄲㄲㅏㅈㅣ</w>": 3666,
  "ㅂㅏㄲㅇㅔ</w>": 3667,
  "ㅂㅏㄲㅇㅔㄴㅡㄴ</w>": 3668,
  "ㅂㅏㄲㅇㅔㄷㅗ</w>": 3669,
  "ㅂㅏㄲㅇㅡㄹㅗ</w>": 3670,
  "ㅂㅏㄲㅏ": 3671,
  "ㅂㅏㄲㅜ": 3672,
  "ㅂㅏㄲㅜㅇㅓ</w>": 3673,
  "ㅂㅏㄴ": 3674,
  "ㅂㅏㄴ</w>": 3675,
  "ㅂㅏㄴㄱㅏ": 3676,
  "ㅂㅏㄴㄱㅏㅇㅜㄴ</w>": 3677,
  "ㅂㅏㄴㄱㅏㅇㅝ": 3678,
  "ㅂㅏㄴㄱㅏㅇㅝㅆㄷㅏ.</w>": 3679,
  "ㅂㅏㄴㄱㅏㅇㅣ</w>": 3680,
  "ㅂㅏㄴㄷㅐ": 3681,
  "ㅂㅏㄴㄷㅡㅅㅇㅣ</w>": 3682,
  "ㅂㅏㄴㄷㅡㅅㅣ</w>": 3683,
  "ㅂㅏㄴㅇㅔㅅㅓ</w>": 3684,
  "ㅂㅏㄴㅇㅔㅅㅓㄷㅗ</w>": 3685,
  "ㅂㅏㄴㅇㅡㄹ</w>": 3686,
  "ㅂㅏㄴㅇㅣㄴㅏ</w>": 3687,
  "ㅂㅏㄴㅈㅏㅇ": 3688,
  "ㅂㅏㄴㅈㅏㅇㅇㅡㄹ</w>": 3689,
  "ㅂㅏㄴㅈㅏㅇㅇㅣ</w>": 3690,
  "ㅂㅏㄴㅈㅏㅇㅇㅣㄴ</w>": 3691,
  "ㅂㅏㄴㅈㅣㄹㅡㄹ</w>": 3692,
  "ㅂㅏㄴㅉㅏㄱ": 3693,
  "ㅂㅏㄴㅉㅏㄱㄱㅓㄹㅣㄴㅡㄴ</w>": 3694,
  "ㅂㅏㄴㅊㅏㄴ": 3695,
  "ㅂㅏㄴㅊㅏㄴ</w>": 3696,
  "ㅂㅏㄴㅊㅏㄴㄱㅓㄹㅣㄹㅡㄹ</w>": 3697,
  "ㅂㅏㄴㅊㅏㄴㅇㅡㄴ</w>": 3698,
  "ㅂㅏㄴㅎㅏㅇ": 3699,
  "ㅂㅏㄴㅡ": 3700,
  "ㅂㅏㄴㅡㄹ": 3701,
  "ㅂㅏㄴㅡㄹ</w>": 3702,
  "ㅂㅏㄴㅡㅈㅣㄹ": 3703,
  "ㅂㅏㄷ": 3704,
  "ㅂㅏㄷㄱㅗ</w>": 3705,
  "ㅂㅏㄷㄴㅡㄴ</w>": 3706,
  "ㅂㅏㄷㅇㅏ": 3707,
  "ㅂㅏㄷㅇㅏ</w>": 3708,
  "ㅂㅏㄷㅇㅏㄷㅡㄹㄱㅗ</w>": 3709,
  "ㅂㅏㄷㅇㅏㅅㅓ</w>": 3710,
  "ㅂㅏㄷㅇㅏㅆㅅㅡㅂㄴㅣㄷㅏ.</w>": 3711,
  "ㅂㅏㄷㅇㅏㅇㅑ</w>": 3712,
  "ㅂㅏㄷㅇㅡㄴ</w>": 3713,
  "ㅂㅏㄷㅏ": 3714,
  "ㅂㅏㄷㅏ</w>": 3715,
  "ㅂㅏㄷㅏㄱ": 3716,
  "ㅂㅏㄷㅏㄱㅇㅔ</w>": 3717,
  "ㅂㅏㄷㅏㄱㅇㅡㄹ</w>": 3718,
  "ㅂㅏㄷㅏㄹㅡㄹ</w>": 3719,
  "ㅂㅏㄷㅏㅅ": 3720,
  "ㅂㅏㄹ": 3721,
  "ㅂㅏㄹ</w>": 3722,
  "ㅂㅏㄹㄱㅕㄴ": 3723,
  "ㅂㅏㄹㄱㅕㄴㅎㅏㄱㅗ</w>": 3724,
  "ㅂㅏㄹㄱㅕㄴㅎㅏㄴ</w>": 3725,
  "ㅂㅏㄹㄱㅣㄹㄹㅗ</w>": 3726,
  "ㅂㅏㄹㄱㅣㄹㅇㅣ</w>": 3727,
  "ㅂㅏㄹㅁㅕㅇ": 3728,
  "ㅂㅏㄹㅂㅏㄷㅏㄱㅇㅡㄹ</w>": 3729,
  "ㅂㅏㄹㅇㅔ</w>": 3730,
  "ㅂㅏㄹㅇㅡㄹ</w>": 3731,
  "ㅂㅏㄹㅇㅣ</w>": 3732,
  "ㅂㅏㄹㅈㅏ": 3733,
  "ㅂㅏㄹㅎㅏㅇㅕ</w>": 3734,
  "ㅂㅏㄹㅏ": 3735,
  "ㅂㅏㄹㅏ</w>": 3736,
  "ㅂㅏㄹㅏㄱㅗ</w>": 3737,
  "ㅂㅏㄹㅏㄷㅏㅂㅗ": 3738,
  "ㅂㅏㄹㅏㄷㅏㅂㅗㅁㅕㄴㅅㅓ</w>": 3739,
  "ㅂㅏㄹㅏㅁㅇㅔ</w>": 3740,
  "ㅂㅏㄹㅏㅁㅇㅣ</w>": 3741,
  "ㅂㅏㄹㅏㅂㅗ": 3742,
  "ㅂㅏㄹㅏㅂㅗㄱㅗ</w>": 3743,
  "ㅂㅏㄹㅏㅂㅗㄴ</w>": 3744,
  "ㅂㅏㄹㅏㅂㅗㄴㅣ,</w>": 3745,
  "ㅂㅏㄹㅏㅂㅗㄷㅓㄴㅣ</w>": 3746,
  "ㅂㅏㄹㅏㅂㅗㄹ</w>": 3747,
  "ㅂㅏㄹㅏㅂㅗㅁㅕ</w>": 3748,
  "ㅂㅏㄹㅏㅂㅗㅁㅕㄴㅅㅓ</w>": 3749,
  "ㅂㅏㄹㅏㅂㅗㅅㅣㄷㅓㄴㅣ</w>": 3750,
  "ㅂㅏㄹㅏㅂㅗㅅㅣㅁㅕㄴㅅㅓ</w>": 3751,
  "ㅂㅏㄹㅏㅂㅗㅇㅏㅆㅅㅡㅂㄴㅣㄷㅏ.</w>": 3752,
  "ㅂㅏㄹㅏㅂㅗㅈㅏㅁㅏㅈㅏ</w>": 3753,
  "ㅂㅏㄹㅗ</w>": 3754,
  "ㅂㅏㄹㅡㄴ": 3755,
  "ㅂㅏㄹㅡㄴ</w>": 3756,
  "ㅂㅏㄹㅡㄴㄷㅐㄹㅗ</w>": 3757,
  "ㅂㅏㄹㅡㄹ</w>": 3758,
  "ㅂㅏㄹㅡㄹㅡ</w>": 3759,
  "ㅂㅏㄺ": 3760,
  "ㅂㅏㄺㅇㅡㄴ</w>": 3761,
  "ㅂㅏㄼ": 3762,
  "ㅂㅏㅁ": 3763,
  "ㅂㅏㅁ</w>": 3764,
  "ㅂㅏㅁㄴㅏㅈ</w>": 3765,
  "ㅂㅏㅁㅇㅔ</w>": 3766,
  "ㅂㅏㅁㅇㅔㄴㅡㄴ</w>": 3767,
  "ㅂㅏㅁㅇㅔㄷㅗ</w>": 3768,
  "ㅂㅏㅁㅇㅡㄹ</w>": 3769,
  "ㅂㅏㅁㅇㅣ</w>": 3770,
  "ㅂㅏㅁㅇㅣㄴㅏ</w>": 3771,
  "ㅂㅏㅁㅇㅣㅁㅕㄴ</w>": 3772,
  "ㅂㅏㅁㅈㅜㅇㅇㅔ</w>": 3773,
  "ㅂㅏㅂ": 3774,
  "ㅂㅏㅂ</w>": 3775,
  "ㅂㅏㅂㄷㅗ</w>": 3776,
  "ㅂㅏㅂㅇㅡㄴ</w>": 3777,
  "ㅂㅏㅂㅇㅡㄹ</w>": 3778,
  "ㅂㅏㅂㅇㅣ</w>": 3779,
  "ㅂㅏㅃ": 3780,
  "ㅂㅏㅃㅡㄴㅣㄲㅏㄴ</w>": 3781,
  "ㅂㅏㅃㅣ</w>": 3782,
  "ㅂㅏㅅㅡㅋㅔ": 3783,
  "ㅂㅏㅅㅡㅋㅔㅅㅇㅡㄹ</w>": 3784,
  "ㅂㅏㅇ": 3785,
  "ㅂㅏㅇ</w>": 3786,
  "ㅂㅏㅇㄷㅗ</w>": 3787,
  "ㅂㅏㅇㅁㅏㅇ": 3788,
  "ㅂㅏㅇㅁㅏㅇㅇㅣㄹㅡㄹ</w>": 3789,
  "ㅂㅏㅇㅁㅜㄴㅇㅡㄹ</w>": 3790,
  "ㅂㅏㅇㅇㅏㄴㅇㅢ</w>": 3791,
  "ㅂㅏㅇㅇㅔ</w>": 3792,
  "ㅂㅏㅇㅇㅔㄴㅡㄴ</w>": 3793,
  "ㅂㅏㅇㅇㅔㅅㅓ</w>": 3794,
  "ㅂㅏㅇㅇㅔㅅㅓㄴㅡㄴ</w>": 3795,
  "ㅂㅏㅇㅇㅜㄹ": 3796,
  "ㅂㅏㅇㅇㅜㄹㅂㅏㅇㅇㅜㄹ</w>": 3797,
  "ㅂㅏㅇㅇㅜㄹㅇㅣ</w>": 3798,
  "ㅂㅏㅇㅇㅡㄴ</w>": 3799,
  "ㅂㅏㅇㅇㅡㄹ</w>": 3800,
  "ㅂㅏㅇㅇㅡㄹㅗ</w>": 3801,
  "ㅂㅏㅇㅇㅣ</w>": 3802,
  "ㅂㅏㅇㅇㅣㄴ</w>": 3803,
  "ㅂㅏㅇㅎㅘㅇ": 3804,
  "ㅂㅏㅇㅟ": 3805,
  "ㅂㅏㅇㅟ</w>": 3806,
  "ㅂㅏㅇㅟㅇㅔ</w>": 3807,
  "ㅂㅏㅈㅣ</w>": 3808,
  "ㅂㅏㅉㅏㄱ</w>": 3809,
  "ㅂㅏㅋㅟ": 3810,
  "ㅂㅏㅌ": 3811,
  "ㅂㅏㅌ</w>": 3812,
  "ㅂㅏㅌㅇㅔ</w>": 3813,
  "ㅂㅏㅌㅇㅔㅅㅓ</w>": 3814,
  "ㅂㅏㅌㅇㅡㄴ</w>": 3815,
  "ㅂㅏㅌㅇㅡㄹ</w>": 3816,
  "ㅂㅏㅌㅇㅣ</w>": 3817,
  "ㅂㅏㅌㅇㅣㄹㅏ</w>": 3818,
  "ㅂㅐ": 3819,
  "ㅂㅐ</w>": 3820,
  "ㅂㅐㄱ": 3821,
  "ㅂㅐㄱ</w>": 3822,
  "ㅂㅐㄱㅅㅓㅇ": 3823,
  "ㅂㅐㄱㅅㅓㅇㄷㅡㄹㅇㅣ</w>": 3824,
  "ㅂㅐㄱㅎㅘ": 3825,
  "ㅂㅐㄱㅏ</w>": 3826,
  "ㅂㅐㄱㅗ": 3827,
  "ㅂㅐㄱㅗㅍㅡㄴ</w>": 3828,
  "ㅂㅐㄷㅏㄹ": 3829,
  "ㅂㅐㄹㅡㄹ</w>": 3830,
  "ㅂㅐㅁㅇㅢ</w>": 3831,
  "ㅂㅐㅁㅇㅣ</w>": 3832,
  "ㅂㅐㅅ": 3833,
  "ㅂㅐㅅㅅㅗㄱ</w>": 3834,
  "ㅂㅐㅅㅅㅗㄱㅇㅔㅅㅓ</w>": 3835,
  "ㅂㅐㅇ": 3836,
  "ㅂㅐㅇㅜ": 3837,
  "ㅂㅐㅇㅜㄴ</w>": 3838,
  "ㅂㅐㅇㅜㅇㅇㅡㄹ</w>": 3839,
  "ㅂㅐㅇㅝ": 3840,
  "ㅂㅐㅌ": 3841,
  "ㅂㅓ": 3842,
  "ㅂㅓ</w>": 3843,
  "ㅂㅓㄴ": 3844,
  "ㅂㅓㄴ</w>": 3845,
  "ㅂㅓㄴㄷㅗ</w>": 3846,
  "ㅂㅓㄴㅁㅏㄴ</w>": 3847,
  "ㅂㅓㄴㅂㅓㄴㅇㅣ</w>": 3848,
  "ㅂㅓㄴㅇㅔ</w>": 3849,
  "ㅂㅓㄴㅇㅡㄴ</w>": 3850,
  "ㅂㅓㄴㅇㅣ</w>": 3851,
  "ㅂㅓㄴㅇㅣㄱㅗ</w>": 3852,
  "ㅂㅓㄴㅇㅣㄴㅏ</w>": 3853,
  "ㅂㅓㄴㅉㅐ</w>": 3854,
  "ㅂㅓㄴㅉㅓㄱ</w>": 3855,
  "ㅂㅓㄷㅡ": 3856,
  "ㅂㅓㄹ": 3857,
  "ㅂㅓㄹ</w>": 3858,
  "ㅂㅓㄹㄱㅘ</w>": 3859,
  "ㅂㅓㄹㄸㅓㄱ</w>": 3860,
  "ㅂㅓㄹㄹㅓㅇ</w>": 3861,
  "ㅂㅓㄹㄹㅔ": 3862,
  "ㅂㅓㄹㅂㅓㄹ</w>": 3863,
  "ㅂㅓㄹㅆㅓ</w>": 3864,
  "ㅂㅓㄹㅆㅓㅂㅜㅌㅓ</w>": 3865,
  "ㅂㅓㄹㅇㅓㅆ": 3866,
  "ㅂㅓㄹㅓㄱ</w>": 3867,
  "ㅂㅓㄹㅕ": 3868,
  "ㅂㅓㄹㅕㄹㅏ.</w>": 3869,
  "ㅂㅓㄹㅕㅅㅓ</w>": 3870,
  "ㅂㅓㄹㅕㅆ": 3871,
  "ㅂㅓㄹㅕㅆ</w>": 3872,
  "ㅂㅓㄹㅕㅆㄷㅏ.</w>": 3873,
  "ㅂㅓㄹㅕㅆㅅㅡㅂㄴㅣㄷㅏ.</w>": 3874,
  "ㅂㅓㄹㅡ": 3875,
  "ㅂㅓㄹㅡㅅ": 3876,
  "ㅂㅓㄹㅡㅅㄱㅏㅌㅇㅣ</w>": 3877,
  "ㅂㅓㄹㅣ": 3878,
  "ㅂㅓㄹㅣㄱㅗ</w>": 3879,
  "ㅂㅓㄹㅣㄴ</w>": 3880,
  "ㅂㅓㄹㅣㄴㄷㅏ.</w>": 3881,
  "ㅂㅓㄹㅣㄹ": 3882,
  "ㅂㅓㄹㅣㄹ</w>": 3883,
  "ㅂㅓㄹㅣㅅㅕㅆㅅㅡㅂㄴㅣㄷㅏ.</w>": 3884,
  "ㅂㅓㄹㅣㅇㅓㅆㅅㅡㅂㄴㅣㄷㅏ.</w>": 3885,
  "ㅂㅓㅁ": 3886,
  "ㅂㅓㅁㅎㅏㄴ</w>": 3887,
  "ㅂㅓㅂ": 3888,
  "ㅂㅓㅂㅇㅡㄹ</w>": 3889,
  "ㅂㅓㅂㅇㅣ</w>": 3890,
  "ㅂㅓㅅ": 3891,
  "ㅂㅓㅅㅇㅓ": 3892,
  "ㅂㅓㅅㅇㅓ</w>": 3893,
  "ㅂㅓㅇ": 3894,
  "ㅂㅓㅇ</w>": 3895,
  "ㅂㅓㅇㅂㅓㅇ": 3896,
  "ㅂㅓㅇㅂㅓㅇㅎㅏㅇㅕ</w>": 3897,
  "ㅂㅓㅇㅇㅓㄹㅣ": 3898,
  "ㅂㅓㅇㅇㅓㄹㅣ</w>": 3899,
  "ㅂㅓㅇㅇㅓㄹㅣㄹㅡㄹ</w>": 3900,
  "ㅂㅓㅇㅇㅓㄹㅣㅇㅔ</w>": 3901,
  "ㅂㅓㅈ": 3902,
  "ㅂㅓㅈㄲㅗㅊ</w>": 3903,
  "ㅂㅔ": 3904,
  "ㅂㅔㄴ": 3905,
  "ㅂㅔㄹ</w>": 3906,
  "ㅂㅔㄹㅋㅗㅍㅡ</w>": 3907,
  "ㅂㅔㅇㅓ</w>": 3908,
  "ㅂㅕ": 3909,
  "ㅂㅕ</w>": 3910,
  "ㅂㅕㄱ": 3911,
  "ㅂㅕㄱ</w>": 3912,
  "ㅂㅕㄱㄷㅗㄹㄹㅗ</w>": 3913,
  "ㅂㅕㄱㅇㅔ</w>": 3914,
  "ㅂㅕㄴ": 3915,
  "ㅂㅕㄴ</w>": 3916,
  "ㅂㅕㄴㅁㅕㅇ": 3917,
  "ㅂㅕㄴㅅㅗ</w>": 3918,
  "ㅂㅕㄴㅅㅗㅇㅔ</w>": 3919,
  "ㅂㅕㄴㅇㅢ</w>": 3920,
  "ㅂㅕㄴㅌㅗㅇ": 3921,
  "ㅂㅕㄴㅎㅏㅈㅣ</w>": 3922,
  "ㅂㅕㄹ": 3923,
  "ㅂㅕㄹ</w>": 3924,
  "ㅂㅕㄹㄷㅡㄹㅇㅣ</w>": 3925,
  "ㅂㅕㄹㄹㅗ</w>": 3926,
  "ㅂㅕㄹㅅㅜ</w>": 3927,
  "ㅂㅕㄹㅇㅏㄴ": 3928,
  "ㅂㅕㄹㅇㅏㄴㄱㅏㄴ</w>": 3929,
  "ㅂㅕㄹㅈㅏㅇ</w>": 3930,
  "ㅂㅕㄹㅏ": 3931,
  "ㅂㅕㄹㅏㄱㅇㅣ</w>": 3932,
  "ㅂㅕㅇ": 3933,
  "ㅂㅕㅇ</w>": 3934,
  "ㅂㅕㅇㄱㅜ": 3935,
  "ㅂㅕㅇㄱㅜㅇㅘㄴ": 3936,
  "ㅂㅕㅇㄷㅡㄴ</w>": 3937,
  "ㅂㅕㅇㅅㅏㅇ</w>": 3938,
  "ㅂㅕㅇㅅㅔㄱㅏ</w>": 3939,
  "ㅂㅕㅇㅅㅣㄹ": 3940,
  "ㅂㅕㅇㅅㅣㄹㄹㅗ</w>": 3941,
  "ㅂㅕㅇㅇㅏㄹㅣ": 3942,
  "ㅂㅕㅇㅇㅔ</w>": 3943,
  "ㅂㅕㅇㅇㅝㄴ": 3944,
  "ㅂㅕㅇㅇㅝㄴ</w>": 3945,
  "ㅂㅕㅇㅇㅝㄴㅇㅔ</w>": 3946,
  "ㅂㅕㅇㅇㅝㄴㅇㅡㄹㅗ</w>": 3947,
  "ㅂㅕㅇㅇㅡㄹ</w>": 3948,
  "ㅂㅕㅇㅇㅡㄹㅗ</w>": 3949,
  "ㅂㅕㅇㅇㅣ</w>": 3950,
  "ㅂㅕㅇㅇㅣㄴ": 3951,
  "ㅂㅕㅇㅈㅓㅇ": 3952,
  "ㅂㅕㅇㅈㅓㅇ</w>": 3953,
  "ㅂㅕㅇㅈㅓㅇㄷㅡㄹㅇㅡㄴ</w>": 3954,
  "ㅂㅕㅇㅈㅓㅇㅇㅣ</w>": 3955,
  "ㅂㅕㅇㅎㅘㄴ": 3956,
  "ㅂㅕㅇㅎㅘㄴㅇㅣ</w>": 3957,
  "ㅂㅕㅌ": 3958,
  "ㅂㅕㅌ</w>": 3959,
  "ㅂㅕㅌㅇㅣ</w>": 3960,
  "ㅂㅗ": 3961,
  "ㅂㅗ</w>": 3962,
  "ㅂㅗㄱ": 3963,
  "ㅂㅗㄱ</w>": 3964,
  "ㅂㅗㄱㅂㅗㄱ</w>": 3965,
  "ㅂㅗㄱㅅㅡㅂㅇㅡㄹ</w>": 3966,
  "ㅂㅗㄱㅈㅏㅂ": 3967,
  "ㅂㅗㄱㅎㅢ": 3968,
  "ㅂㅗㄱㅎㅢ</w>": 3969,
  "ㅂㅗㄱㅎㅢㄱㅏ</w>": 3970,
  "ㅂㅗㄱㅎㅢㄴㅡㄴ</w>": 3971,
  "ㅂㅗㄱㅎㅢㅇㅑ.</w>": 3972,
  "ㅂㅗㄱㅎㅢㅇㅘ</w>": 3973,
  "ㅂㅗㄱㅎㅢㅇㅢ</w>": 3974,
  "ㅂㅗㄱㅏ</w>": 3975,
  "ㅂㅗㄱㅔ</w>": 3976,
  "ㅂㅗㄱㅗ": 3977,
  "ㅂㅗㄱㅗ</w>": 3978,
  "ㅂㅗㄱㅗㄴㅡㄴ</w>": 3979,
  "ㅂㅗㄱㅣ</w>": 3980,
  "ㅂㅗㄱㅣㄱㅏ</w>": 3981,
  "ㅂㅗㄱㅣㄴㅡㄴ</w>": 3982,
  "ㅂㅗㄴ": 3983,
  "ㅂㅗㄴ</w>": 3984,
  "ㅂㅗㄴㄷㅏ.</w>": 3985,
  "ㅂㅗㄴㄷㅏㅁㅕㄴ</w>": 3986,
  "ㅂㅗㄴㅐ": 3987,
  "ㅂㅗㄴㅐㄱㅗ</w>": 3988,
  "ㅂㅗㄴㅐㄴ</w>": 3989,
  "ㅂㅗㄴㅐㄷㅏㄹㄹㅏㄱㅗ</w>": 3990,
  "ㅂㅗㄴㅐㅆㅅㅡㅂㄴㅣㄷㅏ.</w>": 3991,
  "ㅂㅗㄴㅐㅈㅣ</w>": 3992,
  "ㅂㅗㄴㅡㄴ</w>": 3993,
  "ㅂㅗㄴㅣ,</w>": 3994,
  "ㅂㅗㄴㅣ</w>": 3995,
  "ㅂㅗㄴㅣㄲㅏ</w>": 3996,
  "ㅂㅗㄴㅣㄲㅏㄴ</w>": 3997,
  "ㅂㅗㄷㅏ": 3998,
  "ㅂㅗㄷㅏ.</w>": 3999,
  "ㅂㅗㄷㅏ.”</w>": 4000,
  "ㅂㅗㄷㅏ</w>": 4001,
  "ㅂㅗㄷㅏㄴㅡㄴ</w>": 4002,
  "ㅂㅗㄷㅏㄷㅗ</w>": 4003,
  "ㅂㅗㄷㅓㄴ</w>": 4004,
  "ㅂㅗㄷㅓㄴㅣ</w>": 4005,
  "ㅂㅗㄷㅡㄹㅏㅇㅜㄴ</w>": 4006,
  "ㅂㅗㄹ": 4007,
  "ㅂㅗㄹ</w>": 4008,
  "ㅂㅗㄹㄱㅣ": 4009,
  "ㅂㅗㄹㅇㅡㄹ</w>": 4010,
  "ㅂㅗㄹㅏ": 4011,
  "ㅂㅗㄹㅏㅁㅇㅣ</w>": 4012,
  "ㅂㅗㄹㅓ</w>": 4013,
  "ㅂㅗㄹㅕㄱㅗ</w>": 4014,
  "ㅂㅗㄹㅗ</w>": 4015,
  "ㅂㅗㄹㅡㄹ</w>": 4016,
  "ㅂㅗㄹㅡㅁ": 4017,
  "ㅂㅗㄹㅡㅁㄴㅏㄹ</w>": 4018,
  "ㅂㅗㄹㅣ": 4019,
  "ㅂㅗㄹㅣ</w>": 4020,
  "ㅂㅗㄹㅣㄱㅏ</w>": 4021,
  "ㅂㅗㄹㅣㄴㅡㄴ</w>": 4022,
  "ㅂㅗㄹㅣㄹㅏㄱㅗ</w>": 4023,
  "ㅂㅗㄹㅣㄹㅡㄹ</w>": 4024,
  "ㅂㅗㄹㅣㅂㅏㅌㅇㅡㄹ</w>": 4025,
  "ㅂㅗㅁ": 4026,
  "ㅂㅗㅁ</w>": 4027,
  "ㅂㅗㅁㅂㅣㅊㅇㅣ</w>": 4028,
  "ㅂㅗㅁㅇㅔ</w>": 4029,
  "ㅂㅗㅁㅇㅣ</w>": 4030,
  "ㅂㅗㅁㅇㅣㄹㅏ</w>": 4031,
  "ㅂㅗㅁㅕ</w>": 4032,
  "ㅂㅗㅁㅕㄴ</w>": 4033,
  "ㅂㅗㅁㅕㄴㅅㅓ</w>": 4034,
  "ㅂㅗㅂㅐ": 4035,
  "ㅂㅗㅂㅐㅇㅣㅂㄴㅣㄷㅏ.</w>": 4036,
  "ㅂㅗㅅㅏㄹㅍㅣㄴㅡㄴ</w>": 4037,
  "ㅂㅗㅅㅔㅇㅛ.</w>": 4038,
  "ㅂㅗㅅㅣ": 4039,
  "ㅂㅗㅅㅣㅂㅅㅣㄷㅏ.</w>": 4040,
  "ㅂㅗㅇ": 4041,
  "ㅂㅗㅇ</w>": 4042,
  "ㅂㅗㅇㅈㅣ</w>": 4043,
  "ㅂㅗㅇㅈㅣㄹㅡㄹ</w>": 4044,
  "ㅂㅗㅇㅊㅓㄴ": 4045,
  "ㅂㅗㅇㅏ": 4046,
  "ㅂㅗㅇㅏ.”</w>": 4047,
  "ㅂㅗㅇㅏ</w>": 4048,
  "ㅂㅗㅇㅏㄹㅏ.</w>": 4049,
  "ㅂㅗㅇㅏㅅㅓ</w>": 4050,
  "ㅂㅗㅇㅏㅆ": 4051,
  "ㅂㅗㅇㅏㅆ</w>": 4052,
  "ㅂㅗㅇㅏㅆㄷㅏ.</w>": 4053,
  "ㅂㅗㅇㅏㅆㄷㅓㄴㅣ</w>": 4054,
  "ㅂㅗㅇㅏㅆㅅㅡㅂㄴㅣㄷㅏ.</w>": 4055,
  "ㅂㅗㅇㅏㅆㅇㅡㄴㅏ</w>": 4056,
  "ㅂㅗㅇㅏㅆㅈㅣㅁㅏㄴ</w>": 4057,
  "ㅂㅗㅇㅏㅇㅑ": 4058,
  "ㅂㅗㅇㅕ": 4059,
  "ㅂㅗㅇㅕㅆㅅㅡㅂㄴㅣㄷㅏ.</w>": 4060,
  "ㅂㅗㅇㅣ": 4061,
  "ㅂㅗㅇㅣㄴㄷㅏ.</w>": 4062,
  "ㅂㅗㅇㅣㄴㅡㄴ</w>": 4063,
  "ㅂㅗㅇㅣㄷㅓㄴ</w>": 4064,
  "ㅂㅗㅇㅣㄷㅡㄴㅈㅣ</w>": 4065,
  "ㅂㅗㅇㅣㄹ</w>": 4066,
  "ㅂㅗㅇㅣㅈㅣ</w>": 4067,
  "ㅂㅗㅇㅣㅈㅣㄷㅗ</w>": 4068,
  "ㅂㅗㅈㅏ</w>": 4069,
  "ㅂㅗㅈㅏㅁㅏㅈㅏ</w>": 4070,
  "ㅂㅗㅈㅣ</w>": 4071,
  "ㅂㅗㅈㅣㄷㅗ</w>": 4072,
  "ㅂㅗㅌㅗㅇ": 4073,
  "ㅂㅗㅌㅗㅇ</w>": 4074,
  "ㅂㅗㅌㅗㅇㅎㅏㄱㄱㅛ</w>": 4075,
  "ㅂㅗㅌㅗㅇㅎㅏㄱㄱㅛㄹㅡㄹ</w>": 4076,
  "ㅂㅗㅌㅜㅇㅇㅣㄹㅡㄹ</w>": 4077,
  "ㅂㅘ": 4078,
  "ㅂㅘ</w>": 4079,
  "ㅂㅘㄷㅗ</w>": 4080,
  "ㅂㅘㄹㅏ.</w>": 4081,
  "ㅂㅘㄹㅏ.”</w>": 4082,
  "ㅂㅘㅅㅓ</w>": 4083,
  "ㅂㅘㅆㄷㅓㄴㅣ</w>": 4084,
  "ㅂㅚ": 4085,
  "ㅂㅚㅂㄱㅗ</w>": 4086,
  "ㅂㅚㅇㅗㄹ</w>": 4087,
  "ㅂㅜ": 4088,
  "ㅂㅜ</w>": 4089,
  "ㅂㅜㄱ": 4090,
  "ㅂㅜㄱㄷㅗㄷ": 4091,
  "ㅂㅜㄱㄷㅗㄷㅇㅏ</w>": 4092,
  "ㅂㅜㄱㅏ</w>": 4093,
  "ㅂㅜㄲㅡㄹㅓ": 4094,
  "ㅂㅜㄲㅡㄹㅓㅇㅜㄴ</w>": 4095,
  "ㅂㅜㄲㅡㄹㅓㅇㅜㅁㅇㅡㄹ</w>": 4096,
  "ㅂㅜㄲㅡㄹㅓㅇㅝ": 4097,
  "ㅂㅜㄴ": 4098,
  "ㅂㅜㄴ!</w>": 4099,
  "ㅂㅜㄴ</w>": 4100,
  "ㅂㅜㄴㄱㅏㄴ": 4101,
  "ㅂㅜㄴㅁㅕㅇ": 4102,
  "ㅂㅜㄴㅂㅜ": 4103,
  "ㅂㅜㄴㅂㅜㄷㅐㄹㅗ</w>": 4104,
  "ㅂㅜㄴㅇㅟ": 4105,
  "ㅂㅜㄴㅇㅡㄹㅗ</w>": 4106,
  "ㅂㅜㄴㅇㅣ</w>": 4107,
  "ㅂㅜㄴㅇㅣㄴㅏ</w>": 4108,
  "ㅂㅜㄴㅇㅣㅇㅓㅆㅅㅡㅂㄴㅣㄷㅏ.</w>": 4109,
  "ㅂㅜㄴㅍㅜㄹㅇㅣㄹㅡㄹ</w>": 4110,
  "ㅂㅜㄴㅎㅏㄱㅗ</w>": 4111,
  "ㅂㅜㄴㅎㅏㄱㅣㄷㅗ</w>": 4112,
  "ㅂㅜㄴㅎㅏㄴ</w>": 4113,
  "ㅂㅜㄴㅎㅏㅁㄱㅘ</w>": 4114,
  "ㅂㅜㄴㅎㅏㅇㅕ</w>": 4115,
  "ㅂㅜㄴㅎㅗㅇ": 4116,
  "ㅂㅜㄴㅡㄴ</w>": 4117,
  "ㅂㅜㄷㅐ": 4118,
  "ㅂㅜㄷㅐ</w>": 4119,
  "ㅂㅜㄷㅜㅇㅋㅕ": 4120,
  "ㅂㅜㄷㅜㅇㅋㅕㅇㅏㄴㄱㅗ</w>": 4121,
  "ㅂㅜㄷㅡㄹ": 4122,
  "ㅂㅜㄷㅡㄹㅓ": 4123,
  "ㅂㅜㄷㅡㄹㅓㅂㄱㅔ</w>": 4124,
  "ㅂㅜㄷㅣ</w>": 4125,
  "ㅂㅜㄷㅣㅈ": 4126,
  "ㅂㅜㄹ": 4127,
  "ㅂㅜㄹ</w>": 4128,
  "ㅂㅜㄹㄱㅓ": 4129,
  "ㅂㅜㄹㄱㅗ</w>": 4130,
  "ㅂㅜㄹㄱㅘ</w>": 4131,
  "ㅂㅜㄹㄱㅜㅎㅏㄱㅗ</w>": 4132,
  "ㅂㅜㄹㄱㅣㄹ": 4133,
  "ㅂㅜㄹㄹㅓ": 4134,
  "ㅂㅜㄹㄹㅓ</w>": 4135,
  "ㅂㅜㄹㄹㅓㄷㅏ</w>": 4136,
  "ㅂㅜㄹㄹㅓㄷㅡㄹㅇㅣ": 4137,
  "ㅂㅜㄹㄹㅓㅅㅓ</w>": 4138,
  "ㅂㅜㄹㄹㅓㅆㅅㅡㅂㄴㅣㄷㅏ.</w>": 4139,
  "ㅂㅜㄹㄹㅣ": 4140,
  "ㅂㅜㄹㅆㅏㅇ": 4141,
  "ㅂㅜㄹㅆㅜㄱ</w>": 4142,
  "ㅂㅜㄹㅇㅏㄴ": 4143,
  "ㅂㅜㄹㅇㅏㄴㅇㅡㄹ</w>": 4144,
  "ㅂㅜㄹㅇㅓ": 4145,
  "ㅂㅜㄹㅇㅓㅇㅗㄴㅡㄴ</w>": 4146,
  "ㅂㅜㄹㅇㅔ</w>": 4147,
  "ㅂㅜㄹㅇㅡㄹ</w>": 4148,
  "ㅂㅜㄹㅇㅣ</w>": 4149,
  "ㅂㅜㄹㅍㅕㅇㅇㅣ</w>": 4150,
  "ㅂㅜㄹㅎㅐㅇ": 4151,
  "ㅂㅜㄹㅎㅐㅇㅇㅡㄹ</w>": 4152,
  "ㅂㅜㄹㅎㅐㅇㅎㅏㄴ</w>": 4153,
  "ㅂㅜㄹㅎㅐㅇㅎㅣ</w>": 4154,
  "ㅂㅜㄹㅎㅕㄴㄷㅡㅅ</w>": 4155,
  "ㅂㅜㄹㅓ": 4156,
  "ㅂㅜㄹㅓㅂㅈㅣ</w>": 4157,
  "ㅂㅜㄹㅕ</w>": 4158,
  "ㅂㅜㄹㅡ": 4159,
  "ㅂㅜㄹㅡㄱㅔ</w>": 4160,
  "ㅂㅜㄹㅡㄱㅗ</w>": 4161,
  "ㅂㅜㄹㅡㄴ</w>": 4162,
  "ㅂㅜㄹㅡㄴㄷㅏ.</w>": 4163,
  "ㅂㅜㄹㅡㄴㅡㄴ</w>": 4164,
  "ㅂㅜㄹㅡㄹ</w>": 4165,
  "ㅂㅜㄹㅡㄹㅓ</w>": 4166,
  "ㅂㅜㄹㅡㅁㅕ</w>": 4167,
  "ㅂㅜㄹㅡㅁㅕㄴㅅㅓ</w>": 4168,
  "ㅂㅜㄹㅡㅅㅣㄴㅡㄴ</w>": 4169,
  "ㅂㅜㄹㅡㅈㅣ</w>": 4170,
  "ㅂㅜㄹㅡㅈㅣㅈ": 4171,
  "ㅂㅜㄹㅡㅈㅣㅈㄱㅗ</w>": 4172,
  "ㅂㅜㄹㅡㅈㅣㅈㅇㅓㅆㄷㅏ.</w>": 4173,
  "ㅂㅜㄹㅡㅈㅣㅈㅇㅓㅆㅅㅡㅂㄴㅣㄷㅏ.</w>": 4174,
  "ㅂㅜㄹㅣ": 4175,
  "ㅂㅜㄹㅣㄱㅗ</w>": 4176,
  "ㅂㅜㄹㅣㄴㅏㅋㅔ</w>": 4177,
  "ㅂㅜㄺ": 4178,
  "ㅂㅜㄺㅇㅓㅈㅣㄴㅡㄴ</w>": 4179,
  "ㅂㅜㄺㅇㅡㄴ</w>": 4180,
  "ㅂㅜㅁㅗ": 4181,
  "ㅂㅜㅁㅗ</w>": 4182,
  "ㅂㅜㅁㅗㄴㅣㅁ</w>": 4183,
  "ㅂㅜㅁㅗㄴㅣㅁㅇㅡㄹ</w>": 4184,
  "ㅂㅜㅁㅗㄹㅡㄹ</w>": 4185,
  "ㅂㅜㅂㅜㄴ": 4186,
  "ㅂㅜㅂㅜㄴㅡㄴ</w>": 4187,
  "ㅂㅜㅅ": 4188,
  "ㅂㅜㅅㅡㅅㅡ</w>": 4189,
  "ㅂㅜㅅㅣㄹ": 4190,
  "ㅂㅜㅇ": 4191,
  "ㅂㅜㅇㄷㅐㄹㅗ</w>": 4192,
  "ㅂㅜㅇㅓ": 4193,
  "ㅂㅜㅇㅣㄴ": 4194,
  "ㅂㅜㅇㅣㄴㅇㅡㄴ</w>": 4195,
  "ㅂㅜㅈㅏ": 4196,
  "ㅂㅜㅈㅏㄴㅡㄴ</w>": 4197,
  "ㅂㅜㅈㅏㅅㅈㅣㅂ</w>": 4198,
  "ㅂㅜㅈㅏㅇㅢ</w>": 4199,
  "ㅂㅜㅈㅗㄱ": 4200,
  "ㅂㅜㅈㅗㄱㅎㅏㄴ</w>": 4201,
  "ㅂㅜㅈㅣㄹㅓ": 4202,
  "ㅂㅜㅈㅣㄹㅓㄴㅎㅏㄴ</w>": 4203,
  "ㅂㅜㅈㅣㄹㅓㄴㅎㅣ</w>": 4204,
  "ㅂㅜㅌ": 4205,
  "ㅂㅜㅌㄷㅡㄹㄱㅗ</w>": 4206,
  "ㅂㅜㅌㄷㅡㄹㄹㅕ</w>": 4207,
  "ㅂㅜㅌㄷㅡㄹㅇㅓ</w>": 4208,
  "ㅂㅜㅌㅇㅓ</w>": 4209,
  "ㅂㅜㅌㅇㅕ</w>": 4210,
  "ㅂㅜㅌㅇㅕㅅㅓ</w>": 4211,
  "ㅂㅜㅌㅇㅡㄴ</w>": 4212,
  "ㅂㅜㅌㅇㅡㄹ</w>": 4213,
  "ㅂㅜㅌㅇㅣㄴ</w>": 4214,
  "ㅂㅜㅌㅇㅣㄴㅡㄴ</w>": 4215,
  "ㅂㅜㅌㅈㅏㅂ": 4216,
  "ㅂㅜㅌㅈㅏㅂㄱㅗ</w>": 4217,
  "ㅂㅜㅌㅈㅏㅂㅇㅏ</w>": 4218,
  "ㅂㅜㅌㅈㅏㅂㅎㅣ": 4219,
  "ㅂㅜㅌㅈㅏㅂㅎㅣㄱㅔ</w>": 4220,
  "ㅂㅜㅌㅏ": 4221,
  "ㅂㅜㅌㅏㄱ": 4222,
  "ㅂㅜㅌㅏㄱㅎㅏㄴ</w>": 4223,
  "ㅂㅜㅌㅓ</w>": 4224,
  "ㅂㅜㅌㅓㄴㅡㄴ</w>": 4225,
  "ㅂㅣ": 4226,
  "ㅂㅣ</w>": 4227,
  "ㅂㅣㄱㅏ</w>": 4228,
  "ㅂㅣㄴ": 4229,
  "ㅂㅣㄴ</w>": 4230,
  "ㅂㅣㄴㄷㅐ": 4231,
  "ㅂㅣㄴㄷㅐㄱㅏ</w>": 4232,
  "ㅂㅣㄴㅌㅡㅁㅇㅓㅄㅇㅣ</w>": 4233,
  "ㅂㅣㄴㅜ": 4234,
  "ㅂㅣㄴㅡㄴ</w>": 4235,
  "ㅂㅣㄷㅏㄴ": 4236,
  "ㅂㅣㄷㅏㄴㅇㅡㄹ</w>": 4237,
  "ㅂㅣㄷㅗ</w>": 4238,
  "ㅂㅣㄹ": 4239,
  "ㅂㅣㄹㄱㅗ</w>": 4240,
  "ㅂㅣㄹㄹㅕ": 4241,
  "ㅂㅣㄹㅇㅓ": 4242,
  "ㅂㅣㄹㅇㅓㅁㅓㄱㅇㅡㄹ</w>": 4243,
  "ㅂㅣㄹㅇㅓㅆㅅㅡㅂㄴㅣㄷㅏ.</w>": 4244,
  "ㅂㅣㄹㅗㄱ</w>": 4245,
  "ㅂㅣㄹㅗㅅ": 4246,
  "ㅂㅣㄹㅗㅅㅗ</w>": 4247,
  "ㅂㅣㄹㅡㄹ</w>": 4248,
  "ㅂㅣㅁㅕㅇㅇㅣ</w>": 4249,
  "ㅂㅣㅁㅣ": 4250,
  "ㅂㅣㅁㅣㄹ": 4251,
  "ㅂㅣㅁㅣㄹㅇㅡㄹ</w>": 4252,
  "ㅂㅣㅂㅣ": 4253,
  "ㅂㅣㅅ": 4254,
  "ㅂㅣㅅㅡ": 4255,
  "ㅂㅣㅇ": 4256,
  "ㅂㅣㅇㄱㅡㄹㅂㅣㅇㄱㅡㄹ</w>": 4257,
  "ㅂㅣㅇㄱㅡㄹㅔ</w>": 4258,
  "ㅂㅣㅇㅂㅣㅇ</w>": 4259,
  "ㅂㅣㅇㅓㅆㄷㅓㄴ</w>": 4260,
  "ㅂㅣㅇㅟㅇㅔ</w>": 4261,
  "ㅂㅣㅊ": 4262,
  "ㅂㅣㅊ</w>": 4263,
  "ㅂㅣㅊㄱㅏㅌㅇㅣ</w>": 4264,
  "ㅂㅣㅊㄴㅏㄴㅡㄴ</w>": 4265,
  "ㅂㅣㅊㅇㅔ</w>": 4266,
  "ㅂㅣㅊㅇㅡㄹ</w>": 4267,
  "ㅂㅣㅊㅇㅡㄹㅗ</w>": 4268,
  "ㅂㅣㅊㅇㅣ</w>": 4269,
  "ㅂㅣㅊㅝ": 4270,
  "ㅂㅣㅊㅣ": 4271,
  "ㅂㅣㅊㅣㄴㅡㄴ</w>": 4272,
  "ㅂㅣㅊㅣㄹ</w>": 4273,
  "ㅂㅣㅊㅣㅇㅓ</w>": 4274,
  "ㅃ": 4275,
  "ㅃㅏ": 4276,
  "ㅃㅏㄱ": 4277,
  "ㅃㅏㄱㅃㅏㄱ</w>": 4278,
  "ㅃㅏㄹ": 4279,
  "ㅃㅏㄹㄱㅏㄴ</w>": 4280,
  "ㅃㅏㄹㄱㅐ": 4281,
  "ㅃㅏㄹㄹㅣ": 4282,
  "ㅃㅏㄹㄹㅣ</w>": 4283,
  "ㅃㅏㄹㅡㄴ</w>": 4284,
  "ㅃㅏㅈㅕ": 4285,
  "ㅃㅏㅈㅕ</w>": 4286,
  "ㅃㅏㅈㅕㅅㅓ</w>": 4287,
  "ㅃㅏㅈㅕㅆㅇㅡㄴㅣ</w>": 4288,
  "ㅃㅏㅈㅣㄴ</w>": 4289,
  "ㅃㅏㅈㅣㄷㅗㄹㅗㄱ</w>": 4290,
  "ㅃㅏㅌㅡㄹ": 4291,
  "ㅃㅏㅌㅡㄹㅕ</w>": 4292,
  "ㅃㅐ": 4293,
  "ㅃㅐㄱㅃㅐ": 4294,
  "ㅃㅐㅇㅏ": 4295,
  "ㅃㅐㅇㅏㅅ": 4296,
  "ㅃㅐㅇㅏㅅㄱㅣㄴ</w>": 4297,
  "ㅃㅐㅇㅓ": 4298,
  "ㅃㅐㅇㅓ</w>": 4299,
  "ㅃㅐㅈㅣ</w>": 4300,
  "ㅃㅑ": 4301,
  "ㅃㅑㅁ": 4302,
  "ㅃㅑㅁㅇㅔㄴㅡㄴ</w>": 4303,
  "ㅃㅑㅁㅇㅡㄹ</w>": 4304,
  "ㅃㅑㅁㅇㅡㄹㅗ</w>": 4305,
  "ㅃㅓ": 4306,
  "ㅃㅓㄲㅜ": 4307,
  "ㅃㅓㄲㅜㄱ!</w>": 4308,
  "ㅃㅓㄴ": 4309,
  "ㅃㅓㄴㅎㅏㄴ</w>": 4310,
  "ㅃㅓㄷ": 4311,
  "ㅃㅓㄹㅂㅏㄲㅇㅔ</w>": 4312,
  "ㅃㅓㅅ": 4313,
  "ㅃㅓㅅㅃㅓ": 4314,
  "ㅃㅓㅈㅣ": 4315,
  "ㅃㅕ": 4316,
  "ㅃㅕㄱㅏ</w>": 4317,
  "ㅃㅗ": 4318,
  "ㅃㅗㅁ": 4319,
  "ㅃㅗㅁㄴㅐㅇㅓㅆㅅㅡㅂㄴㅣㄷㅏ.</w>": 4320,
  "ㅃㅗㅂ": 4321,
  "ㅃㅗㅂㅎㅕㅆ": 4322,
  "ㅃㅗㅂㅎㅣ": 4323,
  "ㅃㅗㅇ": 4324,
  "ㅃㅗㅇㅑㄴ</w>": 4325,
  "ㅃㅛㅈㅗㄱ": 4326,
  "ㅃㅜ": 4327,
  "ㅃㅜㄴ": 4328,
  "ㅃㅜㄴ</w>": 4329,
  "ㅃㅜㄴㅁㅏㄴ</w>": 4330,
  "ㅃㅜㄴㅇㅣ</w>": 4331,
  "ㅃㅜㄴㅇㅣㄱㅗ</w>": 4332,
  "ㅃㅜㄴㅇㅣㄷㅏ.</w>": 4333,
  "ㅃㅜㄴㅇㅣㅇㅓㅆㄷㅏ.</w>": 4334,
  "ㅃㅜㄴㅇㅣㅇㅓㅆㅅㅡㅂㄴㅣㄷㅏ.</w>": 4335,
  "ㅃㅜㄹ": 4336,
  "ㅃㅜㄹㅣ": 4337,
  "ㅃㅜㄹㅣㅊㅣ": 4338,
  "ㅃㅣ": 4339,
  "ㅅ": 4340,
  "ㅅ</w>": 4341,
  "ㅅㅁㅜㄹㅇㅡㄹ</w>": 4342,
  "ㅅㅇㅡㄹ</w>": 4343,
  "ㅅㅇㅣ</w>": 4344,
  "ㅅㅎㅏㄴ</w>": 4345,
  "ㅅㅏ": 4346,
  "ㅅㅏ</w>": 4347,
  "ㅅㅏㄱㅏ</w>": 4348,
  "ㅅㅏㄱㅓㄴ": 4349,
  "ㅅㅏㄱㅓㄴㅇㅡㄴ</w>": 4350,
  "ㅅㅏㄱㅗ</w>": 4351,
  "ㅅㅏㄱㅘ": 4352,
  "ㅅㅏㄱㅘ</w>": 4353,
  "ㅅㅏㄱㅘㅎㅐㅆㅅㅡㅂㄴㅣㄷㅏ.</w>": 4354,
  "ㅅㅏㄴ": 4355,
  "ㅅㅏㄴ</w>": 4356,
  "ㅅㅏㄴㄱㅘ</w>": 4357,
  "ㅅㅏㄴㄷㅡㅇㅅㅓㅇ": 4358,
  "ㅅㅏㄴㅂㅗㅇ": 4359,
  "ㅅㅏㄴㅅㅐ": 4360,
  "ㅅㅏㄴㅅㅗㄱㅇㅡㄴ</w>": 4361,
  "ㅅㅏㄴㅅㅗㄱㅇㅡㄹㅗ</w>": 4362,
  "ㅅㅏㄴㅅㅗㄱㅇㅣ</w>": 4363,
  "ㅅㅏㄴㅇㅔ</w>": 4364,
  "ㅅㅏㄴㅇㅔㅅㅓ</w>": 4365,
  "ㅅㅏㄴㅇㅡㄹ</w>": 4366,
  "ㅅㅏㄴㅇㅡㄹㅗ</w>": 4367,
  "ㅅㅏㄴㅇㅣ</w>": 4368,
  "ㅅㅏㄴㅏ": 4369,
  "ㅅㅏㄴㅏㅇㅜㄴ</w>": 4370,
  "ㅅㅏㄴㅐ": 4371,
  "ㅅㅏㄴㅐㅈㅏㅅㅣㄱㅇㅡㄴ</w>": 4372,
  "ㅅㅏㄴㅡㄴ</w>": 4373,
  "ㅅㅏㄷㅏ": 4374,
  "ㅅㅏㄷㅏ</w>": 4375,
  "ㅅㅏㄹ": 4376,
  "ㅅㅏㄹ</w>": 4377,
  "ㅅㅏㄹㄱㅏㅌㅇㅣ</w>": 4378,
  "ㅅㅏㄹㄱㅔ</w>": 4379,
  "ㅅㅏㄹㄱㅗ</w>": 4380,
  "ㅅㅏㄹㄱㅡㅁㅅㅏㄹㄱㅡㅁ</w>": 4381,
  "ㅅㅏㄹㄹㅕ": 4382,
  "ㅅㅏㄹㄹㅣㅁㅅㅏㄹ": 4383,
  "ㅅㅏㄹㄹㅣㅁㅅㅏㄹㅇㅣㄱㅏ</w>": 4384,
  "ㅅㅏㄹㅁㅕㅅㅣ</w>": 4385,
  "ㅅㅏㄹㅂㅏㄲㅇㅔ</w>": 4386,
  "ㅅㅏㄹㅇㅏ": 4387,
  "ㅅㅏㄹㅇㅏ</w>": 4388,
  "ㅅㅏㄹㅇㅏㄱㅏ": 4389,
  "ㅅㅏㄹㅇㅏㄱㅏㄴㅡㄴ</w>": 4390,
  "ㅅㅏㄹㅇㅏㄱㅖㅅㅣㄹ</w>": 4391,
  "ㅅㅏㄹㅇㅏㅁㅏㄴ</w>": 4392,
  "ㅅㅏㄹㅇㅏㅆ": 4393,
  "ㅅㅏㄹㅇㅔ</w>": 4394,
  "ㅅㅏㄹㅇㅡㄴ</w>": 4395,
  "ㅅㅏㄹㅇㅡㄹ</w>": 4396,
  "ㅅㅏㄹㅇㅣ</w>": 4397,
  "ㅅㅏㄹㅉㅏㄱ</w>": 4398,
  "ㅅㅏㄹㅍㅕ": 4399,
  "ㅅㅏㄹㅍㅕㅂㅗㄱㅗ</w>": 4400,
  "ㅅㅏㄹㅍㅣ": 4401,
  "ㅅㅏㄹㅏ": 4402,
  "ㅅㅏㄹㅏㅁ": 4403,
  "ㅅㅏㄹㅏㅁ)": 4404,
  "ㅅㅏㄹㅏㅁ,</w>": 4405,
  "ㅅㅏㄹㅏㅁ</w>": 4406,
  "ㅅㅏㄹㅏㅁㄱㅏㅌㅇㅣ</w>": 4407,
  "ㅅㅏㄹㅏㅁㄱㅘ</w>": 4408,
  "ㅅㅏㄹㅏㅁㄷㅗ</w>": 4409,
  "ㅅㅏㄹㅏㅁㄷㅡㄹ": 4410,
  "ㅅㅏㄹㅏㅁㄷㅡㄹㅇㅡㄴ</w>": 4411,
  "ㅅㅏㄹㅏㅁㄷㅡㄹㅇㅡㄹ</w>": 4412,
  "ㅅㅏㄹㅏㅁㄷㅡㄹㅇㅣ</w>": 4413,
  "ㅅㅏㄹㅏㅁㅁㅏㄴ</w>": 4414,
  "ㅅㅏㄹㅏㅁㅆㅣㄱ</w>": 4415,
  "ㅅㅏㄹㅏㅁㅇㅔ</w>": 4416,
  "ㅅㅏㄹㅏㅁㅇㅔㄱㅔ</w>": 4417,
  "ㅅㅏㄹㅏㅁㅇㅔㄱㅔㄹㅏㄷㅗ</w>": 4418,
  "ㅅㅏㄹㅏㅁㅇㅡㄴ</w>": 4419,
  "ㅅㅏㄹㅏㅁㅇㅡㄹ</w>": 4420,
  "ㅅㅏㄹㅏㅁㅇㅡㄹㅗ</w>": 4421,
  "ㅅㅏㄹㅏㅁㅇㅢ</w>": 4422,
  "ㅅㅏㄹㅏㅁㅇㅣ</w>": 4423,
  "ㅅㅏㄹㅏㅁㅇㅣㄹㅏㄱㅗㄴㅡㄴ</w>": 4424,
  "ㅅㅏㄹㅏㅁㅇㅣㅁㅡㄹㅗ</w>": 4425,
  "ㅅㅏㄹㅏㅁㅇㅣㅇㅓㅆㅅㅡㅂㄴㅣㄷㅏ.</w>": 4426,
  "ㅅㅏㄹㅏㅁㅊㅓㄹㅓㅁ</w>": 4427,
  "ㅅㅏㄹㅏㅇ": 4428,
  "ㅅㅏㄹㅏㅇㅇㅣ</w>": 4429,
  "ㅅㅏㄹㅏㅇㅎㅏㄱㅗ</w>": 4430,
  "ㅅㅏㄹㅏㅇㅎㅏㄴㅡㄴ</w>": 4431,
  "ㅅㅏㄹㅏㅇㅎㅏㅇㅕ": 4432,
  "ㅅㅏㄹㅏㅈㅕ</w>": 4433,
  "ㅅㅏㄹㅓ</w>": 4434,
  "ㅅㅏㄹㅕㄱㅗ</w>": 4435,
  "ㅅㅏㄹㅡㄹ</w>": 4436,
  "ㅅㅏㄻ": 4437,
  "ㅅㅏㅁ": 4438,
  "ㅅㅏㅁ</w>": 4439,
  "ㅅㅏㅁㅂㅗ": 4440,
  "ㅅㅏㅁㅂㅗㄱㅏ</w>": 4441,
  "ㅅㅏㅁㅂㅗㄴㅡㄴ</w>": 4442,
  "ㅅㅏㅁㅂㅗㅇㅘ</w>": 4443,
  "ㅅㅏㅁㅂㅗㅇㅢ</w>": 4444,
  "ㅅㅏㅁㅅㅣㅂ": 4445,
  "ㅅㅏㅁㅅㅣㅂ</w>": 4446,
  "ㅅㅏㅁㅇㅏㅅㅓ</w>": 4447,
  "ㅅㅏㅁㅇㅡㄹ</w>": 4448,
  "ㅅㅏㅁㅋㅕ": 4449,
  "ㅅㅏㅁㅜ": 4450,
  "ㅅㅏㅁㅜㅅㅣㄹ": 4451,
  "ㅅㅏㅁㅜㅅㅣㄹ</w>": 4452,
  "ㅅㅏㅁㅜㅅㅣㄹㄹㅗ</w>": 4453,
  "ㅅㅏㅂㅏㅇㅇㅡㄹ</w>": 4454,
  "ㅅㅏㅅㅓ</w>": 4455,
  "ㅅㅏㅅㅣㄹ": 4456,
  "ㅅㅏㅅㅣㄹ</w>": 4457,
  "ㅅㅏㅅㅣㄹㄷㅐㄹㅗ</w>": 4458,
  "ㅅㅏㅅㅣㄹㅇㅡㄴ</w>": 4459,
  "ㅅㅏㅅㅣㅂ</w>": 4460,
  "ㅅㅏㅇ": 4461,
  "ㅅㅏㅇ</w>": 4462,
  "ㅅㅏㅇㄷㅏㅇ": 4463,
  "ㅅㅏㅇㅇㅔ</w>": 4464,
  "ㅅㅏㅇㅇㅡㄹ</w>": 4465,
  "ㅅㅏㅇㅇㅡㄹㅗ</w>": 4466,
  "ㅅㅏㅇㅇㅣ</w>": 4467,
  "ㅅㅏㅇㅊㅓㄱㅏ</w>": 4468,
  "ㅅㅏㅇㅌㅐ": 4469,
  "ㅅㅏㅇㅎㅏㄱㅔ</w>": 4470,
  "ㅅㅏㅇㅔ</w>": 4471,
  "ㅅㅏㅇㅘ</w>": 4472,
  "ㅅㅏㅇㅛㅇ": 4473,
  "ㅅㅏㅇㅣㄱㅏ</w>": 4474,
  "ㅅㅏㅇㅣㄹㅗ</w>": 4475,
  "ㅅㅏㅇㅣㄹㅡㄹ</w>": 4476,
  "ㅅㅏㅇㅣㅇㅔ": 4477,
  "ㅅㅏㅇㅣㅇㅔ</w>": 4478,
  "ㅅㅏㅈㅏ": 4479,
  "ㅅㅏㅈㅏㄱㅏ</w>": 4480,
  "ㅅㅏㅈㅏㄷㅡㄹㅇㅡㄴ</w>": 4481,
  "ㅅㅏㅈㅏㅇ": 4482,
  "ㅅㅏㅈㅏㅇ</w>": 4483,
  "ㅅㅏㅈㅏㅇㄴㅣㅁ</w>": 4484,
  "ㅅㅏㅈㅓㅇ": 4485,
  "ㅅㅏㅈㅓㅇㅇㅡㄹ</w>": 4486,
  "ㅅㅏㅈㅓㅇㅇㅣ</w>": 4487,
  "ㅅㅏㅈㅚ": 4488,
  "ㅅㅏㅈㅜㄹ</w>": 4489,
  "ㅅㅏㅈㅣㄴ": 4490,
  "ㅅㅏㅈㅣㄴㄱㅘ</w>": 4491,
  "ㅅㅏㅎㅚ": 4492,
  "ㅅㅏㅎㅚㅇㅔ</w>": 4493,
  "ㅅㅏㅎㅡㄹ": 4494,
  "ㅅㅏㅎㅡㄹ</w>": 4495,
  "ㅅㅏㅎㅡㄹㅇㅣㄴㅏ</w>": 4496,
  "ㅅㅏㅎㅡㄹㅉㅐ</w>": 4497,
  "ㅅㅐ": 4498,
  "ㅅㅐ</w>": 4499,
  "ㅅㅐㄱ": 4500,
  "ㅅㅐㄱ</w>": 4501,
  "ㅅㅐㄱㅅㅣ": 4502,
  "ㅅㅐㄲㅣ</w>": 4503,
  "ㅅㅐㄲㅣㄹㅡㄹ</w>": 4504,
  "ㅅㅐㄷㅗㄹㅗㄱ</w>": 4505,
  "ㅅㅐㄹㅗ</w>": 4506,
  "ㅅㅐㄹㅗㅇㅜㄴ</w>": 4507,
  "ㅅㅐㄹㅛㅇ": 4508,
  "ㅅㅐㄹㅛㅇㅇㅏ</w>": 4509,
  "ㅅㅐㄹㅛㅇㅇㅣㄴㅡㄴ</w>": 4510,
  "ㅅㅐㄹㅛㅇㅇㅣㄷㅗ</w>": 4511,
  "ㅅㅐㄹㅛㅇㅇㅣㄹㅡㄹ</w>": 4512,
  "ㅅㅐㅁ": 4513,
  "ㅅㅐㅂㅕㄱ": 4514,
  "ㅅㅐㅃㅏㄹㄱㅏㄴ</w>": 4515,
  "ㅅㅐㅃㅏㄹㄱㅐ": 4516,
  "ㅅㅐㅅㅏㅁ": 4517,
  "ㅅㅐㅅㅏㅁㅅㅡㄹㅔ</w>": 4518,
  "ㅅㅐㅇ": 4519,
  "ㅅㅐㅇ</w>": 4520,
  "ㅅㅐㅇㄱㅏㄱ": 4521,
  "ㅅㅐㅇㄱㅏㄱ</w>": 4522,
  "ㅅㅐㅇㄱㅏㄱㄷㅗ</w>": 4523,
  "ㅅㅐㅇㄱㅏㄱㅇㅔ</w>": 4524,
  "ㅅㅐㅇㄱㅏㄱㅇㅡㄴ</w>": 4525,
  "ㅅㅐㅇㄱㅏㄱㅇㅡㄹ</w>": 4526,
  "ㅅㅐㅇㄱㅏㄱㅇㅡㄹㅗ</w>": 4527,
  "ㅅㅐㅇㄱㅏㄱㅇㅣ</w>": 4528,
  "ㅅㅐㅇㄱㅏㄱㅎㅏ": 4529,
  "ㅅㅐㅇㄱㅏㄱㅎㅏㄱㅗ</w>": 4530,
  "ㅅㅐㅇㄱㅏㄱㅎㅏㄴ": 4531,
  "ㅅㅐㅇㄱㅏㄱㅎㅏㄴ</w>": 4532,
  "ㅅㅐㅇㄱㅏㄱㅎㅏㄴㄷㅏ.</w>": 4533,
  "ㅅㅐㅇㄱㅏㄱㅎㅏㄴㅡㄴ</w>": 4534,
  "ㅅㅐㅇㄱㅏㄱㅎㅏㄴㅣ</w>": 4535,
  "ㅅㅐㅇㄱㅏㄱㅎㅏㄹ</w>": 4536,
  "ㅅㅐㅇㄱㅏㄱㅎㅏㅁㅕ</w>": 4537,
  "ㅅㅐㅇㄱㅏㄱㅎㅏㅁㅕㄴ</w>": 4538,
  "ㅅㅐㅇㄱㅏㄱㅎㅏㅁㅕㄴㅅㅓ</w>": 4539,
  "ㅅㅐㅇㄱㅏㄱㅎㅏㅅㅣㄴ</w>": 4540,
  "ㅅㅐㅇㄱㅏㄱㅎㅏㅇㅕ</w>": 4541,
  "ㅅㅐㅇㄱㅏㄱㅎㅏㅇㅕㅆ</w>": 4542,
  "ㅅㅐㅇㄱㅏㄱㅎㅏㅇㅕㅆㄷㅏ.</w>": 4543,
  "ㅅㅐㅇㄱㅏㄱㅎㅏㅇㅕㅆㅅㅡㅂㄴㅣㄷㅏ.</w>": 4544,
  "ㅅㅐㅇㄱㅏㄱㅎㅏㅈㅣ</w>": 4545,
  "ㅅㅐㅇㄱㅏㄱㅎㅐ": 4546,
  "ㅅㅐㅇㄱㅏㄱㅎㅐ</w>": 4547,
  "ㅅㅐㅇㄱㅕ": 4548,
  "ㅅㅐㅇㄱㅕㅆ": 4549,
  "ㅅㅐㅇㄱㅣ": 4550,
  "ㅅㅐㅇㄱㅣㄱㅗ</w>": 4551,
  "ㅅㅐㅇㄱㅣㄴ</w>": 4552,
  "ㅅㅐㅇㄱㅣㅈㅣ</w>": 4553,
  "ㅅㅐㅇㄷㅗ": 4554,
  "ㅅㅐㅇㄷㅗㄴㅡㄴ</w>": 4555,
  "ㅅㅐㅇㄷㅗㄷㅡㄹ</w>": 4556,
  "ㅅㅐㅇㄷㅗㄷㅡㄹㅇㅡㄴ</w>": 4557,
  "ㅅㅐㅇㄷㅗㄷㅡㄹㅇㅡㄹ</w>": 4558,
  "ㅅㅐㅇㄷㅗㄹㅡㄹ</w>": 4559,
  "ㅅㅐㅇㅁㅕㅇ": 4560,
  "ㅅㅐㅇㅈㅟ</w>": 4561,
  "ㅅㅐㅇㅎㅘㄹ": 4562,
  "ㅅㅐㅇㅎㅘㄹㅇㅡㄹ</w>": 4563,
  "ㅅㅐㅇㅎㅘㄹㅇㅣ</w>": 4564,
  "ㅅㅐㅇㅓㄴㅏㅇㅗㄴㅡㄴ</w>": 4565,
  "ㅅㅐㅇㅓㅁㅓㄴㅣ</w>": 4566,
  "ㅅㅐㅇㅓㅁㅓㄴㅣㄱㅏ</w>": 4567,
  "ㅅㅐㅇㅓㅁㅓㄴㅣㄴㅡㄴ</w>": 4568,
  "ㅅㅐㅇㅗㄱ": 4569,
  "ㅅㅐㅇㅗㄱㅇㅏ</w>": 4570,
  "ㅅㅐㅇㅗㄱㅇㅣ": 4571,
  "ㅅㅐㅇㅗㄱㅇㅣㄱㅏ</w>": 4572,
  "ㅅㅐㅇㅗㄱㅇㅣㄴㅡㄴ</w>": 4573,
  "ㅅㅐㅇㅗㄱㅇㅣㄹㅡㄹ</w>": 4574,
  "ㅅㅐㅇㅝ": 4575,
  "ㅅㅐㅍㅏㄹ": 4576,
  "ㅅㅐㅍㅏㄹㅐ": 4577,
  "ㅅㅐㅍㅏㄹㅐㅈㅣㅁㅕ</w>": 4578,
  "ㅅㅓ": 4579,
  "ㅅㅓ,</w>": 4580,
  "ㅅㅓ.</w>": 4581,
  "ㅅㅓ</w>": 4582,
  "ㅅㅓㄱ": 4583,
  "ㅅㅓㄱ</w>": 4584,
  "ㅅㅓㄱㄱㅘ</w>": 4585,
  "ㅅㅓㄱㅅㅚ": 4586,
  "ㅅㅓㄱㅇㅣ</w>": 4587,
  "ㅅㅓㄱㅡㄹ": 4588,
  "ㅅㅓㄱㅡㄹㅍㅡㄴ</w>": 4589,
  "ㅅㅓㄲ": 4590,
  "ㅅㅓㄲㅇㅕ</w>": 4591,
  "ㅅㅓㄲㅇㅕㅅㅓ</w>": 4592,
  "ㅅㅓㄲㅇㅣㄴ</w>": 4593,
  "ㅅㅓㄴ": 4594,
  "ㅅㅓㄴ</w>": 4595,
  "ㅅㅓㄴㄴㅕ": 4596,
  "ㅅㅓㄴㄴㅕㄱㅏ</w>": 4597,
  "ㅅㅓㄴㄷㅏㄹㄴㅔ</w>": 4598,
  "ㅅㅓㄴㄸㅡㅅ</w>": 4599,
  "ㅅㅓㄴㅅㅐㅇ": 4600,
  "ㅅㅓㄴㅅㅐㅇ</w>": 4601,
  "ㅅㅓㄴㅅㅐㅇㄴㅣ": 4602,
  "ㅅㅓㄴㅅㅐㅇㄴㅣㅁ": 4603,
  "ㅅㅓㄴㅅㅐㅇㄴㅣㅁ!</w>": 4604,
  "ㅅㅓㄴㅅㅐㅇㄴㅣㅁ!”</w>": 4605,
  "ㅅㅓㄴㅅㅐㅇㄴㅣㅁ</w>": 4606,
  "ㅅㅓㄴㅅㅐㅇㄴㅣㅁㄱㅘ</w>": 4607,
  "ㅅㅓㄴㅅㅐㅇㄴㅣㅁㄲㅔ</w>": 4608,
  "ㅅㅓㄴㅅㅐㅇㄴㅣㅁㄲㅔㅅㅓ</w>": 4609,
  "ㅅㅓㄴㅅㅐㅇㄴㅣㅁㄲㅔㅅㅓㄴㅡㄴ</w>": 4610,
  "ㅅㅓㄴㅅㅐㅇㄴㅣㅁㄲㅔㅅㅓㄷㅗ</w>": 4611,
  "ㅅㅓㄴㅅㅐㅇㄴㅣㅁㄷㅡㄹ": 4612,
  "ㅅㅓㄴㅅㅐㅇㄴㅣㅁㅇㅔㄱㅔ</w>": 4613,
  "ㅅㅓㄴㅅㅐㅇㄴㅣㅁㅇㅔㄱㅔㅅㅓ</w>": 4614,
  "ㅅㅓㄴㅅㅐㅇㄴㅣㅁㅇㅡㄴ</w>": 4615,
  "ㅅㅓㄴㅅㅐㅇㄴㅣㅁㅇㅡㄹ</w>": 4616,
  "ㅅㅓㄴㅅㅐㅇㄴㅣㅁㅇㅢ</w>": 4617,
  "ㅅㅓㄴㅅㅐㅇㄴㅣㅁㅇㅣ</w>": 4618,
  "ㅅㅓㄴㅅㅐㅇㅇㅢ</w>": 4619,
  "ㅅㅓㄴㅅㅓㄴㅎㅐㅅㅓ</w>": 4620,
  "ㅅㅓㄴㅅㅜ": 4621,
  "ㅅㅓㄴㅅㅜ</w>": 4622,
  "ㅅㅓㄴㅅㅜㄹ": 4623,
  "ㅅㅓㄴㅓ</w>": 4624,
  "ㅅㅓㄴㅡㄴ</w>": 4625,
  "ㅅㅓㄴㅡㄹㅎㅏㄴ</w>": 4626,
  "ㅅㅓㄷㅂㅜㄹㄹㅣ</w>": 4627,
  "ㅅㅓㄷㅗ</w>": 4628,
  "ㅅㅓㄹ": 4629,
  "ㅅㅓㄹ</w>": 4630,
  "ㅅㅓㄹㄱㅖ": 4631,
  "ㅅㅓㄹㄹㅓㅇ": 4632,
  "ㅅㅓㄹㄹㅓㅇㅌㅏㅇ</w>": 4633,
  "ㅅㅓㄹㄹㅓㅇㅌㅏㅇㅇㅡㄹ</w>": 4634,
  "ㅅㅓㄹㅁㅏ</w>": 4635,
  "ㅅㅓㄹㅁㅕㅇ": 4636,
  "ㅅㅓㄹㅁㅕㅇㅇㅡㄹ</w>": 4637,
  "ㅅㅓㄹㅁㅕㅇㅎㅏㄹ</w>": 4638,
  "ㅅㅓㄹㅅㅏ</w>": 4639,
  "ㅅㅓㄹㅇㅜ": 4640,
  "ㅅㅓㄹㅇㅜㅁ</w>": 4641,
  "ㅅㅓㄹㅇㅜㅁㅇㅡㄹ</w>": 4642,
  "ㅅㅓㄹㅇㅡㄹ</w>": 4643,
  "ㅅㅓㄹㅏ": 4644,
  "ㅅㅓㄹㅏㅂ": 4645,
  "ㅅㅓㄹㅓ": 4646,
  "ㅅㅓㄹㅗ</w>": 4647,
  "ㅅㅓㄹㅗㅅㅓㄹㅗ</w>": 4648,
  "ㅅㅓㅁㅇㅡㄹ</w>": 4649,
  "ㅅㅓㅁㅓㄱㅅㅓㅁㅓㄱ": 4650,
  "ㅅㅓㅁㅗ": 4651,
  "ㅅㅓㅂ": 4652,
  "ㅅㅓㅂㅅㅓㅂ": 4653,
  "ㅅㅓㅂㅏㅇ": 4654,
  "ㅅㅓㅂㅏㅇㄱㅘ</w>": 4655,
  "ㅅㅓㅂㅏㅇㅇㅡㄴ</w>": 4656,
  "ㅅㅓㅂㅏㅇㅇㅣ</w>": 4657,
  "ㅅㅓㅅㅓ</w>": 4658,
  "ㅅㅓㅅㅡㄹㅇㅔ</w>": 4659,
  "ㅅㅓㅅㅡㅁㅈㅣ</w>": 4660,
  "ㅅㅓㅆ": 4661,
  "ㅅㅓㅆㄴㅡㄴ</w>": 4662,
  "ㅅㅓㅆㄷㅏ.</w>": 4663,
  "ㅅㅓㅆㄷㅏㄱㅏ</w>": 4664,
  "ㅅㅓㅆㄷㅓㄴ</w>": 4665,
  "ㅅㅓㅆㅅㅡㅂㄴㅣㄷㅏ.</w>": 4666,
  "ㅅㅓㅇ": 4667,
  "ㅅㅓㅇ</w>": 4668,
  "ㅅㅓㅇ’ㅇㅡㄹ</w>": 4669,
  "ㅅㅓㅇㄱㅗㅇ": 4670,
  "ㅅㅓㅇㄱㅜ</w>": 4671,
  "ㅅㅓㅇㅇㅡㄹ</w>": 4672,
  "ㅅㅓㅇㅇㅣ</w>": 4673,
  "ㅅㅓㅇㅈㅓㄱㄷㅗ</w>": 4674,
  "ㅅㅓㅇㅎㅣ</w>": 4675,
  "ㅅㅓㅇㅑ</w>": 4676,
  "ㅅㅓㅇㅜㄴ": 4677,
  "ㅅㅓㅇㅜㄹ": 4678,
  "ㅅㅓㅇㅜㄹ</w>": 4679,
  "ㅅㅓㅇㅜㄹㄹㅗ</w>": 4680,
  "ㅅㅓㅇㅜㄹㅇㅔ</w>": 4681,
  "ㅅㅓㅇㅜㄹㅇㅡㄹ</w>": 4682,
  "ㅅㅓㅈㅐ": 4683,
  "ㅅㅓㅈㅓㅁ</w>": 4684,
  "ㅅㅓㅈㅓㅁㅇㅡㄹㅗ</w>": 4685,
  "ㅅㅓㅉㅗㄱㅇㅡㄹㅗ</w>": 4686,
  "ㅅㅔ": 4687,
  "ㅅㅔ.</w>": 4688,
  "ㅅㅔ.”</w>": 4689,
  "ㅅㅔ</w>": 4690,
  "ㅅㅔㄱㅏ</w>": 4691,
  "ㅅㅔㄱㅓㅁ": 4692,
  "ㅅㅔㄱㅡㄹㅕ.</w>": 4693,
  "ㅅㅔㄴ</w>": 4694,
  "ㅅㅔㄴㅡㄴ</w>": 4695,
  "ㅅㅔㅁ": 4696,
  "ㅅㅔㅁㅇㅣㄴㅏ</w>": 4697,
  "ㅅㅔㅅ": 4698,
  "ㅅㅔㅅㅏㅇ": 4699,
  "ㅅㅔㅅㅏㅇ</w>": 4700,
  "ㅅㅔㅅㅏㅇㅇㅔ</w>": 4701,
  "ㅅㅔㅅㅏㅇㅇㅔㄴㅡㄴ</w>": 4702,
  "ㅅㅔㅅㅏㅇㅇㅔㅅㅓ</w>": 4703,
  "ㅅㅔㅅㅏㅇㅇㅡㄹ</w>": 4704,
  "ㅅㅔㅅㅏㅇㅇㅢ</w>": 4705,
  "ㅅㅔㅅㅏㅇㅇㅣ</w>": 4706,
  "ㅅㅔㅅㅜㄴㅡㄴ</w>": 4707,
  "ㅅㅔㅅㅜㄹㅡㄹ</w>": 4708,
  "ㅅㅔㅇㅛ.</w>": 4709,
  "ㅅㅔㅇㅛ.”</w>": 4710,
  "ㅅㅔㅇㅛ?</w>": 4711,
  "ㅅㅔㅇㅝ": 4712,
  "ㅅㅔㅇㅝㄹㅇㅡㄹ</w>": 4713,
  "ㅅㅕ": 4714,
  "ㅅㅕ.</w>": 4715,
  "ㅅㅕㅅㅓ</w>": 4716,
  "ㅅㅕㅆ": 4717,
  "ㅅㅕㅆ</w>": 4718,
  "ㅅㅕㅆㄷㅏ.</w>": 4719,
  "ㅅㅕㅆㄷㅓㄴ</w>": 4720,
  "ㅅㅕㅆㅅㅡㅂㄴㅣ": 4721,
  "ㅅㅕㅆㅅㅡㅂㄴㅣㄲㅏ?”</w>": 4722,
  "ㅅㅕㅆㅅㅡㅂㄴㅣㄷㅏ.</w>": 4723,
  "ㅅㅕㅆㅈㅣㅇㅛ?”</w>": 4724,
  "ㅅㅗ": 4725,
  "ㅅㅗ.</w>": 4726,
  "ㅅㅗ</w>": 4727,
  "ㅅㅗㄱ": 4728,
  "ㅅㅗㄱ</w>": 4729,
  "ㅅㅗㄱㅅㅏ": 4730,
  "ㅅㅗㄱㅅㅏㄹㄱㅓㄹㅣㅁㅕ</w>": 4731,
  "ㅅㅗㄱㅅㅗㄱㄷㅡㄹㅇㅣ</w>": 4732,
  "ㅅㅗㄱㅇㅔ</w>": 4733,
  "ㅅㅗㄱㅇㅔㄴㅡㄴ</w>": 4734,
  "ㅅㅗㄱㅇㅔㄷㅏ</w>": 4735,
  "ㅅㅗㄱㅇㅔㅅㅓ</w>": 4736,
  "ㅅㅗㄱㅇㅔㅅㅓㄴㅡㄴ</w>": 4737,
  "ㅅㅗㄱㅇㅡㄴ</w>": 4738,
  "ㅅㅗㄱㅇㅡㄹ</w>": 4739,
  "ㅅㅗㄱㅇㅡㄹㅗ</w>": 4740,
  "ㅅㅗㄱㅇㅢ</w>": 4741,
  "ㅅㅗㄱㅇㅣ</w>": 4742,
  "ㅅㅗㄱㅇㅣㄱㅗ</w>": 4743,
  "ㅅㅗㄱㅎㅣ</w>": 4744,
  "ㅅㅗㄱㅗㄴㄱㅓㄹㅣㄴㅡㄴ</w>": 4745,
  "ㅅㅗㄱㅜㄴ": 4746,
  "ㅅㅗㄴ": 4747,
  "ㅅㅗㄴ</w>": 4748,
  "ㅅㅗㄴㄱㅏㄹㅏ": 4749,
  "ㅅㅗㄴㄱㅏㄹㅏㄱ</w>": 4750,
  "ㅅㅗㄴㄲㅗㅂㅇㅏ</w>": 4751,
  "ㅅㅗㄴㄴㅣㅁ": 4752,
  "ㅅㅗㄴㄴㅣㅁㅇㅡㄹ</w>": 4753,
  "ㅅㅗㄴㄴㅣㅁㅇㅣ</w>": 4754,
  "ㅅㅗㄴㅃㅕㄱㅇㅡㄹ</w>": 4755,
  "ㅅㅗㄴㅅㅜ</w>": 4756,
  "ㅅㅗㄴㅅㅜㄱㅓㄴ": 4757,
  "ㅅㅗㄴㅅㅟ": 4758,
  "ㅅㅗㄴㅇㅔ</w>": 4759,
  "ㅅㅗㄴㅇㅔㄴㅡㄴ</w>": 4760,
  "ㅅㅗㄴㅇㅡㄹ</w>": 4761,
  "ㅅㅗㄴㅇㅡㄹㅗ</w>": 4762,
  "ㅅㅗㄴㅇㅣ</w>": 4763,
  "ㅅㅗㄴㅕ": 4764,
  "ㅅㅗㄴㅕ</w>": 4765,
  "ㅅㅗㄴㅕㄱㅏ</w>": 4766,
  "ㅅㅗㄴㅕㄴ": 4767,
  "ㅅㅗㄴㅕㄴ</w>": 4768,
  "ㅅㅗㄴㅕㄴㄷㅡㄹㅇㅡㄴ</w>": 4769,
  "ㅅㅗㄴㅕㄴㅇㅔㄱㅔㄹㅗ</w>": 4770,
  "ㅅㅗㄴㅕㄴㅇㅡㄴ</w>": 4771,
  "ㅅㅗㄴㅕㄴㅇㅡㄹ</w>": 4772,
  "ㅅㅗㄴㅕㄴㅇㅢ</w>": 4773,
  "ㅅㅗㄴㅕㄴㅇㅣ</w>": 4774,
  "ㅅㅗㄴㅕㄴㅇㅣㅇㅓㅆㅅㅡㅂㄴㅣㄷㅏ.</w>": 4775,
  "ㅅㅗㄴㅕㄴㅡㄴ</w>": 4776,
  "ㅅㅗㄴㅕㄷㅏ.</w>": 4777,
  "ㅅㅗㄴㅕㄹㅡㄹ</w>": 4778,
  "ㅅㅗㄴㅕㅇㅢ</w>": 4779,
  "ㅅㅗㄷㅗ</w>": 4780,
  "ㅅㅗㄹ": 4781,
  "ㅅㅗㄹ</w>": 4782,
  "ㅅㅗㄹㅂㅏㅌ</w>": 4783,
  "ㅅㅗㄹㅇㅣㅍ</w>": 4784,
  "ㅅㅗㄹㅡㄹ</w>": 4785,
  "ㅅㅗㄹㅣ": 4786,
  "ㅅㅗㄹㅣ</w>": 4787,
  "ㅅㅗㄹㅣㄱㅏ</w>": 4788,
  "ㅅㅗㄹㅣㄱㅏㅌㅇㅣ</w>": 4789,
  "ㅅㅗㄹㅣㄴㅡㄴ</w>": 4790,
  "ㅅㅗㄹㅣㄷㅏ.</w>": 4791,
  "ㅅㅗㄹㅣㄷㅗ</w>": 4792,
  "ㅅㅗㄹㅣㄷㅡㄹㅇㅣ</w>": 4793,
  "ㅅㅗㄹㅣㄹㅗ</w>": 4794,
  "ㅅㅗㄹㅣㄹㅡㄹ</w>": 4795,
  "ㅅㅗㄹㅣㅇㅔ</w>": 4796,
  "ㅅㅗㄹㅣㅇㅘ</w>": 4797,
  "ㅅㅗㅁㅐ": 4798,
  "ㅅㅗㅁㅐㄹㅗ</w>": 4799,
  "ㅅㅗㅁㅜㄴ</w>": 4800,
  "ㅅㅗㅁㅜㄴㅇㅣ</w>": 4801,
  "ㅅㅗㅅ": 4802,
  "ㅅㅗㅅㄴㅡㄴㄷㅏ.</w>": 4803,
  "ㅅㅗㅅㅇㅏ": 4804,
  "ㅅㅗㅅㅇㅏㄴㅏㅇㅘㅆㄷㅏ.</w>": 4805,
  "ㅅㅗㅅㅇㅡㄴ</w>": 4806,
  "ㅅㅗㅅㅐㅇ": 4807,
  "ㅅㅗㅅㅣㄱㅇㅣ</w>": 4808,
  "ㅅㅗㅇ": 4809,
  "ㅅㅗㅇㅇㅏㅈㅣㄱㅏ</w>": 4810,
  "ㅅㅗㅇㅇㅣ</w>": 4811,
  "ㅅㅗㅇㅇㅣㅅㅗㅇㅇㅣ</w>": 4812,
  "ㅅㅗㅈㅜㅇㅎㅣ</w>": 4813,
  "ㅅㅘ-": 4814,
  "ㅅㅘ-</w>": 4815,
  "ㅅㅙ": 4816,
  "ㅅㅚ": 4817,
  "ㅅㅚㄷㅗㄹ": 4818,
  "ㅅㅚㄷㅗㄹㅇㅣ": 4819,
  "ㅅㅚㄷㅗㄹㅇㅣ</w>": 4820,
  "ㅅㅚㄷㅗㄹㅇㅣㄱㅏ</w>": 4821,
  "ㅅㅚㄷㅗㄹㅇㅣㄴㅡㄴ</w>": 4822,
  "ㅅㅚㄷㅗㄹㅇㅣㄹㅡㄹ</w>": 4823,
  "ㅅㅚㄹㅗ</w>": 4824,
  "ㅅㅚㅅ": 4825,
  "ㅅㅚㅊㅏㅇ": 4826,
  "ㅅㅜ": 4827,
  "ㅅㅜ</w>": 4828,
  "ㅅㅜㄱ": 4829,
  "ㅅㅜㄱㅇㅣㄴ</w>": 4830,
  "ㅅㅜㄱㅈㅣㄱ": 4831,
  "ㅅㅜㄱㅈㅣㄱㅅㅣㄹ": 4832,
  "ㅅㅜㄱㅈㅣㄱㅎㅏㄴㅡㄴ</w>": 4833,
  "ㅅㅜㄱㅎㅢ": 4834,
  "ㅅㅜㄱㅎㅢ</w>": 4835,
  "ㅅㅜㄱㅎㅢㄱㅏ</w>": 4836,
  "ㅅㅜㄱㅎㅢㄴㅔ</w>": 4837,
  "ㅅㅜㄱㅎㅢㄴㅡㄴ</w>": 4838,
  "ㅅㅜㄱㅎㅢㄹㅡㄹ</w>": 4839,
  "ㅅㅜㄱㅎㅢㅇㅢ</w>": 4840,
  "ㅅㅜㄱㅏ": 4841,
  "ㅅㅜㄱㅏ</w>": 4842,
  "ㅅㅜㄱㅓㄴ": 4843,
  "ㅅㅜㄱㅓㄴㅇㅡㄹ</w>": 4844,
  "ㅅㅜㄱㅓㄴㅇㅡㄹㅗ</w>": 4845,
  "ㅅㅜㄱㅓㄴㅇㅣ</w>": 4846,
  "ㅅㅜㄱㅗ</w>": 4847,
  "ㅅㅜㄱㅜㄴ": 4848,
  "ㅅㅜㄱㅜㄴ</w>": 4849,
  "ㅅㅜㄱㅡㄹㅣ": 4850,
  "ㅅㅜㄱㅡㄹㅣㄱㅗ</w>": 4851,
  "ㅅㅜㄱㅣㄹ": 4852,
  "ㅅㅜㄱㅣㄹㅇㅣ</w>": 4853,
  "ㅅㅜㄱㅣㄹㅇㅣㄱㅏ</w>": 4854,
  "ㅅㅜㄱㅣㄹㅇㅣㄴㅡㄴ</w>": 4855,
  "ㅅㅜㄱㅣㄹㅇㅣㄹㅡㄹ</w>": 4856,
  "ㅅㅜㄱㅣㄹㅇㅣㅇㅢ</w>": 4857,
  "ㅅㅜㄴ": 4858,
  "ㅅㅜㄴㄱㅏㄴ": 4859,
  "ㅅㅜㄴㄱㅏㄴ</w>": 4860,
  "ㅅㅜㄴㅊㅏㅇ": 4861,
  "ㅅㅜㄴㅊㅏㅇㅇㅣㄴㅡㄴ</w>": 4862,
  "ㅅㅜㄴㅊㅏㅇㅇㅣㅇㅘ</w>": 4863,
  "ㅅㅜㄴㅏㅁ": 4864,
  "ㅅㅜㄴㅏㅁㅇㅏ!</w>": 4865,
  "ㅅㅜㄴㅏㅁㅇㅏ,</w>": 4866,
  "ㅅㅜㄴㅏㅁㅇㅏ</w>": 4867,
  "ㅅㅜㄴㅏㅁㅇㅡㄴ</w>": 4868,
  "ㅅㅜㄴㅏㅁㅇㅣ</w>": 4869,
  "ㅅㅜㄴㅏㅁㅇㅣㄱㅏ</w>": 4870,
  "ㅅㅜㄴㅏㅁㅇㅣㄴㅡㄴ</w>": 4871,
  "ㅅㅜㄴㅏㅁㅇㅣㄹㅡㄹ</w>": 4872,
  "ㅅㅜㄴㅏㅁㅇㅣㅇㅔㄱㅔ</w>": 4873,
  "ㅅㅜㄴㅏㅁㅇㅣㅇㅢ</w>": 4874,
  "ㅅㅜㄴㅡㄴ</w>": 4875,
  "ㅅㅜㄷ": 4876,
  "ㅅㅜㄷㄱㅏㄹㅇㅡㄹ</w>": 4877,
  "ㅅㅜㄷㅗ</w>": 4878,
  "ㅅㅜㄹ": 4879,
  "ㅅㅜㄹ</w>": 4880,
  "ㅅㅜㄹㅂㅓㅂㅇㅡㄹ</w>": 4881,
  "ㅅㅜㄹㅇㅡㄹ</w>": 4882,
  "ㅅㅜㄹㅇㅣ</w>": 4883,
  "ㅅㅜㄹㅏㄴㅡㄴ</w>": 4884,
  "ㅅㅜㄹㅓ</w>": 4885,
  "ㅅㅜㄹㅗ</w>": 4886,
  "ㅅㅜㄹㅗㄱ</w>": 4887,
  "ㅅㅜㄹㅡㄹ</w>": 4888,
  "ㅅㅜㅁ": 4889,
  "ㅅㅜㅁ</w>": 4890,
  "ㅅㅜㅁㄱㅕ": 4891,
  "ㅅㅜㅁㄱㅣ": 4892,
  "ㅅㅜㅁㄱㅣㅈㅣ</w>": 4893,
  "ㅅㅜㅁㅅㅗㄹㅣㄱㅏ</w>": 4894,
  "ㅅㅜㅁㅇㅓ": 4895,
  "ㅅㅜㅁㅇㅓ</w>": 4896,
  "ㅅㅜㅁㅇㅓㅅㅓ</w>": 4897,
  "ㅅㅜㅁㅇㅓㅆㄷㅏㄱㅏ</w>": 4898,
  "ㅅㅜㅁㅇㅡㄹ</w>": 4899,
  "ㅅㅜㅁㅇㅣ</w>": 4900,
  "ㅅㅜㅁㅏㄴ</w>": 4901,
  "ㅅㅜㅂㅏㄲㅇㅔ</w>": 4902,
  "ㅅㅜㅂㅐㄱ</w>": 4903,
  "ㅅㅜㅅㅓㄴ": 4904,
  "ㅅㅜㅅㅜㄹㅇㅡㄹ</w>": 4905,
  "ㅅㅜㅅㅣㅂ</w>": 4906,
  "ㅅㅜㅇ": 4907,
  "ㅅㅜㅇㅓㅄㅇㅣ</w>": 4908,
  "ㅅㅜㅇㅔㄱㅔ</w>": 4909,
  "ㅅㅜㅇㅕ": 4910,
  "ㅅㅜㅇㅕㅁ": 4911,
  "ㅅㅜㅇㅢ</w>": 4912,
  "ㅅㅜㅈㅏㄱㅇㅡㄹ</w>": 4913,
  "ㅅㅜㅌㅏㄺ": 4914,
  "ㅅㅜㅌㅏㄺㅇㅡㄹ</w>": 4915,
  "ㅅㅜㅌㅏㄺㅇㅣ</w>": 4916,
  "ㅅㅜㅍㅕㅇㅅㅓㄴ</w>": 4917,
  "ㅅㅜㅎㅛ": 4918,
  "ㅅㅜㅎㅛㄱㅏ</w>": 4919,
  "ㅅㅟ": 4920,
  "ㅅㅟㄹ": 4921,
  "ㅅㅟㄹ</w>": 4922,
  "ㅅㅟㄹㅅㅐ</w>": 4923,
  "ㅅㅟㅁㅕ</w>": 4924,
  "ㅅㅟㅂㄱㅔ</w>": 4925,
  "ㅅㅟㅇㅜ": 4926,
  "ㅅㅡ": 4927,
  "ㅅㅡ,</w>": 4928,
  "ㅅㅡ</w>": 4929,
  "ㅅㅡㄹ": 4930,
  "ㅅㅡㄹ</w>": 4931,
  "ㅅㅡㄹㄱㅡㄴㅅㅡㄹㄱㅡㄴ</w>": 4932,
  "ㅅㅡㄹㄱㅡㅁㅓㄴㅣ</w>": 4933,
  "ㅅㅡㄹㅁㅕㅅㅣ</w>": 4934,
  "ㅅㅡㄹㅍ": 4935,
  "ㅅㅡㄹㅍㅓ": 4936,
  "ㅅㅡㄹㅍㅓㅎㅏㄴㅡㄴ</w>": 4937,
  "ㅅㅡㄹㅍㅡ": 4938,
  "ㅅㅡㄹㅍㅡㄱㅗ</w>": 4939,
  "ㅅㅡㄹㅍㅡㄴ</w>": 4940,
  "ㅅㅡㄹㅍㅡㅁㅇㅡㄹ</w>": 4941,
  "ㅅㅡㄹㅎㅏㅇㅔ</w>": 4942,
  "ㅅㅡㄹㅓ": 4943,
  "ㅅㅡㄹㅓ</w>": 4944,
  "ㅅㅡㄹㅓㄴ</w>": 4945,
  "ㅅㅡㄹㅓㅂㄱㅔ</w>": 4946,
  "ㅅㅡㄹㅓㅂㄱㅔㄷㅗ</w>": 4947,
  "ㅅㅡㄹㅓㅂㄱㅗ</w>": 4948,
  "ㅅㅡㄹㅓㅇㅜㄴ</w>": 4949,
  "ㅅㅡㄹㅔ</w>": 4950,
  "ㅅㅡㄹㅗ</w>": 4951,
  "ㅅㅡㅁㅕ": 4952,
  "ㅅㅡㅁㅜ</w>": 4953,
  "ㅅㅡㅂ": 4954,
  "ㅅㅡㅂ</w>": 4955,
  "ㅅㅡㅂㄴㅣ": 4956,
  "ㅅㅡㅂㄴㅣㄲㅏ?</w>": 4957,
  "ㅅㅡㅂㄴㅣㄷㅏ.</w>": 4958,
  "ㅅㅡㅂㄴㅣㄷㅏ.”</w>": 4959,
  "ㅅㅡㅂㅇㅡㄹ</w>": 4960,
  "ㅅㅡㅅㅡ</w>": 4961,
  "ㅅㅡㅅㅡㄹㅓㅇㅝㅆㄷㅏ.</w>": 4962,
  "ㅅㅡㅇ": 4963,
  "ㅅㅡㅋㅔ": 4964,
  "ㅅㅣ": 4965,
  "ㅅㅣ</w>": 4966,
  "ㅅㅣㄱ": 4967,
  "ㅅㅣㄱ</w>": 4968,
  "ㅅㅣㄱㄱㅜ": 4969,
  "ㅅㅣㄱㄱㅜㄱㅏ</w>": 4970,
  "ㅅㅣㄱㄱㅜㄴㅡㄴ</w>": 4971,
  "ㅅㅣㄱㄱㅜㅇㅔㄱㅔ</w>": 4972,
  "ㅅㅣㄱㅇㅡㄴ</w>": 4973,
  "ㅅㅣㄱㅇㅡㄹ</w>": 4974,
  "ㅅㅣㄱㅇㅣ</w>": 4975,
  "ㅅㅣㄱㅋㅏㄹㅇㅡㄹ</w>": 4976,
  "ㅅㅣㄱㅏㄴ": 4977,
  "ㅅㅣㄱㅏㄴ</w>": 4978,
  "ㅅㅣㄱㅏㄴㅇㅔ</w>": 4979,
  "ㅅㅣㄱㅏㄴㅇㅡㄹ</w>": 4980,
  "ㅅㅣㄱㅏㄴㅇㅣ</w>": 4981,
  "ㅅㅣㄱㅔ</w>": 4982,
  "ㅅㅣㄱㅖ": 4983,
  "ㅅㅣㄱㅖㄱㅏ</w>": 4984,
  "ㅅㅣㄱㅖㄹㅡㄹ</w>": 4985,
  "ㅅㅣㄱㅗ</w>": 4986,
  "ㅅㅣㄱㅗㄹ": 4987,
  "ㅅㅣㄱㅗㄹ</w>": 4988,
  "ㅅㅣㄱㅗㄹㄹㅗ</w>": 4989,
  "ㅅㅣㄱㅜ": 4990,
  "ㅅㅣㄱㅣ": 4991,
  "ㅅㅣㄲㅏㅈㅣ</w>": 4992,
  "ㅅㅣㄴ": 4993,
  "ㅅㅣㄴ</w>": 4994,
  "ㅅㅣㄴㄱㅣ": 4995,
  "ㅅㅣㄴㄱㅣㅎㅏㄴ</w>": 4996,
  "ㅅㅣㄴㄷㅏ": 4997,
  "ㅅㅣㄴㄷㅏ.</w>": 4998,
  "ㅅㅣㄴㄷㅏ.”</w>": 4999,
  "ㅅㅣㄴㄷㅏㄱㅗ</w>": 5000,
  "ㅅㅣㄴㄹㅕㅇ": 5001,
  "ㅅㅣㄴㅁㅜㄴ": 5002,
  "ㅅㅣㄴㅁㅜㄴ</w>": 5003,
  "ㅅㅣㄴㅁㅜㄴㄱㅣ": 5004,
  "ㅅㅣㄴㅁㅜㄴㅇㅡㄹ</w>": 5005,
  "ㅅㅣㄴㅁㅜㄴㅍㅏㄹ": 5006,
  "ㅅㅣㄴㅁㅜㄴㅍㅏㄹㅇㅣㄱㅏ</w>": 5007,
  "ㅅㅣㄴㅂㅏㄹㅇㅡㄹ</w>": 5008,
  "ㅅㅣㄴㅅㅏㅇ": 5009,
  "ㅅㅣㄴㅅㅣㄴㄷㅏㅇㅂㅜ": 5010,
  "ㅅㅣㄴㅇㅡㄹ</w>": 5011,
  "ㅅㅣㄴㅇㅣ</w>": 5012,
  "ㅅㅣㄴㅈㅣ</w>": 5013,
  "ㅅㅣㄴㅎㅏㄷㅡㄹㅇㅡㄹ</w>": 5014,
  "ㅅㅣㄴㅡㄴ</w>": 5015,
  "ㅅㅣㄴㅡㄴㄷㅔ</w>": 5016,
  "ㅅㅣㄷㅏ.</w>": 5017,
  "ㅅㅣㄷㅓㄴ</w>": 5018,
  "ㅅㅣㄷㅓㄴㅣ</w>": 5019,
  "ㅅㅣㄷㅗ</w>": 5020,
  "ㅅㅣㄹ": 5021,
  "ㅅㅣㄹ</w>": 5022,
  "ㅅㅣㄹㄹㅗ</w>": 5023,
  "ㅅㅣㄹㄹㅣㄴ</w>": 5024,
  "ㅅㅣㄹㅁㅏㅇ": 5025,
  "ㅅㅣㄹㅇㅓㅄㅇㅣ</w>": 5026,
  "ㅅㅣㄹㅋㅓㅅ</w>": 5027,
  "ㅅㅣㄹㅍㅐㄹㅡㄹ</w>": 5028,
  "ㅅㅣㄹㅎㅏㄴ</w>": 5029,
  "ㅅㅣㄹㅎㅣ</w>": 5030,
  "ㅅㅣㄹㅡㄹ</w>": 5031,
  "ㅅㅣㅀ": 5032,
  "ㅅㅣㅀㄷㅏ.”</w>": 5033,
  "ㅅㅣㅀㅇㅓ": 5034,
  "ㅅㅣㅀㅇㅓㅆㄷㅏ.</w>": 5035,
  "ㅅㅣㅀㅈㅡㅇㅇㅣ</w>": 5036,
  "ㅅㅣㅀㅈㅣ</w>": 5037,
  "ㅅㅣㅁ": 5038,
  "ㅅㅣㅁ</w>": 5039,
  "ㅅㅣㅁㅂㅜㄹ": 5040,
  "ㅅㅣㅁㅂㅜㄹㅡㅁ": 5041,
  "ㅅㅣㅁㅂㅜㄹㅡㅁㅇㅡㄹ</w>": 5042,
  "ㅅㅣㅁㅅㅏㅇ": 5043,
  "ㅅㅣㅁㅅㅜㄹ": 5044,
  "ㅅㅣㅁㅅㅣㅁ": 5045,
  "ㅅㅣㅁㅇㅡㄴ</w>": 5046,
  "ㅅㅣㅁㅇㅡㄹ</w>": 5047,
  "ㅅㅣㅁㅇㅣ</w>": 5048,
  "ㅅㅣㅁㅎㅣ</w>": 5049,
  "ㅅㅣㅁㅔㄴㅌㅡ</w>": 5050,
  "ㅅㅣㅁㅕ</w>": 5051,
  "ㅅㅣㅁㅕㄴㅅㅓ</w>": 5052,
  "ㅅㅣㅁㅡㄹㅗ</w>": 5053,
  "ㅅㅣㅂ": 5054,
  "ㅅㅣㅂ</w>": 5055,
  "ㅅㅣㅂㅔㄹㅣ": 5056,
  "ㅅㅣㅂㅔㄹㅣㅇㅏ": 5057,
  "ㅅㅣㅃㅓㄹㄱㅓㄴ</w>": 5058,
  "ㅅㅣㅇ": 5059,
  "ㅅㅣㅇㅅㅣㅇ": 5060,
  "ㅅㅣㅇㅅㅣㅇㅎㅏㄱㅔ</w>": 5061,
  "ㅅㅣㅇㅅㅣㅇㅎㅏㄴ</w>": 5062,
  "ㅅㅣㅇㅓ</w>": 5063,
  "ㅅㅣㅇㅓㅆㄷㅏ.</w>": 5064,
  "ㅅㅣㅇㅓㅆㅅㅡㅂㄴㅣㄷㅏ.</w>": 5065,
  "ㅅㅣㅇㅔ</w>": 5066,
  "ㅅㅣㅇㅝㄴ": 5067,
  "ㅅㅣㅈㅏㄱ": 5068,
  "ㅅㅣㅈㅏㄱㅎㅏㄴㄷㅏ.</w>": 5069,
  "ㅅㅣㅈㅏㄱㅎㅏㄴㅡㄴ</w>": 5070,
  "ㅅㅣㅈㅏㄱㅎㅏㅅㅕㅆㅅㅡㅂㄴㅣㄷㅏ.</w>": 5071,
  "ㅅㅣㅈㅏㄱㅎㅏㅇㅕㅆ": 5072,
  "ㅅㅣㅈㅏㄱㅎㅏㅇㅕㅆㄷㅏ.</w>": 5073,
  "ㅅㅣㅈㅏㄱㅎㅏㅇㅕㅆㅅㅡㅂㄴㅣㄷㅏ.</w>": 5074,
  "ㅅㅣㅈㅏㄱㅎㅐㅆ": 5075,
  "ㅅㅣㅈㅏㄱㅎㅐㅆㅅㅡㅂㄴㅣㄷㅏ.</w>": 5076,
  "ㅅㅣㅈㅜㅇㅇㅡㄹ</w>": 5077,
  "ㅅㅣㅈㅣㅂㅇㅡㄹ</w>": 5078,
  "ㅅㅣㅉㅡㅁ</w>": 5079,
  "ㅅㅣㅊㅔㄹㅡㄹ</w>": 5080,
  "ㅅㅣㅊㅣㅁㅣㄹㅡㄹ</w>": 5081,
  "ㅅㅣㅋㅕ": 5082,
  "ㅅㅣㅋㅕ</w>": 5083,
  "ㅅㅣㅋㅕㅅㅓ</w>": 5084,
  "ㅅㅣㅋㅣ": 5085,
  "ㅅㅣㅋㅣㄴ</w>": 5086,
  "ㅅㅣㅋㅣㄴㅡㄴ</w>": 5087,
  "ㅅㅣㅋㅣㅇㅓ</w>": 5088,
  "ㅅㅣㅍ": 5089,
  "ㅅㅣㅍㄷㅏ.</w>": 5090,
  "ㅅㅣㅍㅇㅓ</w>": 5091,
  "ㅅㅣㅍㅇㅓㅅㅓ</w>": 5092,
  "ㅅㅣㅍㅇㅓㅆ": 5093,
  "ㅅㅣㅍㅇㅓㅆㄷㅏ.</w>": 5094,
  "ㅅㅣㅍㅇㅓㅆㄷㅓㄴ</w>": 5095,
  "ㅅㅣㅍㅇㅓㅆㅅㅡㅂㄴㅣㄷㅏ.</w>": 5096,
  "ㅅㅣㅍㅇㅡㄴ</w>": 5097,
  "ㅅㅣㅍㅇㅡㄹ</w>": 5098,
  "ㅅㅣㅍㅈㅣ</w>": 5099,
  "ㅅㅣㅍㅣ</w>": 5100,
  "ㅅㅣㅎㅓㅁ": 5101,
  "ㅅㅣㅎㅓㅁ</w>": 5102,
  "ㅅㅣㅎㅓㅁㅇㅔ</w>": 5103,
  "ㅅㅣㅎㅓㅁㅇㅡㄹ</w>": 5104,
  "ㅅㅣㅎㅓㅁㅈㅏㅇ</w>": 5105,
  "ㅅㅣㅎㅓㅁㅈㅣㄹㅡㄹ</w>": 5106,
  "ㅆ": 5107,
  "ㅆ</w>": 5108,
  "ㅆㄴㅡㄴㅈㅣ</w>": 5109,
  "ㅆㄷㅏ": 5110,
  "ㅆㄷㅏ.</w>": 5111,
  "ㅆㄷㅏㄴㅡㄴ</w>": 5112,
  "ㅆㄷㅓㄴ</w>": 5113,
  "ㅆㄷㅓㄴㅣ</w>": 5114,
  "ㅆㅅㅡ": 5115,
  "ㅆㅅㅡㅂ</w>": 5116,
  "ㅆㅅㅡㅂㄴㅣ": 5117,
  "ㅆㅅㅡㅂㄴㅣ</w>": 5118,
  "ㅆㅅㅡㅂㄴㅣㄷㅏ": 5119,
  "ㅆㅅㅡㅂㄴㅣㄷㅏ.</w>": 5120,
  "ㅆㅅㅡㅂㄴㅣㄷㅏ.”</w>": 5121,
  "ㅆㅅㅡㅂㄴㅣㄷㅏㅁㅏㄴ</w>": 5122,
  "ㅆㅇㅡㄴㅏ</w>": 5123,
  "ㅆㅇㅡㄴㅣ</w>": 5124,
  "ㅆㅇㅡㄹ</w>": 5125,
  "ㅆㅇㅡㅁㅕ</w>": 5126,
  "ㅆㅈㅣㅁㅏㄴ</w>": 5127,
  "ㅆㅏ": 5128,
  "ㅆㅏㄱㅇㅣ</w>": 5129,
  "ㅆㅏㄹ": 5130,
  "ㅆㅏㄹ</w>": 5131,
  "ㅆㅏㄹㅣ": 5132,
  "ㅆㅏㄹㅣㅅ": 5133,
  "ㅆㅏㅁ": 5134,
  "ㅆㅏㅁㅇㅡㄹ</w>": 5135,
  "ㅆㅏㅂㅆㅏㄹ": 5136,
  "ㅆㅏㅇ": 5137,
  "ㅆㅏㅇㅕ</w>": 5138,
  "ㅆㅏㅇㅜ": 5139,
  "ㅆㅏㅇㅜㄷㅏㄱㅏ</w>": 5140,
  "ㅆㅏㅇㅜㄹ</w>": 5141,
  "ㅆㅏㅇㅜㅁ": 5142,
  "ㅆㅏㅇㅜㅁ</w>": 5143,
  "ㅆㅏㅇㅝ": 5144,
  "ㅆㅏㅇㅝ</w>": 5145,
  "ㅆㅏㅇㅝㅂㅗ": 5146,
  "ㅆㅏㅇㅝㅅㅓ</w>": 5147,
  "ㅆㅏㅎ": 5148,
  "ㅆㅏㅎㅇㅕㅅㅓ</w>": 5149,
  "ㅆㅏㅎㅇㅣㄴ</w>": 5150,
  "ㅆㅐ": 5151,
  "ㅆㅐㄱㅡㄴ": 5152,
  "ㅆㅐㄱㅡㄴㅆㅐㄱㅡㄴ</w>": 5153,
  "ㅆㅓ": 5154,
  "ㅆㅓ</w>": 5155,
  "ㅆㅓㄱ": 5156,
  "ㅆㅓㄱ</w>": 5157,
  "ㅆㅓㄱㅇㅡㄴ</w>": 5158,
  "ㅆㅓㅅㅓ</w>": 5159,
  "ㅆㅓㅆㄷㅏ.</w>": 5160,
  "ㅆㅓㅇ": 5161,
  "ㅆㅗ": 5162,
  "ㅆㅗㄷ": 5163,
  "ㅆㅗㄷㅇㅏ": 5164,
  "ㅆㅗㄷㅇㅏㅈㅕ</w>": 5165,
  "ㅆㅗㄷㅇㅏㅈㅣㄴㅡㄴ</w>": 5166,
  "ㅆㅗㄷㅏㄴㅕ": 5167,
  "ㅆㅗㄹ": 5168,
  "ㅆㅜ": 5169,
  "ㅆㅜㄱ</w>": 5170,
  "ㅆㅡ": 5171,
  "ㅆㅡ</w>": 5172,
  "ㅆㅡㄱㅗ</w>": 5173,
  "ㅆㅡㄴ</w>": 5174,
  "ㅆㅡㄴㅡㄴ</w>": 5175,
  "ㅆㅡㄷㅏ": 5176,
  "ㅆㅡㄷㅏㄷㅡㅁ": 5177,
  "ㅆㅡㄹ": 5178,
  "ㅆㅡㄹ</w>": 5179,
  "ㅆㅡㄹㄷㅔㅇㅓㅄ": 5180,
  "ㅆㅡㄹㄷㅔㅇㅓㅄㄴㅡㄴ</w>": 5181,
  "ㅆㅡㄹㅆㅡㄹ": 5182,
  "ㅆㅡㄹㅆㅡㄹㅎㅏㄱㅗ</w>": 5183,
  "ㅆㅡㄹㅆㅡㄹㅎㅏㄴ</w>": 5184,
  "ㅆㅡㄹㅏ": 5185,
  "ㅆㅡㄹㅏㄹㅣㄴ</w>": 5186,
  "ㅆㅡㄹㅓ": 5187,
  "ㅆㅡㄹㅓㅈㅕㅅㅓ</w>": 5188,
  "ㅆㅡㄹㅓㅈㅣ": 5189,
  "ㅆㅡㄹㅓㅈㅣㄴ</w>": 5190,
  "ㅆㅡㄹㅔ": 5191,
  "ㅆㅡㄹㅔㄱㅣㅌㅗㅇ": 5192,
  "ㅆㅡㄹㅕ": 5193,
  "ㅆㅡㄹㅕㄱㅗ</w>": 5194,
  "ㅆㅡㅁㅇㅡㄹ</w>": 5195,
  "ㅆㅡㅈㅣ</w>": 5196,
  "ㅆㅣ": 5197,
  "ㅆㅣㄱ": 5198,
  "ㅆㅣㄱ</w>": 5199,
  "ㅆㅣㄱㅆㅣㄱㅎㅏㄱㅔ</w>": 5200,
  "ㅆㅣㄱㅇㅣㄴㅏ</w>": 5201,
  "ㅆㅣㄱㅏ</w>": 5202,
  "ㅆㅣㄴ</w>": 5203,
  "ㅆㅣㅂ": 5204,
  "ㅆㅣㅅ": 5205,
  "ㅆㅣㅅㄱㅗ</w>": 5206,
  "ㅆㅣㅅㅇㅓㅆㅅㅡㅂㄴㅣㄷㅏ.</w>": 5207,
  "ㅆㅣㅅㅇㅡㅁㅕㄴㅅㅓ</w>": 5208,
  "ㅇ": 5209,
  "ㅇ!</w>": 5210,
  "ㅇ</w>": 5211,
  "ㅇㅇㅡㄹ</w>": 5212,
  "ㅇㅇㅣ</w>": 5213,
  "ㅇㅏ": 5214,
  "ㅇㅏ!</w>": 5215,
  "ㅇㅏ!”</w>": 5216,
  "ㅇㅏ,</w>": 5217,
  "ㅇㅏ-": 5218,
  "ㅇㅏ-</w>": 5219,
  "ㅇㅏ</w>": 5220,
  "ㅇㅏㄱ": 5221,
  "ㅇㅏㄱ</w>": 5222,
  "ㅇㅏㄱㄷㅗㄱㅎㅏㄴ</w>": 5223,
  "ㅇㅏㄲㅏ": 5224,
  "ㅇㅏㄲㅏ</w>": 5225,
  "ㅇㅏㄲㅣㄴㅡㄴ</w>": 5226,
  "ㅇㅏㄴ": 5227,
  "ㅇㅏㄴ</w>": 5228,
  "ㅇㅏㄴㄱㅐ</w>": 5229,
  "ㅇㅏㄴㄱㅕ</w>": 5230,
  "ㅇㅏㄴㄱㅗ</w>": 5231,
  "ㅇㅏㄴㄴㅕㅇ": 5232,
  "ㅇㅏㄴㄴㅕㅇㅎㅣ</w>": 5233,
  "ㅇㅏㄴㄷㅏ.</w>": 5234,
  "ㅇㅏㄴㄷㅏㄴㅡㄴ</w>": 5235,
  "ㅇㅏㄴㄷㅙ": 5236,
  "ㅇㅏㄴㄷㅡㄴㅡㄴ</w>": 5237,
  "ㅇㅏㄴㅂㅏㅇㅇㅔㅅㅓ</w>": 5238,
  "ㅇㅏㄴㅅㅣ": 5239,
  "ㅇㅏㄴㅅㅣㅅㅓㅇㅇㅡㄹ</w>": 5240,
  "ㅇㅏㄴㅇㅏ</w>": 5241,
  "ㅇㅏㄴㅇㅔ</w>": 5242,
  "ㅇㅏㄴㅇㅔㄴㅡㄴ</w>": 5243,
  "ㅇㅏㄴㅇㅔㅅㅓ</w>": 5244,
  "ㅇㅏㄴㅇㅡㄴ</w>": 5245,
  "ㅇㅏㄴㅇㅡㄹ</w>": 5246,
  "ㅇㅏㄴㅇㅡㄹㅗ</w>": 5247,
  "ㅇㅏㄴㅇㅢ</w>": 5248,
  "ㅇㅏㄴㅇㅣ</w>": 5249,
  "ㅇㅏㄴㅈㅓㄴㅈㅣ": 5250,
  "ㅇㅏㄴㅌㅏ": 5251,
  "ㅇㅏㄴㅌㅏㄲㅏ": 5252,
  "ㅇㅏㄴㅐ": 5253,
  "ㅇㅏㄴㅐ</w>": 5254,
  "ㅇㅏㄴㅐㄱㅏ</w>": 5255,
  "ㅇㅏㄴㅐㄴㅡㄴ</w>": 5256,
  "ㅇㅏㄴㅐㄷㅗ</w>": 5257,
  "ㅇㅏㄴㅐㄹㅡㄹ</w>": 5258,
  "ㅇㅏㄴㅐㅇㅔ": 5259,
  "ㅇㅏㄴㅐㅇㅔ</w>": 5260,
  "ㅇㅏㄴㅐㅇㅔㄱㅔ</w>": 5261,
  "ㅇㅏㄴㅐㅇㅘ</w>": 5262,
  "ㅇㅏㄴㅐㅇㅢ</w>": 5263,
  "ㅇㅏㄴㅖ": 5264,
  "ㅇㅏㄴㅖㅇㅛ.”</w>": 5265,
  "ㅇㅏㄴㅗㅎ": 5266,
  "ㅇㅏㄴㅗㅎㄱㅗ</w>": 5267,
  "ㅇㅏㄴㅡㄴ</w>": 5268,
  "ㅇㅏㄴㅣ": 5269,
  "ㅇㅏㄴㅣ!</w>": 5270,
  "ㅇㅏㄴㅣ</w>": 5271,
  "ㅇㅏㄴㅣ”</w>": 5272,
  "ㅇㅏㄴㅣㄱㅓㄴㅁㅏㄴ</w>": 5273,
  "ㅇㅏㄴㅣㄱㅗ</w>": 5274,
  "ㅇㅏㄴㅣㄴ": 5275,
  "ㅇㅏㄴㅣㄴ</w>": 5276,
  "ㅇㅏㄴㅣㄴㄱㅏ.</w>": 5277,
  "ㅇㅏㄴㅣㄴㄱㅏ</w>": 5278,
  "ㅇㅏㄴㅣㄴㅑ": 5279,
  "ㅇㅏㄴㅣㄴㅑ.</w>": 5280,
  "ㅇㅏㄴㅣㄴㅑ?</w>": 5281,
  "ㅇㅏㄴㅣㄷㅏ.</w>": 5282,
  "ㅇㅏㄴㅣㄹ": 5283,
  "ㅇㅏㄴㅣㄹ</w>": 5284,
  "ㅇㅏㄴㅣㄹㅏ,</w>": 5285,
  "ㅇㅏㄴㅣㄹㅏ</w>": 5286,
  "ㅇㅏㄴㅣㅇㅓㅆㄷㅏ.</w>": 5287,
  "ㅇㅏㄴㅣㅇㅓㅆㅅㅡㅂㄴㅣㄷㅏ.</w>": 5288,
  "ㅇㅏㄴㅣㅇㅛ.</w>": 5289,
  "ㅇㅏㄴㅣㅇㅛ</w>": 5290,
  "ㅇㅏㄴㅣㅈㅣㅁㅏㄴ</w>": 5291,
  "ㅇㅏㄴㅣㅎㅏㄱㅗ</w>": 5292,
  "ㅇㅏㄴㅣㅎㅏㄴ</w>": 5293,
  "ㅇㅏㄴㅣㅎㅏㅁㅕㄴ</w>": 5294,
  "ㅇㅏㄴㅣㅎㅏㅇㅕ</w>": 5295,
  "ㅇㅏㄴㅣㅎㅏㅇㅕㅆㅅㅡㅂㄴㅣㄷㅏ.</w>": 5296,
  "ㅇㅏㄵ": 5297,
  "ㅇㅏㄵㅇㅏ</w>": 5298,
  "ㅇㅏㄵㅇㅏㅅㅓ</w>": 5299,
  "ㅇㅏㄵㅇㅏㅆ": 5300,
  "ㅇㅏㄵㅇㅏㅆㄷㅏ.</w>": 5301,
  "ㅇㅏㄵㅇㅏㅆㄷㅏㄱㅏ</w>": 5302,
  "ㅇㅏㄵㅇㅡㄴ</w>": 5303,
  "ㅇㅏㄵㅇㅡㅅㅕㅅㅓ</w>": 5304,
  "ㅇㅏㄶ": 5305,
  "ㅇㅏㄶ</w>": 5306,
  "ㅇㅏㄶㄱㅔ</w>": 5307,
  "ㅇㅏㄶㄱㅔㅆ": 5308,
  "ㅇㅏㄶㄱㅗ</w>": 5309,
  "ㅇㅏㄶㄱㅗㄴㅡㄴ</w>": 5310,
  "ㅇㅏㄶㄴㅏ?</w>": 5311,
  "ㅇㅏㄶㄴㅡㄴ</w>": 5312,
  "ㅇㅏㄶㄴㅡㄴㄷㅏ.</w>": 5313,
  "ㅇㅏㄶㄷㅏ.</w>": 5314,
  "ㅇㅏㄶㄷㅓㄴㅣ</w>": 5315,
  "ㅇㅏㄶㅅㅡㅂㄴㅣㄷㅏ.</w>": 5316,
  "ㅇㅏㄶㅇㅏ": 5317,
  "ㅇㅏㄶㅇㅏ</w>": 5318,
  "ㅇㅏㄶㅇㅏㅅㅓ</w>": 5319,
  "ㅇㅏㄶㅇㅏㅆ": 5320,
  "ㅇㅏㄶㅇㅏㅆ</w>": 5321,
  "ㅇㅏㄶㅇㅏㅆㄱㅔㅆ": 5322,
  "ㅇㅏㄶㅇㅏㅆㄱㅔㅆㄴㅏ.</w>": 5323,
  "ㅇㅏㄶㅇㅏㅆㄷㅏ.</w>": 5324,
  "ㅇㅏㄶㅇㅏㅆㄷㅏ</w>": 5325,
  "ㅇㅏㄶㅇㅏㅆㅅㅡㅂㄴㅣㄷㅏ.</w>": 5326,
  "ㅇㅏㄶㅇㅏㅆㅇㅓㅆ": 5327,
  "ㅇㅏㄶㅇㅏㅆㅇㅡㄹ</w>": 5328,
  "ㅇㅏㄶㅇㅡ": 5329,
  "ㅇㅏㄶㅇㅡㄴ": 5330,
  "ㅇㅏㄶㅇㅡㄴ</w>": 5331,
  "ㅇㅏㄶㅇㅡㄴㄱㅏ": 5332,
  "ㅇㅏㄶㅇㅡㄴㄱㅏ.</w>": 5333,
  "ㅇㅏㄶㅇㅡㄴㄱㅏ</w>": 5334,
  "ㅇㅏㄶㅇㅡㄹ": 5335,
  "ㅇㅏㄶㅇㅡㄹ</w>": 5336,
  "ㅇㅏㄶㅇㅡㄹㅕㄱㅗ</w>": 5337,
  "ㅇㅏㄶㅇㅡㅁㅕㄴ</w>": 5338,
  "ㅇㅏㄶㅈㅣㅁㅏㄴ</w>": 5339,
  "ㅇㅏㄷㅏㄹ": 5340,
  "ㅇㅏㄷㅏㄹㄹㅣㄴ": 5341,
  "ㅇㅏㄷㅏㄹㄹㅣㄴ,</w>": 5342,
  "ㅇㅏㄷㅏㄹㄹㅣㄴㅇㅡㄹ</w>": 5343,
  "ㅇㅏㄷㅗ</w>": 5344,
  "ㅇㅏㄷㅡㄹ": 5345,
  "ㅇㅏㄷㅡㄹ</w>": 5346,
  "ㅇㅏㄷㅡㄹㅇㅏ</w>": 5347,
  "ㅇㅏㄷㅡㄹㅇㅢ</w>": 5348,
  "ㅇㅏㄸㅡㄱ": 5349,
  "ㅇㅏㄹ": 5350,
  "ㅇㅏㄹ</w>": 5351,
  "ㅇㅏㄹㄱㅔ</w>": 5352,
  "ㅇㅏㄹㄱㅗ</w>": 5353,
  "ㅇㅏㄹㄱㅣ</w>": 5354,
  "ㅇㅏㄹㄹㅕ": 5355,
  "ㅇㅏㄹㅁㅕㄴㅅㅓㄷㅗ</w>": 5356,
  "ㅇㅏㄹㅇㅏ": 5357,
  "ㅇㅏㄹㅇㅏㄴㅐ": 5358,
  "ㅇㅏㄹㅇㅏㄷㅡㄷ": 5359,
  "ㅇㅏㄹㅇㅏㄹㅏ.”</w>": 5360,
  "ㅇㅏㄹㅇㅏㅆ": 5361,
  "ㅇㅏㄹㅇㅏㅆㄷㅏ.</w>": 5362,
  "ㅇㅏㄹㅇㅏㅆㄷㅓㄴ</w>": 5363,
  "ㅇㅏㄹㅇㅏㅆㄷㅓㄴㅣ</w>": 5364,
  "ㅇㅏㄹㅇㅏㅆㅅㅡㅂㄴㅣㄷㅏ.</w>": 5365,
  "ㅇㅏㄹㅈㅣ</w>": 5366,
  "ㅇㅏㄹㅐ": 5367,
  "ㅇㅏㄹㅐ</w>": 5368,
  "ㅇㅏㄹㅐㄹㅗ</w>": 5369,
  "ㅇㅏㄹㅐㄹㅡㄹ</w>": 5370,
  "ㅇㅏㄹㅐㅅ": 5371,
  "ㅇㅏㄹㅐㅅㅂㅏㅇㅇㅔㅅㅓ</w>": 5372,
  "ㅇㅏㄹㅐㅅㅓ</w>": 5373,
  "ㅇㅏㄹㅐㅇㅔ</w>": 5374,
  "ㅇㅏㄹㅡㅁ": 5375,
  "ㅇㅏㄹㅡㅁㄷㅏㅇㅜㄴ</w>": 5376,
  "ㅇㅏㄹㅣ": 5377,
  "ㅇㅏㅀ": 5378,
  "ㅇㅏㅀㄴㅡㄴ</w>": 5379,
  "ㅇㅏㅁ": 5380,
  "ㅇㅏㅁㅁㅏㄴ</w>": 5381,
  "ㅇㅏㅁㅁㅏㄴㅎㅐㄷㅗ</w>": 5382,
  "ㅇㅏㅁㅌㅏㄺ": 5383,
  "ㅇㅏㅁㅏ</w>": 5384,
  "ㅇㅏㅁㅜ": 5385,
  "ㅇㅏㅁㅜ</w>": 5386,
  "ㅇㅏㅁㅜㄱㅓㅅㄷㅗ</w>": 5387,
  "ㅇㅏㅁㅜㄷㅗ</w>": 5388,
  "ㅇㅏㅁㅜㄹ": 5389,
  "ㅇㅏㅁㅜㄹㅓ": 5390,
  "ㅇㅏㅁㅜㄹㅓㄴ</w>": 5391,
  "ㅇㅏㅁㅜㄹㅓㅎ": 5392,
  "ㅇㅏㅁㅜㄹㅣ</w>": 5393,
  "ㅇㅏㅁㅜㅇㅘㄷㅗ</w>": 5394,
  "ㅇㅏㅁㅜㅉㅗㄹㅗㄱ</w>": 5395,
  "ㅇㅏㅂㄹㅗㄱ": 5396,
  "ㅇㅏㅂㄹㅗㄱㄱㅏㅇ</w>": 5397,
  "ㅇㅏㅂㄹㅗㄱㄱㅏㅇㅇㅡㄹ</w>": 5398,
  "ㅇㅏㅂㅓ": 5399,
  "ㅇㅏㅂㅓㄹㅣㄴㅡㄴ</w>": 5400,
  "ㅇㅏㅂㅓㅈㅣ": 5401,
  "ㅇㅏㅂㅓㅈㅣ</w>": 5402,
  "ㅇㅏㅂㅓㅈㅣㄱㅏ</w>": 5403,
  "ㅇㅏㅂㅓㅈㅣㄲㅔ": 5404,
  "ㅇㅏㅂㅓㅈㅣㄲㅔㅅㅓ</w>": 5405,
  "ㅇㅏㅂㅓㅈㅣㄲㅔㅅㅓㄴㅡㄴ</w>": 5406,
  "ㅇㅏㅂㅓㅈㅣㄴㅏ</w>": 5407,
  "ㅇㅏㅂㅓㅈㅣㄴㅡㄴ</w>": 5408,
  "ㅇㅏㅂㅓㅈㅣㄷㅗ</w>": 5409,
  "ㅇㅏㅂㅓㅈㅣㄹㅡㄹ</w>": 5410,
  "ㅇㅏㅂㅓㅈㅣㅇㅔㄱㅔ</w>": 5411,
  "ㅇㅏㅂㅓㅈㅣㅇㅔㄱㅔㅅㅓ</w>": 5412,
  "ㅇㅏㅂㅓㅈㅣㅇㅘ": 5413,
  "ㅇㅏㅂㅓㅈㅣㅇㅘ</w>": 5414,
  "ㅇㅏㅂㅓㅈㅣㅇㅢ</w>": 5415,
  "ㅇㅏㅅㅓ</w>": 5416,
  "ㅇㅏㅅㅡ": 5417,
  "ㅇㅏㅅㅡㅍㅣㄹㅣㄴ": 5418,
  "ㅇㅏㅅㅡㅍㅣㄹㅣㄴ,</w>": 5419,
  "ㅇㅏㅅㅡㅍㅣㄹㅣㄴ</w>": 5420,
  "ㅇㅏㅅㅡㅍㅣㄹㅣㄴㄱㅘ</w>": 5421,
  "ㅇㅏㅅㅣ": 5422,
  "ㅇㅏㅅㅣㄴㅡㄴ</w>": 5423,
  "ㅇㅏㅆ": 5424,
  "ㅇㅏㅆㄴㅡㄴㄷㅔ</w>": 5425,
  "ㅇㅏㅆㄷㅏ.</w>": 5426,
  "ㅇㅏㅆㄷㅓㄴ</w>": 5427,
  "ㅇㅏㅆㅅㅡㅂㄴㅣㄷㅏ.</w>": 5428,
  "ㅇㅏㅆㅇㅡㄴㅏ</w>": 5429,
  "ㅇㅏㅆㅇㅡㄴㅣ</w>": 5430,
  "ㅇㅏㅆㅇㅡㄹ</w>": 5431,
  "ㅇㅏㅇ": 5432,
  "ㅇㅏㅇㅑ</w>": 5433,
  "ㅇㅏㅇㅜㄴㅡㄴ</w>": 5434,
  "ㅇㅏㅇㅣ": 5435,
  "ㅇㅏㅇㅣ</w>": 5436,
  "ㅇㅏㅇㅣㄱㅏ</w>": 5437,
  "ㅇㅏㅇㅣㄴㅡㄴ</w>": 5438,
  "ㅇㅏㅇㅣㄷㅡㄹ</w>": 5439,
  "ㅇㅏㅇㅣㄷㅡㄹㅇㅔㄱㅔ</w>": 5440,
  "ㅇㅏㅇㅣㄷㅡㄹㅇㅡㄴ</w>": 5441,
  "ㅇㅏㅇㅣㄷㅡㄹㅇㅣ</w>": 5442,
  "ㅇㅏㅈㅓㅆㅣ": 5443,
  "ㅇㅏㅈㅓㅆㅣ</w>": 5444,
  "ㅇㅏㅈㅓㅆㅣㄱㅏ</w>": 5445,
  "ㅇㅏㅈㅓㅆㅣㄴㅡㄴ</w>": 5446,
  "ㅇㅏㅈㅓㅆㅣㅇㅔㄱㅔ</w>": 5447,
  "ㅇㅏㅈㅜ": 5448,
  "ㅇㅏㅈㅜ</w>": 5449,
  "ㅇㅏㅈㅜㅁㅓㄴㅣ": 5450,
  "ㅇㅏㅈㅜㅁㅓㄴㅣ,</w>": 5451,
  "ㅇㅏㅈㅜㅁㅓㄴㅣ</w>": 5452,
  "ㅇㅏㅈㅜㅁㅓㄴㅣㄱㅏ</w>": 5453,
  "ㅇㅏㅈㅜㅁㅓㄴㅣㄴㅡㄴ</w>": 5454,
  "ㅇㅏㅈㅣㄱ": 5455,
  "ㅇㅏㅈㅣㄱ</w>": 5456,
  "ㅇㅏㅈㅣㄱㄷㅗ</w>": 5457,
  "ㅇㅏㅊㅣㅁ": 5458,
  "ㅇㅏㅊㅣㅁ,</w>": 5459,
  "ㅇㅏㅊㅣㅁ</w>": 5460,
  "ㅇㅏㅊㅣㅁㅂㅜㅌㅓ</w>": 5461,
  "ㅇㅏㅊㅣㅁㅇㅔ</w>": 5462,
  "ㅇㅏㅊㅣㅁㅇㅣㅇㅓㅆㅅㅡㅂㄴㅣㄷㅏ.</w>": 5463,
  "ㅇㅏㅍ": 5464,
  "ㅇㅏㅍ</w>": 5465,
  "ㅇㅏㅍㅁㅜㄴㅇㅡㄹㅗ</w>": 5466,
  "ㅇㅏㅍㅇㅔ</w>": 5467,
  "ㅇㅏㅍㅇㅔㄲㅏㅈㅣ</w>": 5468,
  "ㅇㅏㅍㅇㅔㄴㅡㄴ</w>": 5469,
  "ㅇㅏㅍㅇㅔㅅㅓ</w>": 5470,
  "ㅇㅏㅍㅇㅔㅅㅓㄴㅡㄴ</w>": 5471,
  "ㅇㅏㅍㅇㅡㄹ</w>": 5472,
  "ㅇㅏㅍㅇㅡㄹㅗ": 5473,
  "ㅇㅏㅍㅇㅡㄹㅗ</w>": 5474,
  "ㅇㅏㅍㅇㅡㄹㅗㄱㅏㄲㅏㅇㅣ</w>": 5475,
  "ㅇㅏㅍㅈㅓㅇㄱㅏㅇㅇㅣㄹㅡㄹ</w>": 5476,
  "ㅇㅏㅍㅏ": 5477,
  "ㅇㅏㅍㅏ.</w>": 5478,
  "ㅇㅏㅍㅏㅅㅓ</w>": 5479,
  "ㅇㅏㅍㅡ": 5480,
  "ㅇㅏㅍㅡㄱㅗ</w>": 5481,
  "ㅇㅏㅍㅡㄴ</w>": 5482,
  "ㅇㅏㅎㅗ": 5483,
  "ㅇㅐ": 5484,
  "ㅇㅐ!</w>": 5485,
  "ㅇㅐ</w>": 5486,
  "ㅇㅐㄱㅏ</w>": 5487,
  "ㅇㅐㄱㅓㄹ": 5488,
  "ㅇㅐㄷㅏㄹ": 5489,
  "ㅇㅐㄷㅏㄹㅍㅡㄴ</w>": 5490,
  "ㅇㅐㄷㅡㄹ": 5491,
  "ㅇㅐㄷㅡㄹㅇㅡㄴ</w>": 5492,
  "ㅇㅐㄹㅡㄹ</w>": 5493,
  "ㅇㅐㅅㅓㄱ": 5494,
  "ㅇㅐㅆㅡㄴㅡㄴ</w>": 5495,
  "ㅇㅐㅇ": 5496,
  "ㅇㅐㅇㅝㄴㅎㅏㅇㅕㅆㅅㅡㅂㄴㅣㄷㅏ.</w>": 5497,
  "ㅇㅐㅌㅡㅅㅎㅏㄴ</w>": 5498,
  "ㅇㅑ": 5499,
  "ㅇㅑ!</w>": 5500,
  "ㅇㅑ!”</w>": 5501,
  "ㅇㅑ,</w>": 5502,
  "ㅇㅑ.</w>": 5503,
  "ㅇㅑ.”</w>": 5504,
  "ㅇㅑ</w>": 5505,
  "ㅇㅑ?</w>": 5506,
  "ㅇㅑㄱ": 5507,
  "ㅇㅑㄱ</w>": 5508,
  "ㅇㅑㄱㄱㅏㄴ</w>": 5509,
  "ㅇㅑㄱㅅㅗㄱ": 5510,
  "ㅇㅑㄱㅅㅗㄱㅇㅡㄹ</w>": 5511,
  "ㅇㅑㄱㅅㅗㄱㅎㅏㄴ</w>": 5512,
  "ㅇㅑㄱㅇㅡㄹ</w>": 5513,
  "ㅇㅑㄱㅇㅣ</w>": 5514,
  "ㅇㅑㄱㅈㅏㅇ": 5515,
  "ㅇㅑㄱㅈㅏㅇㅅㅏ": 5516,
  "ㅇㅑㄱㅈㅏㅇㅅㅏㄱㅏ</w>": 5517,
  "ㅇㅑㄱㅈㅏㅇㅅㅏㄴㅡㄴ</w>": 5518,
  "ㅇㅑㄱㅈㅏㅇㅅㅏㅇㅘ</w>": 5519,
  "ㅇㅑㄱㅎㅏㄴ</w>": 5520,
  "ㅇㅑㄱㅔㅆㄷㅏ.</w>": 5521,
  "ㅇㅑㄷㅏㄴ": 5522,
  "ㅇㅑㄷㅏㄴㄴㅏ": 5523,
  "ㅇㅑㄷㅏㄴㅇㅡㄹ</w>": 5524,
  "ㅇㅑㄷㅏㄴㅇㅣ</w>": 5525,
  "ㅇㅑㄹ": 5526,
  "ㅇㅑㅁㅏㄴ</w>": 5527,
  "ㅇㅑㅁㅏㄹㄹㅗ</w>": 5528,
  "ㅇㅑㅅㅗㄱ": 5529,
  "ㅇㅑㅅㅗㄱㅎㅏㄱㅗ</w>": 5530,
  "ㅇㅑㅇ": 5531,
  "ㅇㅑㅇ</w>": 5532,
  "ㅇㅑㅇㅁㅏㄴㅊㅜㄴ</w>": 5533,
  "ㅇㅑㅇㅂㅗㄱ": 5534,
  "ㅇㅑㅇㅂㅗㄱ</w>": 5535,
  "ㅇㅑㅇㅂㅗㄱㅇㅡㄹ</w>": 5536,
  "ㅇㅑㅇㅅㅣㄱㅇㅣ</w>": 5537,
  "ㅇㅑㅇㅇㅑㅇ": 5538,
  "ㅇㅑㅇㅇㅡㄹㅗ</w>": 5539,
  "ㅇㅑㅇㅈㅏㅁ": 5540,
  "ㅇㅑㅇㅈㅐㅅㅁㅜㄹㅇㅡㄹ</w>": 5541,
  "ㅇㅑㅇㅍㅕㄴ</w>": 5542,
  "ㅇㅑㅈㅣ.”</w>": 5543,
  "ㅇㅑㅈㅣ</w>": 5544,
  "ㅇㅑㅌㅇㅡㄴ</w>": 5545,
  "ㅇㅒ": 5546,
  "ㅇㅓ": 5547,
  "ㅇㅓ,</w>": 5548,
  "ㅇㅓ.</w>": 5549,
  "ㅇㅓ.”</w>": 5550,
  "ㅇㅓ</w>": 5551,
  "ㅇㅓㄱ": 5552,
  "ㅇㅓㄱㅇㅜㄹ": 5553,
  "ㅇㅓㄱㅇㅜㄹㅎㅏㄱㅔ</w>": 5554,
  "ㅇㅓㄱㅇㅜㄹㅎㅏㄴ</w>": 5555,
  "ㅇㅓㄱㅈㅣㄹㅗ</w>": 5556,
  "ㅇㅓㄱㅏ": 5557,
  "ㅇㅓㄱㅏㄴㅡㄴ</w>": 5558,
  "ㅇㅓㄱㅏㅁㅕㄴㅅㅓ</w>": 5559,
  "ㅇㅓㄲ": 5560,
  "ㅇㅓㄲㅐ": 5561,
  "ㅇㅓㄲㅐㄹㅡㄹ</w>": 5562,
  "ㅇㅓㄲㅐㅅ": 5563,
  "ㅇㅓㄲㅐㅇㅔ</w>": 5564,
  "ㅇㅓㄴ": 5565,
  "ㅇㅓㄴㄴㅣ": 5566,
  "ㅇㅓㄴㄴㅣ</w>": 5567,
  "ㅇㅓㄴㄴㅣㄱㅏ</w>": 5568,
  "ㅇㅓㄴㄴㅣㄴㅡㄴ</w>": 5569,
  "ㅇㅓㄴㄷㅓㄱ</w>": 5570,
  "ㅇㅓㄴㅈㅔ": 5571,
  "ㅇㅓㄴㅈㅔ</w>": 5572,
  "ㅇㅓㄴㅈㅔㄷㅡㄴㅈㅣ</w>": 5573,
  "ㅇㅓㄴㅈㅔㅉㅡㅁ</w>": 5574,
  "ㅇㅓㄴㅏㅇㅗㄴㅡㄴ</w>": 5575,
  "ㅇㅓㄴㅡ": 5576,
  "ㅇㅓㄴㅡ</w>": 5577,
  "ㅇㅓㄴㅡㄴㅏㄹ</w>": 5578,
  "ㅇㅓㄴㅡㄷㅓㅅ</w>": 5579,
  "ㅇㅓㄵ": 5580,
  "ㅇㅓㄷ": 5581,
  "ㅇㅓㄷㅇㅓ": 5582,
  "ㅇㅓㄷㅇㅓ</w>": 5583,
  "ㅇㅓㄷㅇㅓㅁㅏㅈㅇㅡㄴ</w>": 5584,
  "ㅇㅓㄷㅇㅓㅆㄷㅏ.</w>": 5585,
  "ㅇㅓㄷㅇㅡㄴ</w>": 5586,
  "ㅇㅓㄷㅏ</w>": 5587,
  "ㅇㅓㄷㅗ</w>": 5588,
  "ㅇㅓㄷㅜ": 5589,
  "ㅇㅓㄷㅜㄱ": 5590,
  "ㅇㅓㄷㅜㅇㅜㄴ</w>": 5591,
  "ㅇㅓㄷㅜㅇㅝ": 5592,
  "ㅇㅓㄷㅣ": 5593,
  "ㅇㅓㄷㅣ</w>": 5594,
  "ㅇㅓㄷㅣㄲㅏㅈㅣ</w>": 5595,
  "ㅇㅓㄷㅣㄲㅏㅈㅣㄷㅡㄴㅈㅣ</w>": 5596,
  "ㅇㅓㄷㅣㄹ</w>": 5597,
  "ㅇㅓㄷㅣㄹㅗ</w>": 5598,
  "ㅇㅓㄷㅣㅅㅓ": 5599,
  "ㅇㅓㄷㅣㅅㅓ</w>": 5600,
  "ㅇㅓㄷㅣㅅㅓㅇㅣㄴㅈㅣ</w>": 5601,
  "ㅇㅓㄸㅓ": 5602,
  "ㅇㅓㄸㅓㄱㅎㅏ": 5603,
  "ㅇㅓㄸㅓㄴ</w>": 5604,
  "ㅇㅓㄸㅓㄹㅑ</w>": 5605,
  "ㅇㅓㄸㅓㅎ": 5606,
  "ㅇㅓㄸㅓㅎㄱㅔ</w>": 5607,
  "ㅇㅓㄸㅓㅎㅏㄴ</w>": 5608,
  "ㅇㅓㄹ": 5609,
  "ㅇㅓㄹ</w>": 5610,
  "ㅇㅓㄹㄱㅜㄹ": 5611,
  "ㅇㅓㄹㄱㅜㄹ</w>": 5612,
  "ㅇㅓㄹㄱㅜㄹ>": 5613,
  "ㅇㅓㄹㄱㅜㄹ>ㅇㅣㄹㅏㄴ</w>": 5614,
  "ㅇㅓㄹㄱㅜㄹㅁㅏㄴ</w>": 5615,
  "ㅇㅓㄹㄱㅜㄹㅇㅔ</w>": 5616,
  "ㅇㅓㄹㄱㅜㄹㅇㅔㄴㅡㄴ</w>": 5617,
  "ㅇㅓㄹㄱㅜㄹㅇㅡㄴ</w>": 5618,
  "ㅇㅓㄹㄱㅜㄹㅇㅡㄹ</w>": 5619,
  "ㅇㅓㄹㄱㅜㄹㅇㅣ</w>": 5620,
  "ㅇㅓㄹㄸㅓㄹ": 5621,
  "ㅇㅓㄹㄸㅓㄹㄱㅕㄹㅇㅔ</w>": 5622,
  "ㅇㅓㄹㄹ": 5623,
  "ㅇㅓㄹㄹㅡㄴ": 5624,
  "ㅇㅓㄹㄹㅡㄴ</w>": 5625,
  "ㅇㅓㄹㅁㅏ": 5626,
  "ㅇㅓㄹㅁㅏ</w>": 5627,
  "ㅇㅓㄹㅁㅏㄴㅏ</w>": 5628,
  "ㅇㅓㄹㅁㅏㄷㅡㄴㅈㅣ</w>": 5629,
  "ㅇㅓㄹㅃㅏㅈㅣㄴ</w>": 5630,
  "ㅇㅓㄹㅆㅏ": 5631,
  "ㅇㅓㄹㅆㅏㅇㅏㄴㄱㅗ</w>": 5632,
  "ㅇㅓㄹㅇㅡㅁㅅㅏ": 5633,
  "ㅇㅓㄹㅇㅡㅁㅅㅏㅌㅏㅇ</w>": 5634,
  "ㅇㅓㄹㅇㅡㅁㅅㅏㅌㅏㅇㅇㅡㄹ</w>": 5635,
  "ㅇㅓㄹㅕ": 5636,
  "ㅇㅓㄹㅕ</w>": 5637,
  "ㅇㅓㄹㅕㅂㅈㅣ</w>": 5638,
  "ㅇㅓㄹㅕㅆㅇㅡㄹ</w>": 5639,
  "ㅇㅓㄹㅕㅇㅜㄴ</w>": 5640,
  "ㅇㅓㄹㅕㅇㅝ": 5641,
  "ㅇㅓㄹㅕㅇㅝㅆㄷㅏ.</w>": 5642,
  "ㅇㅓㄹㅜ": 5643,
  "ㅇㅓㄹㅡㄴ": 5644,
  "ㅇㅓㄹㅡㄴㄷㅡㄹ": 5645,
  "ㅇㅓㄹㅡㅁ": 5646,
  "ㅇㅓㄹㅡㅁㅇㅓㄹㅡㅁ": 5647,
  "ㅇㅓㄹㅡㅅㅣㄴ": 5648,
  "ㅇㅓㄹㅣ": 5649,
  "ㅇㅓㄹㅣ</w>": 5650,
  "ㅇㅓㄹㅣㄱㅗ</w>": 5651,
  "ㅇㅓㄹㅣㄴ": 5652,
  "ㅇㅓㄹㅣㄴ</w>": 5653,
  "ㅇㅓㄹㅣㄴㅇㅐ": 5654,
  "ㅇㅓㄹㅣㄴㅇㅐ</w>": 5655,
  "ㅇㅓㄹㅣㄴㅇㅐㄷㅗ</w>": 5656,
  "ㅇㅓㄹㅣㄴㅇㅐㄷㅡㄹㅇㅡㄹ</w>": 5657,
  "ㅇㅓㄹㅣㄴㅇㅐㄷㅡㄹㅇㅣ</w>": 5658,
  "ㅇㅓㄹㅣㄴㅇㅐㄹㅡㄹ</w>": 5659,
  "ㅇㅓㄹㅣㄷㅜㅇㅈㅓㄹ": 5660,
  "ㅇㅓㄹㅣㅅㅓㄱ": 5661,
  "ㅇㅓㄹㅣㅇㅓㅆ": 5662,
  "ㅇㅓㄹㅣㅇㅓㅆㅅㅡㅂㄴㅣㄷㅏ.</w>": 5663,
  "ㅇㅓㅁ": 5664,
  "ㅇㅓㅁㅊㅓㅇ": 5665,
  "ㅇㅓㅁㅊㅓㅇㄴㅏㄱㅔ</w>": 5666,
  "ㅇㅓㅁㅓ": 5667,
  "ㅇㅓㅁㅓㄱ": 5668,
  "ㅇㅓㅁㅓㄴㅣ": 5669,
  "ㅇㅓㅁㅓㄴㅣ!</w>": 5670,
  "ㅇㅓㅁㅓㄴㅣ,</w>": 5671,
  "ㅇㅓㅁㅓㄴㅣ</w>": 5672,
  "ㅇㅓㅁㅓㄴㅣㄱㅏ</w>": 5673,
  "ㅇㅓㅁㅓㄴㅣㄲㅏㅈㅣ</w>": 5674,
  "ㅇㅓㅁㅓㄴㅣㄲㅔ</w>": 5675,
  "ㅇㅓㅁㅓㄴㅣㄲㅔㅅㅓ</w>": 5676,
  "ㅇㅓㅁㅓㄴㅣㄲㅔㅅㅓㄴㅡㄴ</w>": 5677,
  "ㅇㅓㅁㅓㄴㅣㄴㅏ</w>": 5678,
  "ㅇㅓㅁㅓㄴㅣㄴㅡㄴ</w>": 5679,
  "ㅇㅓㅁㅓㄴㅣㄷㅗ</w>": 5680,
  "ㅇㅓㅁㅓㄴㅣㄹㅡㄹ</w>": 5681,
  "ㅇㅓㅁㅓㄴㅣㅁ</w>": 5682,
  "ㅇㅓㅁㅓㄴㅣㅁㄲㅔ</w>": 5683,
  "ㅇㅓㅁㅓㄴㅣㅁㄲㅔㅅㅓ</w>": 5684,
  "ㅇㅓㅁㅓㄴㅣㅁㅇㅣ</w>": 5685,
  "ㅇㅓㅁㅓㄴㅣㅇㅔㄱㅔ</w>": 5686,
  "ㅇㅓㅁㅓㄴㅣㅇㅘ</w>": 5687,
  "ㅇㅓㅁㅓㄴㅣㅇㅢ</w>": 5688,
  "ㅇㅓㅁㅓㄴㅣㅎㅏㄴㅌㅔ</w>": 5689,
  "ㅇㅓㅁㅣ</w>": 5690,
  "ㅇㅓㅂ": 5691,
  "ㅇㅓㅂㅅㅜㅇㅣ</w>": 5692,
  "ㅇㅓㅂㅇㅣ</w>": 5693,
  "ㅇㅓㅄ": 5694,
  "ㅇㅓㅄ</w>": 5695,
  "ㅇㅓㅄㄱㅔ</w>": 5696,
  "ㅇㅓㅄㄱㅔㅆ": 5697,
  "ㅇㅓㅄㄱㅗ</w>": 5698,
  "ㅇㅓㅄㄴㅡㄴ</w>": 5699,
  "ㅇㅓㅄㄴㅡㄴㄷㅔ": 5700,
  "ㅇㅓㅄㄷㅏ.</w>": 5701,
  "ㅇㅓㅄㄷㅏ.”</w>": 5702,
  "ㅇㅓㅄㄷㅏ</w>": 5703,
  "ㅇㅓㅄㄷㅏㄱㅗ</w>": 5704,
  "ㅇㅓㅄㄷㅏㄴㄷㅏ.”</w>": 5705,
  "ㅇㅓㅄㅅㅡㅂㄴㅣㄷㅏ.</w>": 5706,
  "ㅇㅓㅄㅅㅡㅂㄴㅣㄷㅏ.”</w>": 5707,
  "ㅇㅓㅄㅇㅐ": 5708,
  "ㅇㅓㅄㅇㅓ": 5709,
  "ㅇㅓㅄㅇㅓ</w>": 5710,
  "ㅇㅓㅄㅇㅓㅅㅓ</w>": 5711,
  "ㅇㅓㅄㅇㅓㅆ": 5712,
  "ㅇㅓㅄㅇㅓㅆ</w>": 5713,
  "ㅇㅓㅄㅇㅓㅆㄷㅏ.</w>": 5714,
  "ㅇㅓㅄㅇㅓㅆㄷㅏ</w>": 5715,
  "ㅇㅓㅄㅇㅓㅆㅅㅡㅂㄴㅣㄷㅏ.</w>": 5716,
  "ㅇㅓㅄㅇㅓㅈㅕ": 5717,
  "ㅇㅓㅄㅇㅓㅈㅕㅆ": 5718,
  "ㅇㅓㅄㅇㅓㅈㅣㄱㅗ</w>": 5719,
  "ㅇㅓㅄㅇㅓㅈㅣㅈㅣ</w>": 5720,
  "ㅇㅓㅄㅇㅡㄴㅣ</w>": 5721,
  "ㅇㅓㅄㅇㅡㄹ</w>": 5722,
  "ㅇㅓㅄㅇㅡㅁㅇㅡㄹ</w>": 5723,
  "ㅇㅓㅄㅇㅡㅁㅕㄴ</w>": 5724,
  "ㅇㅓㅄㅇㅡㅁㅡㄹㅗ</w>": 5725,
  "ㅇㅓㅄㅇㅣ,</w>": 5726,
  "ㅇㅓㅄㅇㅣ</w>": 5727,
  "ㅇㅓㅄㅈㅣ</w>": 5728,
  "ㅇㅓㅄㅈㅣㅁㅏㄴ</w>": 5729,
  "ㅇㅓㅅㅓ</w>": 5730,
  "ㅇㅓㅅㅡㄹ": 5731,
  "ㅇㅓㅆ": 5732,
  "ㅇㅓㅆㄴㅡㄴㄷㅔ</w>": 5733,
  "ㅇㅓㅆㄴㅡㄴㅈㅣ</w>": 5734,
  "ㅇㅓㅆㄷㅏ.</w>": 5735,
  "ㅇㅓㅆㄷㅏ.”</w>": 5736,
  "ㅇㅓㅆㄷㅏㄱㅏ</w>": 5737,
  "ㅇㅓㅆㄷㅏㄴㄷㅏ.</w>": 5738,
  "ㅇㅓㅆㄷㅓㄴ</w>": 5739,
  "ㅇㅓㅆㅅㅡㅂㄴㅣㄷㅏ.</w>": 5740,
  "ㅇㅓㅆㅇㅡㄴㅣ</w>": 5741,
  "ㅇㅓㅆㅇㅡㄹ</w>": 5742,
  "ㅇㅓㅇ": 5743,
  "ㅇㅓㅇ!</w>": 5744,
  "ㅇㅓㅇ</w>": 5745,
  "ㅇㅓㅇㄱㅡㅁㅇㅓㅇㄱㅡㅁ</w>": 5746,
  "ㅇㅓㅇㄷㅓㅇ": 5747,
  "ㅇㅓㅇㅇㅓㅇ</w>": 5748,
  "ㅇㅓㅇㅋㅕㅅㅓ</w>": 5749,
  "ㅇㅓㅇㅋㅣ": 5750,
  "ㅇㅓㅇㅏㄴㅇㅣ</w>": 5751,
  "ㅇㅓㅇㅑ</w>": 5752,
  "ㅇㅓㅇㅕ": 5753,
  "ㅇㅓㅇㅕㅃㅡㄴ</w>": 5754,
  "ㅇㅓㅇㅛ.</w>": 5755,
  "ㅇㅓㅇㅛ.”</w>": 5756,
  "ㅇㅓㅇㅛ?</w>": 5757,
  "ㅇㅓㅇㅣ": 5758,
  "ㅇㅓㅇㅣ!”</w>": 5759,
  "ㅇㅓㅇㅣㄱㅏ</w>": 5760,
  "ㅇㅓㅈ": 5761,
  "ㅇㅓㅈㅓ": 5762,
  "ㅇㅓㅈㅓㄲㅔ</w>": 5763,
  "ㅇㅓㅈㅓㄲㅔㄷㅗ</w>": 5764,
  "ㅇㅓㅈㅓㅇ": 5765,
  "ㅇㅓㅈㅔ": 5766,
  "ㅇㅓㅈㅔ</w>": 5767,
  "ㅇㅓㅈㅔㄷㅗ</w>": 5768,
  "ㅇㅓㅈㅔㅅ": 5769,
  "ㅇㅓㅈㅕ": 5770,
  "ㅇㅓㅈㅕ</w>": 5771,
  "ㅇㅓㅈㅕㅅㅓ</w>": 5772,
  "ㅇㅓㅈㅕㅆㅅㅡㅂㄴㅣㄷㅏ.</w>": 5773,
  "ㅇㅓㅈㅣ": 5774,
  "ㅇㅓㅈㅣㄱㅏㄴ": 5775,
  "ㅇㅓㅈㅣㄱㅏㄴㅎㅣ</w>": 5776,
  "ㅇㅓㅈㅣㄱㅗ</w>": 5777,
  "ㅇㅓㅈㅣㄱㅣ</w>": 5778,
  "ㅇㅓㅈㅣㄴ</w>": 5779,
  "ㅇㅓㅈㅣㄴㅡㄴ</w>": 5780,
  "ㅇㅓㅈㅣㄹ": 5781,
  "ㅇㅓㅈㅣㄹ</w>": 5782,
  "ㅇㅓㅉ": 5783,
  "ㅇㅓㅉㅐ": 5784,
  "ㅇㅓㅉㅐㅅㅓ</w>": 5785,
  "ㅇㅓㅉㅐㅆㄷㅡㄴ</w>": 5786,
  "ㅇㅓㅉㅐㅆㄷㅡㄴㅈㅣ</w>": 5787,
  "ㅇㅓㅉㅓ": 5788,
  "ㅇㅓㅉㅓㄱㅗ</w>": 5789,
  "ㅇㅓㅉㅓㄴ</w>": 5790,
  "ㅇㅓㅉㅓㄴㅈㅣ</w>": 5791,
  "ㅇㅓㅉㅓㄴㅏ,</w>": 5792,
  "ㅇㅓㅉㅓㄴㅡㄴ</w>": 5793,
  "ㅇㅓㅉㅓㄹ</w>": 5794,
  "ㅇㅓㅉㅓㅁㅕㄴ</w>": 5795,
  "ㅇㅓㅉㅣ": 5796,
  "ㅇㅓㅉㅣ</w>": 5797,
  "ㅇㅓㅉㅣㄷㅗ</w>": 5798,
  "ㅇㅓㅉㅣㅎㅏㄹ</w>": 5799,
  "ㅇㅓㅍ": 5800,
  "ㅇㅓㅍㄷㅡㄹㅕ</w>": 5801,
  "ㅇㅓㅍㅇㅓㅈㅕ</w>": 5802,
  "ㅇㅔ": 5803,
  "ㅇㅔ,</w>": 5804,
  "ㅇㅔ</w>": 5805,
  "ㅇㅔㄱㅏ</w>": 5806,
  "ㅇㅔㄱㅔ": 5807,
  "ㅇㅔㄱㅔ</w>": 5808,
  "ㅇㅔㄱㅔㄴㅡㄴ</w>": 5809,
  "ㅇㅔㄱㅔㄷㅗ</w>": 5810,
  "ㅇㅔㄱㅔㄹㅏㄷㅗ</w>": 5811,
  "ㅇㅔㄱㅔㄹㅗ</w>": 5812,
  "ㅇㅔㄱㅔㅅㅓ</w>": 5813,
  "ㅇㅔㄲㅏㅈㅣ</w>": 5814,
  "ㅇㅔㄴ": 5815,
  "ㅇㅔㄴ</w>": 5816,
  "ㅇㅔㄴㅏ</w>": 5817,
  "ㅇㅔㄴㅡㄴ": 5818,
  "ㅇㅔㄴㅡㄴ</w>": 5819,
  "ㅇㅔㄷㅏ</w>": 5820,
  "ㅇㅔㄷㅏㄱㅏ</w>": 5821,
  "ㅇㅔㄷㅗ</w>": 5822,
  "ㅇㅔㄹ</w>": 5823,
  "ㅇㅔㄹㅏㄷㅗ</w>": 5824,
  "ㅇㅔㄹㅡㄹ</w>": 5825,
  "ㅇㅔㅁㅏㄴ</w>": 5826,
  "ㅇㅔㅁㅣㄹㅋㅗ</w>": 5827,
  "ㅇㅔㅅ": 5828,
  "ㅇㅔㅅㅓ": 5829,
  "ㅇㅔㅅㅓ,</w>": 5830,
  "ㅇㅔㅅㅓ</w>": 5831,
  "ㅇㅔㅅㅓㄴㅡㄴ</w>": 5832,
  "ㅇㅔㅅㅓㄷㅗ</w>": 5833,
  "ㅇㅔㅅㅓㅂㅜㅌㅓ</w>": 5834,
  "ㅇㅔㅇㅣㅍㅡㄹㅓㄴ": 5835,
  "ㅇㅔㅎㅔ</w>": 5836,
  "ㅇㅕ": 5837,
  "ㅇㅕ</w>": 5838,
  "ㅇㅕㄱ": 5839,
  "ㅇㅕㄱㅅㅣ</w>": 5840,
  "ㅇㅕㄱㅎㅐ</w>": 5841,
  "ㅇㅕㄱㅏㄴ": 5842,
  "ㅇㅕㄱㅏㄴ</w>": 5843,
  "ㅇㅕㄱㅕ": 5844,
  "ㅇㅕㄱㅘㄴ": 5845,
  "ㅇㅕㄱㅘㄴㅈㅣㅂ</w>": 5846,
  "ㅇㅕㄱㅣ": 5847,
  "ㅇㅕㄱㅣ</w>": 5848,
  "ㅇㅕㄱㅣㄱㅗ</w>": 5849,
  "ㅇㅕㄱㅣㄲㅏㅈㅣ</w>": 5850,
  "ㅇㅕㄱㅣㄴㅡㄴ</w>": 5851,
  "ㅇㅕㄱㅣㄷㅏ</w>": 5852,
  "ㅇㅕㄱㅣㄹ</w>": 5853,
  "ㅇㅕㄱㅣㅅㅓ</w>": 5854,
  "ㅇㅕㄱㅣㅇㅔㄴㅡㄴ</w>": 5855,
  "ㅇㅕㄱㅣㅈㅓ": 5856,
  "ㅇㅕㄱㅣㅈㅓㄱㅣ</w>": 5857,
  "ㅇㅕㄴ": 5858,
  "ㅇㅕㄴ</w>": 5859,
  "ㅇㅕㄴㄱㅏㅂ": 5860,
  "ㅇㅕㄴㄱㅏㅂㅇㅣㄱㅏ</w>": 5861,
  "ㅇㅕㄴㄱㅏㅂㅇㅣㄴㅡㄴ</w>": 5862,
  "ㅇㅕㄴㄱㅏㅂㅇㅣㅇㅢ</w>": 5863,
  "ㅇㅕㄴㄱㅓㅍㅜ</w>": 5864,
  "ㅇㅕㄴㄱㅜ": 5865,
  "ㅇㅕㄴㄱㅜㅎㅏㅇㅕㅆㄷㅏ.</w>": 5866,
  "ㅇㅕㄴㄱㅣㄱㅏ</w>": 5867,
  "ㅇㅕㄴㄱㅣㄹㅡㄹ</w>": 5868,
  "ㅇㅕㄴㅅㅏㅇ": 5869,
  "ㅇㅕㄴㅅㅓㄹ": 5870,
  "ㅇㅕㄴㅅㅓㄹㅇㅣ</w>": 5871,
  "ㅇㅕㄴㅅㅓㅇㅎㅡㅁ</w>": 5872,
  "ㅇㅕㄴㅇㅐ": 5873,
  "ㅇㅕㄴㅇㅡㄹ</w>": 5874,
  "ㅇㅕㄴㅇㅣ</w>": 5875,
  "ㅇㅕㄴㅌㅗㅇ</w>": 5876,
  "ㅇㅕㄴㅎㅏㄱㅗ</w>": 5877,
  "ㅇㅕㄴㅎㅏㄴ</w>": 5878,
  "ㅇㅕㄴㅎㅐ</w>": 5879,
  "ㅇㅕㄴㅎㅣ</w>": 5880,
  "ㅇㅕㄷㅏㄷ": 5881,
  "ㅇㅕㄷㅓㄼ</w>": 5882,
  "ㅇㅕㄹ": 5883,
  "ㅇㅕㄹ</w>": 5884,
  "ㅇㅕㄹㄱㅗ</w>": 5885,
  "ㅇㅕㄹㄷㅏㅅㅓㅅ</w>": 5886,
  "ㅇㅕㄹㄷㅜ</w>": 5887,
  "ㅇㅕㄹㄹㅣ": 5888,
  "ㅇㅕㄹㄹㅣㄱㅗ</w>": 5889,
  "ㅇㅕㄹㅅㅔ</w>": 5890,
  "ㅇㅕㄹㅅㅣㅁㅎㅣ</w>": 5891,
  "ㅇㅕㄹㅇㅓ": 5892,
  "ㅇㅕㄹㅇㅓ</w>": 5893,
  "ㅇㅕㄹㅇㅓㅆㄷㅏ.</w>": 5894,
  "ㅇㅕㄹㅇㅓㅈㅓㅈ": 5895,
  "ㅇㅕㄹㅇㅓㅈㅓㅈㅎㅣㄱㅗ</w>": 5896,
  "ㅇㅕㄹㅇㅣ</w>": 5897,
  "ㅇㅕㄹㅎㅏㄴ</w>": 5898,
  "ㅇㅕㄹㅎㅡㄹ": 5899,
  "ㅇㅕㄹㅓ": 5900,
  "ㅇㅕㄹㅓ</w>": 5901,
  "ㅇㅕㄹㅓㄱㅏㅈㅣ</w>": 5902,
  "ㅇㅕㄹㅓㄱㅏㅈㅣㄹㅗ</w>": 5903,
  "ㅇㅕㄹㅓㅂㅓㄴ</w>": 5904,
  "ㅇㅕㄹㅓㅂㅜㄴ": 5905,
  "ㅇㅕㄹㅓㅂㅜㄴ!</w>": 5906,
  "ㅇㅕㄹㅡ": 5907,
  "ㅇㅕㄹㅡㅁ": 5908,
  "ㅇㅕㄹㅡㅁ</w>": 5909,
  "ㅇㅕㄹㅡㅁㅇㅔ</w>": 5910,
  "ㅇㅕㅁ": 5911,
  "ㅇㅕㅁㄹㅏㄷㅐㅇㅘ": 5912,
  "ㅇㅕㅁㄹㅏㄷㅐㅇㅘㅇ": 5913,
  "ㅇㅕㅁㄹㅏㄷㅐㅇㅘㅇㅇㅔㄱㅔㄹㅗ</w>": 5914,
  "ㅇㅕㅁㄹㅏㄷㅐㅇㅘㅇㅇㅡㄴ</w>": 5915,
  "ㅇㅕㅁㄹㅕ": 5916,
  "ㅇㅕㅁㄹㅕ</w>": 5917,
  "ㅇㅕㅁㄹㅕㄱㅏ</w>": 5918,
  "ㅇㅕㅂㅗ": 5919,
  "ㅇㅕㅂㅗㄱㅔ</w>": 5920,
  "ㅇㅕㅅ": 5921,
  "ㅇㅕㅅ</w>": 5922,
  "ㅇㅕㅅㅓ": 5923,
  "ㅇㅕㅅㅓ</w>": 5924,
  "ㅇㅕㅅㅓㅅ</w>": 5925,
  "ㅇㅕㅅㅡㅇ": 5926,
  "ㅇㅕㅆ": 5927,
  "ㅇㅕㅆ</w>": 5928,
  "ㅇㅕㅆㄷㅏ.</w>": 5929,
  "ㅇㅕㅆㅅㅡㅂㄴㅣㄷㅏ.</w>": 5930,
  "ㅇㅕㅇ": 5931,
  "ㅇㅕㅇ</w>": 5932,
  "ㅇㅕㅇㄹㅣ": 5933,
  "ㅇㅕㅇㅁㅜㄴ": 5934,
  "ㅇㅕㅇㅇㅓ": 5935,
  "ㅇㅕㅇㅇㅓ</w>": 5936,
  "ㅇㅕㅇㅇㅓㄹㅡㄹ</w>": 5937,
  "ㅇㅕㅇㅇㅓㅇㅕㄴㄱㅜㅎㅚ": 5938,
  "ㅇㅕㅇㅇㅕㅇ</w>": 5939,
  "ㅇㅕㅇㅎㅗ": 5940,
  "ㅇㅕㅇㅎㅗ</w>": 5941,
  "ㅇㅕㅇㅎㅗㄱㅏ</w>": 5942,
  "ㅇㅕㅇㅎㅗㄴㅡㄴ</w>": 5943,
  "ㅇㅕㅇㅎㅗㅇ": 5944,
  "ㅇㅕㅇㅎㅗㅇㅑ!</w>": 5945,
  "ㅇㅕㅇㅎㅗㅇㅢ</w>": 5946,
  "ㅇㅕㅇㅠㄷㅗ</w>": 5947,
  "ㅇㅕㅇㅢ": 5948,
  "ㅇㅕㅇㅢㄱㅗ</w>": 5949,
  "ㅇㅕㅇㅣㄴ": 5950,
  "ㅇㅕㅇㅣㄴㅇㅢ</w>": 5951,
  "ㅇㅕㅇㅣㄴㅇㅣ</w>": 5952,
  "ㅇㅕㅈㅏ": 5953,
  "ㅇㅕㅈㅏㄴㅡㄴ</w>": 5954,
  "ㅇㅕㅈㅏㄷㅏ.</w>": 5955,
  "ㅇㅕㅈㅏㅇㅢ</w>": 5956,
  "ㅇㅕㅈㅓㄴㅎㅣ</w>": 5957,
  "ㅇㅕㅈㅣㄱㄱㅗㅇ": 5958,
  "ㅇㅕㅈㅣㅇㅓㅄㅇㅣ</w>": 5959,
  "ㅇㅕㅉㅜㅇㅓ": 5960,
  "ㅇㅕㅉㅜㅇㅓ</w>": 5961,
  "ㅇㅕㅌㅐ": 5962,
  "ㅇㅕㅌㅐㄲㅏㅈㅣ</w>": 5963,
  "ㅇㅕㅌㅐㄲㅓㅅ</w>": 5964,
  "ㅇㅕㅍ": 5965,
  "ㅇㅕㅍ</w>": 5966,
  "ㅇㅕㅍㅇㅔ</w>": 5967,
  "ㅇㅕㅍㅇㅡㄹㅗ</w>": 5968,
  "ㅇㅕㅎㅏㄱㅅㅐㅇ": 5969,
  "ㅇㅕㅎㅏㄱㅅㅐㅇㅇㅣ</w>": 5970,
  "ㅇㅖ": 5971,
  "ㅇㅖㅁㅣㄴ": 5972,
  "ㅇㅖㅃ": 5973,
  "ㅇㅖㅃㅡ": 5974,
  "ㅇㅖㅃㅡㄴ</w>": 5975,
  "ㅇㅖㅅㄴㅏㄹ": 5976,
  "ㅇㅖㅅㄴㅏㄹ</w>": 5977,
  "ㅇㅖㅅㅜㄹㅈㅓㄱ</w>": 5978,
  "ㅇㅗ": 5979,
  "ㅇㅗ!</w>": 5980,
  "ㅇㅗ.</w>": 5981,
  "ㅇㅗ.“</w>": 5982,
  "ㅇㅗ.”</w>": 5983,
  "ㅇㅗ</w>": 5984,
  "ㅇㅗ?</w>": 5985,
  "ㅇㅗㄱ": 5986,
  "ㅇㅗㄱㅅㅜ": 5987,
  "ㅇㅗㄱㅅㅜㅅㅜ</w>": 5988,
  "ㅇㅗㄱㅅㅜㅅㅜㄱㅏ</w>": 5989,
  "ㅇㅗㄱㅅㅜㅅㅜㄴㅡㄴ</w>": 5990,
  "ㅇㅗㄱㅅㅜㅅㅜㄷㅗ</w>": 5991,
  "ㅇㅗㄱㅅㅜㅅㅜㄹㅡㄹ</w>": 5992,
  "ㅇㅗㄱㅔ": 5993,
  "ㅇㅗㄱㅗ": 5994,
  "ㅇㅗㄱㅗ</w>": 5995,
  "ㅇㅗㄱㅣ</w>": 5996,
  "ㅇㅗㄱㅣㄹㅡㄹ</w>": 5997,
  "ㅇㅗㄴ": 5998,
  "ㅇㅗㄴ</w>": 5999,
  "ㅇㅗㄴㄱㅏㅈ</w>": 6000,
  "ㅇㅗㄴㄷㅏ.</w>": 6001,
  "ㅇㅗㄴㄷㅔ": 6002,
  "ㅇㅗㄴㅈㅗㅇㅇㅣㄹ</w>": 6003,
  "ㅇㅗㄴㅌㅗㅇ</w>": 6004,
  "ㅇㅗㄴㅏ</w>": 6005,
  "ㅇㅗㄴㅓㄹㅏ.</w>": 6006,
  "ㅇㅗㄴㅓㄹㅏ.”</w>": 6007,
  "ㅇㅗㄴㅓㄹㅏ</w>": 6008,
  "ㅇㅗㄴㅡㄴ</w>": 6009,
  "ㅇㅗㄴㅡㄹ": 6010,
  "ㅇㅗㄴㅡㄹ</w>": 6011,
  "ㅇㅗㄴㅡㄹㄲㅏㅈㅣ</w>": 6012,
  "ㅇㅗㄴㅡㄹㄴㅏㄹ": 6013,
  "ㅇㅗㄴㅡㄹㄴㅏㄹㄲㅏㅈㅣ</w>": 6014,
  "ㅇㅗㄴㅡㄹㄷㅗ</w>": 6015,
  "ㅇㅗㄴㅡㄹㄸㅏㄹㅏ</w>": 6016,
  "ㅇㅗㄴㅡㄹㅇㅏㅊㅣㅁ</w>": 6017,
  "ㅇㅗㄴㅡㄹㅇㅡㄴ</w>": 6018,
  "ㅇㅗㄴㅡㄹㅇㅡㄹ</w>": 6019,
  "ㅇㅗㄴㅡㄹㅏㄱㅗ</w>": 6020,
  "ㅇㅗㄷㅏㄱㅏ</w>": 6021,
  "ㅇㅗㄷㅓㄴ</w>": 6022,
  "ㅇㅗㄷㅡㅅ</w>": 6023,
  "ㅇㅗㄹ": 6024,
  "ㅇㅗㄹ</w>": 6025,
  "ㅇㅗㄹㄹㅏ": 6026,
  "ㅇㅗㄹㄹㅏㄱㅏ": 6027,
  "ㅇㅗㄹㄹㅏㄱㅏ</w>": 6028,
  "ㅇㅗㄹㄹㅏㄱㅏㄴㄷㅏ.</w>": 6029,
  "ㅇㅗㄹㄹㅏㄱㅏㅅㅓ</w>": 6030,
  "ㅇㅗㄹㄹㅏㄱㅏㅆㅅㅡㅂㄴㅣㄷㅏ.</w>": 6031,
  "ㅇㅗㄹㄹㅏㄱㅏㅈㅣ</w>": 6032,
  "ㅇㅗㄹㄹㅏㅅㅓ": 6033,
  "ㅇㅗㄹㄹㅏㅅㅓ</w>": 6034,
  "ㅇㅗㄹㄹㅏㅆㅅㅡㅂㄴㅣㄷㅏ.</w>": 6035,
  "ㅇㅗㄹㄹㅏㅇㅗ": 6036,
  "ㅇㅗㄹㄹㅕ</w>": 6037,
  "ㅇㅗㄹㄹㅣㄱㅗ</w>": 6038,
  "ㅇㅗㄹㄹㅣㄴㅡㄹㅏㄱㅗ</w>": 6039,
  "ㅇㅗㄹㅅㅣ": 6040,
  "ㅇㅗㄹㅅㅣㄷㅏ.</w>": 6041,
  "ㅇㅗㄹㅎㅐ</w>": 6042,
  "ㅇㅗㄹㅏ": 6043,
  "ㅇㅗㄹㅏㄱ": 6044,
  "ㅇㅗㄹㅏㄱㅗ</w>": 6045,
  "ㅇㅗㄹㅏㄴㅡㄴ</w>": 6046,
  "ㅇㅗㄹㅏㅈㅣㄹ": 6047,
  "ㅇㅗㄹㅏㅈㅣㄹ</w>": 6048,
  "ㅇㅗㄹㅐ": 6049,
  "ㅇㅗㄹㅐ</w>": 6050,
  "ㅇㅗㄹㅐㄱㅏㄴ": 6051,
  "ㅇㅗㄹㅐㄱㅏㄴㅁㅏㄴㅇㅔ</w>": 6052,
  "ㅇㅗㄹㅕ": 6053,
  "ㅇㅗㄹㅕㄴㅣㄲㅏ</w>": 6054,
  "ㅇㅗㄹㅡ": 6055,
  "ㅇㅗㄹㅡㄱㅗ</w>": 6056,
  "ㅇㅗㄹㅡㄴ": 6057,
  "ㅇㅗㄹㅡㄹ</w>": 6058,
  "ㅇㅗㄻ": 6059,
  "ㅇㅗㄻㄱㅕ": 6060,
  "ㅇㅗㅀ": 6061,
  "ㅇㅗㅀㅇㅡㄴ</w>": 6062,
  "ㅇㅗㅃㅏ": 6063,
  "ㅇㅗㅃㅏ</w>": 6064,
  "ㅇㅗㅃㅏㄱㅏ</w>": 6065,
  "ㅇㅗㅃㅏㄴㅡㄴ</w>": 6066,
  "ㅇㅗㅃㅏㄹㅡㄹ</w>": 6067,
  "ㅇㅗㅅ": 6068,
  "ㅇㅗㅅㄱㅏㅁ</w>": 6069,
  "ㅇㅗㅅㅇㅡㄹ</w>": 6070,
  "ㅇㅗㅅㅇㅣ</w>": 6071,
  "ㅇㅗㅅㅕㅅㅓ</w>": 6072,
  "ㅇㅗㅅㅕㅆㅅㅡㅂㄴㅣㄷㅏ.</w>": 6073,
  "ㅇㅗㅅㅣ": 6074,
  "ㅇㅗㅅㅣㄱㅔ</w>": 6075,
  "ㅇㅗㅅㅣㄴ</w>": 6076,
  "ㅇㅗㅅㅣㄹ</w>": 6077,
  "ㅇㅗㅅㅣㅂ": 6078,
  "ㅇㅗㅅㅣㅂ</w>": 6079,
  "ㅇㅗㅇ": 6080,
  "ㅇㅗㅇㅝ": 6081,
  "ㅇㅗㅈㅣ</w>": 6082,
  "ㅇㅗㅈㅣㄱ</w>": 6083,
  "ㅇㅗㅌㅏㄱㅇㅢ</w>": 6084,
  "ㅇㅗㅎㅏㄱㄴㅕㄴ</w>": 6085,
  "ㅇㅗㅎㅏㄴㅇㅣ</w>": 6086,
  "ㅇㅗㅎㅐ": 6087,
  "ㅇㅗㅎㅣㄹㅕ</w>": 6088,
  "ㅇㅘ": 6089,
  "ㅇㅘ!”</w>": 6090,
  "ㅇㅘ</w>": 6091,
  "ㅇㅘㄴ": 6092,
  "ㅇㅘㄷㅗ</w>": 6093,
  "ㅇㅘㅅㅓ,</w>": 6094,
  "ㅇㅘㅅㅓ</w>": 6095,
  "ㅇㅘㅅㅓㄴㅡㄴ</w>": 6096,
  "ㅇㅘㅅㅓㄷㅗ</w>": 6097,
  "ㅇㅘㅆ": 6098,
  "ㅇㅘㅆㄱㅜㄴㅏ": 6099,
  "ㅇㅘㅆㄷㅏ": 6100,
  "ㅇㅘㅆㄷㅏ.</w>": 6101,
  "ㅇㅘㅆㄷㅏ.”</w>": 6102,
  "ㅇㅘㅆㄷㅏ</w>": 6103,
  "ㅇㅘㅆㄷㅓㄴ</w>": 6104,
  "ㅇㅘㅆㅅㅡㅂㄴㅣㄷㅏ.</w>": 6105,
  "ㅇㅘㅆㅇㅓㅇㅛ.”</w>": 6106,
  "ㅇㅘㅆㅇㅡㄴㅣ</w>": 6107,
  "ㅇㅘㅆㅇㅡㄹ</w>": 6108,
  "ㅇㅘㅆㅇㅡㅁㅕㄴ</w>": 6109,
  "ㅇㅘㅆㅇㅡㅁㅡㄹㅗ</w>": 6110,
  "ㅇㅙ": 6111,
  "ㅇㅙ</w>": 6112,
  "ㅇㅙ?</w>": 6113,
  "ㅇㅙㄴㅑ": 6114,
  "ㅇㅙㄴㅑㅎㅏㅁㅕㄴ</w>": 6115,
  "ㅇㅚ": 6116,
  "ㅇㅚㄱㅏ": 6117,
  "ㅇㅚㄱㅏㅅ": 6118,
  "ㅇㅚㄴ": 6119,
  "ㅇㅚㄴㅍㅕㄴ</w>": 6120,
  "ㅇㅚㄸㅏ": 6121,
  "ㅇㅚㄹㅗ": 6122,
  "ㅇㅚㄹㅗㅇㅜㄴ</w>": 6123,
  "ㅇㅚㄹㅗㅇㅜㅁㄱㅘ</w>": 6124,
  "ㅇㅚㅅㅏㅁ": 6125,
  "ㅇㅚㅅㅏㅁㅊㅗㄴㅇㅣ</w>": 6126,
  "ㅇㅚㅇㅔ</w>": 6127,
  "ㅇㅚㅇㅔㄴㅡㄴ</w>": 6128,
  "ㅇㅚㅇㅜㄴ</w>": 6129,
  "ㅇㅚㅇㅢ</w>": 6130,
  "ㅇㅚㅊㅕㅆㄷㅏ.</w>": 6131,
  "ㅇㅚㅊㅜㄹ": 6132,
  "ㅇㅚㅊㅜㄹ</w>": 6133,
  "ㅇㅚㅊㅜㄹㅇㅔㅅㅓ</w>": 6134,
  "ㅇㅚㅊㅜㄹㅇㅡㄹ</w>": 6135,
  "ㅇㅚㅊㅜㄹㅎㅏㄱㅗ</w>": 6136,
  "ㅇㅚㅊㅜㄹㅎㅏㄴ</w>": 6137,
  "ㅇㅛ": 6138,
  "ㅇㅛ,</w>": 6139,
  "ㅇㅛ.</w>": 6140,
  "ㅇㅛ.”</w>": 6141,
  "ㅇㅛ</w>": 6142,
  "ㅇㅛ?</w>": 6143,
  "ㅇㅛ?”</w>": 6144,
  "ㅇㅛ”</w>": 6145,
  "ㅇㅛㄱ": 6146,
  "ㅇㅛㄱㅅㅣㅁ": 6147,
  "ㅇㅛㄱㅅㅣㅁ</w>": 6148,
  "ㅇㅛㄱㅅㅣㅁㅇㅣ</w>": 6149,
  "ㅇㅛㄱㅇㅡㄹ</w>": 6150,
  "ㅇㅛㄹㅏㄴ": 6151,
  "ㅇㅛㄹㅏㄴㅅㅡㄹㅓㅂ": 6152,
  "ㅇㅛㄹㅏㄴㅅㅡㄹㅓㅂㄱㅔ</w>": 6153,
  "ㅇㅛㄹㅓㅎㄱㅔ</w>": 6154,
  "ㅇㅛㅅㅐㄴㅡㄴ</w>": 6155,
  "ㅇㅛㅇ": 6156,
  "ㅇㅛㅇ</w>": 6157,
  "ㅇㅛㅇㄱㅣㄱㅏ</w>": 6158,
  "ㅇㅛㅇㄱㅣㄹ": 6159,
  "ㅇㅛㅇㄱㅣㄹ</w>": 6160,
  "ㅇㅛㅇㄱㅣㄹㅇㅣㄱㅏ</w>": 6161,
  "ㅇㅛㅇㄱㅣㄹㅇㅣㄴㅡㄴ</w>": 6162,
  "ㅇㅛㅇㄱㅣㄹㅇㅣㅇㅢ</w>": 6163,
  "ㅇㅛㅇㄱㅣㄹㅡㄹ</w>": 6164,
  "ㅇㅛㅇㅁㅏㄴ": 6165,
  "ㅇㅛㅇㅁㅏㄴㅇㅏ!</w>": 6166,
  "ㅇㅛㅇㅁㅏㄴㅇㅣ</w>": 6167,
  "ㅇㅛㅇㅁㅏㄴㅇㅣㄱㅏ</w>": 6168,
  "ㅇㅛㅇㅁㅏㄴㅇㅣㄴㅡㄴ</w>": 6169,
  "ㅇㅛㅇㅁㅏㄴㅇㅣㅇㅢ</w>": 6170,
  "ㅇㅛㅇㅁㅐㅇ": 6171,
  "ㅇㅛㅇㅁㅐㅇㅇㅣ</w>": 6172,
  "ㅇㅛㅇㅅㅓ": 6173,
  "ㅇㅛㅇㅅㅓㅎㅏ": 6174,
  "ㅇㅛㅇㅅㅓㅎㅏㅇㅕ": 6175,
  "ㅇㅛㅇㅅㅓㅎㅐ": 6176,
  "ㅇㅛㅇㅅㅓㅎㅐㄷㅏ": 6177,
  "ㅇㅛㅇㅅㅓㅎㅐㅈㅜ": 6178,
  "ㅇㅛㅇㅇㅡㄹ</w>": 6179,
  "ㅇㅛㅇㅈㅏ": 6180,
  "ㅇㅛㅇㅎㅘㄴ": 6181,
  "ㅇㅛㅇㅎㅘㄴㅇㅣㄱㅏ</w>": 6182,
  "ㅇㅛㅇㅎㅘㄴㅇㅣㄴㅡㄴ</w>": 6183,
  "ㅇㅛㅇㅎㅘㄴㅇㅣㄹㅡㄹ</w>": 6184,
  "ㅇㅛㅈㅓㄴ": 6185,
  "ㅇㅛㅈㅡ": 6186,
  "ㅇㅛㅈㅡㅁ</w>": 6187,
  "ㅇㅛㅈㅡㅇㅡㅁ</w>": 6188,
  "ㅇㅛㅎㅐㅇ": 6189,
  "ㅇㅜ": 6190,
  "ㅇㅜ,</w>": 6191,
  "ㅇㅜ.</w>": 6192,
  "ㅇㅜ</w>": 6193,
  "ㅇㅜ?</w>": 6194,
  "ㅇㅜㄱㅓㅈㅣㄴ</w>": 6195,
  "ㅇㅜㄱㅗ</w>": 6196,
  "ㅇㅜㄱㅡㄹ</w>": 6197,
  "ㅇㅜㄴ": 6198,
  "ㅇㅜㄴ</w>": 6199,
  "ㅇㅜㄴㄷㅏ.</w>": 6200,
  "ㅇㅜㄴㄷㅗㅇ": 6201,
  "ㅇㅜㄴㄷㅗㅇㅈㅏㅇ</w>": 6202,
  "ㅇㅜㄴㄷㅗㅇㅈㅏㅇㅇㅡㄹㅗ</w>": 6203,
  "ㅇㅜㄴㅅㅜ</w>": 6204,
  "ㅇㅜㄴㅅㅜㄱㅏ</w>": 6205,
  "ㅇㅜㄴㅡㄴ": 6206,
  "ㅇㅜㄴㅡㄴ</w>": 6207,
  "ㅇㅜㄷㅜㅋㅓㄴㅣ</w>": 6208,
  "ㅇㅜㄷㅡㅇ</w>": 6209,
  "ㅇㅜㄹ": 6210,
  "ㅇㅜㄹ</w>": 6211,
  "ㅇㅜㄹㄱㅗ</w>": 6212,
  "ㅇㅜㄹㄱㅡㅅㅂㅜㄹ": 6213,
  "ㅇㅜㄹㄱㅡㅅㅂㅜㄹㄱㅡㅅ": 6214,
  "ㅇㅜㄹㄱㅣ": 6215,
  "ㅇㅜㄹㄱㅣㄴㅏ</w>": 6216,
  "ㅇㅜㄹㄱㅣㅁㅏㄴ</w>": 6217,
  "ㅇㅜㄹㄷㅏㄱㅏ</w>": 6218,
  "ㅇㅜㄹㄹㅓㅇㄱㅓㄹㅣㄴㅡㄴ</w>": 6219,
  "ㅇㅜㄹㄹㅓㅇㄱㅓㄹㅣㅁㅕㄴㅅㅓ</w>": 6220,
  "ㅇㅜㄹㄹㅕ": 6221,
  "ㅇㅜㄹㄹㅕㅆㅅㅡㅂㄴㅣㄷㅏ.</w>": 6222,
  "ㅇㅜㄹㄹㅣ": 6223,
  "ㅇㅜㄹㄹㅣㄴㅡㄴ</w>": 6224,
  "ㅇㅜㄹㅁㅕ</w>": 6225,
  "ㅇㅜㄹㅁㅕㄴㅅㅓ</w>": 6226,
  "ㅇㅜㄹㅇㅓ": 6227,
  "ㅇㅜㄹㅇㅓㅅㅓㄴㅡㄴ</w>": 6228,
  "ㅇㅜㄹㅇㅓㅆ": 6229,
  "ㅇㅜㄹㅇㅓㅆㄷㅏ.</w>": 6230,
  "ㅇㅜㄹㅇㅓㅆㅅㅡㅂㄴㅣㄷㅏ.</w>": 6231,
  "ㅇㅜㄹㅇㅡㅁ</w>": 6232,
  "ㅇㅜㄹㅇㅡㅁㅇㅣ</w>": 6233,
  "ㅇㅜㄹㅈㅣ</w>": 6234,
  "ㅇㅜㄹㅈㅣㄴㅡㄴ</w>": 6235,
  "ㅇㅜㄹㅈㅣㄷㅡㄹ</w>": 6236,
  "ㅇㅜㄹㅌㅏ": 6237,
  "ㅇㅜㄹㅌㅏㄹㅣ": 6238,
  "ㅇㅜㄹㅌㅏㄹㅣ</w>": 6239,
  "ㅇㅜㄹㅌㅏㄹㅣㄹㅡㄹ</w>": 6240,
  "ㅇㅜㄹㅓ": 6241,
  "ㅇㅜㄹㅓㄹㅓ</w>": 6242,
  "ㅇㅜㄹㅡㄹ</w>": 6243,
  "ㅇㅜㄹㅣ": 6244,
  "ㅇㅜㄹㅣ</w>": 6245,
  "ㅇㅜㄹㅣㄱㅏ</w>": 6246,
  "ㅇㅜㄹㅣㄴㅡㄴ</w>": 6247,
  "ㅇㅜㄹㅣㄷㅡㄹㅇㅡㄴ</w>": 6248,
  "ㅇㅜㄹㅣㅇㅢ</w>": 6249,
  "ㅇㅜㅁ": 6250,
  "ㅇㅜㅁㄱㅘ</w>": 6251,
  "ㅇㅜㅁㅇㅡㄹ</w>": 6252,
  "ㅇㅜㅁㅈㅣㄱㅇㅣㄱㅣ</w>": 6253,
  "ㅇㅜㅁㅈㅣㅂㅇㅡㄹ</w>": 6254,
  "ㅇㅜㅁㅜㄹ</w>": 6255,
  "ㅇㅜㅁㅜㄹㅇㅔ</w>": 6256,
  "ㅇㅜㅅ": 6257,
  "ㅇㅜㅅ</w>": 6258,
  "ㅇㅜㅅㄱㅗ</w>": 6259,
  "ㅇㅜㅅㄴㅡㄴ</w>": 6260,
  "ㅇㅜㅅㄴㅡㄴㄷㅏ.</w>": 6261,
  "ㅇㅜㅅㅇㅓㅆㄷㅏ.</w>": 6262,
  "ㅇㅜㅅㅇㅓㅆㅅㅡㅂㄴㅣㄷㅏ.</w>": 6263,
  "ㅇㅜㅅㅇㅡ": 6264,
  "ㅇㅜㅅㅇㅡㅁ</w>": 6265,
  "ㅇㅜㅅㅇㅡㅁㅇㅡㄹ</w>": 6266,
  "ㅇㅜㅅㅇㅡㅁㅇㅣ</w>": 6267,
  "ㅇㅜㅅㅇㅡㅁㅕㄴㅅㅓ</w>": 6268,
  "ㅇㅜㅅㅇㅡㅅㅣㅁㅕㄴㅅㅓ</w>": 6269,
  "ㅇㅜㅅㅓㄴ</w>": 6270,
  "ㅇㅜㅅㅕㅆ": 6271,
  "ㅇㅜㅅㅡ": 6272,
  "ㅇㅜㅅㅣㄱ": 6273,
  "ㅇㅜㅅㅣㄱㅇㅣ</w>": 6274,
  "ㅇㅜㅅㅣㄴ</w>": 6275,
  "ㅇㅜㅇ": 6276,
  "ㅇㅜㅇㅋㅡㄹㅣㄱㅗ</w>": 6277,
  "ㅇㅜㅇㅠㄹㅡㄹ</w>": 6278,
  "ㅇㅜㅈㅜㅇㅇㅔ</w>": 6279,
  "ㅇㅝ": 6280,
  "ㅇㅝ</w>": 6281,
  "ㅇㅝㄴ": 6282,
  "ㅇㅝㄴ,</w>": 6283,
  "ㅇㅝㄴ</w>": 6284,
  "ㅇㅝㄴㅁㅏㅇ": 6285,
  "ㅇㅝㄴㅁㅏㅇㅅㅡㄹㅓ": 6286,
  "ㅇㅝㄴㅁㅏㅇㅅㅡㄹㅓㅇㅝㅆㅅㅡㅂㄴㅣㄷㅏ.</w>": 6287,
  "ㅇㅝㄴㅇㅡㄴ</w>": 6288,
  "ㅇㅝㄴㅇㅡㄹ</w>": 6289,
  "ㅇㅝㄴㅇㅣ</w>": 6290,
  "ㅇㅝㄴㅇㅣㄴ</w>": 6291,
  "ㅇㅝㄴㅊㅔ</w>": 6292,
  "ㅇㅝㄴㅌㅗㅇ": 6293,
  "ㅇㅝㄴㅏㄱ</w>": 6294,
  "ㅇㅝㄹ": 6295,
  "ㅇㅝㄹ</w>": 6296,
  "ㅇㅝㄹㅂㅗㅇ": 6297,
  "ㅇㅝㄹㅇㅛ": 6298,
  "ㅇㅝㄹㅇㅛㅇㅣㄹ</w>": 6299,
  "ㅇㅝㅅㅓ</w>": 6300,
  "ㅇㅝㅆ": 6301,
  "ㅇㅝㅆㄷㅏ.</w>": 6302,
  "ㅇㅝㅆㅅㅡㅂㄴㅣㄷㅏ.</w>": 6303,
  "ㅇㅝㅈㅣ": 6304,
  "ㅇㅝㅎㅏㄴㅡㄴ</w>": 6305,
  "ㅇㅞ": 6306,
  "ㅇㅞㄴ": 6307,
  "ㅇㅞㄴ</w>": 6308,
  "ㅇㅞㄴㅇㅣㄹ": 6309,
  "ㅇㅞㄴㅇㅣㄹㅇㅣ": 6310,
  "ㅇㅞㄴㅇㅣㄹㅇㅣㄴㅈㅣ</w>": 6311,
  "ㅇㅟ": 6312,
  "ㅇㅟ</w>": 6313,
  "ㅇㅟㄷㅗㄱ": 6314,
  "ㅇㅟㄹ": 6315,
  "ㅇㅟㄹㅗ": 6316,
  "ㅇㅟㄹㅗ</w>": 6317,
  "ㅇㅟㄹㅗㄹㅡㄹ</w>": 6318,
  "ㅇㅟㄹㅗㅎㅏㅇㅕ": 6319,
  "ㅇㅟㄹㅗㅎㅏㅇㅕ</w>": 6320,
  "ㅇㅟㄹㅡㄹ</w>": 6321,
  "ㅇㅟㅅ": 6322,
  "ㅇㅟㅇㅔ</w>": 6323,
  "ㅇㅟㅇㅔㄴㅡㄴ</w>": 6324,
  "ㅇㅟㅇㅔㄷㅏㄱㅏ</w>": 6325,
  "ㅇㅟㅇㅔㅅㅓ</w>": 6326,
  "ㅇㅟㅇㅔㅅㅓㄴㅡㄴ</w>": 6327,
  "ㅇㅟㅈㅜㅇ": 6328,
  "ㅇㅟㅌㅡㅇㅘ</w>": 6329,
  "ㅇㅟㅎㅏㄴ</w>": 6330,
  "ㅇㅟㅎㅏㅇㅕ": 6331,
  "ㅇㅟㅎㅏㅇㅕ</w>": 6332,
  "ㅇㅟㅎㅐ": 6333,
  "ㅇㅟㅎㅐㅅㅓ</w>": 6334,
  "ㅇㅟㅎㅓ": 6335,
  "ㅇㅟㅎㅓㅁㅎㅏㄴ</w>": 6336,
  "ㅇㅠ": 6337,
  "ㅇㅠㄱ": 6338,
  "ㅇㅠㄱㅅㅣㅂ</w>": 6339,
  "ㅇㅠㄱㅎㅏㄱㄴㅕㄴ</w>": 6340,
  "ㅇㅠㄴ</w>": 6341,
  "ㅇㅠㄴㅎㅖㅅㅜㄱㅇㅣ</w>": 6342,
  "ㅇㅠㄷㅏㄹㄹㅣ</w>": 6343,
  "ㅇㅠㄹㅣ": 6344,
  "ㅇㅠㅁㅕㅇㅎㅏㅇㅕ</w>": 6345,
  "ㅇㅠㅇㅝㄹㅇㅢ</w>": 6346,
  "ㅇㅠㅇㅣㄱㅇㅣ</w>": 6347,
  "ㅇㅠㅋㅙ": 6348,
  "ㅇㅠㅋㅙㅎㅏㄱㅔ</w>": 6349,
  "ㅇㅠㅋㅙㅎㅏㅇㅗ.</w>": 6350,
  "ㅇㅠㅋㅙㅎㅣ</w>": 6351,
  "ㅇㅡ": 6352,
  "ㅇㅡ</w>": 6353,
  "ㅇㅡㄱ": 6354,
  "ㅇㅡㄱㅎㅣ</w>": 6355,
  "ㅇㅡㄴ": 6356,
  "ㅇㅡㄴ,</w>": 6357,
  "ㅇㅡㄴ</w>": 6358,
  "ㅇㅡㄴㄷㅗㅇ": 6359,
  "ㅇㅡㄴㄷㅗㅇㅇㅣ</w>": 6360,
  "ㅇㅡㄴㄷㅗㅇㅇㅣㄱㅏ</w>": 6361,
  "ㅇㅡㄴㄷㅗㅇㅇㅣㄴㅡㄴ</w>": 6362,
  "ㅇㅡㄴㄷㅗㅇㅇㅣㄹㅡㄹ</w>": 6363,
  "ㅇㅡㄴㄷㅗㅇㅇㅣㅇㅘ</w>": 6364,
  "ㅇㅡㄴㄷㅗㅇㅇㅣㅇㅢ</w>": 6365,
  "ㅇㅡㄴㅁㅔㄷㅏㄹㅇㅡㄹ</w>": 6366,
  "ㅇㅡㄴㅋㅓㄴㅕㅇ</w>": 6367,
  "ㅇㅡㄴㅎㅖ": 6368,
  "ㅇㅡㄴㅎㅘ": 6369,
  "ㅇㅡㄴㅎㅘㄱㅏ</w>": 6370,
  "ㅇㅡㄴㅎㅘㄹㅡㄹ</w>": 6371,
  "ㅇㅡㄴㅎㅢ": 6372,
  "ㅇㅡㄴㅎㅢㄴㅡㄴ</w>": 6373,
  "ㅇㅡㄴㅎㅢㅇㅢ</w>": 6374,
  "ㅇㅡㄴㅏ,</w>": 6375,
  "ㅇㅡㄴㅏ</w>": 6376,
  "ㅇㅡㄴㅣ": 6377,
  "ㅇㅡㄴㅣ</w>": 6378,
  "ㅇㅡㄴㅣㄲㅏ": 6379,
  "ㅇㅡㄴㅣㄲㅏ</w>": 6380,
  "ㅇㅡㄴㅣㄲㅏㄴ</w>": 6381,
  "ㅇㅡㄷㅚ</w>": 6382,
  "ㅇㅡㄹ": 6383,
  "ㅇㅡㄹ!</w>": 6384,
  "ㅇㅡㄹ</w>": 6385,
  "ㅇㅡㄹㄲㅏ": 6386,
  "ㅇㅡㄹㄲㅏ.”</w>": 6387,
  "ㅇㅡㄹㄲㅏ</w>": 6388,
  "ㅇㅡㄹㄲㅏ?</w>": 6389,
  "ㅇㅡㄹㅏㄱㅗ</w>": 6390,
  "ㅇㅡㄹㅏㄴㅡㄴ</w>": 6391,
  "ㅇㅡㄹㅔ</w>": 6392,
  "ㅇㅡㄹㅕ</w>": 6393,
  "ㅇㅡㄹㅕㄱㅗ</w>": 6394,
  "ㅇㅡㄹㅗ": 6395,
  "ㅇㅡㄹㅗ,</w>": 6396,
  "ㅇㅡㄹㅗ</w>": 6397,
  "ㅇㅡㄹㅗㄴㅏ</w>": 6398,
  "ㅇㅡㄹㅗㄴㅡㄴ</w>": 6399,
  "ㅇㅡㄹㅗㄷㅗ</w>": 6400,
  "ㅇㅡㄹㅗㅁㅏㄴ</w>": 6401,
  "ㅇㅡㄹㅣ": 6402,
  "ㅇㅡㄹㅣㄹㅏ</w>": 6403,
  "ㅇㅡㄹㅣㄹㅏㄱㅗ</w>": 6404,
  "ㅇㅡㅁ": 6405,
  "ㅇㅡㅁ</w>": 6406,
  "ㅇㅡㅁㅅㅓㅇㅇㅡㄴ</w>": 6407,
  "ㅇㅡㅁㅅㅓㅇㅇㅡㄹㅗ,</w>": 6408,
  "ㅇㅡㅁㅅㅓㅇㅇㅡㄹㅗ</w>": 6409,
  "ㅇㅡㅁㅅㅓㅇㅇㅣ</w>": 6410,
  "ㅇㅡㅁㅅㅣㄱ": 6411,
  "ㅇㅡㅁㅅㅣㄱㄷㅗ</w>": 6412,
  "ㅇㅡㅁㅅㅣㄱㅇㅡㄹ</w>": 6413,
  "ㅇㅡㅁㅇㅔ</w>": 6414,
  "ㅇㅡㅁㅇㅔㄴㅡㄴ</w>": 6415,
  "ㅇㅡㅁㅇㅡㄴ</w>": 6416,
  "ㅇㅡㅁㅇㅡㄹ</w>": 6417,
  "ㅇㅡㅁㅇㅣ</w>": 6418,
  "ㅇㅡㅁㅇㅣㄷㅏ.</w>": 6419,
  "ㅇㅡㅁㅇㅣㄹㄲㅏ?</w>": 6420,
  "ㅇㅡㅁㅕ,</w>": 6421,
  "ㅇㅡㅁㅕ</w>": 6422,
  "ㅇㅡㅁㅕㄴ": 6423,
  "ㅇㅡㅁㅕㄴ</w>": 6424,
  "ㅇㅡㅁㅕㄴㅅㅓ,</w>": 6425,
  "ㅇㅡㅁㅕㄴㅅㅓ</w>": 6426,
  "ㅇㅡㅁㅕㄴㅅㅓㄷㅗ</w>": 6427,
  "ㅇㅡㅁㅡㄹㅗ": 6428,
  "ㅇㅡㅁㅡㄹㅗ</w>": 6429,
  "ㅇㅡㅅㅕㅅㅓ</w>": 6430,
  "ㅇㅡㅅㅕㅆㅅㅡㅂㄴㅣㄷㅏ.</w>": 6431,
  "ㅇㅡㅅㅣ": 6432,
  "ㅇㅡㅅㅣㄱㅗ</w>": 6433,
  "ㅇㅡㅅㅣㄴ</w>": 6434,
  "ㅇㅡㅅㅣㄴㅡㄴ</w>": 6435,
  "ㅇㅡㅅㅣㅁㅕㄴㅅㅓ</w>": 6436,
  "ㅇㅡㅇ": 6437,
  "ㅇㅡㅇ!</w>": 6438,
  "ㅇㅡㅇ!”</w>": 6439,
  "ㅇㅡㅇ,</w>": 6440,
  "ㅇㅡㅇ.”</w>": 6441,
  "ㅇㅡㅇㅇㅏ</w>": 6442,
  "ㅇㅡㅇㅇㅝㄴ</w>": 6443,
  "ㅇㅡㅇㅈㅓㅂ": 6444,
  "ㅇㅢ": 6445,
  "ㅇㅢ</w>": 6446,
  "ㅇㅢㄴㅗㄴ": 6447,
  "ㅇㅢㄴㅗㄴㅇㅡㄹ</w>": 6448,
  "ㅇㅢㄴㅗㄴㅇㅣㄹㅏㄷㅗ</w>": 6449,
  "ㅇㅢㅁㅜㄴ": 6450,
  "ㅇㅢㅁㅣㄱㅏ</w>": 6451,
  "ㅇㅢㅅㅏ": 6452,
  "ㅇㅢㅅㅏㄱㅏ</w>": 6453,
  "ㅇㅢㅅㅏㄴㅡㄴ</w>": 6454,
  "ㅇㅢㅅㅏㄷㅗ</w>": 6455,
  "ㅇㅢㅅㅏㄹㅡㄹ</w>": 6456,
  "ㅇㅢㅅㅏㅇㅢ</w>": 6457,
  "ㅇㅢㅅㅏㅇㅣㄴ</w>": 6458,
  "ㅇㅢㅅㅣㄱ": 6459,
  "ㅇㅢㅅㅣㄱㅇㅡㄹ</w>": 6460,
  "ㅇㅢㅅㅣㅁ": 6461,
  "ㅇㅢㅅㅣㅁㅇㅡㄹ</w>": 6462,
  "ㅇㅢㅇㅏ": 6463,
  "ㅇㅢㅇㅝㄴㅇㅡㄹ</w>": 6464,
  "ㅇㅢㅈㅣ": 6465,
  "ㅇㅢㅈㅣㅎㅏㄱㅗ</w>": 6466,
  "ㅇㅣ": 6467,
  "ㅇㅣ!</w>": 6468,
  "ㅇㅣ!”</w>": 6469,
  "ㅇㅣ,</w>": 6470,
  "ㅇㅣ---": 6471,
  "ㅇㅣ.”</w>": 6472,
  "ㅇㅣ</w>": 6473,
  "ㅇㅣㄱ": 6474,
  "ㅇㅣㄱ</w>": 6475,
  "ㅇㅣㄱㅇㅓㄱㅏㄴㅡㄴ</w>": 6476,
  "ㅇㅣㄱㅇㅓㅆㅅㅡㅂㄴㅣㄷㅏ.</w>": 6477,
  "ㅇㅣㄱㅇㅡㄹ</w>": 6478,
  "ㅇㅣㄱㅏ</w>": 6479,
  "ㅇㅣㄱㅏㅌㅇㅣ</w>": 6480,
  "ㅇㅣㄱㅓ</w>": 6481,
  "ㅇㅣㄱㅓㄴ</w>": 6482,
  "ㅇㅣㄱㅓㄴㅁㅏㄴ</w>": 6483,
  "ㅇㅣㄱㅓㄹ</w>": 6484,
  "ㅇㅣㄱㅓㄹㄹㅗ</w>": 6485,
  "ㅇㅣㄱㅓㅅ": 6486,
  "ㅇㅣㄱㅓㅅ</w>": 6487,
  "ㅇㅣㄱㅓㅅㅇㅡㄴ</w>": 6488,
  "ㅇㅣㄱㅓㅅㅇㅡㄹ</w>": 6489,
  "ㅇㅣㄱㅓㅅㅇㅣ</w>": 6490,
  "ㅇㅣㄱㅔ</w>": 6491,
  "ㅇㅣㄱㅗ,</w>": 6492,
  "ㅇㅣㄱㅗ</w>": 6493,
  "ㅇㅣㄱㅗㅅ": 6494,
  "ㅇㅣㄱㅗㅅㅇㅔ</w>": 6495,
  "ㅇㅣㄱㅗㅅㅇㅔㅅㅓ</w>": 6496,
  "ㅇㅣㄱㅗㅅㅇㅡㄴ</w>": 6497,
  "ㅇㅣㄱㅗㅅㅇㅡㄹ</w>": 6498,
  "ㅇㅣㄱㅣ": 6499,
  "ㅇㅣㄱㅣ</w>": 6500,
  "ㅇㅣㄱㅣㄱㅓㄴㅏ</w>": 6501,
  "ㅇㅣㄱㅣㄹ</w>": 6502,
  "ㅇㅣㄴ": 6503,
  "ㅇㅣㄴ</w>": 6504,
  "ㅇㅣㄴㄱㅏ": 6505,
  "ㅇㅣㄴㄱㅏ.”</w>": 6506,
  "ㅇㅣㄴㄱㅏ</w>": 6507,
  "ㅇㅣㄴㄱㅏㄴ</w>": 6508,
  "ㅇㅣㄴㄷㅏ.</w>": 6509,
  "ㅇㅣㄴㄷㅔ</w>": 6510,
  "ㅇㅣㄴㄷㅔㄷㅏㄱㅏ</w>": 6511,
  "ㅇㅣㄴㄹㅕㄱㄱㅓ": 6512,
  "ㅇㅣㄴㄹㅕㄱㄱㅓ</w>": 6513,
  "ㅇㅣㄴㄹㅕㄱㄱㅓㄲㅜㄴ</w>": 6514,
  "ㅇㅣㄴㄹㅕㄱㄱㅓㄹㅡㄹ</w>": 6515,
  "ㅇㅣㄴㅅㅏ": 6516,
  "ㅇㅣㄴㅅㅏㄹㅡㄹ</w>": 6517,
  "ㅇㅣㄴㅅㅐㄱㅎㅏㄴ</w>": 6518,
  "ㅇㅣㄴㅅㅐㅇ": 6519,
  "ㅇㅣㄴㅅㅐㅇㅇㅢ</w>": 6520,
  "ㅇㅣㄴㅅㅙ": 6521,
  "ㅇㅣㄴㅅㅙㅅㅗ</w>": 6522,
  "ㅇㅣㄴㅈㅏ": 6523,
  "ㅇㅣㄴㅈㅓㅇ": 6524,
  "ㅇㅣㄴㅈㅓㅇㅇㅣ</w>": 6525,
  "ㅇㅣㄴㅈㅔ</w>": 6526,
  "ㅇㅣㄴㅈㅔㄴ</w>": 6527,
  "ㅇㅣㄴㅈㅔㄴㅡㄴ</w>": 6528,
  "ㅇㅣㄴㅈㅣ</w>": 6529,
  "ㅇㅣㄴㅏ": 6530,
  "ㅇㅣㄴㅏ</w>": 6531,
  "ㅇㅣㄴㅏㄹ</w>": 6532,
  "ㅇㅣㄴㅏㄹㅇㅡㄴ</w>": 6533,
  "ㅇㅣㄴㅏㅁㅏ</w>": 6534,
  "ㅇㅣㄴㅑ": 6535,
  "ㅇㅣㄴㅑ.</w>": 6536,
  "ㅇㅣㄴㅑ?</w>": 6537,
  "ㅇㅣㄴㅑ?”</w>": 6538,
  "ㅇㅣㄴㅕㄴ": 6539,
  "ㅇㅣㄴㅗ": 6540,
  "ㅇㅣㄴㅗㅁ": 6541,
  "ㅇㅣㄴㅗㅁㅇㅢ</w>": 6542,
  "ㅇㅣㄴㅡㄴ</w>": 6543,
  "ㅇㅣㄴㅣ</w>": 6544,
  "ㅇㅣㄴㅣㄲㅏ": 6545,
  "ㅇㅣㄴㅣㄲㅏ</w>": 6546,
  "ㅇㅣㄷㅏ.</w>": 6547,
  "ㅇㅣㄷㅏ.”</w>": 6548,
  "ㅇㅣㄷㅗ</w>": 6549,
  "ㅇㅣㄷㅡㄹㅇㅡㄴ</w>": 6550,
  "ㅇㅣㄸㅏ": 6551,
  "ㅇㅣㄸㅏㄱㅡㅁ</w>": 6552,
  "ㅇㅣㄸㅐ</w>": 6553,
  "ㅇㅣㄸㅐㅇㅔ</w>": 6554,
  "ㅇㅣㄹ": 6555,
  "ㅇㅣㄹ,</w>": 6556,
  "ㅇㅣㄹ</w>": 6557,
  "ㅇㅣㄹㄱㅏ</w>": 6558,
  "ㅇㅣㄹㄱㅏㅌㅇㅣ</w>": 6559,
  "ㅇㅣㄹㄱㅗ": 6560,
  "ㅇㅣㄹㄱㅗㅂ": 6561,
  "ㅇㅣㄹㄱㅘ</w>": 6562,
  "ㅇㅣㄹㄱㅣ'": 6563,
  "ㅇㅣㄹㄲㅏ?</w>": 6564,
  "ㅇㅣㄹㄲㅏㄹㅡㄹ</w>": 6565,
  "ㅇㅣㄹㄷㅗ</w>": 6566,
  "ㅇㅣㄹㄹㅓ": 6567,
  "ㅇㅣㄹㄹㅗ</w>": 6568,
  "ㅇㅣㄹㅁㅏㄴ</w>": 6569,
  "ㅇㅣㄹㅁㅏㅇㅈㅓㅇ</w>": 6570,
  "ㅇㅣㄹㅂㅗㄴ": 6571,
  "ㅇㅣㄹㅂㅜㄹㅓ</w>": 6572,
  "ㅇㅣㄹㅅㅏㅇ</w>": 6573,
  "ㅇㅣㄹㅅㅔ.”</w>": 6574,
  "ㅇㅣㄹㅅㅣ</w>": 6575,
  "ㅇㅣㄹㅇㅓ": 6576,
  "ㅇㅣㄹㅇㅓ</w>": 6577,
  "ㅇㅣㄹㅇㅓㄴㅏ": 6578,
  "ㅇㅣㄹㅇㅓㄴㅏ</w>": 6579,
  "ㅇㅣㄹㅇㅓㄴㅏㄴㅡㄴ</w>": 6580,
  "ㅇㅣㄹㅇㅓㄴㅏㅅㅓ</w>": 6581,
  "ㅇㅣㄹㅇㅓㄴㅏㅆㅅㅡㅂㄴㅣㄷㅏ.</w>": 6582,
  "ㅇㅣㄹㅇㅓㅅㅓ": 6583,
  "ㅇㅣㄹㅇㅓㅅㅓㅅㅓ</w>": 6584,
  "ㅇㅣㄹㅇㅔ</w>": 6585,
  "ㅇㅣㄹㅇㅔㄷㅗ</w>": 6586,
  "ㅇㅣㄹㅇㅛ": 6587,
  "ㅇㅣㄹㅇㅛㅇㅣㄹㅇㅣㄷㅏ.</w>": 6588,
  "ㅇㅣㄹㅇㅡㄴ</w>": 6589,
  "ㅇㅣㄹㅇㅡㄹ</w>": 6590,
  "ㅇㅣㄹㅇㅡㅋㅕ": 6591,
  "ㅇㅣㄹㅇㅣ": 6592,
  "ㅇㅣㄹㅇㅣ</w>": 6593,
  "ㅇㅣㄹㅇㅣㄴ</w>": 6594,
  "ㅇㅣㄹㅇㅣㄴㅈㅣ</w>": 6595,
  "ㅇㅣㄹㅇㅣㄷㅏ.</w>": 6596,
  "ㅇㅣㄹㅇㅣㄷㅏ</w>": 6597,
  "ㅇㅣㄹㅇㅣㄷㅡㄴㅈㅣ</w>": 6598,
  "ㅇㅣㄹㅇㅣㄹ": 6599,
  "ㅇㅣㄹㅇㅣㄹ</w>": 6600,
  "ㅇㅣㄹㅇㅣㄹㅏ</w>": 6601,
  "ㅇㅣㄹㅇㅣㄹㅏㄱㅗ</w>": 6602,
  "ㅇㅣㄹㅇㅣㄹㅏㄷㅗ</w>": 6603,
  "ㅇㅣㄹㅇㅣㅁㅕㄴ</w>": 6604,
  "ㅇㅣㄹㅇㅣㅂㄴㅣㄷㅏ.</w>": 6605,
  "ㅇㅣㄹㅈㅔㅎㅣ</w>": 6606,
  "ㅇㅣㄹㅈㅗㅇㅇㅢ</w>": 6607,
  "ㅇㅣㄹㅈㅜ": 6608,
  "ㅇㅣㄹㅈㅜㅇㅣㄹㅇㅣ</w>": 6609,
  "ㅇㅣㄹㅈㅣㄱㅇㅣ</w>": 6610,
  "ㅇㅣㄹㅉㅣ": 6611,
  "ㅇㅣㄹㅉㅣㄱ</w>": 6612,
  "ㅇㅣㄹㅉㅣㄱㅇㅣ</w>": 6613,
  "ㅇㅣㄹㅌㅓㄹㅗ</w>": 6614,
  "ㅇㅣㄹㅎㅏㄴㅡㄴ</w>": 6615,
  "ㅇㅣㄹㅎㅏㄷㅓㄴ</w>": 6616,
  "ㅇㅣㄹㅎㅏㅇㅕ</w>": 6617,
  "ㅇㅣㄹㅏ": 6618,
  "ㅇㅣㄹㅏ</w>": 6619,
  "ㅇㅣㄹㅏㄱㅗ</w>": 6620,
  "ㅇㅣㄹㅏㄱㅗㄴㅡㄴ</w>": 6621,
  "ㅇㅣㄹㅏㄴ</w>": 6622,
  "ㅇㅣㄹㅏㄴㄷㅏ.</w>": 6623,
  "ㅇㅣㄹㅏㄴㄷㅏ.”</w>": 6624,
  "ㅇㅣㄹㅏㄴㅡㄴ</w>": 6625,
  "ㅇㅣㄹㅏㄴㅣ</w>": 6626,
  "ㅇㅣㄹㅏㄷㅗ</w>": 6627,
  "ㅇㅣㄹㅏㄷㅡㄴㄱㅏ</w>": 6628,
  "ㅇㅣㄹㅏㄷㅡㄴㅈㅣ</w>": 6629,
  "ㅇㅣㄹㅏㅁㅕㄴ</w>": 6630,
  "ㅇㅣㄹㅏㅇ</w>": 6631,
  "ㅇㅣㄹㅐ": 6632,
  "ㅇㅣㄹㅓ": 6633,
  "ㅇㅣㄹㅓㄴ</w>": 6634,
  "ㅇㅣㄹㅓㄹ</w>": 6635,
  "ㅇㅣㄹㅓㅎ": 6636,
  "ㅇㅣㄹㅓㅎㄱㅔ</w>": 6637,
  "ㅇㅣㄹㅓㅎㄱㅔㄲㅏㅈㅣ</w>": 6638,
  "ㅇㅣㄹㅓㅎㄱㅔㄷㅗ</w>": 6639,
  "ㅇㅣㄹㅓㅎㄱㅔㄷㅡㄹ</w>": 6640,
  "ㅇㅣㄹㅓㅎㅏㄴ</w>": 6641,
  "ㅇㅣㄹㅔㄴㅇㅣ</w>": 6642,
  "ㅇㅣㄹㅕㄱㅗ</w>": 6643,
  "ㅇㅣㄹㅗ</w>": 6644,
  "ㅇㅣㄹㅗㄱㅜ": 6645,
  "ㅇㅣㄹㅜ": 6646,
  "ㅇㅣㄹㅜ</w>": 6647,
  "ㅇㅣㄹㅡ": 6648,
  "ㅇㅣㄹㅡㄴ</w>": 6649,
  "ㅇㅣㄹㅡㄴㅡㄴ</w>": 6650,
  "ㅇㅣㄹㅡㄹ</w>": 6651,
  "ㅇㅣㄹㅡㄹㅓ": 6652,
  "ㅇㅣㄹㅡㄹㅓㅆㅅㅡㅂㄴㅣㄷㅏ.</w>": 6653,
  "ㅇㅣㄹㅡㄹㅓㅆㅇㅡㄹ</w>": 6654,
  "ㅇㅣㄹㅡㅁ": 6655,
  "ㅇㅣㄹㅡㅁㄴㅏㄴ</w>": 6656,
  "ㅇㅣㄹㅡㅁㅇㅡㄴ</w>": 6657,
  "ㅇㅣㄹㅡㅁㅇㅡㄹ</w>": 6658,
  "ㅇㅣㄹㅡㅁㅇㅣ</w>": 6659,
  "ㅇㅣㄹㅡㅋㅜㅊㅡ": 6660,
  "ㅇㅣㄹㅡㅋㅜㅊㅡㅋㅡ": 6661,
  "ㅇㅣㄹㅡㅋㅜㅊㅡㅋㅡㄹ": 6662,
  "ㅇㅣㄹㅣ": 6663,
  "ㅇㅣㄹㅣ</w>": 6664,
  "ㅇㅣㄹㅣㄹㅏ.</w>": 6665,
  "ㅇㅣㄹㅣㄹㅗ</w>": 6666,
  "ㅇㅣㄺ": 6667,
  "ㅇㅣㄺㄱㅗ</w>": 6668,
  "ㅇㅣㄺㅇㅓㅆㄷㅏ.</w>": 6669,
  "ㅇㅣㄺㅇㅡㄴ</w>": 6670,
  "ㅇㅣㄺㅇㅡㄹ</w>": 6671,
  "ㅇㅣㅀ": 6672,
  "ㅇㅣㅀㄱㅗ</w>": 6673,
  "ㅇㅣㅀㅇㅓ": 6674,
  "ㅇㅣㅀㅇㅓㅂㅓㄹㅣㄱㅗ</w>": 6675,
  "ㅇㅣㅀㅇㅓㅂㅓㄹㅣㄴ</w>": 6676,
  "ㅇㅣㅁ": 6677,
  "ㅇㅣㅁ</w>": 6678,
  "ㅇㅣㅁㄱㅡㅁ": 6679,
  "ㅇㅣㅁㄱㅡㅁ</w>": 6680,
  "ㅇㅣㅁㄱㅡㅁㅇㅢ</w>": 6681,
  "ㅇㅣㅁㄱㅡㅁㅇㅣ</w>": 6682,
  "ㅇㅣㅁㅏ": 6683,
  "ㅇㅣㅁㅏㄴ</w>": 6684,
  "ㅇㅣㅁㅏㄴㅇㅡㄴ</w>": 6685,
  "ㅇㅣㅁㅏㅁ": 6686,
  "ㅇㅣㅁㅏㅁㄸㅐ</w>": 6687,
  "ㅇㅣㅁㅕ</w>": 6688,
  "ㅇㅣㅁㅕㄴ</w>": 6689,
  "ㅇㅣㅁㅕㄴㅅㅓ</w>": 6690,
  "ㅇㅣㅁㅡㄹㅗ</w>": 6691,
  "ㅇㅣㅁㅣ</w>": 6692,
  "ㅇㅣㅂ": 6693,
  "ㅇㅣㅂ</w>": 6694,
  "ㅇㅣㅂㄱㅗ</w>": 6695,
  "ㅇㅣㅂㄴㅣ": 6696,
  "ㅇㅣㅂㄴㅣㄷㅏ.</w>": 6697,
  "ㅇㅣㅂㄴㅣㄷㅏ.”</w>": 6698,
  "ㅇㅣㅂㅅㅓㄴ": 6699,
  "ㅇㅣㅂㅅㅗㄱㅇㅡㄹㅗ</w>": 6700,
  "ㅇㅣㅂㅅㅜㄹㅇㅡㄹ</w>": 6701,
  "ㅇㅣㅂㅇㅓ</w>": 6702,
  "ㅇㅣㅂㅇㅔ</w>": 6703,
  "ㅇㅣㅂㅇㅔㄷㅏ</w>": 6704,
  "ㅇㅣㅂㅇㅔㅅㅓ</w>": 6705,
  "ㅇㅣㅂㅇㅝㄴ": 6706,
  "ㅇㅣㅂㅇㅡㄴ</w>": 6707,
  "ㅇㅣㅂㅇㅡㄹ</w>": 6708,
  "ㅇㅣㅂㅇㅡㄹㅗ</w>": 6709,
  "ㅇㅣㅂㅇㅣ</w>": 6710,
  "ㅇㅣㅂㅎㅏㄱ": 6711,
  "ㅇㅣㅂㅎㅏㄱ</w>": 6712,
  "ㅇㅣㅂㅎㅏㄱㅅㅣㅎㅓㅁㅇㅡㄹ</w>": 6713,
  "ㅇㅣㅂㅎㅣ": 6714,
  "ㅇㅣㅂㅐ": 6715,
  "ㅇㅣㅂㅓㄴ": 6716,
  "ㅇㅣㅂㅓㄴ</w>": 6717,
  "ㅇㅣㅂㅓㄴㅇㅔㄴㅡㄴ</w>": 6718,
  "ㅇㅣㅂㅕ": 6719,
  "ㅇㅣㅂㅕㄹ": 6720,
  "ㅇㅣㅂㅕㄹ</w>": 6721,
  "ㅇㅣㅂㅗㄷㅏ</w>": 6722,
  "ㅇㅣㅂㅜㄹ": 6723,
  "ㅇㅣㅂㅜㄹ</w>": 6724,
  "ㅇㅣㅂㅜㄹㅇㅡㄹ</w>": 6725,
  "ㅇㅣㅂㅜㅈㅏ": 6726,
  "ㅇㅣㅂㅜㅈㅏㄹㅣㄹㅡㄹ</w>": 6727,
  "ㅇㅣㅅㅏ": 6728,
  "ㅇㅣㅅㅏ</w>": 6729,
  "ㅇㅣㅅㅏㄱ</w>": 6730,
  "ㅇㅣㅅㅏㅇ": 6731,
  "ㅇㅣㅅㅏㅇ</w>": 6732,
  "ㅇㅣㅅㅏㅇㅅㅡㄹㅓㅂㄱㅔㄷㅗ</w>": 6733,
  "ㅇㅣㅅㅏㅇㅅㅡㄹㅓㅇㅜㄴ</w>": 6734,
  "ㅇㅣㅅㅏㅇㅇㅡㄹㅗ</w>": 6735,
  "ㅇㅣㅅㅏㅇㅎㅏㄱㅔㄷㅗ</w>": 6736,
  "ㅇㅣㅅㅏㅇㅎㅏㄴ</w>": 6737,
  "ㅇㅣㅅㅔㅁㅣㄴㅇㅡㄴ</w>": 6738,
  "ㅇㅣㅅㅔㅁㅣㄴㅇㅣ</w>": 6739,
  "ㅇㅣㅅㅡ": 6740,
  "ㅇㅣㅅㅡㄹ</w>": 6741,
  "ㅇㅣㅅㅣㄴㅈㅣ</w>": 6742,
  "ㅇㅣㅆ": 6743,
  "ㅇㅣㅆ</w>": 6744,
  "ㅇㅣㅆㄱㅓㄷㅡㄴ</w>": 6745,
  "ㅇㅣㅆㄱㅓㄹㅏ.</w>": 6746,
  "ㅇㅣㅆㄱㅔ</w>": 6747,
  "ㅇㅣㅆㄱㅔㅆ": 6748,
  "ㅇㅣㅆㄱㅔㅆㅅㅜ.”</w>": 6749,
  "ㅇㅣㅆㄱㅔㅆㅅㅡㅂㄴㅣㄲㅏ?</w>": 6750,
  "ㅇㅣㅆㄱㅗ</w>": 6751,
  "ㅇㅣㅆㄴㅏ.</w>": 6752,
  "ㅇㅣㅆㄴㅏ</w>": 6753,
  "ㅇㅣㅆㄴㅏ?</w>": 6754,
  "ㅇㅣㅆㄴㅡㄴ": 6755,
  "ㅇㅣㅆㄴㅡㄴ</w>": 6756,
  "ㅇㅣㅆㄴㅡㄴㄷㅔ</w>": 6757,
  "ㅇㅣㅆㄴㅡㄴㅑ": 6758,
  "ㅇㅣㅆㄴㅣ?</w>": 6759,
  "ㅇㅣㅆㄴㅣ?”</w>": 6760,
  "ㅇㅣㅆㄷㅏ.</w>": 6761,
  "ㅇㅣㅆㄷㅏ.”</w>": 6762,
  "ㅇㅣㅆㄷㅏ</w>": 6763,
  "ㅇㅣㅆㄷㅏㄱㅏ</w>": 6764,
  "ㅇㅣㅆㄷㅏㄴㅡㄴ</w>": 6765,
  "ㅇㅣㅆㄷㅓㄴ</w>": 6766,
  "ㅇㅣㅆㄷㅓㄴㅣ</w>": 6767,
  "ㅇㅣㅆㄷㅓㄹㅏㄷㅗ</w>": 6768,
  "ㅇㅣㅆㅅㅡㅂㄴㅣㄷㅏ.</w>": 6769,
  "ㅇㅣㅆㅅㅡㅂㄴㅣㄷㅏ.”</w>": 6770,
  "ㅇㅣㅆㅇㅓ": 6771,
  "ㅇㅣㅆㅇㅓ.</w>": 6772,
  "ㅇㅣㅆㅇㅓㄷㅗ</w>": 6773,
  "ㅇㅣㅆㅇㅓㅅㅓ</w>": 6774,
  "ㅇㅣㅆㅇㅓㅅㅓㄴㅡㄴ</w>": 6775,
  "ㅇㅣㅆㅇㅓㅆ": 6776,
  "ㅇㅣㅆㅇㅓㅆ</w>": 6777,
  "ㅇㅣㅆㅇㅓㅆㄴㅡㄴㄷㅔ</w>": 6778,
  "ㅇㅣㅆㅇㅓㅆㄷㅏ.</w>": 6779,
  "ㅇㅣㅆㅇㅓㅆㄷㅏㄴㅡㄴ</w>": 6780,
  "ㅇㅣㅆㅇㅓㅆㄷㅓㄴ</w>": 6781,
  "ㅇㅣㅆㅇㅓㅆㄷㅓㄴㄱㅏ": 6782,
  "ㅇㅣㅆㅇㅓㅆㅅㅡㅂㄴㅣㄷㅏ.</w>": 6783,
  "ㅇㅣㅆㅇㅓㅆㅇㅡㅁㅡㄹㅗ</w>": 6784,
  "ㅇㅣㅆㅇㅓㅇㅑ</w>": 6785,
  "ㅇㅣㅆㅇㅓㅇㅛ.</w>": 6786,
  "ㅇㅣㅆㅇㅡ": 6787,
  "ㅇㅣㅆㅇㅡㄴㅣ</w>": 6788,
  "ㅇㅣㅆㅇㅡㄴㅣㄲㅏ": 6789,
  "ㅇㅣㅆㅇㅡㄹ": 6790,
  "ㅇㅣㅆㅇㅡㄹ</w>": 6791,
  "ㅇㅣㅆㅇㅡㄹㄲㅏ</w>": 6792,
  "ㅇㅣㅆㅇㅡㄹㅕ": 6793,
  "ㅇㅣㅆㅇㅡㄹㅣ": 6794,
  "ㅇㅣㅆㅇㅡㅁㅕㄴ</w>": 6795,
  "ㅇㅣㅆㅇㅡㅁㅡㄹㅗ</w>": 6796,
  "ㅇㅣㅆㅈㅣ</w>": 6797,
  "ㅇㅣㅆㅈㅣㄴㅏ</w>": 6798,
  "ㅇㅣㅇ": 6799,
  "ㅇㅣㅇㅑ": 6800,
  "ㅇㅣㅇㅑ.</w>": 6801,
  "ㅇㅣㅇㅑ.”</w>": 6802,
  "ㅇㅣㅇㅑ</w>": 6803,
  "ㅇㅣㅇㅑㄱㅣ": 6804,
  "ㅇㅣㅇㅑㄱㅣ</w>": 6805,
  "ㅇㅣㅇㅑㄱㅣㄱㅏ</w>": 6806,
  "ㅇㅣㅇㅑㄱㅣㄴㅡㄴ</w>": 6807,
  "ㅇㅣㅇㅑㄱㅣㄷㅗ</w>": 6808,
  "ㅇㅣㅇㅑㄱㅣㄹㅡㄹ</w>": 6809,
  "ㅇㅣㅇㅑㄱㅣㅎㅏㄴㅡㄴ</w>": 6810,
  "ㅇㅣㅇㅑㄱㅣㅎㅏㄷㅓㄴ</w>": 6811,
  "ㅇㅣㅇㅑㄱㅣㅎㅏㄹ</w>": 6812,
  "ㅇㅣㅇㅑㄱㅣㅎㅏㅇㅕㅆㅅㅡㅂㄴㅣㄷㅏ.</w>": 6813,
  "ㅇㅣㅇㅑㄱㅣㅎㅐ": 6814,
  "ㅇㅣㅇㅑㅁㅏㄹㄹㅗ</w>": 6815,
  "ㅇㅣㅇㅓ": 6816,
  "ㅇㅣㅇㅓ</w>": 6817,
  "ㅇㅣㅇㅓㅆ": 6818,
  "ㅇㅣㅇㅓㅆ</w>": 6819,
  "ㅇㅣㅇㅓㅆㄷㅏ.</w>": 6820,
  "ㅇㅣㅇㅓㅆㄷㅓㄴ</w>": 6821,
  "ㅇㅣㅇㅓㅆㅅㅡㅂㄴㅣㄷㅏ.</w>": 6822,
  "ㅇㅣㅇㅔ</w>": 6823,
  "ㅇㅣㅇㅔㄱㅔ</w>": 6824,
  "ㅇㅣㅇㅔㅇㅛ.”</w>": 6825,
  "ㅇㅣㅇㅗ": 6826,
  "ㅇㅣㅇㅗ.</w>": 6827,
  "ㅇㅣㅇㅘ</w>": 6828,
  "ㅇㅣㅇㅛ,</w>": 6829,
  "ㅇㅣㅇㅜㅅ": 6830,
  "ㅇㅣㅇㅜㅅ</w>": 6831,
  "ㅇㅣㅇㅜㅅㅇㅔ</w>": 6832,
  "ㅇㅣㅇㅠ": 6833,
  "ㅇㅣㅇㅠㄱㅏ</w>": 6834,
  "ㅇㅣㅇㅠㄹㅡㄹ</w>": 6835,
  "ㅇㅣㅇㅢ</w>": 6836,
  "ㅇㅣㅈ": 6837,
  "ㅇㅣㅈㅇㅓ": 6838,
  "ㅇㅣㅈㅇㅓㅂㅓㄹㅣ": 6839,
  "ㅇㅣㅈㅇㅓㅂㅓㄹㅣㄱㅗ</w>": 6840,
  "ㅇㅣㅈㅇㅓㅂㅓㄹㅣㅈㅣ</w>": 6841,
  "ㅇㅣㅈㅇㅡㄹ</w>": 6842,
  "ㅇㅣㅈㅇㅡㄹㅕㄴㅡㄴ</w>": 6843,
  "ㅇㅣㅈㅈㅣ</w>": 6844,
  "ㅇㅣㅈㅓㄴ": 6845,
  "ㅇㅣㅈㅔ": 6846,
  "ㅇㅣㅈㅔ</w>": 6847,
  "ㅇㅣㅈㅔㄴㅡㄴ</w>": 6848,
  "ㅇㅣㅈㅔㄷㅗ</w>": 6849,
  "ㅇㅣㅈㅔㅇㅑ</w>": 6850,
  "ㅇㅣㅈㅣ</w>": 6851,
  "ㅇㅣㅈㅣ?”</w>": 6852,
  "ㅇㅣㅈㅣㄹㅇㅡㄹ</w>": 6853,
  "ㅇㅣㅈㅣㅁㅏㄴ</w>": 6854,
  "ㅇㅣㅉㅗㄱ</w>": 6855,
  "ㅇㅣㅉㅗㄱㅇㅡㄹ</w>": 6856,
  "ㅇㅣㅌㅡ": 6857,
  "ㅇㅣㅌㅡㄷ": 6858,
  "ㅇㅣㅌㅡㄷㄴㅏㄹ": 6859,
  "ㅇㅣㅌㅡㄷㄴㅏㄹ</w>": 6860,
  "ㅇㅣㅌㅡㄷㄴㅏㄹㄷㅗ</w>": 6861,
  "ㅇㅣㅌㅡㄷㄴㅏㄹㅂㅜㅌㅓ</w>": 6862,
  "ㅇㅣㅌㅡㄹ</w>": 6863,
  "ㅇㅣㅍ": 6864,
  "ㅇㅣㅍ</w>": 6865,
  "ㅇㅣㅎㅏㄱㅗ</w>": 6866,
  "ㅇㅣㅎㅏㄴ</w>": 6867,
  "ㅇㅣㅎㅏㄴㅌㅔ</w>": 6868,
  "ㅈ": 6869,
  "ㅈㅏ": 6870,
  "ㅈㅏ!</w>": 6871,
  "ㅈㅏ,</w>": 6872,
  "ㅈㅏ.</w>": 6873,
  "ㅈㅏ.”</w>": 6874,
  "ㅈㅏ</w>": 6875,
  "ㅈㅏㄱ": 6876,
  "ㅈㅏㄱ</w>": 6877,
  "ㅈㅏㄱㄴㅕㄴ": 6878,
  "ㅈㅏㄱㄴㅕㄴ</w>": 6879,
  "ㅈㅏㄱㄴㅕㄴㅇㅔ</w>": 6880,
  "ㅈㅏㄱㅇㅡㄴ": 6881,
  "ㅈㅏㄱㅇㅡㄴ</w>": 6882,
  "ㅈㅏㄱㅇㅡㄹ</w>": 6883,
  "ㅈㅏㄱㅈㅏㄱㅏ</w>": 6884,
  "ㅈㅏㄱㅈㅓㅇ": 6885,
  "ㅈㅏㄱㅏ</w>": 6886,
  "ㅈㅏㄱㅗ</w>": 6887,
  "ㅈㅏㄱㅣ": 6888,
  "ㅈㅏㄱㅣ</w>": 6889,
  "ㅈㅏㄱㅣㄱㅏ</w>": 6890,
  "ㅈㅏㄱㅣㄴㅡㄴ</w>": 6891,
  "ㅈㅏㄱㅣㄷㅗ</w>": 6892,
  "ㅈㅏㄱㅣㄹㅡㄹ</w>": 6893,
  "ㅈㅏㄱㅣㅇㅘ</w>": 6894,
  "ㅈㅏㄱㅣㅇㅢ</w>": 6895,
  "ㅈㅏㄲㅜ": 6896,
  "ㅈㅏㄲㅜ</w>": 6897,
  "ㅈㅏㄲㅜㄴㅏ.</w>": 6898,
  "ㅈㅏㄲㅜㅁㅏㄴ</w>": 6899,
  "ㅈㅏㄲㅜㅈㅏㄲㅜ</w>": 6900,
  "ㅈㅏㄴ": 6901,
  "ㅈㅏㄴ</w>": 6902,
  "ㅈㅏㄴㄷㅏ.</w>": 6903,
  "ㅈㅏㄴㄷㅡㅇ": 6904,
  "ㅈㅏㄴㄷㅡㅇㅇㅣㄹㅡㄹ</w>": 6905,
  "ㅈㅏㄴㄷㅣㅍㅜㄹㅇㅣ</w>": 6906,
  "ㅈㅏㄴㄸㅡㄱ</w>": 6907,
  "ㅈㅏㄴㅇㅡㄹ</w>": 6908,
  "ㅈㅏㄴㅈㅏㄴ": 6909,
  "ㅈㅏㄴㅔ": 6910,
  "ㅈㅏㄴㅔ</w>": 6911,
  "ㅈㅏㄴㅔㄱㅏ</w>": 6912,
  "ㅈㅏㄴㅡㄴ</w>": 6913,
  "ㅈㅏㄴㅡㄹㅏㄱㅗ</w>": 6914,
  "ㅈㅏㄴㅣ</w>": 6915,
  "ㅈㅏㄴㅣㄲㅏ,</w>": 6916,
  "ㅈㅏㄶ": 6917,
  "ㅈㅏㄷㅏㄱㅏ</w>": 6918,
  "ㅈㅏㄷㅗㅇ": 6919,
  "ㅈㅏㄷㅗㅇㅊㅏㅇㅔ</w>": 6920,
  "ㅈㅏㄹ": 6921,
  "ㅈㅏㄹ</w>": 6922,
  "ㅈㅏㄹㄹㅏ": 6923,
  "ㅈㅏㄹㅁㅗㅅ": 6924,
  "ㅈㅏㄹㅁㅗㅅㄷㅚㄴ</w>": 6925,
  "ㅈㅏㄹㅁㅗㅅㅇㅡㄴ</w>": 6926,
  "ㅈㅏㄹㅁㅗㅅㅇㅡㄹ</w>": 6927,
  "ㅈㅏㄹㅁㅗㅅㅎㅏㄴ</w>": 6928,
  "ㅈㅏㄹㅁㅗㅅㅎㅐㅆ": 6929,
  "ㅈㅏㄹㅁㅗㅅㅎㅐㅆㅅㅡㅂㄴㅣㄷㅏ.”</w>": 6930,
  "ㅈㅏㄹㅎㅏㄱㅗ</w>": 6931,
  "ㅈㅏㄹㅎㅏㄴ": 6932,
  "ㅈㅏㄹㅎㅏㄴㅡㄴ</w>": 6933,
  "ㅈㅏㄹㅎㅏㅇㅕㅆㅅㅡㅂㄴㅣㄷㅏ.</w>": 6934,
  "ㅈㅏㄹㅎㅐㅆ": 6935,
  "ㅈㅏㄹㅏ": 6936,
  "ㅈㅏㄹㅏㄱㅗ</w>": 6937,
  "ㅈㅏㄹㅏㄴ</w>": 6938,
  "ㅈㅏㄹㅏㄴㅏㄴ</w>": 6939,
  "ㅈㅏㄹㅏㄴㅏㄴㅡㄴ</w>": 6940,
  "ㅈㅏㄹㅏㄴㅡㄴ</w>": 6941,
  "ㅈㅏㄹㅏㅅㅓ</w>": 6942,
  "ㅈㅏㄹㅏㅇ": 6943,
  "ㅈㅏㄹㅡㄹ</w>": 6944,
  "ㅈㅏㄹㅣ": 6945,
  "ㅈㅏㄹㅣ</w>": 6946,
  "ㅈㅏㄹㅣㄹㅡㄹ</w>": 6947,
  "ㅈㅏㄹㅣㅇㅔ</w>": 6948,
  "ㅈㅏㅁ": 6949,
  "ㅈㅏㅁ</w>": 6950,
  "ㅈㅏㅁㄱㅕ</w>": 6951,
  "ㅈㅏㅁㄱㅡ": 6952,
  "ㅈㅏㅁㄱㅡㅈㅣ</w>": 6953,
  "ㅈㅏㅁㄱㅣㄴ</w>": 6954,
  "ㅈㅏㅁㄲㅏㄴ</w>": 6955,
  "ㅈㅏㅁㅇㅡㄴ</w>": 6956,
  "ㅈㅏㅁㅇㅡㄹ</w>": 6957,
  "ㅈㅏㅁㅇㅣ</w>": 6958,
  "ㅈㅏㅁㅈㅏ": 6959,
  "ㅈㅏㅁㅈㅏㅋㅗ</w>": 6960,
  "ㅈㅏㅁㅏㅈㅏ,</w>": 6961,
  "ㅈㅏㅁㅏㅈㅏ</w>": 6962,
  "ㅈㅏㅁㅕㄴ</w>": 6963,
  "ㅈㅏㅁㅕㄴㅅㅓ</w>": 6964,
  "ㅈㅏㅂ": 6965,
  "ㅈㅏㅂㄱㅗ</w>": 6966,
  "ㅈㅏㅂㅅㅜ": 6967,
  "ㅈㅏㅂㅇㅏ": 6968,
  "ㅈㅏㅂㅇㅏ</w>": 6969,
  "ㅈㅏㅂㅇㅏㄷㅏㅇ": 6970,
  "ㅈㅏㅂㅇㅏㄷㅏㅇㄱㅕㅆㅅㅡㅂㄴㅣㄷㅏ.</w>": 6971,
  "ㅈㅏㅂㅇㅏㄷㅏㅇㄱㅣ": 6972,
  "ㅈㅏㅂㅇㅏㄷㅏㅇㄱㅣㄱㅔ.”</w>": 6973,
  "ㅈㅏㅂㅇㅏㄷㅏㅇㄱㅣㄴㅣㄲㅏ</w>": 6974,
  "ㅈㅏㅂㅇㅏㄷㅏㅇㄱㅣㄹ": 6975,
  "ㅈㅏㅂㅇㅏㄷㅜㄱㅗ</w>": 6976,
  "ㅈㅏㅂㅇㅏㅆㄷㅏ.</w>": 6977,
  "ㅈㅏㅂㅇㅏㅆㅅㅡㅂㄴㅣㄷㅏ.</w>": 6978,
  "ㅈㅏㅂㅇㅡㄴ</w>": 6979,
  "ㅈㅏㅂㅇㅡㄹ</w>": 6980,
  "ㅈㅏㅂㅈㅣ</w>": 6981,
  "ㅈㅏㅂㅈㅣㄴㅡㄴ</w>": 6982,
  "ㅈㅏㅂㅈㅣㄹㅡㄹ</w>": 6983,
  "ㅈㅏㅃㅏ": 6984,
  "ㅈㅏㅃㅏㅈㅕㅆㄷㅏ.</w>": 6985,
  "ㅈㅏㅅㅏㄹ": 6986,
  "ㅈㅏㅅㅔ": 6987,
  "ㅈㅏㅅㅔㅎㅏㄴ</w>": 6988,
  "ㅈㅏㅅㅔㅎㅣ</w>": 6989,
  "ㅈㅏㅅㅣㄱ": 6990,
  "ㅈㅏㅅㅣㄱ</w>": 6991,
  "ㅈㅏㅅㅣㄱㄴㅗㅁㅇㅣ</w>": 6992,
  "ㅈㅏㅅㅣㄱㅇㅣ</w>": 6993,
  "ㅈㅏㅅㅣㄴ": 6994,
  "ㅈㅏㅅㅣㄴㅇㅣ</w>": 6995,
  "ㅈㅏㅆㄷㅏ.</w>": 6996,
  "ㅈㅏㅇ": 6997,
  "ㅈㅏㅇ</w>": 6998,
  "ㅈㅏㅇㄱㅓㄹㅣ": 6999,
  "ㅈㅏㅇㄱㅓㄹㅣ</w>": 7000,
  "ㅈㅏㅇㄱㅓㄹㅣㅇㅔ</w>": 7001,
  "ㅈㅏㅇㄱㅜㄴ": 7002,
  "ㅈㅏㅇㄱㅜㄴ</w>": 7003,
  "ㅈㅏㅇㄱㅜㄴㅇㅡㄴ</w>": 7004,
  "ㅈㅏㅇㄱㅜㄴㅇㅢ</w>": 7005,
  "ㅈㅏㅇㄴㅏㄴ": 7006,
  "ㅈㅏㅇㄴㅏㄴ</w>": 7007,
  "ㅈㅏㅇㄴㅏㄴㄱㅏㅁ": 7008,
  "ㅈㅏㅇㄴㅏㄴㄷㅗ</w>": 7009,
  "ㅈㅏㅇㄴㅏㄴㅇㅡㄹ</w>": 7010,
  "ㅈㅏㅇㄴㅏㄴㅇㅣ</w>": 7011,
  "ㅈㅏㅇㄴㅏㄴㅎㅏㄹ</w>": 7012,
  "ㅈㅏㅇㄷㅗㄱ": 7013,
  "ㅈㅏㅇㄷㅗㄱㄲㅔㄹㅗ</w>": 7014,
  "ㅈㅏㅇㅁㅏㄴ</w>": 7015,
  "ㅈㅏㅇㅁㅏㅈㅇㅡㄹ</w>": 7016,
  "ㅈㅏㅇㅁㅣ": 7017,
  "ㅈㅏㅇㅂㅜㅇ": 7018,
  "ㅈㅏㅇㅅㅏ": 7019,
  "ㅈㅏㅇㅅㅗㄴ": 7020,
  "ㅈㅏㅇㅅㅜ</w>": 7021,
  "ㅈㅏㅇㅅㅜㄱㅏ</w>": 7022,
  "ㅈㅏㅇㅅㅜㄴㅡㄴ</w>": 7023,
  "ㅈㅏㅇㅅㅜㅇㅔㄱㅔ</w>": 7024,
  "ㅈㅏㅇㅅㅜㅇㅢ</w>": 7025,
  "ㅈㅏㅇㅇㅔ</w>": 7026,
  "ㅈㅏㅇㅇㅔㅅㅓ</w>": 7027,
  "ㅈㅏㅇㅇㅡㄹ</w>": 7028,
  "ㅈㅏㅇㅇㅡㄹㅗ</w>": 7029,
  "ㅈㅏㅇㅇㅣ</w>": 7030,
  "ㅈㅏㅇㅈㅣ</w>": 7031,
  "ㅈㅏㅇㅈㅣㄹㅡㄹ</w>": 7032,
  "ㅈㅏㅇㅍㅏㄴ": 7033,
  "ㅈㅏㅇㅎㅏㄱ": 7034,
  "ㅈㅏㅇㅎㅏㄱㄱㅡㅁ</w>": 7035,
  "ㅈㅏㅇㅑ": 7036,
  "ㅈㅏㅇㅔ</w>": 7037,
  "ㅈㅏㅇㅕㄴ": 7038,
  "ㅈㅏㅇㅢ</w>": 7039,
  "ㅈㅏㅈ": 7040,
  "ㅈㅏㅈㅓㅇ</w>": 7041,
  "ㅈㅏㅈㅓㅇㅇㅡㄹ</w>": 7042,
  "ㅈㅏㅈㅜ</w>": 7043,
  "ㅈㅏㅈㅣ</w>": 7044,
  "ㅈㅏㅊㅟ": 7045,
  "ㅈㅐ": 7046,
  "ㅈㅐ</w>": 7047,
  "ㅈㅐㄹㅛㅇ": 7048,
  "ㅈㅐㄹㅛㅇㅇㅣㄱㅏ</w>": 7049,
  "ㅈㅐㄹㅛㅇㅇㅣㄴㅡㄴ</w>": 7050,
  "ㅈㅐㄹㅡㄹ</w>": 7051,
  "ㅈㅐㅁㅣ": 7052,
  "ㅈㅐㅁㅣㄱㅏ</w>": 7053,
  "ㅈㅐㅁㅣㄹㅡㄹ</w>": 7054,
  "ㅈㅐㅁㅣㅇㅣㅆㄱㅔ</w>": 7055,
  "ㅈㅐㅇ": 7056,
  "ㅈㅐㅇㅇㅣㄹㅡㄹ</w>": 7057,
  "ㅈㅐㅇㅝ</w>": 7058,
  "ㅈㅐㅈㅜㄱㅏ</w>": 7059,
  "ㅈㅐㅈㅜㅇㅔ</w>": 7060,
  "ㅈㅐㅊㅐㄱㅣㄹㅡㄹ</w>": 7061,
  "ㅈㅓ": 7062,
  "ㅈㅓ-</w>": 7063,
  "ㅈㅓ</w>": 7064,
  "ㅈㅓㄱ": 7065,
  "ㅈㅓㄱ</w>": 7066,
  "ㅈㅓㄱㄱㅓㄹㅕㅆㄷㅏ.</w>": 7067,
  "ㅈㅓㄱㄱㅜㄴ": 7068,
  "ㅈㅓㄱㄱㅡㄱㅈㅓㄱㅇㅣㄴ</w>": 7069,
  "ㅈㅓㄱㄷㅗ</w>": 7070,
  "ㅈㅓㄱㅁㅏㄷㅏ</w>": 7071,
  "ㅈㅓㄱㅂㅕㅇ": 7072,
  "ㅈㅓㄱㅅㅣㅂㅈㅏ": 7073,
  "ㅈㅓㄱㅅㅣㅂㅈㅏㅂㅕㅇㅇㅝㄴㅇㅡㄹㅗ</w>": 7074,
  "ㅈㅓㄱㅇㅡㄴ</w>": 7075,
  "ㅈㅓㄱㅇㅡㄹ</w>": 7076,
  "ㅈㅓㄱㅇㅡㄹㅗ</w>": 7077,
  "ㅈㅓㄱㅇㅣ</w>": 7078,
  "ㅈㅓㄱㅇㅣㄴ</w>": 7079,
  "ㅈㅓㄱㅊㅜㅈㅓㄱ</w>": 7080,
  "ㅈㅓㄱㅎㅏㄴ</w>": 7081,
  "ㅈㅓㄱㅓㅅㅇㅡㄹ</w>": 7082,
  "ㅈㅓㄱㅗㄹㅣ": 7083,
  "ㅈㅓㄱㅡㅁ": 7084,
  "ㅈㅓㄱㅣ</w>": 7085,
  "ㅈㅓㄴ": 7086,
  "ㅈㅓㄴ,</w>": 7087,
  "ㅈㅓㄴ</w>": 7088,
  "ㅈㅓㄴㄱㅘ</w>": 7089,
  "ㅈㅓㄴㄱㅛ</w>": 7090,
  "ㅈㅓㄴㄱㅣ</w>": 7091,
  "ㅈㅓㄴㄱㅣㅇㅔ</w>": 7092,
  "ㅈㅓㄴㄷㅡㅇ": 7093,
  "ㅈㅓㄴㄹㅏㅁㅎㅚ": 7094,
  "ㅈㅓㄴㄹㅏㅁㅎㅚㅈㅏㅇㅇㅡㄹㅗ</w>": 7095,
  "ㅈㅓㄴㅁㅏㄴ</w>": 7096,
  "ㅈㅓㄴㅂㅗ</w>": 7097,
  "ㅈㅓㄴㅂㅗㄷㅏ</w>": 7098,
  "ㅈㅓㄴㅂㅗㄹㅡㄹ</w>": 7099,
  "ㅈㅓㄴㅂㅜㅌㅓ</w>": 7100,
  "ㅈㅓㄴㅇㅔ</w>": 7101,
  "ㅈㅓㄴㅇㅔㄴㅡㄴ</w>": 7102,
  "ㅈㅓㄴㅇㅡㄹ</w>": 7103,
  "ㅈㅓㄴㅇㅣ</w>": 7104,
  "ㅈㅓㄴㅉㅏㄹㅣ</w>": 7105,
  "ㅈㅓㄴㅊㅏ</w>": 7106,
  "ㅈㅓㄴㅊㅏㄱㅏ</w>": 7107,
  "ㅈㅓㄴㅊㅏㅅ": 7108,
  "ㅈㅓㄴㅊㅏㅇㅔ</w>": 7109,
  "ㅈㅓㄴㅎㅣ</w>": 7110,
  "ㅈㅓㄴㅕㄱ": 7111,
  "ㅈㅓㄴㅕㄱ</w>": 7112,
  "ㅈㅓㄴㅕㄱㄸㅐ</w>": 7113,
  "ㅈㅓㄴㅕㄱㅂㅏㅂㅇㅡㄹ</w>": 7114,
  "ㅈㅓㄴㅕㄱㅇㅔ</w>": 7115,
  "ㅈㅓㄴㅕㄱㅇㅡㄹ</w>": 7116,
  "ㅈㅓㄴㅡㄴ</w>": 7117,
  "ㅈㅓㄷㅗ</w>": 7118,
  "ㅈㅓㄹ": 7119,
  "ㅈㅓㄹ</w>": 7120,
  "ㅈㅓㄹㄷㅐㅈㅓㄱㅇㅣㄴ</w>": 7121,
  "ㅈㅓㄹㄹㅗ</w>": 7122,
  "ㅈㅓㄹㅇㅔㅅㅓ</w>": 7123,
  "ㅈㅓㄹㅇㅣ</w>": 7124,
  "ㅈㅓㄹㅓ": 7125,
  "ㅈㅓㄹㅓㅎㄱㅔ</w>": 7126,
  "ㅈㅓㄹㅡㄹ</w>": 7127,
  "ㅈㅓㄹㅣ": 7128,
  "ㅈㅓㄹㅣ</w>": 7129,
  "ㅈㅓㄻ": 7130,
  "ㅈㅓㄻㅇㅡㄴ</w>": 7131,
  "ㅈㅓㅁ": 7132,
  "ㅈㅓㅁ</w>": 7133,
  "ㅈㅓㅁㅅㅜㄴ": 7134,
  "ㅈㅓㅁㅅㅜㄴㄴㅔ": 7135,
  "ㅈㅓㅁㅅㅜㄴㄴㅔ</w>": 7136,
  "ㅈㅓㅁㅅㅜㄴㅇㅏ!</w>": 7137,
  "ㅈㅓㅁㅅㅜㄴㅇㅣㄱㅏ</w>": 7138,
  "ㅈㅓㅁㅅㅜㄴㅇㅣㅇㅢ</w>": 7139,
  "ㅈㅓㅁㅅㅣㅁ": 7140,
  "ㅈㅓㅁㅅㅣㅁ</w>": 7141,
  "ㅈㅓㅁㅅㅣㅁㅂㅏㅂㅇㅡㄹ</w>": 7142,
  "ㅈㅓㅁㅅㅣㅁㅅㅣㄱㅏㄴㅇㅔ</w>": 7143,
  "ㅈㅓㅁㅅㅣㅁㅅㅣㄱㅏㄴㅇㅣ</w>": 7144,
  "ㅈㅓㅁㅅㅣㅁㅇㅡㄹ</w>": 7145,
  "ㅈㅓㅁㅇㅡㄹ</w>": 7146,
  "ㅈㅓㅁㅇㅡㄹㅗ</w>": 7147,
  "ㅈㅓㅁㅈㅏㄶ": 7148,
  "ㅈㅓㅁㅈㅏㄶㅇㅡㄴ</w>": 7149,
  "ㅈㅓㅁㅈㅓㅁ</w>": 7150,
  "ㅈㅓㅁㅜㄹ": 7151,
  "ㅈㅓㅁㅜㄹㄷㅗㄹㅗㄱ</w>": 7152,
  "ㅈㅓㅁㅜㄹㅇㅓㄱㅏㄴㅡㄴ</w>": 7153,
  "ㅈㅓㅂ": 7154,
  "ㅈㅓㅂㅅㅣㄹㅡㄹ</w>": 7155,
  "ㅈㅓㅅㅡㅇ": 7156,
  "ㅈㅓㅇ": 7157,
  "ㅈㅓㅇ</w>": 7158,
  "ㅈㅓㅇㄱㅏㅇㅇㅣㄹㅡㄹ</w>": 7159,
  "ㅈㅓㅇㄱㅓ": 7160,
  "ㅈㅓㅇㄱㅓ</w>": 7161,
  "ㅈㅓㅇㄱㅓㄹㅡㄹ</w>": 7162,
  "ㅈㅓㅇㄱㅓㅈㅏㅇ": 7163,
  "ㅈㅓㅇㄱㅓㅈㅏㅇ</w>": 7164,
  "ㅈㅓㅇㄱㅓㅈㅏㅇㄲㅏㅈㅣ</w>": 7165,
  "ㅈㅓㅇㄱㅓㅈㅏㅇㅇㅔ</w>": 7166,
  "ㅈㅓㅇㄱㅓㅈㅏㅇㅇㅡㄹㅗ</w>": 7167,
  "ㅈㅓㅇㄱㅘ</w>": 7168,
  "ㅈㅓㅇㄱㅜ</w>": 7169,
  "ㅈㅓㅇㄴㅕㅇ</w>": 7170,
  "ㅈㅓㅇㄷㅏㅂㄱㅔ</w>": 7171,
  "ㅈㅓㅇㄷㅏㅇㅜㄴ</w>": 7172,
  "ㅈㅓㅇㄷㅗㄹㅡㄹ</w>": 7173,
  "ㅈㅓㅇㄷㅗㅇ": 7174,
  "ㅈㅓㅇㄷㅗㅇㅇㅣㄴㅡㄴ</w>": 7175,
  "ㅈㅓㅇㄹㅠ": 7176,
  "ㅈㅓㅇㄹㅠㅈㅏㅇㅇㅔㅅㅓ</w>": 7177,
  "ㅈㅓㅇㅁㅏㄹ</w>": 7178,
  "ㅈㅓㅇㅁㅏㄹㅇㅣㅈㅣ</w>": 7179,
  "ㅈㅓㅇㅁㅜㄴㅇㅡㄹㅗ</w>": 7180,
  "ㅈㅓㅇㅅㅓㅇㄲㅓㅅ</w>": 7181,
  "ㅈㅓㅇㅅㅜㄱ": 7182,
  "ㅈㅓㅇㅅㅜㄱㅇㅏ!</w>": 7183,
  "ㅈㅓㅇㅅㅜㄱㅇㅣ</w>": 7184,
  "ㅈㅓㅇㅅㅜㄱㅇㅣㄱㅏ</w>": 7185,
  "ㅈㅓㅇㅅㅜㄱㅇㅣㄴㅡㄴ</w>": 7186,
  "ㅈㅓㅇㅅㅜㄱㅇㅣㄹㅡㄹ</w>": 7187,
  "ㅈㅓㅇㅅㅜㄱㅇㅣㅇㅔㄱㅔ</w>": 7188,
  "ㅈㅓㅇㅅㅜㄱㅇㅣㅇㅘ</w>": 7189,
  "ㅈㅓㅇㅅㅣㄴ": 7190,
  "ㅈㅓㅇㅅㅣㄴ</w>": 7191,
  "ㅈㅓㅇㅅㅣㄴㅇㅓㅄㅇㅣ</w>": 7192,
  "ㅈㅓㅇㅅㅣㄴㅇㅡㄹ</w>": 7193,
  "ㅈㅓㅇㅅㅣㄴㅇㅣ</w>": 7194,
  "ㅈㅓㅇㅇㅡㄹ</w>": 7195,
  "ㅈㅓㅇㅇㅢ": 7196,
  "ㅈㅓㅇㅇㅣ</w>": 7197,
  "ㅈㅓㅇㅈㅔ": 7198,
  "ㅈㅓㅇㅈㅣㄱㅎㅏㄴ</w>": 7199,
  "ㅈㅓㅇㅎㅢ": 7200,
  "ㅈㅓㅇㅎㅢ</w>": 7201,
  "ㅈㅓㅇㅎㅢㄱㅏ</w>": 7202,
  "ㅈㅓㅇㅎㅢㄴㅡㄴ</w>": 7203,
  "ㅈㅓㅇㅎㅢㄹㅡㄹ</w>": 7204,
  "ㅈㅓㅇㅎㅢㅇㅘ</w>": 7205,
  "ㅈㅓㅈ": 7206,
  "ㅈㅓㅈ</w>": 7207,
  "ㅈㅓㅈㅇㅓㅅㅓ</w>": 7208,
  "ㅈㅓㅈㅇㅡㄴ</w>": 7209,
  "ㅈㅓㅈㅇㅡㄹ</w>": 7210,
  "ㅈㅓㅈㅓㄹㄹㅗ</w>": 7211,
  "ㅈㅓㅈㅣㄹㄹㅓ": 7212,
  "ㅈㅓㅉㅗㄱ": 7213,
  "ㅈㅓㅉㅗㄱ</w>": 7214,
  "ㅈㅓㅉㅗㄱㅇㅔㅅㅓㄷㅗ,</w>": 7215,
  "ㅈㅓㅉㅗㄱㅇㅡㄹ</w>": 7216,
  "ㅈㅓㅉㅗㄱㅇㅡㄹㅗ</w>": 7217,
  "ㅈㅓㅎㅢ</w>": 7218,
  "ㅈㅓㅎㅢㄷㅡㄹㄲㅣㄹㅣ</w>": 7219,
  "ㅈㅔ": 7220,
  "ㅈㅔ1": 7221,
  "ㅈㅔ2": 7222,
  "ㅈㅔ3": 7223,
  "ㅈㅔ3ㅂㅜㄹㅗ</w>": 7224,
  "ㅈㅔ</w>": 7225,
  "ㅈㅔㄱㅏ</w>": 7226,
  "ㅈㅔㄱㅏㄱㄱㅣ</w>": 7227,
  "ㅈㅔㄱㅏㄲㅡㅁ</w>": 7228,
  "ㅈㅔㄴ</w>": 7229,
  "ㅈㅔㄴㅈㅏㅇㅁㅏㅈㅇㅡㄹ</w>": 7230,
  "ㅈㅔㄴㅡㄴ</w>": 7231,
  "ㅈㅔㄹㅡㄹ</w>": 7232,
  "ㅈㅔㅁㅗㄱ": 7233,
  "ㅈㅔㅂㅏㄹ</w>": 7234,
  "ㅈㅔㅂㅓㅂ</w>": 7235,
  "ㅈㅔㅇㅣㄹ</w>": 7236,
  "ㅈㅔㅈㅏ</w>": 7237,
  "ㅈㅕ": 7238,
  "ㅈㅕ</w>": 7239,
  "ㅈㅕㅅㅓ</w>": 7240,
  "ㅈㅕㅆ": 7241,
  "ㅈㅕㅆㄷㅏ.</w>": 7242,
  "ㅈㅕㅆㄷㅏㄴㅡㄴ</w>": 7243,
  "ㅈㅕㅆㄷㅓㄴ</w>": 7244,
  "ㅈㅕㅆㅅㅡㅂㄴㅣㄷㅏ.</w>": 7245,
  "ㅈㅗ": 7246,
  "ㅈㅗ</w>": 7247,
  "ㅈㅗㄱ": 7248,
  "ㅈㅗㄱㅏㄱ": 7249,
  "ㅈㅗㄱㅏㄱ</w>": 7250,
  "ㅈㅗㄱㅡㅁ": 7251,
  "ㅈㅗㄱㅡㅁ</w>": 7252,
  "ㅈㅗㄱㅡㅁㄷㅗ</w>": 7253,
  "ㅈㅗㄱㅡㅁㅆㅣㄱ</w>": 7254,
  "ㅈㅗㄱㅡㅁㅇㅣㄹㅏㄷㅗ</w>": 7255,
  "ㅈㅗㄱㅡㅁㅏㄴ</w>": 7256,
  "ㅈㅗㄱㅡㅁㅏㅎㅏㄴ</w>": 7257,
  "ㅈㅗㄴ": 7258,
  "ㅈㅗㄴㄱㅕㅇ": 7259,
  "ㅈㅗㄴㅈㅐㄱㅏ</w>": 7260,
  "ㅈㅗㄹ": 7261,
  "ㅈㅗㄹㄹㅏ": 7262,
  "ㅈㅗㄹㄹㅕㅅㅓ</w>": 7263,
  "ㅈㅗㄹㅇㅓ": 7264,
  "ㅈㅗㄹㅇㅓㅂ": 7265,
  "ㅈㅗㄹㅇㅓㅂㅅㅐㅇ": 7266,
  "ㅈㅗㄹㅣㅁㅇㅣㅇㅑ.”</w>": 7267,
  "ㅈㅗㅁ": 7268,
  "ㅈㅗㅁ</w>": 7269,
  "ㅈㅗㅁㅊㅓ": 7270,
  "ㅈㅗㅁㅊㅓㄹㅓㅁ</w>": 7271,
  "ㅈㅗㅂ": 7272,
  "ㅈㅗㅂㄷㅏㄹㅏㄴ</w>": 7273,
  "ㅈㅗㅂㅇㅡㄴ</w>": 7274,
  "ㅈㅗㅂㅏ": 7275,
  "ㅈㅗㅂㅏㅂㄷㅗ</w>": 7276,
  "ㅈㅗㅅㅏ": 7277,
  "ㅈㅗㅅㅏㅎㅐ</w>": 7278,
  "ㅈㅗㅅㅓㄴ": 7279,
  "ㅈㅗㅅㅓㄴ</w>": 7280,
  "ㅈㅗㅅㅓㄴㅇㅔ</w>": 7281,
  "ㅈㅗㅅㅓㄴㅇㅡㄹㅗ</w>": 7282,
  "ㅈㅗㅅㅣㅁㅅㅡㄹㅓㅂㄱㅔ</w>": 7283,
  "ㅈㅗㅇ": 7284,
  "ㅈㅗㅇㄷㅏㄹ": 7285,
  "ㅈㅗㅇㄷㅏㄹㅅㅐ": 7286,
  "ㅈㅗㅇㄷㅡㄱ": 7287,
  "ㅈㅗㅇㄷㅡㄱㅇㅣㅇㅘ</w>": 7288,
  "ㅈㅗㅇㄹㅗ</w>": 7289,
  "ㅈㅗㅇㅇㅏ": 7290,
  "ㅈㅗㅇㅇㅡㄹ</w>": 7291,
  "ㅈㅗㅇㅇㅣ</w>": 7292,
  "ㅈㅗㅇㅇㅣㄹ</w>": 7293,
  "ㅈㅗㅇㅇㅣㄹㅡㄹ</w>": 7294,
  "ㅈㅗㅇㅛㅇ": 7295,
  "ㅈㅗㅇㅛㅇㅎㅏㄴ</w>": 7296,
  "ㅈㅗㅇㅛㅇㅎㅏㄷㅏ.</w>": 7297,
  "ㅈㅗㅇㅛㅇㅎㅣ</w>": 7298,
  "ㅈㅗㅊㅏ</w>": 7299,
  "ㅈㅗㅎ": 7300,
  "ㅈㅗㅎㄱㅔㅆㅈㅣㅁㅏㄴ</w>": 7301,
  "ㅈㅗㅎㄷㅏ.</w>": 7302,
  "ㅈㅗㅎㄷㅏㄱㅗ</w>": 7303,
  "ㅈㅗㅎㅇㅏ": 7304,
  "ㅈㅗㅎㅇㅏㅅㅓ</w>": 7305,
  "ㅈㅗㅎㅇㅏㅆ": 7306,
  "ㅈㅗㅎㅇㅏㅆㄷㅏ.</w>": 7307,
  "ㅈㅗㅎㅇㅏㅎㅏㄴㅡㄴ</w>": 7308,
  "ㅈㅗㅎㅇㅡㄴ": 7309,
  "ㅈㅗㅎㅇㅡㄴ</w>": 7310,
  "ㅈㅗㅎㅇㅡㄴㅣ</w>": 7311,
  "ㅈㅗㅎㅇㅡㄹ": 7312,
  "ㅈㅗㅎㅇㅡㄹㄲㅏ.”</w>": 7313,
  "ㅈㅗㅎㅇㅡㄹㅈㅣ</w>": 7314,
  "ㅈㅗㅎㅈㅣ</w>": 7315,
  "ㅈㅗㅎㅚ": 7316,
  "ㅈㅘ": 7317,
  "ㅈㅚ": 7318,
  "ㅈㅚ</w>": 7319,
  "ㅈㅚㄷㅏ</w>": 7320,
  "ㅈㅚㄹㅡㄹ</w>": 7321,
  "ㅈㅚㅅㅗㅇ": 7322,
  "ㅈㅜ": 7323,
  "ㅈㅜ</w>": 7324,
  "ㅈㅜㄱ": 7325,
  "ㅈㅜㄱ</w>": 7326,
  "ㅈㅜㄱㄱㅔ</w>": 7327,
  "ㅈㅜㄱㄱㅔㅆㄷㅏ.</w>": 7328,
  "ㅈㅜㄱㄱㅗ</w>": 7329,
  "ㅈㅜㄱㄱㅣㄹㅗ</w>": 7330,
  "ㅈㅜㄱㄴㅡㄴ</w>": 7331,
  "ㅈㅜㄱㄷㅗㄹㅗㄱ</w>": 7332,
  "ㅈㅜㄱㅇㅓ": 7333,
  "ㅈㅜㄱㅇㅓ</w>": 7334,
  "ㅈㅜㄱㅇㅓㄹㅏ,</w>": 7335,
  "ㅈㅜㄱㅇㅓㅅㅓ</w>": 7336,
  "ㅈㅜㄱㅇㅓㅆ": 7337,
  "ㅈㅜㄱㅇㅓㅆㅇㅓ,</w>": 7338,
  "ㅈㅜㄱㅇㅕ</w>": 7339,
  "ㅈㅜㄱㅇㅡㄴ</w>": 7340,
  "ㅈㅜㄱㅇㅡㄹ": 7341,
  "ㅈㅜㄱㅇㅡㄹ</w>": 7342,
  "ㅈㅜㄱㅇㅡㄹㅎㅣㅁㅁㅏㄴ</w>": 7343,
  "ㅈㅜㄱㅇㅡㅁㅕㄴ</w>": 7344,
  "ㅈㅜㄱㅇㅣ": 7345,
  "ㅈㅜㄱㅇㅣㄹ</w>": 7346,
  "ㅈㅜㄱㅇㅣㄹㅏㄷㅗ</w>": 7347,
  "ㅈㅜㄱㅇㅣㄹㅕㄱㅗ</w>": 7348,
  "ㅈㅜㄱㅈㅣ</w>": 7349,
  "ㅈㅜㄱㅗ</w>": 7350,
  "ㅈㅜㄱㅗㅂㅏㄷㄱㅗ</w>": 7351,
  "ㅈㅜㄱㅣ</w>": 7352,
  "ㅈㅜㄱㅣㄹㅗ</w>": 7353,
  "ㅈㅜㄱㅣㄹㅡㄹ</w>": 7354,
  "ㅈㅜㄴ": 7355,
  "ㅈㅜㄴ</w>": 7356,
  "ㅈㅜㄴㄷㅏ.</w>": 7357,
  "ㅈㅜㄴㅂㅣ": 7358,
  "ㅈㅜㄴㅂㅣㄹㅡㄹ</w>": 7359,
  "ㅈㅜㄴㅡㄴ</w>": 7360,
  "ㅈㅜㄷㅜㅇ": 7361,
  "ㅈㅜㄷㅜㅇㅇㅣㄹㅡㄹ</w>": 7362,
  "ㅈㅜㄹ": 7363,
  "ㅈㅜㄹ</w>": 7364,
  "ㅈㅜㄹㄷㅏㄹㅇㅡㅁ": 7365,
  "ㅈㅜㄹㄷㅗ</w>": 7366,
  "ㅈㅜㄹㅁㅏㄴ</w>": 7367,
  "ㅈㅜㄹㅇㅓ": 7368,
  "ㅈㅜㄹㅇㅡㄴ</w>": 7369,
  "ㅈㅜㄹㅇㅡㄹ</w>": 7370,
  "ㅈㅜㄹㅇㅣ</w>": 7371,
  "ㅈㅜㄹㅈㅜㄹ</w>": 7372,
  "ㅈㅜㄹㅕ</w>": 7373,
  "ㅈㅜㄹㅕㄱㅗ</w>": 7374,
  "ㅈㅜㄹㅡㄹㅡ</w>": 7375,
  "ㅈㅜㄹㅣ": 7376,
  "ㅈㅜㄹㅣㄴ</w>": 7377,
  "ㅈㅜㅁㅏ.</w>": 7378,
  "ㅈㅜㅁㅓㄱ": 7379,
  "ㅈㅜㅁㅓㄱㅇㅡㄹ</w>": 7380,
  "ㅈㅜㅁㅓㄱㅇㅡㄹㅗ</w>": 7381,
  "ㅈㅜㅁㅓㄴㅣ": 7382,
  "ㅈㅜㅁㅓㄴㅣ</w>": 7383,
  "ㅈㅜㅁㅓㄴㅣㅇㅔ</w>": 7384,
  "ㅈㅜㅁㅓㄴㅣㅇㅔㅅㅓ</w>": 7385,
  "ㅈㅜㅁㅕㄴㅅㅓ</w>": 7386,
  "ㅈㅜㅁㅜ": 7387,
  "ㅈㅜㅅㅔㅇㅛ.”</w>": 7388,
  "ㅈㅜㅅㅕㅆㅅㅡㅂㄴㅣㄷㅏ.</w>": 7389,
  "ㅈㅜㅅㅗㄹㅡㄹ</w>": 7390,
  "ㅈㅜㅅㅣ": 7391,
  "ㅈㅜㅅㅣㄴ</w>": 7392,
  "ㅈㅜㅅㅣㄴㅡㄴ</w>": 7393,
  "ㅈㅜㅅㅣㄷㅓㄴ</w>": 7394,
  "ㅈㅜㅅㅣㄹ</w>": 7395,
  "ㅈㅜㅅㅣㅂ": 7396,
  "ㅈㅜㅅㅣㅂㅅㅣ": 7397,
  "ㅈㅜㅅㅣㅂㅅㅣㅇㅗ.”</w>": 7398,
  "ㅈㅜㅇ": 7399,
  "ㅈㅜㅇ</w>": 7400,
  "ㅈㅜㅇㄷㅐ": 7401,
  "ㅈㅜㅇㅇㅓㄹ": 7402,
  "ㅈㅜㅇㅇㅔ</w>": 7403,
  "ㅈㅜㅇㅇㅔㄷㅗ</w>": 7404,
  "ㅈㅜㅇㅇㅔㅅㅓ</w>": 7405,
  "ㅈㅜㅇㅇㅡㄴ</w>": 7406,
  "ㅈㅜㅇㅇㅡㄹ</w>": 7407,
  "ㅈㅜㅇㅇㅢ</w>": 7408,
  "ㅈㅜㅇㅇㅣ</w>": 7409,
  "ㅈㅜㅇㅈㅡㅇ": 7410,
  "ㅈㅜㅇㅎㅏㄱㄱㅛ</w>": 7411,
  "ㅈㅜㅇㅎㅏㄱㄱㅛㅇㅔ</w>": 7412,
  "ㅈㅜㅇㅎㅣ</w>": 7413,
  "ㅈㅜㅇㅓ": 7414,
  "ㅈㅜㅇㅓ</w>": 7415,
  "ㅈㅜㅇㅓㅅㅓ</w>": 7416,
  "ㅈㅜㅇㅓㅆ": 7417,
  "ㅈㅜㅇㅓㅆㄷㅏ.</w>": 7418,
  "ㅈㅜㅇㅓㅆㅅㅡㅂㄴㅣㄷㅏ.</w>": 7419,
  "ㅈㅜㅇㅓㅇㅑ</w>": 7420,
  "ㅈㅜㅇㅢ": 7421,
  "ㅈㅜㅇㅢㄹㅡㄹ</w>": 7422,
  "ㅈㅜㅇㅣㄴ": 7423,
  "ㅈㅜㅇㅣㄴ</w>": 7424,
  "ㅈㅜㅇㅣㄴㅇㅏㅆㅣ": 7425,
  "ㅈㅜㅇㅣㄴㅇㅔㄱㅔ</w>": 7426,
  "ㅈㅜㅇㅣㄴㅇㅡㄴ</w>": 7427,
  "ㅈㅜㅇㅣㄴㅇㅣ</w>": 7428,
  "ㅈㅜㅇㅣㄴㅈㅣㅂㅇㅢ</w>": 7429,
  "ㅈㅜㅈㅓ": 7430,
  "ㅈㅜㅈㅓㅇ": 7431,
  "ㅈㅜㅈㅓㅇㅏㄵ": 7432,
  "ㅈㅜㅈㅓㅇㅏㄵㅇㅏㅅㅓ</w>": 7433,
  "ㅈㅜㅈㅣ</w>": 7434,
  "ㅈㅟ": 7435,
  "ㅈㅟ</w>": 7436,
  "ㅈㅟㄱㅗ</w>": 7437,
  "ㅈㅟㄴ</w>": 7438,
  "ㅈㅟㄴㅡㄴ</w>": 7439,
  "ㅈㅟㄹㅡㄹ</w>": 7440,
  "ㅈㅟㅇㅓ": 7441,
  "ㅈㅟㅇㅓ</w>": 7442,
  "ㅈㅡ": 7443,
  "ㅈㅡ'": 7444,
  "ㅈㅡㄱ</w>": 7445,
  "ㅈㅡㄱㅅㅣ</w>": 7446,
  "ㅈㅡㄹ": 7447,
  "ㅈㅡㄹㄱㅓ": 7448,
  "ㅈㅡㄹㄱㅓㅂㄱㅔ</w>": 7449,
  "ㅈㅡㄹㄱㅓㅂㄱㅗ</w>": 7450,
  "ㅈㅡㄹㄱㅓㅇㅜㄴ</w>": 7451,
  "ㅈㅡㄹㄱㅓㅇㅜㅁㅇㅡㄹㅗ</w>": 7452,
  "ㅈㅡㅇ": 7453,
  "ㅈㅡㅇㄱㅓ": 7454,
  "ㅈㅡㅇㄱㅓㄱㅏ</w>": 7455,
  "ㅈㅡㅇㅇㅡㄹ</w>": 7456,
  "ㅈㅡㅇㅇㅣ</w>": 7457,
  "ㅈㅣ": 7458,
  "ㅈㅣ!”</w>": 7459,
  "ㅈㅣ,</w>": 7460,
  "ㅈㅣ.</w>": 7461,
  "ㅈㅣ.”</w>": 7462,
  "ㅈㅣ</w>": 7463,
  "ㅈㅣ?</w>": 7464,
  "ㅈㅣ?”</w>": 7465,
  "ㅈㅣ”</w>": 7466,
  "ㅈㅣㄱ": 7467,
  "ㅈㅣㄱ</w>": 7468,
  "ㅈㅣㄱㄱㅗㅇ": 7469,
  "ㅈㅣㄱㅇㅓㅂㅇㅣ</w>": 7470,
  "ㅈㅣㄱㅎㅏㄴ</w>": 7471,
  "ㅈㅣㄱㅏ</w>": 7472,
  "ㅈㅣㄱㅏㄱ</w>": 7473,
  "ㅈㅣㄱㅏㄱㅇㅡㄹ</w>": 7474,
  "ㅈㅣㄱㅏㄱㅎㅏㄴ</w>": 7475,
  "ㅈㅣㄱㅔ</w>": 7476,
  "ㅈㅣㄱㅕㅇㅇㅔ</w>": 7477,
  "ㅈㅣㄱㅕㅇㅇㅡㄹ</w>": 7478,
  "ㅈㅣㄱㅗ</w>": 7479,
  "ㅈㅣㄱㅜ</w>": 7480,
  "ㅈㅣㄱㅡㅁ": 7481,
  "ㅈㅣㄱㅡㅁ</w>": 7482,
  "ㅈㅣㄱㅡㅁㄲㅏㅈㅣ</w>": 7483,
  "ㅈㅣㄱㅡㅁㅇㅡㄴ</w>": 7484,
  "ㅈㅣㄱㅡㅁㅇㅡㄹㅗㅂㅜㅌㅓ</w>": 7485,
  "ㅈㅣㄱㅡㅁㅇㅢ</w>": 7486,
  "ㅈㅣㄱㅡㅁㅇㅣㄹㅏㄷㅗ</w>": 7487,
  "ㅈㅣㄱㅡㅁㅉㅡㅁㅇㅡㄴ</w>": 7488,
  "ㅈㅣㄴ": 7489,
  "ㅈㅣㄴ</w>": 7490,
  "ㅈㅣㄴㄱㅣ": 7491,
  "ㅈㅣㄴㄷㅏ.</w>": 7492,
  "ㅈㅣㄴㄷㅏㄹㄹㅐ": 7493,
  "ㅈㅣㄴㄷㅏㄹㄹㅐ</w>": 7494,
  "ㅈㅣㄴㄷㅏㄹㄹㅐㄲㅗㅊㅇㅡㄹ</w>": 7495,
  "ㅈㅣㄴㄷㅏㄹㄹㅐㄲㅗㅊㅇㅣ</w>": 7496,
  "ㅈㅣㄴㅅㅜ": 7497,
  "ㅈㅣㄴㅅㅜ</w>": 7498,
  "ㅈㅣㄴㅅㅜㄱㅏ</w>": 7499,
  "ㅈㅣㄴㅅㅜㄴ": 7500,
  "ㅈㅣㄴㅅㅜㄴㅡㄴ</w>": 7501,
  "ㅈㅣㄴㅅㅜㅇㅢ</w>": 7502,
  "ㅈㅣㄴㅈㅏㄱ</w>": 7503,
  "ㅈㅣㄴㅈㅓㅇ": 7504,
  "ㅈㅣㄴㅈㅓㅇㅅㅣㅋㅣ": 7505,
  "ㅈㅣㄴㅏ": 7506,
  "ㅈㅣㄴㅏ</w>": 7507,
  "ㅈㅣㄴㅏㄱㅏ": 7508,
  "ㅈㅣㄴㅏㄱㅏㄴ</w>": 7509,
  "ㅈㅣㄴㅏㄱㅏㄴㅡㄴ</w>": 7510,
  "ㅈㅣㄴㅏㄱㅏㄷㅓㄴ</w>": 7511,
  "ㅈㅣㄴㅏㄴ</w>": 7512,
  "ㅈㅣㄴㅏㅅㅓ</w>": 7513,
  "ㅈㅣㄴㅏㅊㅕ</w>": 7514,
  "ㅈㅣㄴㅐ": 7515,
  "ㅈㅣㄴㅐ</w>": 7516,
  "ㅈㅣㄴㅐㄷㅓㄴ</w>": 7517,
  "ㅈㅣㄴㅐㅅㅣ": 7518,
  "ㅈㅣㄴㅐㅆ": 7519,
  "ㅈㅣㄴㅐㅆㅅㅡㅂㄴㅣㄷㅏ.</w>": 7520,
  "ㅈㅣㄴㅐㅇ": 7521,
  "ㅈㅣㄴㅡㄴ</w>": 7522,
  "ㅈㅣㄴㅡㄹㅓ": 7523,
  "ㅈㅣㄷㅗ</w>": 7524,
  "ㅈㅣㄷㅗㄹㅗㄱ</w>": 7525,
  "ㅈㅣㄹ": 7526,
  "ㅈㅣㄹ</w>": 7527,
  "ㅈㅣㄹㄷㅗ</w>": 7528,
  "ㅈㅣㄹㄹㅓ": 7529,
  "ㅈㅣㄹㄹㅓ</w>": 7530,
  "ㅈㅣㄹㄹㅓㅆㅅㅡㅂㄴㅣㄷㅏ.</w>": 7531,
  "ㅈㅣㄹㄹㅗ</w>": 7532,
  "ㅈㅣㄹㅇㅡㄹ</w>": 7533,
  "ㅈㅣㄹㅈㅣㄹ</w>": 7534,
  "ㅈㅣㄹㅍㅓㄱ": 7535,
  "ㅈㅣㄹㅎㅏㄹㅓ</w>": 7536,
  "ㅈㅣㄹㅏ": 7537,
  "ㅈㅣㄹㅏㄴㅡㄴ</w>": 7538,
  "ㅈㅣㄹㅏㄹ": 7539,
  "ㅈㅣㄹㅏㄹㅂㅕㅇㅇㅡㄹ</w>": 7540,
  "ㅈㅣㄹㅓ": 7541,
  "ㅈㅣㄹㅗ</w>": 7542,
  "ㅈㅣㄹㅡ": 7543,
  "ㅈㅣㄹㅡㄱㅗ</w>": 7544,
  "ㅈㅣㄹㅡㄱㅗㄴㅡㄴ</w>": 7545,
  "ㅈㅣㄹㅡㄹ</w>": 7546,
  "ㅈㅣㄹㅡㅁㅕㄴㅅㅓ</w>": 7547,
  "ㅈㅣㄻ": 7548,
  "ㅈㅣㄻㅇㅓㅈㅣㄱㅗ</w>": 7549,
  "ㅈㅣㅁ": 7550,
  "ㅈㅣㅁ</w>": 7551,
  "ㅈㅣㅁㅁㅏ": 7552,
  "ㅈㅣㅁㅅㅡㅇ": 7553,
  "ㅈㅣㅁㅅㅡㅇㄷㅡㄹㄷㅗ</w>": 7554,
  "ㅈㅣㅁㅇㅣ</w>": 7555,
  "ㅈㅣㅁㅈㅏㄱ": 7556,
  "ㅈㅣㅁㅈㅏㄱ</w>": 7557,
  "ㅈㅣㅁㅈㅏㄱㅇㅣ</w>": 7558,
  "ㅈㅣㅁㅏㄴ": 7559,
  "ㅈㅣㅁㅏㄴ,</w>": 7560,
  "ㅈㅣㅁㅏㄴ</w>": 7561,
  "ㅈㅣㅁㅕ</w>": 7562,
  "ㅈㅣㅁㅕㄴㅅㅓ</w>": 7563,
  "ㅈㅣㅂ": 7564,
  "ㅈㅣㅂ</w>": 7565,
  "ㅈㅣㅂㄱㅘ</w>": 7566,
  "ㅈㅣㅂㄷㅗ</w>": 7567,
  "ㅈㅣㅂㅇㅏㄴ": 7568,
  "ㅈㅣㅂㅇㅏㄴ</w>": 7569,
  "ㅈㅣㅂㅇㅏㄴㅅㅏㄹㅏㅁㅇㅣ</w>": 7570,
  "ㅈㅣㅂㅇㅏㄴㅇㅔㅅㅓ</w>": 7571,
  "ㅈㅣㅂㅇㅏㄴㅇㅡㄴ</w>": 7572,
  "ㅈㅣㅂㅇㅏㄴㅇㅣ</w>": 7573,
  "ㅈㅣㅂㅇㅓ": 7574,
  "ㅈㅣㅂㅇㅓ</w>": 7575,
  "ㅈㅣㅂㅇㅓㄱㅏㄴ</w>": 7576,
  "ㅈㅣㅂㅇㅓㄱㅏㅆ": 7577,
  "ㅈㅣㅂㅇㅓㄱㅏㅆㄷㅏ": 7578,
  "ㅈㅣㅂㅇㅓㄱㅏㅈㅣㄱㅗ</w>": 7579,
  "ㅈㅣㅂㅇㅓㄴㅓㅎㄱㅗ</w>": 7580,
  "ㅈㅣㅂㅇㅓㄷㅓㄴㅈㅣㄱㅗ</w>": 7581,
  "ㅈㅣㅂㅇㅓㅅㅓ</w>": 7582,
  "ㅈㅣㅂㅇㅓㅆ": 7583,
  "ㅈㅣㅂㅇㅔ</w>": 7584,
  "ㅈㅣㅂㅇㅔㄲㅏㅈㅣ</w>": 7585,
  "ㅈㅣㅂㅇㅔㄴ</w>": 7586,
  "ㅈㅣㅂㅇㅔㄷㅏ</w>": 7587,
  "ㅈㅣㅂㅇㅔㅅㅓ</w>": 7588,
  "ㅈㅣㅂㅇㅔㅅㅓㄴㅡㄴ</w>": 7589,
  "ㅈㅣㅂㅇㅡㄴ</w>": 7590,
  "ㅈㅣㅂㅇㅡㄹ</w>": 7591,
  "ㅈㅣㅂㅇㅡㄹㅗ</w>": 7592,
  "ㅈㅣㅂㅇㅢ</w>": 7593,
  "ㅈㅣㅂㅇㅣ": 7594,
  "ㅈㅣㅂㅇㅣ</w>": 7595,
  "ㅈㅣㅂㅜ": 7596,
  "ㅈㅣㅂㅜㅇ</w>": 7597,
  "ㅈㅣㅂㅜㅇㅇㅔㄴㅏ</w>": 7598,
  "ㅈㅣㅅ": 7599,
  "ㅈㅣㅅ</w>": 7600,
  "ㅈㅣㅅㄱㅗ</w>": 7601,
  "ㅈㅣㅅㅂㅏㄼㅎㅕ": 7602,
  "ㅈㅣㅅㅇㅡㄹ</w>": 7603,
  "ㅈㅣㅅㅇㅣ</w>": 7604,
  "ㅈㅣㅅㅣ</w>": 7605,
  "ㅈㅣㅇ": 7606,
  "ㅈㅣㅇㅓ": 7607,
  "ㅈㅣㅇㅓ</w>": 7608,
  "ㅈㅣㅇㅓㄴ": 7609,
  "ㅈㅣㅇㅓㅆㄷㅏ.</w>": 7610,
  "ㅈㅣㅇㅔ</w>": 7611,
  "ㅈㅣㅇㅔㅅㅓ</w>": 7612,
  "ㅈㅣㅇㅕㅆㅅㅡㅂㄴㅣㄷㅏ.</w>": 7613,
  "ㅈㅣㅇㅗㄱ": 7614,
  "ㅈㅣㅇㅗㄱㅇㅔ</w>": 7615,
  "ㅈㅣㅇㅗㄱㅇㅡㄹ</w>": 7616,
  "ㅈㅣㅇㅗㄱㅇㅢ</w>": 7617,
  "ㅈㅣㅇㅛ.</w>": 7618,
  "ㅈㅣㅇㅛ.”</w>": 7619,
  "ㅈㅣㅇㅝㄴ": 7620,
  "ㅈㅣㅇㅡㄴ</w>": 7621,
  "ㅈㅣㅇㅢ</w>": 7622,
  "ㅈㅣㅈ": 7623,
  "ㅈㅣㅈㅣ</w>": 7624,
  "ㅈㅣㅋㅕ": 7625,
  "ㅈㅣㅋㅣ": 7626,
  "ㅈㅣㅋㅣㄱㅗ</w>": 7627,
  "ㅈㅣㅋㅣㄴㅡㄴ</w>": 7628,
  "ㅈㅣㅍ": 7629,
  "ㅈㅣㅍㅇㅓ</w>": 7630,
  "ㅈㅣㅍㅖ": 7631,
  "ㅈㅣㅎㅑㅇㅇㅓㅄㅇㅣ</w>": 7632,
  "ㅉ": 7633,
  "ㅉㅏ": 7634,
  "ㅉㅏㄱ": 7635,
  "ㅉㅏㄱ</w>": 7636,
  "ㅉㅏㄱㅇㅡㄹ</w>": 7637,
  "ㅉㅏㄱㅇㅣ</w>": 7638,
  "ㅉㅏㄹㅣ</w>": 7639,
  "ㅉㅏㄼㅇㅡㄴ</w>": 7640,
  "ㅉㅐ": 7641,
  "ㅉㅐ</w>": 7642,
  "ㅉㅓ": 7643,
  "ㅉㅓㄱ": 7644,
  "ㅉㅓㄱ</w>": 7645,
  "ㅉㅓㄹ": 7646,
  "ㅉㅗ": 7647,
  "ㅉㅗㄱ": 7648,
  "ㅉㅗㄱ</w>": 7649,
  "ㅉㅗㄱㅇㅔ</w>": 7650,
  "ㅉㅗㄱㅇㅔㅅㅓ</w>": 7651,
  "ㅉㅗㄱㅇㅡㄹ</w>": 7652,
  "ㅉㅗㄱㅇㅡㄹㅗ</w>": 7653,
  "ㅉㅗㄱㅇㅡㄹㅗㄴㅡㄴ</w>": 7654,
  "ㅉㅗㄱㅈㅣㄱㅏ</w>": 7655,
  "ㅉㅗㄱㅐㄴㅗㅎ": 7656,
  "ㅉㅗㄱㅐㅈㅕㅆㅅㅡㅂㄴㅣㄷㅏ.</w>": 7657,
  "ㅉㅗㄱㅐㅈㅣㄴ</w>": 7658,
  "ㅉㅗㄴㅡㄴ</w>": 7659,
  "ㅉㅗㄹㅡㄹㅡ</w>": 7660,
  "ㅉㅗㅇㅏㅆㄷㅏ.</w>": 7661,
  "ㅉㅗㅊ": 7662,
  "ㅉㅗㅊㅇㅏ": 7663,
  "ㅉㅗㅊㅇㅏ</w>": 7664,
  "ㅉㅘㄱ": 7665,
  "ㅉㅘㄱ</w>": 7666,
  "ㅉㅜ": 7667,
  "ㅉㅜㄱ</w>": 7668,
  "ㅉㅡㅁ": 7669,
  "ㅉㅡㅁ</w>": 7670,
  "ㅉㅡㅁㅇㅡㄴ</w>": 7671,
  "ㅉㅣ": 7672,
  "ㅉㅣㄱ": 7673,
  "ㅉㅣㄱㅎㅏㄴ</w>": 7674,
  "ㅉㅣㄹ": 7675,
  "ㅉㅣㄹㅡㄱㅗ</w>": 7676,
  "ㅉㅣㄹㅡㄹ": 7677,
  "ㅉㅣㅇ": 7678,
  "ㅉㅣㅈ": 7679,
  "ㅉㅣㅈㅇㅓㅈㅕㅅㅓ</w>": 7680,
  "ㅉㅣㅍㅜㄹ": 7681,
  "ㅊ": 7682,
  "ㅊㅏ": 7683,
  "ㅊㅏ</w>": 7684,
  "ㅊㅏㄱ": 7685,
  "ㅊㅏㄱㅎㅏㄱㅗ</w>": 7686,
  "ㅊㅏㄱㅎㅏㄴ</w>": 7687,
  "ㅊㅏㄱㅏ</w>": 7688,
  "ㅊㅏㄱㅗ</w>": 7689,
  "ㅊㅏㄴ": 7690,
  "ㅊㅏㄴ</w>": 7691,
  "ㅊㅏㄴㄹㅏㄴ": 7692,
  "ㅊㅏㄴㄹㅏㄴㅎㅏㄴ</w>": 7693,
  "ㅊㅏㄴㅡㄴ</w>": 7694,
  "ㅊㅏㄶ": 7695,
  "ㅊㅏㄷㅏ.</w>": 7696,
  "ㅊㅏㄷㅗ</w>": 7697,
  "ㅊㅏㄹ": 7698,
  "ㅊㅏㄹㅏㄹㅣ</w>": 7699,
  "ㅊㅏㄹㅕ": 7700,
  "ㅊㅏㄹㅕ</w>": 7701,
  "ㅊㅏㄹㅖ": 7702,
  "ㅊㅏㄹㅡㄹ</w>": 7703,
  "ㅊㅏㄹㅣ": 7704,
  "ㅊㅏㄹㅣㄱㅗ</w>": 7705,
  "ㅊㅏㅁ": 7706,
  "ㅊㅏㅁ</w>": 7707,
  "ㅊㅏㅁㄱㅗ</w>": 7708,
  "ㅊㅏㅁㄴㅡㄴ</w>": 7709,
  "ㅊㅏㅁㄴㅡㄹㅏㄱㅗ</w>": 7710,
  "ㅊㅏㅁㄷㅚㄴ</w>": 7711,
  "ㅊㅏㅁㅁㅏㄹ</w>": 7712,
  "ㅊㅏㅁㅁㅏㄹㄹㅗ</w>": 7713,
  "ㅊㅏㅁㅅㅐ": 7714,
  "ㅊㅏㅁㅇㅏ": 7715,
  "ㅊㅏㅁㅇㅏ</w>": 7716,
  "ㅊㅏㅁㅇㅏㅆ": 7717,
  "ㅊㅏㅁㅇㅏㅆㄷㅓㄴ</w>": 7718,
  "ㅊㅏㅁㅇㅏㅆㅅㅡㅂㄴㅣㄷㅏ.</w>": 7719,
  "ㅊㅏㅁㅇㅏㅇㅑ</w>": 7720,
  "ㅊㅏㅁㅇㅡㄹ</w>": 7721,
  "ㅊㅏㅁㅇㅡㄹㅗ</w>": 7722,
  "ㅊㅏㅁㅈㅣ</w>": 7723,
  "ㅊㅏㅁㅏ</w>": 7724,
  "ㅊㅏㅁㅕㄴㅅㅓ</w>": 7725,
  "ㅊㅏㅅ": 7726,
  "ㅊㅏㅅㅓ</w>": 7727,
  "ㅊㅏㅇ": 7728,
  "ㅊㅏㅇ</w>": 7729,
  "ㅊㅏㅇㅅㅜ": 7730,
  "ㅊㅏㅇㅅㅜㄱㅏ</w>": 7731,
  "ㅊㅏㅇㅅㅜㄴㅡㄴ</w>": 7732,
  "ㅊㅏㅇㅅㅜㄹㅡㄹ</w>": 7733,
  "ㅊㅏㅇㅅㅜㅇㅢ</w>": 7734,
  "ㅊㅏㅇㅇㅔ</w>": 7735,
  "ㅊㅏㅇㅇㅡㄹㅗ</w>": 7736,
  "ㅊㅏㅇㅔ</w>": 7737,
  "ㅊㅏㅇㅘ</w>": 7738,
  "ㅊㅏㅈ": 7739,
  "ㅊㅏㅈㄱㅗ</w>": 7740,
  "ㅊㅏㅈㄴㅡㄴ</w>": 7741,
  "ㅊㅏㅈㅇㅏ": 7742,
  "ㅊㅏㅈㅇㅏ</w>": 7743,
  "ㅊㅏㅈㅇㅏㄱㅏ": 7744,
  "ㅊㅏㅈㅇㅏㄱㅏㅆㅅㅡㅂㄴㅣㄷㅏ.</w>": 7745,
  "ㅊㅏㅈㅇㅏㅂㅗㄱㅗ</w>": 7746,
  "ㅊㅏㅈㅇㅏㅂㅗㄹ</w>": 7747,
  "ㅊㅏㅈㅇㅏㅅㅓ</w>": 7748,
  "ㅊㅏㅈㅇㅏㅆㅇㅡㄴㅏ</w>": 7749,
  "ㅊㅏㅈㅇㅏㅇㅗㄴ</w>": 7750,
  "ㅊㅏㅈㅇㅏㅇㅗㄴㅡㄴ</w>": 7751,
  "ㅊㅏㅈㅇㅏㅇㅘㅅㅓ</w>": 7752,
  "ㅊㅏㅈㅇㅏㅇㅘㅆㄷㅏ.</w>": 7753,
  "ㅊㅏㅈㅇㅡㄴ</w>": 7754,
  "ㅊㅏㅈㅇㅡㄹ</w>": 7755,
  "ㅊㅏㅈㅣㅎㅏㄱㅔ</w>": 7756,
  "ㅊㅏㅊㅡㅁ": 7757,
  "ㅊㅏㅊㅡㅁ</w>": 7758,
  "ㅊㅏㅊㅡㅁㅊㅏㅊㅡㅁ</w>": 7759,
  "ㅊㅏㅍㅛ": 7760,
  "ㅊㅏㅍㅛㄹㅡㄹ</w>": 7761,
  "ㅊㅐ": 7762,
  "ㅊㅐ</w>": 7763,
  "ㅊㅐㄱ": 7764,
  "ㅊㅐㄱ</w>": 7765,
  "ㅊㅐㄱㅂㅗㄹㅡㄹ</w>": 7766,
  "ㅊㅐㄱㅅㅏㅇ": 7767,
  "ㅊㅐㄱㅅㅏㅇ</w>": 7768,
  "ㅊㅐㄱㅅㅏㅇㅂㅗ</w>": 7769,
  "ㅊㅐㄱㅅㅏㅇㅇㅔ</w>": 7770,
  "ㅊㅐㄱㅇㅡㄹ</w>": 7771,
  "ㅊㅐㄱㅇㅣ": 7772,
  "ㅊㅐㄱㅗ</w>": 7773,
  "ㅊㅐㄹㅗ</w>": 7774,
  "ㅊㅐㅇ": 7775,
  "ㅊㅓ": 7776,
  "ㅊㅓ</w>": 7777,
  "ㅊㅓㄱ": 7778,
  "ㅊㅓㄱ</w>": 7779,
  "ㅊㅓㄱㅎㅏㄱㅗ": 7780,
  "ㅊㅓㄱㅎㅏㄱㅗ</w>": 7781,
  "ㅊㅓㄴ": 7782,
  "ㅊㅓㄴ</w>": 7783,
  "ㅊㅓㄴㄷㅜㅇ</w>": 7784,
  "ㅊㅓㄴㅇㅕㄴ": 7785,
  "ㅊㅓㄴㅈㅏㅇㅇㅡㄹ</w>": 7786,
  "ㅊㅓㄴㅈㅐ</w>": 7787,
  "ㅊㅓㄴㅊㅓㄴㅎㅣ</w>": 7788,
  "ㅊㅓㄴㅕ": 7789,
  "ㅊㅓㄴㅕㅇㅢ</w>": 7790,
  "ㅊㅓㄹ": 7791,
  "ㅊㅓㄹ</w>": 7792,
  "ㅊㅓㄹㄱㅛㄹㅡㄹ</w>": 7793,
  "ㅊㅓㄹㅊㅐㄱ</w>": 7794,
  "ㅊㅓㄹㅓㅁ</w>": 7795,
  "ㅊㅓㅁ": 7796,
  "ㅊㅓㅁㅈㅣㅇㅢ</w>": 7797,
  "ㅊㅓㅂ": 7798,
  "ㅊㅓㅂ</w>": 7799,
  "ㅊㅓㅂㅇㅔ</w>": 7800,
  "ㅊㅓㅂㅊㅓㅂ": 7801,
  "ㅊㅓㅅ": 7802,
  "ㅊㅓㅅ</w>": 7803,
  "ㅊㅓㅅㅉㅐ": 7804,
  "ㅊㅓㅅㅉㅐ</w>": 7805,
  "ㅊㅓㅅㅉㅐㄹㅗ</w>": 7806,
  "ㅊㅓㅇ": 7807,
  "ㅊㅓㅇㅇㅡㄹ</w>": 7808,
  "ㅊㅓㅇㅡㅁ": 7809,
  "ㅊㅓㅇㅡㅁ</w>": 7810,
  "ㅊㅓㅇㅡㅁㅇㅔㄴㅡㄴ</w>": 7811,
  "ㅊㅓㅇㅡㅁㅇㅡㄹㅗ</w>": 7812,
  "ㅊㅓㅈㅣㅇㅔ</w>": 7813,
  "ㅊㅔ": 7814,
  "ㅊㅔ</w>": 7815,
  "ㅊㅔㄹㅡㄹ</w>": 7816,
  "ㅊㅔㅁㅕㄴ": 7817,
  "ㅊㅔㅊㅟ": 7818,
  "ㅊㅔㅊㅟㄴㅡㄴ</w>": 7819,
  "ㅊㅔㅎㅏㄱㅗ</w>": 7820,
  "ㅊㅔㅎㅏㄴㅡㄴ</w>": 7821,
  "ㅊㅕ": 7822,
  "ㅊㅕ</w>": 7823,
  "ㅊㅕㄷㅏㅂㅗ": 7824,
  "ㅊㅕㄷㅏㅂㅗㄱㅗ</w>": 7825,
  "ㅊㅕㄷㅏㅂㅗㄴㅣㄲㅏㄴ</w>": 7826,
  "ㅊㅕㄷㅏㅂㅗㅇㅏㅆㄷㅏ.</w>": 7827,
  "ㅊㅕㄷㅡㄹㅇㅓ</w>": 7828,
  "ㅊㅕㅅㅓ</w>": 7829,
  "ㅊㅕㅆ": 7830,
  "ㅊㅕㅆㄷㅏ.</w>": 7831,
  "ㅊㅕㅆㅅㅡㅂㄴㅣㄷㅏ.</w>": 7832,
  "ㅊㅗ": 7833,
  "ㅊㅗ</w>": 7834,
  "ㅊㅗㄱ": 7835,
  "ㅊㅗㄴ": 7836,
  "ㅊㅗㄴ</w>": 7837,
  "ㅊㅗㄹ": 7838,
  "ㅊㅗㄹㅗㄱ": 7839,
  "ㅊㅗㅅㅈㅓ": 7840,
  "ㅊㅗㅇ": 7841,
  "ㅊㅗㅇㅁㅕㅇ": 7842,
  "ㅊㅗㅇㅊㅗㅇ": 7843,
  "ㅊㅗㅈㅗ": 7844,
  "ㅊㅗㅈㅗㅎㅏㄴ</w>": 7845,
  "ㅊㅚ": 7846,
  "ㅊㅚ</w>": 7847,
  "ㅊㅚㅂㅕㅇㅎㅘ</w>": 7848,
  "ㅊㅚㅎㅜㅇㅢ</w>": 7849,
  "ㅊㅜ": 7850,
  "ㅊㅜ</w>": 7851,
  "ㅊㅜㄱ": 7852,
  "ㅊㅜㄱ</w>": 7853,
  "ㅊㅜㄱㅗ</w>": 7854,
  "ㅊㅜㄱㅡㄴ": 7855,
  "ㅊㅜㄴ</w>": 7856,
  "ㅊㅜㄹ": 7857,
  "ㅊㅜㄹㄹㅓㅇ": 7858,
  "ㅊㅜㄹㅕ": 7859,
  "ㅊㅜㄹㅕㅁ": 7860,
  "ㅊㅜㅁㅇㅡㄹ</w>": 7861,
  "ㅊㅜㅁㅊㅜ": 7862,
  "ㅊㅜㅁㅊㅜㄴㅡㄴ</w>": 7863,
  "ㅊㅜㅁㅕㄴㅅㅓ</w>": 7864,
  "ㅊㅜㅂㄱㅗ</w>": 7865,
  "ㅊㅜㅇ": 7866,
  "ㅊㅜㅇ</w>": 7867,
  "ㅊㅜㅇㄱㅣㄹ": 7868,
  "ㅊㅜㅇㄱㅣㄹㅇㅣ": 7869,
  "ㅊㅜㅇㄱㅣㄹㅇㅣㄴㅡㄴ</w>": 7870,
  "ㅊㅜㅇㄱㅣㄹㅇㅣㅇㅢ</w>": 7871,
  "ㅊㅜㅇㅓ</w>": 7872,
  "ㅊㅜㅇㅓㅌㅏㅇㅇㅡㄹ</w>": 7873,
  "ㅊㅝ": 7874,
  "ㅊㅟ": 7875,
  "ㅊㅟㅎㅏㄴ</w>": 7876,
  "ㅊㅡㄱ": 7877,
  "ㅊㅡㅇ</w>": 7878,
  "ㅊㅣ": 7879,
  "ㅊㅣ</w>": 7880,
  "ㅊㅣㄱㅏ</w>": 7881,
  "ㅊㅣㄱㅔ</w>": 7882,
  "ㅊㅣㄱㅗ</w>": 7883,
  "ㅊㅣㄴ": 7884,
  "ㅊㅣㄴ</w>": 7885,
  "ㅊㅣㄴㄱㅜ</w>": 7886,
  "ㅊㅣㄴㄱㅜㄹㅡㄹ</w>": 7887,
  "ㅊㅣㄴㄷㅏ.</w>": 7888,
  "ㅊㅣㄴㅇㅏㅂㅓㅈㅣ": 7889,
  "ㅊㅣㄴㅇㅓㅁㅓㄴㅣㅇㅘ</w>": 7890,
  "ㅊㅣㄴㅈㅓㄹ": 7891,
  "ㅊㅣㄴㅡㄴ</w>": 7892,
  "ㅊㅣㄴㅣ</w>": 7893,
  "ㅊㅣㄷㅗㄹㅗㄱ</w>": 7894,
  "ㅊㅣㄹ": 7895,
  "ㅊㅣㄹ</w>": 7896,
  "ㅊㅣㄹㅛ": 7897,
  "ㅊㅣㄹㅛㄹㅡㄹ</w>": 7898,
  "ㅊㅣㄹㅡㄹ</w>": 7899,
  "ㅊㅣㅁ": 7900,
  "ㅊㅣㅁ</w>": 7901,
  "ㅊㅣㅁㄷㅐ</w>": 7902,
  "ㅊㅣㅁㅁㅜㄱㅇㅡㄹ</w>": 7903,
  "ㅊㅣㅁㅇㅣ</w>": 7904,
  "ㅊㅣㅁㅊㅣㅁ": 7905,
  "ㅊㅣㅁㅊㅣㅁㅎㅏㄴ</w>": 7906,
  "ㅊㅣㅁㅏ": 7907,
  "ㅊㅣㅁㅏ</w>": 7908,
  "ㅊㅣㅁㅏㄹㅡㄹ</w>": 7909,
  "ㅊㅣㅁㅕ</w>": 7910,
  "ㅊㅣㅁㅕㄴ</w>": 7911,
  "ㅊㅣㅁㅕㄴㅅㅓ</w>": 7912,
  "ㅊㅣㅁㅣㄹ": 7913,
  "ㅊㅣㅅ": 7914,
  "ㅊㅣㅅㅏㅁ": 7915,
  "ㅊㅣㅅㅏㅁㅇㅡㄴ</w>": 7916,
  "ㅊㅣㅅㅏㅁㅇㅢ</w>": 7917,
  "ㅊㅣㅅㅜㄴ": 7918,
  "ㅊㅣㅅㅜㄴㅇㅣㄱㅏ</w>": 7919,
  "ㅊㅣㅇ": 7920,
  "ㅊㅣㅇㅊㅏㄴ": 7921,
  "ㅊㅣㅇㅊㅏㄴㅇㅡㄹ</w>": 7922,
  "ㅊㅣㅇㅊㅣㅇ</w>": 7923,
  "ㅊㅣㅇㅓㅆㄷㅏ.</w>": 7924,
  "ㅊㅣㅇㅝ": 7925,
  "ㅊㅣㅇㅣㄴ</w>": 7926,
  "ㅊㅣㅈㅣ</w>": 7927,
  "ㅋ": 7928,
  "ㅋㅏ": 7929,
  "ㅋㅏㄱ</w>": 7930,
  "ㅋㅏㄴ": 7931,
  "ㅋㅏㄴ</w>": 7932,
  "ㅋㅏㄹ": 7933,
  "ㅋㅏㄹ</w>": 7934,
  "ㅋㅏㄹㄴㅏㄹ</w>": 7935,
  "ㅋㅏㄹㄹㅗ</w>": 7936,
  "ㅋㅏㄹㅇㅡㄹ</w>": 7937,
  "ㅋㅏㅁ": 7938,
  "ㅋㅐ": 7939,
  "ㅋㅓ": 7940,
  "ㅋㅓㄴㅕㅇ</w>": 7941,
  "ㅋㅓㄷㅏㄹㅏㄴ</w>": 7942,
  "ㅋㅓㅁ": 7943,
  "ㅋㅓㅁㅋㅓㅁ": 7944,
  "ㅋㅓㅆ": 7945,
  "ㅋㅔ": 7946,
  "ㅋㅔ</w>": 7947,
  "ㅋㅔㅇ": 7948,
  "ㅋㅕ": 7949,
  "ㅋㅕ</w>": 7950,
  "ㅋㅕㅅㅓ</w>": 7951,
  "ㅋㅕㅈㅣㄴ</w>": 7952,
  "ㅋㅗ": 7953,
  "ㅋㅗ</w>": 7954,
  "ㅋㅗㄹㅡㄹ</w>": 7955,
  "ㅋㅗㅅ": 7956,
  "ㅋㅗㅇ": 7957,
  "ㅋㅘㄱ</w>": 7958,
  "ㅋㅘㅇ!</w>": 7959,
  "ㅋㅙ": 7960,
  "ㅋㅙㄱㅏㅁ": 7961,
  "ㅋㅙㄱㅏㅁ,</w>": 7962,
  "ㅋㅙㅈㅓㄱ": 7963,
  "ㅋㅜ": 7964,
  "ㅋㅜㄱ!</w>": 7965,
  "ㅋㅜㄹ": 7966,
  "ㅋㅜㄹㄹㅜㄱ": 7967,
  "ㅋㅡ": 7968,
  "ㅋㅡㄱㅔ</w>": 7969,
  "ㅋㅡㄱㅗ</w>": 7970,
  "ㅋㅡㄴ": 7971,
  "ㅋㅡㄴ</w>": 7972,
  "ㅋㅡㄴㅅㅗㄹㅣㄹㅗ</w>": 7973,
  "ㅋㅡㄴㅇㅣㄹ": 7974,
  "ㅋㅡㄴㅇㅣㄹ</w>": 7975,
  "ㅋㅡㄹ": 7976,
  "ㅋㅡㄹㅔ": 7977,
  "ㅋㅡㄹㅔㅇㅛㅇ": 7978,
  "ㅋㅡㄹㅔㅇㅛㅇㅇㅡㄴ</w>": 7979,
  "ㅋㅡㄹㅔㅇㅛㅇㅇㅡㄹ</w>": 7980,
  "ㅋㅡㅁ": 7981,
  "ㅋㅡㅁ</w>": 7982,
  "ㅋㅡㅁㅈㅣㄱㅎㅏㄴ</w>": 7983,
  "ㅋㅣ": 7984,
  "ㅋㅣ</w>": 7985,
  "ㅋㅣㄱ": 7986,
  "ㅋㅣㄱ</w>": 7987,
  "ㅌ": 7988,
  "ㅌ</w>": 7989,
  "ㅌㅏ": 7990,
  "ㅌㅏ</w>": 7991,
  "ㅌㅏㄱ": 7992,
  "ㅌㅏㄱ</w>": 7993,
  "ㅌㅏㄱㅜㄱ</w>": 7994,
  "ㅌㅏㄱㅜㄱㅏ</w>": 7995,
  "ㅌㅏㄱㅜㄹㅡㄹ</w>": 7996,
  "ㅌㅏㄴㅂㅗㄱ": 7997,
  "ㅌㅏㄴㅅㅣㄱ": 7998,
  "ㅌㅏㄴㅡㄴ</w>": 7999,
  "ㅌㅏㄹㅇㅣ</w>": 8000,
  "ㅌㅏㄺ": 8001,
  "ㅌㅏㄺㅇㅡㄴ</w>": 8002,
  "ㅌㅏㅁ": 8003,
  "ㅌㅏㅁㅈㅓㅇ": 8004,
  "ㅌㅏㅁㅈㅓㅇㅅㅗ": 8005,
  "ㅌㅏㅁㅈㅓㅇㅅㅗㅅㅓㄹ</w>": 8006,
  "ㅌㅏㅅ": 8007,
  "ㅌㅏㅅㅇㅡㄹㅗ</w>": 8008,
  "ㅌㅏㅅㅓ</w>": 8009,
  "ㅌㅏㅅㅣㄹㅏ": 8010,
  "ㅌㅏㅅㅣㄹㅏㅂㅅㅣㅇㅛ.”</w>": 8011,
  "ㅌㅏㅆㅅㅡㅂㄴㅣㄷㅏ.</w>": 8012,
  "ㅌㅏㅇ": 8013,
  "ㅌㅏㅇ</w>": 8014,
  "ㅌㅐ": 8015,
  "ㅌㅐㄷㅗㄴㅡㄴ</w>": 8016,
  "ㅌㅐㄷㅗㄹㅗ</w>": 8017,
  "ㅌㅐㄷㅗㄹㅡㄹ</w>": 8018,
  "ㅌㅐㅇ": 8019,
  "ㅌㅐㅇㅑㅇ": 8020,
  "ㅌㅐㅇㅓ": 8021,
  "ㅌㅐㅇㅕㄴ": 8022,
  "ㅌㅐㅇㅕㄴㅅㅡㄹㅓㅂㄱㅔ</w>": 8023,
  "ㅌㅐㅇㅜ": 8024,
  "ㅌㅐㅇㅜㄱㅔ</w>": 8025,
  "ㅌㅐㅇㅜㄱㅗ</w>": 8026,
  "ㅌㅐㅇㅝ": 8027,
  "ㅌㅐㅇㅝㄷㅏ</w>": 8028,
  "ㅌㅓ": 8029,
  "ㅌㅓ</w>": 8030,
  "ㅌㅓㄱ": 8031,
  "ㅌㅓㄱ</w>": 8032,
  "ㅌㅓㄱㅁㅣㅌ": 8033,
  "ㅌㅓㄱㅇㅔ</w>": 8034,
  "ㅌㅓㄹ": 8035,
  "ㅌㅓㄹㄱㅗ</w>": 8036,
  "ㅌㅓㄹㅌㅓㄹ": 8037,
  "ㅌㅓㅂㅓ": 8038,
  "ㅌㅓㅇ</w>": 8039,
  "ㅌㅓㅇㅣㄴㅣ.”</w>": 8040,
  "ㅌㅓㅇㅣㄴㅣ</w>": 8041,
  "ㅌㅓㅇㅣㄷㅏ.”</w>": 8042,
  "ㅌㅓㅈㅕ": 8043,
  "ㅌㅓㅈㅕㅅㅓ</w>": 8044,
  "ㅌㅔ": 8045,
  "ㅌㅔㄴㄷㅔ": 8046,
  "ㅌㅔㄴㄷㅔ......</w>": 8047,
  "ㅌㅔㄴㅑ?</w>": 8048,
  "ㅌㅔㄴㅑ?”</w>": 8049,
  "ㅌㅔㄴㅣ.”</w>": 8050,
  "ㅌㅔㄴㅣ</w>": 8051,
  "ㅌㅔㄷㅏ!”</w>": 8052,
  "ㅌㅔㄷㅏ.”</w>": 8053,
  "ㅌㅔㄹㅗ</w>": 8054,
  "ㅌㅗ": 8055,
  "ㅌㅗㄱ": 8056,
  "ㅌㅗㄹ": 8057,
  "ㅌㅗㅂ": 8058,
  "ㅌㅗㅇ": 8059,
  "ㅌㅗㅇ</w>": 8060,
  "ㅌㅗㅇㄱㅘㅎㅏㅈㅣ</w>": 8061,
  "ㅌㅗㅇㅇㅔ</w>": 8062,
  "ㅌㅗㅇㅎㅏㄴ</w>": 8063,
  "ㅌㅗㅇㅎㅐㅅㅓ</w>": 8064,
  "ㅌㅗㅇㅛㅇㅣㄹ": 8065,
  "ㅌㅜ": 8066,
  "ㅌㅜㄱ": 8067,
  "ㅌㅜㄱㅌㅜㄱ</w>": 8068,
  "ㅌㅜㅇ": 8069,
  "ㅌㅜㅇ</w>": 8070,
  "ㅌㅜㅇㅁㅕㅇㅅㅡㄹㅓㅂㄱㅔ</w>": 8071,
  "ㅌㅡ": 8072,
  "ㅌㅡ</w>": 8073,
  "ㅌㅡㄱㅂㅕㄹ": 8074,
  "ㅌㅡㄱㅂㅕㄹㅎㅣ</w>": 8075,
  "ㅌㅡㄴ": 8076,
  "ㅌㅡㄴㅌㅡㄴ": 8077,
  "ㅌㅡㄹ": 8078,
  "ㅌㅡㄹ</w>": 8079,
  "ㅌㅡㄹㄹㅣ": 8080,
  "ㅌㅡㄹㄹㅣㅁ": 8081,
  "ㅌㅡㄹㄹㅣㅁㅇㅓㅄ": 8082,
  "ㅌㅡㄹㄹㅣㅁㅇㅓㅄㄴㅡㄴ</w>": 8083,
  "ㅌㅡㄹㄹㅣㅁㅇㅓㅄㄷㅏ.</w>": 8084,
  "ㅌㅡㄹㄹㅣㅁㅇㅓㅄㅇㅓㅆㄷㅏ.</w>": 8085,
  "ㅌㅡㄹㄹㅣㅁㅇㅓㅄㅇㅡㄹㅣ": 8086,
  "ㅌㅡㄹㅇㅓ": 8087,
  "ㅌㅡㅁ": 8088,
  "ㅌㅡㅁㅇㅔ</w>": 8089,
  "ㅌㅡㅁㅇㅡㄹ</w>": 8090,
  "ㅌㅡㅁㅇㅡㄹㅗ</w>": 8091,
  "ㅌㅡㅁㅇㅣ</w>": 8092,
  "ㅌㅡㅁㅌㅡㅁㅇㅣ</w>": 8093,
  "ㅌㅣ": 8094,
  "ㅍ": 8095,
  "ㅍㅏ": 8096,
  "ㅍㅏ</w>": 8097,
  "ㅍㅏㄱ": 8098,
  "ㅍㅏㄴ": 8099,
  "ㅍㅏㄴㅇㅔ</w>": 8100,
  "ㅍㅏㄴㅇㅡㄹ</w>": 8101,
  "ㅍㅏㄴㅇㅣㅇㅓㅆㅅㅡㅂㄴㅣㄷㅏ.</w>": 8102,
  "ㅍㅏㄴㅈㅏㅇ</w>": 8103,
  "ㅍㅏㄴㅡㄴ</w>": 8104,
  "ㅍㅏㄹ": 8105,
  "ㅍㅏㄹ</w>": 8106,
  "ㅍㅏㄹㄱㅣㄹㅗ</w>": 8107,
  "ㅍㅏㄹㄹㅏㄱㅗ</w>": 8108,
  "ㅍㅏㄹㄹㅕㄱㅗ</w>": 8109,
  "ㅍㅏㄹㅅㅣㅂ</w>": 8110,
  "ㅍㅏㄹㅇㅏㅂㅓㄹㅣㄴㅡㄴ</w>": 8111,
  "ㅍㅏㄹㅇㅏㅅㅓ</w>": 8112,
  "ㅍㅏㄹㅇㅔ</w>": 8113,
  "ㅍㅏㄹㅇㅡㄹ</w>": 8114,
  "ㅍㅏㄹㅏㄴ</w>": 8115,
  "ㅍㅏㄹㅏㄷㅗㄱ": 8116,
  "ㅍㅏㄹㅏㅎㄱㅔ</w>": 8117,
  "ㅍㅏㄹㅣ": 8118,
  "ㅍㅏㅁㅜㄷ": 8119,
  "ㅍㅏㅁㅜㄷㄱㅗ</w>": 8120,
  "ㅍㅏㅁㅜㄷㅎㅕ</w>": 8121,
  "ㅍㅏㅇ": 8122,
  "ㅍㅏㅌ": 8123,
  "ㅍㅏㅎㅏㄴㅡㄴ</w>": 8124,
  "ㅍㅏㅎㅏㅇㅕ</w>": 8125,
  "ㅍㅐ": 8126,
  "ㅍㅐㄴㅡㄴ</w>": 8127,
  "ㅍㅐㄹㅡㄹ</w>": 8128,
  "ㅍㅐㅇ": 8129,
  "ㅍㅐㅇㅓㄴㅐ": 8130,
  "ㅍㅓ": 8131,
  "ㅍㅓㄱ": 8132,
  "ㅍㅓㄱ</w>": 8133,
  "ㅍㅓㄱㄷㅗ</w>": 8134,
  "ㅍㅓㄴ": 8135,
  "ㅍㅓㄹ": 8136,
  "ㅍㅓㄹㅉㅓㄱ</w>": 8137,
  "ㅍㅓㄹㅍㅓㄹ</w>": 8138,
  "ㅍㅓㅂㅜ": 8139,
  "ㅍㅓㅂㅜㅅ": 8140,
  "ㅍㅓㅂㅜㅇㅓ</w>": 8141,
  "ㅍㅓㅇㅍㅓㅇ</w>": 8142,
  "ㅍㅕ": 8143,
  "ㅍㅕ</w>": 8144,
  "ㅍㅕㄴ": 8145,
  "ㅍㅕㄴ</w>": 8146,
  "ㅍㅕㄴㅇㅏㄴ": 8147,
  "ㅍㅕㄴㅇㅏㄴㅎㅣ</w>": 8148,
  "ㅍㅕㄴㅇㅡㄴ</w>": 8149,
  "ㅍㅕㄴㅇㅡㄹ</w>": 8150,
  "ㅍㅕㄴㅇㅣ</w>": 8151,
  "ㅍㅕㄴㅈㅣ</w>": 8152,
  "ㅍㅕㄴㅈㅣㄱㅏ</w>": 8153,
  "ㅍㅕㄴㅈㅣㄹㅡㄹ</w>": 8154,
  "ㅍㅕㄴㅈㅣㅇㅕㅆㅅㅡㅂㄴㅣㄷㅏ.</w>": 8155,
  "ㅍㅕㄴㅎㅏㄱㅔ</w>": 8156,
  "ㅍㅕㄴㅎㅏㄴ</w>": 8157,
  "ㅍㅕㄴㅎㅣ</w>": 8158,
  "ㅍㅕㅇ": 8159,
  "ㅍㅕㅇㅇㅑㅇ": 8160,
  "ㅍㅕㅇㅇㅑㅇㄲㅏㅈㅣ</w>": 8161,
  "ㅍㅖ": 8162,
  "ㅍㅗ": 8163,
  "ㅍㅗ</w>": 8164,
  "ㅍㅗㄱ": 8165,
  "ㅍㅗㄱ</w>": 8166,
  "ㅍㅗㄱㅡㄴㅎㅏㄴ</w>": 8167,
  "ㅍㅗㄱㅡㄴㅎㅣ</w>": 8168,
  "ㅍㅗㄷㅗㅇ": 8169,
  "ㅍㅗㅇ": 8170,
  "ㅍㅗㅇㅜ": 8171,
  "ㅍㅗㅋㅔ": 8172,
  "ㅍㅗㅋㅔㅅ</w>": 8173,
  "ㅍㅗㅍㅡㄹ": 8174,
  "ㅍㅗㅍㅡㄹㄹㅓ": 8175,
  "ㅍㅗㅍㅡㄹㄹㅓㄴㅏㅁㅜ</w>": 8176,
  "ㅍㅛ": 8177,
  "ㅍㅛ</w>": 8178,
  "ㅍㅛㄹㅡㄹ</w>": 8179,
  "ㅍㅜ": 8180,
  "ㅍㅜㄱ</w>": 8181,
  "ㅍㅜㄱㅍㅜㄱ</w>": 8182,
  "ㅍㅜㄴ": 8183,
  "ㅍㅜㄴ</w>": 8184,
  "ㅍㅜㄷㅡ": 8185,
  "ㅍㅜㄷㅡㄷㅡㄱ</w>": 8186,
  "ㅍㅜㄷㅡㄷㅡㄱㅍㅜㄷㅡ": 8187,
  "ㅍㅜㄹ": 8188,
  "ㅍㅜㄹ</w>": 8189,
  "ㅍㅜㄹㄱㅣ</w>": 8190,
  "ㅍㅜㄹㅇㅓ": 8191,
  "ㅍㅜㄹㅇㅣ</w>": 8192,
  "ㅍㅜㄹㅇㅣㄹㅡㄹ</w>": 8193,
  "ㅍㅜㄹㅍㅣㄹㅣ</w>": 8194,
  "ㅍㅜㄹㅡㄴ</w>": 8195,
  "ㅍㅜㅁ": 8196,
  "ㅍㅜㅁ</w>": 8197,
  "ㅍㅜㅁㄱㅗ</w>": 8198,
  "ㅍㅜㅁㅇㅔ</w>": 8199,
  "ㅍㅜㅁㅇㅡㄴ</w>": 8200,
  "ㅍㅜㅁㅇㅡㄹ</w>": 8201,
  "ㅍㅜㅁㅇㅣ</w>": 8202,
  "ㅍㅜㅁㅎㅐㅇㅇㅣ</w>": 8203,
  "ㅍㅜㅅㅓㅇ": 8204,
  "ㅍㅜㅇ": 8205,
  "ㅍㅜㅇㄱㅣㄴㅡㄴ</w>": 8206,
  "ㅍㅜㅇㅅㅗㄱㅇㅡㄹ</w>": 8207,
  "ㅍㅡ": 8208,
  "ㅍㅡㄴ</w>": 8209,
  "ㅍㅡㄹ": 8210,
  "ㅍㅡㄹㄹㅐㅅ": 8211,
  "ㅍㅡㄹㄹㅐㅅㅍㅗㅁ": 8212,
  "ㅍㅡㅅㅡ": 8213,
  "ㅍㅣ": 8214,
  "ㅍㅣ</w>": 8215,
  "ㅍㅣㄱㅏ</w>": 8216,
  "ㅍㅣㄱㅔ</w>": 8217,
  "ㅍㅣㄱㅗㄴ": 8218,
  "ㅍㅣㄱㅗㄴㅎㅏㄴ</w>": 8219,
  "ㅍㅣㄱㅗㄴㅎㅏㅇㅕ</w>": 8220,
  "ㅍㅣㄱㅗㄴㅎㅐ</w>": 8221,
  "ㅍㅣㄱㅣ</w>": 8222,
  "ㅍㅣㄴ</w>": 8223,
  "ㅍㅣㄴㅡㄴ</w>": 8224,
  "ㅍㅣㄹ": 8225,
  "ㅍㅣㄹ</w>": 8226,
  "ㅍㅣㄹㅇㅕㅇ": 8227,
  "ㅍㅣㄹㅇㅕㅇㅇㅣㄷㅗ</w>": 8228,
  "ㅍㅣㄹㅇㅕㅇㅇㅣㅇㅓㅆㅅㅡㅂㄴㅣㄷㅏ.</w>": 8229,
  "ㅍㅣㄹㅇㅛ": 8230,
  "ㅍㅣㄹㅇㅛㄱㅏ</w>": 8231,
  "ㅍㅣㄹㅗ": 8232,
  "ㅍㅣㄹㅗㄹㅡㄹ</w>": 8233,
  "ㅍㅣㄹㅡㄹ</w>": 8234,
  "ㅍㅣㅁㅕㄴ</w>": 8235,
  "ㅍㅣㅇ": 8236,
  "ㅍㅣㅇ</w>": 8237,
  "ㅍㅣㅇㅓ</w>": 8238,
  "ㅍㅣㅇㅓㅅㅓ</w>": 8239,
  "ㅍㅣㅇㅓㅆ": 8240,
  "ㅍㅣㅇㅘ</w>": 8241,
  "ㅍㅣㅇㅝ": 8242,
  "ㅍㅣㅎㅐ</w>": 8243,
  "ㅎ": 8244,
  "ㅎㄱㅔ</w>": 8245,
  "ㅎㅏ": 8246,
  "ㅎㅏ</w>": 8247,
  "ㅎㅏㄱ": 8248,
  "ㅎㅏㄱ</w>": 8249,
  "ㅎㅏㄱㄱㅛ": 8250,
  "ㅎㅏㄱㄱㅛ</w>": 8251,
  "ㅎㅏㄱㄱㅛㄱㅏ</w>": 8252,
  "ㅎㅏㄱㄱㅛㄹㅗ</w>": 8253,
  "ㅎㅏㄱㄱㅛㄹㅡㄹ</w>": 8254,
  "ㅎㅏㄱㄱㅛㅅㅓ</w>": 8255,
  "ㅎㅏㄱㄱㅛㅇㅔ</w>": 8256,
  "ㅎㅏㄱㄱㅛㅇㅔㄹ</w>": 8257,
  "ㅎㅏㄱㄱㅛㅇㅔㅅㅓ</w>": 8258,
  "ㅎㅏㄱㄴㅕㄴ": 8259,
  "ㅎㅏㄱㄴㅕㄴ</w>": 8260,
  "ㅎㅏㄱㄴㅕㄴㄲㅏㅈㅣ</w>": 8261,
  "ㅎㅏㄱㄴㅕㄴㅇㅣ</w>": 8262,
  "ㅎㅏㄱㅂㅗㅇ": 8263,
  "ㅎㅏㄱㅂㅗㅇㅇㅣ</w>": 8264,
  "ㅎㅏㄱㅂㅗㅇㅇㅣㄱㅏ</w>": 8265,
  "ㅎㅏㄱㅂㅗㅇㅇㅣㄴㅡㄴ</w>": 8266,
  "ㅎㅏㄱㅂㅗㅇㅇㅣㄹㅡㄹ</w>": 8267,
  "ㅎㅏㄱㅂㅗㅇㅇㅣㅇㅢ</w>": 8268,
  "ㅎㅏㄱㅂㅜ": 8269,
  "ㅎㅏㄱㅂㅜㅎㅕㅇㄷㅗ</w>": 8270,
  "ㅎㅏㄱㅂㅣ</w>": 8271,
  "ㅎㅏㄱㅅㅐㅇ": 8272,
  "ㅎㅏㄱㅅㅐㅇ</w>": 8273,
  "ㅎㅏㄱㅅㅐㅇㄷㅡㄹㅇㅡㄴ</w>": 8274,
  "ㅎㅏㄱㅅㅐㅇㄷㅡㄹㅇㅡㄹ</w>": 8275,
  "ㅎㅏㄱㅅㅐㅇㅇㅡㄴ</w>": 8276,
  "ㅎㅏㄱㅅㅐㅇㅇㅡㄹ</w>": 8277,
  "ㅎㅏㄱㅅㅐㅇㅇㅡㄹㅗ</w>": 8278,
  "ㅎㅏㄱㅅㅐㅇㅇㅣ</w>": 8279,
  "ㅎㅏㄱㅇㅡㄹ</w>": 8280,
  "ㅎㅏㄱㅔ.</w>": 8281,
  "ㅎㅏㄱㅔ</w>": 8282,
  "ㅎㅏㄱㅔㄷㅗ</w>": 8283,
  "ㅎㅏㄱㅔㅆ": 8284,
  "ㅎㅏㄱㅔㅆㅇㅡㄴㅣㄲㅏ</w>": 8285,
  "ㅎㅏㄱㅔㅆㅈㅣㅁㅏㄴ</w>": 8286,
  "ㅎㅏㄱㅗ": 8287,
  "ㅎㅏㄱㅗ,</w>": 8288,
  "ㅎㅏㄱㅗ</w>": 8289,
  "ㅎㅏㄱㅗㄴㅡㄴ</w>": 8290,
  "ㅎㅏㄱㅗㄷㅗ</w>": 8291,
  "ㅎㅏㄱㅜ</w>": 8292,
  "ㅎㅏㄱㅣ</w>": 8293,
  "ㅎㅏㄱㅣㄱㅏ</w>": 8294,
  "ㅎㅏㄱㅣㄷㅗ</w>": 8295,
  "ㅎㅏㄱㅣㄹㅗ</w>": 8296,
  "ㅎㅏㄱㅣㄹㅡㄹ</w>": 8297,
  "ㅎㅏㄱㅣㅇㅔ</w>": 8298,
  "ㅎㅏㄴ": 8299,
  "ㅎㅏㄴ</w>": 8300,
  "ㅎㅏㄴㄱㅏ": 8301,
  "ㅎㅏㄴㄱㅏㅎㅣ</w>": 8302,
  "ㅎㅏㄴㄱㅓㄹ": 8303,
  "ㅎㅏㄴㄱㅕㄹ</w>": 8304,
  "ㅎㅏㄴㄱㅕㅌ": 8305,
  "ㅎㅏㄴㄱㅜㅅㅓㄱ": 8306,
  "ㅎㅏㄴㄱㅜㅅㅓㄱㅇㅔ</w>": 8307,
  "ㅎㅏㄴㄱㅜㅅㅓㄱㅇㅔㅅㅓ</w>": 8308,
  "ㅎㅏㄴㄲㅓㅂㅓㄴㅇㅔ</w>": 8309,
  "ㅎㅏㄴㄴㅏㄹㅎㅏㄴ": 8310,
  "ㅎㅏㄴㄷㅏ.</w>": 8311,
  "ㅎㅏㄴㄷㅏ.”</w>": 8312,
  "ㅎㅏㄴㄷㅏㄴㅡㄴ</w>": 8313,
  "ㅎㅏㄴㄷㅏㄹ": 8314,
  "ㅎㅏㄴㄷㅏㄹㅇㅡㅁㅇㅔ</w>": 8315,
  "ㅎㅏㄴㄷㅏㅁㅕㄴ</w>": 8316,
  "ㅎㅏㄴㄷㅔ</w>": 8317,
  "ㅎㅏㄴㄷㅗㅇㅇㅏㄴ</w>": 8318,
  "ㅎㅏㄴㅁㅏㄷㅣ": 8319,
  "ㅎㅏㄴㅁㅏㄷㅣ</w>": 8320,
  "ㅎㅏㄴㅁㅏㄷㅣㄹㅡㄹ</w>": 8321,
  "ㅎㅏㄴㅂㅏㅌㅏㅇ</w>": 8322,
  "ㅎㅏㄴㅂㅓㄴ</w>": 8323,
  "ㅎㅏㄴㅂㅓㄴㄷㅗ</w>": 8324,
  "ㅎㅏㄴㅂㅓㄴㅁㅏㄴ</w>": 8325,
  "ㅎㅏㄴㅂㅗㄱㅍㅏㄴㅇㅔ</w>": 8326,
  "ㅎㅏㄴㅅㅜㅁ</w>": 8327,
  "ㅎㅏㄴㅅㅜㅁㅇㅡㄹ</w>": 8328,
  "ㅎㅏㄴㅅㅣㄹㅏㄷㅗ</w>": 8329,
  "ㅎㅏㄴㅇㅓㅄㅇㅣ</w>": 8330,
  "ㅎㅏㄴㅇㅣ</w>": 8331,
  "ㅎㅏㄴㅈㅏㅁ</w>": 8332,
  "ㅎㅏㄴㅈㅣ</w>": 8333,
  "ㅎㅏㄴㅊㅏㅁ": 8334,
  "ㅎㅏㄴㅊㅏㅁ</w>": 8335,
  "ㅎㅏㄴㅊㅏㅇ</w>": 8336,
  "ㅎㅏㄴㅊㅡㅇ</w>": 8337,
  "ㅎㅏㄴㅌㅏㄴ": 8338,
  "ㅎㅏㄴㅌㅔ</w>": 8339,
  "ㅎㅏㄴㅍㅕㄴ</w>": 8340,
  "ㅎㅏㄴㅍㅕㄴㅇㅔ</w>": 8341,
  "ㅎㅏㄴㅍㅕㄴㅇㅡㄹㅗ</w>": 8342,
  "ㅎㅏㄴㅍㅕㄴㅇㅡㄹㅗㄴㅡㄴ</w>": 8343,
  "ㅎㅏㄴㅍㅜㄴ": 8344,
  "ㅎㅏㄴㅍㅜㄴㅆㅣㄱ</w>": 8345,
  "ㅎㅏㄴㅏ": 8346,
  "ㅎㅏㄴㅏ.</w>": 8347,
  "ㅎㅏㄴㅏ</w>": 8348,
  "ㅎㅏㄴㅏㄱㅏ</w>": 8349,
  "ㅎㅏㄴㅏㄷㅗ</w>": 8350,
  "ㅎㅏㄴㅏㄹㅡㄹ</w>": 8351,
  "ㅎㅏㄴㅏㅂㅏㄲㅇㅔ</w>": 8352,
  "ㅎㅏㄴㅏㅇㅘ</w>": 8353,
  "ㅎㅏㄴㅡ": 8354,
  "ㅎㅏㄴㅡㄴ": 8355,
  "ㅎㅏㄴㅡㄴ</w>": 8356,
  "ㅎㅏㄴㅡㄴㄷㅔ</w>": 8357,
  "ㅎㅏㄴㅡㄹ": 8358,
  "ㅎㅏㄴㅡㄹ</w>": 8359,
  "ㅎㅏㄴㅡㄹㅇㅔㄴㅡㄴ</w>": 8360,
  "ㅎㅏㄴㅡㄹㅇㅡㄴ</w>": 8361,
  "ㅎㅏㄴㅡㄹㅇㅡㄹ</w>": 8362,
  "ㅎㅏㄴㅡㄹㅏㄱㅗ</w>": 8363,
  "ㅎㅏㄴㅣ</w>": 8364,
  "ㅎㅏㄴㅣ?”</w>": 8365,
  "ㅎㅏㄴㅣㄲㅏ,</w>": 8366,
  "ㅎㅏㄴㅣㄲㅏ</w>": 8367,
  "ㅎㅏㄴㅣㄲㅏㄴ</w>": 8368,
  "ㅎㅏㄷㅏ.</w>": 8369,
  "ㅎㅏㄷㅏㄱㅏ</w>": 8370,
  "ㅎㅏㄷㅏㄴㅡㄴ</w>": 8371,
  "ㅎㅏㄷㅓㄴ</w>": 8372,
  "ㅎㅏㄷㅓㄴㅈㅣ</w>": 8373,
  "ㅎㅏㄷㅓㄴㅣ</w>": 8374,
  "ㅎㅏㄷㅓㄹㅏㄷㅗ</w>": 8375,
  "ㅎㅏㄷㅗ</w>": 8376,
  "ㅎㅏㄷㅗㄹㅗㄱ</w>": 8377,
  "ㅎㅏㄷㅡㅅㅇㅣ</w>": 8378,
  "ㅎㅏㄹ": 8379,
  "ㅎㅏㄹ</w>": 8380,
  "ㅎㅏㄹㄲㅏ.</w>": 8381,
  "ㅎㅏㄹㄲㅏ</w>": 8382,
  "ㅎㅏㄹㄴㅡㄴㅈㅣ</w>": 8383,
  "ㅎㅏㄹㅇㅏㅂㅓㅈㅣ": 8384,
  "ㅎㅏㄹㅇㅏㅂㅓㅈㅣ</w>": 8385,
  "ㅎㅏㄹㅇㅏㅂㅓㅈㅣㄱㅏ</w>": 8386,
  "ㅎㅏㄹㅇㅏㅂㅓㅈㅣㄲㅔㅅㅓㄴㅡㄴ</w>": 8387,
  "ㅎㅏㄹㅇㅏㅂㅓㅈㅣㄴㅡㄴ</w>": 8388,
  "ㅎㅏㄹㅇㅏㅂㅓㅈㅣㄹㅡㄹ</w>": 8389,
  "ㅎㅏㄹㅇㅏㅂㅓㅈㅣㅇㅘ</w>": 8390,
  "ㅎㅏㄹㅓ</w>": 8391,
  "ㅎㅏㄹㅕ": 8392,
  "ㅎㅏㄹㅕ</w>": 8393,
  "ㅎㅏㄹㅕㄱㅗ</w>": 8394,
  "ㅎㅏㄹㅕㄴㅡㄴ</w>": 8395,
  "ㅎㅏㄹㅜ": 8396,
  "ㅎㅏㄹㅜ</w>": 8397,
  "ㅎㅏㄹㅜㄴㅡㄴ</w>": 8398,
  "ㅎㅏㄹㅜㄷㅗ</w>": 8399,
  "ㅎㅏㄹㅜㅅ": 8400,
  "ㅎㅏㄹㅜㅇㅔ</w>": 8401,
  "ㅎㅏㄹㅣ": 8402,
  "ㅎㅏㄹㅣㄹㅏ</w>": 8403,
  "ㅎㅏㅁ": 8404,
  "ㅎㅏㅁㄱㅘ</w>": 8405,
  "ㅎㅏㅁㄲㅔ</w>": 8406,
  "ㅎㅏㅁㅂㅏㄱㄴㅜㄴㅇㅣ</w>": 8407,
  "ㅎㅏㅁㅂㅜㄹㅗ</w>": 8408,
  "ㅎㅏㅁㅇㅡㄹ</w>": 8409,
  "ㅎㅏㅁㅇㅣ</w>": 8410,
  "ㅎㅏㅁㅏㅌㅓㅁㅕㄴ</w>": 8411,
  "ㅎㅏㅁㅕ</w>": 8412,
  "ㅎㅏㅁㅕㄴ": 8413,
  "ㅎㅏㅁㅕㄴ,</w>": 8414,
  "ㅎㅏㅁㅕㄴ</w>": 8415,
  "ㅎㅏㅁㅕㄴㅅㅓ</w>": 8416,
  "ㅎㅏㅁㅕㄴㅅㅓㄷㅗ</w>": 8417,
  "ㅎㅏㅁㅡㄹㅗ</w>": 8418,
  "ㅎㅏㅂ": 8419,
  "ㅎㅏㅂ</w>": 8420,
  "ㅎㅏㅂㄱㅕㄱ": 8421,
  "ㅎㅏㅂㄱㅕㄱ.</w>": 8422,
  "ㅎㅏㅂㄱㅕㄱㅇㅣ</w>": 8423,
  "ㅎㅏㅂㄴㅣ": 8424,
  "ㅎㅏㅂㄴㅣㄷㅏ.</w>": 8425,
  "ㅎㅏㅂㅎㅏㅇㅕ</w>": 8426,
  "ㅎㅏㅅㅕㅆ": 8427,
  "ㅎㅏㅅㅕㅆㅅㅡㅂㄴㅣㄷㅏ.</w>": 8428,
  "ㅎㅏㅅㅣ": 8429,
  "ㅎㅏㅅㅣㄱㅗ</w>": 8430,
  "ㅎㅏㅅㅣㄱㅣ</w>": 8431,
  "ㅎㅏㅅㅣㄴ</w>": 8432,
  "ㅎㅏㅅㅣㄴㅡㄴ</w>": 8433,
  "ㅎㅏㅅㅣㄷㅏㄱㅏ</w>": 8434,
  "ㅎㅏㅅㅣㄷㅓㄴ</w>": 8435,
  "ㅎㅏㅅㅣㄷㅓㄹㅏ.”</w>": 8436,
  "ㅎㅏㅅㅣㄹ</w>": 8437,
  "ㅎㅏㅅㅣㅁㅕ</w>": 8438,
  "ㅎㅏㅅㅣㅇㅓㅅㅓ</w>": 8439,
  "ㅎㅏㅅㅣㅇㅓㅆ": 8440,
  "ㅎㅏㅅㅣㅇㅓㅆㅅㅡㅂㄴㅣㄷㅏ.</w>": 8441,
  "ㅎㅏㅅㅣㅈㅣㅇㅛ.</w>": 8442,
  "ㅎㅏㅇ": 8443,
  "ㅎㅏㅇㅅㅏㅇ</w>": 8444,
  "ㅎㅏㅇㅑ": 8445,
  "ㅎㅏㅇㅑ</w>": 8446,
  "ㅎㅏㅇㅑㄴ</w>": 8447,
  "ㅎㅏㅇㅓㄹㅂㅣㄴ": 8448,
  "ㅎㅏㅇㅓㄹㅂㅣㄴ</w>": 8449,
  "ㅎㅏㅇㅓㄹㅂㅣㄴㅇㅔㅅㅓ</w>": 8450,
  "ㅎㅏㅇㅓㄹㅂㅣㄴㅇㅡㄹㅗ</w>": 8451,
  "ㅎㅏㅇㅕ": 8452,
  "ㅎㅏㅇㅕ</w>": 8453,
  "ㅎㅏㅇㅕㄱㅏㄴ</w>": 8454,
  "ㅎㅏㅇㅕㄷㅗ</w>": 8455,
  "ㅎㅏㅇㅕㅁ": 8456,
  "ㅎㅏㅇㅕㅁㅇㅓㅄㅇㅣ</w>": 8457,
  "ㅎㅏㅇㅕㅅㅓ</w>": 8458,
  "ㅎㅏㅇㅕㅆ": 8459,
  "ㅎㅏㅇㅕㅆ</w>": 8460,
  "ㅎㅏㅇㅕㅆㄱㅗ,</w>": 8461,
  "ㅎㅏㅇㅕㅆㄱㅗ</w>": 8462,
  "ㅎㅏㅇㅕㅆㄴㅡㄴㅈㅣ</w>": 8463,
  "ㅎㅏㅇㅕㅆㄷㅏ.</w>": 8464,
  "ㅎㅏㅇㅕㅆㄷㅏㄴㅡㄴ</w>": 8465,
  "ㅎㅏㅇㅕㅆㄷㅓㄴ</w>": 8466,
  "ㅎㅏㅇㅕㅆㅅㅡㅂㄴㅣㄷㅏ.</w>": 8467,
  "ㅎㅏㅇㅕㅆㅇㅡㄴㅏ</w>": 8468,
  "ㅎㅏㅇㅕㅆㅇㅡㄴㅣ</w>": 8469,
  "ㅎㅏㅇㅕㅆㅇㅡㅁㅡㄹㅗ</w>": 8470,
  "ㅎㅏㅇㅕㅆㅈㅣㅁㅏㄴ</w>": 8471,
  "ㅎㅏㅇㅕㅇㅑ</w>": 8472,
  "ㅎㅏㅇㅗ.</w>": 8473,
  "ㅎㅏㅇㅣㄴ": 8474,
  "ㅎㅏㅇㅣㄴㄷㅡㄹㅇㅡㄴ</w>": 8475,
  "ㅎㅏㅈㅏ.”</w>": 8476,
  "ㅎㅏㅈㅏㅁㅏㅈㅏ</w>": 8477,
  "ㅎㅏㅈㅣ.</w>": 8478,
  "ㅎㅏㅈㅣ</w>": 8479,
  "ㅎㅏㅈㅣㄴㅡㄴ</w>": 8480,
  "ㅎㅏㅈㅣㅁㅏㄴ</w>": 8481,
  "ㅎㅏㅎㅏㄱ</w>": 8482,
  "ㅎㅐ": 8483,
  "ㅎㅐ.</w>": 8484,
  "ㅎㅐ.”</w>": 8485,
  "ㅎㅐ</w>": 8486,
  "ㅎㅐㄱㅏ</w>": 8487,
  "ㅎㅐㄴㅐㄴㅡㄴ</w>": 8488,
  "ㅎㅐㄴㅡㄴ</w>": 8489,
  "ㅎㅐㄷㅏㄹㄹㅏㄱㅗ</w>": 8490,
  "ㅎㅐㄷㅗ</w>": 8491,
  "ㅎㅐㄷㅡㄹㅣ": 8492,
  "ㅎㅐㄹㅡㄹ</w>": 8493,
  "ㅎㅐㅂㅗㅇㅏ": 8494,
  "ㅎㅐㅂㅗㅇㅏㅆ": 8495,
  "ㅎㅐㅅ": 8496,
  "ㅎㅐㅅㅂㅕㅌㅇㅣ</w>": 8497,
  "ㅎㅐㅅㅓ": 8498,
  "ㅎㅐㅅㅓ</w>": 8499,
  "ㅎㅐㅅㅓㅁㅏㄴ</w>": 8500,
  "ㅎㅐㅆ": 8501,
  "ㅎㅐㅆㄷㅏ.</w>": 8502,
  "ㅎㅐㅆㄷㅏ.”</w>": 8503,
  "ㅎㅐㅆㄷㅏㄴㅡㄴ</w>": 8504,
  "ㅎㅐㅆㄷㅓㄴ</w>": 8505,
  "ㅎㅐㅆㄷㅓㄴㅣ</w>": 8506,
  "ㅎㅐㅆㅅㅡㅂㄴㅣㄷㅏ.</w>": 8507,
  "ㅎㅐㅆㅅㅡㅂㄴㅣㄷㅏ.”</w>": 8508,
  "ㅎㅐㅆㅇㅡㄴㅏ</w>": 8509,
  "ㅎㅐㅆㅇㅡㄹ</w>": 8510,
  "ㅎㅐㅆㅇㅡㅁㅕㄴ</w>": 8511,
  "ㅎㅐㅆㅈㅣㅁㅏㄴ</w>": 8512,
  "ㅎㅐㅆㅡ": 8513,
  "ㅎㅐㅆㅡㄱ": 8514,
  "ㅎㅐㅇ": 8515,
  "ㅎㅐㅇ</w>": 8516,
  "ㅎㅐㅇㄷㅗㅇ": 8517,
  "ㅎㅐㅇㄹㅏㅇ": 8518,
  "ㅎㅐㅇㄹㅏㅇㅂㅏㅇ</w>": 8519,
  "ㅎㅐㅇㄹㅏㅇㅇㅓㅁㅓ": 8520,
  "ㅎㅐㅇㄹㅏㅇㅇㅓㅁㅓㅁ": 8521,
  "ㅎㅐㅇㄹㅏㅇㅈㅏㅅㅣㄱ</w>": 8522,
  "ㅎㅐㅇㄹㅏㅇㅈㅏㅅㅣㄱㅇㅣ</w>": 8523,
  "ㅎㅐㅇㅂㅗㄱ": 8524,
  "ㅎㅐㅇㅂㅗㄱㅇㅡㄹ</w>": 8525,
  "ㅎㅐㅇㅇㅜㄴ": 8526,
  "ㅎㅐㅇㅇㅜㄴㅇㅡㄹ</w>": 8527,
  "ㅎㅐㅇㅇㅣ</w>": 8528,
  "ㅎㅐㅇㅈㅜ": 8529,
  "ㅎㅐㅇㅑ": 8530,
  "ㅎㅐㅇㅑ</w>": 8531,
  "ㅎㅐㅇㅘㅆㅅㅡㅂㄴㅣㄷㅏ.</w>": 8532,
  "ㅎㅐㅈㅕㅅㅓ</w>": 8533,
  "ㅎㅐㅈㅕㅆ": 8534,
  "ㅎㅐㅈㅜ": 8535,
  "ㅎㅐㅈㅜㄱㅗ</w>": 8536,
  "ㅎㅐㅈㅜㅅㅣㄷㅓㄴ</w>": 8537,
  "ㅎㅐㅈㅜㅅㅣㅂㅅㅣㅇㅗ.”</w>": 8538,
  "ㅎㅐㅈㅣ": 8539,
  "ㅎㅐㅈㅣㄴ</w>": 8540,
  "ㅎㅐㅈㅣㅁㅕㄴㅅㅓ</w>": 8541,
  "ㅎㅑㅇ": 8542,
  "ㅎㅑㅇㄱㅡㅅㅎㅏㄴ</w>": 8543,
  "ㅎㅑㅇㄱㅣㄱㅏ</w>": 8544,
  "ㅎㅑㅇㄱㅣㄹ": 8545,
  "ㅎㅑㅇㅎㅏㅇㅕ</w>": 8546,
  "ㅎㅓ": 8547,
  "ㅎㅓㄷㅜㅇㅈㅣㄷㅜㅇ</w>": 8548,
  "ㅎㅓㄹㅏ": 8549,
  "ㅎㅓㄹㅏㄱㅇㅡㄹ</w>": 8550,
  "ㅎㅓㄹㅣ": 8551,
  "ㅎㅓㄹㅣㄹㅡㄹ</w>": 8552,
  "ㅎㅓㅁ": 8553,
  "ㅎㅓㅁㅇㅣ</w>": 8554,
  "ㅎㅓㅅ": 8555,
  "ㅎㅓㅎㅓ": 8556,
  "ㅎㅓㅎㅓㅎㅓㅎㅓ!”</w>": 8557,
  "ㅎㅔ": 8558,
  "ㅎㅔㅁㅐ": 8559,
  "ㅎㅔㅁㅐㅇㅓㅆㄷㅏ.</w>": 8560,
  "ㅎㅔㅊㅣㄱㅗ</w>": 8561,
  "ㅎㅕ": 8562,
  "ㅎㅕ</w>": 8563,
  "ㅎㅕㄴ": 8564,
  "ㅎㅕㄹㅡㄹ</w>": 8565,
  "ㅎㅕㅅㅓ</w>": 8566,
  "ㅎㅕㅆㅅㅡㅂㄴㅣㄷㅏ.</w>": 8567,
  "ㅎㅕㅇ": 8568,
  "ㅎㅕㅇ</w>": 8569,
  "ㅎㅕㅇㄱㅘ</w>": 8570,
  "ㅎㅕㅇㄷㅗ</w>": 8571,
  "ㅎㅕㅇㅅㅔㄱㅏ</w>": 8572,
  "ㅎㅕㅇㅇㅢ</w>": 8573,
  "ㅎㅕㅇㅇㅣ</w>": 8574,
  "ㅎㅕㅇㅈㅔ": 8575,
  "ㅎㅕㅇㅈㅔㄱㅏ</w>": 8576,
  "ㅎㅕㅇㅈㅔㄴㅡㄴ</w>": 8577,
  "ㅎㅕㅇㅈㅔㅇㅢ</w>": 8578,
  "ㅎㅕㅇㅍㅕㄴ": 8579,
  "ㅎㅕㅇㅍㅕㄴㅇㅡㄹ</w>": 8580,
  "ㅎㅖ": 8581,
  "ㅎㅖㅅㅜㄱ": 8582,
  "ㅎㅖㅅㅜㄱㅇㅏ!</w>": 8583,
  "ㅎㅖㅅㅜㄱㅇㅣ</w>": 8584,
  "ㅎㅖㅅㅜㄱㅇㅣㄱㅏ</w>": 8585,
  "ㅎㅖㅅㅜㄱㅇㅣㄴㅡㄴ</w>": 8586,
  "ㅎㅖㅅㅜㄱㅇㅣㄹㅡㄹ</w>": 8587,
  "ㅎㅗ": 8588,
  "ㅎㅗㄱ": 8589,
  "ㅎㅗㄱ</w>": 8590,
  "ㅎㅗㄱㅅㅣ": 8591,
  "ㅎㅗㄱㅅㅣ</w>": 8592,
  "ㅎㅗㄱㅇㅡㄴ</w>": 8593,
  "ㅎㅗㄴ": 8594,
  "ㅎㅗㄴㄹㅏㄴㅎㅏㅇㅕ</w>": 8595,
  "ㅎㅗㄴㅈㅏ": 8596,
  "ㅎㅗㄴㅈㅏ</w>": 8597,
  "ㅎㅗㄴㅈㅏㅅ": 8598,
  "ㅎㅗㄴㅈㅏㅅㅓ</w>": 8599,
  "ㅎㅗㄷㅡ": 8600,
  "ㅎㅗㄷㅡㄱㅣㄹㅡㄹ</w>": 8601,
  "ㅎㅗㄹ": 8602,
  "ㅎㅗㄹㄹㅗ</w>": 8603,
  "ㅎㅗㄹㅕㅇ": 8604,
  "ㅎㅗㄹㅕㅇㅇㅡㄹ</w>": 8605,
  "ㅎㅗㅇ": 8606,
  "ㅎㅗㅇㄷㅏㅇㅁㅜ": 8607,
  "ㅎㅗㅎㅗ": 8608,
  "ㅎㅗㅎㅡㅂ": 8609,
  "ㅎㅘ": 8610,
  "ㅎㅘ</w>": 8611,
  "ㅎㅘㄱ": 8612,
  "ㅎㅘㄱㅅㅣㄹ": 8613,
  "ㅎㅘㄱㅅㅣㄹㅎㅏㄷㅏ.</w>": 8614,
  "ㅎㅘㄱㅅㅣㄹㅎㅣ</w>": 8615,
  "ㅎㅘㄱㅏ</w>": 8616,
  "ㅎㅘㄱㅏㅇㅢ</w>": 8617,
  "ㅎㅘㄴ": 8618,
  "ㅎㅘㄴㅎㅏㄱㅔ</w>": 8619,
  "ㅎㅘㄷㅏㄴ": 8620,
  "ㅎㅘㄹ": 8621,
  "ㅎㅘㄹ</w>": 8622,
  "ㅎㅘㄹㄱㅘ</w>": 8623,
  "ㅎㅘㄹㅇㅡㄹ</w>": 8624,
  "ㅎㅘㄹㅉㅏㄱ</w>": 8625,
  "ㅎㅘㄹㅕ": 8626,
  "ㅎㅘㄹㅡㄹ</w>": 8627,
  "ㅎㅘㅁㅜㄴ": 8628,
  "ㅎㅘㅂㅕㅇㅇㅔ</w>": 8629,
  "ㅎㅘㅅㅏㄹ</w>": 8630,
  "ㅎㅘㅅㅏㄹㅇㅡㄴ</w>": 8631,
  "ㅎㅘㅅㅏㄹㅇㅡㄹ</w>": 8632,
  "ㅎㅘㅇ": 8633,
  "ㅎㅘㅇㅁㅏㅇㅎㅣ</w>": 8634,
  "ㅎㅘㅇㅎㅗㄹ": 8635,
  "ㅎㅘㅈㅏㅇ": 8636,
  "ㅎㅘㅈㅏㅇㄷㅐ</w>": 8637,
  "ㅎㅘㅈㅏㅇㅍㅜㅁ</w>": 8638,
  "ㅎㅘㅈㅡㅇㅇㅡㄹ</w>": 8639,
  "ㅎㅙ": 8640,
  "ㅎㅙ</w>": 8641,
  "ㅎㅙㄱ</w>": 8642,
  "ㅎㅙㄴㅏㅁㅜㄹㅡㄹ</w>": 8643,
  "ㅎㅙㅅ": 8644,
  "ㅎㅚ": 8645,
  "ㅎㅚ</w>": 8646,
  "ㅎㅚㄱㅗㅎㅏㅇㅕ</w>": 8647,
  "ㅎㅚㅅㅐㄱ</w>": 8648,
  "ㅎㅛ": 8649,
  "ㅎㅛㅅㅓㅇ": 8650,
  "ㅎㅛㅅㅓㅇㅅㅡㄹㅓㄴ</w>": 8651,
  "ㅎㅜ": 8652,
  "ㅎㅜ</w>": 8653,
  "ㅎㅜㄴ": 8654,
  "ㅎㅜㄴㄱㅖ": 8655,
  "ㅎㅜㄹ": 8656,
  "ㅎㅜㄹㄹㅠㅇ": 8657,
  "ㅎㅜㄹㄹㅠㅇㅎㅏㄴ</w>": 8658,
  "ㅎㅜㄹㄹㅠㅇㅎㅣ</w>": 8659,
  "ㅎㅜㄹㅉㅓㄱ": 8660,
  "ㅎㅜㄹㅉㅓㄱ</w>": 8661,
  "ㅎㅜㄹㅉㅓㄱㅎㅜㄹㅉㅓㄱ</w>": 8662,
  "ㅎㅜㄹㅕ": 8663,
  "ㅎㅜㄹㅕㄱㅏㄹ": 8664,
  "ㅎㅜㄹㅕㄱㅏㄹㄱㅕㅆㅅㅡㅂㄴㅣㄷㅏ.</w>": 8665,
  "ㅎㅜㄹㅕㅊㅕ": 8666,
  "ㅎㅜㄹㅕㅊㅣ": 8667,
  "ㅎㅜㄹㅗㄴㅡㄴ</w>": 8668,
  "ㅎㅜㄹㅣ": 8669,
  "ㅎㅜㅁ": 8670,
  "ㅎㅜㅁ</w>": 8671,
  "ㅎㅜㅁㅊㅣㄴ</w>": 8672,
  "ㅎㅜㅁㅊㅣㅅ": 8673,
  "ㅎㅜㅂㅜㅌㅓ</w>": 8674,
  "ㅎㅜㅇㅔ</w>": 8675,
  "ㅎㅜㅇㅔㄷㅗ</w>": 8676,
  "ㅎㅜㅇㅢ</w>": 8677,
  "ㅎㅜㅎㅚ": 8678,
  "ㅎㅜㅎㅚㄱㅏ</w>": 8679,
  "ㅎㅜㅎㅚㅎㅏㅇㅕㅆㄷㅏ.</w>": 8680,
  "ㅎㅝ": 8681,
  "ㅎㅝㄹㅆㅣㄴ</w>": 8682,
  "ㅎㅟ": 8683,
  "ㅎㅟㄱㅎㅟㄱ</w>": 8684,
  "ㅎㅟㄷㅜㄹㄹㅓ</w>": 8685,
  "ㅎㅟㄷㅜㄹㅡ": 8686,
  "ㅎㅟㄷㅜㅇ": 8687,
  "ㅎㅠ": 8688,
  "ㅎㅠㅇ": 8689,
  "ㅎㅠㅇㄴㅐㄹㅡㄹ</w>": 8690,
  "ㅎㅠㅇㅣㄹㅇㅣ</w>": 8691,
  "ㅎㅠㅈㅣㄹㅡㄹ</w>": 8692,
  "ㅎㅡ": 8693,
  "ㅎㅡㄱ!</w>": 8694,
  "ㅎㅡㄴ": 8695,
  "ㅎㅡㄴㄷㅡㄴㅡㄴ</w>": 8696,
  "ㅎㅡㄴㄷㅡㄹ": 8697,
  "ㅎㅡㄴㄷㅡㄹㅇㅓ</w>": 8698,
  "ㅎㅡㄴㅎㅣ</w>": 8699,
  "ㅎㅡㄴㅡ": 8700,
  "ㅎㅡㄴㅡㄱ": 8701,
  "ㅎㅡㄴㅡㅈㅓㄱ": 8702,
  "ㅎㅡㄹ": 8703,
  "ㅎㅡㄹ</w>": 8704,
  "ㅎㅡㄹㄱㅣ": 8705,
  "ㅎㅡㄹㄹㅓ": 8706,
  "ㅎㅡㄹㄹㅓㄱㅏㄴㅡㄴ</w>": 8707,
  "ㅎㅡㄹㄹㅓㄴㅐㄹㅕㅆㅅㅡㅂㄴㅣㄷㅏ.</w>": 8708,
  "ㅎㅡㄹㄹㅓㄴㅐㄹㅣㄴㅡㄴ</w>": 8709,
  "ㅎㅡㄹㄹㅓㅆㅅㅡㅂㄴㅣㄷㅏ.</w>": 8710,
  "ㅎㅡㄹㄹㅕㅆㅅㅡㅂㄴㅣㄷㅏ.</w>": 8711,
  "ㅎㅡㄹㄹㅣ": 8712,
  "ㅎㅡㄹㄹㅣㄱㅗ</w>": 8713,
  "ㅎㅡㄹㄹㅣㅁㅕㄴㅅㅓ</w>": 8714,
  "ㅎㅡㄹㅡ": 8715,
  "ㅎㅡㄹㅡㄴㅡㄴ</w>": 8716,
  "ㅎㅡㄹㅣ": 8717,
  "ㅎㅡㄺ": 8718,
  "ㅎㅡㄺㅇㅡㄹ</w>": 8719,
  "ㅎㅡㄺㅇㅣ</w>": 8720,
  "ㅎㅡㄺㅌㅜㅅㅓㅇ": 8721,
  "ㅎㅡㄺㅌㅜㅅㅓㅇㅇㅣㄱㅏ</w>": 8722,
  "ㅎㅡㅂ": 8723,
  "ㅎㅡㅂㅅㅏ</w>": 8724,
  "ㅎㅡㅇ": 8725,
  "ㅎㅡㅇㅂㅜㄴ": 8726,
  "ㅎㅡㅌ": 8727,
  "ㅎㅡㅌㅇㅓㅈㅕ</w>": 8728,
  "ㅎㅢ": 8729,
  "ㅎㅢ</w>": 8730,
  "ㅎㅢㄴ": 8731,
  "ㅎㅢㄴ</w>": 8732,
  "ㅎㅢㄴㅡㄴ</w>": 8733,
  "ㅎㅢㅁㅏㅇ": 8734,
  "ㅎㅢㅁㅏㅇ</w>": 8735,
  "ㅎㅢㅁㅏㅇㅇㅔ</w>": 8736,
  "ㅎㅢㅁㅏㅇㅇㅢ</w>": 8737,
  "ㅎㅢㅇㅘ</w>": 8738,
  "ㅎㅣ": 8739,
  "ㅎㅣ</w>": 8740,
  "ㅎㅣㄱㅗ</w>": 8741,
  "ㅎㅣㄴ</w>": 8742,
  "ㅎㅣㄴㅡㄴ</w>": 8743,
  "ㅎㅣㅁ": 8744,
  "ㅎㅣㅁ</w>": 8745,
  "ㅎㅣㅁㄱㅘ</w>": 8746,
  "ㅎㅣㅁㄲㅓㅅ</w>": 8747,
  "ㅎㅣㅁㄷㅗ</w>": 8748,
  "ㅎㅣㅁㄷㅡㄴ</w>": 8749,
  "ㅎㅣㅁㅇㅓㅄㄴㅡㄴ</w>": 8750,
  "ㅎㅣㅁㅇㅡㄹ</w>": 8751,
  "ㅎㅣㅁㅇㅣ</w>": 8752,
  "ㅎㅣㅁㅈㅜㄹㅇㅡㄹ</w>": 8753,
  "ㅎㅣㅁㅈㅜㄹㅇㅣㄴㅣ</w>": 8754,
  "ㅏ": 8755,
  "ㅏ</w>": 8756,
  "ㅏㄱㅗ</w>": 8757,
  "ㅏㄱㅜ</w>": 8758,
  "ㅏㄴㅡㄴ</w>": 8759,
  "ㅐ": 8760,
  "ㅐ</w>": 8761,
  "ㅐㄹㅡㄹ</w>": 8762,
  "ㅐㅇ": 8763,
  "ㅐㅇㅔ": 8764,
  "ㅑ": 8765,
  "ㅑ!</w>": 8766,
  "ㅑ,</w>": 8767,
  "ㅑ.</w>": 8768,
  "ㅑ</w>": 8769,
  "ㅑ?</w>": 8770,
  "ㅑㅇ": 8771,
  "ㅑㅇ</w>": 8772,
  "ㅓ": 8773,
  "ㅓ</w>": 8774,
  "ㅓㄴ</w>": 8775,
  "ㅓㅇ": 8776,
  "ㅓㅎㄱㅔ</w>": 8777,
  "ㅔ": 8778,
  "ㅔ</w>": 8779,
  "ㅕ": 8780,
  "ㅕ</w>": 8781,
  "ㅕㄱㅗ</w>": 8782,
  "ㅕㄴ": 8783,
  "ㅕㄷㅓㄴ</w>": 8784,
  "ㅕㅁ": 8785,
  "ㅕㅁ.</w>": 8786,
  "ㅕㅅㅓ</w>": 8787,
  "ㅕㅆㄷㅏ.</w>": 8788,
  "ㅕㅆㅅㅡㅂㄴㅣㄷㅏ.</w>": 8789,
  "ㅕㅇ": 8790,
  "ㅖ": 8791,
  "ㅗ": 8792,
  "ㅗ</w>": 8793,
  "ㅗㄱ": 8794,
  "ㅗㄱ</w>": 8795,
  "ㅗㄱㅜㄴ": 8796,
  "ㅗㄱㅜㄴㅏ.</w>": 8797,
  "ㅗㄴ": 8798,
  "ㅗㄴㅡㄴ</w>": 8799,
  "ㅗㄷㅗ</w>": 8800,
  "ㅗㄹ": 8801,
  "ㅗㄹㅗ</w>": 8802,
  "ㅗㄹㅡㄹ</w>": 8803,
  "ㅗㄹㅣ": 8804,
  "ㅗㄹㅣㄹㅡㄹ</w>": 8805,
  "ㅗㅁ": 8806,
  "ㅗㅂㅜㅌㅓ</w>": 8807,
  "ㅗㅇ": 8808,
  "ㅗㅇㅑ</w>": 8809,
  "ㅗㅊ": 8810,
  "ㅗㅎ": 8811,
  "ㅘ": 8812,
  "ㅘ</w>": 8813,
  "ㅘㅆㅅㅡㅂㄴㅣㄷㅏ.</w>": 8814,
  "ㅘㅇ": 8815,
  "ㅚ": 8816,
  "ㅚㄴㅡㄴ</w>": 8817,
  "ㅛ": 8818,
  "ㅛ.”</w>": 8819,
  "ㅛㅇ": 8820,
  "ㅛㅇㅇㅣ</w>": 8821,
  "ㅜ": 8822,
  "ㅜ</w>": 8823,
  "ㅜㄱ</w>": 8824,
  "ㅜㄴ": 8825,
  "ㅜㄴ</w>": 8826,
  "ㅜㄹ": 8827,
  "ㅜㄹㅏ": 8828,
  "ㅜㄹㅡㄹ</w>": 8829,
  "ㅝ": 8830,
  "ㅝ</w>": 8831,
  "ㅝㄴㅎㅏㅇㅕㅆㅅㅡㅂㄴㅣㄷㅏ.</w>": 8832,
  "ㅞ": 8833,
  "ㅟ": 8834,
  "ㅠ": 8835,
  "ㅡ": 8836,
  "ㅡㄱㅔ</w>": 8837,
  "ㅡㄱㅗ</w>": 8838,
  "ㅡㄴ": 8839,
  "ㅡㄴ</w>": 8840,
  "ㅡㄴㄷㅔ": 8841,
  "ㅡㄴㅈㅣ</w>": 8842,
  "ㅡㄴㅡㄴ</w>": 8843,
  "ㅡㄹ": 8844,
  "ㅡㄹ</w>": 8845,
  "ㅡㄹㅏㄱㅗ</w>": 8846,
  "ㅡㄹㅓ": 8847,
  "ㅡㄹㅓ</w>": 8848,
  "ㅡㄹㅓㅇ": 8849,
  "ㅡㄹㅗ": 8850,
  "ㅡㄹㅗ</w>": 8851,
  "ㅡㄹㅡ</w>": 8852,
  "ㅡㅁ": 8853,
  "ㅡㅁ</w>": 8854,
  "ㅡㅅㅣㄴ": 8855,
  "ㅢ": 8856,
  "ㅢ</w>": 8857,
  "ㅣ": 8858,
  "ㅣ</w>": 8859,
  "ㅣㄱㅗ</w>": 8860,
  "ㅣㄴ</w>": 8861,
  "京": 8862,
  "位": 8863,
  "便": 8864,
  "信": 8865,
  "像": 8866,
  "光": 8867,
  "分": 8868,
  "剝": 8869,
  "半": 8870,
  "城": 8871,
  "天": 8872,
  "奇": 8873,
  "學": 8874,
  "寂": 8875,
  "將": 8876,
  "感": 8877,
  "春": 8878,
  "東": 8879,
  "校": 8880,
  "條": 8881,
  "正": 8882,
  "濟": 8883,
  "神": 8884,
  "窮": 8885,
  "約": 8886,
  "羊": 8887,
  "義": 8888,
  "聽": 8889,
  "至": 8890,
  "行": 8891,
  "製": 8892,
  "覺": 8893,
  "言": 8894,
  "諸": 8895,
  "豫": 8896,
  "賣": 8897,
  "蹟": 8898,
  "身": 8899,
  "軍": 8900,
  "輕": 8901,
  "靜": 8902,
  "驛": 8903
}