{
  "!": 0,
  "!\"</w>": 1,
  "!</w>": 2,
  "!”": 3,
  "!”</w>": 4,
  "\"": 5,
  "\"명길아!</w>": 6,
  "\"수남아!</w>": 7,
  "\"아!</w>": 8,
  "\"아이구,</w>": 9,
  "\"얘": 10,
  "\"얘,</w>": 11,
  "'": 12,
  "'병상</w>": 13,
  "(": 14,
  "(*": 15,
  "(⁎": 16,
  ")": 17,
  ")</w>": 18,
  ")를</w>": 19,
  ")은</w>": 20,
  ")을</w>": 21,
  ")이</w>": 22,
  "**": 23,
  "***": 24,
  "***</w>": 25,
  ",": 26,
  ",</w>": 27,
  "-": 28,
  "--": 29,
  "---": 30,
  "-</w>": 31,
  ".": 32,
  ".\"</w>": 33,
  ".---": 34,
  "......": 35,
  "......\"</w>": 36,
  "......</w>": 37,
  "......”</w>": 38,
  ".</w>": 39,
  ".’</w>": 40,
  ".“</w>": 41,
  ".”</w>": 42,
  "0": 43,
  "0명이나</w>": 44,
  "0여</w>": 45,
  "1": 46,
  "1.</w>": 47,
  "10": 48,
  "10원": 49,
  "14살</w>": 50,
  "15": 51,
  "17": 52,
  "18</w>": 53,
  "19": 54,
  "1936": 55,
  "1</w>": 56,
  "1원": 57,
  "1장씩</w>": 58,
  "2": 59,
  "2,</w>": 60,
  "2.</w>": 61,
  "20": 62,
  "200명이나</w>": 63,
  "200여</w>": 64,
  "2</w>": 65,
  "2학": 66,
  "3": 67,
  "3.</w>": 68,
  "30": 69,
  "300명이나</w>": 70,
  "30명이나</w>": 71,
  "33": 72,
  "33번": 73,
  "33번지</w>": 74,
  "3</w>": 75,
  "3년</w>": 76,
  "3달</w>": 77,
  "3학년</w>": 78,
  "4": 79,
  "4.</w>": 80,
  "4</w>": 81,
  "5": 82,
  "50": 83,
  "5</w>": 84,
  "5원": 85,
  "5학년</w>": 86,
  "5학년이</w>": 87,
  "6": 88,
  "7": 89,
  "7월</w>": 90,
  "8": 91,
  "80": 92,
  "8</w>": 93,
  "9": 94,
  ":": 95,
  "<": 96,
  "</w>": 97,
  "<누님의</w>": 98,
  "<어린이": 99,
  "<어린이>": 100,
  ">": 101,
  "></w>": 102,
  "?": 103,
  "?\"</w>": 104,
  "?</w>": 105,
  "?’</w>": 106,
  "?”</w>": 107,
  "OO": 108,
  "OO심상소": 109,
  "O월호": 110,
  "X": 111,
  "XX": 112,
  "XXX": 113,
  "XX신문": 114,
  "XX신문사</w>": 115,
  "―</w>": 116,
  "‘": 117,
  "‘못난이’": 118,
  "‘빈</w>": 119,
  "‘세검정": 120,
  "‘왜</w>": 121,
  "‘요": 122,
  "‘우리</w>": 123,
  "‘장미꽃</w>": 124,
  "‘크레용": 125,
  "’": 126,
  "’</w>": 127,
  "’나라</w>": 128,
  "’에서</w>": 129,
  "’을</w>": 130,
  "’이란</w>": 131,
  "“": 132,
  "“6": 133,
  "“</w>": 134,
  "“……”</w>": 135,
  "“‧‧‧‧‧‧.”</w>": 136,
  "“갑자기</w>": 137,
  "“경남": 138,
  "“경남아!</w>": 139,
  "“경희야,</w>": 140,
  "“고구려</w>": 141,
  "“고맙": 142,
  "“그": 143,
  "“그</w>": 144,
  "“그건</w>": 145,
  "“그것은</w>": 146,
  "“그래": 147,
  "“그래!”</w>": 148,
  "“그래,</w>": 149,
  "“그래</w>": 150,
  "“그래도</w>": 151,
  "“그러면</w>": 152,
  "“그런</w>": 153,
  "“그럼": 154,
  "“그럼,</w>": 155,
  "“그럼</w>": 156,
  "“그렇": 157,
  "“글쎄": 158,
  "“글쎄</w>": 159,
  "“나는</w>": 160,
  "“나도</w>": 161,
  "“난</w>": 162,
  "“남대문</w>": 163,
  "“내</w>": 164,
  "“내가</w>": 165,
  "“너!</w>": 166,
  "“너</w>": 167,
  "“너는</w>": 168,
  "“네": 169,
  "“네!”</w>": 170,
  "“네,</w>": 171,
  "“네.”</w>": 172,
  "“네</w>": 173,
  "“네……</w>": 174,
  "“네가</w>": 175,
  "“누나,</w>": 176,
  "“누우-나": 177,
  "“누우-나아-”</w>": 178,
  "“마나": 179,
  "“모르": 180,
  "“무슨</w>": 181,
  "“무어</w>": 182,
  "“무엇?</w>": 183,
  "“뭐,</w>": 184,
  "“뭐</w>": 185,
  "“뭐?</w>": 186,
  "“복희야,</w>": 187,
  "“빈</w>": 188,
  "“새옥아!</w>": 189,
  "“선생님!</w>": 190,
  "“선생님!”</w>": 191,
  "“선생님</w>": 192,
  "“수길": 193,
  "“수남-아-”</w>": 194,
  "“수남아,</w>": 195,
  "“숙희야,</w>": 196,
  "“아": 197,
  "“아!</w>": 198,
  "“아,</w>": 199,
  "“아까</w>": 200,
  "“아니": 201,
  "“아니,</w>": 202,
  "“아니다.</w>": 203,
  "“아니에요.</w>": 204,
  "“아따": 205,
  "“아따,</w>": 206,
  "“아마</w>": 207,
  "“아버지": 208,
  "“아버지!</w>": 209,
  "“아씨,</w>": 210,
  "“아이": 211,
  "“아이고,</w>": 212,
  "“안</w>": 213,
  "“암": 214,
  "“암,</w>": 215,
  "“얘": 216,
  "“얘!</w>": 217,
  "“얘,</w>": 218,
  "“얘</w>": 219,
  "“어": 220,
  "“어머니!</w>": 221,
  "“어머니,</w>": 222,
  "“어이!</w>": 223,
  "“언니": 224,
  "“에": 225,
  "“에이,</w>": 226,
  "“여보": 227,
  "“여보,</w>": 228,
  "“여보게,</w>": 229,
  "“여보게</w>": 230,
  "“염라대왕님!</w>": 231,
  "“염려</w>": 232,
  "“영호": 233,
  "“영호야!</w>": 234,
  "“예": 235,
  "“오": 236,
  "“오!</w>": 237,
  "“오늘</w>": 238,
  "“오늘은</w>": 239,
  "“오빠": 240,
  "“오빠!</w>": 241,
  "“옳": 242,
  "“옳다,</w>": 243,
  "“왜</w>": 244,
  "“요": 245,
  "“요놈,</w>": 246,
  "“용만아!</w>": 247,
  "“우리</w>": 248,
  "“울지</w>": 249,
  "“으응,</w>": 250,
  "“은동": 251,
  "“은동아!</w>": 252,
  "“응!</w>": 253,
  "“응,</w>": 254,
  "“이": 255,
  "“이</w>": 256,
  "“이게</w>": 257,
  "“이년아,</w>": 258,
  "“이놈": 259,
  "“이놈!</w>": 260,
  "“이놈</w>": 261,
  "“이놈아!</w>": 262,
  "“이놈아</w>": 263,
  "“이놈의</w>": 264,
  "“이런</w>": 265,
  "“이제": 266,
  "“이제</w>": 267,
  "“인제</w>": 268,
  "“일</w>": 269,
  "“자!</w>": 270,
  "“자네": 271,
  "“자세히</w>": 272,
  "“저": 273,
  "“저!</w>": 274,
  "“저</w>": 275,
  "“저는</w>": 276,
  "“저어,</w>": 277,
  "“저어</w>": 278,
  "“정숙아!</w>": 279,
  "“종득이!</w>": 280,
  "“죽기는</w>": 281,
  "“지금</w>": 282,
  "“진수": 283,
  "“진수야!</w>": 284,
  "“참": 285,
  "“참!</w>": 286,
  "“참</w>": 287,
  "“참말</w>": 288,
  "“최</w>": 289,
  "“학봉": 290,
  "“학봉아!</w>": 291,
  "“할아버지": 292,
  "“허허허허!</w>": 293,
  "“혜숙아!</w>": 294,
  "”": 295,
  "”</w>": 296,
  "……": 297,
  "…….</w>": 298,
  "…….”</w>": 299,
  "……</w>": 300,
  "……”</w>": 301,
  "‧": 302,
  "‧‧‧‧": 303,
  "‧‧‧‧‧‧": 304,
  "‧‧‧‧‧‧.”</w>": 305,
  "‧‧‧‧‧‧</w>": 306,
  "‧‧‧‧‧‧?”</w>": 307,
  "‧‧‧‧‧‧”</w>": 308,
  "⁎": 309,
  "⁎</w>": 310,
  "⁎⁎": 311,
  "⁎⁎⁎</w>": 312,
  "京": 313,
  "位": 314,
  "便": 315,
  "信": 316,
  "像": 317,
  "光": 318,
  "分": 319,
  "剝": 320,
  "半": 321,
  "城": 322,
  "天": 323,
  "奇": 324,
  "學": 325,
  "寂": 326,
  "將": 327,
  "感": 328,
  "春": 329,
  "東": 330,
  "校": 331,
  "條": 332,
  "正": 333,
  "濟": 334,
  "神": 335,
  "窮": 336,
  "約": 337,
  "羊": 338,
  "義": 339,
  "聽": 340,
  "至": 341,
  "行": 342,
  "製": 343,
  "覺": 344,
  "言": 345,
  "諸": 346,
  "豫": 347,
  "賣": 348,
  "蹟": 349,
  "身": 350,
  "軍": 351,
  "輕": 352,
  "靜": 353,
  "驛": 354,
  "가": 355,
  "가,</w>": 356,
  "가.</w>": 357,
  "가.”</w>": 358,
  "가</w>": 359,
  "가거라.</w>": 360,
  "가거라.”</w>": 361,
  "가게": 362,
  "가게</w>": 363,
  "가고</w>": 364,
  "가구": 365,
  "가구를</w>": 366,
  "가구에</w>": 367,
  "가구의</w>": 368,
  "가기로</w>": 369,
  "가까": 370,
  "가까스로</w>": 371,
  "가까운</w>": 372,
  "가까워</w>": 373,
  "가까이</w>": 374,
  "가깝": 375,
  "가끔</w>": 376,
  "가나</w>": 377,
  "가나?</w>": 378,
  "가난": 379,
  "가난한</w>": 380,
  "가느다란</w>": 381,
  "가는</w>": 382,
  "가더니</w>": 383,
  "가던</w>": 384,
  "가득</w>": 385,
  "가뜩이나</w>": 386,
  "가락": 387,
  "가량</w>": 388,
  "가려": 389,
  "가려고</w>": 390,
  "가로": 391,
  "가로</w>": 392,
  "가르": 393,
  "가르쳐": 394,
  "가르쳐주": 395,
  "가르치": 396,
  "가르치시는</w>": 397,
  "가를</w>": 398,
  "가리": 399,
  "가리는</w>": 400,
  "가리었던</w>": 401,
  "가리키": 402,
  "가마": 403,
  "가마</w>": 404,
  "가만": 405,
  "가만히</w>": 406,
  "가며</w>": 407,
  "가면</w>": 408,
  "가면서</w>": 409,
  "가면서도</w>": 410,
  "가뭄이</w>": 411,
  "가방</w>": 412,
  "가방을</w>": 413,
  "가벼": 414,
  "가벼워졌": 415,
  "가볍게</w>": 416,
  "가보": 417,
  "가서</w>": 418,
  "가셔서</w>": 419,
  "가슴": 420,
  "가슴</w>": 421,
  "가슴속에</w>": 422,
  "가슴속에는</w>": 423,
  "가슴속을</w>": 424,
  "가슴에</w>": 425,
  "가슴은</w>": 426,
  "가슴을</w>": 427,
  "가슴이</w>": 428,
  "가시": 429,
  "가시같이</w>": 430,
  "가시게</w>": 431,
  "가시고</w>": 432,
  "가시는</w>": 433,
  "가신</w>": 434,
  "가신다": 435,
  "가야": 436,
  "가야겠다.</w>": 437,
  "가에</w>": 438,
  "가엾게</w>": 439,
  "가엾어서</w>": 440,
  "가엾은</w>": 441,
  "가엾이</w>": 442,
  "가요.</w>": 443,
  "가운</w>": 444,
  "가운데": 445,
  "가운데</w>": 446,
  "가운데서는</w>": 447,
  "가을": 448,
  "가을에</w>": 449,
  "가을이</w>": 450,
  "가의</w>": 451,
  "가자.</w>": 452,
  "가장</w>": 453,
  "가져": 454,
  "가져</w>": 455,
  "가져오": 456,
  "가져오는</w>": 457,
  "가져왔": 458,
  "가졌": 459,
  "가졌습니다.</w>": 460,
  "가지": 461,
  "가지</w>": 462,
  "가지각": 463,
  "가지각색</w>": 464,
  "가지고</w>": 465,
  "가지고는</w>": 466,
  "가지런히</w>": 467,
  "가지로</w>": 468,
  "가지를</w>": 469,
  "가지마다</w>": 470,
  "가지만</w>": 471,
  "가진</w>": 472,
  "각": 473,
  "각</w>": 474,
  "각기</w>": 475,
  "각이</w>": 476,
  "간": 477,
  "간</w>": 478,
  "간다.</w>": 479,
  "간다는</w>": 480,
  "간신히</w>": 481,
  "간에</w>": 482,
  "간에서</w>": 483,
  "간절": 484,
  "간절히</w>": 485,
  "간호": 486,
  "간호부": 487,
  "갈": 488,
  "갈</w>": 489,
  "갈고": 490,
  "갈라": 491,
  "갈수록</w>": 492,
  "갈아내": 493,
  "감": 494,
  "감</w>": 495,
  "감격": 496,
  "감고</w>": 497,
  "감기가</w>": 498,
  "감동이</w>": 499,
  "감사": 500,
  "감사한</w>": 501,
  "감은</w>": 502,
  "감이</w>": 503,
  "감자</w>": 504,
  "감자를</w>": 505,
  "감정은</w>": 506,
  "감추어</w>": 507,
  "감투": 508,
  "감투바위에</w>": 509,
  "감히</w>": 510,
  "갑": 511,
  "갑니다.</w>": 512,
  "갑득": 513,
  "갑자기</w>": 514,
  "값": 515,
  "값</w>": 516,
  "값으로</w>": 517,
  "값을</w>": 518,
  "갓</w>": 519,
  "갔": 520,
  "갔는지</w>": 521,
  "갔다.</w>": 522,
  "갔다</w>": 523,
  "갔다가</w>": 524,
  "갔던</w>": 525,
  "갔습니다.</w>": 526,
  "갔어요.”</w>": 527,
  "갔으면</w>": 528,
  "갔을</w>": 529,
  "갔지만</w>": 530,
  "강": 531,
  "강당에</w>": 532,
  "강이를</w>": 533,
  "강한</w>": 534,
  "갖": 535,
  "갖고</w>": 536,
  "갖다</w>": 537,
  "갖은</w>": 538,
  "같": 539,
  "같고</w>": 540,
  "같는</w>": 541,
  "같다": 542,
  "같다.</w>": 543,
  "같더니</w>": 544,
  "같소.</w>": 545,
  "같아</w>": 546,
  "같아서</w>": 547,
  "같아서는</w>": 548,
  "같았다.</w>": 549,
  "같았습니다.</w>": 550,
  "같으": 551,
  "같으니.”</w>": 552,
  "같으면</w>": 553,
  "같으므로</w>": 554,
  "같은": 555,
  "같은</w>": 556,
  "같이,</w>": 557,
  "같이</w>": 558,
  "같지</w>": 559,
  "갚": 560,
  "개": 561,
  "개</w>": 562,
  "개가</w>": 563,
  "개골": 564,
  "개나": 565,
  "개나리": 566,
  "개나리꽃</w>": 567,
  "개나리꽃이</w>": 568,
  "개나리와</w>": 569,
  "개도</w>": 570,
  "개똥": 571,
  "개똥</w>": 572,
  "개를</w>": 573,
  "개미": 574,
  "개의</w>": 575,
  "객": 576,
  "갯": 577,
  "갱": 578,
  "갸": 579,
  "걀": 580,
  "거": 581,
  "거</w>": 582,
  "거기": 583,
  "거기</w>": 584,
  "거기서</w>": 585,
  "거기에</w>": 586,
  "거나</w>": 587,
  "거느리고</w>": 588,
  "거늘</w>": 589,
  "거니와</w>": 590,
  "거두": 591,
  "거든": 592,
  "거든</w>": 593,
  "거들": 594,
  "거라.</w>": 595,
  "거라.”</w>": 596,
  "거렸다.</w>": 597,
  "거렸습니다.</w>": 598,
  "거룩": 599,
  "거리": 600,
  "거리</w>": 601,
  "거리고</w>": 602,
  "거리는</w>": 603,
  "거리로</w>": 604,
  "거리를</w>": 605,
  "거리며</w>": 606,
  "거리면서</w>": 607,
  "거리의</w>": 608,
  "거린다.</w>": 609,
  "거립니다.</w>": 610,
  "거북": 611,
  "거북살": 612,
  "거스": 613,
  "거스르지</w>": 614,
  "거시기</w>": 615,
  "거야.”</w>": 616,
  "거와</w>": 617,
  "거울": 618,
  "거울을</w>": 619,
  "거의</w>": 620,
  "거진</w>": 621,
  "거짓": 622,
  "거짓말</w>": 623,
  "거짓말을</w>": 624,
  "거처": 625,
  "걱": 626,
  "걱정": 627,
  "걱정</w>": 628,
  "걱정되는</w>": 629,
  "걱정을</w>": 630,
  "걱정이</w>": 631,
  "건": 632,
  "건</w>": 633,
  "건너": 634,
  "건너</w>": 635,
  "건너편</w>": 636,
  "건네": 637,
  "건만,</w>": 638,
  "건만</w>": 639,
  "건방진</w>": 640,
  "건전": 641,
  "건전지": 642,
  "건전지를</w>": 643,
  "건져</w>": 644,
  "걷": 645,
  "걷어": 646,
  "걷어치": 647,
  "걷잡을</w>": 648,
  "걸": 649,
  "걸,</w>": 650,
  "걸.’</w>": 651,
  "걸</w>": 652,
  "걸그렁": 653,
  "걸러</w>": 654,
  "걸려</w>": 655,
  "걸려서</w>": 656,
  "걸린</w>": 657,
  "걸어": 658,
  "걸어</w>": 659,
  "걸어갔습니다.</w>": 660,
  "걸어올</w>": 661,
  "걸음": 662,
  "걸음</w>": 663,
  "걸음을</w>": 664,
  "걸음이</w>": 665,
  "걸작품이</w>": 666,
  "걸치고</w>": 667,
  "걸터": 668,
  "검": 669,
  "검은</w>": 670,
  "겁": 671,
  "겁이</w>": 672,
  "겁쟁": 673,
  "겁쟁이</w>": 674,
  "것": 675,
  "것)": 676,
  "것</w>": 677,
  "것같이</w>": 678,
  "것과</w>": 679,
  "것도</w>": 680,
  "것들은</w>": 681,
  "것만</w>": 682,
  "것보다도</w>": 683,
  "것으로</w>": 684,
  "것은</w>": 685,
  "것을": 686,
  "것을</w>": 687,
  "것의</w>": 688,
  "것이": 689,
  "것이</w>": 690,
  "것이고,</w>": 691,
  "것이나</w>": 692,
  "것이니": 693,
  "것이니</w>": 694,
  "것이니까.</w>": 695,
  "것이다": 696,
  "것이다.</w>": 697,
  "것이다.”</w>": 698,
  "것이로구나": 699,
  "것이었다.</w>": 700,
  "것이었습니다.</w>": 701,
  "것이요,</w>": 702,
  "것이지만</w>": 703,
  "것인</w>": 704,
  "것인데</w>": 705,
  "것일까?</w>": 706,
  "것입니다.</w>": 707,
  "것입니다.”</w>": 708,
  "겅": 709,
  "겊": 710,
  "겋": 711,
  "게": 712,
  "게,</w>": 713,
  "게.</w>": 714,
  "게.”</w>": 715,
  "게</w>": 716,
  "게가</w>": 717,
  "게까지</w>": 718,
  "게다.</w>": 719,
  "게다</w>": 720,
  "게도</w>": 721,
  "게으": 722,
  "게으른</w>": 723,
  "게을": 724,
  "겔": 725,
  "겠": 726,
  "겠는데</w>": 727,
  "겠니.</w>": 728,
  "겠니?</w>": 729,
  "겠다.</w>": 730,
  "겠다.”</w>": 731,
  "겠다</w>": 732,
  "겠다고</w>": 733,
  "겠습니까": 734,
  "겠습니까.</w>": 735,
  "겠습니까?</w>": 736,
  "겠습니까?”</w>": 737,
  "겠습니다.</w>": 738,
  "겠습니다.”</w>": 739,
  "겠어요.</w>": 740,
  "겠어요.”</w>": 741,
  "겠지": 742,
  "겠지-</w>": 743,
  "겠지.</w>": 744,
  "겠지만</w>": 745,
  "겠지요.</w>": 746,
  "겨": 747,
  "겨</w>": 748,
  "겨냥": 749,
  "겨누고</w>": 750,
  "겨도</w>": 751,
  "겨를도</w>": 752,
  "겨서</w>": 753,
  "겨우</w>": 754,
  "겨울": 755,
  "겨울에</w>": 756,
  "격": 757,
  "겪": 758,
  "견": 759,
  "견디": 760,
  "견디겠": 761,
  "견디어</w>": 762,
  "견딜</w>": 763,
  "결": 764,
  "결</w>": 765,
  "결같이</w>": 766,
  "결석": 767,
  "결심": 768,
  "결심</w>": 769,
  "결심을</w>": 770,
  "결심하고</w>": 771,
  "결심하였습니다.</w>": 772,
  "결에</w>": 773,
  "결정": 774,
  "결코</w>": 775,
  "겸": 776,
  "겸</w>": 777,
  "겹": 778,
  "겼": 779,
  "겼습니다.</w>": 780,
  "경": 781,
  "경</w>": 782,
  "경남": 783,
  "경남이</w>": 784,
  "경남이는</w>": 785,
  "경남이를</w>": 786,
  "경남이의</w>": 787,
  "경성": 788,
  "경성역": 789,
  "경성역</w>": 790,
  "경에</w>": 791,
  "경우": 792,
  "경우가</w>": 793,
  "경우를</w>": 794,
  "경우에</w>": 795,
  "경을</w>": 796,
  "경이</w>": 797,
  "경찰서": 798,
  "경효": 799,
  "경효가</w>": 800,
  "경효는</w>": 801,
  "경효를</w>": 802,
  "경효의</w>": 803,
  "경희": 804,
  "경희</w>": 805,
  "경희는</w>": 806,
  "경희를</w>": 807,
  "경희야,</w>": 808,
  "경희와</w>": 809,
  "경희의</w>": 810,
  "곁": 811,
  "계": 812,
  "계가</w>": 813,
  "계교를</w>": 814,
  "계란": 815,
  "계를</w>": 816,
  "계모": 817,
  "계모나</w>": 818,
  "계셔서</w>": 819,
  "계셨습니다.</w>": 820,
  "계속": 821,
  "계속하여</w>": 822,
  "계시": 823,
  "계시었습니다.</w>": 824,
  "계시지</w>": 825,
  "계신": 826,
  "계신</w>": 827,
  "계실</w>": 828,
  "계집": 829,
  "계집애": 830,
  "계집애가</w>": 831,
  "계집애인</w>": 832,
  "고": 833,
  "고,</w>": 834,
  "고---": 835,
  "고.</w>": 836,
  "고.”</w>": 837,
  "고</w>": 838,
  "고개": 839,
  "고개도</w>": 840,
  "고개를</w>": 841,
  "고구": 842,
  "고구려</w>": 843,
  "고구려를</w>": 844,
  "고구려의</w>": 845,
  "고기": 846,
  "고는,</w>": 847,
  "고는</w>": 848,
  "고도</w>": 849,
  "고등보통": 850,
  "고등보통학교에</w>": 851,
  "고로</w>": 852,
  "고를</w>": 853,
  "고마": 854,
  "고마운</w>": 855,
  "고마움과</w>": 856,
  "고만</w>": 857,
  "고말고": 858,
  "고말고.</w>": 859,
  "고맙": 860,
  "고맙게</w>": 861,
  "고맙다.</w>": 862,
  "고맙습니다.”</w>": 863,
  "고무": 864,
  "고생": 865,
  "고생을</w>": 866,
  "고서</w>": 867,
  "고여</w>": 868,
  "고요": 869,
  "고요해": 870,
  "고우": 871,
  "고운</w>": 872,
  "고을": 873,
  "고을</w>": 874,
  "고쳐": 875,
  "고추": 876,
  "고추장</w>": 877,
  "고추장을</w>": 878,
  "고치고</w>": 879,
  "고치지</w>": 880,
  "고통": 881,
  "고하여</w>": 882,
  "고향": 883,
  "고향을</w>": 884,
  "곡": 885,
  "곡식": 886,
  "곡식은</w>": 887,
  "곤": 888,
  "곤</w>": 889,
  "곤란": 890,
  "곧": 891,
  "곧</w>": 892,
  "곧이": 893,
  "골": 894,
  "골</w>": 895,
  "골덴": 896,
  "골덴</w>": 897,
  "골라</w>": 898,
  "골라서</w>": 899,
  "골려주": 900,
  "골목에</w>": 901,
  "골몰": 902,
  "골짜": 903,
  "골짜기</w>": 904,
  "곯": 905,
  "곰살궂게</w>": 906,
  "곱": 907,
  "곱게</w>": 908,
  "곱게곱게</w>": 909,
  "곱배기</w>": 910,
  "곳": 911,
  "곳</w>": 912,
  "곳간</w>": 913,
  "곳에</w>": 914,
  "곳에는</w>": 915,
  "곳에서</w>": 916,
  "곳으로</w>": 917,
  "곳은</w>": 918,
  "곳을</w>": 919,
  "곳이</w>": 920,
  "곳이라</w>": 921,
  "곳이었습니다.</w>": 922,
  "공": 923,
  "공기를</w>": 924,
  "공부": 925,
  "공부</w>": 926,
  "공부를</w>": 927,
  "공부하": 928,
  "공부하고</w>": 929,
  "공부하는</w>": 930,
  "공연히</w>": 931,
  "공을</w>": 932,
  "공장": 933,
  "공장</w>": 934,
  "공장과</w>": 935,
  "공장을</w>": 936,
  "공장이</w>": 937,
  "공책": 938,
  "과": 939,
  "과</w>": 940,
  "과는</w>": 941,
  "과도</w>": 942,
  "과부": 943,
  "과연</w>": 944,
  "과자</w>": 945,
  "과자가</w>": 946,
  "과자를</w>": 947,
  "곽": 948,
  "관": 949,
  "관</w>": 950,
  "관계": 951,
  "관계가</w>": 952,
  "관이</w>": 953,
  "광": 954,
  "광</w>": 955,
  "광경을</w>": 956,
  "광고": 957,
  "광고를</w>": 958,
  "광대": 959,
  "광대</w>": 960,
  "광대가</w>": 961,
  "광대는</w>": 962,
  "광채": 963,
  "괘": 964,
  "괜찮": 965,
  "괭": 966,
  "괭이</w>": 967,
  "괴": 968,
  "괴로": 969,
  "괴로움을</w>": 970,
  "괴로워하는</w>": 971,
  "괴로웠습니다.</w>": 972,
  "굉장": 973,
  "굉장한</w>": 974,
  "굉장히</w>": 975,
  "교": 976,
  "교</w>": 977,
  "교를</w>": 978,
  "교문을</w>": 979,
  "교자": 980,
  "교장</w>": 981,
  "교정": 982,
  "구": 983,
  "구!”</w>": 984,
  "구,</w>": 985,
  "구.</w>": 986,
  "구</w>": 987,
  "구가</w>": 988,
  "구경": 989,
  "구경</w>": 990,
  "구경도</w>": 991,
  "구경을</w>": 992,
  "구나": 993,
  "구나!”</w>": 994,
  "구나.\"</w>": 995,
  "구나.</w>": 996,
  "구나.”</w>": 997,
  "구나</w>": 998,
  "구는</w>": 999,
  "구두</w>": 1000,
  "구두를</w>": 1001,
  "구렁": 1002,
  "구를</w>": 1003,
  "구름": 1004,
  "구름선녀가</w>": 1005,
  "구름에</w>": 1006,
  "구름을</w>": 1007,
  "구름이</w>": 1008,
  "구먼": 1009,
  "구멍": 1010,
  "구멍으로</w>": 1011,
  "구멍을</w>": 1012,
  "구석": 1013,
  "구석</w>": 1014,
  "구석에</w>": 1015,
  "구슬": 1016,
  "구절을</w>": 1017,
  "구차": 1018,
  "구차한</w>": 1019,
  "구차해서</w>": 1020,
  "구해": 1021,
  "구해</w>": 1022,
  "국": 1023,
  "국</w>": 1024,
  "국경": 1025,
  "군": 1026,
  "군!</w>": 1027,
  "군</w>": 1028,
  "군데</w>": 1029,
  "군사": 1030,
  "군사가</w>": 1031,
  "군사는</w>": 1032,
  "군사를</w>": 1033,
  "군사와</w>": 1034,
  "군사의</w>": 1035,
  "군청": 1036,
  "굳": 1037,
  "굳게</w>": 1038,
  "굳센</w>": 1039,
  "굴": 1040,
  "굴</w>": 1041,
  "굴뚝": 1042,
  "굴뚝</w>": 1043,
  "굴러</w>": 1044,
  "굴리면서</w>": 1045,
  "굴어": 1046,
  "굴어!’</w>": 1047,
  "굴어</w>": 1048,
  "굵": 1049,
  "굵은</w>": 1050,
  "굶": 1051,
  "굽": 1052,
  "굽이쳐</w>": 1053,
  "굿바이": 1054,
  "굿바이.</w>": 1055,
  "궁": 1056,
  "궁금": 1057,
  "궁리": 1058,
  "궁리를</w>": 1059,
  "궂": 1060,
  "궂게</w>": 1061,
  "궂은": 1062,
  "궂은</w>": 1063,
  "궈": 1064,
  "권": 1065,
  "권</w>": 1066,
  "궐": 1067,
  "궤짝": 1068,
  "궤짝</w>": 1069,
  "궤짝을</w>": 1070,
  "귀": 1071,
  "귀</w>": 1072,
  "귀를</w>": 1073,
  "귀복": 1074,
  "귀복이가</w>": 1075,
  "귀복이는</w>": 1076,
  "귀복이를</w>": 1077,
  "귀복이에게</w>": 1078,
  "귀신": 1079,
  "귀신</w>": 1080,
  "귀신이</w>": 1081,
  "귀애": 1082,
  "귀에</w>": 1083,
  "귀에다</w>": 1084,
  "귀에서</w>": 1085,
  "귀여": 1086,
  "귀여운</w>": 1087,
  "귀찮": 1088,
  "규": 1089,
  "귤": 1090,
  "그": 1091,
  "그</w>": 1092,
  "그걸</w>": 1093,
  "그걸로</w>": 1094,
  "그것": 1095,
  "그것</w>": 1096,
  "그것도</w>": 1097,
  "그것들은</w>": 1098,
  "그것만": 1099,
  "그것은</w>": 1100,
  "그것을</w>": 1101,
  "그것이</w>": 1102,
  "그게</w>": 1103,
  "그곳": 1104,
  "그곳</w>": 1105,
  "그곳에는</w>": 1106,
  "그날</w>": 1107,
  "그날도</w>": 1108,
  "그냥</w>": 1109,
  "그네": 1110,
  "그놈": 1111,
  "그놈들을</w>": 1112,
  "그는</w>": 1113,
  "그다": 1114,
  "그대": 1115,
  "그대로</w>": 1116,
  "그동안</w>": 1117,
  "그들</w>": 1118,
  "그들은</w>": 1119,
  "그들의</w>": 1120,
  "그때": 1121,
  "그때</w>": 1122,
  "그때까지</w>": 1123,
  "그때는</w>": 1124,
  "그때마다</w>": 1125,
  "그때부터</w>": 1126,
  "그때에</w>": 1127,
  "그래": 1128,
  "그래,</w>": 1129,
  "그래.</w>": 1130,
  "그래.”</w>": 1131,
  "그래</w>": 1132,
  "그래도</w>": 1133,
  "그래서</w>": 1134,
  "그랬": 1135,
  "그랬는지</w>": 1136,
  "그랬더니</w>": 1137,
  "그러": 1138,
  "그러</w>": 1139,
  "그러겠습니다.”</w>": 1140,
  "그러고</w>": 1141,
  "그러나</w>": 1142,
  "그러냐.</w>": 1143,
  "그러는</w>": 1144,
  "그러니</w>": 1145,
  "그러니까</w>": 1146,
  "그러니깐</w>": 1147,
  "그러면</w>": 1148,
  "그러면서도</w>": 1149,
  "그러므로</w>": 1150,
  "그러우.</w>": 1151,
  "그러자</w>": 1152,
  "그러한</w>": 1153,
  "그런": 1154,
  "그런</w>": 1155,
  "그런데</w>": 1156,
  "그런지</w>": 1157,
  "그럴</w>": 1158,
  "그럼</w>": 1159,
  "그렇": 1160,
  "그렇게</w>": 1161,
  "그렇다.</w>": 1162,
  "그렇다고</w>": 1163,
  "그렇습니까": 1164,
  "그렇습니까.</w>": 1165,
  "그렇지</w>": 1166,
  "그렇지만</w>": 1167,
  "그레": 1168,
  "그레</w>": 1169,
  "그려": 1170,
  "그려.</w>": 1171,
  "그려.”</w>": 1172,
  "그로부터</w>": 1173,
  "그르": 1174,
  "그릇": 1175,
  "그릇</w>": 1176,
  "그릇을</w>": 1177,
  "그리": 1178,
  "그리</w>": 1179,
  "그리고,</w>": 1180,
  "그리고</w>": 1181,
  "그리워": 1182,
  "그리워하는</w>": 1183,
  "그리하여</w>": 1184,
  "그린</w>": 1185,
  "그린다.</w>": 1186,
  "그림": 1187,
  "그림</w>": 1188,
  "그림같이</w>": 1189,
  "그림에</w>": 1190,
  "그림은</w>": 1191,
  "그림을</w>": 1192,
  "그림이</w>": 1193,
  "그마한</w>": 1194,
  "그만": 1195,
  "그만</w>": 1196,
  "그만두": 1197,
  "그만두시": 1198,
  "그만큼</w>": 1199,
  "그만한</w>": 1200,
  "그머니</w>": 1201,
  "그믐": 1202,
  "그보다도</w>": 1203,
  "그야말로</w>": 1204,
  "그윽한</w>": 1205,
  "그을": 1206,
  "그의</w>": 1207,
  "그저</w>": 1208,
  "그제": 1209,
  "그제야</w>": 1210,
  "그중</w>": 1211,
  "그중에도</w>": 1212,
  "그치": 1213,
  "그치고</w>": 1214,
  "그치지</w>": 1215,
  "극": 1216,
  "극진히</w>": 1217,
  "근": 1218,
  "근</w>": 1219,
  "근심": 1220,
  "근심이</w>": 1221,
  "근처": 1222,
  "근처를</w>": 1223,
  "근처에는</w>": 1224,
  "근처의</w>": 1225,
  "글": 1226,
  "글</w>": 1227,
  "글방</w>": 1228,
  "글방에서</w>": 1229,
  "글썽글썽": 1230,
  "글쎄": 1231,
  "글을</w>": 1232,
  "긁": 1233,
  "금": 1234,
  "금</w>": 1235,
  "금고": 1236,
  "금고</w>": 1237,
  "금고형</w>": 1238,
  "금덩": 1239,
  "금덩어리</w>": 1240,
  "금덩어리를</w>": 1241,
  "금덩이</w>": 1242,
  "금덩이를</w>": 1243,
  "금반지</w>": 1244,
  "금방</w>": 1245,
  "금붕": 1246,
  "금붕어": 1247,
  "금시계": 1248,
  "금융조합": 1249,
  "금이</w>": 1250,
  "급": 1251,
  "급</w>": 1252,
  "급사": 1253,
  "급장": 1254,
  "급하고</w>": 1255,
  "급한</w>": 1256,
  "급히</w>": 1257,
  "긋": 1258,
  "긋</w>": 1259,
  "기": 1260,
  "기</w>": 1261,
  "기가</w>": 1262,
  "기고</w>": 1263,
  "기까지</w>": 1264,
  "기나긴</w>": 1265,
  "기는</w>": 1266,
  "기능": 1267,
  "기다": 1268,
  "기다려": 1269,
  "기다려</w>": 1270,
  "기다렸": 1271,
  "기다렸다.</w>": 1272,
  "기다리": 1273,
  "기다리고</w>": 1274,
  "기다리던</w>": 1275,
  "기다리면서도</w>": 1276,
  "기다리실</w>": 1277,
  "기도</w>": 1278,
  "기둥": 1279,
  "기로</w>": 1280,
  "기른</w>": 1281,
  "기를</w>": 1282,
  "기름": 1283,
  "기름</w>": 1284,
  "기만</w>": 1285,
  "기면서</w>": 1286,
  "기뻐": 1287,
  "기뻐서</w>": 1288,
  "기뻐하는</w>": 1289,
  "기뻐하며</w>": 1290,
  "기뻐하였습니다.</w>": 1291,
  "기뻤": 1292,
  "기쁘": 1293,
  "기쁘던지</w>": 1294,
  "기쁜</w>": 1295,
  "기쁨": 1296,
  "기쁨과</w>": 1297,
  "기쁨에</w>": 1298,
  "기쁨으로</w>": 1299,
  "기쁨을</w>": 1300,
  "기쁨이</w>": 1301,
  "기색": 1302,
  "기색이</w>": 1303,
  "기숙": 1304,
  "기어</w>": 1305,
  "기어서</w>": 1306,
  "기어이</w>": 1307,
  "기억": 1308,
  "기억하고</w>": 1309,
  "기었습니다.</w>": 1310,
  "기에</w>": 1311,
  "기에는</w>": 1312,
  "기에도</w>": 1313,
  "기와": 1314,
  "기와</w>": 1315,
  "기운": 1316,
  "기운을</w>": 1317,
  "기운이</w>": 1318,
  "기울": 1319,
  "기적": 1320,
  "기적</w>": 1321,
  "기적을</w>": 1322,
  "기절을</w>": 1323,
  "기지</w>": 1324,
  "기차": 1325,
  "기차</w>": 1326,
  "기차가</w>": 1327,
  "기차는</w>": 1328,
  "기차를</w>": 1329,
  "기척": 1330,
  "기척이</w>": 1331,
  "기침": 1332,
  "기특": 1333,
  "기특하다.</w>": 1334,
  "기회": 1335,
  "기회를</w>": 1336,
  "긴": 1337,
  "긴</w>": 1338,
  "긴가민": 1339,
  "길": 1340,
  "길</w>": 1341,
  "길가</w>": 1342,
  "길거리": 1343,
  "길거리로</w>": 1344,
  "길게</w>": 1345,
  "길길이</w>": 1346,
  "길까": 1347,
  "길도</w>": 1348,
  "길러": 1349,
  "길러준</w>": 1350,
  "길로</w>": 1351,
  "길에</w>": 1352,
  "길에서</w>": 1353,
  "길을</w>": 1354,
  "길이</w>": 1355,
  "길이나</w>": 1356,
  "길이는</w>": 1357,
  "김": 1358,
  "김</w>": 1359,
  "김에</w>": 1360,
  "김첨": 1361,
  "김첨지": 1362,
  "김첨지</w>": 1363,
  "김첨지가</w>": 1364,
  "김첨지는</w>": 1365,
  "김첨지를</w>": 1366,
  "김첨지의</w>": 1367,
  "깁": 1368,
  "깃": 1369,
  "깊": 1370,
  "깊은</w>": 1371,
  "깊이</w>": 1372,
  "까": 1373,
  "까.</w>": 1374,
  "까.’</w>": 1375,
  "까</w>": 1376,
  "까?</w>": 1377,
  "까는</w>": 1378,
  "까닭": 1379,
  "까닭</w>": 1380,
  "까닭에</w>": 1381,
  "까닭으로</w>": 1382,
  "까닭은</w>": 1383,
  "까닭을</w>": 1384,
  "까닭이": 1385,
  "까닭이</w>": 1386,
  "까닭이다.</w>": 1387,
  "까닭이었습니다.</w>": 1388,
  "까닭인지</w>": 1389,
  "까닭입니다.</w>": 1390,
  "까맣게</w>": 1391,
  "까무러": 1392,
  "까무러칠</w>": 1393,
  "까지</w>": 1394,
  "까지나</w>": 1395,
  "까지는</w>": 1396,
  "까지도</w>": 1397,
  "까짓</w>": 1398,
  "까칫": 1399,
  "깍": 1400,
  "깍!</w>": 1401,
  "깐.”</w>": 1402,
  "깐</w>": 1403,
  "깔": 1404,
  "깔깔": 1405,
  "깔깔</w>": 1406,
  "깜": 1407,
  "깜박": 1408,
  "깜박</w>": 1409,
  "깜짝</w>": 1410,
  "깡": 1411,
  "깨": 1412,
  "깨</w>": 1413,
  "깨끗이</w>": 1414,
  "깨끗한</w>": 1415,
  "깨달": 1416,
  "깨달았다.</w>": 1417,
  "깨뜨": 1418,
  "깨어": 1419,
  "깨어난</w>": 1420,
  "깨었을</w>": 1421,
  "깨트": 1422,
  "깬": 1423,
  "깽": 1424,
  "꺼": 1425,
  "꺼내": 1426,
  "꺼내</w>": 1427,
  "꺼내다가</w>": 1428,
  "꺼내서</w>": 1429,
  "꺼내어</w>": 1430,
  "꺽": 1431,
  "꺾": 1432,
  "꺾어</w>": 1433,
  "껄": 1434,
  "껄껄": 1435,
  "껄껄</w>": 1436,
  "껍데": 1437,
  "껍질로</w>": 1438,
  "껏</w>": 1439,
  "껑": 1440,
  "께": 1441,
  "께</w>": 1442,
  "께는</w>": 1443,
  "께도</w>": 1444,
  "께로</w>": 1445,
  "께를</w>": 1446,
  "께서": 1447,
  "께서</w>": 1448,
  "께서는</w>": 1449,
  "께서도</w>": 1450,
  "껴": 1451,
  "껴안고</w>": 1452,
  "꼈": 1453,
  "꼬": 1454,
  "꼬리를</w>": 1455,
  "꼭": 1456,
  "꼭</w>": 1457,
  "꼭대기로</w>": 1458,
  "꼴": 1459,
  "꼴을</w>": 1460,
  "꼴이</w>": 1461,
  "꼼짝": 1462,
  "꼼짝</w>": 1463,
  "꼽": 1464,
  "꽁": 1465,
  "꽂": 1466,
  "꽃": 1467,
  "꽃,</w>": 1468,
  "꽃</w>": 1469,
  "꽃들이</w>": 1470,
  "꽃으로</w>": 1471,
  "꽃은</w>": 1472,
  "꽃을</w>": 1473,
  "꽃이</w>": 1474,
  "꽃피는</w>": 1475,
  "꽉</w>": 1476,
  "꽝": 1477,
  "꽤</w>": 1478,
  "꽥</w>": 1479,
  "꾀": 1480,
  "꾀꼬리</w>": 1481,
  "꾀쇠": 1482,
  "꾀쇠가</w>": 1483,
  "꾀쇠는</w>": 1484,
  "꾀쇠야!</w>": 1485,
  "꾀죄죄</w>": 1486,
  "꾸": 1487,
  "꾸</w>": 1488,
  "꾸는</w>": 1489,
  "꾸로</w>": 1490,
  "꾸며": 1491,
  "꾸미": 1492,
  "꾸불</w>": 1493,
  "꾸었": 1494,
  "꾸지람": 1495,
  "꾸지람을</w>": 1496,
  "꾸짖": 1497,
  "꾹!</w>": 1498,
  "꾹</w>": 1499,
  "꾼": 1500,
  "꿀": 1501,
  "꿀꺽꿀꺽</w>": 1502,
  "꿇": 1503,
  "꿈": 1504,
  "꿈속에서</w>": 1505,
  "꿈에도</w>": 1506,
  "꿈을</w>": 1507,
  "꿍": 1508,
  "꿩": 1509,
  "끄": 1510,
  "끄는</w>": 1511,
  "끄덕": 1512,
  "끄덕끄덕</w>": 1513,
  "끈": 1514,
  "끈</w>": 1515,
  "끊": 1516,
  "끊어지": 1517,
  "끌": 1518,
  "끌고,</w>": 1519,
  "끌고</w>": 1520,
  "끌면서</w>": 1521,
  "끓": 1522,
  "끓는</w>": 1523,
  "끓이는</w>": 1524,
  "끔": 1525,
  "끔</w>": 1526,
  "끔찍": 1527,
  "끗": 1528,
  "끝": 1529,
  "끝</w>": 1530,
  "끝까지</w>": 1531,
  "끝나": 1532,
  "끝나자</w>": 1533,
  "끝내</w>": 1534,
  "끝만한</w>": 1535,
  "끝없이</w>": 1536,
  "끝에</w>": 1537,
  "끝이</w>": 1538,
  "끼": 1539,
  "끼</w>": 1540,
  "끼고</w>": 1541,
  "끼니": 1542,
  "끼니가</w>": 1543,
  "끼도</w>": 1544,
  "끼를</w>": 1545,
  "끼어</w>": 1546,
  "끼익!</w>": 1547,
  "끼쳐": 1548,
  "끼쳐드리": 1549,
  "낀": 1550,
  "낄": 1551,
  "낄</w>": 1552,
  "나": 1553,
  "나!</w>": 1554,
  "나,</w>": 1555,
  "나.</w>": 1556,
  "나.”</w>": 1557,
  "나</w>": 1558,
  "나?</w>": 1559,
  "나’</w>": 1560,
  "나가": 1561,
  "나가</w>": 1562,
  "나가겠다.</w>": 1563,
  "나가고</w>": 1564,
  "나가는</w>": 1565,
  "나가서</w>": 1566,
  "나가셨": 1567,
  "나가시": 1568,
  "나가지</w>": 1569,
  "나간</w>": 1570,
  "나갈</w>": 1571,
  "나갔는데</w>": 1572,
  "나갔는지</w>": 1573,
  "나갔다가</w>": 1574,
  "나갔던</w>": 1575,
  "나갔습니다.</w>": 1576,
  "나같이</w>": 1577,
  "나게</w>": 1578,
  "나고</w>": 1579,
  "나기</w>": 1580,
  "나날이</w>": 1581,
  "나는</w>": 1582,
  "나니</w>": 1583,
  "나더니</w>": 1584,
  "나도</w>": 1585,
  "나도록</w>": 1586,
  "나두</w>": 1587,
  "나둥그러": 1588,
  "나라": 1589,
  "나라</w>": 1590,
  "나라는</w>": 1591,
  "나라로</w>": 1592,
  "나라를</w>": 1593,
  "나라에</w>": 1594,
  "나라의</w>": 1595,
  "나란히</w>": 1596,
  "나를</w>": 1597,
  "나만</w>": 1598,
  "나면</w>": 1599,
  "나면서</w>": 1600,
  "나무": 1601,
  "나무</w>": 1602,
  "나무라": 1603,
  "나무라고</w>": 1604,
  "나무라든지</w>": 1605,
  "나무를</w>": 1606,
  "나뭇": 1607,
  "나보다": 1608,
  "나보다.</w>": 1609,
  "나보다</w>": 1610,
  "나비": 1611,
  "나쁜</w>": 1612,
  "나서": 1613,
  "나서</w>": 1614,
  "나서는,</w>": 1615,
  "나서는</w>": 1616,
  "나서서</w>": 1617,
  "나서지</w>": 1618,
  "나섰다.</w>": 1619,
  "나셔서</w>": 1620,
  "나신</w>": 1621,
  "나아서</w>": 1622,
  "나에게</w>": 1623,
  "나에게는</w>": 1624,
  "나오": 1625,
  "나오너라.”</w>": 1626,
  "나오는</w>": 1627,
  "나오더니</w>": 1628,
  "나오면서</w>": 1629,
  "나오지</w>": 1630,
  "나온</w>": 1631,
  "나온다.</w>": 1632,
  "나올</w>": 1633,
  "나와</w>": 1634,
  "나와서</w>": 1635,
  "나왔": 1636,
  "나왔다.</w>": 1637,
  "나왔습니다.</w>": 1638,
  "나은</w>": 1639,
  "나의</w>": 1640,
  "나이</w>": 1641,
  "나중에</w>": 1642,
  "나중에는</w>": 1643,
  "나지": 1644,
  "나지막한</w>": 1645,
  "나타": 1646,
  "나타나는</w>": 1647,
  "나하고</w>": 1648,
  "나한테</w>": 1649,
  "나흘": 1650,
  "낙": 1651,
  "낙동강": 1652,
  "낙동강</w>": 1653,
  "낙동강의</w>": 1654,
  "낙심": 1655,
  "난": 1656,
  "난</w>": 1657,
  "난다.</w>": 1658,
  "난로": 1659,
  "난로</w>": 1660,
  "날": 1661,
  "날,</w>": 1662,
  "날</w>": 1663,
  "날개": 1664,
  "날과</w>": 1665,
  "날도</w>": 1666,
  "날리는</w>": 1667,
  "날마다</w>": 1668,
  "날부터</w>": 1669,
  "날쌔": 1670,
  "날아": 1671,
  "날은</w>": 1672,
  "날을</w>": 1673,
  "날이</w>": 1674,
  "날이나</w>": 1675,
  "날이면</w>": 1676,
  "날이었다.</w>": 1677,
  "날이었습니다.</w>": 1678,
  "날자.</w>": 1679,
  "날짜": 1680,
  "남": 1681,
  "남</w>": 1682,
  "남겨": 1683,
  "남고</w>": 1684,
  "남기고</w>": 1685,
  "남는</w>": 1686,
  "남대문</w>": 1687,
  "남매": 1688,
  "남매는</w>": 1689,
  "남매를</w>": 1690,
  "남아</w>": 1691,
  "남에게</w>": 1692,
  "남은</w>": 1693,
  "남을</w>": 1694,
  "남의</w>": 1695,
  "남이</w>": 1696,
  "남이는</w>": 1697,
  "남자": 1698,
  "남자가</w>": 1699,
  "남자는</w>": 1700,
  "남자의</w>": 1701,
  "남지</w>": 1702,
  "남쪽": 1703,
  "남쪽</w>": 1704,
  "남편이</w>": 1705,
  "납": 1706,
  "낫": 1707,
  "낫지</w>": 1708,
  "났": 1709,
  "났</w>": 1710,
  "났는데</w>": 1711,
  "났다.</w>": 1712,
  "났습니다.</w>": 1713,
  "낭": 1714,
  "낮": 1715,
  "낮</w>": 1716,
  "낮은</w>": 1717,
  "낮이나</w>": 1718,
  "낮잠을</w>": 1719,
  "낯": 1720,
  "낯으로</w>": 1721,
  "낯이</w>": 1722,
  "낳": 1723,
  "낳은</w>": 1724,
  "내": 1725,
  "내,</w>": 1726,
  "내</w>": 1727,
  "내가</w>": 1728,
  "내객": 1729,
  "내객들은</w>": 1730,
  "내객들이</w>": 1731,
  "내객이</w>": 1732,
  "내게</w>": 1733,
  "내게는</w>": 1734,
  "내고</w>": 1735,
  "내나</w>": 1736,
  "내년": 1737,
  "내년</w>": 1738,
  "내년이</w>": 1739,
  "내놓아라.”</w>": 1740,
  "내는</w>": 1741,
  "내다</w>": 1742,
  "내다가</w>": 1743,
  "내다보": 1744,
  "내던지고</w>": 1745,
  "내동댕이": 1746,
  "내려": 1747,
  "내려</w>": 1748,
  "내려가": 1749,
  "내려가던</w>": 1750,
  "내려가서</w>": 1751,
  "내려갔습니다.</w>": 1752,
  "내려놓고</w>": 1753,
  "내려다보": 1754,
  "내려다보는</w>": 1755,
  "내려다보았다.</w>": 1756,
  "내려다보았습니다.</w>": 1757,
  "내려뜨": 1758,
  "내려오": 1759,
  "내려오너라.</w>": 1760,
  "내려올</w>": 1761,
  "내려와서</w>": 1762,
  "내려왔다.</w>": 1763,
  "내를</w>": 1764,
  "내리": 1765,
  "내리</w>": 1766,
  "내리는</w>": 1767,
  "내며,</w>": 1768,
  "내며</w>": 1769,
  "내면서</w>": 1770,
  "내미는</w>": 1771,
  "내밀": 1772,
  "내배": 1773,
  "내버": 1774,
  "내버려</w>": 1775,
  "내보": 1776,
  "내어": 1777,
  "내어</w>": 1778,
  "내어달아</w>": 1779,
  "내었습니다.</w>": 1780,
  "내일": 1781,
  "내일</w>": 1782,
  "내지</w>": 1783,
  "내쫓": 1784,
  "내쫓기고</w>": 1785,
  "낸": 1786,
  "낸</w>": 1787,
  "낸다.</w>": 1788,
  "낼": 1789,
  "낼</w>": 1790,
  "냄": 1791,
  "냄새": 1792,
  "냄새</w>": 1793,
  "냄새가</w>": 1794,
  "냅": 1795,
  "냇": 1796,
  "냇가": 1797,
  "냇가에</w>": 1798,
  "냇물</w>": 1799,
  "냇물에</w>": 1800,
  "냈": 1801,
  "냈습니다.</w>": 1802,
  "냉": 1803,
  "냐,</w>": 1804,
  "냐.</w>": 1805,
  "냐?</w>": 1806,
  "냐?”</w>": 1807,
  "냐”</w>": 1808,
  "냘": 1809,
  "냥": 1810,
  "냥</w>": 1811,
  "너": 1812,
  "너</w>": 1813,
  "너같이</w>": 1814,
  "너는</w>": 1815,
  "너도</w>": 1816,
  "너로구나.</w>": 1817,
  "너를</w>": 1818,
  "너머": 1819,
  "너무": 1820,
  "너무</w>": 1821,
  "너무나</w>": 1822,
  "너무도</w>": 1823,
  "너에게</w>": 1824,
  "너의</w>": 1825,
  "너털웃음을</w>": 1826,
  "너한테</w>": 1827,
  "너희": 1828,
  "너희</w>": 1829,
  "너희들</w>": 1830,
  "너희들은</w>": 1831,
  "너희들이</w>": 1832,
  "넉": 1833,
  "넉넉히</w>": 1834,
  "넋": 1835,
  "넌": 1836,
  "넌</w>": 1837,
  "널": 1838,
  "널</w>": 1839,
  "널더러</w>": 1840,
  "넓": 1841,
  "넓은</w>": 1842,
  "넘": 1843,
  "넘어": 1844,
  "넘어</w>": 1845,
  "넘어가": 1846,
  "넘어가는</w>": 1847,
  "넘어간</w>": 1848,
  "넘어서</w>": 1849,
  "넘어진</w>": 1850,
  "넘었습니다.</w>": 1851,
  "넘쳐": 1852,
  "넘치는</w>": 1853,
  "넙": 1854,
  "넣": 1855,
  "넣고</w>": 1856,
  "넣어</w>": 1857,
  "넣었습니다.</w>": 1858,
  "넣은</w>": 1859,
  "네": 1860,
  "네,</w>": 1861,
  "네.</w>": 1862,
  "네.”</w>": 1863,
  "네</w>": 1864,
  "네가</w>": 1865,
  "네거리</w>": 1866,
  "네게</w>": 1867,
  "네모</w>": 1868,
  "넥": 1869,
  "넷": 1870,
  "녀가</w>": 1871,
  "녀석": 1872,
  "녀의</w>": 1873,
  "녁": 1874,
  "년": 1875,
  "년,</w>": 1876,
  "년</w>": 1877,
  "년간</w>": 1878,
  "년을</w>": 1879,
  "년이</w>": 1880,
  "년이나</w>": 1881,
  "념": 1882,
  "노": 1883,
  "노</w>": 1884,
  "노기가</w>": 1885,
  "노는</w>": 1886,
  "노란</w>": 1887,
  "노래": 1888,
  "노래</w>": 1889,
  "노래도</w>": 1890,
  "노래를</w>": 1891,
  "노래하고</w>": 1892,
  "노력": 1893,
  "노력하여</w>": 1894,
  "노릇": 1895,
  "노릇을</w>": 1896,
  "노릇이</w>": 1897,
  "노여": 1898,
  "노파": 1899,
  "녹": 1900,
  "논": 1901,
  "논과</w>": 1902,
  "논다.</w>": 1903,
  "논둑": 1904,
  "논둑</w>": 1905,
  "논둑길을</w>": 1906,
  "논에</w>": 1907,
  "놀": 1908,
  "놀</w>": 1909,
  "놀라": 1910,
  "놀라</w>": 1911,
  "놀라는</w>": 1912,
  "놀라면서</w>": 1913,
  "놀라서</w>": 1914,
  "놀라운</w>": 1915,
  "놀라지</w>": 1916,
  "놀란</w>": 1917,
  "놀랄</w>": 1918,
  "놀랐": 1919,
  "놀랐는지</w>": 1920,
  "놀랐다.</w>": 1921,
  "놀랐습니다.</w>": 1922,
  "놀려": 1923,
  "놀리": 1924,
  "놀리는</w>": 1925,
  "놀지</w>": 1926,
  "놈": 1927,
  "놈,</w>": 1928,
  "놈</w>": 1929,
  "놈대로</w>": 1930,
  "놈들</w>": 1931,
  "놈들이</w>": 1932,
  "놈아!”</w>": 1933,
  "놈은</w>": 1934,
  "놈을</w>": 1935,
  "놈의</w>": 1936,
  "놈이</w>": 1937,
  "농": 1938,
  "높": 1939,
  "높게</w>": 1940,
  "높아": 1941,
  "높여</w>": 1942,
  "높은</w>": 1943,
  "높이</w>": 1944,
  "놓": 1945,
  "놓</w>": 1946,
  "놓고</w>": 1947,
  "놓고는</w>": 1948,
  "놓는</w>": 1949,
  "놓는다.</w>": 1950,
  "놓다가</w>": 1951,
  "놓아": 1952,
  "놓아</w>": 1953,
  "놓았다.</w>": 1954,
  "놓았습니다.</w>": 1955,
  "놓여</w>": 1956,
  "놓은</w>": 1957,
  "놓을</w>": 1958,
  "놓인</w>": 1959,
  "놓지</w>": 1960,
  "놔": 1961,
  "놨": 1962,
  "누": 1963,
  "누</w>": 1964,
  "누가</w>": 1965,
  "누구": 1966,
  "누구</w>": 1967,
  "누구나</w>": 1968,
  "누구든지</w>": 1969,
  "누구를</w>": 1970,
  "누구에게</w>": 1971,
  "누그러": 1972,
  "누나": 1973,
  "누나</w>": 1974,
  "누나가</w>": 1975,
  "누나는</w>": 1976,
  "누나두</w>": 1977,
  "누나를</w>": 1978,
  "누난</w>": 1979,
  "누님": 1980,
  "누님!</w>": 1981,
  "누님과</w>": 1982,
  "누님께서는</w>": 1983,
  "누님은</w>": 1984,
  "누님을</w>": 1985,
  "누님의</w>": 1986,
  "누님이</w>": 1987,
  "누님이야": 1988,
  "누런</w>": 1989,
  "누명": 1990,
  "누우": 1991,
  "누우셨": 1992,
  "누운</w>": 1993,
  "누워</w>": 1994,
  "누워서</w>": 1995,
  "누이": 1996,
  "누이동생</w>": 1997,
  "눈": 1998,
  "눈</w>": 1999,
  "눈깔!</w>": 2000,
  "눈깔이</w>": 2001,
  "눈망울을</w>": 2002,
  "눈물": 2003,
  "눈물-</w>": 2004,
  "눈물</w>": 2005,
  "눈물까지</w>": 2006,
  "눈물만</w>": 2007,
  "눈물에</w>": 2008,
  "눈물은</w>": 2009,
  "눈물을</w>": 2010,
  "눈물의</w>": 2011,
  "눈물이</w>": 2012,
  "눈물이었습니다.</w>": 2013,
  "눈물지": 2014,
  "눈물짓고</w>": 2015,
  "눈보라": 2016,
  "눈보라</w>": 2017,
  "눈보라치는</w>": 2018,
  "눈앞에</w>": 2019,
  "눈에</w>": 2020,
  "눈에는</w>": 2021,
  "눈에서</w>": 2022,
  "눈에서는</w>": 2023,
  "눈에서도</w>": 2024,
  "눈으로</w>": 2025,
  "눈은</w>": 2026,
  "눈을</w>": 2027,
  "눈이</w>": 2028,
  "눈초": 2029,
  "눈총을</w>": 2030,
  "눈치": 2031,
  "눈치</w>": 2032,
  "눈치로</w>": 2033,
  "눈치를</w>": 2034,
  "눌": 2035,
  "눌러</w>": 2036,
  "눕": 2037,
  "눕고</w>": 2038,
  "눕는</w>": 2039,
  "눗": 2040,
  "눠": 2041,
  "뉘": 2042,
  "뉘우": 2043,
  "뉴": 2044,
  "느": 2045,
  "느</w>": 2046,
  "느껴": 2047,
  "느껴</w>": 2048,
  "느꼈": 2049,
  "느꼈다.</w>": 2050,
  "느끼": 2051,
  "느낌이</w>": 2052,
  "느냐": 2053,
  "느냐,</w>": 2054,
  "느냐?”</w>": 2055,
  "느냐고</w>": 2056,
  "느니": 2057,
  "느니</w>": 2058,
  "느니라.</w>": 2059,
  "느니보다</w>": 2060,
  "느다란</w>": 2061,
  "느라고</w>": 2062,
  "늑": 2063,
  "는": 2064,
  "는,</w>": 2065,
  "는</w>": 2066,
  "는‧‧‧‧‧‧.”</w>": 2067,
  "는가": 2068,
  "는걸": 2069,
  "는걸.”</w>": 2070,
  "는구나": 2071,
  "는다": 2072,
  "는다.</w>": 2073,
  "는다고</w>": 2074,
  "는다는</w>": 2075,
  "는다면</w>": 2076,
  "는데": 2077,
  "는데,</w>": 2078,
  "는데</w>": 2079,
  "는데도</w>": 2080,
  "는이</w>": 2081,
  "는지": 2082,
  "는지</w>": 2083,
  "는지도</w>": 2084,
  "늘": 2085,
  "늘</w>": 2086,
  "늘어": 2087,
  "늘어</w>": 2088,
  "늘어지게</w>": 2089,
  "늙": 2090,
  "늙어": 2091,
  "늙은</w>": 2092,
  "능": 2093,
  "능금": 2094,
  "능히</w>": 2095,
  "늦": 2096,
  "늦게</w>": 2097,
  "늦도록</w>": 2098,
  "늦은</w>": 2099,
  "니": 2100,
  "니,</w>": 2101,
  "니.</w>": 2102,
  "니.”</w>": 2103,
  "니</w>": 2104,
  "니?\"</w>": 2105,
  "니?</w>": 2106,
  "니?”</w>": 2107,
  "니”</w>": 2108,
  "니까": 2109,
  "니까,</w>": 2110,
  "니까.</w>": 2111,
  "니까.”</w>": 2112,
  "니까</w>": 2113,
  "니까?”</w>": 2114,
  "니까”</w>": 2115,
  "니깐</w>": 2116,
  "니다": 2117,
  "니다.</w>": 2118,
  "니다.”</w>": 2119,
  "니다만</w>": 2120,
  "니를</w>": 2121,
  "니와</w>": 2122,
  "닌": 2123,
  "닐": 2124,
  "님": 2125,
  "님!</w>": 2126,
  "님</w>": 2127,
  "님과</w>": 2128,
  "님께</w>": 2129,
  "님께서</w>": 2130,
  "님도</w>": 2131,
  "님은</w>": 2132,
  "님을</w>": 2133,
  "님의</w>": 2134,
  "님이</w>": 2135,
  "닙니다.</w>": 2136,
  "다": 2137,
  "다!\"</w>": 2138,
  "다!</w>": 2139,
  "다!”</w>": 2140,
  "다,</w>": 2141,
  "다-</w>": 2142,
  "다.</w>": 2143,
  "다.’</w>": 2144,
  "다.”</w>": 2145,
  "다</w>": 2146,
  "다가": 2147,
  "다가,</w>": 2148,
  "다가</w>": 2149,
  "다가는</w>": 2150,
  "다고</w>": 2151,
  "다고도</w>": 2152,
  "다녀": 2153,
  "다녀오너라.</w>": 2154,
  "다녔": 2155,
  "다녔습니다.</w>": 2156,
  "다느니</w>": 2157,
  "다는</w>": 2158,
  "다니": 2159,
  "다니,</w>": 2160,
  "다니</w>": 2161,
  "다니?</w>": 2162,
  "다니게</w>": 2163,
  "다니는</w>": 2164,
  "다닐": 2165,
  "다다": 2166,
  "다듬": 2167,
  "다란</w>": 2168,
  "다랗게</w>": 2169,
  "다른</w>": 2170,
  "다를</w>": 2171,
  "다름없이</w>": 2172,
  "다름이</w>": 2173,
  "다리": 2174,
  "다리</w>": 2175,
  "다리가</w>": 2176,
  "다리는</w>": 2177,
  "다리를</w>": 2178,
  "다리만</w>": 2179,
  "다리에서</w>": 2180,
  "다마는</w>": 2181,
  "다만</w>": 2182,
  "다면</w>": 2183,
  "다못하여</w>": 2184,
  "다보": 2185,
  "다보고</w>": 2186,
  "다본다.</w>": 2187,
  "다봐라.</w>": 2188,
  "다봤다.</w>": 2189,
  "다섯</w>": 2190,
  "다시": 2191,
  "다시</w>": 2192,
  "다시금</w>": 2193,
  "다시는</w>": 2194,
  "다시없는</w>": 2195,
  "다시피</w>": 2196,
  "다오.</w>": 2197,
  "다우.</w>": 2198,
  "다우.”</w>": 2199,
  "다운</w>": 2200,
  "다음": 2201,
  "다음</w>": 2202,
  "다음날</w>": 2203,
  "다정": 2204,
  "다정한</w>": 2205,
  "다지": 2206,
  "다짐을</w>": 2207,
  "다치": 2208,
  "다투": 2209,
  "다행": 2210,
  "다행히</w>": 2211,
  "닥": 2212,
  "닥쳐": 2213,
  "닥치": 2214,
  "닦": 2215,
  "단": 2216,
  "단</w>": 2217,
  "단다.</w>": 2218,
  "단다.”</w>": 2219,
  "단단한</w>": 2220,
  "단단히</w>": 2221,
  "단한</w>": 2222,
  "단히</w>": 2223,
  "닫": 2224,
  "닫고</w>": 2225,
  "달": 2226,
  "달</w>": 2227,
  "달고</w>": 2228,
  "달라": 2229,
  "달라고</w>": 2230,
  "달려": 2231,
  "달려</w>": 2232,
  "달려들": 2233,
  "달려들더니</w>": 2234,
  "달려들어</w>": 2235,
  "달려들어서</w>": 2236,
  "달린</w>": 2237,
  "달아": 2238,
  "달아나": 2239,
  "달아나는</w>": 2240,
  "달아나려고</w>": 2241,
  "달아났습니다.</w>": 2242,
  "달에</w>": 2243,
  "달여</w>": 2244,
  "달을</w>": 2245,
  "달음": 2246,
  "달음질": 2247,
  "달이</w>": 2248,
  "닭": 2249,
  "닭</w>": 2250,
  "닭도</w>": 2251,
  "닭은</w>": 2252,
  "닭을</w>": 2253,
  "닭의</w>": 2254,
  "닭이</w>": 2255,
  "담": 2256,
  "담.</w>": 2257,
  "담</w>": 2258,
  "담배</w>": 2259,
  "담뱃": 2260,
  "담벼락": 2261,
  "담아</w>": 2262,
  "담아주": 2263,
  "담에</w>": 2264,
  "담을</w>": 2265,
  "담임</w>": 2266,
  "답": 2267,
  "답게</w>": 2268,
  "답니다.</w>": 2269,
  "답니다.”</w>": 2270,
  "당": 2271,
  "당</w>": 2272,
  "당나라</w>": 2273,
  "당목</w>": 2274,
  "당번": 2275,
  "당신": 2276,
  "당에</w>": 2277,
  "당연한</w>": 2278,
  "당장</w>": 2279,
  "당장에</w>": 2280,
  "당하야</w>": 2281,
  "당한</w>": 2282,
  "닿": 2283,
  "대": 2284,
  "대</w>": 2285,
  "대가</w>": 2286,
  "대강": 2287,
  "대강</w>": 2288,
  "대강이가</w>": 2289,
  "대고</w>": 2290,
  "대관절</w>": 2291,
  "대기로</w>": 2292,
  "대기를</w>": 2293,
  "대꾸": 2294,
  "대단히</w>": 2295,
  "대답": 2296,
  "대답을</w>": 2297,
  "대답이</w>": 2298,
  "대답하는</w>": 2299,
  "대답하면서</w>": 2300,
  "대답하였습니다.</w>": 2301,
  "대답했습니다.</w>": 2302,
  "대도</w>": 2303,
  "대들": 2304,
  "대들보가</w>": 2305,
  "대들보를</w>": 2306,
  "대뜸</w>": 2307,
  "대련": 2308,
  "대련까지</w>": 2309,
  "대련에</w>": 2310,
  "대련으로</w>": 2311,
  "대련행</w>": 2312,
  "대로</w>": 2313,
  "대로만</w>": 2314,
  "대를</w>": 2315,
  "대문": 2316,
  "대문</w>": 2317,
  "대문간에</w>": 2318,
  "대문에</w>": 2319,
  "대문을</w>": 2320,
  "대사": 2321,
  "대사</w>": 2322,
  "대수롭지</w>": 2323,
  "대신</w>": 2324,
  "대신에</w>": 2325,
  "대신으로</w>": 2326,
  "대어": 2327,
  "대어</w>": 2328,
  "대었습니다.</w>": 2329,
  "대왕": 2330,
  "대자보": 2331,
  "대장": 2332,
  "대장은</w>": 2333,
  "대장이</w>": 2334,
  "대접": 2335,
  "대지</w>": 2336,
  "대청": 2337,
  "대청</w>": 2338,
  "대청의</w>": 2339,
  "대체</w>": 2340,
  "대판": 2341,
  "대하여</w>": 2342,
  "대한</w>": 2343,
  "대합": 2344,
  "대항": 2345,
  "댁": 2346,
  "댁</w>": 2347,
  "댁에</w>": 2348,
  "댁으로</w>": 2349,
  "댄": 2350,
  "댈</w>": 2351,
  "댓": 2352,
  "댔": 2353,
  "댕": 2354,
  "더": 2355,
  "더</w>": 2356,
  "더구나</w>": 2357,
  "더냐": 2358,
  "더냐.”</w>": 2359,
  "더니": 2360,
  "더니,</w>": 2361,
  "더니</w>": 2362,
  "더니만</w>": 2363,
  "더듬": 2364,
  "더라.\"</w>": 2365,
  "더라.</w>": 2366,
  "더라.”</w>": 2367,
  "더라도</w>": 2368,
  "더라면</w>": 2369,
  "더러</w>": 2370,
  "더러운</w>": 2371,
  "더럽": 2372,
  "더불어</w>": 2373,
  "더욱": 2374,
  "더욱</w>": 2375,
  "더욱더욱</w>": 2376,
  "더욱이</w>": 2377,
  "더운</w>": 2378,
  "더한층</w>": 2379,
  "덕": 2380,
  "덕</w>": 2381,
  "덕거리는</w>": 2382,
  "덕택": 2383,
  "덕택으로</w>": 2384,
  "던": 2385,
  "던</w>": 2386,
  "던가": 2387,
  "던들</w>": 2388,
  "던지": 2389,
  "던지</w>": 2390,
  "덜": 2391,
  "덜</w>": 2392,
  "덜덜": 2393,
  "덤": 2394,
  "덤벙": 2395,
  "덤벙</w>": 2396,
  "덤벼": 2397,
  "덥": 2398,
  "덥석</w>": 2399,
  "덧": 2400,
  "덩": 2401,
  "덩</w>": 2402,
  "덩어리</w>": 2403,
  "덮": 2404,
  "덮친</w>": 2405,
  "데": 2406,
  "데.</w>": 2407,
  "데.”</w>": 2408,
  "데</w>": 2409,
  "데가</w>": 2410,
  "데그려.</w>": 2411,
  "데까지</w>": 2412,
  "데는</w>": 2413,
  "데다가</w>": 2414,
  "데려": 2415,
  "데려다가</w>": 2416,
  "데로</w>": 2417,
  "데리고</w>": 2418,
  "데리러</w>": 2419,
  "델": 2420,
  "뎌": 2421,
  "도": 2422,
  "도,</w>": 2423,
  "도</w>": 2424,
  "도는</w>": 2425,
  "도둑": 2426,
  "도둑놈": 2427,
  "도로</w>": 2428,
  "도록</w>": 2429,
  "도리가</w>": 2430,
  "도리어</w>": 2431,
  "도망": 2432,
  "도망갈</w>": 2433,
  "도무지</w>": 2434,
  "도시": 2435,
  "도시락": 2436,
  "도시락!”</w>": 2437,
  "도시락</w>": 2438,
  "도시락’": 2439,
  "도시락’이라고</w>": 2440,
  "도시락밥을</w>": 2441,
  "도시락은</w>": 2442,
  "도시락을": 2443,
  "도시락을</w>": 2444,
  "도시락이</w>": 2445,
  "도시락이라고</w>": 2446,
  "도에</w>": 2447,
  "도와": 2448,
  "도움이</w>": 2449,
  "도적": 2450,
  "도적</w>": 2451,
  "도적놈": 2452,
  "도적놈은</w>": 2453,
  "도적놈이</w>": 2454,
  "도적이</w>": 2455,
  "도착": 2456,
  "도하고</w>": 2457,
  "도화": 2458,
  "독": 2459,
  "독을</w>": 2460,
  "독한</w>": 2461,
  "돈": 2462,
  "돈</w>": 2463,
  "돈벌": 2464,
  "돈으로</w>": 2465,
  "돈은</w>": 2466,
  "돈을</w>": 2467,
  "돈의</w>": 2468,
  "돈이</w>": 2469,
  "돈지갑": 2470,
  "돋": 2471,
  "돋았던</w>": 2472,
  "돌": 2473,
  "돌</w>": 2474,
  "돌려": 2475,
  "돌려가면서</w>": 2476,
  "돌리": 2477,
  "돌린다.</w>": 2478,
  "돌멩": 2479,
  "돌멩이</w>": 2480,
  "돌멩이를</w>": 2481,
  "돌며</w>": 2482,
  "돌아": 2483,
  "돌아</w>": 2484,
  "돌아가": 2485,
  "돌아가는</w>": 2486,
  "돌아가니까</w>": 2487,
  "돌아가시": 2488,
  "돌아가시면</w>": 2489,
  "돌아가신</w>": 2490,
  "돌아가지</w>": 2491,
  "돌아간</w>": 2492,
  "돌아갈</w>": 2493,
  "돌아갔": 2494,
  "돌아갔습니다.</w>": 2495,
  "돌아다녀": 2496,
  "돌아다녔": 2497,
  "돌아다녔습니다.</w>": 2498,
  "돌아다니": 2499,
  "돌아다보": 2500,
  "돌아다보니</w>": 2501,
  "돌아서</w>": 2502,
  "돌아오": 2503,
  "돌아오기를</w>": 2504,
  "돌아오길</w>": 2505,
  "돌아오는</w>": 2506,
  "돌아오면</w>": 2507,
  "돌아오셨습니다.</w>": 2508,
  "돌아오시": 2509,
  "돌아오실": 2510,
  "돌아오실</w>": 2511,
  "돌아오지</w>": 2512,
  "돌아온</w>": 2513,
  "돌아올</w>": 2514,
  "돌아와</w>": 2515,
  "돌아와서</w>": 2516,
  "돌아왔습니다.</w>": 2517,
  "돌이</w>": 2518,
  "돗": 2519,
  "동": 2520,
  "동</w>": 2521,
  "동네": 2522,
  "동네를</w>": 2523,
  "동대문</w>": 2524,
  "동댕이": 2525,
  "동리": 2526,
  "동리</w>": 2527,
  "동리에</w>": 2528,
  "동리에서</w>": 2529,
  "동리의</w>": 2530,
  "동무": 2531,
  "동무</w>": 2532,
  "동무가</w>": 2533,
  "동무나</w>": 2534,
  "동무님네야</w>": 2535,
  "동무들</w>": 2536,
  "동무들에게</w>": 2537,
  "동무들은</w>": 2538,
  "동무들이</w>": 2539,
  "동무를</w>": 2540,
  "동무에게</w>": 2541,
  "동무의</w>": 2542,
  "동물": 2543,
  "동백": 2544,
  "동산</w>": 2545,
  "동산에</w>": 2546,
  "동생": 2547,
  "동생</w>": 2548,
  "동생은</w>": 2549,
  "동생을</w>": 2550,
  "동생의</w>": 2551,
  "동생이</w>": 2552,
  "동선": 2553,
  "동선</w>": 2554,
  "동선이</w>": 2555,
  "동선이가</w>": 2556,
  "동선이는</w>": 2557,
  "동선이를</w>": 2558,
  "동선이의</w>": 2559,
  "동소문</w>": 2560,
  "동시에</w>": 2561,
  "동아": 2562,
  "동아줄</w>": 2563,
  "동아줄을</w>": 2564,
  "동안": 2565,
  "동안</w>": 2566,
  "동안에</w>": 2567,
  "동안은</w>": 2568,
  "동안을</w>": 2569,
  "동안이나</w>": 2570,
  "동을</w>": 2571,
  "동이</w>": 2572,
  "동정": 2573,
  "동정을</w>": 2574,
  "동차에</w>": 2575,
  "동체": 2576,
  "돛": 2577,
  "돼": 2578,
  "돼서</w>": 2579,
  "됐": 2580,
  "되": 2581,
  "되-</w>": 2582,
  "되</w>": 2583,
  "되게</w>": 2584,
  "되겠": 2585,
  "되고</w>": 2586,
  "되기</w>": 2587,
  "되는</w>": 2588,
  "되니깐</w>": 2589,
  "되던</w>": 2590,
  "되도록</w>": 2591,
  "되리라고</w>": 2592,
  "되면</w>": 2593,
  "되어": 2594,
  "되어</w>": 2595,
  "되어서</w>": 2596,
  "되어주": 2597,
  "되었": 2598,
  "되었는지</w>": 2599,
  "되었다.</w>": 2600,
  "되었단다.</w>": 2601,
  "되었습니다.</w>": 2602,
  "되었지만</w>": 2603,
  "되자</w>": 2604,
  "되지</w>": 2605,
  "되풀이하고</w>": 2606,
  "된": 2607,
  "된</w>": 2608,
  "된다": 2609,
  "된다.</w>": 2610,
  "된다.”</w>": 2611,
  "된다는</w>": 2612,
  "된다면</w>": 2613,
  "된단</w>": 2614,
  "될": 2615,
  "될</w>": 2616,
  "될는지</w>": 2617,
  "될는지도</w>": 2618,
  "됨": 2619,
  "됩": 2620,
  "됩니다.</w>": 2621,
  "두": 2622,
  "두</w>": 2623,
  "두고</w>": 2624,
  "두근": 2625,
  "두근거리는</w>": 2626,
  "두는</w>": 2627,
  "두다시피</w>": 2628,
  "두드리": 2629,
  "두들": 2630,
  "두레박": 2631,
  "두레박을</w>": 2632,
  "두레박이</w>": 2633,
  "두려": 2634,
  "두려운</w>": 2635,
  "두루</w>": 2636,
  "두루마기</w>": 2637,
  "두른</w>": 2638,
  "두리": 2639,
  "두부를</w>": 2640,
  "두서너</w>": 2641,
  "두어</w>": 2642,
  "두어라.”</w>": 2643,
  "두었": 2644,
  "두었다.</w>": 2645,
  "두었던</w>": 2646,
  "두었습니다.</w>": 2647,
  "두터": 2648,
  "둑": 2649,
  "둔": 2650,
  "둔</w>": 2651,
  "둘": 2652,
  "둘</w>": 2653,
  "둘러": 2654,
  "둘이</w>": 2655,
  "둘이서</w>": 2656,
  "둘이서는</w>": 2657,
  "둘째</w>": 2658,
  "둡": 2659,
  "둥": 2660,
  "둥</w>": 2661,
  "둬": 2662,
  "뒤": 2663,
  "뒤</w>": 2664,
  "뒤꼍": 2665,
  "뒤꼍</w>": 2666,
  "뒤다.</w>": 2667,
  "뒤도</w>": 2668,
  "뒤뜰": 2669,
  "뒤로</w>": 2670,
  "뒤로는</w>": 2671,
  "뒤를</w>": 2672,
  "뒤에</w>": 2673,
  "뒤에는</w>": 2674,
  "뒤에서</w>": 2675,
  "뒤의</w>": 2676,
  "뒤집어": 2677,
  "뒤집어쓰고</w>": 2678,
  "뒤축</w>": 2679,
  "뒷": 2680,
  "뒹": 2681,
  "뒹굴</w>": 2682,
  "드": 2683,
  "드나들</w>": 2684,
  "드는</w>": 2685,
  "드디어</w>": 2686,
  "드러": 2687,
  "드럽게</w>": 2688,
  "드려": 2689,
  "드렸습니다.</w>": 2690,
  "드리": 2691,
  "드리고</w>": 2692,
  "드리려고</w>": 2693,
  "드린</w>": 2694,
  "드릴</w>": 2695,
  "드문</w>": 2696,
  "드문드문</w>": 2697,
  "득": 2698,
  "득</w>": 2699,
  "득푸드": 2700,
  "든": 2701,
  "든</w>": 2702,
  "든다.</w>": 2703,
  "든지</w>": 2704,
  "듣": 2705,
  "듣고</w>": 2706,
  "듣는</w>": 2707,
  "듣더니</w>": 2708,
  "듣지</w>": 2709,
  "들": 2710,
  "들,</w>": 2711,
  "들</w>": 2712,
  "들고": 2713,
  "들고,</w>": 2714,
  "들고</w>": 2715,
  "들고는</w>": 2716,
  "들과</w>": 2717,
  "들기</w>": 2718,
  "들도</w>": 2719,
  "들도록</w>": 2720,
  "들러서</w>": 2721,
  "들려": 2722,
  "들려</w>": 2723,
  "들려온다.</w>": 2724,
  "들려와서</w>": 2725,
  "들려왔습니다.</w>": 2726,
  "들려주": 2727,
  "들렸습니다.</w>": 2728,
  "들로</w>": 2729,
  "들리기</w>": 2730,
  "들리는</w>": 2731,
  "들린다.</w>": 2732,
  "들면서</w>": 2733,
  "들어": 2734,
  "들어</w>": 2735,
  "들어가": 2736,
  "들어가</w>": 2737,
  "들어가는</w>": 2738,
  "들어가서</w>": 2739,
  "들어가셨습니다.</w>": 2740,
  "들어간": 2741,
  "들어간</w>": 2742,
  "들어갔다.</w>": 2743,
  "들어갔다가</w>": 2744,
  "들어갔습니다.</w>": 2745,
  "들어서": 2746,
  "들어서</w>": 2747,
  "들어섰습니다.</w>": 2748,
  "들어오": 2749,
  "들어오는</w>": 2750,
  "들어오면</w>": 2751,
  "들어온</w>": 2752,
  "들어와</w>": 2753,
  "들어와서</w>": 2754,
  "들어왔": 2755,
  "들어왔다.</w>": 2756,
  "들어왔습니다.</w>": 2757,
  "들었": 2758,
  "들었다.</w>": 2759,
  "들었습니다.</w>": 2760,
  "들었으니</w>": 2761,
  "들었을</w>": 2762,
  "들에게</w>": 2763,
  "들여": 2764,
  "들여</w>": 2765,
  "들여놓": 2766,
  "들여놓은</w>": 2767,
  "들여다보": 2768,
  "들여다보고</w>": 2769,
  "들여다보는</w>": 2770,
  "들여다보면서</w>": 2771,
  "들으": 2772,
  "들으면서</w>": 2773,
  "들으시": 2774,
  "들은</w>": 2775,
  "들을</w>": 2776,
  "들의</w>": 2777,
  "들이": 2778,
  "들이</w>": 2779,
  "들이마": 2780,
  "들이었습니다.</w>": 2781,
  "들이켜": 2782,
  "들자마자</w>": 2783,
  "들지</w>": 2784,
  "들창": 2785,
  "들창에</w>": 2786,
  "들쳐</w>": 2787,
  "들키": 2788,
  "들키든지</w>": 2789,
  "듬": 2790,
  "듭": 2791,
  "듯": 2792,
  "듯</w>": 2793,
  "듯싶": 2794,
  "듯싶다.</w>": 2795,
  "듯이,</w>": 2796,
  "듯이</w>": 2797,
  "듯하다.</w>": 2798,
  "듯하더니</w>": 2799,
  "듯하였다.</w>": 2800,
  "듯하였습니다.</w>": 2801,
  "듯한</w>": 2802,
  "등": 2803,
  "등</w>": 2804,
  "등걸": 2805,
  "등에</w>": 2806,
  "등을</w>": 2807,
  "디": 2808,
  "디</w>": 2809,
  "디디": 2810,
  "디디고</w>": 2811,
  "딕": 2812,
  "딘": 2813,
  "딛": 2814,
  "딜": 2815,
  "딜</w>": 2816,
  "따": 2817,
  "따근": 2818,
  "따듯한</w>": 2819,
  "따뜻": 2820,
  "따뜻한</w>": 2821,
  "따라": 2822,
  "따라</w>": 2823,
  "따라서</w>": 2824,
  "따르고</w>": 2825,
  "따서</w>": 2826,
  "따위</w>": 2827,
  "딱": 2828,
  "딱</w>": 2829,
  "딱딱</w>": 2830,
  "딴": 2831,
  "딴</w>": 2832,
  "딴판으로</w>": 2833,
  "딸": 2834,
  "딸</w>": 2835,
  "딸아</w>": 2836,
  "딸을</w>": 2837,
  "땀": 2838,
  "땀</w>": 2839,
  "땀이</w>": 2840,
  "땅": 2841,
  "땅</w>": 2842,
  "땅바닥에</w>": 2843,
  "땅에</w>": 2844,
  "땅을</w>": 2845,
  "땅이</w>": 2846,
  "때": 2847,
  "때,</w>": 2848,
  "때</w>": 2849,
  "때가</w>": 2850,
  "때까지</w>": 2851,
  "때는</w>": 2852,
  "때든지</w>": 2853,
  "때려": 2854,
  "때려</w>": 2855,
  "때렸": 2856,
  "때렸습니다.</w>": 2857,
  "때를</w>": 2858,
  "때리": 2859,
  "때리는</w>": 2860,
  "때마다</w>": 2861,
  "때만</w>": 2862,
  "때면</w>": 2863,
  "때문": 2864,
  "때문에</w>": 2865,
  "때문이다.</w>": 2866,
  "때부터</w>": 2867,
  "때에</w>": 2868,
  "때에는</w>": 2869,
  "때였습니다.</w>": 2870,
  "땟": 2871,
  "땡": 2872,
  "떠": 2873,
  "떠</w>": 2874,
  "떠나": 2875,
  "떠나가": 2876,
  "떠나가신</w>": 2877,
  "떠나는</w>": 2878,
  "떠나서</w>": 2879,
  "떠나셨": 2880,
  "떠날</w>": 2881,
  "떠들면서</w>": 2882,
  "떠서</w>": 2883,
  "떠오": 2884,
  "떠오르는</w>": 2885,
  "떠오를</w>": 2886,
  "떠올라서</w>": 2887,
  "떠올랐": 2888,
  "떠올랐습니다.</w>": 2889,
  "떡": 2890,
  "떡</w>": 2891,
  "떨": 2892,
  "떨!</w>": 2893,
  "떨고</w>": 2894,
  "떨기</w>": 2895,
  "떨러": 2896,
  "떨려</w>": 2897,
  "떨렸": 2898,
  "떨린다.</w>": 2899,
  "떨어": 2900,
  "떨어</w>": 2901,
  "떨어뜨려</w>": 2902,
  "떨어져</w>": 2903,
  "떨어져서</w>": 2904,
  "떨어졌": 2905,
  "떨어졌다.</w>": 2906,
  "떨어졌습니다.</w>": 2907,
  "떨어지": 2908,
  "떨어지고</w>": 2909,
  "떨어지고는</w>": 2910,
  "떨어지기가</w>": 2911,
  "떨어지면</w>": 2912,
  "떨어진</w>": 2913,
  "떨어진다.</w>": 2914,
  "떨어질</w>": 2915,
  "떨어트": 2916,
  "떨어트렸": 2917,
  "떴": 2918,
  "떼": 2919,
  "떼가</w>": 2920,
  "떼고</w>": 2921,
  "떼어": 2922,
  "떼어</w>": 2923,
  "뗑": 2924,
  "또": 2925,
  "또</w>": 2926,
  "또는</w>": 2927,
  "또다시</w>": 2928,
  "또한</w>": 2929,
  "똑": 2930,
  "똑</w>": 2931,
  "똑같이</w>": 2932,
  "똑똑": 2933,
  "똑똑한</w>": 2934,
  "똑똑히</w>": 2935,
  "똘": 2936,
  "똥": 2937,
  "똥</w>": 2938,
  "똬": 2939,
  "뚜": 2940,
  "뚜껑을</w>": 2941,
  "뚜들기": 2942,
  "뚝": 2943,
  "뚝</w>": 2944,
  "뚝뚝</w>": 2945,
  "뚠": 2946,
  "뚤": 2947,
  "뚫": 2948,
  "뚱": 2949,
  "뚱뚱": 2950,
  "뛰": 2951,
  "뛰고</w>": 2952,
  "뛰놀": 2953,
  "뛰놀고</w>": 2954,
  "뛰어": 2955,
  "뛰어</w>": 2956,
  "뛰어가는</w>": 2957,
  "뛰어가서</w>": 2958,
  "뛰어갔다.</w>": 2959,
  "뛰어갔습니다.</w>": 2960,
  "뛰어온</w>": 2961,
  "뛰어와서</w>": 2962,
  "뛰어왔습니다.</w>": 2963,
  "뜨": 2964,
  "뜨거": 2965,
  "뜨거운</w>": 2966,
  "뜨고</w>": 2967,
  "뜨끈": 2968,
  "뜩": 2969,
  "뜩</w>": 2970,
  "뜬": 2971,
  "뜬</w>": 2972,
  "뜯": 2973,
  "뜯어": 2974,
  "뜰": 2975,
  "뜸": 2976,
  "뜻": 2977,
  "뜻밖에</w>": 2978,
  "뜻밖에도</w>": 2979,
  "뜻으로</w>": 2980,
  "뜻을</w>": 2981,
  "띄": 2982,
  "띄었다.</w>": 2983,
  "띄우": 2984,
  "띄우고</w>": 2985,
  "띠": 2986,
  "띠고</w>": 2987,
  "띠우": 2988,
  "띤": 2989,
  "띵": 2990,
  "라": 2991,
  "라,</w>": 2992,
  "라.</w>": 2993,
  "라.”</w>": 2994,
  "라</w>": 2995,
  "라고,</w>": 2996,
  "라고</w>": 2997,
  "라고는</w>": 2998,
  "라구</w>": 2999,
  "라는</w>": 3000,
  "라도</w>": 3001,
  "라면</w>": 3002,
  "라서</w>": 3003,
  "락": 3004,
  "락</w>": 3005,
  "란": 3006,
  "란</w>": 3007,
  "란다.</w>": 3008,
  "란을</w>": 3009,
  "랄</w>": 3010,
  "람": 3011,
  "람은</w>": 3012,
  "람이</w>": 3013,
  "랍": 3014,
  "랍니다.</w>": 3015,
  "랍니다.”</w>": 3016,
  "랐": 3017,
  "랐다.</w>": 3018,
  "랑": 3019,
  "랑</w>": 3020,
  "랑이</w>": 3021,
  "랗게</w>": 3022,
  "래": 3023,
  "래</w>": 3024,
  "랜</w>": 3025,
  "램": 3026,
  "랫": 3027,
  "랬": 3028,
  "랴": 3029,
  "랴.</w>": 3030,
  "량": 3031,
  "량</w>": 3032,
  "러": 3033,
  "러</w>": 3034,
  "러나</w>": 3035,
  "러서</w>": 3036,
  "러시": 3037,
  "러시아</w>": 3038,
  "럭": 3039,
  "럭</w>": 3040,
  "런": 3041,
  "런</w>": 3042,
  "런히</w>": 3043,
  "럴": 3044,
  "럴</w>": 3045,
  "럼": 3046,
  "럼</w>": 3047,
  "럽": 3048,
  "럽기도</w>": 3049,
  "렀": 3050,
  "렀다.</w>": 3051,
  "렀습니다.</w>": 3052,
  "렁": 3053,
  "렁</w>": 3054,
  "렇": 3055,
  "렇게</w>": 3056,
  "레": 3057,
  "레</w>": 3058,
  "렌이</w>": 3059,
  "려": 3060,
  "려</w>": 3061,
  "려고</w>": 3062,
  "려는</w>": 3063,
  "려니</w>": 3064,
  "려니까</w>": 3065,
  "려니와</w>": 3066,
  "려던</w>": 3067,
  "려라.</w>": 3068,
  "려서</w>": 3069,
  "려주": 3070,
  "력": 3071,
  "력을</w>": 3072,
  "련": 3073,
  "련</w>": 3074,
  "렬": 3075,
  "렴": 3076,
  "렴.</w>": 3077,
  "렵": 3078,
  "렸": 3079,
  "렸</w>": 3080,
  "렸다.</w>": 3081,
  "렸다는</w>": 3082,
  "렸습니다.</w>": 3083,
  "령": 3084,
  "례": 3085,
  "로": 3086,
  "로,</w>": 3087,
  "로</w>": 3088,
  "로구나.</w>": 3089,
  "로는</w>": 3090,
  "로도</w>": 3091,
  "로만</w>": 3092,
  "로부터,</w>": 3093,
  "로부터</w>": 3094,
  "로운</w>": 3095,
  "록": 3096,
  "록</w>": 3097,
  "론": 3098,
  "롭": 3099,
  "롭게</w>": 3100,
  "롱": 3101,
  "뢰": 3102,
  "료": 3103,
  "루": 3104,
  "루</w>": 3105,
  "루한</w>": 3106,
  "룩": 3107,
  "룩</w>": 3108,
  "룻": 3109,
  "류": 3110,
  "르": 3111,
  "르</w>": 3112,
  "르게</w>": 3113,
  "르고</w>": 3114,
  "르는</w>": 3115,
  "르르</w>": 3116,
  "르신": 3117,
  "르지</w>": 3118,
  "륵": 3119,
  "른": 3120,
  "른</w>": 3121,
  "른다.</w>": 3122,
  "를": 3123,
  "를</w>": 3124,
  "를……</w>": 3125,
  "름": 3126,
  "름</w>": 3127,
  "릅": 3128,
  "릇": 3129,
  "리": 3130,
  "리</w>": 3131,
  "리가</w>": 3132,
  "리고</w>": 3133,
  "리기</w>": 3134,
  "리는</w>": 3135,
  "리더니</w>": 3136,
  "리라": 3137,
  "리라.</w>": 3138,
  "리라</w>": 3139,
  "리라고</w>": 3140,
  "리라고도</w>": 3141,
  "리로</w>": 3142,
  "리를</w>": 3143,
  "리만</w>": 3144,
  "리며</w>": 3145,
  "리면서</w>": 3146,
  "리어</w>": 3147,
  "리었다.</w>": 3148,
  "리었습니다.</w>": 3149,
  "리에</w>": 3150,
  "리지</w>": 3151,
  "리하고</w>": 3152,
  "린": 3153,
  "린</w>": 3154,
  "린다,</w>": 3155,
  "린다.</w>": 3156,
  "릴": 3157,
  "릴</w>": 3158,
  "림": 3159,
  "림을</w>": 3160,
  "립": 3161,
  "립니다.</w>": 3162,
  "릿": 3163,
  "마": 3164,
  "마.</w>": 3165,
  "마.”</w>": 3166,
  "마</w>": 3167,
  "마개를</w>": 3168,
  "마구</w>": 3169,
  "마나": 3170,
  "마나님께서</w>": 3171,
  "마나님을</w>": 3172,
  "마나님이</w>": 3173,
  "마누": 3174,
  "마누라": 3175,
  "마누라</w>": 3176,
  "마누라가</w>": 3177,
  "마는</w>": 3178,
  "마님": 3179,
  "마님께서</w>": 3180,
  "마님이</w>": 3181,
  "마다</w>": 3182,
  "마도</w>": 3183,
  "마디</w>": 3184,
  "마라": 3185,
  "마라.</w>": 3186,
  "마라톤을</w>": 3187,
  "마루": 3188,
  "마룻": 3189,
  "마르": 3190,
  "마리": 3191,
  "마리가</w>": 3192,
  "마마님": 3193,
  "마셨다.</w>": 3194,
  "마시": 3195,
  "마시고</w>": 3196,
  "마음": 3197,
  "마음</w>": 3198,
  "마음껏</w>": 3199,
  "마음대로</w>": 3200,
  "마음속에</w>": 3201,
  "마음속에서</w>": 3202,
  "마음속으로</w>": 3203,
  "마음속을</w>": 3204,
  "마음에</w>": 3205,
  "마음에도</w>": 3206,
  "마음으로</w>": 3207,
  "마음은</w>": 3208,
  "마음을</w>": 3209,
  "마음이</w>": 3210,
  "마음조차</w>": 3211,
  "마저</w>": 3212,
  "마주</w>": 3213,
  "마중</w>": 3214,
  "마지": 3215,
  "마치": 3216,
  "마치</w>": 3217,
  "마침": 3218,
  "마침</w>": 3219,
  "마한</w>": 3220,
  "막": 3221,
  "막</w>": 3222,
  "막고</w>": 3223,
  "막대기를</w>": 3224,
  "막동": 3225,
  "막동이</w>": 3226,
  "막동이는</w>": 3227,
  "막동이를</w>": 3228,
  "막둥": 3229,
  "막둥이는</w>": 3230,
  "막아": 3231,
  "막한</w>": 3232,
  "막혀서</w>": 3233,
  "막히는</w>": 3234,
  "만": 3235,
  "만,</w>": 3236,
  "만</w>": 3237,
  "만나": 3238,
  "만나</w>": 3239,
  "만나는</w>": 3240,
  "만나보": 3241,
  "만나보게</w>": 3242,
  "만나서</w>": 3243,
  "만나자.</w>": 3244,
  "만난</w>": 3245,
  "만날</w>": 3246,
  "만다.</w>": 3247,
  "만든</w>": 3248,
  "만들고": 3249,
  "만들려</w>": 3250,
  "만들어": 3251,
  "만들어</w>": 3252,
  "만세": 3253,
  "만세!</w>": 3254,
  "만세!”</w>": 3255,
  "만세!”를</w>": 3256,
  "만약</w>": 3257,
  "만에</w>": 3258,
  "만은</w>": 3259,
  "만을</w>": 3260,
  "만일</w>": 3261,
  "만져": 3262,
  "만족": 3263,
  "만주": 3264,
  "만주국": 3265,
  "만치</w>": 3266,
  "만큼</w>": 3267,
  "만한</w>": 3268,
  "많": 3269,
  "많</w>": 3270,
  "많고</w>": 3271,
  "많았습니다.</w>": 3272,
  "많은": 3273,
  "많은</w>": 3274,
  "많이</w>": 3275,
  "말": 3276,
  "말</w>": 3277,
  "말고": 3278,
  "말고</w>": 3279,
  "말과</w>": 3280,
  "말구</w>": 3281,
  "말끝": 3282,
  "말도": 3283,
  "말도</w>": 3284,
  "말려": 3285,
  "말려</w>": 3286,
  "말로</w>": 3287,
  "말마따나</w>": 3288,
  "말미암아</w>": 3289,
  "말소리는</w>": 3290,
  "말씀": 3291,
  "말씀</w>": 3292,
  "말씀은</w>": 3293,
  "말씀을</w>": 3294,
  "말씀이</w>": 3295,
  "말씀하셨습니다.</w>": 3296,
  "말씀하시면서</w>": 3297,
  "말씀하시었습니다.</w>": 3298,
  "말씀하신</w>": 3299,
  "말아": 3300,
  "말아라.</w>": 3301,
  "말아라.”</w>": 3302,
  "말아야</w>": 3303,
  "말았": 3304,
  "말았다.</w>": 3305,
  "말았습니다.</w>": 3306,
  "말야,</w>": 3307,
  "말에</w>": 3308,
  "말에는</w>": 3309,
  "말은</w>": 3310,
  "말을</w>": 3311,
  "말이": 3312,
  "말이</w>": 3313,
  "말이냐": 3314,
  "말이냐?</w>": 3315,
  "말이냐?”</w>": 3316,
  "말이냐”</w>": 3317,
  "말이다.</w>": 3318,
  "말이다.”</w>": 3319,
  "말이야": 3320,
  "말이오.</w>": 3321,
  "말이지.</w>": 3322,
  "말인가": 3323,
  "말인가?</w>": 3324,
  "말인지</w>": 3325,
  "말하": 3326,
  "말하고</w>": 3327,
  "말하는</w>": 3328,
  "말하더라.</w>": 3329,
  "말하면</w>": 3330,
  "말하면서</w>": 3331,
  "말하여": 3332,
  "말하였다.</w>": 3333,
  "말하였습니다.</w>": 3334,
  "말하자면</w>": 3335,
  "말하지</w>": 3336,
  "말한</w>": 3337,
  "말할</w>": 3338,
  "말해": 3339,
  "말해보": 3340,
  "말했습니다.</w>": 3341,
  "맑": 3342,
  "맘": 3343,
  "맘껏</w>": 3344,
  "맘대로</w>": 3345,
  "맙": 3346,
  "맛": 3347,
  "맛을</w>": 3348,
  "맛이</w>": 3349,
  "맛있게</w>": 3350,
  "망": 3351,
  "망정</w>": 3352,
  "망토": 3353,
  "망한</w>": 3354,
  "망할</w>": 3355,
  "맞": 3356,
  "맞고</w>": 3357,
  "맞는</w>": 3358,
  "맞대고</w>": 3359,
  "맞붙": 3360,
  "맞붙어</w>": 3361,
  "맞붙어서</w>": 3362,
  "맞아</w>": 3363,
  "맞아서</w>": 3364,
  "맞았": 3365,
  "맞으": 3366,
  "맞으며</w>": 3367,
  "맞은</w>": 3368,
  "맞을</w>": 3369,
  "맞이": 3370,
  "맞지</w>": 3371,
  "맞추어</w>": 3372,
  "맡": 3373,
  "맡기고</w>": 3374,
  "맡아</w>": 3375,
  "매": 3376,
  "매</w>": 3377,
  "매가</w>": 3378,
  "매고</w>": 3379,
  "매달": 3380,
  "매달에</w>": 3381,
  "매로</w>": 3382,
  "매를</w>": 3383,
  "매우</w>": 3384,
  "매인</w>": 3385,
  "매일</w>": 3386,
  "맥": 3387,
  "맥없이</w>": 3388,
  "맨": 3389,
  "맨</w>": 3390,
  "맵": 3391,
  "맷": 3392,
  "맹": 3393,
  "맹세": 3394,
  "맹세</w>": 3395,
  "맹세를</w>": 3396,
  "맹세한</w>": 3397,
  "맺": 3398,
  "머": 3399,
  "머니": 3400,
  "머니가</w>": 3401,
  "머리": 3402,
  "머리</w>": 3403,
  "머리가</w>": 3404,
  "머리는</w>": 3405,
  "머리를</w>": 3406,
  "머리맡": 3407,
  "머리맡에</w>": 3408,
  "머리에</w>": 3409,
  "머리와</w>": 3410,
  "머릿": 3411,
  "머릿속에</w>": 3412,
  "머뭇머뭇": 3413,
  "머지": 3414,
  "먹": 3415,
  "먹</w>": 3416,
  "먹고</w>": 3417,
  "먹기</w>": 3418,
  "먹는</w>": 3419,
  "먹던</w>": 3420,
  "먹어": 3421,
  "먹어</w>": 3422,
  "먹어도</w>": 3423,
  "먹어라.”</w>": 3424,
  "먹어야지</w>": 3425,
  "먹었": 3426,
  "먹었다.</w>": 3427,
  "먹었습니다.</w>": 3428,
  "먹여</w>": 3429,
  "먹으면</w>": 3430,
  "먹으면서</w>": 3431,
  "먹은</w>": 3432,
  "먹을</w>": 3433,
  "먹이": 3434,
  "먹이를</w>": 3435,
  "먹지</w>": 3436,
  "먹지를</w>": 3437,
  "먼": 3438,
  "먼</w>": 3439,
  "먼저</w>": 3440,
  "멀": 3441,
  "멀-리</w>": 3442,
  "멀거니</w>": 3443,
  "멀고</w>": 3444,
  "멀리</w>": 3445,
  "멀지</w>": 3446,
  "멈": 3447,
  "멈추": 3448,
  "멈추고</w>": 3449,
  "멋": 3450,
  "멍멍": 3451,
  "멍하니</w>": 3452,
  "멓": 3453,
  "메": 3454,
  "메달": 3455,
  "메달은</w>": 3456,
  "메달을</w>": 3457,
  "메아": 3458,
  "메아리": 3459,
  "메여</w>": 3460,
  "멘": 3461,
  "며": 3462,
  "며,</w>": 3463,
  "며</w>": 3464,
  "며칠</w>": 3465,
  "멱": 3466,
  "멱살을</w>": 3467,
  "면": 3468,
  "면,</w>": 3469,
  "면</w>": 3470,
  "면두를</w>": 3471,
  "면서": 3472,
  "면서,</w>": 3473,
  "면서</w>": 3474,
  "면서도</w>": 3475,
  "면은</w>": 3476,
  "멸": 3477,
  "명": 3478,
  "명</w>": 3479,
  "명길": 3480,
  "명길</w>": 3481,
  "명길아!\"</w>": 3482,
  "명길아!</w>": 3483,
  "명길의</w>": 3484,
  "명길이</w>": 3485,
  "명길이가</w>": 3486,
  "명길이는</w>": 3487,
  "명길이를</w>": 3488,
  "명남": 3489,
  "명남이</w>": 3490,
  "명남이가</w>": 3491,
  "명남이는</w>": 3492,
  "명남이를</w>": 3493,
  "명남이의</w>": 3494,
  "명랑한</w>": 3495,
  "명령": 3496,
  "명령을</w>": 3497,
  "명순": 3498,
  "명식": 3499,
  "명식이</w>": 3500,
  "명식이와</w>": 3501,
  "명을</w>": 3502,
  "명의</w>": 3503,
  "명이</w>": 3504,
  "명이나</w>": 3505,
  "명장</w>": 3506,
  "명주</w>": 3507,
  "몇": 3508,
  "몇</w>": 3509,
  "모": 3510,
  "모</w>": 3511,
  "모녀를</w>": 3512,
  "모두": 3513,
  "모두</w>": 3514,
  "모두들</w>": 3515,
  "모든</w>": 3516,
  "모레</w>": 3517,
  "모르": 3518,
  "모르게</w>": 3519,
  "모르겠": 3520,
  "모르겠다.</w>": 3521,
  "모르고</w>": 3522,
  "모르는</w>": 3523,
  "모르다가</w>": 3524,
  "모른": 3525,
  "모른</w>": 3526,
  "모른다.</w>": 3527,
  "모를</w>": 3528,
  "모범": 3529,
  "모셔": 3530,
  "모셔다</w>": 3531,
  "모습을</w>": 3532,
  "모시고</w>": 3533,
  "모아": 3534,
  "모아</w>": 3535,
  "모아놓고</w>": 3536,
  "모아서</w>": 3537,
  "모양": 3538,
  "모양</w>": 3539,
  "모양으로</w>": 3540,
  "모양은</w>": 3541,
  "모양을</w>": 3542,
  "모양이": 3543,
  "모양이</w>": 3544,
  "모양일세그려.</w>": 3545,
  "모여</w>": 3546,
  "모여서</w>": 3547,
  "모였다.</w>": 3548,
  "모으": 3549,
  "모은</w>": 3550,
  "모이를</w>": 3551,
  "모자를</w>": 3552,
  "모조리</w>": 3553,
  "모험": 3554,
  "목": 3555,
  "목</w>": 3556,
  "목도": 3557,
  "목메인</w>": 3558,
  "목소리로</w>": 3559,
  "목소리를</w>": 3560,
  "목숨이</w>": 3561,
  "목에</w>": 3562,
  "목욕": 3563,
  "목욕을</w>": 3564,
  "목욕탕": 3565,
  "목을</w>": 3566,
  "목이</w>": 3567,
  "목적": 3568,
  "몰": 3569,
  "몰고</w>": 3570,
  "몰라": 3571,
  "몰라</w>": 3572,
  "몰라서</w>": 3573,
  "몰랐": 3574,
  "몰랐구나.</w>": 3575,
  "몰랐다.</w>": 3576,
  "몰랐더니</w>": 3577,
  "몰랐습니다.</w>": 3578,
  "몰래</w>": 3579,
  "몰려": 3580,
  "몰려</w>": 3581,
  "몸": 3582,
  "몸</w>": 3583,
  "몸뚱": 3584,
  "몸에</w>": 3585,
  "몸으로</w>": 3586,
  "몸은</w>": 3587,
  "몸을</w>": 3588,
  "몸이</w>": 3589,
  "몹": 3590,
  "몹시": 3591,
  "몹시</w>": 3592,
  "몹시도</w>": 3593,
  "못": 3594,
  "못</w>": 3595,
  "못난</w>": 3596,
  "못된</w>": 3597,
  "못살게</w>": 3598,
  "못이</w>": 3599,
  "못하": 3600,
  "못하게</w>": 3601,
  "못하고</w>": 3602,
  "못하는</w>": 3603,
  "못하여</w>": 3604,
  "못하였": 3605,
  "못하였다.</w>": 3606,
  "못하였습니다.</w>": 3607,
  "못한": 3608,
  "못한</w>": 3609,
  "못한다.</w>": 3610,
  "못할</w>": 3611,
  "못해</w>": 3612,
  "못해서</w>": 3613,
  "못했": 3614,
  "못했습니다.</w>": 3615,
  "몽": 3616,
  "묘": 3617,
  "묘</w>": 3618,
  "묘봉</w>": 3619,
  "무": 3620,
  "무</w>": 3621,
  "무거": 3622,
  "무거운</w>": 3623,
  "무너": 3624,
  "무늬가</w>": 3625,
  "무덤": 3626,
  "무덤</w>": 3627,
  "무르녹": 3628,
  "무를</w>": 3629,
  "무릅": 3630,
  "무릅쓰시고</w>": 3631,
  "무릎</w>": 3632,
  "무릎을</w>": 3633,
  "무사": 3634,
  "무사히</w>": 3635,
  "무서": 3636,
  "무서운</w>": 3637,
  "무서워": 3638,
  "무서웠": 3639,
  "무섭": 3640,
  "무섭게</w>": 3641,
  "무수히</w>": 3642,
  "무슨</w>": 3643,
  "무시": 3644,
  "무시</w>": 3645,
  "무시한</w>": 3646,
  "무어": 3647,
  "무어</w>": 3648,
  "무어라</w>": 3649,
  "무어라고</w>": 3650,
  "무얼</w>": 3651,
  "무엇": 3652,
  "무엇</w>": 3653,
  "무엇?</w>": 3654,
  "무엇같이</w>": 3655,
  "무엇보다도</w>": 3656,
  "무엇에</w>": 3657,
  "무엇을</w>": 3658,
  "무엇이</w>": 3659,
  "무엇이냐": 3660,
  "무엇이라고</w>": 3661,
  "무엇인가를</w>": 3662,
  "무엇인지</w>": 3663,
  "무지</w>": 3664,
  "무참": 3665,
  "무척</w>": 3666,
  "묵": 3667,
  "묵묵히</w>": 3668,
  "문": 3669,
  "문</w>": 3670,
  "문득</w>": 3671,
  "문안</w>": 3672,
  "문에</w>": 3673,
  "문에서</w>": 3674,
  "문으로</w>": 3675,
  "문은</w>": 3676,
  "문을</w>": 3677,
  "문이</w>": 3678,
  "문제": 3679,
  "문제</w>": 3680,
  "문제다.</w>": 3681,
  "문질러": 3682,
  "문패를</w>": 3683,
  "묻": 3684,
  "묻어": 3685,
  "묻은</w>": 3686,
  "물": 3687,
  "물</w>": 3688,
  "물같이</w>": 3689,
  "물건": 3690,
  "물건을</w>": 3691,
  "물결이</w>": 3692,
  "물고</w>": 3693,
  "물끄러미</w>": 3694,
  "물러": 3695,
  "물로</w>": 3696,
  "물론": 3697,
  "물론</w>": 3698,
  "물론하고</w>": 3699,
  "물리": 3700,
  "물속에</w>": 3701,
  "물어": 3702,
  "물어</w>": 3703,
  "물어도</w>": 3704,
  "물어뜯": 3705,
  "물어보": 3706,
  "물었다.</w>": 3707,
  "물었습니다.</w>": 3708,
  "물에</w>": 3709,
  "물으면</w>": 3710,
  "물으셨습니다.</w>": 3711,
  "물으시는</w>": 3712,
  "물은</w>": 3713,
  "물을</w>": 3714,
  "물이</w>": 3715,
  "물화</w>": 3716,
  "뭇": 3717,
  "뭉": 3718,
  "뭉게</w>": 3719,
  "뭉게뭉게</w>": 3720,
  "뭐": 3721,
  "뭐</w>": 3722,
  "뭐냐.</w>": 3723,
  "뭐라고</w>": 3724,
  "뭘</w>": 3725,
  "뭣": 3726,
  "므로": 3727,
  "므로,</w>": 3728,
  "므로</w>": 3729,
  "미": 3730,
  "미</w>": 3731,
  "미가</w>": 3732,
  "미끄러져</w>": 3733,
  "미는</w>": 3734,
  "미닫": 3735,
  "미닫이</w>": 3736,
  "미닫이가</w>": 3737,
  "미닫이를</w>": 3738,
  "미를</w>": 3739,
  "미리": 3740,
  "미리</w>": 3741,
  "미망인": 3742,
  "미소를</w>": 3743,
  "미술</w>": 3744,
  "미안": 3745,
  "미워": 3746,
  "미워하고</w>": 3747,
  "미워하는</w>": 3748,
  "미쳤": 3749,
  "미친": 3750,
  "미친</w>": 3751,
  "미한</w>": 3752,
  "민": 3753,
  "믿": 3754,
  "믿고</w>": 3755,
  "밀": 3756,
  "밀가루": 3757,
  "밀고</w>": 3758,
  "밀물</w>": 3759,
  "밀물이</w>": 3760,
  "밉": 3761,
  "밑": 3762,
  "밑</w>": 3763,
  "밑에</w>": 3764,
  "밑에다</w>": 3765,
  "밑에서</w>": 3766,
  "밑이</w>": 3767,
  "바": 3768,
  "바</w>": 3769,
  "바구니": 3770,
  "바구니로</w>": 3771,
  "바구니를</w>": 3772,
  "바깥": 3773,
  "바꾸": 3774,
  "바꾸어</w>": 3775,
  "바느": 3776,
  "바느질": 3777,
  "바늘": 3778,
  "바늘</w>": 3779,
  "바다": 3780,
  "바다</w>": 3781,
  "바다를</w>": 3782,
  "바닥": 3783,
  "바닥에</w>": 3784,
  "바닥을</w>": 3785,
  "바닷": 3786,
  "바라": 3787,
  "바라</w>": 3788,
  "바라고</w>": 3789,
  "바라다보": 3790,
  "바라다보면서</w>": 3791,
  "바라보": 3792,
  "바라보고</w>": 3793,
  "바라보니,</w>": 3794,
  "바라보더니</w>": 3795,
  "바라보며</w>": 3796,
  "바라보면서</w>": 3797,
  "바라보시더니</w>": 3798,
  "바라보시면서</w>": 3799,
  "바라보았습니다.</w>": 3800,
  "바라보자마자</w>": 3801,
  "바라본</w>": 3802,
  "바라볼</w>": 3803,
  "바람": 3804,
  "바람에</w>": 3805,
  "바람이</w>": 3806,
  "바로</w>": 3807,
  "바르르</w>": 3808,
  "바른": 3809,
  "바른</w>": 3810,
  "바른대로</w>": 3811,
  "바를</w>": 3812,
  "바쁘니깐</w>": 3813,
  "바삐</w>": 3814,
  "바스켓": 3815,
  "바스켓을</w>": 3816,
  "바위": 3817,
  "바위</w>": 3818,
  "바위에</w>": 3819,
  "바지</w>": 3820,
  "바짝</w>": 3821,
  "바퀴": 3822,
  "박": 3823,
  "박히": 3824,
  "밖": 3825,
  "밖</w>": 3826,
  "밖까지</w>": 3827,
  "밖에</w>": 3828,
  "밖에는</w>": 3829,
  "밖에도</w>": 3830,
  "밖으로</w>": 3831,
  "반": 3832,
  "반</w>": 3833,
  "반가": 3834,
  "반가운</w>": 3835,
  "반가워": 3836,
  "반가웠다.</w>": 3837,
  "반가이</w>": 3838,
  "반갑": 3839,
  "반대": 3840,
  "반드시</w>": 3841,
  "반듯이</w>": 3842,
  "반에서</w>": 3843,
  "반에서도</w>": 3844,
  "반을</w>": 3845,
  "반이나</w>": 3846,
  "반장": 3847,
  "반장을</w>": 3848,
  "반장이</w>": 3849,
  "반장인</w>": 3850,
  "반지를</w>": 3851,
  "반짝": 3852,
  "반짝거리는</w>": 3853,
  "반찬": 3854,
  "반찬</w>": 3855,
  "반찬거리를</w>": 3856,
  "반찬은</w>": 3857,
  "반항": 3858,
  "받": 3859,
  "받고</w>": 3860,
  "받는</w>": 3861,
  "받아": 3862,
  "받아</w>": 3863,
  "받아들고</w>": 3864,
  "받아서</w>": 3865,
  "받아야</w>": 3866,
  "받았습니다.</w>": 3867,
  "받은</w>": 3868,
  "발": 3869,
  "발</w>": 3870,
  "발견": 3871,
  "발견하고</w>": 3872,
  "발견한</w>": 3873,
  "발길로</w>": 3874,
  "발길이</w>": 3875,
  "발명": 3876,
  "발바닥을</w>": 3877,
  "발에</w>": 3878,
  "발을</w>": 3879,
  "발이</w>": 3880,
  "발자": 3881,
  "발톱": 3882,
  "발하여</w>": 3883,
  "밝": 3884,
  "밝은</w>": 3885,
  "밟": 3886,
  "밤": 3887,
  "밤</w>": 3888,
  "밤낮</w>": 3889,
  "밤새": 3890,
  "밤에</w>": 3891,
  "밤에는</w>": 3892,
  "밤에도</w>": 3893,
  "밤을</w>": 3894,
  "밤이</w>": 3895,
  "밤이나</w>": 3896,
  "밤이면</w>": 3897,
  "밤중에</w>": 3898,
  "밥": 3899,
  "밥</w>": 3900,
  "밥도</w>": 3901,
  "밥은</w>": 3902,
  "밥을</w>": 3903,
  "밥이</w>": 3904,
  "방": 3905,
  "방</w>": 3906,
  "방도</w>": 3907,
  "방망": 3908,
  "방망이를</w>": 3909,
  "방문을</w>": 3910,
  "방안의</w>": 3911,
  "방에</w>": 3912,
  "방에는</w>": 3913,
  "방에서</w>": 3914,
  "방에서는</w>": 3915,
  "방울": 3916,
  "방울방울</w>": 3917,
  "방울이</w>": 3918,
  "방으로</w>": 3919,
  "방은</w>": 3920,
  "방을</w>": 3921,
  "방이</w>": 3922,
  "방인</w>": 3923,
  "방황": 3924,
  "밭": 3925,
  "밭</w>": 3926,
  "밭에</w>": 3927,
  "밭에서</w>": 3928,
  "밭은</w>": 3929,
  "밭을</w>": 3930,
  "밭이</w>": 3931,
  "밭이라</w>": 3932,
  "배": 3933,
  "배</w>": 3934,
  "배가</w>": 3935,
  "배고": 3936,
  "배고픈</w>": 3937,
  "배달": 3938,
  "배를</w>": 3939,
  "배우": 3940,
  "배운</w>": 3941,
  "배웅을</w>": 3942,
  "배웠": 3943,
  "백": 3944,
  "백</w>": 3945,
  "백성": 3946,
  "백성들이</w>": 3947,
  "백화": 3948,
  "밴": 3949,
  "뱀": 3950,
  "뱀의</w>": 3951,
  "뱀이</w>": 3952,
  "뱃": 3953,
  "뱃속</w>": 3954,
  "뱃속에서</w>": 3955,
  "뱅": 3956,
  "뱉": 3957,
  "버": 3958,
  "버</w>": 3959,
  "버드": 3960,
  "버럭</w>": 3961,
  "버렸": 3962,
  "버렸다.</w>": 3963,
  "버렸습니다.</w>": 3964,
  "버릇": 3965,
  "버릇같이</w>": 3966,
  "버리": 3967,
  "버리고</w>": 3968,
  "버리셨습니다.</w>": 3969,
  "버리었습니다.</w>": 3970,
  "버린</w>": 3971,
  "버린다.</w>": 3972,
  "버릴": 3973,
  "버릴</w>": 3974,
  "벅": 3975,
  "번": 3976,
  "번</w>": 3977,
  "번도</w>": 3978,
  "번만</w>": 3979,
  "번번이</w>": 3980,
  "번에</w>": 3981,
  "번에는</w>": 3982,
  "번은</w>": 3983,
  "번이</w>": 3984,
  "번이고</w>": 3985,
  "번이나</w>": 3986,
  "번째</w>": 3987,
  "번쩍</w>": 3988,
  "벌": 3989,
  "벌</w>": 3990,
  "벌과</w>": 3991,
  "벌떡</w>": 3992,
  "벌렁</w>": 3993,
  "벌레": 3994,
  "벌벌</w>": 3995,
  "벌써</w>": 3996,
  "벌써부터</w>": 3997,
  "벌었": 3998,
  "범": 3999,
  "범한</w>": 4000,
  "법": 4001,
  "법을</w>": 4002,
  "법이</w>": 4003,
  "벗": 4004,
  "벗어": 4005,
  "벗어</w>": 4006,
  "벙": 4007,
  "벙벙": 4008,
  "벙벙하여</w>": 4009,
  "벙어리": 4010,
  "벙어리</w>": 4011,
  "벙어리를</w>": 4012,
  "벙어리에</w>": 4013,
  "벚": 4014,
  "벚꽃</w>": 4015,
  "베": 4016,
  "베어</w>": 4017,
  "벤": 4018,
  "벨</w>": 4019,
  "벨코프</w>": 4020,
  "벼": 4021,
  "벼</w>": 4022,
  "벼락": 4023,
  "벼락이</w>": 4024,
  "벽": 4025,
  "벽</w>": 4026,
  "벽돌로</w>": 4027,
  "벽에</w>": 4028,
  "변": 4029,
  "변</w>": 4030,
  "변명": 4031,
  "변소</w>": 4032,
  "변소에</w>": 4033,
  "변의</w>": 4034,
  "변통": 4035,
  "변하지</w>": 4036,
  "별": 4037,
  "별</w>": 4038,
  "별들이</w>": 4039,
  "별로</w>": 4040,
  "별수</w>": 4041,
  "별안": 4042,
  "별안간</w>": 4043,
  "별장</w>": 4044,
  "병": 4045,
  "병</w>": 4046,
  "병구완": 4047,
  "병든</w>": 4048,
  "병상</w>": 4049,
  "병세가</w>": 4050,
  "병실": 4051,
  "병실로</w>": 4052,
  "병아리": 4053,
  "병에</w>": 4054,
  "병원": 4055,
  "병원</w>": 4056,
  "병원에</w>": 4057,
  "병원으로</w>": 4058,
  "병으로</w>": 4059,
  "병을</w>": 4060,
  "병이</w>": 4061,
  "병인": 4062,
  "병정": 4063,
  "병정</w>": 4064,
  "병정들은</w>": 4065,
  "병정이</w>": 4066,
  "병환": 4067,
  "병환이</w>": 4068,
  "볕": 4069,
  "볕</w>": 4070,
  "볕이</w>": 4071,
  "보": 4072,
  "보</w>": 4073,
  "보가</w>": 4074,
  "보게</w>": 4075,
  "보고": 4076,
  "보고</w>": 4077,
  "보고는</w>": 4078,
  "보기</w>": 4079,
  "보기가</w>": 4080,
  "보기는</w>": 4081,
  "보내": 4082,
  "보내고</w>": 4083,
  "보내달라고</w>": 4084,
  "보내지</w>": 4085,
  "보낸</w>": 4086,
  "보는</w>": 4087,
  "보니,</w>": 4088,
  "보니</w>": 4089,
  "보니까</w>": 4090,
  "보니깐</w>": 4091,
  "보다": 4092,
  "보다.</w>": 4093,
  "보다.”</w>": 4094,
  "보다</w>": 4095,
  "보다는</w>": 4096,
  "보다도</w>": 4097,
  "보더니</w>": 4098,
  "보던</w>": 4099,
  "보드라운</w>": 4100,
  "보람이</w>": 4101,
  "보러</w>": 4102,
  "보려고</w>": 4103,
  "보로</w>": 4104,
  "보를</w>": 4105,
  "보름": 4106,
  "보름날</w>": 4107,
  "보리": 4108,
  "보리</w>": 4109,
  "보리가</w>": 4110,
  "보리는</w>": 4111,
  "보리라고</w>": 4112,
  "보리를</w>": 4113,
  "보리밭을</w>": 4114,
  "보며,</w>": 4115,
  "보며</w>": 4116,
  "보면</w>": 4117,
  "보면서</w>": 4118,
  "보배": 4119,
  "보배입니다.</w>": 4120,
  "보살피는</w>": 4121,
  "보세요.</w>": 4122,
  "보시": 4123,
  "보아": 4124,
  "보아.”</w>": 4125,
  "보아</w>": 4126,
  "보아라.</w>": 4127,
  "보아서</w>": 4128,
  "보았": 4129,
  "보았</w>": 4130,
  "보았다.</w>": 4131,
  "보았더니</w>": 4132,
  "보았습니다.</w>": 4133,
  "보았으나</w>": 4134,
  "보았지만</w>": 4135,
  "보여": 4136,
  "보였습니다.</w>": 4137,
  "보이": 4138,
  "보이는</w>": 4139,
  "보이던</w>": 4140,
  "보이든지</w>": 4141,
  "보이지</w>": 4142,
  "보이지도</w>": 4143,
  "보인다.</w>": 4144,
  "보일</w>": 4145,
  "보자</w>": 4146,
  "보자마자</w>": 4147,
  "보지</w>": 4148,
  "보지도</w>": 4149,
  "보통": 4150,
  "보통</w>": 4151,
  "보통학교</w>": 4152,
  "보통학교를</w>": 4153,
  "보퉁": 4154,
  "보퉁이를</w>": 4155,
  "복": 4156,
  "복</w>": 4157,
  "복복</w>": 4158,
  "복습을</w>": 4159,
  "복잡": 4160,
  "복희": 4161,
  "복희</w>": 4162,
  "복희가</w>": 4163,
  "복희는</w>": 4164,
  "복희야.</w>": 4165,
  "복희와</w>": 4166,
  "복희의</w>": 4167,
  "본": 4168,
  "본</w>": 4169,
  "본다.</w>": 4170,
  "본다면</w>": 4171,
  "본즉</w>": 4172,
  "볼": 4173,
  "볼</w>": 4174,
  "볼기": 4175,
  "볼을</w>": 4176,
  "봄": 4177,
  "봄</w>": 4178,
  "봄빛이</w>": 4179,
  "봄에</w>": 4180,
  "봄이</w>": 4181,
  "봄이라</w>": 4182,
  "봅": 4183,
  "봅디다.”</w>": 4184,
  "봉": 4185,
  "봉</w>": 4186,
  "봉지</w>": 4187,
  "봉지를</w>": 4188,
  "봉천": 4189,
  "봐": 4190,
  "봐</w>": 4191,
  "봐도</w>": 4192,
  "봐라.</w>": 4193,
  "봐라.”</w>": 4194,
  "봐서</w>": 4195,
  "봤다.</w>": 4196,
  "봤더니</w>": 4197,
  "뵈": 4198,
  "뵈올</w>": 4199,
  "뵐": 4200,
  "뵙": 4201,
  "뵙고</w>": 4202,
  "부": 4203,
  "부</w>": 4204,
  "부가</w>": 4205,
  "부끄": 4206,
  "부끄러": 4207,
  "부끄러운</w>": 4208,
  "부끄러움을</w>": 4209,
  "부끄러워": 4210,
  "부는</w>": 4211,
  "부대": 4212,
  "부대</w>": 4213,
  "부둥켜": 4214,
  "부둥켜안고</w>": 4215,
  "부드러": 4216,
  "부드럽게</w>": 4217,
  "부들": 4218,
  "부디</w>": 4219,
  "부딪": 4220,
  "부러": 4221,
  "부럽": 4222,
  "부럽지</w>": 4223,
  "부려</w>": 4224,
  "부르": 4225,
  "부르게</w>": 4226,
  "부르고</w>": 4227,
  "부르는</w>": 4228,
  "부르러</w>": 4229,
  "부르며</w>": 4230,
  "부르면서</w>": 4231,
  "부르시는</w>": 4232,
  "부르지</w>": 4233,
  "부르짖": 4234,
  "부르짖고</w>": 4235,
  "부르짖었다.</w>": 4236,
  "부르짖었습니다.</w>": 4237,
  "부른</w>": 4238,
  "부른다.</w>": 4239,
  "부를</w>": 4240,
  "부리": 4241,
  "부리고</w>": 4242,
  "부리나케</w>": 4243,
  "부모": 4244,
  "부모</w>": 4245,
  "부모님</w>": 4246,
  "부모님을</w>": 4247,
  "부모를</w>": 4248,
  "부부는</w>": 4249,
  "부스스</w>": 4250,
  "부실": 4251,
  "부어": 4252,
  "부인": 4253,
  "부인은</w>": 4254,
  "부자": 4255,
  "부자는</w>": 4256,
  "부자의</w>": 4257,
  "부잣집</w>": 4258,
  "부족": 4259,
  "부족한</w>": 4260,
  "부지": 4261,
  "부지</w>": 4262,
  "부지런한</w>": 4263,
  "부지런히</w>": 4264,
  "부치": 4265,
  "부탁": 4266,
  "부탁한</w>": 4267,
  "부터</w>": 4268,
  "부터는</w>": 4269,
  "북": 4270,
  "북돋": 4271,
  "북돋아</w>": 4272,
  "분": 4273,
  "분!</w>": 4274,
  "분</w>": 4275,
  "분간": 4276,
  "분명": 4277,
  "분부": 4278,
  "분부대로</w>": 4279,
  "분위": 4280,
  "분으로</w>": 4281,
  "분이</w>": 4282,
  "분이나</w>": 4283,
  "분이었습니다.</w>": 4284,
  "분풀이를</w>": 4285,
  "분하고</w>": 4286,
  "분하기도</w>": 4287,
  "분하여</w>": 4288,
  "분한</w>": 4289,
  "분함과</w>": 4290,
  "분홍": 4291,
  "불": 4292,
  "불</w>": 4293,
  "불거": 4294,
  "불고</w>": 4295,
  "불과</w>": 4296,
  "불구하고</w>": 4297,
  "불길": 4298,
  "불러": 4299,
  "불러</w>": 4300,
  "불러다</w>": 4301,
  "불러들이": 4302,
  "불러서</w>": 4303,
  "불렀습니다.</w>": 4304,
  "불리": 4305,
  "불숙": 4306,
  "불쌍": 4307,
  "불쑥</w>": 4308,
  "불안": 4309,
  "불안을</w>": 4310,
  "불어": 4311,
  "불어오는</w>": 4312,
  "불에</w>": 4313,
  "불을</w>": 4314,
  "불이</w>": 4315,
  "불평이</w>": 4316,
  "불행": 4317,
  "불행을</w>": 4318,
  "불행한</w>": 4319,
  "불행히</w>": 4320,
  "불현듯</w>": 4321,
  "붉": 4322,
  "붉어지는</w>": 4323,
  "붉은</w>": 4324,
  "붐": 4325,
  "붓": 4326,
  "붕": 4327,
  "붕대로</w>": 4328,
  "붙": 4329,
  "붙들고</w>": 4330,
  "붙들려</w>": 4331,
  "붙들어</w>": 4332,
  "붙어</w>": 4333,
  "붙여</w>": 4334,
  "붙여서</w>": 4335,
  "붙은</w>": 4336,
  "붙을</w>": 4337,
  "붙이는</w>": 4338,
  "붙인</w>": 4339,
  "붙잡": 4340,
  "붙잡고</w>": 4341,
  "붙잡아</w>": 4342,
  "붙잡히": 4343,
  "붙잡히게</w>": 4344,
  "븐": 4345,
  "비": 4346,
  "비</w>": 4347,
  "비가</w>": 4348,
  "비는</w>": 4349,
  "비단": 4350,
  "비단을</w>": 4351,
  "비도</w>": 4352,
  "비로소</w>": 4353,
  "비록</w>": 4354,
  "비롯": 4355,
  "비를</w>": 4356,
  "비명이</w>": 4357,
  "비밀": 4358,
  "비밀을</w>": 4359,
  "비비": 4360,
  "비었던</w>": 4361,
  "비위에</w>": 4362,
  "비춰": 4363,
  "비치": 4364,
  "비치는</w>": 4365,
  "비치어</w>": 4366,
  "비칠</w>": 4367,
  "빈": 4368,
  "빈</w>": 4369,
  "빈대": 4370,
  "빈대가</w>": 4371,
  "빈틈없이</w>": 4372,
  "빌": 4373,
  "빌고</w>": 4374,
  "빌려": 4375,
  "빌어": 4376,
  "빌어먹을</w>": 4377,
  "빌었습니다.</w>": 4378,
  "빗": 4379,
  "빙": 4380,
  "빙그레</w>": 4381,
  "빙글빙글</w>": 4382,
  "빙빙</w>": 4383,
  "빛": 4384,
  "빛</w>": 4385,
  "빛같이</w>": 4386,
  "빛나는</w>": 4387,
  "빛에</w>": 4388,
  "빛으로</w>": 4389,
  "빛을</w>": 4390,
  "빛이</w>": 4391,
  "빠": 4392,
  "빠른</w>": 4393,
  "빠져": 4394,
  "빠져</w>": 4395,
  "빠져서</w>": 4396,
  "빠졌으니</w>": 4397,
  "빠지도록</w>": 4398,
  "빠진</w>": 4399,
  "빠트": 4400,
  "빠트려</w>": 4401,
  "빡빡": 4402,
  "빡빡</w>": 4403,
  "빤": 4404,
  "빨": 4405,
  "빨간</w>": 4406,
  "빨개": 4407,
  "빨래": 4408,
  "빨리": 4409,
  "빨리</w>": 4410,
  "빵": 4411,
  "빼": 4412,
  "빼앗": 4413,
  "빼앗긴</w>": 4414,
  "빼어": 4415,
  "빼어</w>": 4416,
  "빼지</w>": 4417,
  "빽": 4418,
  "빽빽": 4419,
  "뺏": 4420,
  "뺑": 4421,
  "뺨": 4422,
  "뺨에는</w>": 4423,
  "뺨으로</w>": 4424,
  "뺨을</w>": 4425,
  "뻐": 4426,
  "뻐꾹!</w>": 4427,
  "뻐지": 4428,
  "뻔": 4429,
  "뻔한</w>": 4430,
  "뻗": 4431,
  "뻘밖에</w>": 4432,
  "뻣뻣": 4433,
  "뼈": 4434,
  "뼈가</w>": 4435,
  "뼉": 4436,
  "뼛": 4437,
  "뽀얀</w>": 4438,
  "뽐": 4439,
  "뽐내었습니다.</w>": 4440,
  "뽑": 4441,
  "뽑혔": 4442,
  "뽑히": 4443,
  "뽕": 4444,
  "뾰족": 4445,
  "뿌": 4446,
  "뿌리": 4447,
  "뿌리치": 4448,
  "뿍": 4449,
  "뿐": 4450,
  "뿐</w>": 4451,
  "뿐만</w>": 4452,
  "뿐이</w>": 4453,
  "뿐이고</w>": 4454,
  "뿐이다.</w>": 4455,
  "뿐이었다.</w>": 4456,
  "뿐이었습니다.</w>": 4457,
  "뿔": 4458,
  "뿜": 4459,
  "쁘": 4460,
  "쁜": 4461,
  "쁠": 4462,
  "삐": 4463,
  "삑": 4464,
  "삥": 4465,
  "사": 4466,
  "사</w>": 4467,
  "사가</w>": 4468,
  "사건": 4469,
  "사건은</w>": 4470,
  "사고</w>": 4471,
  "사과": 4472,
  "사과</w>": 4473,
  "사과했습니다.</w>": 4474,
  "사나": 4475,
  "사나운</w>": 4476,
  "사납": 4477,
  "사내": 4478,
  "사내자식은</w>": 4479,
  "사는</w>": 4480,
  "사다": 4481,
  "사다</w>": 4482,
  "사라": 4483,
  "사라져</w>": 4484,
  "사람": 4485,
  "사람)": 4486,
  "사람,</w>": 4487,
  "사람</w>": 4488,
  "사람같이</w>": 4489,
  "사람과</w>": 4490,
  "사람도</w>": 4491,
  "사람들": 4492,
  "사람들은</w>": 4493,
  "사람들을</w>": 4494,
  "사람들이</w>": 4495,
  "사람만</w>": 4496,
  "사람씩</w>": 4497,
  "사람에</w>": 4498,
  "사람에게</w>": 4499,
  "사람에게라도</w>": 4500,
  "사람으로</w>": 4501,
  "사람은</w>": 4502,
  "사람을</w>": 4503,
  "사람의</w>": 4504,
  "사람이</w>": 4505,
  "사람이라고는</w>": 4506,
  "사람이므로</w>": 4507,
  "사람이었습니다.</w>": 4508,
  "사람처럼</w>": 4509,
  "사랑": 4510,
  "사랑이</w>": 4511,
  "사랑하고</w>": 4512,
  "사랑하는</w>": 4513,
  "사랑하여": 4514,
  "사러</w>": 4515,
  "사려고</w>": 4516,
  "사를</w>": 4517,
  "사무": 4518,
  "사무실": 4519,
  "사무실</w>": 4520,
  "사무실로</w>": 4521,
  "사방을</w>": 4522,
  "사서</w>": 4523,
  "사실": 4524,
  "사실</w>": 4525,
  "사실대로</w>": 4526,
  "사실은</w>": 4527,
  "사십</w>": 4528,
  "사에</w>": 4529,
  "사와</w>": 4530,
  "사용": 4531,
  "사이": 4532,
  "사이가</w>": 4533,
  "사이로</w>": 4534,
  "사이를</w>": 4535,
  "사이에</w>": 4536,
  "사자": 4537,
  "사자가</w>": 4538,
  "사자들은</w>": 4539,
  "사장": 4540,
  "사장</w>": 4541,
  "사장님</w>": 4542,
  "사정": 4543,
  "사정을</w>": 4544,
  "사정이</w>": 4545,
  "사죄": 4546,
  "사줄</w>": 4547,
  "사진": 4548,
  "사진과</w>": 4549,
  "사회": 4550,
  "사회에</w>": 4551,
  "사흘": 4552,
  "사흘</w>": 4553,
  "사흘이나</w>": 4554,
  "사흘째</w>": 4555,
  "삭": 4556,
  "삯": 4557,
  "산": 4558,
  "산</w>": 4559,
  "산과</w>": 4560,
  "산등성": 4561,
  "산봉": 4562,
  "산새": 4563,
  "산속으로</w>": 4564,
  "산속은</w>": 4565,
  "산속이</w>": 4566,
  "산에</w>": 4567,
  "산에서</w>": 4568,
  "산으로</w>": 4569,
  "산을</w>": 4570,
  "산이</w>": 4571,
  "살": 4572,
  "살</w>": 4573,
  "살같이</w>": 4574,
  "살게</w>": 4575,
  "살고</w>": 4576,
  "살금살금</w>": 4577,
  "살려": 4578,
  "살림": 4579,
  "살림살": 4580,
  "살림살이가</w>": 4581,
  "살며시</w>": 4582,
  "살밖에</w>": 4583,
  "살아": 4584,
  "살아</w>": 4585,
  "살아가": 4586,
  "살아가는</w>": 4587,
  "살아계실</w>": 4588,
  "살아만</w>": 4589,
  "살았": 4590,
  "살에</w>": 4591,
  "살은</w>": 4592,
  "살을</w>": 4593,
  "살이</w>": 4594,
  "살짝</w>": 4595,
  "살펴": 4596,
  "살펴보고</w>": 4597,
  "살피": 4598,
  "삶": 4599,
  "삼": 4600,
  "삼</w>": 4601,
  "삼보": 4602,
  "삼보가</w>": 4603,
  "삼보는</w>": 4604,
  "삼보와</w>": 4605,
  "삼보의</w>": 4606,
  "삼십": 4607,
  "삼십</w>": 4608,
  "삼아서</w>": 4609,
  "삼을</w>": 4610,
  "삼켜": 4611,
  "삽": 4612,
  "삿": 4613,
  "샀": 4614,
  "상": 4615,
  "상</w>": 4616,
  "상당": 4617,
  "상에</w>": 4618,
  "상으로</w>": 4619,
  "상을</w>": 4620,
  "상이</w>": 4621,
  "상처가</w>": 4622,
  "상태": 4623,
  "상하게</w>": 4624,
  "새": 4625,
  "새</w>": 4626,
  "새끼</w>": 4627,
  "새끼를</w>": 4628,
  "새로</w>": 4629,
  "새로운</w>": 4630,
  "새룡": 4631,
  "새룡아</w>": 4632,
  "새룡이는</w>": 4633,
  "새룡이도</w>": 4634,
  "새룡이를</w>": 4635,
  "새벽": 4636,
  "새빨간</w>": 4637,
  "새빨개": 4638,
  "새삼": 4639,
  "새삼스레</w>": 4640,
  "새어나오는</w>": 4641,
  "새어머니</w>": 4642,
  "새어머니가</w>": 4643,
  "새어머니는</w>": 4644,
  "새옥": 4645,
  "새옥아</w>": 4646,
  "새옥이": 4647,
  "새옥이가</w>": 4648,
  "새옥이는</w>": 4649,
  "새옥이를</w>": 4650,
  "새파": 4651,
  "새파래": 4652,
  "새파래지며</w>": 4653,
  "색": 4654,
  "색</w>": 4655,
  "색시": 4656,
  "샘": 4657,
  "생": 4658,
  "생</w>": 4659,
  "생각": 4660,
  "생각</w>": 4661,
  "생각도</w>": 4662,
  "생각에</w>": 4663,
  "생각으로</w>": 4664,
  "생각은</w>": 4665,
  "생각을</w>": 4666,
  "생각이</w>": 4667,
  "생각하": 4668,
  "생각하고</w>": 4669,
  "생각하는</w>": 4670,
  "생각하니</w>": 4671,
  "생각하며</w>": 4672,
  "생각하면</w>": 4673,
  "생각하면서</w>": 4674,
  "생각하신</w>": 4675,
  "생각하여</w>": 4676,
  "생각하였</w>": 4677,
  "생각하였다.</w>": 4678,
  "생각하였습니다.</w>": 4679,
  "생각하지</w>": 4680,
  "생각한</w>": 4681,
  "생각한다.</w>": 4682,
  "생각할</w>": 4683,
  "생각해": 4684,
  "생각해</w>": 4685,
  "생겼": 4686,
  "생기": 4687,
  "생기고</w>": 4688,
  "생기지</w>": 4689,
  "생긴</w>": 4690,
  "생도": 4691,
  "생도는</w>": 4692,
  "생도들</w>": 4693,
  "생도들은</w>": 4694,
  "생도들을</w>": 4695,
  "생도를</w>": 4696,
  "생명": 4697,
  "생쥐</w>": 4698,
  "생활": 4699,
  "생활을</w>": 4700,
  "생활이</w>": 4701,
  "서": 4702,
  "서,</w>": 4703,
  "서.</w>": 4704,
  "서</w>": 4705,
  "서글": 4706,
  "서글픈</w>": 4707,
  "서너</w>": 4708,
  "서는</w>": 4709,
  "서늘한</w>": 4710,
  "서도</w>": 4711,
  "서랍": 4712,
  "서러": 4713,
  "서로</w>": 4714,
  "서로서로</w>": 4715,
  "서먹서먹": 4716,
  "서모": 4717,
  "서방": 4718,
  "서방과</w>": 4719,
  "서방은</w>": 4720,
  "서방이</w>": 4721,
  "서서</w>": 4722,
  "서슬에</w>": 4723,
  "서슴지</w>": 4724,
  "서야</w>": 4725,
  "서운": 4726,
  "서울": 4727,
  "서울</w>": 4728,
  "서울로</w>": 4729,
  "서울에</w>": 4730,
  "서울을</w>": 4731,
  "서재": 4732,
  "서점</w>": 4733,
  "서점으로</w>": 4734,
  "서쪽으로</w>": 4735,
  "석": 4736,
  "석</w>": 4737,
  "석과</w>": 4738,
  "석쇠": 4739,
  "섞": 4740,
  "섞여</w>": 4741,
  "섞여서</w>": 4742,
  "섞인</w>": 4743,
  "선": 4744,
  "선</w>": 4745,
  "선녀": 4746,
  "선녀가</w>": 4747,
  "선달네</w>": 4748,
  "선뜻": 4749,
  "선뜻</w>": 4750,
  "선생": 4751,
  "선생</w>": 4752,
  "선생님": 4753,
  "선생님!</w>": 4754,
  "선생님!”</w>": 4755,
  "선생님</w>": 4756,
  "선생님과</w>": 4757,
  "선생님께</w>": 4758,
  "선생님께서</w>": 4759,
  "선생님께서는</w>": 4760,
  "선생님께서도</w>": 4761,
  "선생님들": 4762,
  "선생님에게</w>": 4763,
  "선생님에게서</w>": 4764,
  "선생님은</w>": 4765,
  "선생님을</w>": 4766,
  "선생님의</w>": 4767,
  "선생님이</w>": 4768,
  "선생의</w>": 4769,
  "선선해서</w>": 4770,
  "선수": 4771,
  "선수</w>": 4772,
  "선술": 4773,
  "섣불리</w>": 4774,
  "설": 4775,
  "설</w>": 4776,
  "설계": 4777,
  "설렁": 4778,
  "설렁탕</w>": 4779,
  "설렁탕을</w>": 4780,
  "설마</w>": 4781,
  "설명": 4782,
  "설명을</w>": 4783,
  "설명할</w>": 4784,
  "설사</w>": 4785,
  "설움": 4786,
  "설움</w>": 4787,
  "설움을</w>": 4788,
  "섬": 4789,
  "섬을</w>": 4790,
  "섭": 4791,
  "섭섭": 4792,
  "섯": 4793,
  "섰": 4794,
  "섰는</w>": 4795,
  "섰다.</w>": 4796,
  "섰다가</w>": 4797,
  "섰던</w>": 4798,
  "섰습니다.</w>": 4799,
  "성": 4800,
  "성</w>": 4801,
  "성’을</w>": 4802,
  "성공": 4803,
  "성구</w>": 4804,
  "성을</w>": 4805,
  "성이</w>": 4806,
  "성적": 4807,
  "성적도</w>": 4808,
  "성히</w>": 4809,
  "섶": 4810,
  "세": 4811,
  "세.”</w>": 4812,
  "세</w>": 4813,
  "세가</w>": 4814,
  "세검": 4815,
  "세는</w>": 4816,
  "세상": 4817,
  "세상</w>": 4818,
  "세상에</w>": 4819,
  "세상에는</w>": 4820,
  "세상에서</w>": 4821,
  "세상을</w>": 4822,
  "세상의</w>": 4823,
  "세상이</w>": 4824,
  "세수는</w>": 4825,
  "세수를</w>": 4826,
  "세요.</w>": 4827,
  "세요.”</w>": 4828,
  "세요?</w>": 4829,
  "세월을</w>": 4830,
  "센": 4831,
  "센</w>": 4832,
  "셈": 4833,
  "셈이나</w>": 4834,
  "셋": 4835,
  "셔": 4836,
  "셔.</w>": 4837,
  "셔서</w>": 4838,
  "셨": 4839,
  "셨</w>": 4840,
  "셨다.</w>": 4841,
  "셨던</w>": 4842,
  "셨습니까": 4843,
  "셨습니까?”</w>": 4844,
  "셨습니다.</w>": 4845,
  "셨지요?”</w>": 4846,
  "소": 4847,
  "소.</w>": 4848,
  "소</w>": 4849,
  "소곤거리는</w>": 4850,
  "소군": 4851,
  "소녀": 4852,
  "소녀</w>": 4853,
  "소녀가</w>": 4854,
  "소녀는</w>": 4855,
  "소녀다.</w>": 4856,
  "소녀를</w>": 4857,
  "소녀의</w>": 4858,
  "소년": 4859,
  "소년</w>": 4860,
  "소년들은</w>": 4861,
  "소년에게로</w>": 4862,
  "소년은</w>": 4863,
  "소년을</w>": 4864,
  "소년의</w>": 4865,
  "소년이</w>": 4866,
  "소년이었습니다.</w>": 4867,
  "소도</w>": 4868,
  "소를</w>": 4869,
  "소리": 4870,
  "소리</w>": 4871,
  "소리가</w>": 4872,
  "소리같이</w>": 4873,
  "소리는</w>": 4874,
  "소리다.</w>": 4875,
  "소리도</w>": 4876,
  "소리들이</w>": 4877,
  "소리로</w>": 4878,
  "소리를</w>": 4879,
  "소리에</w>": 4880,
  "소리와</w>": 4881,
  "소매로</w>": 4882,
  "소문</w>": 4883,
  "소문이</w>": 4884,
  "소생": 4885,
  "소식이</w>": 4886,
  "소용": 4887,
  "소중히</w>": 4888,
  "속": 4889,
  "속</w>": 4890,
  "속삭": 4891,
  "속살거리며</w>": 4892,
  "속속들이</w>": 4893,
  "속에</w>": 4894,
  "속에는</w>": 4895,
  "속에다</w>": 4896,
  "속에서</w>": 4897,
  "속에서는</w>": 4898,
  "속으로</w>": 4899,
  "속은</w>": 4900,
  "속을</w>": 4901,
  "속의</w>": 4902,
  "속이</w>": 4903,
  "속이고</w>": 4904,
  "속히</w>": 4905,
  "손": 4906,
  "손</w>": 4907,
  "손가락": 4908,
  "손가락</w>": 4909,
  "손꼽아</w>": 4910,
  "손님": 4911,
  "손님을</w>": 4912,
  "손님이</w>": 4913,
  "손뼉을</w>": 4914,
  "손수</w>": 4915,
  "손수건": 4916,
  "손에</w>": 4917,
  "손에는</w>": 4918,
  "손으로</w>": 4919,
  "손을</w>": 4920,
  "손이</w>": 4921,
  "솔": 4922,
  "솔</w>": 4923,
  "솔밭</w>": 4924,
  "솔잎</w>": 4925,
  "솜": 4926,
  "솟": 4927,
  "솟는다.</w>": 4928,
  "솟아": 4929,
  "솟아나왔다.</w>": 4930,
  "솟은</w>": 4931,
  "송": 4932,
  "송아지가</w>": 4933,
  "송이</w>": 4934,
  "송이송이</w>": 4935,
  "솥": 4936,
  "솨-": 4937,
  "솨-</w>": 4938,
  "쇄": 4939,
  "쇠": 4940,
  "쇠돌": 4941,
  "쇠돌이": 4942,
  "쇠돌이</w>": 4943,
  "쇠돌이가</w>": 4944,
  "쇠돌이는</w>": 4945,
  "쇠돌이를</w>": 4946,
  "쇠로</w>": 4947,
  "쇠창": 4948,
  "쇳": 4949,
  "수": 4950,
  "수</w>": 4951,
  "수가</w>": 4952,
  "수건": 4953,
  "수건으로</w>": 4954,
  "수건을</w>": 4955,
  "수건이</w>": 4956,
  "수고</w>": 4957,
  "수군": 4958,
  "수군</w>": 4959,
  "수그리": 4960,
  "수그리고</w>": 4961,
  "수길": 4962,
  "수길이</w>": 4963,
  "수길이가</w>": 4964,
  "수길이는</w>": 4965,
  "수길이를</w>": 4966,
  "수길이의</w>": 4967,
  "수남": 4968,
  "수남아!</w>": 4969,
  "수남아,</w>": 4970,
  "수남아</w>": 4971,
  "수남은</w>": 4972,
  "수남이</w>": 4973,
  "수남이가</w>": 4974,
  "수남이는</w>": 4975,
  "수남이를</w>": 4976,
  "수남이에게</w>": 4977,
  "수남이의</w>": 4978,
  "수는</w>": 4979,
  "수도</w>": 4980,
  "수로</w>": 4981,
  "수록</w>": 4982,
  "수를</w>": 4983,
  "수만</w>": 4984,
  "수밖에</w>": 4985,
  "수백</w>": 4986,
  "수선": 4987,
  "수술을</w>": 4988,
  "수십</w>": 4989,
  "수업": 4990,
  "수없이</w>": 4991,
  "수염": 4992,
  "수의</w>": 4993,
  "수작": 4994,
  "수작을</w>": 4995,
  "수탉": 4996,
  "수탉을</w>": 4997,
  "수탉이</w>": 4998,
  "수평선</w>": 4999,
  "수효": 5000,
  "수효가</w>": 5001,
  "숙": 5002,
  "숙인</w>": 5003,
  "숙직": 5004,
  "숙직실": 5005,
  "숙직하는</w>": 5006,
  "숙희": 5007,
  "숙희</w>": 5008,
  "숙희가</w>": 5009,
  "숙희네</w>": 5010,
  "숙희는</w>": 5011,
  "숙희를</w>": 5012,
  "숙희의</w>": 5013,
  "순": 5014,
  "순간": 5015,
  "순간</w>": 5016,
  "순창": 5017,
  "순창이는</w>": 5018,
  "순창이와</w>": 5019,
  "숟": 5020,
  "숟갈을</w>": 5021,
  "술": 5022,
  "술</w>": 5023,
  "술법을</w>": 5024,
  "술을</w>": 5025,
  "술이</w>": 5026,
  "숨": 5027,
  "숨</w>": 5028,
  "숨겨": 5029,
  "숨기": 5030,
  "숨기지</w>": 5031,
  "숨소리가</w>": 5032,
  "숨어</w>": 5033,
  "숨어서</w>": 5034,
  "숨었다가</w>": 5035,
  "숨을</w>": 5036,
  "숨이</w>": 5037,
  "숫": 5038,
  "숭": 5039,
  "쉬": 5040,
  "쉬며</w>": 5041,
  "쉬우": 5042,
  "쉴": 5043,
  "쉴</w>": 5044,
  "쉴새</w>": 5045,
  "쉽": 5046,
  "쉽게</w>": 5047,
  "슈": 5048,
  "스": 5049,
  "스,</w>": 5050,
  "스</w>": 5051,
  "스러": 5052,
  "스러</w>": 5053,
  "스러운</w>": 5054,
  "스런</w>": 5055,
  "스럽게</w>": 5056,
  "스럽게도</w>": 5057,
  "스럽고</w>": 5058,
  "스레</w>": 5059,
  "스로</w>": 5060,
  "스며": 5061,
  "스무</w>": 5062,
  "스스</w>": 5063,
  "스스러웠다.</w>": 5064,
  "슨": 5065,
  "슨</w>": 5066,
  "슬": 5067,
  "슬</w>": 5068,
  "슬그머니</w>": 5069,
  "슬근슬근</w>": 5070,
  "슬며시</w>": 5071,
  "슬퍼": 5072,
  "슬퍼하는</w>": 5073,
  "슬펐": 5074,
  "슬프": 5075,
  "슬프고</w>": 5076,
  "슬픈</w>": 5077,
  "슬픔": 5078,
  "슬픔을</w>": 5079,
  "슬하에</w>": 5080,
  "슭": 5081,
  "습": 5082,
  "습</w>": 5083,
  "습니</w>": 5084,
  "습니까": 5085,
  "습니까.</w>": 5086,
  "습니까?</w>": 5087,
  "습니다": 5088,
  "습니다.</w>": 5089,
  "습니다.”</w>": 5090,
  "습니다만</w>": 5091,
  "습디다.”</w>": 5092,
  "습을</w>": 5093,
  "슷": 5094,
  "승": 5095,
  "시": 5096,
  "시</w>": 5097,
  "시간": 5098,
  "시간</w>": 5099,
  "시간에</w>": 5100,
  "시간을</w>": 5101,
  "시간이</w>": 5102,
  "시계": 5103,
  "시계가</w>": 5104,
  "시계를</w>": 5105,
  "시고</w>": 5106,
  "시골": 5107,
  "시골</w>": 5108,
  "시골로</w>": 5109,
  "시구": 5110,
  "시기": 5111,
  "시까지</w>": 5112,
  "시는</w>": 5113,
  "시는데</w>": 5114,
  "시다": 5115,
  "시다.</w>": 5116,
  "시다.”</w>": 5117,
  "시더니</w>": 5118,
  "시던</w>": 5119,
  "시로</w>": 5120,
  "시를</w>": 5121,
  "시멘트</w>": 5122,
  "시며</w>": 5123,
  "시면서</w>": 5124,
  "시베리": 5125,
  "시베리아": 5126,
  "시뻘건</w>": 5127,
  "시어</w>": 5128,
  "시었다.</w>": 5129,
  "시었습니다.</w>": 5130,
  "시에</w>": 5131,
  "시요.”</w>": 5132,
  "시요</w>": 5133,
  "시원": 5134,
  "시작": 5135,
  "시작하는</w>": 5136,
  "시작하셨습니다.</w>": 5137,
  "시작하였": 5138,
  "시작하였다.</w>": 5139,
  "시작하였습니다.</w>": 5140,
  "시작한다.</w>": 5141,
  "시작했": 5142,
  "시작했습니다.</w>": 5143,
  "시중을</w>": 5144,
  "시집을</w>": 5145,
  "시쯤</w>": 5146,
  "시체를</w>": 5147,
  "시치미를</w>": 5148,
  "시켜</w>": 5149,
  "시켜서</w>": 5150,
  "시켰": 5151,
  "시키": 5152,
  "시키는</w>": 5153,
  "시키어</w>": 5154,
  "시킨</w>": 5155,
  "시피</w>": 5156,
  "시험": 5157,
  "시험</w>": 5158,
  "시험에</w>": 5159,
  "시험을</w>": 5160,
  "시험장</w>": 5161,
  "시험지를</w>": 5162,
  "식": 5163,
  "식</w>": 5164,
  "식구": 5165,
  "식구가</w>": 5166,
  "식구는</w>": 5167,
  "식구에게</w>": 5168,
  "식이</w>": 5169,
  "식칼을</w>": 5170,
  "신": 5171,
  "신</w>": 5172,
  "신기": 5173,
  "신기한</w>": 5174,
  "신다": 5175,
  "신다.</w>": 5176,
  "신다.”</w>": 5177,
  "신다고</w>": 5178,
  "신령": 5179,
  "신문": 5180,
  "신문</w>": 5181,
  "신문기": 5182,
  "신문을</w>": 5183,
  "신문팔": 5184,
  "신문팔이가</w>": 5185,
  "신발을</w>": 5186,
  "신상": 5187,
  "신신당부": 5188,
  "신을</w>": 5189,
  "신이</w>": 5190,
  "신지</w>": 5191,
  "신하들을</w>": 5192,
  "싣": 5193,
  "실": 5194,
  "실</w>": 5195,
  "실로</w>": 5196,
  "실린</w>": 5197,
  "실망": 5198,
  "실없이</w>": 5199,
  "실컷</w>": 5200,
  "실패를</w>": 5201,
  "실한</w>": 5202,
  "실히</w>": 5203,
  "싫": 5204,
  "싫다.”</w>": 5205,
  "싫어": 5206,
  "싫었다.</w>": 5207,
  "싫증이</w>": 5208,
  "싫지</w>": 5209,
  "심": 5210,
  "심</w>": 5211,
  "심부름": 5212,
  "심부름을</w>": 5213,
  "심상": 5214,
  "심술": 5215,
  "심심": 5216,
  "심은</w>": 5217,
  "심을</w>": 5218,
  "심이</w>": 5219,
  "심히</w>": 5220,
  "십": 5221,
  "십</w>": 5222,
  "십쇼": 5223,
  "십시": 5224,
  "십시다.</w>": 5225,
  "십시다.”</w>": 5226,
  "십시오.”</w>": 5227,
  "싯": 5228,
  "싱": 5229,
  "싱싱": 5230,
  "싱싱하게</w>": 5231,
  "싱싱한</w>": 5232,
  "싶": 5233,
  "싶다.</w>": 5234,
  "싶어</w>": 5235,
  "싶어서</w>": 5236,
  "싶었": 5237,
  "싶었다.</w>": 5238,
  "싶었던</w>": 5239,
  "싶었습니다.</w>": 5240,
  "싶은</w>": 5241,
  "싶을</w>": 5242,
  "싶지</w>": 5243,
  "싸": 5244,
  "싸고</w>": 5245,
  "싸릿": 5246,
  "싸여</w>": 5247,
  "싸우": 5248,
  "싸우다가</w>": 5249,
  "싸울</w>": 5250,
  "싸움": 5251,
  "싸움</w>": 5252,
  "싸웁": 5253,
  "싸워": 5254,
  "싸워</w>": 5255,
  "싸워보": 5256,
  "싸워서</w>": 5257,
  "싹": 5258,
  "싹이</w>": 5259,
  "쌀": 5260,
  "쌀</w>": 5261,
  "쌈": 5262,
  "쌈을</w>": 5263,
  "쌉": 5264,
  "쌌": 5265,
  "쌍": 5266,
  "쌓": 5267,
  "쌓여서</w>": 5268,
  "쌓인</w>": 5269,
  "쌔": 5270,
  "쌔근": 5271,
  "쌔근쌔근</w>": 5272,
  "쌩": 5273,
  "써": 5274,
  "써</w>": 5275,
  "써서</w>": 5276,
  "썩": 5277,
  "썩</w>": 5278,
  "썩은</w>": 5279,
  "썰": 5280,
  "썼": 5281,
  "썼다.</w>": 5282,
  "썼습니다.</w>": 5283,
  "썽": 5284,
  "쏘": 5285,
  "쏘다녔": 5286,
  "쏟": 5287,
  "쏟아": 5288,
  "쏟아져</w>": 5289,
  "쏟아지는</w>": 5290,
  "쏠": 5291,
  "쏴": 5292,
  "쑤": 5293,
  "쑥": 5294,
  "쑥</w>": 5295,
  "쑹": 5296,
  "쓰": 5297,
  "쓰</w>": 5298,
  "쓰고</w>": 5299,
  "쓰는</w>": 5300,
  "쓰다듬": 5301,
  "쓰라": 5302,
  "쓰라린</w>": 5303,
  "쓰러": 5304,
  "쓰러져서</w>": 5305,
  "쓰러지": 5306,
  "쓰러진</w>": 5307,
  "쓰레": 5308,
  "쓰레기통": 5309,
  "쓰려": 5310,
  "쓰려고</w>": 5311,
  "쓰지</w>": 5312,
  "쓱": 5313,
  "쓴": 5314,
  "쓴</w>": 5315,
  "쓸": 5316,
  "쓸</w>": 5317,
  "쓸데": 5318,
  "쓸데없는</w>": 5319,
  "쓸쓸": 5320,
  "쓸쓸하고</w>": 5321,
  "쓸쓸한</w>": 5322,
  "씀을</w>": 5323,
  "씁": 5324,
  "씌": 5325,
  "씨": 5326,
  "씨가</w>": 5327,
  "씨름": 5328,
  "씩": 5329,
  "씩</w>": 5330,
  "씩씩": 5331,
  "씩씩하게</w>": 5332,
  "씩이나</w>": 5333,
  "씬</w>": 5334,
  "씰": 5335,
  "씸": 5336,
  "씹": 5337,
  "씻": 5338,
  "씻고</w>": 5339,
  "씻었습니다.</w>": 5340,
  "씻으면서</w>": 5341,
  "아": 5342,
  "아!</w>": 5343,
  "아!”</w>": 5344,
  "아,</w>": 5345,
  "아-": 5346,
  "아-</w>": 5347,
  "아</w>": 5348,
  "아까": 5349,
  "아까</w>": 5350,
  "아깝": 5351,
  "아끼는</w>": 5352,
  "아내": 5353,
  "아내</w>": 5354,
  "아내가</w>": 5355,
  "아내는</w>": 5356,
  "아내도</w>": 5357,
  "아내를</w>": 5358,
  "아내에</w>": 5359,
  "아내에게</w>": 5360,
  "아내와</w>": 5361,
  "아내의</w>": 5362,
  "아녜": 5363,
  "아녜요.”</w>": 5364,
  "아는</w>": 5365,
  "아니": 5366,
  "아니!</w>": 5367,
  "아니</w>": 5368,
  "아니”</w>": 5369,
  "아니건만</w>": 5370,
  "아니고</w>": 5371,
  "아니냐": 5372,
  "아니냐.</w>": 5373,
  "아니냐?</w>": 5374,
  "아니다.</w>": 5375,
  "아니라,</w>": 5376,
  "아니라</w>": 5377,
  "아니었다.</w>": 5378,
  "아니었습니다.</w>": 5379,
  "아니요.</w>": 5380,
  "아니요</w>": 5381,
  "아니지만</w>": 5382,
  "아니하고</w>": 5383,
  "아니하면</w>": 5384,
  "아니하여</w>": 5385,
  "아니하였습니다.</w>": 5386,
  "아니한</w>": 5387,
  "아닌": 5388,
  "아닌</w>": 5389,
  "아닌가.</w>": 5390,
  "아닌가</w>": 5391,
  "아닐": 5392,
  "아닐</w>": 5393,
  "아달": 5394,
  "아달린": 5395,
  "아달린,</w>": 5396,
  "아달린을</w>": 5397,
  "아도</w>": 5398,
  "아들": 5399,
  "아들</w>": 5400,
  "아들아</w>": 5401,
  "아들의</w>": 5402,
  "아뜩": 5403,
  "아래": 5404,
  "아래</w>": 5405,
  "아래로</w>": 5406,
  "아래를</w>": 5407,
  "아래서</w>": 5408,
  "아래에</w>": 5409,
  "아랫": 5410,
  "아랫방에서</w>": 5411,
  "아름": 5412,
  "아름다운</w>": 5413,
  "아리": 5414,
  "아마</w>": 5415,
  "아무": 5416,
  "아무</w>": 5417,
  "아무것도</w>": 5418,
  "아무도</w>": 5419,
  "아무런</w>": 5420,
  "아무렇": 5421,
  "아무리</w>": 5422,
  "아무와도</w>": 5423,
  "아무쪼록</w>": 5424,
  "아물": 5425,
  "아버": 5426,
  "아버리는</w>": 5427,
  "아버지": 5428,
  "아버지</w>": 5429,
  "아버지가</w>": 5430,
  "아버지께": 5431,
  "아버지께서</w>": 5432,
  "아버지께서는</w>": 5433,
  "아버지나</w>": 5434,
  "아버지는</w>": 5435,
  "아버지도</w>": 5436,
  "아버지를</w>": 5437,
  "아버지에게</w>": 5438,
  "아버지에게서</w>": 5439,
  "아버지와": 5440,
  "아버지와</w>": 5441,
  "아버지의</w>": 5442,
  "아서</w>": 5443,
  "아스": 5444,
  "아스피린": 5445,
  "아스피린,</w>": 5446,
  "아스피린</w>": 5447,
  "아스피린과</w>": 5448,
  "아시": 5449,
  "아시는</w>": 5450,
  "아야</w>": 5451,
  "아우는</w>": 5452,
  "아이": 5453,
  "아이</w>": 5454,
  "아이가</w>": 5455,
  "아이는</w>": 5456,
  "아이들</w>": 5457,
  "아이들에게</w>": 5458,
  "아이들은</w>": 5459,
  "아이들이</w>": 5460,
  "아저씨": 5461,
  "아저씨</w>": 5462,
  "아저씨가</w>": 5463,
  "아저씨는</w>": 5464,
  "아저씨에게</w>": 5465,
  "아주": 5466,
  "아주</w>": 5467,
  "아주머니": 5468,
  "아주머니,</w>": 5469,
  "아주머니</w>": 5470,
  "아주머니가</w>": 5471,
  "아주머니는</w>": 5472,
  "아지": 5473,
  "아직": 5474,
  "아직</w>": 5475,
  "아직도</w>": 5476,
  "아침": 5477,
  "아침,</w>": 5478,
  "아침</w>": 5479,
  "아침부터</w>": 5480,
  "아침에</w>": 5481,
  "아침이었습니다.</w>": 5482,
  "아파": 5483,
  "아파.</w>": 5484,
  "아파서</w>": 5485,
  "아프": 5486,
  "아프고</w>": 5487,
  "아픈</w>": 5488,
  "아홉": 5489,
  "악": 5490,
  "악</w>": 5491,
  "악독한</w>": 5492,
  "악착": 5493,
  "안": 5494,
  "안</w>": 5495,
  "안개</w>": 5496,
  "안겨</w>": 5497,
  "안고</w>": 5498,
  "안녕": 5499,
  "안녕히</w>": 5500,
  "안다.</w>": 5501,
  "안다는</w>": 5502,
  "안됐": 5503,
  "안드는</w>": 5504,
  "안방에서</w>": 5505,
  "안시": 5506,
  "안시성을</w>": 5507,
  "안아</w>": 5508,
  "안에</w>": 5509,
  "안에는</w>": 5510,
  "안에서</w>": 5511,
  "안으로</w>": 5512,
  "안은</w>": 5513,
  "안을</w>": 5514,
  "안의</w>": 5515,
  "안이</w>": 5516,
  "안전지": 5517,
  "안타": 5518,
  "안타까": 5519,
  "앉": 5520,
  "앉아</w>": 5521,
  "앉아서</w>": 5522,
  "앉았": 5523,
  "앉았다.</w>": 5524,
  "앉았다가</w>": 5525,
  "앉으셔서</w>": 5526,
  "앉은</w>": 5527,
  "않": 5528,
  "않</w>": 5529,
  "않게</w>": 5530,
  "않겠": 5531,
  "않고</w>": 5532,
  "않고는</w>": 5533,
  "않나?</w>": 5534,
  "않느냐": 5535,
  "않는</w>": 5536,
  "않는다.</w>": 5537,
  "않다.</w>": 5538,
  "않더니</w>": 5539,
  "않습니다.</w>": 5540,
  "않아": 5541,
  "않아</w>": 5542,
  "않아서</w>": 5543,
  "않았": 5544,
  "않았</w>": 5545,
  "않았겠": 5546,
  "않았겠나.</w>": 5547,
  "않았다.</w>": 5548,
  "않았다</w>": 5549,
  "않았습니다.</w>": 5550,
  "않았었": 5551,
  "않았을</w>": 5552,
  "않으": 5553,
  "않으려고</w>": 5554,
  "않으면</w>": 5555,
  "않은": 5556,
  "않은</w>": 5557,
  "않은가": 5558,
  "않은가.</w>": 5559,
  "않은가</w>": 5560,
  "않을": 5561,
  "않을</w>": 5562,
  "않지만</w>": 5563,
  "알": 5564,
  "알</w>": 5565,
  "알게</w>": 5566,
  "알고</w>": 5567,
  "알기</w>": 5568,
  "알려": 5569,
  "알려주": 5570,
  "알면서도</w>": 5571,
  "알아": 5572,
  "알아내": 5573,
  "알아듣": 5574,
  "알아라.”</w>": 5575,
  "알았": 5576,
  "알았다.</w>": 5577,
  "알았더니</w>": 5578,
  "알았던</w>": 5579,
  "알았습니다.</w>": 5580,
  "알지</w>": 5581,
  "앓": 5582,
  "앓는</w>": 5583,
  "암": 5584,
  "암만</w>": 5585,
  "암만해도</w>": 5586,
  "암탉": 5587,
  "압": 5588,
  "압록강": 5589,
  "압록강</w>": 5590,
  "압록강을</w>": 5591,
  "았": 5592,
  "았는데</w>": 5593,
  "았다.</w>": 5594,
  "았던</w>": 5595,
  "았습</w>": 5596,
  "았습니다.</w>": 5597,
  "았으나</w>": 5598,
  "았으니</w>": 5599,
  "았을</w>": 5600,
  "앙": 5601,
  "앝": 5602,
  "앞": 5603,
  "앞</w>": 5604,
  "앞문으로</w>": 5605,
  "앞에</w>": 5606,
  "앞에까지</w>": 5607,
  "앞에는</w>": 5608,
  "앞에서</w>": 5609,
  "앞에서는</w>": 5610,
  "앞으로": 5611,
  "앞으로</w>": 5612,
  "앞으로가까이</w>": 5613,
  "앞을</w>": 5614,
  "앞정강이를</w>": 5615,
  "애": 5616,
  "애!</w>": 5617,
  "애</w>": 5618,
  "애가</w>": 5619,
  "애걸": 5620,
  "애달": 5621,
  "애달픈</w>": 5622,
  "애들": 5623,
  "애들은</w>": 5624,
  "애를</w>": 5625,
  "애석": 5626,
  "애쓰는</w>": 5627,
  "애원하였습니다.</w>": 5628,
  "애틋한</w>": 5629,
  "액": 5630,
  "앨": 5631,
  "앳": 5632,
  "앵": 5633,
  "야": 5634,
  "야!</w>": 5635,
  "야!”</w>": 5636,
  "야,</w>": 5637,
  "야.</w>": 5638,
  "야.”</w>": 5639,
  "야</w>": 5640,
  "야?</w>": 5641,
  "야?”</w>": 5642,
  "야겠다.</w>": 5643,
  "야겠다.”</w>": 5644,
  "야겠다고</w>": 5645,
  "야단": 5646,
  "야단났": 5647,
  "야단을</w>": 5648,
  "야단이</w>": 5649,
  "야만</w>": 5650,
  "야말로</w>": 5651,
  "야속": 5652,
  "야속하고</w>": 5653,
  "야지.</w>": 5654,
  "야지.”</w>": 5655,
  "야지</w>": 5656,
  "약": 5657,
  "약</w>": 5658,
  "약간</w>": 5659,
  "약속": 5660,
  "약속을</w>": 5661,
  "약속한</w>": 5662,
  "약을</w>": 5663,
  "약이</w>": 5664,
  "약장": 5665,
  "약장사": 5666,
  "약장사가</w>": 5667,
  "약장사는</w>": 5668,
  "약장사와</w>": 5669,
  "약한</w>": 5670,
  "얄": 5671,
  "얇": 5672,
  "양": 5673,
  "양</w>": 5674,
  "양만춘</w>": 5675,
  "양복": 5676,
  "양복</w>": 5677,
  "양복을</w>": 5678,
  "양식이</w>": 5679,
  "양양": 5680,
  "양으로</w>": 5681,
  "양잠": 5682,
  "양잿물을</w>": 5683,
  "양편</w>": 5684,
  "얕은</w>": 5685,
  "얗": 5686,
  "얘": 5687,
  "얜": 5688,
  "어": 5689,
  "어,</w>": 5690,
  "어.</w>": 5691,
  "어.”</w>": 5692,
  "어</w>": 5693,
  "어가는</w>": 5694,
  "어가면서</w>": 5695,
  "어깨": 5696,
  "어깨를</w>": 5697,
  "어깨에</w>": 5698,
  "어깻": 5699,
  "어나오는</w>": 5700,
  "어느": 5701,
  "어느</w>": 5702,
  "어느날</w>": 5703,
  "어느덧</w>": 5704,
  "어다</w>": 5705,
  "어도</w>": 5706,
  "어두": 5707,
  "어두운</w>": 5708,
  "어둑": 5709,
  "어둔</w>": 5710,
  "어둠": 5711,
  "어디": 5712,
  "어디</w>": 5713,
  "어디까지</w>": 5714,
  "어디까지든지</w>": 5715,
  "어디로</w>": 5716,
  "어디서": 5717,
  "어디서</w>": 5718,
  "어디서인지</w>": 5719,
  "어딜</w>": 5720,
  "어떠": 5721,
  "어떠랴</w>": 5722,
  "어떠한</w>": 5723,
  "어떡하": 5724,
  "어떤</w>": 5725,
  "어떻": 5726,
  "어떻게</w>": 5727,
  "어라.”</w>": 5728,
  "어려": 5729,
  "어려</w>": 5730,
  "어려운</w>": 5731,
  "어려웠다.</w>": 5732,
  "어렵": 5733,
  "어렵지</w>": 5734,
  "어렸을</w>": 5735,
  "어룽": 5736,
  "어른": 5737,
  "어른들": 5738,
  "어름": 5739,
  "어름어름": 5740,
  "어리": 5741,
  "어리</w>": 5742,
  "어리고</w>": 5743,
  "어리둥절": 5744,
  "어리석": 5745,
  "어리었": 5746,
  "어리었습니다.</w>": 5747,
  "어린": 5748,
  "어린</w>": 5749,
  "어린애": 5750,
  "어린애</w>": 5751,
  "어린애도</w>": 5752,
  "어린애들을</w>": 5753,
  "어린애들이</w>": 5754,
  "어린애를</w>": 5755,
  "어머": 5756,
  "어머니": 5757,
  "어머니!</w>": 5758,
  "어머니,</w>": 5759,
  "어머니</w>": 5760,
  "어머니가</w>": 5761,
  "어머니까지</w>": 5762,
  "어머니께</w>": 5763,
  "어머니께서</w>": 5764,
  "어머니께서는</w>": 5765,
  "어머니나</w>": 5766,
  "어머니는</w>": 5767,
  "어머니도</w>": 5768,
  "어머니를</w>": 5769,
  "어머니에게</w>": 5770,
  "어머니와</w>": 5771,
  "어머니의</w>": 5772,
  "어머니한테</w>": 5773,
  "어머님</w>": 5774,
  "어머님께</w>": 5775,
  "어머님께서</w>": 5776,
  "어머님이</w>": 5777,
  "어미</w>": 5778,
  "어버": 5779,
  "어버렸습니다.</w>": 5780,
  "어서</w>": 5781,
  "어서는</w>": 5782,
  "어안이</w>": 5783,
  "어야</w>": 5784,
  "어여": 5785,
  "어여쁜</w>": 5786,
  "어요.</w>": 5787,
  "어요.”</w>": 5788,
  "어요?</w>": 5789,
  "어이": 5790,
  "어이!”</w>": 5791,
  "어이가</w>": 5792,
  "어저": 5793,
  "어저께</w>": 5794,
  "어저께도</w>": 5795,
  "어정": 5796,
  "어제": 5797,
  "어제</w>": 5798,
  "어제도</w>": 5799,
  "어젯": 5800,
  "어져": 5801,
  "어져</w>": 5802,
  "어져서</w>": 5803,
  "어졌습니다.</w>": 5804,
  "어지": 5805,
  "어지간": 5806,
  "어지간히</w>": 5807,
  "어지고</w>": 5808,
  "어지기</w>": 5809,
  "어지는</w>": 5810,
  "어진</w>": 5811,
  "어질": 5812,
  "어째": 5813,
  "어째서</w>": 5814,
  "어쨌": 5815,
  "어쨌든</w>": 5816,
  "어쩌": 5817,
  "어쩌고</w>": 5818,
  "어쩌나,</w>": 5819,
  "어쩌는</w>": 5820,
  "어쩌면</w>": 5821,
  "어쩐": 5822,
  "어쩐</w>": 5823,
  "어쩐지</w>": 5824,
  "어쩔</w>": 5825,
  "어찌": 5826,
  "어찌</w>": 5827,
  "어찌도</w>": 5828,
  "어찌할</w>": 5829,
  "어찔": 5830,
  "억": 5831,
  "억울": 5832,
  "억울하게</w>": 5833,
  "억울한</w>": 5834,
  "억지로</w>": 5835,
  "언": 5836,
  "언니": 5837,
  "언니</w>": 5838,
  "언니가</w>": 5839,
  "언니는</w>": 5840,
  "언덕</w>": 5841,
  "언제": 5842,
  "언제</w>": 5843,
  "언제든지</w>": 5844,
  "언제쯤</w>": 5845,
  "얹": 5846,
  "얻": 5847,
  "얻어": 5848,
  "얻어</w>": 5849,
  "얻어맞은</w>": 5850,
  "얻었다.</w>": 5851,
  "얻은</w>": 5852,
  "얼": 5853,
  "얼</w>": 5854,
  "얼굴": 5855,
  "얼굴</w>": 5856,
  "얼굴>": 5857,
  "얼굴>이란</w>": 5858,
  "얼굴만</w>": 5859,
  "얼굴에</w>": 5860,
  "얼굴에는</w>": 5861,
  "얼굴은</w>": 5862,
  "얼굴을</w>": 5863,
  "얼굴이</w>": 5864,
  "얼떨": 5865,
  "얼떨결에</w>": 5866,
  "얼른": 5867,
  "얼른</w>": 5868,
  "얼마": 5869,
  "얼마</w>": 5870,
  "얼마나</w>": 5871,
  "얼마든지</w>": 5872,
  "얼빠진</w>": 5873,
  "얼싸": 5874,
  "얼싸안고</w>": 5875,
  "얼음사": 5876,
  "얼음사탕</w>": 5877,
  "얼음사탕을</w>": 5878,
  "얽": 5879,
  "엄": 5880,
  "엄청": 5881,
  "엄청나게</w>": 5882,
  "업": 5883,
  "업수이</w>": 5884,
  "업이</w>": 5885,
  "없": 5886,
  "없</w>": 5887,
  "없게</w>": 5888,
  "없겠": 5889,
  "없고</w>": 5890,
  "없는</w>": 5891,
  "없는데": 5892,
  "없다": 5893,
  "없다.</w>": 5894,
  "없다.”</w>": 5895,
  "없다</w>": 5896,
  "없다고</w>": 5897,
  "없단다.”</w>": 5898,
  "없습니다.</w>": 5899,
  "없습니다.”</w>": 5900,
  "없애": 5901,
  "없어": 5902,
  "없어.”</w>": 5903,
  "없어</w>": 5904,
  "없어서</w>": 5905,
  "없어졌": 5906,
  "없어지고</w>": 5907,
  "없어지지</w>": 5908,
  "없었": 5909,
  "없었</w>": 5910,
  "없었다.</w>": 5911,
  "없었다</w>": 5912,
  "없었습니다.</w>": 5913,
  "없으": 5914,
  "없으니</w>": 5915,
  "없으면</w>": 5916,
  "없으므로</w>": 5917,
  "없을</w>": 5918,
  "없음을</w>": 5919,
  "없이,</w>": 5920,
  "없이</w>": 5921,
  "없지</w>": 5922,
  "없지만</w>": 5923,
  "엇": 5924,
  "었": 5925,
  "었는데</w>": 5926,
  "었는지</w>": 5927,
  "었다.</w>": 5928,
  "었다.”</w>": 5929,
  "었다가</w>": 5930,
  "었단다.</w>": 5931,
  "었던</w>": 5932,
  "었습니다.</w>": 5933,
  "었으니</w>": 5934,
  "었을</w>": 5935,
  "엉": 5936,
  "엉!</w>": 5937,
  "엉</w>": 5938,
  "엉금엉금</w>": 5939,
  "엉덩": 5940,
  "엉엉</w>": 5941,
  "엉켜서</w>": 5942,
  "엊": 5943,
  "엌": 5944,
  "엎": 5945,
  "엎드": 5946,
  "엎드려</w>": 5947,
  "엎어": 5948,
  "엎어져</w>": 5949,
  "에": 5950,
  "에,</w>": 5951,
  "에</w>": 5952,
  "에가</w>": 5953,
  "에게": 5954,
  "에게</w>": 5955,
  "에게는</w>": 5956,
  "에게도</w>": 5957,
  "에게라도</w>": 5958,
  "에게로</w>": 5959,
  "에게만</w>": 5960,
  "에게서</w>": 5961,
  "에고요": 5962,
  "에까지</w>": 5963,
  "에나</w>": 5964,
  "에는": 5965,
  "에는</w>": 5966,
  "에다</w>": 5967,
  "에다가</w>": 5968,
  "에도</w>": 5969,
  "에라도</w>": 5970,
  "에를</w>": 5971,
  "에만</w>": 5972,
  "에밀코</w>": 5973,
  "에서": 5974,
  "에서,</w>": 5975,
  "에서</w>": 5976,
  "에서는</w>": 5977,
  "에서도</w>": 5978,
  "에서부터</w>": 5979,
  "에야</w>": 5980,
  "에요.”</w>": 5981,
  "에이프런": 5982,
  "에헤": 5983,
  "에헤</w>": 5984,
  "엔": 5985,
  "엔</w>": 5986,
  "엘</w>": 5987,
  "엣": 5988,
  "여": 5989,
  "여</w>": 5990,
  "여간": 5991,
  "여간</w>": 5992,
  "여겼": 5993,
  "여관": 5994,
  "여관집</w>": 5995,
  "여기": 5996,
  "여기</w>": 5997,
  "여기고</w>": 5998,
  "여기까지</w>": 5999,
  "여기는</w>": 6000,
  "여기다</w>": 6001,
  "여기서</w>": 6002,
  "여기에는</w>": 6003,
  "여기저": 6004,
  "여기저기</w>": 6005,
  "여길</w>": 6006,
  "여닫": 6007,
  "여덟</w>": 6008,
  "여러": 6009,
  "여러</w>": 6010,
  "여러가지</w>": 6011,
  "여러가지로</w>": 6012,
  "여러번</w>": 6013,
  "여러분": 6014,
  "여러분!</w>": 6015,
  "여름": 6016,
  "여름</w>": 6017,
  "여름에</w>": 6018,
  "여보": 6019,
  "여보게</w>": 6020,
  "여서</w>": 6021,
  "여섯</w>": 6022,
  "여승": 6023,
  "여유도</w>": 6024,
  "여의": 6025,
  "여의고</w>": 6026,
  "여인": 6027,
  "여인의</w>": 6028,
  "여인이</w>": 6029,
  "여자": 6030,
  "여자는</w>": 6031,
  "여자다.</w>": 6032,
  "여자의</w>": 6033,
  "여전히</w>": 6034,
  "여지없이</w>": 6035,
  "여직공": 6036,
  "여쭈": 6037,
  "여쭈어": 6038,
  "여쭈어</w>": 6039,
  "여태": 6040,
  "여태까지</w>": 6041,
  "여태껏</w>": 6042,
  "여학생": 6043,
  "여학생이</w>": 6044,
  "역": 6045,
  "역시</w>": 6046,
  "역해</w>": 6047,
  "엮": 6048,
  "연": 6049,
  "연</w>": 6050,
  "연갑": 6051,
  "연갑이가</w>": 6052,
  "연갑이는</w>": 6053,
  "연갑이의</w>": 6054,
  "연거푸</w>": 6055,
  "연구": 6056,
  "연구하였다.</w>": 6057,
  "연기가</w>": 6058,
  "연기를</w>": 6059,
  "연상": 6060,
  "연설": 6061,
  "연설이</w>": 6062,
  "연성흠</w>": 6063,
  "연애": 6064,
  "연을</w>": 6065,
  "연이</w>": 6066,
  "연통</w>": 6067,
  "연하고</w>": 6068,
  "연한</w>": 6069,
  "연해</w>": 6070,
  "연히</w>": 6071,
  "열": 6072,
  "열</w>": 6073,
  "열고</w>": 6074,
  "열다섯</w>": 6075,
  "열두</w>": 6076,
  "열리고</w>": 6077,
  "열세</w>": 6078,
  "열심히</w>": 6079,
  "열어": 6080,
  "열어</w>": 6081,
  "열어젖": 6082,
  "열어젖히고</w>": 6083,
  "열었다.</w>": 6084,
  "열이</w>": 6085,
  "열한</w>": 6086,
  "열흘": 6087,
  "엷": 6088,
  "염": 6089,
  "염라대왕": 6090,
  "염라대왕에게로</w>": 6091,
  "염라대왕은</w>": 6092,
  "염려": 6093,
  "염려</w>": 6094,
  "염려가</w>": 6095,
  "엽": 6096,
  "엿": 6097,
  "엿</w>": 6098,
  "였": 6099,
  "였</w>": 6100,
  "였다.</w>": 6101,
  "였습니다.</w>": 6102,
  "영": 6103,
  "영</w>": 6104,
  "영문": 6105,
  "영어": 6106,
  "영어</w>": 6107,
  "영어를</w>": 6108,
  "영어연구회": 6109,
  "영영</w>": 6110,
  "영호": 6111,
  "영호</w>": 6112,
  "영호가</w>": 6113,
  "영호는</w>": 6114,
  "영호의</w>": 6115,
  "옆": 6116,
  "옆</w>": 6117,
  "옆에</w>": 6118,
  "옆으로</w>": 6119,
  "예": 6120,
  "예민": 6121,
  "예쁘": 6122,
  "예쁜</w>": 6123,
  "예술적</w>": 6124,
  "옛": 6125,
  "옛날": 6126,
  "옛날</w>": 6127,
  "옜": 6128,
  "오": 6129,
  "오!</w>": 6130,
  "오.</w>": 6131,
  "오.“</w>": 6132,
  "오.”</w>": 6133,
  "오</w>": 6134,
  "오?</w>": 6135,
  "오고": 6136,
  "오고</w>": 6137,
  "오기</w>": 6138,
  "오기를</w>": 6139,
  "오나</w>": 6140,
  "오너라.</w>": 6141,
  "오너라.”</w>": 6142,
  "오너라</w>": 6143,
  "오느라고</w>": 6144,
  "오는</w>": 6145,
  "오늘": 6146,
  "오늘</w>": 6147,
  "오늘까지</w>": 6148,
  "오늘날": 6149,
  "오늘날까지</w>": 6150,
  "오늘도</w>": 6151,
  "오늘따라</w>": 6152,
  "오늘아침</w>": 6153,
  "오늘은</w>": 6154,
  "오늘을</w>": 6155,
  "오다가</w>": 6156,
  "오던</w>": 6157,
  "오듯</w>": 6158,
  "오라": 6159,
  "오라고</w>": 6160,
  "오라는</w>": 6161,
  "오라질": 6162,
  "오라질</w>": 6163,
  "오락": 6164,
  "오랑": 6165,
  "오래</w>": 6166,
  "오래간": 6167,
  "오래간만에</w>": 6168,
  "오르": 6169,
  "오르고</w>": 6170,
  "오른": 6171,
  "오를</w>": 6172,
  "오빠": 6173,
  "오빠</w>": 6174,
  "오빠가</w>": 6175,
  "오빠는</w>": 6176,
  "오빠를</w>": 6177,
  "오셔서</w>": 6178,
  "오셨습니다.</w>": 6179,
  "오시": 6180,
  "오시게</w>": 6181,
  "오신</w>": 6182,
  "오실</w>": 6183,
  "오십": 6184,
  "오십</w>": 6185,
  "오지</w>": 6186,
  "오직</w>": 6187,
  "오탁의</w>": 6188,
  "오학년</w>": 6189,
  "오한이</w>": 6190,
  "오해": 6191,
  "오히려</w>": 6192,
  "옥": 6193,
  "옥수": 6194,
  "옥수수</w>": 6195,
  "옥수수가</w>": 6196,
  "옥수수는</w>": 6197,
  "옥수수도</w>": 6198,
  "옥수수를</w>": 6199,
  "온": 6200,
  "온</w>": 6201,
  "온갖</w>": 6202,
  "온다.</w>": 6203,
  "온데": 6204,
  "온종일</w>": 6205,
  "온통</w>": 6206,
  "올": 6207,
  "올</w>": 6208,
  "올라": 6209,
  "올라가": 6210,
  "올라가</w>": 6211,
  "올라가서</w>": 6212,
  "올라가지</w>": 6213,
  "올라간다.</w>": 6214,
  "올라갔습니다.</w>": 6215,
  "올라서": 6216,
  "올라서</w>": 6217,
  "올라오": 6218,
  "올랐": 6219,
  "올랐습니다.</w>": 6220,
  "올려</w>": 6221,
  "올리고</w>": 6222,
  "올리느라고</w>": 6223,
  "올시다.</w>": 6224,
  "올해</w>": 6225,
  "옮": 6226,
  "옮겨": 6227,
  "옳": 6228,
  "옳은</w>": 6229,
  "옴": 6230,
  "옵": 6231,
  "옵니다.</w>": 6232,
  "옷": 6233,
  "옷감</w>": 6234,
  "옷을</w>": 6235,
  "옷이</w>": 6236,
  "옹": 6237,
  "와": 6238,
  "와!”</w>": 6239,
  "와</w>": 6240,
  "와도</w>": 6241,
  "와서,</w>": 6242,
  "와서</w>": 6243,
  "와서는</w>": 6244,
  "와서도</w>": 6245,
  "와요.”</w>": 6246,
  "왁": 6247,
  "완": 6248,
  "왈": 6249,
  "왔": 6250,
  "왔구나": 6251,
  "왔다": 6252,
  "왔다.</w>": 6253,
  "왔다.”</w>": 6254,
  "왔다</w>": 6255,
  "왔던</w>": 6256,
  "왔습니다.</w>": 6257,
  "왔어요.”</w>": 6258,
  "왔으니</w>": 6259,
  "왔으면</w>": 6260,
  "왔으므로</w>": 6261,
  "왔을</w>": 6262,
  "왕": 6263,
  "왜": 6264,
  "왜</w>": 6265,
  "왜?</w>": 6266,
  "왜냐": 6267,
  "왜냐하면</w>": 6268,
  "외": 6269,
  "외갓": 6270,
  "외로": 6271,
  "외로운</w>": 6272,
  "외로움과</w>": 6273,
  "외삼": 6274,
  "외삼촌이</w>": 6275,
  "외에</w>": 6276,
  "외에는</w>": 6277,
  "외우": 6278,
  "외운</w>": 6279,
  "외의</w>": 6280,
  "외쳤다.</w>": 6281,
  "외출": 6282,
  "외출</w>": 6283,
  "외출에서</w>": 6284,
  "외출을</w>": 6285,
  "외출하고</w>": 6286,
  "외출한</w>": 6287,
  "왼": 6288,
  "왼편</w>": 6289,
  "요": 6290,
  "요,</w>": 6291,
  "요.</w>": 6292,
  "요.”</w>": 6293,
  "요</w>": 6294,
  "요?</w>": 6295,
  "요?”</w>": 6296,
  "요”</w>": 6297,
  "요란": 6298,
  "요란스럽": 6299,
  "요란스럽게</w>": 6300,
  "요렇게</w>": 6301,
  "요새": 6302,
  "요새는</w>": 6303,
  "요일": 6304,
  "요전": 6305,
  "요즈": 6306,
  "요즈음</w>": 6307,
  "요즘</w>": 6308,
  "요행": 6309,
  "욕": 6310,
  "욕심": 6311,
  "욕심</w>": 6312,
  "욕심이</w>": 6313,
  "욕을</w>": 6314,
  "용": 6315,
  "용</w>": 6316,
  "용기가</w>": 6317,
  "용기를</w>": 6318,
  "용길": 6319,
  "용길</w>": 6320,
  "용길이가</w>": 6321,
  "용길이는</w>": 6322,
  "용길이의</w>": 6323,
  "용만": 6324,
  "용만아!</w>": 6325,
  "용만이</w>": 6326,
  "용만이가</w>": 6327,
  "용만이는</w>": 6328,
  "용만이의</w>": 6329,
  "용맹": 6330,
  "용맹이</w>": 6331,
  "용서": 6332,
  "용서하": 6333,
  "용서하여": 6334,
  "용서해다": 6335,
  "용서해주": 6336,
  "용을</w>": 6337,
  "용자": 6338,
  "용환": 6339,
  "용환이가</w>": 6340,
  "용환이는</w>": 6341,
  "용환이를</w>": 6342,
  "우": 6343,
  "우,</w>": 6344,
  "우.</w>": 6345,
  "우</w>": 6346,
  "우?</w>": 6347,
  "우거진</w>": 6348,
  "우고</w>": 6349,
  "우글</w>": 6350,
  "우는": 6351,
  "우는</w>": 6352,
  "우두커니</w>": 6353,
  "우등</w>": 6354,
  "우러": 6355,
  "우러러</w>": 6356,
  "우리": 6357,
  "우리</w>": 6358,
  "우리가</w>": 6359,
  "우리는</w>": 6360,
  "우리들은</w>": 6361,
  "우리의</w>": 6362,
  "우물</w>": 6363,
  "우물에</w>": 6364,
  "우선</w>": 6365,
  "우스": 6366,
  "우식": 6367,
  "우식이</w>": 6368,
  "우신</w>": 6369,
  "우유를</w>": 6370,
  "우중에</w>": 6371,
  "우즈": 6372,
  "욱": 6373,
  "운": 6374,
  "운</w>": 6375,
  "운다.</w>": 6376,
  "운동": 6377,
  "운동장</w>": 6378,
  "운동장으로</w>": 6379,
  "운수</w>": 6380,
  "운수가</w>": 6381,
  "운지</w>": 6382,
  "울": 6383,
  "울</w>": 6384,
  "울고</w>": 6385,
  "울긋불긋": 6386,
  "울기": 6387,
  "울기나</w>": 6388,
  "울기만</w>": 6389,
  "울다가</w>": 6390,
  "울렁거리는</w>": 6391,
  "울렁거리면서</w>": 6392,
  "울려": 6393,
  "울렸습니다.</w>": 6394,
  "울리는</w>": 6395,
  "울며</w>": 6396,
  "울면서</w>": 6397,
  "울어서는</w>": 6398,
  "울었": 6399,
  "울었다.</w>": 6400,
  "울었습니다.</w>": 6401,
  "울음</w>": 6402,
  "울음이</w>": 6403,
  "울지</w>": 6404,
  "울지는</w>": 6405,
  "울지들</w>": 6406,
  "울타": 6407,
  "울타리": 6408,
  "울타리</w>": 6409,
  "울타리를</w>": 6410,
  "움": 6411,
  "움과</w>": 6412,
  "움에</w>": 6413,
  "움은</w>": 6414,
  "움을</w>": 6415,
  "움이</w>": 6416,
  "움직이기</w>": 6417,
  "움집을</w>": 6418,
  "웃": 6419,
  "웃</w>": 6420,
  "웃고</w>": 6421,
  "웃는</w>": 6422,
  "웃는다.</w>": 6423,
  "웃었다.</w>": 6424,
  "웃었습니다.</w>": 6425,
  "웃으면서</w>": 6426,
  "웃으시": 6427,
  "웃으시면서</w>": 6428,
  "웃음</w>": 6429,
  "웃음을</w>": 6430,
  "웃음이</w>": 6431,
  "웅": 6432,
  "웅크리고</w>": 6433,
  "워": 6434,
  "워</w>": 6435,
  "워낙</w>": 6436,
  "워서</w>": 6437,
  "워졌": 6438,
  "워지": 6439,
  "워하는</w>": 6440,
  "원": 6441,
  "원,</w>": 6442,
  "원</w>": 6443,
  "원망": 6444,
  "원망스러": 6445,
  "원망스러웠습니다.</w>": 6446,
  "원은</w>": 6447,
  "원을</w>": 6448,
  "원이</w>": 6449,
  "원인</w>": 6450,
  "원체</w>": 6451,
  "원통": 6452,
  "원하였습니다.</w>": 6453,
  "월": 6454,
  "월</w>": 6455,
  "월봉": 6456,
  "월요일</w>": 6457,
  "월이</w>": 6458,
  "웠": 6459,
  "웠다.</w>": 6460,
  "웠습니다.</w>": 6461,
  "웨": 6462,
  "웬": 6463,
  "웬</w>": 6464,
  "웬일": 6465,
  "웬일이": 6466,
  "웬일인지</w>": 6467,
  "위": 6468,
  "위</w>": 6469,
  "위독": 6470,
  "위로": 6471,
  "위로</w>": 6472,
  "위로를</w>": 6473,
  "위로하여": 6474,
  "위로하여</w>": 6475,
  "위를</w>": 6476,
  "위에</w>": 6477,
  "위에는</w>": 6478,
  "위에다가</w>": 6479,
  "위에서</w>": 6480,
  "위에서는</w>": 6481,
  "위중": 6482,
  "위트와</w>": 6483,
  "위하여": 6484,
  "위하여</w>": 6485,
  "위한</w>": 6486,
  "위해": 6487,
  "위해서</w>": 6488,
  "위험": 6489,
  "위험한</w>": 6490,
  "윗": 6491,
  "유": 6492,
  "유달리</w>": 6493,
  "유리": 6494,
  "유명하여</w>": 6495,
  "유월의</w>": 6496,
  "유익이</w>": 6497,
  "유쾌": 6498,
  "유쾌하": 6499,
  "유쾌하게</w>": 6500,
  "유쾌하오.</w>": 6501,
  "유쾌히</w>": 6502,
  "육": 6503,
  "육십</w>": 6504,
  "육학년</w>": 6505,
  "윤</w>": 6506,
  "윤혜숙이</w>": 6507,
  "율": 6508,
  "으": 6509,
  "으</w>": 6510,
  "으나,</w>": 6511,
  "으나</w>": 6512,
  "으니": 6513,
  "으니</w>": 6514,
  "으니까</w>": 6515,
  "으레</w>": 6516,
  "으려</w>": 6517,
  "으려고</w>": 6518,
  "으로": 6519,
  "으로,</w>": 6520,
  "으로</w>": 6521,
  "으로나</w>": 6522,
  "으로는</w>": 6523,
  "으로도</w>": 6524,
  "으로만</w>": 6525,
  "으리라</w>": 6526,
  "으며,</w>": 6527,
  "으며</w>": 6528,
  "으면": 6529,
  "으면</w>": 6530,
  "으면서,</w>": 6531,
  "으면서</w>": 6532,
  "으면서도</w>": 6533,
  "으므로</w>": 6534,
  "으셔서</w>": 6535,
  "으셨습니다.</w>": 6536,
  "으시": 6537,
  "으시는</w>": 6538,
  "으시면서</w>": 6539,
  "으신</w>": 6540,
  "윽": 6541,
  "은": 6542,
  "은,</w>": 6543,
  "은</w>": 6544,
  "은가": 6545,
  "은동": 6546,
  "은동이</w>": 6547,
  "은동이가</w>": 6548,
  "은동이는</w>": 6549,
  "은동이를</w>": 6550,
  "은동이와</w>": 6551,
  "은동이의</w>": 6552,
  "은메": 6553,
  "은메달을</w>": 6554,
  "은커녕</w>": 6555,
  "은혜": 6556,
  "은화": 6557,
  "은화가</w>": 6558,
  "은화를</w>": 6559,
  "은희": 6560,
  "은희는</w>": 6561,
  "은희의</w>": 6562,
  "을": 6563,
  "을!</w>": 6564,
  "을</w>": 6565,
  "을까": 6566,
  "을까.”</w>": 6567,
  "을까</w>": 6568,
  "을까?</w>": 6569,
  "을지</w>": 6570,
  "음": 6571,
  "음</w>": 6572,
  "음성": 6573,
  "음성으로,</w>": 6574,
  "음성으로</w>": 6575,
  "음성은</w>": 6576,
  "음성이</w>": 6577,
  "음식": 6578,
  "음식도</w>": 6579,
  "음식을</w>": 6580,
  "음에</w>": 6581,
  "음에는</w>": 6582,
  "음은</w>": 6583,
  "음을</w>": 6584,
  "음이</w>": 6585,
  "음이다.</w>": 6586,
  "음일까?</w>": 6587,
  "응": 6588,
  "응!</w>": 6589,
  "응!”</w>": 6590,
  "응,</w>": 6591,
  "응.”</w>": 6592,
  "응아</w>": 6593,
  "응원</w>": 6594,
  "응접": 6595,
  "의": 6596,
  "의</w>": 6597,
  "의논": 6598,
  "의논을</w>": 6599,
  "의논이라도</w>": 6600,
  "의문": 6601,
  "의미가</w>": 6602,
  "의사": 6603,
  "의사가</w>": 6604,
  "의사는</w>": 6605,
  "의사도</w>": 6606,
  "의사를</w>": 6607,
  "의사의</w>": 6608,
  "의사인</w>": 6609,
  "의식": 6610,
  "의식을</w>": 6611,
  "의심": 6612,
  "의심을</w>": 6613,
  "의아": 6614,
  "의원을</w>": 6615,
  "의지": 6616,
  "의지하고</w>": 6617,
  "이": 6618,
  "이!</w>": 6619,
  "이!”</w>": 6620,
  "이,</w>": 6621,
  "이---": 6622,
  "이.”</w>": 6623,
  "이</w>": 6624,
  "이가</w>": 6625,
  "이같이</w>": 6626,
  "이거</w>": 6627,
  "이건</w>": 6628,
  "이건만</w>": 6629,
  "이걸</w>": 6630,
  "이걸로</w>": 6631,
  "이것": 6632,
  "이것</w>": 6633,
  "이것은</w>": 6634,
  "이것을</w>": 6635,
  "이것이</w>": 6636,
  "이게</w>": 6637,
  "이고,</w>": 6638,
  "이고</w>": 6639,
  "이곳": 6640,
  "이곳에</w>": 6641,
  "이곳에서</w>": 6642,
  "이곳은</w>": 6643,
  "이곳을</w>": 6644,
  "이기": 6645,
  "이기</w>": 6646,
  "이기거나</w>": 6647,
  "이길</w>": 6648,
  "이나": 6649,
  "이나</w>": 6650,
  "이나마</w>": 6651,
  "이날</w>": 6652,
  "이날은</w>": 6653,
  "이냐": 6654,
  "이냐.</w>": 6655,
  "이냐?</w>": 6656,
  "이냐?”</w>": 6657,
  "이놈의</w>": 6658,
  "이는</w>": 6659,
  "이니</w>": 6660,
  "이니까": 6661,
  "이니까</w>": 6662,
  "이다.</w>": 6663,
  "이다.”</w>": 6664,
  "이도</w>": 6665,
  "이들은</w>": 6666,
  "이따": 6667,
  "이따금</w>": 6668,
  "이때</w>": 6669,
  "이때에</w>": 6670,
  "이라": 6671,
  "이라</w>": 6672,
  "이라고</w>": 6673,
  "이라고는</w>": 6674,
  "이라는</w>": 6675,
  "이라니</w>": 6676,
  "이라도</w>": 6677,
  "이라든가</w>": 6678,
  "이라든지</w>": 6679,
  "이라면</w>": 6680,
  "이란</w>": 6681,
  "이란다.”</w>": 6682,
  "이랑</w>": 6683,
  "이래": 6684,
  "이러": 6685,
  "이러한</w>": 6686,
  "이런</w>": 6687,
  "이럴</w>": 6688,
  "이렇": 6689,
  "이렇게</w>": 6690,
  "이렇게까지</w>": 6691,
  "이렇게도</w>": 6692,
  "이렇게들</w>": 6693,
  "이로</w>": 6694,
  "이루": 6695,
  "이루</w>": 6696,
  "이르": 6697,
  "이르는</w>": 6698,
  "이르렀": 6699,
  "이르렀습니다.</w>": 6700,
  "이르렀을</w>": 6701,
  "이르쿠츠크": 6702,
  "이른</w>": 6703,
  "이를</w>": 6704,
  "이름": 6705,
  "이름난</w>": 6706,
  "이름은</w>": 6707,
  "이름을</w>": 6708,
  "이름이</w>": 6709,
  "이리": 6710,
  "이리</w>": 6711,
  "이리라.</w>": 6712,
  "이리로</w>": 6713,
  "이마": 6714,
  "이만</w>": 6715,
  "이만은</w>": 6716,
  "이맘": 6717,
  "이맘때</w>": 6718,
  "이며</w>": 6719,
  "이면</w>": 6720,
  "이면서</w>": 6721,
  "이므로</w>": 6722,
  "이미</w>": 6723,
  "이번": 6724,
  "이번</w>": 6725,
  "이번에는</w>": 6726,
  "이별": 6727,
  "이별</w>": 6728,
  "이보다</w>": 6729,
  "이부자리를</w>": 6730,
  "이불": 6731,
  "이불</w>": 6732,
  "이불을</w>": 6733,
  "이사</w>": 6734,
  "이삭": 6735,
  "이삭</w>": 6736,
  "이상": 6737,
  "이상</w>": 6738,
  "이상스러운</w>": 6739,
  "이상스럽게도</w>": 6740,
  "이상으로</w>": 6741,
  "이상하게도</w>": 6742,
  "이상한</w>": 6743,
  "이세민은</w>": 6744,
  "이세민이</w>": 6745,
  "이슥": 6746,
  "이슬</w>": 6747,
  "이신지</w>": 6748,
  "이십": 6749,
  "이야": 6750,
  "이야.</w>": 6751,
  "이야.”</w>": 6752,
  "이야</w>": 6753,
  "이야기": 6754,
  "이야기</w>": 6755,
  "이야기가</w>": 6756,
  "이야기는</w>": 6757,
  "이야기도</w>": 6758,
  "이야기를</w>": 6759,
  "이야기하는</w>": 6760,
  "이야기하던</w>": 6761,
  "이야기하였습니다.</w>": 6762,
  "이야기할</w>": 6763,
  "이야말로</w>": 6764,
  "이어": 6765,
  "이어</w>": 6766,
  "이었": 6767,
  "이었</w>": 6768,
  "이었다.</w>": 6769,
  "이었던</w>": 6770,
  "이었습니다.</w>": 6771,
  "이에</w>": 6772,
  "이에게</w>": 6773,
  "이에요.”</w>": 6774,
  "이오": 6775,
  "이오.</w>": 6776,
  "이와</w>": 6777,
  "이요,</w>": 6778,
  "이웃": 6779,
  "이웃</w>": 6780,
  "이웃에</w>": 6781,
  "이유": 6782,
  "이유가</w>": 6783,
  "이유를</w>": 6784,
  "이윽": 6785,
  "이의</w>": 6786,
  "이전": 6787,
  "이제": 6788,
  "이제</w>": 6789,
  "이제는</w>": 6790,
  "이제야</w>": 6791,
  "이지": 6792,
  "이지</w>": 6793,
  "이지?”</w>": 6794,
  "이지만</w>": 6795,
  "이질을</w>": 6796,
  "이쪽</w>": 6797,
  "이쪽을</w>": 6798,
  "이튿": 6799,
  "이튿날": 6800,
  "이튿날</w>": 6801,
  "이튿날도</w>": 6802,
  "이튿날부터</w>": 6803,
  "이틀</w>": 6804,
  "이프": 6805,
  "이하고</w>": 6806,
  "이한</w>": 6807,
  "이한테</w>": 6808,
  "익": 6809,
  "익어가는</w>": 6810,
  "익었습니다.</w>": 6811,
  "익을</w>": 6812,
  "인": 6813,
  "인</w>": 6814,
  "인가": 6815,
  "인가.”</w>": 6816,
  "인가</w>": 6817,
  "인간</w>": 6818,
  "인다.</w>": 6819,
  "인데": 6820,
  "인데</w>": 6821,
  "인데다가</w>": 6822,
  "인력": 6823,
  "인력거": 6824,
  "인력거</w>": 6825,
  "인력거꾼": 6826,
  "인력거꾼</w>": 6827,
  "인력거를</w>": 6828,
  "인사": 6829,
  "인사를</w>": 6830,
  "인색": 6831,
  "인색한</w>": 6832,
  "인생": 6833,
  "인생의</w>": 6834,
  "인쇄": 6835,
  "인쇄소</w>": 6836,
  "인자": 6837,
  "인정": 6838,
  "인정이</w>": 6839,
  "인제</w>": 6840,
  "인제는</w>": 6841,
  "인젠</w>": 6842,
  "인지</w>": 6843,
  "인지도</w>": 6844,
  "일": 6845,
  "일,</w>": 6846,
  "일</w>": 6847,
  "일가</w>": 6848,
  "일같이</w>": 6849,
  "일곱": 6850,
  "일과</w>": 6851,
  "일기'": 6852,
  "일까.</w>": 6853,
  "일까?</w>": 6854,
  "일까를</w>": 6855,
  "일도</w>": 6856,
  "일러": 6857,
  "일로</w>": 6858,
  "일만</w>": 6859,
  "일망정</w>": 6860,
  "일본": 6861,
  "일부": 6862,
  "일부러</w>": 6863,
  "일상</w>": 6864,
  "일세": 6865,
  "일세.”</w>": 6866,
  "일세그려.</w>": 6867,
  "일시</w>": 6868,
  "일어": 6869,
  "일어</w>": 6870,
  "일어나": 6871,
  "일어나</w>": 6872,
  "일어나는</w>": 6873,
  "일어나서</w>": 6874,
  "일어났습니다.</w>": 6875,
  "일어서": 6876,
  "일어서서</w>": 6877,
  "일에</w>": 6878,
  "일에도</w>": 6879,
  "일요일": 6880,
  "일요일이다.</w>": 6881,
  "일으": 6882,
  "일은</w>": 6883,
  "일을</w>": 6884,
  "일이": 6885,
  "일이</w>": 6886,
  "일이다.</w>": 6887,
  "일이다</w>": 6888,
  "일이든지</w>": 6889,
  "일이라</w>": 6890,
  "일이라고</w>": 6891,
  "일이라도</w>": 6892,
  "일이면</w>": 6893,
  "일인</w>": 6894,
  "일인지</w>": 6895,
  "일일</w>": 6896,
  "일입니다.</w>": 6897,
  "일제히</w>": 6898,
  "일종의</w>": 6899,
  "일주": 6900,
  "일주일이</w>": 6901,
  "일직이</w>": 6902,
  "일찍</w>": 6903,
  "일찍이</w>": 6904,
  "일터로</w>": 6905,
  "일하는</w>": 6906,
  "일하던</w>": 6907,
  "일하여</w>": 6908,
  "읽": 6909,
  "읽고</w>": 6910,
  "읽었다.</w>": 6911,
  "읽은</w>": 6912,
  "읽을</w>": 6913,
  "잃": 6914,
  "잃고</w>": 6915,
  "잃어버": 6916,
  "잃어버리고</w>": 6917,
  "잃어버린</w>": 6918,
  "임": 6919,
  "임</w>": 6920,
  "임금": 6921,
  "임금</w>": 6922,
  "임금의</w>": 6923,
  "임금이</w>": 6924,
  "입": 6925,
  "입</w>": 6926,
  "입고</w>": 6927,
  "입니까.</w>": 6928,
  "입니다-</w>": 6929,
  "입니다.</w>": 6930,
  "입니다.”</w>": 6931,
  "입선": 6932,
  "입속으로</w>": 6933,
  "입술을</w>": 6934,
  "입어</w>": 6935,
  "입에</w>": 6936,
  "입에다</w>": 6937,
  "입에서</w>": 6938,
  "입원": 6939,
  "입으로</w>": 6940,
  "입은</w>": 6941,
  "입을</w>": 6942,
  "입이</w>": 6943,
  "입학": 6944,
  "입학</w>": 6945,
  "입학시험을</w>": 6946,
  "입히": 6947,
  "잇": 6948,
  "있": 6949,
  "있</w>": 6950,
  "있거든</w>": 6951,
  "있거라.</w>": 6952,
  "있게</w>": 6953,
  "있겠": 6954,
  "있겠수.”</w>": 6955,
  "있겠습니까?</w>": 6956,
  "있고</w>": 6957,
  "있나.</w>": 6958,
  "있나</w>": 6959,
  "있나?</w>": 6960,
  "있느냐": 6961,
  "있는": 6962,
  "있는</w>": 6963,
  "있는데</w>": 6964,
  "있니?</w>": 6965,
  "있니?”</w>": 6966,
  "있다.</w>": 6967,
  "있다.”</w>": 6968,
  "있다</w>": 6969,
  "있다가</w>": 6970,
  "있다는</w>": 6971,
  "있더니</w>": 6972,
  "있더라도</w>": 6973,
  "있던</w>": 6974,
  "있습니다.</w>": 6975,
  "있습니다.”</w>": 6976,
  "있어": 6977,
  "있어.</w>": 6978,
  "있어도</w>": 6979,
  "있어서</w>": 6980,
  "있어서는</w>": 6981,
  "있어야</w>": 6982,
  "있어요.</w>": 6983,
  "있었": 6984,
  "있었</w>": 6985,
  "있었는데</w>": 6986,
  "있었다.</w>": 6987,
  "있었다는</w>": 6988,
  "있었던</w>": 6989,
  "있었던가": 6990,
  "있었습니다.</w>": 6991,
  "있었으므로</w>": 6992,
  "있으": 6993,
  "있으니</w>": 6994,
  "있으면</w>": 6995,
  "있으므로</w>": 6996,
  "있을</w>": 6997,
  "있을까</w>": 6998,
  "있지</w>": 6999,
  "있지나</w>": 7000,
  "잉": 7001,
  "잊": 7002,
  "잊어버": 7003,
  "잊어버리": 7004,
  "잊어버리고</w>": 7005,
  "잊어버리지</w>": 7006,
  "잊으려는</w>": 7007,
  "잊을</w>": 7008,
  "잊지</w>": 7009,
  "잎": 7010,
  "잎</w>": 7011,
  "자": 7012,
  "자!</w>": 7013,
  "자,</w>": 7014,
  "자.</w>": 7015,
  "자.”</w>": 7016,
  "자</w>": 7017,
  "자가</w>": 7018,
  "자고</w>": 7019,
  "자기": 7020,
  "자기</w>": 7021,
  "자기가</w>": 7022,
  "자기는</w>": 7023,
  "자기도</w>": 7024,
  "자기를</w>": 7025,
  "자기와</w>": 7026,
  "자기의</w>": 7027,
  "자꾸": 7028,
  "자꾸</w>": 7029,
  "자꾸나.</w>": 7030,
  "자꾸만</w>": 7031,
  "자꾸자꾸</w>": 7032,
  "자네": 7033,
  "자네</w>": 7034,
  "자네가</w>": 7035,
  "자느라고</w>": 7036,
  "자는</w>": 7037,
  "자니</w>": 7038,
  "자니까,</w>": 7039,
  "자다가</w>": 7040,
  "자동": 7041,
  "자동차에</w>": 7042,
  "자라": 7043,
  "자라고</w>": 7044,
  "자라나는</w>": 7045,
  "자라난</w>": 7046,
  "자라는</w>": 7047,
  "자라서</w>": 7048,
  "자란</w>": 7049,
  "자랑": 7050,
  "자를</w>": 7051,
  "자리": 7052,
  "자리</w>": 7053,
  "자리를</w>": 7054,
  "자리에</w>": 7055,
  "자마자,</w>": 7056,
  "자마자</w>": 7057,
  "자면</w>": 7058,
  "자면서</w>": 7059,
  "자빠": 7060,
  "자빠졌다.</w>": 7061,
  "자살": 7062,
  "자세": 7063,
  "자세한</w>": 7064,
  "자세히</w>": 7065,
  "자식": 7066,
  "자식</w>": 7067,
  "자식놈이</w>": 7068,
  "자식이</w>": 7069,
  "자신": 7070,
  "자신이</w>": 7071,
  "자에</w>": 7072,
  "자연": 7073,
  "자의</w>": 7074,
  "자정</w>": 7075,
  "자정을</w>": 7076,
  "자주</w>": 7077,
  "자지</w>": 7078,
  "자취": 7079,
  "작": 7080,
  "작</w>": 7081,
  "작년": 7082,
  "작년</w>": 7083,
  "작년에</w>": 7084,
  "작은": 7085,
  "작은</w>": 7086,
  "작자가</w>": 7087,
  "작정": 7088,
  "작품": 7089,
  "작품이</w>": 7090,
  "잔": 7091,
  "잔</w>": 7092,
  "잔다.</w>": 7093,
  "잔등": 7094,
  "잔등이를</w>": 7095,
  "잔디풀이</w>": 7096,
  "잔뜩</w>": 7097,
  "잔을</w>": 7098,
  "잔잔": 7099,
  "잖": 7100,
  "잘": 7101,
  "잘</w>": 7102,
  "잘라": 7103,
  "잘못": 7104,
  "잘못된</w>": 7105,
  "잘못은</w>": 7106,
  "잘못을</w>": 7107,
  "잘못한</w>": 7108,
  "잘못했": 7109,
  "잘못했습니다.”</w>": 7110,
  "잘하고</w>": 7111,
  "잘하는</w>": 7112,
  "잘하였습니다.</w>": 7113,
  "잘한": 7114,
  "잘했": 7115,
  "잠": 7116,
  "잠</w>": 7117,
  "잠겨</w>": 7118,
  "잠그": 7119,
  "잠그지</w>": 7120,
  "잠긴</w>": 7121,
  "잠깐</w>": 7122,
  "잠은</w>": 7123,
  "잠을</w>": 7124,
  "잠이</w>": 7125,
  "잠자": 7126,
  "잠자코</w>": 7127,
  "잡": 7128,
  "잡고</w>": 7129,
  "잡수": 7130,
  "잡아": 7131,
  "잡아</w>": 7132,
  "잡아당": 7133,
  "잡아당겼습니다.</w>": 7134,
  "잡아당기": 7135,
  "잡아당기게.”</w>": 7136,
  "잡아당기니까</w>": 7137,
  "잡아당길까": 7138,
  "잡아두고</w>": 7139,
  "잡았다.</w>": 7140,
  "잡았습니다.</w>": 7141,
  "잡은</w>": 7142,
  "잡을</w>": 7143,
  "잡지</w>": 7144,
  "잡지는</w>": 7145,
  "잡지를</w>": 7146,
  "잤다.</w>": 7147,
  "장": 7148,
  "장</w>": 7149,
  "장거리": 7150,
  "장거리</w>": 7151,
  "장거리에</w>": 7152,
  "장군": 7153,
  "장군</w>": 7154,
  "장군은</w>": 7155,
  "장군의</w>": 7156,
  "장난": 7157,
  "장난</w>": 7158,
  "장난감": 7159,
  "장난도</w>": 7160,
  "장난을</w>": 7161,
  "장난이</w>": 7162,
  "장난할</w>": 7163,
  "장독": 7164,
  "장독께로</w>": 7165,
  "장래": 7166,
  "장만</w>": 7167,
  "장맞을</w>": 7168,
  "장미": 7169,
  "장붕익": 7170,
  "장사": 7171,
  "장손": 7172,
  "장수": 7173,
  "장수</w>": 7174,
  "장수가</w>": 7175,
  "장수는</w>": 7176,
  "장수에게</w>": 7177,
  "장수의</w>": 7178,
  "장에</w>": 7179,
  "장에서</w>": 7180,
  "장으로</w>": 7181,
  "장을</w>": 7182,
  "장이</w>": 7183,
  "장지</w>": 7184,
  "장지를</w>": 7185,
  "장판": 7186,
  "장학": 7187,
  "장학금</w>": 7188,
  "잦": 7189,
  "재": 7190,
  "재</w>": 7191,
  "재룡": 7192,
  "재룡이가</w>": 7193,
  "재룡이는</w>": 7194,
  "재미": 7195,
  "재미가</w>": 7196,
  "재미를</w>": 7197,
  "재미있게</w>": 7198,
  "재워</w>": 7199,
  "재주가</w>": 7200,
  "재주에</w>": 7201,
  "재채기를</w>": 7202,
  "쟁": 7203,
  "쟁이를</w>": 7204,
  "저": 7205,
  "저-</w>": 7206,
  "저</w>": 7207,
  "저것을</w>": 7208,
  "저고": 7209,
  "저금": 7210,
  "저기</w>": 7211,
  "저녁": 7212,
  "저녁</w>": 7213,
  "저녁때</w>": 7214,
  "저녁밥을</w>": 7215,
  "저녁에</w>": 7216,
  "저녁을</w>": 7217,
  "저는</w>": 7218,
  "저도</w>": 7219,
  "저렇게</w>": 7220,
  "저를</w>": 7221,
  "저리": 7222,
  "저리</w>": 7223,
  "저물": 7224,
  "저물도록</w>": 7225,
  "저물어가는</w>": 7226,
  "저승": 7227,
  "저씨": 7228,
  "저절로</w>": 7229,
  "저질렀": 7230,
  "저쪽": 7231,
  "저쪽</w>": 7232,
  "저쪽에서도,</w>": 7233,
  "저쪽으로</w>": 7234,
  "저쪽을</w>": 7235,
  "저희</w>": 7236,
  "저희들끼리</w>": 7237,
  "적": 7238,
  "적</w>": 7239,
  "적거렸다.</w>": 7240,
  "적군": 7241,
  "적극적인</w>": 7242,
  "적도</w>": 7243,
  "적마다</w>": 7244,
  "적병": 7245,
  "적십자": 7246,
  "적십자병원으로</w>": 7247,
  "적으로</w>": 7248,
  "적이</w>": 7249,
  "적인</w>": 7250,
  "적추적</w>": 7251,
  "적한</w>": 7252,
  "전": 7253,
  "전,</w>": 7254,
  "전</w>": 7255,
  "전과</w>": 7256,
  "전교</w>": 7257,
  "전기</w>": 7258,
  "전기에</w>": 7259,
  "전등": 7260,
  "전람회": 7261,
  "전람회장으로</w>": 7262,
  "전만</w>": 7263,
  "전보</w>": 7264,
  "전보다</w>": 7265,
  "전보를</w>": 7266,
  "전부터</w>": 7267,
  "전에</w>": 7268,
  "전에는</w>": 7269,
  "전을</w>": 7270,
  "전이</w>": 7271,
  "전짜리</w>": 7272,
  "전차</w>": 7273,
  "전차가</w>": 7274,
  "전차에</w>": 7275,
  "전찻": 7276,
  "전히</w>": 7277,
  "절": 7278,
  "절</w>": 7279,
  "절대적인</w>": 7280,
  "절로</w>": 7281,
  "절에서</w>": 7282,
  "절이</w>": 7283,
  "젊": 7284,
  "젊은</w>": 7285,
  "점": 7286,
  "점</w>": 7287,
  "점순": 7288,
  "점순네": 7289,
  "점순네</w>": 7290,
  "점순아!</w>": 7291,
  "점순이가</w>": 7292,
  "점순이의</w>": 7293,
  "점심": 7294,
  "점심</w>": 7295,
  "점심밥을</w>": 7296,
  "점심시간에</w>": 7297,
  "점심시간이</w>": 7298,
  "점심을</w>": 7299,
  "점으로</w>": 7300,
  "점을</w>": 7301,
  "점잖": 7302,
  "점잖은</w>": 7303,
  "점점</w>": 7304,
  "접": 7305,
  "접시를</w>": 7306,
  "젓": 7307,
  "정": 7308,
  "정</w>": 7309,
  "정강이를</w>": 7310,
  "정거": 7311,
  "정거</w>": 7312,
  "정거를</w>": 7313,
  "정거장": 7314,
  "정거장</w>": 7315,
  "정거장까지</w>": 7316,
  "정거장에</w>": 7317,
  "정거장으로</w>": 7318,
  "정과</w>": 7319,
  "정구</w>": 7320,
  "정녕</w>": 7321,
  "정다운</w>": 7322,
  "정답게</w>": 7323,
  "정도": 7324,
  "정도를</w>": 7325,
  "정동": 7326,
  "정동이는</w>": 7327,
  "정류": 7328,
  "정류장에서</w>": 7329,
  "정말</w>": 7330,
  "정말이지</w>": 7331,
  "정문으로</w>": 7332,
  "정성껏</w>": 7333,
  "정숙": 7334,
  "정숙아!</w>": 7335,
  "정숙이</w>": 7336,
  "정숙이가</w>": 7337,
  "정숙이는</w>": 7338,
  "정숙이를</w>": 7339,
  "정숙이에게</w>": 7340,
  "정숙이와</w>": 7341,
  "정신": 7342,
  "정신</w>": 7343,
  "정신없이</w>": 7344,
  "정신을</w>": 7345,
  "정신이</w>": 7346,
  "정을</w>": 7347,
  "정의": 7348,
  "정이</w>": 7349,
  "정제": 7350,
  "정직한</w>": 7351,
  "정희": 7352,
  "정희</w>": 7353,
  "정희가</w>": 7354,
  "정희는</w>": 7355,
  "정희를</w>": 7356,
  "정희와</w>": 7357,
  "젖": 7358,
  "젖</w>": 7359,
  "젖어서</w>": 7360,
  "젖은</w>": 7361,
  "젖을</w>": 7362,
  "제": 7363,
  "제1": 7364,
  "제2": 7365,
  "제3": 7366,
  "제3부로</w>": 7367,
  "제</w>": 7368,
  "제가</w>": 7369,
  "제가끔</w>": 7370,
  "제각기</w>": 7371,
  "제는</w>": 7372,
  "제를</w>": 7373,
  "제목": 7374,
  "제발</w>": 7375,
  "제법</w>": 7376,
  "제일</w>": 7377,
  "제자</w>": 7378,
  "젠장맞을</w>": 7379,
  "져": 7380,
  "져</w>": 7381,
  "져버": 7382,
  "져서</w>": 7383,
  "졌": 7384,
  "졌다.</w>": 7385,
  "졌던</w>": 7386,
  "졌습니다.</w>": 7387,
  "졌을</w>": 7388,
  "조": 7389,
  "조</w>": 7390,
  "조각": 7391,
  "조각</w>": 7392,
  "조그마한</w>": 7393,
  "조그만</w>": 7394,
  "조금": 7395,
  "조금</w>": 7396,
  "조금도</w>": 7397,
  "조금씩</w>": 7398,
  "조금이라도</w>": 7399,
  "조림이야.”</w>": 7400,
  "조바": 7401,
  "조밥도</w>": 7402,
  "조사": 7403,
  "조사해</w>": 7404,
  "조선": 7405,
  "조선</w>": 7406,
  "조선에</w>": 7407,
  "조선으로</w>": 7408,
  "조심스럽게</w>": 7409,
  "조용": 7410,
  "조용하다.</w>": 7411,
  "조용한</w>": 7412,
  "조용히</w>": 7413,
  "조차</w>": 7414,
  "족": 7415,
  "존": 7416,
  "존경": 7417,
  "존재": 7418,
  "존재가</w>": 7419,
  "졸": 7420,
  "졸려서</w>": 7421,
  "졸업": 7422,
  "졸업생": 7423,
  "좀": 7424,
  "좀</w>": 7425,
  "좀처럼</w>": 7426,
  "좁": 7427,
  "좁다란</w>": 7428,
  "좁은</w>": 7429,
  "종": 7430,
  "종달새": 7431,
  "종득": 7432,
  "종득이와</w>": 7433,
  "종로</w>": 7434,
  "종아": 7435,
  "종을</w>": 7436,
  "종이</w>": 7437,
  "종이를</w>": 7438,
  "종일</w>": 7439,
  "좇": 7440,
  "좋": 7441,
  "좋겠지만</w>": 7442,
  "좋다.</w>": 7443,
  "좋다고</w>": 7444,
  "좋아": 7445,
  "좋아서</w>": 7446,
  "좋아하는</w>": 7447,
  "좋았": 7448,
  "좋았다.</w>": 7449,
  "좋으": 7450,
  "좋으니</w>": 7451,
  "좋은</w>": 7452,
  "좋을까.”</w>": 7453,
  "좋을지</w>": 7454,
  "좋지</w>": 7455,
  "좌": 7456,
  "좌우": 7457,
  "죄": 7458,
  "죄</w>": 7459,
  "죄다</w>": 7460,
  "죄를</w>": 7461,
  "죄송": 7462,
  "죠": 7463,
  "주": 7464,
  "주</w>": 7465,
  "주고</w>": 7466,
  "주고받고</w>": 7467,
  "주기</w>": 7468,
  "주기로</w>": 7469,
  "주는</w>": 7470,
  "주둥": 7471,
  "주둥이를</w>": 7472,
  "주려고</w>": 7473,
  "주르르</w>": 7474,
  "주린</w>": 7475,
  "주머니": 7476,
  "주머니</w>": 7477,
  "주머니에</w>": 7478,
  "주머니에서</w>": 7479,
  "주먹": 7480,
  "주먹으로</w>": 7481,
  "주먹을</w>": 7482,
  "주면서</w>": 7483,
  "주무": 7484,
  "주세요.”</w>": 7485,
  "주셨습니다.</w>": 7486,
  "주소를</w>": 7487,
  "주시": 7488,
  "주시는</w>": 7489,
  "주신</w>": 7490,
  "주실</w>": 7491,
  "주십시오.”</w>": 7492,
  "주어": 7493,
  "주어</w>": 7494,
  "주어서</w>": 7495,
  "주어야</w>": 7496,
  "주었": 7497,
  "주었다.</w>": 7498,
  "주었습니다.</w>": 7499,
  "주의": 7500,
  "주의를</w>": 7501,
  "주인": 7502,
  "주인</w>": 7503,
  "주인아씨": 7504,
  "주인에게</w>": 7505,
  "주인은</w>": 7506,
  "주인이</w>": 7507,
  "주인집의</w>": 7508,
  "주저": 7509,
  "주저앉": 7510,
  "주저앉아서</w>": 7511,
  "주정": 7512,
  "주정꾼": 7513,
  "주지</w>": 7514,
  "죽": 7515,
  "죽</w>": 7516,
  "죽게</w>": 7517,
  "죽겠다.</w>": 7518,
  "죽고</w>": 7519,
  "죽기로</w>": 7520,
  "죽는</w>": 7521,
  "죽도록</w>": 7522,
  "죽어": 7523,
  "죽어</w>": 7524,
  "죽어라,</w>": 7525,
  "죽어서</w>": 7526,
  "죽었": 7527,
  "죽었어,</w>": 7528,
  "죽여</w>": 7529,
  "죽으면</w>": 7530,
  "죽은</w>": 7531,
  "죽을": 7532,
  "죽을</w>": 7533,
  "죽을힘만</w>": 7534,
  "죽이": 7535,
  "죽이라도</w>": 7536,
  "죽이려고</w>": 7537,
  "죽일</w>": 7538,
  "죽지</w>": 7539,
  "준": 7540,
  "준</w>": 7541,
  "준다.</w>": 7542,
  "준비": 7543,
  "준비를</w>": 7544,
  "줄": 7545,
  "줄</w>": 7546,
  "줄달음": 7547,
  "줄도</w>": 7548,
  "줄만</w>": 7549,
  "줄어": 7550,
  "줄은</w>": 7551,
  "줄을</w>": 7552,
  "줄이</w>": 7553,
  "줄줄</w>": 7554,
  "줌": 7555,
  "줍": 7556,
  "중": 7557,
  "중</w>": 7558,
  "중대": 7559,
  "중얼": 7560,
  "중에</w>": 7561,
  "중에도</w>": 7562,
  "중에서</w>": 7563,
  "중은</w>": 7564,
  "중을</w>": 7565,
  "중의</w>": 7566,
  "중이</w>": 7567,
  "중증": 7568,
  "중턱": 7569,
  "중학교</w>": 7570,
  "중학교에</w>": 7571,
  "중히</w>": 7572,
  "줴": 7573,
  "쥐": 7574,
  "쥐</w>": 7575,
  "쥐고</w>": 7576,
  "쥐는</w>": 7577,
  "쥐를</w>": 7578,
  "쥐어": 7579,
  "쥐어</w>": 7580,
  "쥔": 7581,
  "쥔</w>": 7582,
  "쥠": 7583,
  "즈": 7584,
  "즉": 7585,
  "즉</w>": 7586,
  "즉시</w>": 7587,
  "즐": 7588,
  "즐거": 7589,
  "즐거운</w>": 7590,
  "즐거움으로</w>": 7591,
  "즐겁": 7592,
  "즐겁게</w>": 7593,
  "즐겁고</w>": 7594,
  "증": 7595,
  "증거": 7596,
  "증거가</w>": 7597,
  "증을</w>": 7598,
  "증이</w>": 7599,
  "지": 7600,
  "지!”</w>": 7601,
  "지,</w>": 7602,
  "지.</w>": 7603,
  "지.”</w>": 7604,
  "지</w>": 7605,
  "지?</w>": 7606,
  "지?”</w>": 7607,
  "지”</w>": 7608,
  "지가</w>": 7609,
  "지각</w>": 7610,
  "지각을</w>": 7611,
  "지각한</w>": 7612,
  "지게</w>": 7613,
  "지경에</w>": 7614,
  "지경을</w>": 7615,
  "지고</w>": 7616,
  "지구</w>": 7617,
  "지금": 7618,
  "지금</w>": 7619,
  "지금까지</w>": 7620,
  "지금으로부터</w>": 7621,
  "지금은</w>": 7622,
  "지금의</w>": 7623,
  "지금이라도</w>": 7624,
  "지금쯤은</w>": 7625,
  "지껄": 7626,
  "지나": 7627,
  "지나</w>": 7628,
  "지나가": 7629,
  "지나가는</w>": 7630,
  "지나가던</w>": 7631,
  "지나간</w>": 7632,
  "지나서</w>": 7633,
  "지나쳐</w>": 7634,
  "지난</w>": 7635,
  "지내": 7636,
  "지내</w>": 7637,
  "지내던</w>": 7638,
  "지내시": 7639,
  "지냈": 7640,
  "지냈습니다.</w>": 7641,
  "지느러": 7642,
  "지는</w>": 7643,
  "지도</w>": 7644,
  "지도록</w>": 7645,
  "지든지</w>": 7646,
  "지라는</w>": 7647,
  "지랄": 7648,
  "지랄병을</w>": 7649,
  "지람": 7650,
  "지로</w>": 7651,
  "지르": 7652,
  "지르고</w>": 7653,
  "지르고는</w>": 7654,
  "지르면서</w>": 7655,
  "지를</w>": 7656,
  "지만": 7657,
  "지만,</w>": 7658,
  "지만</w>": 7659,
  "지며</w>": 7660,
  "지면서</w>": 7661,
  "지붕</w>": 7662,
  "지붕에나</w>": 7663,
  "지시</w>": 7664,
  "지어": 7665,
  "지어</w>": 7666,
  "지언": 7667,
  "지었다.</w>": 7668,
  "지에</w>": 7669,
  "지에서</w>": 7670,
  "지였습니다.</w>": 7671,
  "지옥": 7672,
  "지옥에</w>": 7673,
  "지옥을</w>": 7674,
  "지옥의</w>": 7675,
  "지요.</w>": 7676,
  "지요.”</w>": 7677,
  "지원": 7678,
  "지은</w>": 7679,
  "지의</w>": 7680,
  "지지</w>": 7681,
  "지켜": 7682,
  "지키": 7683,
  "지키고</w>": 7684,
  "지키는</w>": 7685,
  "지폐": 7686,
  "지향없이</w>": 7687,
  "직": 7688,
  "직</w>": 7689,
  "직공": 7690,
  "직업이</w>": 7691,
  "직한</w>": 7692,
  "진": 7693,
  "진</w>": 7694,
  "진급": 7695,
  "진기": 7696,
  "진다.</w>": 7697,
  "진달래": 7698,
  "진달래</w>": 7699,
  "진달래꽃을</w>": 7700,
  "진달래꽃이</w>": 7701,
  "진수": 7702,
  "진수</w>": 7703,
  "진수가</w>": 7704,
  "진수는</w>": 7705,
  "진수의</w>": 7706,
  "진순": 7707,
  "진작</w>": 7708,
  "진정": 7709,
  "진정시키": 7710,
  "질": 7711,
  "질</w>": 7712,
  "질겅": 7713,
  "질도</w>": 7714,
  "질러</w>": 7715,
  "질렀": 7716,
  "질렀습니다.</w>": 7717,
  "질로</w>": 7718,
  "질을</w>": 7719,
  "질질</w>": 7720,
  "질퍽": 7721,
  "질하러</w>": 7722,
  "짊": 7723,
  "짊어지고</w>": 7724,
  "짐": 7725,
  "짐</w>": 7726,
  "짐마": 7727,
  "짐승": 7728,
  "짐승들도</w>": 7729,
  "짐이</w>": 7730,
  "짐작": 7731,
  "짐작</w>": 7732,
  "짐작이</w>": 7733,
  "집": 7734,
  "집</w>": 7735,
  "집과</w>": 7736,
  "집도</w>": 7737,
  "집안": 7738,
  "집안</w>": 7739,
  "집안사람이</w>": 7740,
  "집안에서</w>": 7741,
  "집안은</w>": 7742,
  "집안이</w>": 7743,
  "집어": 7744,
  "집어</w>": 7745,
  "집어가지고</w>": 7746,
  "집어간</w>": 7747,
  "집어갔": 7748,
  "집어넣고</w>": 7749,
  "집어던지고</w>": 7750,
  "집어서</w>": 7751,
  "집었": 7752,
  "집에</w>": 7753,
  "집에까지</w>": 7754,
  "집에다</w>": 7755,
  "집에서</w>": 7756,
  "집에서는</w>": 7757,
  "집엔</w>": 7758,
  "집으로</w>": 7759,
  "집은</w>": 7760,
  "집을</w>": 7761,
  "집의</w>": 7762,
  "집이": 7763,
  "집이</w>": 7764,
  "짓": 7765,
  "짓</w>": 7766,
  "짓고</w>": 7767,
  "짓밟혔": 7768,
  "짓을</w>": 7769,
  "짓이</w>": 7770,
  "징": 7771,
  "짖": 7772,
  "짚": 7773,
  "짚어</w>": 7774,
  "짜": 7775,
  "짜리</w>": 7776,
  "짝": 7777,
  "짝</w>": 7778,
  "짝을</w>": 7779,
  "짝이</w>": 7780,
  "짢": 7781,
  "짧은</w>": 7782,
  "째": 7783,
  "째</w>": 7784,
  "짼": 7785,
  "쨌": 7786,
  "쨍": 7787,
  "쩍": 7788,
  "쩍</w>": 7789,
  "쩔": 7790,
  "쩡": 7791,
  "쪼": 7792,
  "쪼개놓": 7793,
  "쪼개졌습니다.</w>": 7794,
  "쪼개진</w>": 7795,
  "쪼는</w>": 7796,
  "쪼르르</w>": 7797,
  "쪼았다.</w>": 7798,
  "쪽": 7799,
  "쪽</w>": 7800,
  "쪽에</w>": 7801,
  "쪽에서</w>": 7802,
  "쪽으로</w>": 7803,
  "쪽으로는</w>": 7804,
  "쪽을</w>": 7805,
  "쪽지가</w>": 7806,
  "쫓": 7807,
  "쫓아": 7808,
  "쫓아</w>": 7809,
  "쫙": 7810,
  "쫙</w>": 7811,
  "쬐": 7812,
  "쭈": 7813,
  "쭉</w>": 7814,
  "쭤": 7815,
  "쯤": 7816,
  "쯤</w>": 7817,
  "쯤은</w>": 7818,
  "찌": 7819,
  "찌르": 7820,
  "찌르고</w>": 7821,
  "찌푸": 7822,
  "찍": 7823,
  "찐": 7824,
  "찔": 7825,
  "찡": 7826,
  "찡그": 7827,
  "찢": 7828,
  "찢어져서</w>": 7829,
  "차": 7830,
  "차</w>": 7831,
  "차가</w>": 7832,
  "차고</w>": 7833,
  "차는</w>": 7834,
  "차다.</w>": 7835,
  "차도</w>": 7836,
  "차라리</w>": 7837,
  "차려": 7838,
  "차려</w>": 7839,
  "차례": 7840,
  "차를</w>": 7841,
  "차리": 7842,
  "차리고</w>": 7843,
  "차마</w>": 7844,
  "차면서</w>": 7845,
  "차서</w>": 7846,
  "차에</w>": 7847,
  "차와</w>": 7848,
  "차지하게</w>": 7849,
  "차츰": 7850,
  "차츰</w>": 7851,
  "차츰차츰</w>": 7852,
  "차표": 7853,
  "차표를</w>": 7854,
  "착": 7855,
  "착하고</w>": 7856,
  "착한</w>": 7857,
  "찬": 7858,
  "찬</w>": 7859,
  "찬란": 7860,
  "찬란한</w>": 7861,
  "찮": 7862,
  "찰": 7863,
  "참": 7864,
  "참</w>": 7865,
  "참고</w>": 7866,
  "참느라고</w>": 7867,
  "참는</w>": 7868,
  "참된</w>": 7869,
  "참말</w>": 7870,
  "참말로</w>": 7871,
  "참새": 7872,
  "참아": 7873,
  "참아</w>": 7874,
  "참아야</w>": 7875,
  "참았": 7876,
  "참았던</w>": 7877,
  "참았습니다.</w>": 7878,
  "참으로</w>": 7879,
  "참을</w>": 7880,
  "참지</w>": 7881,
  "찻": 7882,
  "찼": 7883,
  "창": 7884,
  "창</w>": 7885,
  "창수": 7886,
  "창수가</w>": 7887,
  "창수는</w>": 7888,
  "창수를</w>": 7889,
  "창수의</w>": 7890,
  "창에</w>": 7891,
  "창으로</w>": 7892,
  "찾": 7893,
  "찾고</w>": 7894,
  "찾는</w>": 7895,
  "찾아": 7896,
  "찾아</w>": 7897,
  "찾아가": 7898,
  "찾아갔습니다.</w>": 7899,
  "찾아보고</w>": 7900,
  "찾아볼</w>": 7901,
  "찾아서</w>": 7902,
  "찾아오는</w>": 7903,
  "찾아온</w>": 7904,
  "찾아와서</w>": 7905,
  "찾아왔다.</w>": 7906,
  "찾아주": 7907,
  "찾았으나</w>": 7908,
  "찾은</w>": 7909,
  "찾을</w>": 7910,
  "채": 7911,
  "채</w>": 7912,
  "채고</w>": 7913,
  "채로</w>": 7914,
  "책": 7915,
  "책</w>": 7916,
  "책보를</w>": 7917,
  "책상": 7918,
  "책상</w>": 7919,
  "책상보</w>": 7920,
  "책상에</w>": 7921,
  "책을</w>": 7922,
  "책임": 7923,
  "챌": 7924,
  "챙": 7925,
  "처": 7926,
  "처</w>": 7927,
  "처녀의</w>": 7928,
  "처럼</w>": 7929,
  "처음": 7930,
  "처음</w>": 7931,
  "처음에는</w>": 7932,
  "처음으로</w>": 7933,
  "처지에</w>": 7934,
  "척": 7935,
  "척</w>": 7936,
  "척하고": 7937,
  "척하고</w>": 7938,
  "천": 7939,
  "천</w>": 7940,
  "천둥</w>": 7941,
  "천연": 7942,
  "천장을</w>": 7943,
  "천재</w>": 7944,
  "천천히</w>": 7945,
  "철": 7946,
  "철</w>": 7947,
  "철교를</w>": 7948,
  "철책</w>": 7949,
  "첨": 7950,
  "첨지의</w>": 7951,
  "첩": 7952,
  "첩</w>": 7953,
  "첩에</w>": 7954,
  "첩첩": 7955,
  "첫": 7956,
  "첫</w>": 7957,
  "첫째": 7958,
  "첫째</w>": 7959,
  "첫째로</w>": 7960,
  "청": 7961,
  "청을</w>": 7962,
  "체": 7963,
  "체</w>": 7964,
  "체를</w>": 7965,
  "체면": 7966,
  "체취": 7967,
  "체취는</w>": 7968,
  "체하고</w>": 7969,
  "체하는</w>": 7970,
  "쳐": 7971,
  "쳐</w>": 7972,
  "쳐다": 7973,
  "쳐다보": 7974,
  "쳐다보고</w>": 7975,
  "쳐다보니깐</w>": 7976,
  "쳐다보았다.</w>": 7977,
  "쳐들어</w>": 7978,
  "쳐서</w>": 7979,
  "쳤": 7980,
  "쳤다.</w>": 7981,
  "쳤습니다.</w>": 7982,
  "초": 7983,
  "초</w>": 7984,
  "초록": 7985,
  "초조": 7986,
  "초조한</w>": 7987,
  "촉": 7988,
  "촌": 7989,
  "촌</w>": 7990,
  "촐": 7991,
  "촛점": 7992,
  "총": 7993,
  "총명": 7994,
  "총총": 7995,
  "최": 7996,
  "최</w>": 7997,
  "최병화</w>": 7998,
  "최후의</w>": 7999,
  "추": 8000,
  "추</w>": 8001,
  "추고</w>": 8002,
  "추근": 8003,
  "추렴": 8004,
  "추면서</w>": 8005,
  "추어</w>": 8006,
  "추어탕을</w>": 8007,
  "축": 8008,
  "축</w>": 8009,
  "춘": 8010,
  "춘</w>": 8011,
  "출": 8012,
  "출렁": 8013,
  "춤": 8014,
  "춤을</w>": 8015,
  "춤추": 8016,
  "춤추는</w>": 8017,
  "춥": 8018,
  "춥고</w>": 8019,
  "충": 8020,
  "충</w>": 8021,
  "충길": 8022,
  "충길이": 8023,
  "충길이는</w>": 8024,
  "충길이의</w>": 8025,
  "춰": 8026,
  "취": 8027,
  "취한</w>": 8028,
  "츠": 8029,
  "측": 8030,
  "츰": 8031,
  "층</w>": 8032,
  "치": 8033,
  "치</w>": 8034,
  "치가</w>": 8035,
  "치게</w>": 8036,
  "치고</w>": 8037,
  "치는</w>": 8038,
  "치니</w>": 8039,
  "치도록</w>": 8040,
  "치료": 8041,
  "치료를</w>": 8042,
  "치를</w>": 8043,
  "치마": 8044,
  "치마</w>": 8045,
  "치마를</w>": 8046,
  "치며</w>": 8047,
  "치면</w>": 8048,
  "치면서</w>": 8049,
  "치밀": 8050,
  "치삼": 8051,
  "치삼은</w>": 8052,
  "치삼의</w>": 8053,
  "치순": 8054,
  "치순이가</w>": 8055,
  "치었다.</w>": 8056,
  "치워": 8057,
  "치인</w>": 8058,
  "치지</w>": 8059,
  "칙": 8060,
  "친": 8061,
  "친</w>": 8062,
  "친구</w>": 8063,
  "친구를</w>": 8064,
  "친다.</w>": 8065,
  "친아버지": 8066,
  "친어머니와</w>": 8067,
  "친절": 8068,
  "칠": 8069,
  "칠</w>": 8070,
  "침": 8071,
  "침대</w>": 8072,
  "침묵을</w>": 8073,
  "침이</w>": 8074,
  "침침": 8075,
  "침침한</w>": 8076,
  "칫": 8077,
  "칭찬": 8078,
  "칭찬을</w>": 8079,
  "칭칭</w>": 8080,
  "카": 8081,
  "칵</w>": 8082,
  "칸": 8083,
  "칸</w>": 8084,
  "칼": 8085,
  "칼</w>": 8086,
  "칼날</w>": 8087,
  "칼로</w>": 8088,
  "칼을</w>": 8089,
  "캄": 8090,
  "캐": 8091,
  "캔": 8092,
  "커": 8093,
  "커녕</w>": 8094,
  "커다란</w>": 8095,
  "컬": 8096,
  "컴컴": 8097,
  "컸": 8098,
  "케": 8099,
  "케</w>": 8100,
  "켓": 8101,
  "켕": 8102,
  "켜": 8103,
  "켜</w>": 8104,
  "켜서</w>": 8105,
  "켜진</w>": 8106,
  "켤": 8107,
  "켰": 8108,
  "켰습니다.</w>": 8109,
  "코": 8110,
  "코</w>": 8111,
  "코를</w>": 8112,
  "콕": 8113,
  "콤": 8114,
  "콧": 8115,
  "콩": 8116,
  "콱</w>": 8117,
  "쾅!</w>": 8118,
  "쾌": 8119,
  "쾌감": 8120,
  "쾌감,</w>": 8121,
  "쾌적": 8122,
  "쿠": 8123,
  "쿡!</w>": 8124,
  "쿨룩": 8125,
  "쿵": 8126,
  "크": 8127,
  "크게</w>": 8128,
  "크고</w>": 8129,
  "크레용": 8130,
  "크레용은</w>": 8131,
  "크레용을</w>": 8132,
  "큰": 8133,
  "큰</w>": 8134,
  "큰소리로</w>": 8135,
  "큰일": 8136,
  "큰일</w>": 8137,
  "큼": 8138,
  "큼</w>": 8139,
  "큼직한</w>": 8140,
  "큽": 8141,
  "키": 8142,
  "키</w>": 8143,
  "킥": 8144,
  "킥</w>": 8145,
  "킨</w>": 8146,
  "킬": 8147,
  "킬</w>": 8148,
  "타": 8149,
  "타</w>": 8150,
  "타구가</w>": 8151,
  "타구를</w>": 8152,
  "타국</w>": 8153,
  "타는</w>": 8154,
  "타서</w>": 8155,
  "타시랍": 8156,
  "타시랍시요.”</w>": 8157,
  "타일": 8158,
  "탁": 8159,
  "탁</w>": 8160,
  "탄": 8161,
  "탄복": 8162,
  "탄식": 8163,
  "탈": 8164,
  "탈이</w>": 8165,
  "탉": 8166,
  "탐": 8167,
  "탐정": 8168,
  "탐정소": 8169,
  "탐정소설</w>": 8170,
  "탓": 8171,
  "탓으로</w>": 8172,
  "탔습니다.</w>": 8173,
  "탕": 8174,
  "탕</w>": 8175,
  "태": 8176,
  "태도": 8177,
  "태도는</w>": 8178,
  "태도로</w>": 8179,
  "태도를</w>": 8180,
  "태양": 8181,
  "태어": 8182,
  "태연": 8183,
  "태연스럽게</w>": 8184,
  "태우": 8185,
  "태우게</w>": 8186,
  "태우고</w>": 8187,
  "태워": 8188,
  "태워다</w>": 8189,
  "탱": 8190,
  "터": 8191,
  "터</w>": 8192,
  "터벅": 8193,
  "터이": 8194,
  "터이니.”</w>": 8195,
  "터이니</w>": 8196,
  "터이다.”</w>": 8197,
  "터져": 8198,
  "터져서</w>": 8199,
  "턱": 8200,
  "턱</w>": 8201,
  "턱밑": 8202,
  "턱에</w>": 8203,
  "턴": 8204,
  "털": 8205,
  "털고</w>": 8206,
  "털털": 8207,
  "텀": 8208,
  "텁": 8209,
  "텅</w>": 8210,
  "테": 8211,
  "테냐?</w>": 8212,
  "테냐?”</w>": 8213,
  "테니": 8214,
  "테니.”</w>": 8215,
  "테니</w>": 8216,
  "테다!”</w>": 8217,
  "테다.”</w>": 8218,
  "테로</w>": 8219,
  "텐": 8220,
  "텐데": 8221,
  "텐데......</w>": 8222,
  "토": 8223,
  "토요일": 8224,
  "톡": 8225,
  "톨": 8226,
  "톱": 8227,
  "통": 8228,
  "통</w>": 8229,
  "통과하지</w>": 8230,
  "통에</w>": 8231,
  "통한</w>": 8232,
  "통해서</w>": 8233,
  "퇴": 8234,
  "투": 8235,
  "툭": 8236,
  "툭툭</w>": 8237,
  "퉁": 8238,
  "퉁</w>": 8239,
  "퉁명스럽게</w>": 8240,
  "튀": 8241,
  "튤": 8242,
  "트": 8243,
  "트</w>": 8244,
  "특": 8245,
  "특별": 8246,
  "특별히</w>": 8247,
  "튼": 8248,
  "튼튼": 8249,
  "틀": 8250,
  "틀</w>": 8251,
  "틀리": 8252,
  "틀림": 8253,
  "틀림없는</w>": 8254,
  "틀림없다.</w>": 8255,
  "틀림없었다.</w>": 8256,
  "틀림없으": 8257,
  "틀어": 8258,
  "틈": 8259,
  "틈에</w>": 8260,
  "틈으로</w>": 8261,
  "틈을</w>": 8262,
  "틈이</w>": 8263,
  "틈틈이</w>": 8264,
  "틋": 8265,
  "티": 8266,
  "틴": 8267,
  "파": 8268,
  "파는</w>": 8269,
  "파라독스": 8270,
  "파란</w>": 8271,
  "파랗게</w>": 8272,
  "파리": 8273,
  "파묻": 8274,
  "파묻고</w>": 8275,
  "파묻혀</w>": 8276,
  "파하는</w>": 8277,
  "파하여</w>": 8278,
  "팍": 8279,
  "팎": 8280,
  "판": 8281,
  "판에</w>": 8282,
  "판을</w>": 8283,
  "판이었습니다.</w>": 8284,
  "판장</w>": 8285,
  "팔": 8286,
  "팔</w>": 8287,
  "팔기로</w>": 8288,
  "팔라고</w>": 8289,
  "팔려고</w>": 8290,
  "팔십</w>": 8291,
  "팔아버리는</w>": 8292,
  "팔아서</w>": 8293,
  "팔에</w>": 8294,
  "팔을</w>": 8295,
  "팠": 8296,
  "팠습니다.</w>": 8297,
  "팡": 8298,
  "팥": 8299,
  "패": 8300,
  "패는</w>": 8301,
  "패를</w>": 8302,
  "패어내": 8303,
  "팽": 8304,
  "퍼": 8305,
  "퍼부": 8306,
  "퍼부어</w>": 8307,
  "퍼붓": 8308,
  "퍽": 8309,
  "퍽</w>": 8310,
  "퍽도</w>": 8311,
  "펀": 8312,
  "펄": 8313,
  "펄쩍</w>": 8314,
  "펄펄</w>": 8315,
  "펑펑</w>": 8316,
  "페": 8317,
  "펴": 8318,
  "펴</w>": 8319,
  "편": 8320,
  "편</w>": 8321,
  "편안": 8322,
  "편안히</w>": 8323,
  "편은</w>": 8324,
  "편을</w>": 8325,
  "편이</w>": 8326,
  "편지</w>": 8327,
  "편지가</w>": 8328,
  "편지를</w>": 8329,
  "편지였습니다.</w>": 8330,
  "편하게</w>": 8331,
  "편한</w>": 8332,
  "편히</w>": 8333,
  "펼": 8334,
  "평": 8335,
  "평양": 8336,
  "평양까지</w>": 8337,
  "폐": 8338,
  "포": 8339,
  "포</w>": 8340,
  "포근한</w>": 8341,
  "포근히</w>": 8342,
  "포동": 8343,
  "포우즈": 8344,
  "포켓": 8345,
  "포켓</w>": 8346,
  "포플": 8347,
  "포플러": 8348,
  "포플러나무</w>": 8349,
  "폭": 8350,
  "폭</w>": 8351,
  "폼": 8352,
  "표": 8353,
  "표</w>": 8354,
  "표를</w>": 8355,
  "푸": 8356,
  "푸드": 8357,
  "푸드득</w>": 8358,
  "푸드득푸드": 8359,
  "푸른</w>": 8360,
  "푸성": 8361,
  "푹": 8362,
  "푹</w>": 8363,
  "푹푹</w>": 8364,
  "푼": 8365,
  "푼</w>": 8366,
  "풀": 8367,
  "풀</w>": 8368,
  "풀기</w>": 8369,
  "풀어": 8370,
  "풀이</w>": 8371,
  "풀이를</w>": 8372,
  "풀피리</w>": 8373,
  "품": 8374,
  "품</w>": 8375,
  "품고</w>": 8376,
  "품에</w>": 8377,
  "품은</w>": 8378,
  "품을</w>": 8379,
  "품이</w>": 8380,
  "품행이</w>": 8381,
  "풋": 8382,
  "풍": 8383,
  "풍기는</w>": 8384,
  "풍속을</w>": 8385,
  "프": 8386,
  "프스": 8387,
  "픈</w>": 8388,
  "픈데": 8389,
  "플랫폼": 8390,
  "픔": 8391,
  "피": 8392,
  "피</w>": 8393,
  "피가</w>": 8394,
  "피게</w>": 8395,
  "피곤": 8396,
  "피곤하여</w>": 8397,
  "피곤한</w>": 8398,
  "피곤해</w>": 8399,
  "피기</w>": 8400,
  "피는</w>": 8401,
  "피로": 8402,
  "피로를</w>": 8403,
  "피를</w>": 8404,
  "피면</w>": 8405,
  "피어</w>": 8406,
  "피어서</w>": 8407,
  "피었": 8408,
  "피와</w>": 8409,
  "피워": 8410,
  "피해</w>": 8411,
  "핀</w>": 8412,
  "필": 8413,
  "필</w>": 8414,
  "필영": 8415,
  "필영이도</w>": 8416,
  "필영이었습니다.</w>": 8417,
  "필요": 8418,
  "필요가</w>": 8419,
  "핍": 8420,
  "핏": 8421,
  "핑": 8422,
  "핑</w>": 8423,
  "하": 8424,
  "하</w>": 8425,
  "하게.</w>": 8426,
  "하게</w>": 8427,
  "하게도</w>": 8428,
  "하겠": 8429,
  "하겠습니다.”</w>": 8430,
  "하겠으니까</w>": 8431,
  "하겠지만</w>": 8432,
  "하고": 8433,
  "하고,</w>": 8434,
  "하고</w>": 8435,
  "하고는</w>": 8436,
  "하고도</w>": 8437,
  "하구</w>": 8438,
  "하기": 8439,
  "하기</w>": 8440,
  "하기가</w>": 8441,
  "하기도</w>": 8442,
  "하기로</w>": 8443,
  "하기를</w>": 8444,
  "하기에</w>": 8445,
  "하나": 8446,
  "하나.</w>": 8447,
  "하나</w>": 8448,
  "하나가</w>": 8449,
  "하나도</w>": 8450,
  "하나를</w>": 8451,
  "하나밖에</w>": 8452,
  "하나와</w>": 8453,
  "하느": 8454,
  "하느라고</w>": 8455,
  "하는": 8456,
  "하는</w>": 8457,
  "하는데</w>": 8458,
  "하늘": 8459,
  "하늘</w>": 8460,
  "하늘에는</w>": 8461,
  "하늘은</w>": 8462,
  "하늘을</w>": 8463,
  "하니</w>": 8464,
  "하니?”</w>": 8465,
  "하니까,</w>": 8466,
  "하니까</w>": 8467,
  "하니깐</w>": 8468,
  "하다.</w>": 8469,
  "하다가</w>": 8470,
  "하다는</w>": 8471,
  "하더니</w>": 8472,
  "하더라도</w>": 8473,
  "하던</w>": 8474,
  "하던지</w>": 8475,
  "하도</w>": 8476,
  "하도록</w>": 8477,
  "하듯이</w>": 8478,
  "하러</w>": 8479,
  "하려": 8480,
  "하려</w>": 8481,
  "하려고</w>": 8482,
  "하려는</w>": 8483,
  "하루": 8484,
  "하루</w>": 8485,
  "하루는</w>": 8486,
  "하루도</w>": 8487,
  "하루에</w>": 8488,
  "하룻": 8489,
  "하리": 8490,
  "하리라</w>": 8491,
  "하마터면</w>": 8492,
  "하며</w>": 8493,
  "하면": 8494,
  "하면,</w>": 8495,
  "하면</w>": 8496,
  "하면서</w>": 8497,
  "하면서도</w>": 8498,
  "하므로</w>": 8499,
  "하셨": 8500,
  "하셨습니다.</w>": 8501,
  "하시": 8502,
  "하시고</w>": 8503,
  "하시기</w>": 8504,
  "하시는</w>": 8505,
  "하시다가</w>": 8506,
  "하시더라.”</w>": 8507,
  "하시던</w>": 8508,
  "하시며</w>": 8509,
  "하시어서</w>": 8510,
  "하시었": 8511,
  "하시었습니다.</w>": 8512,
  "하시지요.</w>": 8513,
  "하신</w>": 8514,
  "하실</w>": 8515,
  "하십": 8516,
  "하야</w>": 8517,
  "하얀</w>": 8518,
  "하얼빈": 8519,
  "하얼빈</w>": 8520,
  "하얼빈에서</w>": 8521,
  "하얼빈으로</w>": 8522,
  "하여": 8523,
  "하여</w>": 8524,
  "하여간</w>": 8525,
  "하여도</w>": 8526,
  "하여서</w>": 8527,
  "하여야</w>": 8528,
  "하염": 8529,
  "하염없이</w>": 8530,
  "하였": 8531,
  "하였</w>": 8532,
  "하였고,</w>": 8533,
  "하였고</w>": 8534,
  "하였는지</w>": 8535,
  "하였다.</w>": 8536,
  "하였다는</w>": 8537,
  "하였던</w>": 8538,
  "하였습니다.</w>": 8539,
  "하였으나</w>": 8540,
  "하였으니</w>": 8541,
  "하였으므로</w>": 8542,
  "하였지만</w>": 8543,
  "하인": 8544,
  "하인들은</w>": 8545,
  "하자.”</w>": 8546,
  "하자마자</w>": 8547,
  "하지.</w>": 8548,
  "하지</w>": 8549,
  "하지는</w>": 8550,
  "하지만</w>": 8551,
  "하학</w>": 8552,
  "학": 8553,
  "학</w>": 8554,
  "학교": 8555,
  "학교</w>": 8556,
  "학교가</w>": 8557,
  "학교로</w>": 8558,
  "학교를</w>": 8559,
  "학교서</w>": 8560,
  "학교에</w>": 8561,
  "학교에서</w>": 8562,
  "학교엘</w>": 8563,
  "학년": 8564,
  "학년</w>": 8565,
  "학년까지</w>": 8566,
  "학년이</w>": 8567,
  "학봉": 8568,
  "학봉이</w>": 8569,
  "학봉이가</w>": 8570,
  "학봉이는</w>": 8571,
  "학봉이를</w>": 8572,
  "학봉이의</w>": 8573,
  "학부": 8574,
  "학부형도</w>": 8575,
  "학비</w>": 8576,
  "학생": 8577,
  "학생</w>": 8578,
  "학생들은</w>": 8579,
  "학생들을</w>": 8580,
  "학생으로</w>": 8581,
  "학생은</w>": 8582,
  "학생을</w>": 8583,
  "학생이</w>": 8584,
  "학을</w>": 8585,
  "한": 8586,
  "한</w>": 8587,
  "한가": 8588,
  "한가히</w>": 8589,
  "한걸": 8590,
  "한결</w>": 8591,
  "한곁": 8592,
  "한구석": 8593,
  "한구석에</w>": 8594,
  "한구석에서</w>": 8595,
  "한꺼번에</w>": 8596,
  "한날": 8597,
  "한다": 8598,
  "한다.</w>": 8599,
  "한다.”</w>": 8600,
  "한다는</w>": 8601,
  "한다면</w>": 8602,
  "한달": 8603,
  "한달음에</w>": 8604,
  "한데</w>": 8605,
  "한동안</w>": 8606,
  "한마디": 8607,
  "한마디</w>": 8608,
  "한마디를</w>": 8609,
  "한바탕</w>": 8610,
  "한번</w>": 8611,
  "한번도</w>": 8612,
  "한번만</w>": 8613,
  "한복판에</w>": 8614,
  "한숨</w>": 8615,
  "한숨을</w>": 8616,
  "한시": 8617,
  "한시라도</w>": 8618,
  "한없이</w>": 8619,
  "한이</w>": 8620,
  "한잠</w>": 8621,
  "한지</w>": 8622,
  "한참": 8623,
  "한참</w>": 8624,
  "한창</w>": 8625,
  "한층</w>": 8626,
  "한탄": 8627,
  "한테": 8628,
  "한테</w>": 8629,
  "한편</w>": 8630,
  "한편에</w>": 8631,
  "한편으로</w>": 8632,
  "한편으로는</w>": 8633,
  "한푼": 8634,
  "한푼씩</w>": 8635,
  "할": 8636,
  "할</w>": 8637,
  "할까.</w>": 8638,
  "할까</w>": 8639,
  "할는지</w>": 8640,
  "할아버지": 8641,
  "할아버지</w>": 8642,
  "할아버지가</w>": 8643,
  "할아버지께서는</w>": 8644,
  "할아버지는</w>": 8645,
  "할아버지를</w>": 8646,
  "할아버지와</w>": 8647,
  "함": 8648,
  "함과</w>": 8649,
  "함께</w>": 8650,
  "함박눈이</w>": 8651,
  "함부로</w>": 8652,
  "함을</w>": 8653,
  "함이</w>": 8654,
  "합": 8655,
  "합격": 8656,
  "합격.</w>": 8657,
  "합격이</w>": 8658,
  "합니다.</w>": 8659,
  "합하여</w>": 8660,
  "항": 8661,
  "항상</w>": 8662,
  "해": 8663,
  "해.</w>": 8664,
  "해.”</w>": 8665,
  "해</w>": 8666,
  "해가</w>": 8667,
  "해내는</w>": 8668,
  "해는</w>": 8669,
  "해다": 8670,
  "해달라고</w>": 8671,
  "해도</w>": 8672,
  "해드리": 8673,
  "해를</w>": 8674,
  "해보았": 8675,
  "해서": 8676,
  "해서</w>": 8677,
  "해서만</w>": 8678,
  "해쓱": 8679,
  "해야</w>": 8680,
  "해왔습니다.</w>": 8681,
  "해져서</w>": 8682,
  "해졌": 8683,
  "해주": 8684,
  "해주고</w>": 8685,
  "해주시던</w>": 8686,
  "해주십시오.”</w>": 8687,
  "해지": 8688,
  "해지면서</w>": 8689,
  "해진</w>": 8690,
  "햇": 8691,
  "햇볕이</w>": 8692,
  "했": 8693,
  "했다.</w>": 8694,
  "했다.”</w>": 8695,
  "했다는</w>": 8696,
  "했더니</w>": 8697,
  "했던</w>": 8698,
  "했습니다.</w>": 8699,
  "했으나</w>": 8700,
  "했으면</w>": 8701,
  "했을</w>": 8702,
  "했지만</w>": 8703,
  "행": 8704,
  "행</w>": 8705,
  "행동": 8706,
  "행랑": 8707,
  "행랑방</w>": 8708,
  "행랑어멈": 8709,
  "행랑자식</w>": 8710,
  "행랑자식이</w>": 8711,
  "행복": 8712,
  "행복을</w>": 8713,
  "행운": 8714,
  "행운을</w>": 8715,
  "행이</w>": 8716,
  "행주": 8717,
  "향": 8718,
  "향긋": 8719,
  "향긋한</w>": 8720,
  "향기": 8721,
  "향기가</w>": 8722,
  "향하여</w>": 8723,
  "허": 8724,
  "허둥지둥</w>": 8725,
  "허락": 8726,
  "허락을</w>": 8727,
  "허리": 8728,
  "허리를</w>": 8729,
  "허허": 8730,
  "허허허허!”</w>": 8731,
  "헌": 8732,
  "험": 8733,
  "험이</w>": 8734,
  "헛": 8735,
  "헝": 8736,
  "헤": 8737,
  "헤매": 8738,
  "헤매었다.</w>": 8739,
  "헤치고</w>": 8740,
  "혀": 8741,
  "혀</w>": 8742,
  "혀를</w>": 8743,
  "혀서</w>": 8744,
  "현": 8745,
  "혈": 8746,
  "혔습니다.</w>": 8747,
  "형": 8748,
  "형</w>": 8749,
  "형과</w>": 8750,
  "형도</w>": 8751,
  "형세가</w>": 8752,
  "형의</w>": 8753,
  "형이</w>": 8754,
  "형제": 8755,
  "형제가</w>": 8756,
  "형제는</w>": 8757,
  "형제의</w>": 8758,
  "형편": 8759,
  "형편을</w>": 8760,
  "혜": 8761,
  "혜숙": 8762,
  "혜숙아!</w>": 8763,
  "혜숙이</w>": 8764,
  "혜숙이가</w>": 8765,
  "혜숙이는</w>": 8766,
  "혜숙이를</w>": 8767,
  "호": 8768,
  "호드": 8769,
  "호드기를</w>": 8770,
  "호령": 8771,
  "호령을</w>": 8772,
  "호호": 8773,
  "호흡": 8774,
  "혹": 8775,
  "혹</w>": 8776,
  "혹시": 8777,
  "혹시</w>": 8778,
  "혹은</w>": 8779,
  "혼": 8780,
  "혼란하여</w>": 8781,
  "혼자": 8782,
  "혼자</w>": 8783,
  "혼자서</w>": 8784,
  "혼잣": 8785,
  "홀": 8786,
  "홀로</w>": 8787,
  "홉": 8788,
  "홍": 8789,
  "홍당무": 8790,
  "화": 8791,
  "화</w>": 8792,
  "화가</w>": 8793,
  "화가의</w>": 8794,
  "화단": 8795,
  "화려": 8796,
  "화를</w>": 8797,
  "화문": 8798,
  "화병에</w>": 8799,
  "화살</w>": 8800,
  "화살은</w>": 8801,
  "화살을</w>": 8802,
  "화장": 8803,
  "화장대</w>": 8804,
  "화장품</w>": 8805,
  "화증을</w>": 8806,
  "확": 8807,
  "확실": 8808,
  "확실하다.</w>": 8809,
  "확실히</w>": 8810,
  "환": 8811,
  "환하게</w>": 8812,
  "활": 8813,
  "활</w>": 8814,
  "활과</w>": 8815,
  "활짝</w>": 8816,
  "황": 8817,
  "황망히</w>": 8818,
  "황홀": 8819,
  "홰": 8820,
  "홰</w>": 8821,
  "홰나무를</w>": 8822,
  "홱</w>": 8823,
  "횃": 8824,
  "회": 8825,
  "회</w>": 8826,
  "회고하여</w>": 8827,
  "회사": 8828,
  "회색</w>": 8829,
  "획": 8830,
  "횟": 8831,
  "효": 8832,
  "효성": 8833,
  "효성스런</w>": 8834,
  "후": 8835,
  "후</w>": 8836,
  "후려": 8837,
  "후려갈": 8838,
  "후려갈겼습니다.</w>": 8839,
  "후려쳤": 8840,
  "후려치": 8841,
  "후로는</w>": 8842,
  "후부터</w>": 8843,
  "후에</w>": 8844,
  "후에도</w>": 8845,
  "후의</w>": 8846,
  "후회": 8847,
  "후회가</w>": 8848,
  "후회하였다.</w>": 8849,
  "훈": 8850,
  "훈계": 8851,
  "훌륭": 8852,
  "훌륭한</w>": 8853,
  "훌륭히</w>": 8854,
  "훌쩍": 8855,
  "훌쩍</w>": 8856,
  "훌쩍훌쩍</w>": 8857,
  "훔": 8858,
  "훔</w>": 8859,
  "훔친</w>": 8860,
  "훔칫": 8861,
  "훤": 8862,
  "훨씬</w>": 8863,
  "휘": 8864,
  "휘두르": 8865,
  "휘둘러</w>": 8866,
  "휘둥": 8867,
  "휙휙</w>": 8868,
  "휴": 8869,
  "휴일이</w>": 8870,
  "휴지를</w>": 8871,
  "흉": 8872,
  "흉내를</w>": 8873,
  "흐": 8874,
  "흐느적": 8875,
  "흐늑": 8876,
  "흐르는</w>": 8877,
  "흑!</w>": 8878,
  "흔": 8879,
  "흔드는</w>": 8880,
  "흔들": 8881,
  "흔들어</w>": 8882,
  "흔히</w>": 8883,
  "흘": 8884,
  "흘러": 8885,
  "흘러가는</w>": 8886,
  "흘러내렸습니다.</w>": 8887,
  "흘러내리는</w>": 8888,
  "흘렀습니다.</w>": 8889,
  "흘렸습니다.</w>": 8890,
  "흘리": 8891,
  "흘리고</w>": 8892,
  "흘리면서</w>": 8893,
  "흙": 8894,
  "흙을</w>": 8895,
  "흙이</w>": 8896,
  "흙투성": 8897,
  "흙투성이가</w>": 8898,
  "흠": 8899,
  "흡": 8900,
  "흡사</w>": 8901,
  "흥": 8902,
  "흥분": 8903,
  "흩": 8904,
  "흩어져</w>": 8905,
  "희": 8906,
  "희</w>": 8907,
  "희는</w>": 8908,
  "희망": 8909,
  "희망</w>": 8910,
  "희망에</w>": 8911,
  "희망의</w>": 8912,
  "희와</w>": 8913,
  "흰": 8914,
  "흰</w>": 8915,
  "힁": 8916,
  "히": 8917,
  "히</w>": 8918,
  "히고</w>": 8919,
  "히는</w>": 8920,
  "힌</w>": 8921,
  "힘": 8922,
  "힘</w>": 8923,
  "힘과</w>": 8924,
  "힘껏</w>": 8925,
  "힘도</w>": 8926,
  "힘든</w>": 8927,
  "힘없는</w>": 8928,
  "힘을</w>": 8929,
  "힘이</w>": 8930,
  "힘줄을</w>": 8931,
  "힘줄이니</w>": 8932,
  "힝": 8933
}