{
  "version": "1.0",
  "truncation": null,
  "padding": null,
  "added_tokens": [],
  "normalizer": null,
  "pre_tokenizer": {
    "type": "Whitespace"
  },
  "post_processor": null,
  "decoder": null,
  "model": {
    "type": "BPE",
    "dropout": null,
    "unk_token": null,
    "continuing_subword_prefix": null,
    "end_of_word_suffix": "</w>",
    "fuse_unk": false,
    "byte_fallback": false,
    "ignore_merges": false,
    "vocab": {
      "\u001c": 0,
      "\u001d": 1,
      "\u001e": 2,
      "!": 3,
      "\"": 4,
      "'": 5,
      "(": 6,
      ")": 7,
      ",": 8,
      "-": 9,
      ".": 10,
      "/": 11,
      "0": 12,
      "1": 13,
      "2": 14,
      "3": 15,
      "4": 16,
      "5": 17,
      "6": 18,
      "7": 19,
      "8": 20,
      "9": 21,
      ":": 22,
      "?": 23,
      "@": 24,
      "A": 25,
      "B": 26,
      "C": 27,
      "D": 28,
      "E": 29,
      "F": 30,
      "G": 31,
      "H": 32,
      "I": 33,
      "J": 34,
      "K": 35,
      "L": 36,
      "M": 37,
      "N": 38,
      "O": 39,
      "P": 40,
      "Q": 41,
      "R": 42,
      "S": 43,
      "T": 44,
      "U": 45,
      "V": 46,
      "W": 47,
      "X": 48,
      "Y": 49,
      "Z": 50,
      "[": 51,
      "\\": 52,
      "]": 53,
      "a": 54,
      "b": 55,
      "c": 56,
      "d": 57,
      "e": 58,
      "f": 59,
      "g": 60,
      "h": 61,
      "i": 62,
      "j": 63,
      "k": 64,
      "l": 65,
      "m": 66,
      "n": 67,
      "o": 68,
      "p": 69,
      "q": 70,
      "r": 71,
      "s": 72,
      "t": 73,
      "u": 74,
      "v": 75,
      "w": 76,
      "x": 77,
      "y": 78,
      "z": 79,
      "{": 80,
      "}": 81,
      "가": 82,
      "각": 83,
      "갂": 84,
      "갃": 85,
      "간": 86,
      "갅": 87,
      "갇": 88,
      "갈": 89,
      "갉": 90,
      "갊": 91,
      "갋": 92,
      "갌": 93,
      "갏": 94,
      "감": 95,
      "갑": 96,
      "값": 97,
      "갓": 98,
      "갔": 99,
      "강": 100,
      "갖": 101,
      "갗": 102,
      "갘": 103,
      "같": 104,
      "갚": 105,
      "갛": 106,
      "개": 107,
      "객": 108,
      "갞": 109,
      "갠": 110,
      "갣": 111,
      "갤": 112,
      "갨": 113,
      "갬": 114,
      "갭": 115,
      "갯": 116,
      "갰": 117,
      "갱": 118,
      "갲": 119,
      "갴": 120,
      "갷": 121,
      "갸": 122,
      "갹": 123,
      "갼": 124,
      "걀": 125,
      "걁": 126,
      "걈": 127,
      "걋": 128,
      "걌": 129,
      "걍": 130,
      "걑": 131,
      "걒": 132,
      "걔": 133,
      "걕": 134,
      "걘": 135,
      "걜": 136,
      "거": 137,
      "걱": 138,
      "걲": 139,
      "걳": 140,
      "건": 141,
      "걷": 142,
      "걸": 143,
      "걺": 144,
      "검": 145,
      "겁": 146,
      "겂": 147,
      "것": 148,
      "겄": 149,
      "겅": 150,
      "겆": 151,
      "겈": 152,
      "겉": 153,
      "겊": 154,
      "겋": 155,
      "게": 156,
      "겍": 157,
      "겎": 158,
      "겐": 159,
      "겔": 160,
      "겜": 161,
      "겝": 162,
      "겟": 163,
      "겠": 164,
      "겡": 165,
      "겥": 166,
      "겧": 167,
      "겨": 168,
      "격": 169,
      "겪": 170,
      "견": 171,
      "겮": 172,
      "겯": 173,
      "결": 174,
      "겱": 175,
      "겷": 176,
      "겸": 177,
      "겹": 178,
      "겺": 179,
      "겻": 180,
      "겼": 181,
      "경": 182,
      "곁": 183,
      "곂": 184,
      "곃": 185,
      "계": 186,
      "곅": 187,
      "곈": 188,
      "곌": 189,
      "곕": 190,
      "곗": 191,
      "곘": 192,
      "곙": 193,
      "곚": 194,
      "고": 195,
      "곡": 196,
      "곤": 197,
      "곧": 198,
      "골": 199,
      "곪": 200,
      "곫": 201,
      "곬": 202,
      "곯": 203,
      "곰": 204,
      "곱": 205,
      "곳": 206,
      "공": 207,
      "곶": 208,
      "곷": 209,
      "곸": 210,
      "곹": 211,
      "곻": 212,
      "과": 213,
      "곽": 214,
      "관": 215,
      "괃": 216,
      "괄": 217,
      "괆": 218,
      "괌": 219,
      "괍": 220,
      "괏": 221,
      "괐": 222,
      "광": 223,
      "괒": 224,
      "괘": 225,
      "괙": 226,
      "괜": 227,
      "괞": 228,
      "괬": 229,
      "괭": 230,
      "괯": 231,
      "괴": 232,
      "괵": 233,
      "괸": 234,
      "괼": 235,
      "굄": 236,
      "굅": 237,
      "굇": 238,
      "굉": 239,
      "교": 240,
      "굑": 241,
      "굔": 242,
      "굗": 243,
      "굘": 244,
      "굚": 245,
      "굛": 246,
      "굡": 247,
      "굣": 248,
      "굥": 249,
      "굨": 250,
      "굩": 251,
      "굫": 252,
      "구": 253,
      "국": 254,
      "굮": 255,
      "군": 256,
      "굳": 257,
      "굴": 258,
      "굵": 259,
      "굶": 260,
      "굻": 261,
      "굼": 262,
      "굽": 263,
      "굿": 264,
      "궁": 265,
      "궂": 266,
      "궃": 267,
      "궅": 268,
      "궈": 269,
      "궉": 270,
      "권": 271,
      "궍": 272,
      "궐": 273,
      "궑": 274,
      "궕": 275,
      "궘": 276,
      "궛": 277,
      "궜": 278,
      "궝": 279,
      "궢": 280,
      "궤": 281,
      "궥": 282,
      "궨": 283,
      "궬": 284,
      "궲": 285,
      "궴": 286,
      "궶": 287,
      "궷": 288,
      "궸": 289,
      "궼": 290,
      "궿": 291,
      "귀": 292,
      "귁": 293,
      "귄": 294,
      "귈": 295,
      "귐": 296,
      "귑": 297,
      "귓": 298,
      "귔": 299,
      "귕": 300,
      "귖": 301,
      "규": 302,
      "귝": 303,
      "균": 304,
      "귤": 305,
      "귪": 306,
      "귬": 307,
      "귱": 308,
      "그": 309,
      "극": 310,
      "귺": 311,
      "귻": 312,
      "근": 313,
      "귽": 314,
      "귾": 315,
      "귿": 316,
      "글": 317,
      "긁": 318,
      "긂": 319,
      "긇": 320,
      "금": 321,
      "급": 322,
      "긋": 323,
      "긌": 324,
      "긍": 325,
      "긎": 326,
      "긐": 327,
      "긑": 328,
      "긓": 329,
      "긔": 330,
      "긕": 331,
      "긘": 332,
      "긜": 333,
      "긩": 334,
      "기": 335,
      "긱": 336,
      "긴": 337,
      "긷": 338,
      "길": 339,
      "긹": 340,
      "긺": 341,
      "긾": 342,
      "긿": 343,
      "김": 344,
      "깁": 345,
      "깂": 346,
      "깃": 347,
      "깄": 348,
      "깅": 349,
      "깆": 350,
      "깉": 351,
      "깊": 352,
      "깋": 353,
      "까": 354,
      "깍": 355,
      "깎": 356,
      "깐": 357,
      "깔": 358,
      "깜": 359,
      "깝": 360,
      "깞": 361,
      "깟": 362,
      "깠": 363,
      "깡": 364,
      "깢": 365,
      "깥": 366,
      "깦": 367,
      "깧": 368,
      "깨": 369,
      "깩": 370,
      "깪": 371,
      "깬": 372,
      "깯": 373,
      "깰": 374,
      "깵": 375,
      "깸": 376,
      "깹": 377,
      "깻": 378,
      "깼": 379,
      "깽": 380,
      "꺄": 381,
      "꺅": 382,
      "꺆": 383,
      "꺌": 384,
      "꺔": 385,
      "꺗": 386,
      "꺠": 387,
      "꺢": 388,
      "꺤": 389,
      "꺨": 390,
      "꺳": 391,
      "꺵": 392,
      "꺼": 393,
      "꺽": 394,
      "꺾": 395,
      "껀": 396,
      "껄": 397,
      "껌": 398,
      "껍": 399,
      "껏": 400,
      "껐": 401,
      "껑": 402,
      "껒": 403,
      "껔": 404,
      "껗": 405,
      "께": 406,
      "껜": 407,
      "껨": 408,
      "껩": 409,
      "껫": 410,
      "껬": 411,
      "껭": 412,
      "껴": 413,
      "껵": 414,
      "껶": 415,
      "껸": 416,
      "껼": 417,
      "꼄": 418,
      "꼅": 419,
      "꼇": 420,
      "꼈": 421,
      "꼉": 422,
      "꼍": 423,
      "꼐": 424,
      "꼠": 425,
      "꼩": 426,
      "꼬": 427,
      "꼭": 428,
      "꼮": 429,
      "꼰": 430,
      "꼱": 431,
      "꼲": 432,
      "꼳": 433,
      "꼴": 434,
      "꼻": 435,
      "꼼": 436,
      "꼽": 437,
      "꼿": 438,
      "꽁": 439,
      "꽂": 440,
      "꽃": 441,
      "꽅": 442,
      "꽆": 443,
      "꽈": 444,
      "꽉": 445,
      "꽊": 446,
      "꽌": 447,
      "꽐": 448,
      "꽙": 449,
      "꽛": 450,
      "꽜": 451,
      "꽝": 452,
      "꽤": 453,
      "꽥": 454,
      "꽨": 455,
      "꽹": 456,
      "꾀": 457,
      "꾄": 458,
      "꾈": 459,
      "꾐": 460,
      "꾑": 461,
      "꾕": 462,
      "꾜": 463,
      "꾝": 464,
      "꾯": 465,
      "꾱": 466,
      "꾲": 467,
      "꾳": 468,
      "꾸": 469,
      "꾹": 470,
      "꾼": 471,
      "꾾": 472,
      "꾿": 473,
      "꿀": 474,
      "꿁": 475,
      "꿂": 476,
      "꿇": 477,
      "꿈": 478,
      "꿉": 479,
      "꿋": 480,
      "꿍": 481,
      "꿎": 482,
      "꿏": 483,
      "꿑": 484,
      "꿔": 485,
      "꿕": 486,
      "꿘": 487,
      "꿜": 488,
      "꿧": 489,
      "꿨": 490,
      "꿩": 491,
      "꿰": 492,
      "꿱": 493,
      "꿴": 494,
      "꿸": 495,
      "꿿": 496,
      "뀀": 497,
      "뀃": 498,
      "뀄": 499,
      "뀌": 500,
      "뀍": 501,
      "뀐": 502,
      "뀔": 503,
      "뀜": 504,
      "뀝": 505,
      "뀠": 506,
      "뀨": 507,
      "뀬": 508,
      "뀰": 509,
      "뀽": 510,
      "끁": 511,
      "끄": 512,
      "끅": 513,
      "끈": 514,
      "끉": 515,
      "끊": 516,
      "끌": 517,
      "끍": 518,
      "끎": 519,
      "끓": 520,
      "끔": 521,
      "끕": 522,
      "끗": 523,
      "끙": 524,
      "끚": 525,
      "끝": 526,
      "끟": 527,
      "끠": 528,
      "끨": 529,
      "끰": 530,
      "끸": 531,
      "끼": 532,
      "끽": 533,
      "낀": 534,
      "낄": 535,
      "낌": 536,
      "낍": 537,
      "낏": 538,
      "낑": 539,
      "나": 540,
      "낙": 541,
      "낚": 542,
      "낛": 543,
      "난": 544,
      "낟": 545,
      "날": 546,
      "낡": 547,
      "낢": 548,
      "낣": 549,
      "낧": 550,
      "남": 551,
      "납": 552,
      "낫": 553,
      "났": 554,
      "낭": 555,
      "낮": 556,
      "낯": 557,
      "낰": 558,
      "낱": 559,
      "낲": 560,
      "낳": 561,
      "내": 562,
      "낵": 563,
      "낸": 564,
      "낹": 565,
      "낻": 566,
      "낼": 567,
      "냄": 568,
      "냅": 569,
      "냇": 570,
      "냈": 571,
      "냉": 572,
      "냍": 573,
      "냎": 574,
      "냏": 575,
      "냐": 576,
      "냑": 577,
      "냔": 578,
      "냘": 579,
      "냠": 580,
      "냡": 581,
      "냣": 582,
      "냤": 583,
      "냥": 584,
      "냬": 585,
      "냰": 586,
      "냴": 587,
      "너": 588,
      "넉": 589,
      "넊": 590,
      "넋": 591,
      "넌": 592,
      "넎": 593,
      "널": 594,
      "넑": 595,
      "넒": 596,
      "넓": 597,
      "넖": 598,
      "넗": 599,
      "넘": 600,
      "넙": 601,
      "넚": 602,
      "넛": 603,
      "넜": 604,
      "넝": 605,
      "넞": 606,
      "넡": 607,
      "넢": 608,
      "넣": 609,
      "네": 610,
      "넥": 611,
      "넧": 612,
      "넨": 613,
      "넫": 614,
      "넬": 615,
      "넮": 616,
      "넴": 617,
      "넵": 618,
      "넷": 619,
      "넸": 620,
      "넹": 621,
      "넺": 622,
      "넻": 623,
      "넼": 624,
      "넽": 625,
      "넾": 626,
      "녀": 627,
      "녁": 628,
      "녂": 629,
      "년": 630,
      "녅": 631,
      "녈": 632,
      "녉": 633,
      "념": 634,
      "녑": 635,
      "녓": 636,
      "녔": 637,
      "녕": 638,
      "녘": 639,
      "녙": 640,
      "녛": 641,
      "녜": 642,
      "녠": 643,
      "녤": 644,
      "노": 645,
      "녹": 646,
      "논": 647,
      "녿": 648,
      "놀": 649,
      "놂": 650,
      "놈": 651,
      "놉": 652,
      "놋": 653,
      "농": 654,
      "놏": 655,
      "놑": 656,
      "높": 657,
      "놓": 658,
      "놔": 659,
      "놕": 660,
      "놘": 661,
      "놧": 662,
      "놨": 663,
      "놩": 664,
      "놯": 665,
      "놰": 666,
      "뇌": 667,
      "뇐": 668,
      "뇔": 669,
      "뇨": 670,
      "뇩": 671,
      "뇬": 672,
      "뇰": 673,
      "뇸": 674,
      "뇹": 675,
      "뇻": 676,
      "뇽": 677,
      "눁": 678,
      "누": 679,
      "눅": 680,
      "눇": 681,
      "눈": 682,
      "눉": 683,
      "눋": 684,
      "눌": 685,
      "눍": 686,
      "눔": 687,
      "눕": 688,
      "눗": 689,
      "눙": 690,
      "눝": 691,
      "눞": 692,
      "눟": 693,
      "눠": 694,
      "눤": 695,
      "눨": 696,
      "눳": 697,
      "눴": 698,
      "눵": 699,
      "눼": 700,
      "뉄": 701,
      "뉍": 702,
      "뉘": 703,
      "뉙": 704,
      "뉜": 705,
      "뉠": 706,
      "뉨": 707,
      "뉩": 708,
      "뉭": 709,
      "뉴": 710,
      "뉵": 711,
      "뉸": 712,
      "뉼": 713,
      "늄": 714,
      "늅": 715,
      "늇": 716,
      "늉": 717,
      "늍": 718,
      "느": 719,
      "늑": 720,
      "늒": 721,
      "는": 722,
      "늕": 723,
      "늖": 724,
      "늗": 725,
      "늘": 726,
      "늙": 727,
      "늚": 728,
      "늟": 729,
      "늠": 730,
      "늡": 731,
      "늣": 732,
      "능": 733,
      "늦": 734,
      "늧": 735,
      "늨": 736,
      "늩": 737,
      "늪": 738,
      "늫": 739,
      "늬": 740,
      "늰": 741,
      "늴": 742,
      "늼": 743,
      "닁": 744,
      "니": 745,
      "닉": 746,
      "닊": 747,
      "닌": 748,
      "닏": 749,
      "닐": 750,
      "닒": 751,
      "님": 752,
      "닙": 753,
      "닛": 754,
      "닜": 755,
      "닝": 756,
      "닞": 757,
      "닠": 758,
      "닢": 759,
      "닣": 760,
      "다": 761,
      "닥": 762,
      "닦": 763,
      "단": 764,
      "닩": 765,
      "닪": 766,
      "닫": 767,
      "달": 768,
      "닭": 769,
      "닮": 770,
      "닯": 771,
      "닲": 772,
      "닳": 773,
      "담": 774,
      "답": 775,
      "닶": 776,
      "닷": 777,
      "닸": 778,
      "당": 779,
      "닺": 780,
      "닻": 781,
      "닼": 782,
      "닽": 783,
      "닾": 784,
      "닿": 785,
      "대": 786,
      "댁": 787,
      "댄": 788,
      "댇": 789,
      "댈": 790,
      "댐": 791,
      "댑": 792,
      "댓": 793,
      "댔": 794,
      "댕": 795,
      "댖": 796,
      "댚": 797,
      "댛": 798,
      "댜": 799,
      "댝": 800,
      "댠": 801,
      "댤": 802,
      "댬": 803,
      "댭": 804,
      "댯": 805,
      "댱": 806,
      "댸": 807,
      "더": 808,
      "덕": 809,
      "덖": 810,
      "던": 811,
      "덛": 812,
      "덜": 813,
      "덞": 814,
      "덟": 815,
      "덣": 816,
      "덤": 817,
      "덥": 818,
      "덦": 819,
      "덧": 820,
      "덨": 821,
      "덩": 822,
      "덪": 823,
      "덫": 824,
      "덬": 825,
      "덮": 826,
      "덯": 827,
      "데": 828,
      "덱": 829,
      "덴": 830,
      "덷": 831,
      "델": 832,
      "뎀": 833,
      "뎁": 834,
      "뎃": 835,
      "뎄": 836,
      "뎅": 837,
      "뎇": 838,
      "뎈": 839,
      "뎊": 840,
      "뎌": 841,
      "뎍": 842,
      "뎐": 843,
      "뎔": 844,
      "뎗": 845,
      "뎜": 846,
      "뎠": 847,
      "뎡": 848,
      "뎢": 849,
      "뎦": 850,
      "뎨": 851,
      "뎬": 852,
      "뎶": 853,
      "뎼": 854,
      "뎽": 855,
      "돃": 856,
      "도": 857,
      "독": 858,
      "돈": 859,
      "돋": 860,
      "돌": 861,
      "돍": 862,
      "돎": 863,
      "돐": 864,
      "돓": 865,
      "돔": 866,
      "돕": 867,
      "돗": 868,
      "동": 869,
      "돚": 870,
      "돛": 871,
      "돜": 872,
      "돝": 873,
      "돞": 874,
      "돟": 875,
      "돠": 876,
      "돡": 877,
      "돤": 878,
      "돨": 879,
      "돰": 880,
      "돳": 881,
      "돴": 882,
      "돵": 883,
      "돼": 884,
      "됀": 885,
      "됄": 886,
      "됌": 887,
      "됍": 888,
      "됏": 889,
      "됐": 890,
      "됑": 891,
      "되": 892,
      "됙": 893,
      "된": 894,
      "됟": 895,
      "될": 896,
      "됢": 897,
      "됨": 898,
      "됩": 899,
      "됫": 900,
      "됬": 901,
      "됭": 902,
      "됮": 903,
      "됴": 904,
      "됸": 905,
      "둁": 906,
      "둉": 907,
      "둏": 908,
      "두": 909,
      "둑": 910,
      "둒": 911,
      "둔": 912,
      "둗": 913,
      "둘": 914,
      "둟": 915,
      "둠": 916,
      "둡": 917,
      "둣": 918,
      "둥": 919,
      "둨": 920,
      "둬": 921,
      "둰": 922,
      "둴": 923,
      "둿": 924,
      "뒀": 925,
      "뒁": 926,
      "뒈": 927,
      "뒙": 928,
      "뒜": 929,
      "뒝": 930,
      "뒤": 931,
      "뒥": 932,
      "뒨": 933,
      "뒬": 934,
      "뒵": 935,
      "뒷": 936,
      "뒹": 937,
      "뒺": 938,
      "듀": 939,
      "듁": 940,
      "듄": 941,
      "듈": 942,
      "듐": 943,
      "듑": 944,
      "듕": 945,
      "드": 946,
      "득": 947,
      "듞": 948,
      "든": 949,
      "듡": 950,
      "듣": 951,
      "들": 952,
      "듦": 953,
      "듧": 954,
      "듩": 955,
      "듬": 956,
      "듭": 957,
      "듯": 958,
      "등": 959,
      "듲": 960,
      "듳": 961,
      "듴": 962,
      "듵": 963,
      "듶": 964,
      "듷": 965,
      "듸": 966,
      "듼": 967,
      "딈": 968,
      "딉": 969,
      "딋": 970,
      "디": 971,
      "딕": 972,
      "딘": 973,
      "딛": 974,
      "딜": 975,
      "딝": 976,
      "딤": 977,
      "딥": 978,
      "딧": 979,
      "딨": 980,
      "딩": 981,
      "딪": 982,
      "딫": 983,
      "딬": 984,
      "딮": 985,
      "딯": 986,
      "따": 987,
      "딱": 988,
      "딲": 989,
      "딴": 990,
      "딷": 991,
      "딸": 992,
      "딻": 993,
      "딿": 994,
      "땀": 995,
      "땁": 996,
      "땃": 997,
      "땄": 998,
      "땅": 999,
      "땋": 1000,
      "때": 1001,
      "땍": 1002,
      "땐": 1003,
      "땔": 1004,
      "땜": 1005,
      "땝": 1006,
      "땟": 1007,
      "땠": 1008,
      "땡": 1009,
      "땧": 1010,
      "땨": 1011,
      "떄": 1012,
      "떅": 1013,
      "떈": 1014,
      "떌": 1015,
      "떔": 1016,
      "떘": 1017,
      "떙": 1018,
      "떠": 1019,
      "떡": 1020,
      "떢": 1021,
      "떤": 1022,
      "떦": 1023,
      "떧": 1024,
      "떨": 1025,
      "떪": 1026,
      "떫": 1027,
      "떯": 1028,
      "떰": 1029,
      "떱": 1030,
      "떳": 1031,
      "떴": 1032,
      "떵": 1033,
      "떻": 1034,
      "떼": 1035,
      "떽": 1036,
      "뗀": 1037,
      "뗄": 1038,
      "뗌": 1039,
      "뗍": 1040,
      "뗏": 1041,
      "뗐": 1042,
      "뗑": 1043,
      "뗗": 1044,
      "뗘": 1045,
      "뗙": 1046,
      "뗜": 1047,
      "뗠": 1048,
      "뗫": 1049,
      "뗬": 1050,
      "뗳": 1051,
      "뗴": 1052,
      "뗵": 1053,
      "뗼": 1054,
      "똇": 1055,
      "또": 1056,
      "똑": 1057,
      "똔": 1058,
      "똗": 1059,
      "똘": 1060,
      "똟": 1061,
      "똠": 1062,
      "똣": 1063,
      "똥": 1064,
      "똬": 1065,
      "똭": 1066,
      "똮": 1067,
      "똻": 1068,
      "똿": 1069,
      "뙁": 1070,
      "뙇": 1071,
      "뙈": 1072,
      "뙌": 1073,
      "뙤": 1074,
      "뙨": 1075,
      "뚀": 1076,
      "뚓": 1077,
      "뚜": 1078,
      "뚝": 1079,
      "뚠": 1080,
      "뚤": 1081,
      "뚦": 1082,
      "뚧": 1083,
      "뚫": 1084,
      "뚬": 1085,
      "뚭": 1086,
      "뚯": 1087,
      "뚱": 1088,
      "뚵": 1089,
      "뚷": 1090,
      "뚸": 1091,
      "뛇": 1092,
      "뛋": 1093,
      "뛔": 1094,
      "뛩": 1095,
      "뛰": 1096,
      "뛴": 1097,
      "뛸": 1098,
      "뜀": 1099,
      "뜁": 1100,
      "뜃": 1101,
      "뜐": 1102,
      "뜛": 1103,
      "뜜": 1104,
      "뜡": 1105,
      "뜨": 1106,
      "뜩": 1107,
      "뜬": 1108,
      "뜯": 1109,
      "뜰": 1110,
      "뜶": 1111,
      "뜷": 1112,
      "뜸": 1113,
      "뜹": 1114,
      "뜻": 1115,
      "뜼": 1116,
      "뜽": 1117,
      "뜾": 1118,
      "띁": 1119,
      "띃": 1120,
      "띄": 1121,
      "띅": 1122,
      "띈": 1123,
      "띌": 1124,
      "띔": 1125,
      "띕": 1126,
      "띠": 1127,
      "띡": 1128,
      "띤": 1129,
      "띨": 1130,
      "띰": 1131,
      "띱": 1132,
      "띳": 1133,
      "띵": 1134,
      "띺": 1135,
      "라": 1136,
      "락": 1137,
      "띾": 1138,
      "란": 1139,
      "랃": 1140,
      "랄": 1141,
      "랆": 1142,
      "람": 1143,
      "랍": 1144,
      "랏": 1145,
      "랐": 1146,
      "랑": 1147,
      "랒": 1148,
      "랖": 1149,
      "랗": 1150,
      "래": 1151,
      "랙": 1152,
      "랜": 1153,
      "랠": 1154,
      "램": 1155,
      "랩": 1156,
      "랫": 1157,
      "랬": 1158,
      "랭": 1159,
      "랮": 1160,
      "랲": 1161,
      "랳": 1162,
      "랴": 1163,
      "략": 1164,
      "랸": 1165,
      "랼": 1166,
      "럄": 1167,
      "럅": 1168,
      "럇": 1169,
      "량": 1170,
      "럐": 1171,
      "럠": 1172,
      "럣": 1173,
      "럤": 1174,
      "러": 1175,
      "럭": 1176,
      "럮": 1177,
      "럯": 1178,
      "런": 1179,
      "럱": 1180,
      "럲": 1181,
      "럳": 1182,
      "럴": 1183,
      "럶": 1184,
      "럷": 1185,
      "럸": 1186,
      "럻": 1187,
      "럼": 1188,
      "럽": 1189,
      "럾": 1190,
      "럿": 1191,
      "렀": 1192,
      "렁": 1193,
      "렃": 1194,
      "렇": 1195,
      "레": 1196,
      "렉": 1197,
      "렌": 1198,
      "렍": 1199,
      "렐": 1200,
      "렘": 1201,
      "렙": 1202,
      "렛": 1203,
      "렜": 1204,
      "렝": 1205,
      "렞": 1206,
      "렠": 1207,
      "렡": 1208,
      "렢": 1209,
      "려": 1210,
      "력": 1211,
      "렦": 1212,
      "련": 1213,
      "렫": 1214,
      "렬": 1215,
      "렴": 1216,
      "렵": 1217,
      "렶": 1218,
      "렷": 1219,
      "렸": 1220,
      "령": 1221,
      "렺": 1222,
      "렼": 1223,
      "렾": 1224,
      "렿": 1225,
      "례": 1226,
      "롁": 1227,
      "롄": 1228,
      "롑": 1229,
      "로": 1230,
      "록": 1231,
      "롞": 1232,
      "롟": 1233,
      "론": 1234,
      "롣": 1235,
      "롤": 1236,
      "롬": 1237,
      "롭": 1238,
      "롯": 1239,
      "롱": 1240,
      "롲": 1241,
      "롴": 1242,
      "롵": 1243,
      "롶": 1244,
      "롷": 1245,
      "롸": 1246,
      "롹": 1247,
      "롼": 1248,
      "뢀": 1249,
      "뢈": 1250,
      "뢋": 1251,
      "뢍": 1252,
      "뢘": 1253,
      "뢥": 1254,
      "뢰": 1255,
      "뢱": 1256,
      "뢴": 1257,
      "뢸": 1258,
      "뢾": 1259,
      "뢿": 1260,
      "룀": 1261,
      "룁": 1262,
      "룃": 1263,
      "룅": 1264,
      "료": 1265,
      "룍": 1266,
      "룏": 1267,
      "룐": 1268,
      "룑": 1269,
      "룔": 1270,
      "룕": 1271,
      "룖": 1272,
      "룜": 1273,
      "룝": 1274,
      "룟": 1275,
      "룡": 1276,
      "룦": 1277,
      "루": 1278,
      "룩": 1279,
      "룬": 1280,
      "룰": 1281,
      "룳": 1282,
      "룸": 1283,
      "룹": 1284,
      "룻": 1285,
      "룽": 1286,
      "뤀": 1287,
      "뤂": 1288,
      "뤃": 1289,
      "뤄": 1290,
      "뤈": 1291,
      "뤌": 1292,
      "뤗": 1293,
      "뤘": 1294,
      "뤠": 1295,
      "뤡": 1296,
      "뤤": 1297,
      "뤨": 1298,
      "뤩": 1299,
      "뤼": 1300,
      "뤽": 1301,
      "륀": 1302,
      "륄": 1303,
      "륌": 1304,
      "륍": 1305,
      "륏": 1306,
      "륑": 1307,
      "류": 1308,
      "륙": 1309,
      "륚": 1310,
      "륜": 1311,
      "률": 1312,
      "륨": 1313,
      "륩": 1314,
      "륫": 1315,
      "륭": 1316,
      "륮": 1317,
      "륲": 1318,
      "르": 1319,
      "륵": 1320,
      "른": 1321,
      "륻": 1322,
      "를": 1323,
      "륾": 1324,
      "륿": 1325,
      "릀": 1326,
      "름": 1327,
      "릅": 1328,
      "릇": 1329,
      "릉": 1330,
      "릊": 1331,
      "릋": 1332,
      "릌": 1333,
      "릍": 1334,
      "릎": 1335,
      "릏": 1336,
      "릐": 1337,
      "릔": 1338,
      "릘": 1339,
      "릠": 1340,
      "릡": 1341,
      "릥": 1342,
      "릫": 1343,
      "리": 1344,
      "릭": 1345,
      "릮": 1346,
      "린": 1347,
      "릱": 1348,
      "릲": 1349,
      "릳": 1350,
      "릴": 1351,
      "림": 1352,
      "립": 1353,
      "릾": 1354,
      "릿": 1355,
      "맀": 1356,
      "링": 1357,
      "맂": 1358,
      "맃": 1359,
      "맄": 1360,
      "맅": 1361,
      "맆": 1362,
      "맇": 1363,
      "마": 1364,
      "막": 1365,
      "맊": 1366,
      "만": 1367,
      "맍": 1368,
      "많": 1369,
      "맏": 1370,
      "말": 1371,
      "맑": 1372,
      "맒": 1373,
      "맗": 1374,
      "맘": 1375,
      "맙": 1376,
      "맛": 1377,
      "맜": 1378,
      "망": 1379,
      "맞": 1380,
      "맟": 1381,
      "맠": 1382,
      "맡": 1383,
      "맣": 1384,
      "매": 1385,
      "맥": 1386,
      "맦": 1387,
      "맨": 1388,
      "맫": 1389,
      "맬": 1390,
      "맴": 1391,
      "맵": 1392,
      "맷": 1393,
      "맸": 1394,
      "맹": 1395,
      "맺": 1396,
      "맻": 1397,
      "맼": 1398,
      "맽": 1399,
      "맿": 1400,
      "먀": 1401,
      "먁": 1402,
      "먄": 1403,
      "먈": 1404,
      "먐": 1405,
      "먕": 1406,
      "먖": 1407,
      "먗": 1408,
      "먜": 1409,
      "먠": 1410,
      "머": 1411,
      "먹": 1412,
      "먻": 1413,
      "먼": 1414,
      "먽": 1415,
      "먾": 1416,
      "먿": 1417,
      "멀": 1418,
      "멂": 1419,
      "멅": 1420,
      "멈": 1421,
      "멉": 1422,
      "멊": 1423,
      "멋": 1424,
      "멌": 1425,
      "멍": 1426,
      "멎": 1427,
      "멏": 1428,
      "멑": 1429,
      "멒": 1430,
      "멓": 1431,
      "메": 1432,
      "멕": 1433,
      "멘": 1434,
      "멜": 1435,
      "멤": 1436,
      "멥": 1437,
      "멧": 1438,
      "멨": 1439,
      "멩": 1440,
      "멪": 1441,
      "멫": 1442,
      "멬": 1443,
      "멭": 1444,
      "며": 1445,
      "멱": 1446,
      "면": 1447,
      "멵": 1448,
      "멷": 1449,
      "멸": 1450,
      "몀": 1451,
      "몃": 1452,
      "몄": 1453,
      "명": 1454,
      "몆": 1455,
      "몇": 1456,
      "몈": 1457,
      "몊": 1458,
      "몋": 1459,
      "몌": 1460,
      "몐": 1461,
      "몔": 1462,
      "몟": 1463,
      "모": 1464,
      "목": 1465,
      "몪": 1466,
      "몫": 1467,
      "몬": 1468,
      "몯": 1469,
      "몰": 1470,
      "몱": 1471,
      "몲": 1472,
      "몴": 1473,
      "몸": 1474,
      "몹": 1475,
      "못": 1476,
      "몼": 1477,
      "몽": 1478,
      "몾": 1479,
      "몿": 1480,
      "뫁": 1481,
      "뫂": 1482,
      "뫃": 1483,
      "뫄": 1484,
      "뫅": 1485,
      "뫈": 1486,
      "뫌": 1487,
      "뫔": 1488,
      "뫘": 1489,
      "뫙": 1490,
      "뫜": 1491,
      "뫠": 1492,
      "뫼": 1493,
      "묀": 1494,
      "묄": 1495,
      "묏": 1496,
      "묘": 1497,
      "묙": 1498,
      "묜": 1499,
      "묠": 1500,
      "묨": 1501,
      "묫": 1502,
      "묭": 1503,
      "무": 1504,
      "묵": 1505,
      "묶": 1506,
      "묷": 1507,
      "문": 1508,
      "묹": 1509,
      "묺": 1510,
      "묻": 1511,
      "물": 1512,
      "묽": 1513,
      "묾": 1514,
      "뭃": 1515,
      "뭄": 1516,
      "뭅": 1517,
      "뭇": 1518,
      "뭈": 1519,
      "뭉": 1520,
      "뭋": 1521,
      "뭍": 1522,
      "뭎": 1523,
      "뭏": 1524,
      "뭐": 1525,
      "뭔": 1526,
      "뭗": 1527,
      "뭘": 1528,
      "뭠": 1529,
      "뭡": 1530,
      "뭣": 1531,
      "뭤": 1532,
      "뭥": 1533,
      "뭩": 1534,
      "뭬": 1535,
      "뭰": 1536,
      "뭽": 1537,
      "뮈": 1538,
      "뮌": 1539,
      "뮐": 1540,
      "뮘": 1541,
      "뮝": 1542,
      "뮤": 1543,
      "뮥": 1544,
      "뮦": 1545,
      "뮨": 1546,
      "뮬": 1547,
      "뮴": 1548,
      "뮹": 1549,
      "므": 1550,
      "믄": 1551,
      "믈": 1552,
      "믐": 1553,
      "믑": 1554,
      "믓": 1555,
      "믕": 1556,
      "믖": 1557,
      "믛": 1558,
      "믜": 1559,
      "믤": 1560,
      "믱": 1561,
      "미": 1562,
      "믹": 1563,
      "믺": 1564,
      "믻": 1565,
      "민": 1566,
      "믾": 1567,
      "믿": 1568,
      "밀": 1569,
      "밈": 1570,
      "밉": 1571,
      "밊": 1572,
      "밋": 1573,
      "밌": 1574,
      "밍": 1575,
      "밎": 1576,
      "및": 1577,
      "밐": 1578,
      "밑": 1579,
      "밒": 1580,
      "밓": 1581,
      "바": 1582,
      "박": 1583,
      "밖": 1584,
      "밗": 1585,
      "반": 1586,
      "밚": 1587,
      "받": 1588,
      "발": 1589,
      "밝": 1590,
      "밞": 1591,
      "밟": 1592,
      "밠": 1593,
      "밡": 1594,
      "밢": 1595,
      "밣": 1596,
      "밤": 1597,
      "밥": 1598,
      "밧": 1599,
      "밨": 1600,
      "방": 1601,
      "밪": 1602,
      "밫": 1603,
      "밬": 1604,
      "밭": 1605,
      "밮": 1606,
      "밯": 1607,
      "배": 1608,
      "백": 1609,
      "밴": 1610,
      "밷": 1611,
      "밸": 1612,
      "뱀": 1613,
      "뱁": 1614,
      "뱃": 1615,
      "뱄": 1616,
      "뱅": 1617,
      "뱇": 1618,
      "뱉": 1619,
      "뱋": 1620,
      "뱌": 1621,
      "뱍": 1622,
      "뱎": 1623,
      "뱐": 1624,
      "뱔": 1625,
      "뱜": 1626,
      "뱡": 1627,
      "뱶": 1628,
      "뱽": 1629,
      "버": 1630,
      "벅": 1631,
      "벆": 1632,
      "번": 1633,
      "벋": 1634,
      "벌": 1635,
      "벎": 1636,
      "벒": 1637,
      "범": 1638,
      "법": 1639,
      "벗": 1640,
      "벙": 1641,
      "벚": 1642,
      "벛": 1643,
      "벜": 1644,
      "벝": 1645,
      "벞": 1646,
      "벟": 1647,
      "베": 1648,
      "벡": 1649,
      "벤": 1650,
      "벧": 1651,
      "벨": 1652,
      "벰": 1653,
      "벱": 1654,
      "벳": 1655,
      "벴": 1656,
      "벵": 1657,
      "벹": 1658,
      "벺": 1659,
      "벻": 1660,
      "벼": 1661,
      "벽": 1662,
      "벾": 1663,
      "변": 1664,
      "볁": 1665,
      "볃": 1666,
      "별": 1667,
      "볅": 1668,
      "볌": 1669,
      "볍": 1670,
      "볏": 1671,
      "볐": 1672,
      "병": 1673,
      "볓": 1674,
      "볔": 1675,
      "볕": 1676,
      "볗": 1677,
      "볘": 1678,
      "볜": 1679,
      "볧": 1680,
      "볱": 1681,
      "보": 1682,
      "복": 1683,
      "볶": 1684,
      "본": 1685,
      "볹": 1686,
      "볻": 1687,
      "볼": 1688,
      "볽": 1689,
      "볾": 1690,
      "볿": 1691,
      "봄": 1692,
      "봅": 1693,
      "봇": 1694,
      "봈": 1695,
      "봉": 1696,
      "봊": 1697,
      "봌": 1698,
      "봍": 1699,
      "봏": 1700,
      "봐": 1701,
      "봑": 1702,
      "봒": 1703,
      "봔": 1704,
      "봘": 1705,
      "봙": 1706,
      "봠": 1707,
      "봡": 1708,
      "봣": 1709,
      "봤": 1710,
      "봥": 1711,
      "봫": 1712,
      "봬": 1713,
      "봰": 1714,
      "봴": 1715,
      "봽": 1716,
      "뵀": 1717,
      "뵈": 1718,
      "뵉": 1719,
      "뵌": 1720,
      "뵐": 1721,
      "뵘": 1722,
      "뵙": 1723,
      "뵜": 1724,
      "뵤": 1725,
      "뵨": 1726,
      "뵬": 1727,
      "뵷": 1728,
      "뵹": 1729,
      "부": 1730,
      "북": 1731,
      "붂": 1732,
      "분": 1733,
      "붆": 1734,
      "붇": 1735,
      "불": 1736,
      "붉": 1737,
      "붊": 1738,
      "붎": 1739,
      "붐": 1740,
      "붑": 1741,
      "붓": 1742,
      "붕": 1743,
      "붖": 1744,
      "붗": 1745,
      "붘": 1746,
      "붙": 1747,
      "붚": 1748,
      "붛": 1749,
      "붜": 1750,
      "붤": 1751,
      "붰": 1752,
      "붱": 1753,
      "붸": 1754,
      "뷀": 1755,
      "뷁": 1756,
      "뷉": 1757,
      "뷔": 1758,
      "뷕": 1759,
      "뷘": 1760,
      "뷜": 1761,
      "뷰": 1762,
      "뷱": 1763,
      "뷴": 1764,
      "뷸": 1765,
      "뷹": 1766,
      "븀": 1767,
      "븃": 1768,
      "븅": 1769,
      "븉": 1770,
      "브": 1771,
      "븍": 1772,
      "븐": 1773,
      "븓": 1774,
      "블": 1775,
      "븕": 1776,
      "븛": 1777,
      "븜": 1778,
      "븝": 1779,
      "븟": 1780,
      "븡": 1781,
      "븥": 1782,
      "븨": 1783,
      "비": 1784,
      "빅": 1785,
      "빆": 1786,
      "빈": 1787,
      "빋": 1788,
      "빌": 1789,
      "빍": 1790,
      "빎": 1791,
      "빔": 1792,
      "빕": 1793,
      "빗": 1794,
      "빙": 1795,
      "빚": 1796,
      "빛": 1797,
      "빝": 1798,
      "빟": 1799,
      "빠": 1800,
      "빡": 1801,
      "빢": 1802,
      "빤": 1803,
      "빧": 1804,
      "빨": 1805,
      "빩": 1806,
      "빪": 1807,
      "빰": 1808,
      "빱": 1809,
      "빳": 1810,
      "빴": 1811,
      "빵": 1812,
      "빻": 1813,
      "빼": 1814,
      "빽": 1815,
      "뺀": 1816,
      "뺃": 1817,
      "뺄": 1818,
      "뺌": 1819,
      "뺍": 1820,
      "뺏": 1821,
      "뺐": 1822,
      "뺑": 1823,
      "뺒": 1824,
      "뺘": 1825,
      "뺙": 1826,
      "뺜": 1827,
      "뺨": 1828,
      "뺭": 1829,
      "뺴": 1830,
      "뺵": 1831,
      "뺸": 1832,
      "뺼": 1833,
      "뻇": 1834,
      "뻈": 1835,
      "뻉": 1836,
      "뻐": 1837,
      "뻑": 1838,
      "뻒": 1839,
      "뻔": 1840,
      "뻗": 1841,
      "뻘": 1842,
      "뻠": 1843,
      "뻡": 1844,
      "뻣": 1845,
      "뻤": 1846,
      "뻥": 1847,
      "뻬": 1848,
      "뻭": 1849,
      "뻰": 1850,
      "뻴": 1851,
      "뻿": 1852,
      "뼀": 1853,
      "뼁": 1854,
      "뼈": 1855,
      "뼉": 1856,
      "뼊": 1857,
      "뼌": 1858,
      "뼏": 1859,
      "뼐": 1860,
      "뼘": 1861,
      "뼛": 1862,
      "뼜": 1863,
      "뼝": 1864,
      "뼡": 1865,
      "뼤": 1866,
      "뽀": 1867,
      "뽁": 1868,
      "뽂": 1869,
      "뽄": 1870,
      "뽇": 1871,
      "뽈": 1872,
      "뽉": 1873,
      "뽐": 1874,
      "뽑": 1875,
      "뽓": 1876,
      "뽕": 1877,
      "뽜": 1878,
      "뽝": 1879,
      "뽠": 1880,
      "뽤": 1881,
      "뽱": 1882,
      "뾔": 1883,
      "뾰": 1884,
      "뾱": 1885,
      "뾸": 1886,
      "뿅": 1887,
      "뿌": 1888,
      "뿍": 1889,
      "뿐": 1890,
      "뿓": 1891,
      "뿔": 1892,
      "뿜": 1893,
      "뿝": 1894,
      "뿟": 1895,
      "뿠": 1896,
      "뿡": 1897,
      "뿥": 1898,
      "쀄": 1899,
      "쀅": 1900,
      "쀍": 1901,
      "쀠": 1902,
      "쀼": 1903,
      "쁀": 1904,
      "쁄": 1905,
      "쁌": 1906,
      "쁘": 1907,
      "쁙": 1908,
      "쁜": 1909,
      "쁠": 1910,
      "쁨": 1911,
      "쁩": 1912,
      "쁭": 1913,
      "삉": 1914,
      "삐": 1915,
      "삑": 1916,
      "삔": 1917,
      "삗": 1918,
      "삘": 1919,
      "삠": 1920,
      "삡": 1921,
      "삣": 1922,
      "삤": 1923,
      "삥": 1924,
      "사": 1925,
      "삭": 1926,
      "삮": 1927,
      "삯": 1928,
      "산": 1929,
      "삳": 1930,
      "살": 1931,
      "삵": 1932,
      "삶": 1933,
      "삷": 1934,
      "삺": 1935,
      "삻": 1936,
      "삼": 1937,
      "삽": 1938,
      "삿": 1939,
      "샀": 1940,
      "상": 1941,
      "샂": 1942,
      "샃": 1943,
      "샄": 1944,
      "샅": 1945,
      "샆": 1946,
      "샇": 1947,
      "새": 1948,
      "색": 1949,
      "샊": 1950,
      "샌": 1951,
      "샏": 1952,
      "샐": 1953,
      "샘": 1954,
      "샙": 1955,
      "샛": 1956,
      "샜": 1957,
      "생": 1958,
      "샠": 1959,
      "샡": 1960,
      "샤": 1961,
      "샥": 1962,
      "샨": 1963,
      "샬": 1964,
      "샴": 1965,
      "샵": 1966,
      "샷": 1967,
      "샸": 1968,
      "샹": 1969,
      "샾": 1970,
      "섀": 1971,
      "섁": 1972,
      "섄": 1973,
      "섈": 1974,
      "섐": 1975,
      "섕": 1976,
      "서": 1977,
      "석": 1978,
      "섞": 1979,
      "섟": 1980,
      "선": 1981,
      "섢": 1982,
      "섣": 1983,
      "설": 1984,
      "섥": 1985,
      "섦": 1986,
      "섧": 1987,
      "섩": 1988,
      "섫": 1989,
      "섬": 1990,
      "섭": 1991,
      "섯": 1992,
      "섰": 1993,
      "성": 1994,
      "섲": 1995,
      "섴": 1996,
      "섵": 1997,
      "섶": 1998,
      "세": 1999,
      "섹": 2000,
      "섺": 2001,
      "섻": 2002,
      "센": 2003,
      "섿": 2004,
      "셀": 2005,
      "셈": 2006,
      "셉": 2007,
      "셋": 2008,
      "셌": 2009,
      "셍": 2010,
      "셎": 2011,
      "셐": 2012,
      "셑": 2013,
      "셒": 2014,
      "셓": 2015,
      "셔": 2016,
      "셕": 2017,
      "셖": 2018,
      "션": 2019,
      "셜": 2020,
      "셤": 2021,
      "셥": 2022,
      "셧": 2023,
      "셨": 2024,
      "셩": 2025,
      "셯": 2026,
      "셰": 2027,
      "셱": 2028,
      "셴": 2029,
      "셸": 2030,
      "솀": 2031,
      "솁": 2032,
      "솃": 2033,
      "솄": 2034,
      "솅": 2035,
      "솊": 2036,
      "소": 2037,
      "속": 2038,
      "솎": 2039,
      "손": 2040,
      "솓": 2041,
      "솔": 2042,
      "솜": 2043,
      "솝": 2044,
      "솟": 2045,
      "송": 2046,
      "솣": 2047,
      "솤": 2048,
      "솥": 2049,
      "솦": 2050,
      "솨": 2051,
      "솩": 2052,
      "솬": 2053,
      "솰": 2054,
      "솹": 2055,
      "솽": 2056,
      "쇄": 2057,
      "쇅": 2058,
      "쇘": 2059,
      "쇙": 2060,
      "쇠": 2061,
      "쇤": 2062,
      "쇨": 2063,
      "쇰": 2064,
      "쇱": 2065,
      "쇳": 2066,
      "쇴": 2067,
      "쇼": 2068,
      "쇽": 2069,
      "숀": 2070,
      "숄": 2071,
      "숌": 2072,
      "숍": 2073,
      "숏": 2074,
      "숑": 2075,
      "숔": 2076,
      "숖": 2077,
      "수": 2078,
      "숙": 2079,
      "숚": 2080,
      "순": 2081,
      "숟": 2082,
      "술": 2083,
      "숢": 2084,
      "숨": 2085,
      "숩": 2086,
      "숫": 2087,
      "숭": 2088,
      "숮": 2089,
      "숯": 2090,
      "숱": 2091,
      "숲": 2092,
      "숴": 2093,
      "숼": 2094,
      "쉄": 2095,
      "쉅": 2096,
      "쉈": 2097,
      "쉐": 2098,
      "쉑": 2099,
      "쉒": 2100,
      "쉔": 2101,
      "쉘": 2102,
      "쉠": 2103,
      "쉡": 2104,
      "쉣": 2105,
      "쉥": 2106,
      "쉪": 2107,
      "쉬": 2108,
      "쉭": 2109,
      "쉰": 2110,
      "쉴": 2111,
      "쉼": 2112,
      "쉽": 2113,
      "쉿": 2114,
      "슁": 2115,
      "슆": 2116,
      "슈": 2117,
      "슉": 2118,
      "슌": 2119,
      "슏": 2120,
      "슐": 2121,
      "슘": 2122,
      "슙": 2123,
      "슛": 2124,
      "슝": 2125,
      "슡": 2126,
      "스": 2127,
      "슥": 2128,
      "슨": 2129,
      "슫": 2130,
      "슬": 2131,
      "슭": 2132,
      "슮": 2133,
      "슯": 2134,
      "슴": 2135,
      "습": 2136,
      "슶": 2137,
      "슷": 2138,
      "슸": 2139,
      "승": 2140,
      "슺": 2141,
      "슼": 2142,
      "슽": 2143,
      "슾": 2144,
      "싀": 2145,
      "싄": 2146,
      "싈": 2147,
      "싑": 2148,
      "싕": 2149,
      "시": 2150,
      "식": 2151,
      "싞": 2152,
      "싟": 2153,
      "신": 2154,
      "싢": 2155,
      "싣": 2156,
      "실": 2157,
      "싦": 2158,
      "싧": 2159,
      "싨": 2160,
      "싩": 2161,
      "싫": 2162,
      "심": 2163,
      "십": 2164,
      "싮": 2165,
      "싯": 2166,
      "싰": 2167,
      "싱": 2168,
      "싲": 2169,
      "싳": 2170,
      "싴": 2171,
      "싵": 2172,
      "싶": 2173,
      "싷": 2174,
      "싸": 2175,
      "싹": 2176,
      "싻": 2177,
      "싼": 2178,
      "싾": 2179,
      "싿": 2180,
      "쌀": 2181,
      "쌂": 2182,
      "쌇": 2183,
      "쌈": 2184,
      "쌉": 2185,
      "쌋": 2186,
      "쌌": 2187,
      "쌍": 2188,
      "쌓": 2189,
      "쌔": 2190,
      "쌕": 2191,
      "쌘": 2192,
      "쌜": 2193,
      "쌤": 2194,
      "쌥": 2195,
      "쌨": 2196,
      "쌩": 2197,
      "쌰": 2198,
      "쌱": 2199,
      "썀": 2200,
      "썁": 2201,
      "썅": 2202,
      "썌": 2203,
      "썜": 2204,
      "썡": 2205,
      "써": 2206,
      "썩": 2207,
      "썪": 2208,
      "썬": 2209,
      "썰": 2210,
      "썲": 2211,
      "썸": 2212,
      "썹": 2213,
      "썻": 2214,
      "썼": 2215,
      "썽": 2216,
      "쎄": 2217,
      "쎅": 2218,
      "쎆": 2219,
      "쎈": 2220,
      "쎌": 2221,
      "쎔": 2222,
      "쎕": 2223,
      "쎗": 2224,
      "쎘": 2225,
      "쎙": 2226,
      "쎠": 2227,
      "쎤": 2228,
      "쎰": 2229,
      "쎴": 2230,
      "쎼": 2231,
      "쎾": 2232,
      "쏀": 2233,
      "쏘": 2234,
      "쏙": 2235,
      "쏚": 2236,
      "쏜": 2237,
      "쏟": 2238,
      "쏠": 2239,
      "쏨": 2240,
      "쏩": 2241,
      "쏫": 2242,
      "쏬": 2243,
      "쏭": 2244,
      "쏮": 2245,
      "쏱": 2246,
      "쏳": 2247,
      "쏴": 2248,
      "쏵": 2249,
      "쏸": 2250,
      "쏼": 2251,
      "쐄": 2252,
      "쐇": 2253,
      "쐈": 2254,
      "쐏": 2255,
      "쐐": 2256,
      "쐤": 2257,
      "쐬": 2258,
      "쐰": 2259,
      "쐴": 2260,
      "쐼": 2261,
      "쐽": 2262,
      "쑈": 2263,
      "쑌": 2264,
      "쑙": 2265,
      "쑛": 2266,
      "쑝": 2267,
      "쑤": 2268,
      "쑥": 2269,
      "쑦": 2270,
      "쑨": 2271,
      "쑬": 2272,
      "쑴": 2273,
      "쑵": 2274,
      "쑷": 2275,
      "쑹": 2276,
      "쑻": 2277,
      "쑽": 2278,
      "쒀": 2279,
      "쒄": 2280,
      "쒔": 2281,
      "쒛": 2282,
      "쒜": 2283,
      "쒯": 2284,
      "쒰": 2285,
      "쒸": 2286,
      "쒼": 2287,
      "쓀": 2288,
      "쓉": 2289,
      "쓍": 2290,
      "쓑": 2291,
      "쓔": 2292,
      "쓕": 2293,
      "쓤": 2294,
      "쓥": 2295,
      "쓩": 2296,
      "쓰": 2297,
      "쓱": 2298,
      "쓲": 2299,
      "쓴": 2300,
      "쓷": 2301,
      "쓸": 2302,
      "쓺": 2303,
      "쓿": 2304,
      "씀": 2305,
      "씁": 2306,
      "씃": 2307,
      "씄": 2308,
      "씅": 2309,
      "씈": 2310,
      "씌": 2311,
      "씐": 2312,
      "씔": 2313,
      "씜": 2314,
      "씝": 2315,
      "씡": 2316,
      "씨": 2317,
      "씩": 2318,
      "씬": 2319,
      "씯": 2320,
      "씰": 2321,
      "씸": 2322,
      "씹": 2323,
      "씻": 2324,
      "씼": 2325,
      "씽": 2326,
      "씾": 2327,
      "앁": 2328,
      "앂": 2329,
      "앃": 2330,
      "아": 2331,
      "악": 2332,
      "앆": 2333,
      "안": 2334,
      "앉": 2335,
      "않": 2336,
      "앋": 2337,
      "알": 2338,
      "앍": 2339,
      "앎": 2340,
      "앏": 2341,
      "앓": 2342,
      "암": 2343,
      "압": 2344,
      "앖": 2345,
      "앗": 2346,
      "았": 2347,
      "앙": 2348,
      "앚": 2349,
      "앜": 2350,
      "앝": 2351,
      "앞": 2352,
      "앟": 2353,
      "애": 2354,
      "액": 2355,
      "앢": 2356,
      "앤": 2357,
      "앨": 2358,
      "앫": 2359,
      "앰": 2360,
      "앱": 2361,
      "앲": 2362,
      "앳": 2363,
      "앴": 2364,
      "앵": 2365,
      "앹": 2366,
      "앺": 2367,
      "앻": 2368,
      "야": 2369,
      "약": 2370,
      "얀": 2371,
      "얂": 2372,
      "얃": 2373,
      "얄": 2374,
      "얅": 2375,
      "얆": 2376,
      "얇": 2377,
      "얉": 2378,
      "얊": 2379,
      "얋": 2380,
      "얌": 2381,
      "얍": 2382,
      "얏": 2383,
      "얐": 2384,
      "양": 2385,
      "얔": 2386,
      "얕": 2387,
      "얖": 2388,
      "얗": 2389,
      "얘": 2390,
      "얙": 2391,
      "얜": 2392,
      "얠": 2393,
      "얨": 2394,
      "얩": 2395,
      "얪": 2396,
      "얬": 2397,
      "얭": 2398,
      "어": 2399,
      "억": 2400,
      "얶": 2401,
      "얷": 2402,
      "언": 2403,
      "얹": 2404,
      "얺": 2405,
      "얻": 2406,
      "얼": 2407,
      "얽": 2408,
      "얾": 2409,
      "엃": 2410,
      "엄": 2411,
      "업": 2412,
      "없": 2413,
      "엇": 2414,
      "었": 2415,
      "엉": 2416,
      "엊": 2417,
      "엌": 2418,
      "엍": 2419,
      "엎": 2420,
      "엏": 2421,
      "에": 2422,
      "엑": 2423,
      "엓": 2424,
      "엔": 2425,
      "엗": 2426,
      "엘": 2427,
      "엙": 2428,
      "엠": 2429,
      "엡": 2430,
      "엣": 2431,
      "엤": 2432,
      "엥": 2433,
      "엦": 2434,
      "엧": 2435,
      "엨": 2436,
      "엩": 2437,
      "엪": 2438,
      "여": 2439,
      "역": 2440,
      "엮": 2441,
      "연": 2442,
      "엲": 2443,
      "엳": 2444,
      "열": 2445,
      "엵": 2446,
      "엶": 2447,
      "엷": 2448,
      "엸": 2449,
      "엹": 2450,
      "엻": 2451,
      "염": 2452,
      "엽": 2453,
      "엾": 2454,
      "엿": 2455,
      "였": 2456,
      "영": 2457,
      "옃": 2458,
      "옅": 2459,
      "옆": 2460,
      "옇": 2461,
      "예": 2462,
      "옉": 2463,
      "옌": 2464,
      "옏": 2465,
      "옐": 2466,
      "옘": 2467,
      "옙": 2468,
      "옛": 2469,
      "옜": 2470,
      "옝": 2471,
      "오": 2472,
      "옥": 2473,
      "옦": 2474,
      "온": 2475,
      "옫": 2476,
      "올": 2477,
      "옭": 2478,
      "옮": 2479,
      "옯": 2480,
      "옳": 2481,
      "옴": 2482,
      "옵": 2483,
      "옶": 2484,
      "옷": 2485,
      "옸": 2486,
      "옹": 2487,
      "옺": 2488,
      "옻": 2489,
      "옼": 2490,
      "옽": 2491,
      "옾": 2492,
      "옿": 2493,
      "와": 2494,
      "왁": 2495,
      "왂": 2496,
      "완": 2497,
      "왇": 2498,
      "왈": 2499,
      "왐": 2500,
      "왑": 2501,
      "왓": 2502,
      "왔": 2503,
      "왕": 2504,
      "왘": 2505,
      "왚": 2506,
      "왜": 2507,
      "왝": 2508,
      "왠": 2509,
      "왤": 2510,
      "왬": 2511,
      "왭": 2512,
      "왯": 2513,
      "왰": 2514,
      "왱": 2515,
      "외": 2516,
      "왹": 2517,
      "왼": 2518,
      "욀": 2519,
      "욈": 2520,
      "욉": 2521,
      "욋": 2522,
      "욌": 2523,
      "욍": 2524,
      "요": 2525,
      "욕": 2526,
      "욖": 2527,
      "욘": 2528,
      "욛": 2529,
      "욜": 2530,
      "욤": 2531,
      "욥": 2532,
      "욧": 2533,
      "욨": 2534,
      "용": 2535,
      "욪": 2536,
      "욬": 2537,
      "욭": 2538,
      "욮": 2539,
      "욯": 2540,
      "우": 2541,
      "욱": 2542,
      "욲": 2543,
      "욳": 2544,
      "운": 2545,
      "욵": 2546,
      "욷": 2547,
      "울": 2548,
      "욹": 2549,
      "욺": 2550,
      "욽": 2551,
      "욾": 2552,
      "움": 2553,
      "웁": 2554,
      "웂": 2555,
      "웃": 2556,
      "웄": 2557,
      "웅": 2558,
      "웇": 2559,
      "웈": 2560,
      "웊": 2561,
      "웋": 2562,
      "워": 2563,
      "웍": 2564,
      "웎": 2565,
      "웏": 2566,
      "원": 2567,
      "웑": 2568,
      "웒": 2569,
      "웓": 2570,
      "월": 2571,
      "웕": 2572,
      "웗": 2573,
      "웚": 2574,
      "웛": 2575,
      "웜": 2576,
      "웝": 2577,
      "웟": 2578,
      "웠": 2579,
      "웡": 2580,
      "웤": 2581,
      "웥": 2582,
      "웧": 2583,
      "웨": 2584,
      "웩": 2585,
      "웬": 2586,
      "웯": 2587,
      "웰": 2588,
      "웱": 2589,
      "웷": 2590,
      "웸": 2591,
      "웹": 2592,
      "웻": 2593,
      "웽": 2594,
      "윁": 2595,
      "위": 2596,
      "윅": 2597,
      "윈": 2598,
      "윌": 2599,
      "윔": 2600,
      "윕": 2601,
      "윗": 2602,
      "윙": 2603,
      "윛": 2604,
      "윜": 2605,
      "유": 2606,
      "육": 2607,
      "윢": 2608,
      "윣": 2609,
      "윤": 2610,
      "윦": 2611,
      "윧": 2612,
      "율": 2613,
      "윪": 2614,
      "윫": 2615,
      "윯": 2616,
      "윰": 2617,
      "윱": 2618,
      "윳": 2619,
      "융": 2620,
      "윶": 2621,
      "윷": 2622,
      "윸": 2623,
      "윺": 2624,
      "윻": 2625,
      "으": 2626,
      "윽": 2627,
      "윾": 2628,
      "은": 2629,
      "읁": 2630,
      "읃": 2631,
      "을": 2632,
      "읅": 2633,
      "읆": 2634,
      "읇": 2635,
      "읉": 2636,
      "읊": 2637,
      "읋": 2638,
      "음": 2639,
      "읍": 2640,
      "읎": 2641,
      "읏": 2642,
      "읐": 2643,
      "응": 2644,
      "읒": 2645,
      "읓": 2646,
      "읔": 2647,
      "읕": 2648,
      "읖": 2649,
      "읗": 2650,
      "의": 2651,
      "읜": 2652,
      "읠": 2653,
      "읨": 2654,
      "읪": 2655,
      "읫": 2656,
      "읭": 2657,
      "읮": 2658,
      "읱": 2659,
      "이": 2660,
      "익": 2661,
      "읶": 2662,
      "읷": 2663,
      "인": 2664,
      "읹": 2665,
      "읺": 2666,
      "읻": 2667,
      "일": 2668,
      "읽": 2669,
      "읾": 2670,
      "읿": 2671,
      "잀": 2672,
      "잃": 2673,
      "임": 2674,
      "입": 2675,
      "잆": 2676,
      "잇": 2677,
      "있": 2678,
      "잉": 2679,
      "잊": 2680,
      "잋": 2681,
      "잌": 2682,
      "잍": 2683,
      "잎": 2684,
      "잏": 2685,
      "자": 2686,
      "작": 2687,
      "잔": 2688,
      "잖": 2689,
      "잗": 2690,
      "잘": 2691,
      "잙": 2692,
      "잚": 2693,
      "잛": 2694,
      "잟": 2695,
      "잠": 2696,
      "잡": 2697,
      "잣": 2698,
      "잤": 2699,
      "장": 2700,
      "잦": 2701,
      "잧": 2702,
      "잨": 2703,
      "잩": 2704,
      "잪": 2705,
      "잫": 2706,
      "재": 2707,
      "잭": 2708,
      "잰": 2709,
      "잴": 2710,
      "잼": 2711,
      "잽": 2712,
      "잿": 2713,
      "쟀": 2714,
      "쟁": 2715,
      "쟂": 2716,
      "쟆": 2717,
      "쟇": 2718,
      "쟈": 2719,
      "쟉": 2720,
      "쟌": 2721,
      "쟎": 2722,
      "쟏": 2723,
      "쟐": 2724,
      "쟘": 2725,
      "쟙": 2726,
      "쟛": 2727,
      "쟜": 2728,
      "쟝": 2729,
      "쟞": 2730,
      "쟤": 2731,
      "쟨": 2732,
      "쟬": 2733,
      "쟹": 2734,
      "저": 2735,
      "적": 2736,
      "젂": 2737,
      "젃": 2738,
      "전": 2739,
      "젅": 2740,
      "젆": 2741,
      "젇": 2742,
      "절": 2743,
      "젊": 2744,
      "젋": 2745,
      "젏": 2746,
      "점": 2747,
      "접": 2748,
      "젒": 2749,
      "젓": 2750,
      "젔": 2751,
      "정": 2752,
      "젖": 2753,
      "젗": 2754,
      "젚": 2755,
      "젛": 2756,
      "제": 2757,
      "젝": 2758,
      "젠": 2759,
      "젣": 2760,
      "젤": 2761,
      "젨": 2762,
      "젬": 2763,
      "젭": 2764,
      "젯": 2765,
      "젱": 2766,
      "젲": 2767,
      "젳": 2768,
      "젴": 2769,
      "젵": 2770,
      "져": 2771,
      "젹": 2772,
      "젼": 2773,
      "졀": 2774,
      "졈": 2775,
      "졉": 2776,
      "졋": 2777,
      "졌": 2778,
      "졍": 2779,
      "졎": 2780,
      "졏": 2781,
      "졔": 2782,
      "졘": 2783,
      "졥": 2784,
      "조": 2785,
      "족": 2786,
      "존": 2787,
      "졷": 2788,
      "졸": 2789,
      "졻": 2790,
      "졽": 2791,
      "졿": 2792,
      "좀": 2793,
      "좁": 2794,
      "좃": 2795,
      "종": 2796,
      "좆": 2797,
      "좇": 2798,
      "좉": 2799,
      "좊": 2800,
      "좋": 2801,
      "좌": 2802,
      "좍": 2803,
      "좐": 2804,
      "좔": 2805,
      "좟": 2806,
      "좡": 2807,
      "좢": 2808,
      "좥": 2809,
      "좦": 2810,
      "좨": 2811,
      "좬": 2812,
      "좭": 2813,
      "죄": 2814,
      "죈": 2815,
      "죌": 2816,
      "죔": 2817,
      "죕": 2818,
      "죗": 2819,
      "죘": 2820,
      "죙": 2821,
      "죠": 2822,
      "죡": 2823,
      "죤": 2824,
      "죨": 2825,
      "죰": 2826,
      "죱": 2827,
      "죳": 2828,
      "죵": 2829,
      "죶": 2830,
      "죷": 2831,
      "죻": 2832,
      "주": 2833,
      "죽": 2834,
      "준": 2835,
      "줃": 2836,
      "줄": 2837,
      "줌": 2838,
      "줍": 2839,
      "줎": 2840,
      "줏": 2841,
      "중": 2842,
      "줒": 2843,
      "줓": 2844,
      "줕": 2845,
      "줖": 2846,
      "줗": 2847,
      "줘": 2848,
      "줜": 2849,
      "줠": 2850,
      "줫": 2851,
      "줬": 2852,
      "줭": 2853,
      "줮": 2854,
      "줳": 2855,
      "줴": 2856,
      "줸": 2857,
      "줼": 2858,
      "쥅": 2859,
      "쥇": 2860,
      "쥉": 2861,
      "쥐": 2862,
      "쥑": 2863,
      "쥔": 2864,
      "쥘": 2865,
      "쥠": 2866,
      "쥡": 2867,
      "쥣": 2868,
      "쥤": 2869,
      "쥬": 2870,
      "쥭": 2871,
      "쥰": 2872,
      "쥴": 2873,
      "쥼": 2874,
      "쥽": 2875,
      "즁": 2876,
      "즇": 2877,
      "즈": 2878,
      "즉": 2879,
      "즌": 2880,
      "즏": 2881,
      "즐": 2882,
      "즘": 2883,
      "즙": 2884,
      "즛": 2885,
      "증": 2886,
      "즞": 2887,
      "즣": 2888,
      "즤": 2889,
      "즨": 2890,
      "즩": 2891,
      "즬": 2892,
      "지": 2893,
      "직": 2894,
      "짂": 2895,
      "진": 2896,
      "짅": 2897,
      "짆": 2898,
      "짇": 2899,
      "질": 2900,
      "짊": 2901,
      "짋": 2902,
      "짏": 2903,
      "짐": 2904,
      "집": 2905,
      "짓": 2906,
      "짔": 2907,
      "징": 2908,
      "짖": 2909,
      "짗": 2910,
      "짘": 2911,
      "짙": 2912,
      "짚": 2913,
      "짛": 2914,
      "짜": 2915,
      "짝": 2916,
      "짞": 2917,
      "짠": 2918,
      "짢": 2919,
      "짤": 2920,
      "짥": 2921,
      "짦": 2922,
      "짧": 2923,
      "짩": 2924,
      "짪": 2925,
      "짬": 2926,
      "짭": 2927,
      "짮": 2928,
      "짯": 2929,
      "짰": 2930,
      "짱": 2931,
      "짲": 2932,
      "짴": 2933,
      "째": 2934,
      "짹": 2935,
      "짼": 2936,
      "쨀": 2937,
      "쨈": 2938,
      "쨉": 2939,
      "쨋": 2940,
      "쨌": 2941,
      "쨍": 2942,
      "쨎": 2943,
      "쨓": 2944,
      "쨔": 2945,
      "쨕": 2946,
      "쨘": 2947,
      "쨜": 2948,
      "쨤": 2949,
      "쨥": 2950,
      "쨩": 2951,
      "쨰": 2952,
      "쨱": 2953,
      "쨴": 2954,
      "쩁": 2955,
      "쩃": 2956,
      "쩄": 2957,
      "쩅": 2958,
      "쩌": 2959,
      "쩍": 2960,
      "쩐": 2961,
      "쩔": 2962,
      "쩜": 2963,
      "쩝": 2964,
      "쩟": 2965,
      "쩠": 2966,
      "쩡": 2967,
      "쩣": 2968,
      "쩧": 2969,
      "쩨": 2970,
      "쩬": 2971,
      "쩰": 2972,
      "쩸": 2973,
      "쩻": 2974,
      "쩼": 2975,
      "쩽": 2976,
      "쪄": 2977,
      "쪅": 2978,
      "쪈": 2979,
      "쪌": 2980,
      "쪕": 2981,
      "쪗": 2982,
      "쪘": 2983,
      "쪙": 2984,
      "쪠": 2985,
      "쪼": 2986,
      "쪽": 2987,
      "쪾": 2988,
      "쫀": 2989,
      "쫄": 2990,
      "쫌": 2991,
      "쫍": 2992,
      "쫏": 2993,
      "쫑": 2994,
      "쫒": 2995,
      "쫓": 2996,
      "쫗": 2997,
      "쫘": 2998,
      "쫙": 2999,
      "쫜": 3000,
      "쫠": 3001,
      "쫩": 3002,
      "쫫": 3003,
      "쫭": 3004,
      "쫳": 3005,
      "쫴": 3006,
      "쫼": 3007,
      "쬐": 3008,
      "쬔": 3009,
      "쬘": 3010,
      "쬠": 3011,
      "쬡": 3012,
      "쬬": 3013,
      "쬭": 3014,
      "쬰": 3015,
      "쬼": 3016,
      "쭁": 3017,
      "쭈": 3018,
      "쭉": 3019,
      "쭌": 3020,
      "쭐": 3021,
      "쭘": 3022,
      "쭙": 3023,
      "쭛": 3024,
      "쭝": 3025,
      "쭤": 3026,
      "쭸": 3027,
      "쮀": 3028,
      "쮜": 3029,
      "쮠": 3030,
      "쮸": 3031,
      "쯉": 3032,
      "쯍": 3033,
      "쯔": 3034,
      "쯕": 3035,
      "쯘": 3036,
      "쯜": 3037,
      "쯤": 3038,
      "쯥": 3039,
      "쯧": 3040,
      "쯩": 3041,
      "쯰": 3042,
      "쯱": 3043,
      "찌": 3044,
      "찍": 3045,
      "찎": 3046,
      "찐": 3047,
      "찔": 3048,
      "찗": 3049,
      "찜": 3050,
      "찝": 3051,
      "찟": 3052,
      "찡": 3053,
      "찢": 3054,
      "찣": 3055,
      "찥": 3056,
      "찦": 3057,
      "찧": 3058,
      "차": 3059,
      "착": 3060,
      "찬": 3061,
      "찭": 3062,
      "찮": 3063,
      "찯": 3064,
      "찰": 3065,
      "참": 3066,
      "찹": 3067,
      "찻": 3068,
      "찼": 3069,
      "창": 3070,
      "찾": 3071,
      "찿": 3072,
      "챀": 3073,
      "챂": 3074,
      "챃": 3075,
      "채": 3076,
      "책": 3077,
      "챈": 3078,
      "챋": 3079,
      "챌": 3080,
      "챍": 3081,
      "챔": 3082,
      "챕": 3083,
      "챗": 3084,
      "챘": 3085,
      "챙": 3086,
      "챚": 3087,
      "챝": 3088,
      "챠": 3089,
      "챡": 3090,
      "챤": 3091,
      "챦": 3092,
      "챨": 3093,
      "챰": 3094,
      "챱": 3095,
      "챳": 3096,
      "챴": 3097,
      "챵": 3098,
      "챸": 3099,
      "챼": 3100,
      "첌": 3101,
      "처": 3102,
      "척": 3103,
      "첚": 3104,
      "천": 3105,
      "첝": 3106,
      "첟": 3107,
      "철": 3108,
      "첡": 3109,
      "첨": 3110,
      "첩": 3111,
      "첫": 3112,
      "첬": 3113,
      "청": 3114,
      "첮": 3115,
      "첯": 3116,
      "체": 3117,
      "첵": 3118,
      "첸": 3119,
      "첼": 3120,
      "쳄": 3121,
      "쳅": 3122,
      "쳇": 3123,
      "쳉": 3124,
      "쳌": 3125,
      "쳐": 3126,
      "쳑": 3127,
      "쳔": 3128,
      "쳘": 3129,
      "쳡": 3130,
      "쳣": 3131,
      "쳤": 3132,
      "쳥": 3133,
      "쳬": 3134,
      "쳰": 3135,
      "초": 3136,
      "촉": 3137,
      "촌": 3138,
      "촏": 3139,
      "촐": 3140,
      "촘": 3141,
      "촙": 3142,
      "촛": 3143,
      "총": 3144,
      "촞": 3145,
      "촟": 3146,
      "촣": 3147,
      "촤": 3148,
      "촥": 3149,
      "촨": 3150,
      "촬": 3151,
      "촵": 3152,
      "촹": 3153,
      "쵀": 3154,
      "쵄": 3155,
      "쵈": 3156,
      "쵔": 3157,
      "최": 3158,
      "쵝": 3159,
      "쵠": 3160,
      "쵤": 3161,
      "쵯": 3162,
      "쵱": 3163,
      "쵸": 3164,
      "쵹": 3165,
      "춀": 3166,
      "춈": 3167,
      "춉": 3168,
      "춋": 3169,
      "춍": 3170,
      "춓": 3171,
      "추": 3172,
      "축": 3173,
      "춗": 3174,
      "춘": 3175,
      "출": 3176,
      "춝": 3177,
      "춡": 3178,
      "춢": 3179,
      "춣": 3180,
      "춤": 3181,
      "춥": 3182,
      "춧": 3183,
      "충": 3184,
      "춪": 3185,
      "춫": 3186,
      "춬": 3187,
      "춮": 3188,
      "춯": 3189,
      "춰": 3190,
      "춴": 3191,
      "춸": 3192,
      "췃": 3193,
      "췄": 3194,
      "췌": 3195,
      "췍": 3196,
      "췐": 3197,
      "췝": 3198,
      "췟": 3199,
      "취": 3200,
      "췩": 3201,
      "췬": 3202,
      "췰": 3203,
      "췸": 3204,
      "췹": 3205,
      "췻": 3206,
      "츄": 3207,
      "츅": 3208,
      "츈": 3209,
      "츌": 3210,
      "츔": 3211,
      "츕": 3212,
      "츙": 3213,
      "츠": 3214,
      "측": 3215,
      "츤": 3216,
      "츧": 3217,
      "츨": 3218,
      "츰": 3219,
      "츳": 3220,
      "층": 3221,
      "츼": 3222,
      "치": 3223,
      "칙": 3224,
      "친": 3225,
      "칟": 3226,
      "칠": 3227,
      "칡": 3228,
      "칢": 3229,
      "침": 3230,
      "칩": 3231,
      "칫": 3232,
      "칬": 3233,
      "칭": 3234,
      "칮": 3235,
      "칰": 3236,
      "칱": 3237,
      "칲": 3238,
      "카": 3239,
      "칵": 3240,
      "칸": 3241,
      "칻": 3242,
      "칼": 3243,
      "캄": 3244,
      "캅": 3245,
      "캇": 3246,
      "캉": 3247,
      "캊": 3248,
      "캍": 3249,
      "캎": 3250,
      "캐": 3251,
      "캑": 3252,
      "캔": 3253,
      "캘": 3254,
      "캙": 3255,
      "캠": 3256,
      "캡": 3257,
      "캣": 3258,
      "캤": 3259,
      "캥": 3260,
      "캨": 3261,
      "캪": 3262,
      "캬": 3263,
      "캭": 3264,
      "캰": 3265,
      "캴": 3266,
      "컁": 3267,
      "컄": 3268,
      "커": 3269,
      "컥": 3270,
      "컨": 3271,
      "컫": 3272,
      "컬": 3273,
      "컱": 3274,
      "컴": 3275,
      "컵": 3276,
      "컷": 3277,
      "컸": 3278,
      "컹": 3279,
      "컼": 3280,
      "컽": 3281,
      "컾": 3282,
      "케": 3283,
      "켁": 3284,
      "켄": 3285,
      "켈": 3286,
      "켐": 3287,
      "켑": 3288,
      "켓": 3289,
      "켔": 3290,
      "켕": 3291,
      "켙": 3292,
      "켚": 3293,
      "켛": 3294,
      "켜": 3295,
      "켝": 3296,
      "켠": 3297,
      "켤": 3298,
      "켬": 3299,
      "켭": 3300,
      "켯": 3301,
      "켰": 3302,
      "켱": 3303,
      "켸": 3304,
      "코": 3305,
      "콕": 3306,
      "콘": 3307,
      "콜": 3308,
      "콤": 3309,
      "콥": 3310,
      "콧": 3311,
      "콩": 3312,
      "콫": 3313,
      "콬": 3314,
      "콭": 3315,
      "콮": 3316,
      "콰": 3317,
      "콱": 3318,
      "콴": 3319,
      "콸": 3320,
      "쾀": 3321,
      "쾃": 3322,
      "쾅": 3323,
      "쾌": 3324,
      "쾍": 3325,
      "쾡": 3326,
      "쾨": 3327,
      "쾬": 3328,
      "쾰": 3329,
      "쾽": 3330,
      "쿄": 3331,
      "쿅": 3332,
      "쿈": 3333,
      "쿔": 3334,
      "쿙": 3335,
      "쿠": 3336,
      "쿡": 3337,
      "쿤": 3338,
      "쿧": 3339,
      "쿨": 3340,
      "쿰": 3341,
      "쿱": 3342,
      "쿳": 3343,
      "쿵": 3344,
      "쿸": 3345,
      "쿼": 3346,
      "쿽": 3347,
      "퀀": 3348,
      "퀄": 3349,
      "퀌": 3350,
      "퀑": 3351,
      "퀘": 3352,
      "퀙": 3353,
      "퀜": 3354,
      "퀠": 3355,
      "퀩": 3356,
      "퀭": 3357,
      "퀴": 3358,
      "퀵": 3359,
      "퀸": 3360,
      "퀼": 3361,
      "큁": 3362,
      "큄": 3363,
      "큅": 3364,
      "큇": 3365,
      "큉": 3366,
      "큐": 3367,
      "큔": 3368,
      "큗": 3369,
      "큘": 3370,
      "큠": 3371,
      "큡": 3372,
      "큣": 3373,
      "큥": 3374,
      "큨": 3375,
      "크": 3376,
      "큭": 3377,
      "큰": 3378,
      "클": 3379,
      "큼": 3380,
      "큽": 3381,
      "큿": 3382,
      "킁": 3383,
      "킂": 3384,
      "킄": 3385,
      "킅": 3386,
      "킈": 3387,
      "킉": 3388,
      "킌": 3389,
      "킐": 3390,
      "킙": 3391,
      "키": 3392,
      "킥": 3393,
      "킨": 3394,
      "킬": 3395,
      "킮": 3396,
      "킴": 3397,
      "킵": 3398,
      "킷": 3399,
      "킸": 3400,
      "킹": 3401,
      "킻": 3402,
      "킼": 3403,
      "킿": 3404,
      "타": 3405,
      "탁": 3406,
      "탂": 3407,
      "탄": 3408,
      "탇": 3409,
      "탈": 3410,
      "탉": 3411,
      "탐": 3412,
      "탑": 3413,
      "탒": 3414,
      "탓": 3415,
      "탔": 3416,
      "탕": 3417,
      "탘": 3418,
      "탙": 3419,
      "탚": 3420,
      "태": 3421,
      "택": 3422,
      "탟": 3423,
      "탠": 3424,
      "탣": 3425,
      "탤": 3426,
      "탬": 3427,
      "탭": 3428,
      "탯": 3429,
      "탰": 3430,
      "탱": 3431,
      "탴": 3432,
      "탵": 3433,
      "탶": 3434,
      "탸": 3435,
      "탹": 3436,
      "탼": 3437,
      "턀": 3438,
      "턔": 3439,
      "턣": 3440,
      "터": 3441,
      "턱": 3442,
      "턴": 3443,
      "털": 3444,
      "텀": 3445,
      "텁": 3446,
      "텃": 3447,
      "텄": 3448,
      "텅": 3449,
      "텉": 3450,
      "텊": 3451,
      "텋": 3452,
      "테": 3453,
      "텍": 3454,
      "텐": 3455,
      "텓": 3456,
      "텔": 3457,
      "텖": 3458,
      "템": 3459,
      "텝": 3460,
      "텟": 3461,
      "텡": 3462,
      "텤": 3463,
      "텥": 3464,
      "텦": 3465,
      "텨": 3466,
      "텩": 3467,
      "텬": 3468,
      "텻": 3469,
      "텼": 3470,
      "텽": 3471,
      "톄": 3472,
      "톈": 3473,
      "토": 3474,
      "톡": 3475,
      "톤": 3476,
      "톧": 3477,
      "톨": 3478,
      "톩": 3479,
      "톰": 3480,
      "톱": 3481,
      "톳": 3482,
      "통": 3483,
      "톷": 3484,
      "톸": 3485,
      "톹": 3486,
      "톺": 3487,
      "톻": 3488,
      "톼": 3489,
      "퇀": 3490,
      "퇄": 3491,
      "퇘": 3492,
      "퇬": 3493,
      "퇴": 3494,
      "퇵": 3495,
      "퇼": 3496,
      "툇": 3497,
      "툉": 3498,
      "툏": 3499,
      "툐": 3500,
      "툠": 3501,
      "툥": 3502,
      "투": 3503,
      "툭": 3504,
      "툰": 3505,
      "툴": 3506,
      "툼": 3507,
      "툽": 3508,
      "툿": 3509,
      "퉁": 3510,
      "퉅": 3511,
      "퉈": 3512,
      "퉍": 3513,
      "퉜": 3514,
      "퉝": 3515,
      "퉤": 3516,
      "퉷": 3517,
      "튀": 3518,
      "튁": 3519,
      "튄": 3520,
      "튈": 3521,
      "튐": 3522,
      "튑": 3523,
      "튓": 3524,
      "튕": 3525,
      "튘": 3526,
      "튜": 3527,
      "튠": 3528,
      "튤": 3529,
      "튬": 3530,
      "튭": 3531,
      "튱": 3532,
      "트": 3533,
      "특": 3534,
      "튺": 3535,
      "튼": 3536,
      "튽": 3537,
      "튿": 3538,
      "틀": 3539,
      "틂": 3540,
      "틈": 3541,
      "틉": 3542,
      "틋": 3543,
      "틍": 3544,
      "틎": 3545,
      "틐": 3546,
      "틑": 3547,
      "틒": 3548,
      "틓": 3549,
      "틔": 3550,
      "틘": 3551,
      "틜": 3552,
      "틤": 3553,
      "틥": 3554,
      "틧": 3555,
      "틩": 3556,
      "티": 3557,
      "틱": 3558,
      "틴": 3559,
      "틷": 3560,
      "틸": 3561,
      "팀": 3562,
      "팁": 3563,
      "팃": 3564,
      "팅": 3565,
      "팉": 3566,
      "팊": 3567,
      "파": 3568,
      "팍": 3569,
      "팎": 3570,
      "판": 3571,
      "팑": 3572,
      "팒": 3573,
      "팔": 3574,
      "팖": 3575,
      "팜": 3576,
      "팝": 3577,
      "팟": 3578,
      "팠": 3579,
      "팡": 3580,
      "팣": 3581,
      "팤": 3582,
      "팥": 3583,
      "팦": 3584,
      "패": 3585,
      "팩": 3586,
      "팬": 3587,
      "팭": 3588,
      "팯": 3589,
      "팰": 3590,
      "팸": 3591,
      "팹": 3592,
      "팻": 3593,
      "팼": 3594,
      "팽": 3595,
      "퍀": 3596,
      "퍁": 3597,
      "퍄": 3598,
      "퍅": 3599,
      "퍈": 3600,
      "퍌": 3601,
      "퍙": 3602,
      "퍠": 3603,
      "퍼": 3604,
      "퍽": 3605,
      "펀": 3606,
      "펄": 3607,
      "펌": 3608,
      "펍": 3609,
      "펏": 3610,
      "펐": 3611,
      "펑": 3612,
      "펓": 3613,
      "펔": 3614,
      "페": 3615,
      "펙": 3616,
      "펜": 3617,
      "펠": 3618,
      "펢": 3619,
      "펨": 3620,
      "펩": 3621,
      "펫": 3622,
      "펭": 3623,
      "펰": 3624,
      "펲": 3625,
      "펴": 3626,
      "편": 3627,
      "펼": 3628,
      "폄": 3629,
      "폅": 3630,
      "폇": 3631,
      "폈": 3632,
      "평": 3633,
      "폋": 3634,
      "폎": 3635,
      "폐": 3636,
      "폔": 3637,
      "폘": 3638,
      "폡": 3639,
      "포": 3640,
      "폭": 3641,
      "폰": 3642,
      "폴": 3643,
      "폼": 3644,
      "폽": 3645,
      "폿": 3646,
      "퐁": 3647,
      "퐅": 3648,
      "퐈": 3649,
      "퐉": 3650,
      "퐌": 3651,
      "퐐": 3652,
      "퐝": 3653,
      "푀": 3654,
      "푁": 3655,
      "푄": 3656,
      "푈": 3657,
      "표": 3658,
      "푝": 3659,
      "푠": 3660,
      "푤": 3661,
      "푯": 3662,
      "푱": 3663,
      "푶": 3664,
      "푷": 3665,
      "푸": 3666,
      "푹": 3667,
      "푼": 3668,
      "푿": 3669,
      "풀": 3670,
      "풂": 3671,
      "풇": 3672,
      "품": 3673,
      "풉": 3674,
      "풋": 3675,
      "풍": 3676,
      "풒": 3677,
      "풓": 3678,
      "풔": 3679,
      "풜": 3680,
      "풤": 3681,
      "풰": 3682,
      "풱": 3683,
      "풸": 3684,
      "퓁": 3685,
      "퓌": 3686,
      "퓍": 3687,
      "퓔": 3688,
      "퓨": 3689,
      "퓩": 3690,
      "퓬": 3691,
      "퓯": 3692,
      "퓰": 3693,
      "퓸": 3694,
      "퓹": 3695,
      "퓽": 3696,
      "프": 3697,
      "픅": 3698,
      "픈": 3699,
      "플": 3700,
      "픒": 3701,
      "픔": 3702,
      "픕": 3703,
      "픗": 3704,
      "픙": 3705,
      "픝": 3706,
      "픞": 3707,
      "픠": 3708,
      "픨": 3709,
      "피": 3710,
      "픽": 3711,
      "핀": 3712,
      "핃": 3713,
      "필": 3714,
      "핌": 3715,
      "핍": 3716,
      "핏": 3717,
      "핑": 3718,
      "핔": 3719,
      "핕": 3720,
      "핖": 3721,
      "핗": 3722,
      "하": 3723,
      "학": 3724,
      "핚": 3725,
      "핛": 3726,
      "한": 3727,
      "핝": 3728,
      "핞": 3729,
      "핟": 3730,
      "할": 3731,
      "핡": 3732,
      "핣": 3733,
      "핤": 3734,
      "핥": 3735,
      "핧": 3736,
      "함": 3737,
      "합": 3738,
      "핫": 3739,
      "핬": 3740,
      "항": 3741,
      "핮": 3742,
      "핰": 3743,
      "핱": 3744,
      "핲": 3745,
      "핳": 3746,
      "해": 3747,
      "핵": 3748,
      "핷": 3749,
      "핸": 3750,
      "핻": 3751,
      "핼": 3752,
      "햄": 3753,
      "햅": 3754,
      "햇": 3755,
      "했": 3756,
      "행": 3757,
      "햊": 3758,
      "햋": 3759,
      "햌": 3760,
      "햏": 3761,
      "햐": 3762,
      "햑": 3763,
      "햔": 3764,
      "햘": 3765,
      "햝": 3766,
      "햟": 3767,
      "햠": 3768,
      "햡": 3769,
      "햣": 3770,
      "햤": 3771,
      "향": 3772,
      "햩": 3773,
      "햬": 3774,
      "햿": 3775,
      "헀": 3776,
      "헁": 3777,
      "허": 3778,
      "헉": 3779,
      "헌": 3780,
      "헐": 3781,
      "헑": 3782,
      "헒": 3783,
      "험": 3784,
      "헙": 3785,
      "헛": 3786,
      "헜": 3787,
      "헝": 3788,
      "헠": 3789,
      "헣": 3790,
      "헤": 3791,
      "헥": 3792,
      "헨": 3793,
      "헫": 3794,
      "헬": 3795,
      "헮": 3796,
      "헲": 3797,
      "헴": 3798,
      "헵": 3799,
      "헷": 3800,
      "헸": 3801,
      "헹": 3802,
      "헿": 3803,
      "혀": 3804,
      "혁": 3805,
      "현": 3806,
      "혆": 3807,
      "혇": 3808,
      "혈": 3809,
      "혌": 3810,
      "혐": 3811,
      "협": 3812,
      "혓": 3813,
      "혔": 3814,
      "형": 3815,
      "혖": 3816,
      "혛": 3817,
      "혜": 3818,
      "혠": 3819,
      "혤": 3820,
      "혬": 3821,
      "혭": 3822,
      "혱": 3823,
      "호": 3824,
      "혹": 3825,
      "혼": 3826,
      "혿": 3827,
      "홀": 3828,
      "홁": 3829,
      "홈": 3830,
      "홉": 3831,
      "홋": 3832,
      "홍": 3833,
      "홐": 3834,
      "홑": 3835,
      "홒": 3836,
      "홓": 3837,
      "화": 3838,
      "확": 3839,
      "홖": 3840,
      "홗": 3841,
      "환": 3842,
      "홛": 3843,
      "활": 3844,
      "홝": 3845,
      "홠": 3846,
      "홤": 3847,
      "홥": 3848,
      "홧": 3849,
      "홨": 3850,
      "황": 3851,
      "홮": 3852,
      "홯": 3853,
      "홰": 3854,
      "홱": 3855,
      "홴": 3856,
      "횃": 3857,
      "횄": 3858,
      "횅": 3859,
      "회": 3860,
      "획": 3861,
      "횎": 3862,
      "횐": 3863,
      "횔": 3864,
      "횝": 3865,
      "횟": 3866,
      "횡": 3867,
      "효": 3868,
      "횩": 3869,
      "횬": 3870,
      "횰": 3871,
      "횻": 3872,
      "횽": 3873,
      "훃": 3874,
      "후": 3875,
      "훅": 3876,
      "훆": 3877,
      "훈": 3878,
      "훌": 3879,
      "훍": 3880,
      "훎": 3881,
      "훑": 3882,
      "훓": 3883,
      "훔": 3884,
      "훕": 3885,
      "훗": 3886,
      "훘": 3887,
      "훙": 3888,
      "훜": 3889,
      "훝": 3890,
      "훟": 3891,
      "훠": 3892,
      "훡": 3893,
      "훤": 3894,
      "훨": 3895,
      "훰": 3896,
      "훵": 3897,
      "훻": 3898,
      "훼": 3899,
      "훽": 3900,
      "휀": 3901,
      "휄": 3902,
      "휅": 3903,
      "휏": 3904,
      "휐": 3905,
      "휑": 3906,
      "휗": 3907,
      "휘": 3908,
      "휙": 3909,
      "휜": 3910,
      "휠": 3911,
      "휨": 3912,
      "휩": 3913,
      "휫": 3914,
      "휭": 3915,
      "휴": 3916,
      "휵": 3917,
      "휸": 3918,
      "휼": 3919,
      "흄": 3920,
      "흇": 3921,
      "흉": 3922,
      "흐": 3923,
      "흑": 3924,
      "흔": 3925,
      "흗": 3926,
      "흘": 3927,
      "흙": 3928,
      "흝": 3929,
      "흟": 3930,
      "흠": 3931,
      "흡": 3932,
      "흣": 3933,
      "흥": 3934,
      "흨": 3935,
      "흩": 3936,
      "흫": 3937,
      "희": 3938,
      "흭": 3939,
      "흰": 3940,
      "흴": 3941,
      "흼": 3942,
      "흽": 3943,
      "흿": 3944,
      "힁": 3945,
      "히": 3946,
      "힉": 3947,
      "힌": 3948,
      "힏": 3949,
      "힐": 3950,
      "힘": 3951,
      "힙": 3952,
      "힛": 3953,
      "힜": 3954,
      "힝": 3955,
      "힞": 3956,
      "힠": 3957,
      "힡": 3958,
      "힢": 3959,
      "힣": 3960,
      "에</w>": 3961,
      "이</w>": 3962,
      "행</w>": 3963,
      "면</w>": 3964,
      "가</w>": 3965,
      "심</w>": 3966,
      "의</w>": 3967,
      "a</w>": 3968,
      "을</w>": 3969,
      "도</w>": 3970,
      "적</w>": 3971,
      "용</w>": 3972,
      "E</w>": 3973,
      "서</w>": 3974,
      "r</w>": 3975,
      "쥔</w>": 3976,
      "겐</w>": 3977,
      "인</w>": 3978,
      "란</w>": 3979,
      "긴</w>": 3980,
      "과</w>": 3981,
      "렙</w>": 3982,
      "t</w>": 3983,
      "유</w>": 3984,
      "고</w>": 3985,
      "단</w>": 3986,
      "게</w>": 3987,
      "는</w>": 3988,
      "로</w>": 3989,
      "네</w>": 3990,
      "원</w>": 3991,
      "콜</w>": 3992,
      "s</w>": 3993,
      "임</w>": 3994,
      "n</w>": 3995,
      "회</w>": 3996,
      "상</w>": 3997,
      "다</w>": 3998,
      "방</w>": 3999,
      "후</w>": 4000,
      "요</w>": 4001,
      "S</w>": 4002,
      "답</w>": 4003,
      "를</w>": 4004,
      "정</w>": 4005,
      "P</w>": 4006,
      "장</w>": 4007,
      "실</w>": 4008,
      "던</w>": 4009,
      "스</w>": 4010,
      "나</w>": 4011,
      "담</w>": 4012,
      "석</w>": 4013,
      "프</w>": 4014,
      "은</w>": 4015,
      "지</w>": 4016,
      "우</w>": 4017,
      "와</w>": 4018,
      "무</w>": 4019,
      "션</w>": 4020,
      "널</w>": 4021,
      "m</w>": 4022,
      "테</w>": 4023,
      "등</w>": 4024,
      "라</w>": 4025,
      "관</w>": 4026,
      "닌</w>": 4027,
      "3</w>": 4028,
      "한</w>": 4029,
      "함</w>": 4030,
      "츠</w>": 4031,
      "여</w>": 4032,
      "위</w>": 4033,
      "쉬</w>": 4034,
      "L</w>": 4035,
      "어</w>": 4036,
      "할</w>": 4037,
      "코</w>": 4038,
      "성</w>": 4039,
      "속</w>": 4040,
      "준</w>": 4041,
      "까</w>": 4042,
      "드</w>": 4043,
      "니</w>": 4044,
      "님</w>": 4045,
      "미</w>": 4046,
      "온</w>": 4047,
      "명</w>": 4048,
      "급</w>": 4049,
      "A</w>": 4050,
      "역</w>": 4051,
      "텔</w>": 4052,
      "0</w>": 4053,
      "만</w>": 4054,
      "금</w>": 4055,
      "주</w>": 4056,
      "받</w>": 4057,
      "돼</w>": 4058,
      "데</w>": 4059,
      "랑</w>": 4060,
      "e</w>": 4061,
      "전</w>": 4062,
      "g</w>": 4063,
      "번</w>": 4064,
      "자</w>": 4065,
      "문</w>": 4066,
      "예</w>": 4067,
      "별</w>": 4068,
      "티</w>": 4069,
      "업</w>": 4070,
      "각</w>": 4071,
      "화</w>": 4072,
      "디</w>": 4073,
      "럼</w>": 4074,
      "산</w>": 4075,
      "D</w>": 4076,
      "레</w>": 4077,
      "몬</w>": 4078,
      "돌</w>": 4079,
      "비</w>": 4080,
      "차</w>": 4081,
      "내</w>": 4082,
      "색</w>": 4083,
      "루</w>": 4084,
      "i</w>": 4085,
      "신</w>": 4086,
      "든</w>": 4087,
      "5</w>": 4088,
      "읍</w>": 4089,
      "퀴</w>": 4090,
      "팀</w>": 4091,
      "쥐</w>": 4092,
      "6</w>": 4093,
      "o</w>": 4094,
      "W</w>": 4095,
      "러</w>": 4096,
      "져</w>": 4097,
      "된</w>": 4098,
      "플</w>": 4099,
      "덕</w>": 4100,
      "커</w>": 4101,
      "X</w>": 4102,
      "증</w>": 4103,
      "옥</w>": 4104,
      "트</w>": 4105,
      "카</w>": 4106,
      "들</w>": 4107,
      "C</w>": 4108,
      "부</w>": 4109,
      "류</w>": 4110,
      "즈</w>": 4111,
      "N</w>": 4112,
      "l</w>": 4113,
      "론</w>": 4114,
      "식</w>": 4115,
      "터</w>": 4116,
      "학</w>": 4117,
      "야</w>": 4118,
      "계</w>": 4119,
      "건</w>": 4120,
      "승</w>": 4121,
      "F</w>": 4122,
      "손</w>": 4123,
      "공</w>": 4124,
      "빠</w>": 4125,
      "집</w>": 4126,
      "제</w>": 4127,
      "기</w>": 4128,
      "크</w>": 4129,
      "젠</w>": 4130,
      "막</w>": 4131,
      "1</w>": 4132,
      "G</w>": 4133,
      "며</w>": 4134,
      "피</w>": 4135,
      "국</w>": 4136,
      "추</w>": 4137,
      "소</w>": 4138,
      "점</w>": 4139,
      "즘</w>": 4140,
      "수</w>": 4141,
      "초</w>": 4142,
      "v</w>": 4143,
      "리</w>": 4144,
      "록</w>": 4145,
      "해</w>": 4146,
      "모</w>": 4147,
      "복</w>": 4148,
      "팅</w>": 4149,
      "램</w>": 4150,
      "선</w>": 4151,
      "쁠</w>": 4152,
      "품</w>": 4153,
      "월</w>": 4154,
      "려</w>": 4155,
      "H</w>": 4156,
      "빗</w>": 4157,
      "9</w>": 4158,
      "타</w>": 4159,
      "길</w>": 4160,
      "하</w>": 4161,
      "쟈</w>": 4162,
      "군</w>": 4163,
      "포</w>": 4164,
      "시</w>": 4165,
      "순</w>": 4166,
      "칸</w>": 4167,
      "파</w>": 4168,
      "뉴</w>": 4169,
      "링</w>": 4170,
      "토</w>": 4171,
      "일</w>": 4172,
      "x</w>": 4173,
      "마</w>": 4174,
      "넌</w>": 4175,
      "판</w>": 4176,
      "형</w>": 4177,
      "맨</w>": 4178,
      "육</w>": 4179,
      "샵</w>": 4180,
      "엔</w>": 4181,
      "법</w>": 4182,
      "렌</w>": 4183,
      "음</w>": 4184,
      "년</w>": 4185,
      "윙</w>": 4186,
      "께</w>": 4187,
      "술</w>": 4188,
      "족</w>": 4189,
      "I</w>": 4190,
      "교</w>": 4191,
      "빵</w>": 4192,
      "섭</w>": 4193,
      "대</w>": 4194,
      "큰</w>": 4195,
      "줄</w>": 4196,
      "R</w>": 4197,
      "욕</w>": 4198,
      "y</w>": 4199,
      "치</w>": 4200,
      "버</w>": 4201,
      "릴</w>": 4202,
      "휠</w>": 4203,
      "남</w>": 4204,
      "래</w>": 4205,
      "구</w>": 4206,
      "동</w>": 4207,
      "능</w>": 4208,
      "칙</w>": 4209,
      "써</w>": 4210,
      "험</w>": 4211,
      "k</w>": 4212,
      "약</w>": 4213,
      "층</w>": 4214,
      "오</w>": 4215,
      "냄</w>": 4216,
      "조</w>": 4217,
      "냥</w>": 4218,
      "망</w>": 4219,
      "메</w>": 4220,
      "T</w>": 4221,
      "질</w>": 4222,
      "검</w>": 4223,
      "툰</w>": 4224,
      "밭</w>": 4225,
      "령</w>": 4226,
      "착</w>": 4227,
      "태</w>": 4228,
      "냐</w>": 4229,
      "료</w>": 4230,
      "습</w>": 4231,
      "말</w>": 4232,
      "사</w>": 4233,
      "굼</w>": 4234,
      "것</w>": 4235,
      "캠</w>": 4236,
      "폼</w>": 4237,
      "종</w>": 4238,
      "간</w>": 4239,
      "당</w>": 4240,
      "저</w>": 4241,
      "씨</w>": 4242,
      "턴</w>": 4243,
      "셨</w>": 4244,
      "열</w>": 4245,
      "될</w>": 4246,
      "백</w>": 4247,
      "채</w>": 4248,
      "른</w>": 4249,
      "항</w>": 4250,
      "블</w>": 4251,
      "량</w>": 4252,
      "쯤</w>": 4253,
      "튼</w>": 4254,
      "헌</w>": 4255,
      "4</w>": 4256,
      "경</w>": 4257,
      "2</w>": 4258,
      "둔</w>": 4259,
      "츄</w>": 4260,
      "d</w>": 4261,
      "u</w>": 4262,
      "염</w>": 4263,
      "켓</w>": 4264,
      "빛</w>": 4265,
      "아</w>": 4266,
      "현</w>": 4267,
      "독</w>": 4268,
      "K</w>": 4269,
      "듯</w>": 4270,
      "달</w>": 4271,
      "7</w>": 4272,
      "린</w>": 4273,
      "김</w>": 4274,
      "운</w>": 4275,
      "노</w>": 4276,
      "발</w>": 4277,
      "근</w>": 4278,
      "Y</w>": 4279,
      "럴</w>": 4280,
      "B</w>": 4281,
      "쇼</w>": 4282,
      "책</w>": 4283,
      "체</w>": 4284,
      "훈</w>": 4285,
      "뿐</w>": 4286,
      "너</w>": 4287,
      "봐</w>": 4288,
      "콘</w>": 4289,
      "호</w>": 4290,
      "절</w>": 4291,
      "f</w>": 4292,
      "싱</w>": 4293,
      "p</w>": 4294,
      "그</w>": 4295,
      "죠</w>": 4296,
      "폭</w>": 4297,
      "촉</w>": 4298,
      "입</w>": 4299,
      "앤</w>": 4300,
      "멱</w>": 4301,
      "페</w>": 4302,
      "걸</w>": 4303,
      "곳</w>": 4304,
      "떼</w>": 4305,
      "브</w>": 4306,
      "큼</w>": 4307,
      "광</w>": 4308,
      "울</w>": 4309,
      "거</w>": 4310,
      "청</w>": 4311,
      "묘</w>": 4312,
      "희</w>": 4313,
      "휴</w>": 4314,
      "재</w>": 4315,
      "본</w>": 4316,
      "몰</w>": 4317,
      "목</w>": 4318,
      "젤</w>": 4319,
      "완</w>": 4320,
      "죽</w>": 4321,
      "8</w>": 4322,
      "글</w>": 4323,
      "슬</w>": 4324,
      "으</w>": 4325,
      "랴</w>": 4326,
      "즉</w>": 4327,
      "골</w>": 4328,
      "섬</w>": 4329,
      "분</w>": 4330,
      "템</w>": 4331,
      "좌</w>": 4332,
      "갑</w>": 4333,
      "봉</w>": 4334,
      "권</w>": 4335,
      "맹</w>": 4336,
      "합</w>": 4337,
      "통</w>": 4338,
      "력</w>": 4339,
      "보</w>": 4340,
      "림</w>": 4341,
      "반</w>": 4342,
      "튄</w>": 4343,
      "개</w>": 4344,
      "곡</w>": 4345,
      "액</w>": 4346,
      "중</w>": 4347,
      "혜</w>": 4348,
      "변</w>": 4349,
      "매</w>": 4350,
      "진</w>": 4351,
      "더</w>": 4352,
      "획</w>": 4353,
      "출</w>": 4354,
      "찌</w>": 4355,
      "젃</w>": 4356,
      "축</w>": 4357,
      "협</w>": 4358,
      "Z</w>": 4359,
      "띠</w>": 4360,
      "또</w>": 4361,
      "베</w>": 4362,
      "응</w>": 4363,
      "U</w>": 4364,
      "측</w>": 4365,
      "O</w>": 4366,
      "세</w>": 4367,
      "틀</w>": 4368,
      "럽</w>": 4369,
      "워</w>": 4370,
      "환</w>": 4371,
      "립</w>": 4372,
      "쪽</w>": 4373,
      "작</w>": 4374,
      "황</w>": 4375,
      "믄</w>": 4376,
      "c</w>": 4377,
      "척</w>": 4378,
      "촌</w>": 4379,
      "V</w>": 4380,
      "쿨</w>": 4381,
      "깨</w>": 4382,
      "텍</w>": 4383,
      "때</w>": 4384,
      "혼</w>": 4385,
      "르</w>": 4386,
      "춤</w>": 4387,
      "q</w>": 4388,
      "천</w>": 4389,
      "격</w>": 4390,
      "댐</w>": 4391,
      "컬</w>": 4392,
      "탄</w>": 4393,
      "탕</w>": 4394,
      "롱</w>": 4395,
      "챗</w>": 4396,
      "센</w>": 4397,
      "닷</w>": 4398,
      "?</w>": 4399,
      "락</w>": 4400,
      "민</w>": 4401,
      "넷</w>": 4402,
      "샷</w>": 4403,
      "연</w>": 4404,
      "철</w>": 4405,
      "날</w>": 4406,
      "탁</w>": 4407,
      "낀</w>": 4408,
      "슨</w>": 4409,
      "멍</w>": 4410,
      "푿</w>": 4411,
      "귀</w>": 4412,
      "객</w>": 4413,
      "강</w>": 4414,
      "키</w>": 4415,
      "바</w>": 4416,
      "웅</w>": 4417,
      "덧</w>": 4418,
      "율</w>": 4419,
      "w</w>": 4420,
      "향</w>": 4421,
      "표</w>": 4422,
      "h</w>": 4423,
      "됐</w>": 4424,
      "쟁</w>": 4425,
      "처</w>": 4426,
      "Q</w>": 4427,
      "훅</w>": 4428,
      "물</w>": 4429,
      "패</w>": 4430,
      "영</w>": 4431,
      "올</w>": 4432,
      "옷</w>": 4433,
      "킨</w>": 4434,
      "젭</w>": 4435,
      "았</w>": 4436,
      "편</w>": 4437,
      "엘</w>": 4438,
      "안</w>": 4439,
      "침</w>": 4440,
      "핸</w>": 4441,
      "효</w>": 4442,
      "룬</w>": 4443,
      "즐</w>": 4444,
      "련</w>": 4445,
      "휘</w>": 4446,
      "딩</w>": 4447,
      "밤</w>": 4448,
      "꺼</w>": 4449,
      "째</w>": 4450,
      "살</w>": 4451,
      "략</w>": 4452,
      "몇</w>": 4453,
      "짐</w>": 4454,
      "규</w>": 4455,
      "숙</w>": 4456,
      "씩</w>": 4457,
      "애</w>": 4458,
      "생</w>": 4459,
      "z</w>": 4460,
      "설</w>": 4461,
      "억</w>": 4462,
      "겟</w>": 4463,
      "녕</w>": 4464,
      "쁨</w>": 4465,
      "되</w>": 4466,
      "엿</w>": 4467,
      "팜</w>": 4468,
      "돔</w>": 4469,
      "히</w>": 4470,
      "범</w>": 4471,
      "M</w>": 4472,
      "칼</w>": 4473,
      "왕</w>": 4474,
      "댕</w>": 4475,
      "셀</w>": 4476,
      "융</w>": 4477,
      "킬</w>": 4478,
      "슐</w>": 4479,
      "텐</w>": 4480,
      "젬</w>": 4481,
      "뒤</w>": 4482,
      "홍</w>": 4483,
      "언</w>": 4484,
      "윈</w>": 4485,
      "갤</w>": 4486,
      "홈</w>": 4487,
      "섯</w>": 4488,
      "앱</w>": 4489,
      "결</w>": 4490,
      "배</w>": 4491,
      "킹</w>": 4492,
      "폴</w>": 4493,
      "빈</w>": 4494,
      "릿</w>": 4495,
      "폰</w>": 4496,
      "평</w>": 4497,
      "끄</w>": 4498,
      "쾌</w>": 4499,
      "엄</w>": 4500,
      "틱</w>": 4501,
      "씬</w>": 4502,
      "룸</w>": 4503,
      "렬</w>": 4504,
      "겨</w>": 4505,
      "낚</w>": 4506,
      "렘</w>": 4507,
      "렛</w>": 4508,
      "불</w>": 4509,
      "감</w>": 4510,
      "징</w>": 4511,
      "쩜</w>": 4512,
      "슴</w>": 4513,
      "람</w>": 4514,
      "퀸</w>": 4515,
      "됨</w>": 4516,
      "녀</w>": 4517,
      "롯</w>": 4518,
      "풀</w>": 4519,
      "셋</w>": 4520,
      "럭</w>": 4521,
      "짓</w>": 4522,
      "꼭</w>": 4523,
      "혈</w>": 4524,
      "극</w>": 4525,
      "송</w>": 4526,
      "홀</w>": 4527,
      "믹</w>": 4528,
      "릇</w>": 4529,
      "핀</w>": 4530,
      "떄</w>": 4531,
      "껌</w>": 4532,
      "죄</w>": 4533,
      "념</w>": 4534,
      "셔</w>": 4535,
      "양</w>": 4536,
      "옵</w>": 4537,
      "허</w>": 4538,
      "런</w>": 4539,
      "쇄</w>": 4540,
      "득</w>": 4541,
      "덱</w>": 4542,
      "픽</w>": 4543,
      "례</w>": 4544,
      "듬</w>": 4545,
      "엇</w>": 4546,
      "델</w>": 4547,
      "솝</w>": 4548,
      "곤</w>": 4549,
      "쿠</w>": 4550,
      "뮤</w>": 4551,
      "촬</w>": 4552,
      "앙</w>": 4553,
      "j</w>": 4554,
      "닝</w>": 4555,
      "턱</w>": 4556,
      "퍼</w>": 4557,
      "씀</w>": 4558,
      "랜</w>": 4559,
      "큐</w>": 4560,
      "멧</w>": 4561,
      "솔</w>": 4562,
      "탈</w>": 4563,
      "찍</w>": 4564,
      "두</w>": 4565,
      "벌</w>": 4566,
      "투</w>": 4567,
      "팩</w>": 4568,
      "릭</w>": 4569,
      "펙</w>": 4570,
      "병</w>": 4571,
      "긍</w>": 4572,
      "덴</w>": 4573,
      "십</w>": 4574,
      "익</w>": 4575,
      "떤</w>": 4576,
      "즌</w>": 4577,
      "찰</w>": 4578,
      "및</w>": 4579,
      "몸</w>": 4580,
      "삭</w>": 4581,
      "겁</w>": 4582,
      "b</w>": 4583,
      "좀</w>": 4584,
      "혁</w>": 4585,
      "늬</w>": 4586,
      "팟</w>": 4587,
      "앎</w>": 4588,
      "틴</w>": 4589,
      "률</w>": 4590,
      "컴</w>": 4591,
      "푸</w>": 4592,
      "박</w>": 4593,
      "앞</w>": 4594,
      "낼</w>": 4595,
      "균</w>": 4596,
      "확</w>": 4597,
      "직</w>": 4598,
      "룹</w>": 4599,
      "랩</w>": 4600,
      "눔</w>": 4601,
      "빙</w>": 4602,
      "땐</w>": 4603,
      "J</w>": 4604,
      "톤</w>": 4605,
      "딥</w>": 4606,
      "깐</w>": 4607,
      "댜</w>": 4608,
      "캐</w>": 4609,
      "새</w>": 4610,
      "펌</w>": 4611,
      "밀</w>": 4612,
      "쁜</w>": 4613,
      "북</w>": 4614,
      "굿</w>": 4615,
      "끝</w>": 4616,
      "륵</w>": 4617,
      "꼬</w>": 4618,
      "몀</w>": 4619,
      "맥</w>": 4620,
      "돈</w>": 4621,
      "맘</w>": 4622,
      "못</w>": 4623,
      "찬</w>": 4624,
      "랄</w>": 4625,
      "알</w>": 4626,
      "멘</w>": 4627,
      "럿</w>": 4628,
      "솥</w>": 4629,
      "탓</w>": 4630,
      "머</w>": 4631,
      "므</w>": 4632,
      "움</w>": 4633,
      "벨</w>": 4634,
      "삽</w>": 4635,
      "택</w>": 4636,
      "룰</w>": 4637,
      "-</w>": 4638,
      "했</w>": 4639,
      "흑</w>": 4640,
      "압</w>": 4641,
      "충</w>": 4642,
      "쥬</w>": 4643,
      "[</w>": 4644,
      "깃</w>": 4645,
      "먼</w>": 4646,
      "돠</w>": 4647,
      "엉</w>": 4648,
      "삼</w>": 4649,
      "눠</w>": 4650,
      "톰</w>": 4651,
      "픈</w>": 4652,
      "]</w>": 4653,
      "샛</w>": 4654,
      "견</w>": 4655,
      "쎄</w>": 4656,
      "캡</w>": 4657,
      "난</w>": 4658,
      "뤄</w>": 4659,
      "값</w>": 4660,
      "얼</w>": 4661,
      "랍</w>": 4662,
      "존</w>": 4663,
      "봇</w>": 4664,
      "낄</w>": 4665,
      "컵</w>": 4666,
      "쏭</w>": 4667,
      "밴</w>": 4668,
      "랙</w>": 4669,
      "뜨</w>": 4670,
      "딱</w>": 4671,
      "따</w>": 4672,
      "클</w>": 4673,
      "외</w>": 4674,
      "껄</w>": 4675,
      "볼</w>": 4676,
      "힌</w>": 4677,
      "최</w>": 4678,
      "꽃</w>": 4679,
      "팁</w>": 4680,
      "뇨</w>": 4681,
      "넥</w>": 4682,
      "흠</w>": 4683,
      "케</w>": 4684,
      "갈</w>": 4685,
      "름</w>": 4686,
      "/</w>": 4687,
      "릮</w>": 4688,
      "뷰</w>": 4689,
      "밥</w>": 4690,
      "털</w>": 4691,
      "팬</w>": 4692,
      "욤</w>": 4693,
      "눗</w>": 4694,
      "롭</w>": 4695,
      "취</w>": 4696,
      "싰</w>": 4697,
      "필</w>": 4698,
      "엠</w>": 4699,
      "같</w>": 4700,
      "탑</w>": 4701,
      "켜</w>": 4702,
      "누</w>": 4703,
      "었</w>": 4704,
      "벤</w>": 4705,
      "룩</w>": 4706,
      "잭</w>": 4707,
      "총</w>": 4708,
      "닉</w>": 4709,
      "벽</w>": 4710,
      "풍</w>": 4711,
      "킷</w>": 4712,
      "핑</w>": 4713,
      "켕</w>": 4714,
      "!</w>": 4715,
      "춘</w>": 4716,
      "욱</w>": 4717,
      "쎈</w>": 4718,
      "쿡</w>": 4719,
      "톱</w>": 4720,
      "굴</w>": 4721,
      "}</w>": 4722,
      "텀</w>": 4723,
      "친</w>": 4724,
      "콕</w>": 4725,
      "쿤</w>": 4726,
      "딘</w>": 4727,
      "숍</w>": 4728,
      "솬</w>": 4729,
      "셜</w>": 4730,
      "힐</w>": 4731,
      "뱅</w>": 4732,
      "궁</w>": 4733,
      "잎</w>": 4734,
      "슈</w>": 4735,
      "샤</w>": 4736,
      "참</w>": 4737,
      "짤</w>": 4738,
      "짜</w>": 4739,
      "뽕</w>": 4740,
      "쉔</w>": 4741,
      "됩</w>": 4742,
      "괴</w>": 4743,
      "혀</w>": 4744,
      "펀</w>": 4745,
      "빅</w>": 4746,
      "뢰</w>": 4747,
      "늘</w>": 4748,
      "븐</w>": 4749,
      "옌</w>": 4750,
      "잌</w>": 4751,
      "잔</w>": 4752,
      "돕</w>": 4753,
      "창</w>": 4754,
      "샾</w>": 4755,
      "탐</w>": 4756,
      "랫</w>": 4757,
      "낱</w>": 4758,
      "암</w>": 4759,
      "띤</w>": 4760,
      "깅</w>": 4761,
      "밍</w>": 4762,
      "젼</w>": 4763,
      "첨</w>": 4764,
      "얀</w>": 4765,
      "덤</w>": 4766,
      "펜</w>": 4767,
      "'</w>": 4768,
      "칠</w>": 4769,
      ".</w>": 4770,
      "톡</w>": 4771,
      "흐</w>": 4772,
      "퇴</w>": 4773,
      "칭</w>": 4774,
      "겔</w>": 4775,
      "땜</w>": 4776,
      "끔</w>": 4777,
      "홉</w>": 4778,
      "킴</w>": 4779,
      "죵</w>": 4780,
      "맛</w>": 4781,
      "둘</w>": 4782,
      "롤</w>": 4783,
      "왈</w>": 4784,
      "멀</w>": 4785,
      "륨</w>": 4786,
      ")</w>": 4787,
      "탭</w>": 4788,
      "썬</w>": 4789,
      "캔</w>": 4790,
      "긋</w>": 4791,
      "팍</w>": 4792,
      "겜</w>": 4793,
      "콤</w>": 4794,
      "뒷</w>": 4795,
      "\"</w>": 4796,
      "쩔</w>": 4797,
      "꺠</w>": 4798,
      "둬</w>": 4799,
      "활</w>": 4800,
      "깔</w>": 4801,
      "흔</w>": 4802,
      "끼</w>": 4803,
      "씸</w>": 4804,
      "쬬</w>": 4805,
      "틸</w>": 4806,
      "늄</w>": 4807,
      "접</w>": 4808,
      "칩</w>": 4809,
      "닭</w>": 4810,
      "악</w>": 4811,
      "옆</w>": 4812,
      "팡</w>": 4813,
      "뇌</w>": 4814,
      "쓴</w>": 4815,
      "엌</w>": 4816,
      "잡</w>": 4817,
      "빌</w>": 4818,
      "칫</w>": 4819,
      "젯</w>": 4820,
      "괄</w>": 4821,
      "잇</w>": 4822,
      "읭</w>": 4823,
      "있</w>": 4824,
      "놈</w>": 4825,
      "웹</w>": 4826,
      "찡</w>": 4827,
      "뜰</w>": 4828,
      "농</w>": 4829,
      "셈</w>": 4830,
      "뻔</w>": 4831,
      "렉</w>": 4832,
      "느</w>": 4833,
      "멜</w>": 4834,
      "녑</w>": 4835,
      "쌀</w>": 4836,
      "웰</w>": 4837,
      "흥</w>": 4838,
      "뮴</w>": 4839,
      "칵</w>": 4840,
      "퀘</w>": 4841,
      "뽀</w>": 4842,
      "둑</w>": 4843,
      "짝</w>": 4844,
      "햄</w>": 4845,
      "찐</w>": 4846,
      "싸</w>": 4847,
      "겸</w>": 4848,
      "닥</w>": 4849,
      "롬</w>": 4850,
      "잉</w>": 4851,
      "컷</w>": 4852,
      "눕</w>": 4853,
      "봄</w>": 4854,
      "쓸</w>": 4855,
      "렐</w>": 4856,
      "넬</w>": 4857,
      "귄</w>": 4858,
      "쳐</w>": 4859,
      "픔</w>": 4860,
      "꿀</w>": 4861,
      "묜</w>": 4862,
      "닐</w>": 4863,
      "큽</w>": 4864,
      "넘</w>": 4865,
      "룡</w>": 4866,
      "컨</w>": 4867,
      "벳</w>": 4868,
      "웃</w>": 4869,
      "납</w>": 4870,
      "덜</w>": 4871,
      "앆</w>": 4872,
      "쓰</w>": 4873,
      "랏</w>": 4874,
      "짱</w>": 4875,
      "렴</w>": 4876,
      "깥</w>": 4877,
      "웨</w>": 4878,
      "뮬</w>": 4879,
      "딧</w>": 4880,
      "앗</w>": 4881,
      "껀</w>": 4882,
      "첩</w>": 4883,
      "샥</w>": 4884,
      "옴</w>": 4885,
      "줌</w>": 4886,
      "땅</w>": 4887,
      "웬</w>": 4888,
      ",</w>": 4889,
      "쵸</w>": 4890,
      "눈</w>": 4891,
      "힘</w>": 4892,
      "밑</w>": 4893,
      "@</w>": 4894,
      "헤</w>": 4895,
      "갱</w>": 4896,
      "빨</w>": 4897,
      "낭</w>": 4898,
      "튀</w>": 4899,
      "맙</w>": 4900,
      "뽈</w>": 4901,
      "꿈</w>": 4902,
      "곽</w>": 4903,
      "윽</w>": 4904,
      "썸</w>": 4905,
      "캣</w>": 4906,
      "꾸</w>": 4907,
      "둥</w>": 4908,
      "딴</w>": 4909,
      "쯔</w>": 4910,
      "쑥</w>": 4911,
      "껏</w>": 4912,
      "논</w>": 4913,
      "몆</w>": 4914,
      "줘</w>": 4915,
      "쥴</w>": 4916,
      "콩</w>": 4917,
      "쌈</w>": 4918,
      "윗</w>": 4919,
      "묵</w>": 4920,
      "뿔</w>": 4921,
      "쌍</w>": 4922,
      "몽</w>": 4923,
      "댁</w>": 4924,
      "엽</w>": 4925,
      "핏</w>": 4926,
      "낸</w>": 4927,
      "툭</w>": 4928,
      "펫</w>": 4929,
      "삶</w>": 4930,
      "뻘</w>": 4931,
      "퓨</w>": 4932,
      "듀</w>": 4933,
      "쨌</w>": 4934,
      "좋</w>": 4935,
      "삐</w>": 4936,
      "샹</w>": 4937,
      "샐</w>": 4938,
      "쇠</w>": 4939,
      "겊</w>": 4940,
      "켐</w>": 4941,
      "톨</w>": 4942,
      "퀵</w>": 4943,
      "샬</w>": 4944,
      "쿼</w>": 4945,
      "쏘</w>": 4946,
      "갔</w>": 4947,
      "꺽</w>": 4948,
      "듐</w>": 4949,
      "귈</w>": 4950,
      "슘</w>": 4951,
      "갓</w>": 4952,
      "윤</w>": 4953,
      "넛</w>": 4954,
      "놉</w>": 4955,
      "붓</w>": 4956,
      "켄</w>": 4957,
      "곱</w>": 4958,
      "딸</w>": 4959,
      "얌</w>": 4960,
      "겹</w>": 4961,
      "눌</w>": 4962,
      "츰</w>": 4963,
      "뎀</w>": 4964,
      "샘</w>": 4965,
      "낌</w>": 4966,
      "찜</w>": 4967,
      "툼</w>": 4968,
      "욜</w>": 4969,
      "숲</w>": 4970,
      "쏙</w>": 4971,
      "헥</w>": 4972,
      "숑</w>": 4973,
      "펄</w>": 4974,
      "슛</w>": 4975,
      "쌤</w>": 4976,
      "씁</w>": 4977,
      "펨</w>": 4978,
      "{</w>": 4979,
      "듈</w>": 4980,
      "(</w>": 4981,
      "꽤</w>": 4982,
      "툴</w>": 4983,
      "듭</w>": 4984,
      "젖</w>": 4985,
      "팔</w>": 4986,
      "잼</w>": 4987,
      "헬</w>": 4988,
      "먄</w>": 4989,
      "뎅</w>": 4990,
      "팝</w>": 4991,
      "벝</w>": 4992,
      "힛</w>": 4993,
      "꾼</w>": 4994,
      "혹</w>": 4995,
      "빡</w>": 4996,
      "뼈</w>": 4997,
      "씽</w>": 4998,
      "뷴</w>": 4999,
      "숭</w>": 5000,
      "벅</w>": 5001,
      "왁</w>": 5002,
      "붕</w>": 5003,
      "겼</w>": 5004,
      "뽄</w>": 5005,
      "릉</w>": 5006,
      "뻑</w>": 5007,
      "쑬</w>": 5008,
      "켰</w>": 5009,
      "쮸</w>": 5010,
      "킵</w>": 5011,
      "솜</w>": 5012,
      "뵹</w>": 5013,
      "떡</w>": 5014,
      "땀</w>": 5015,
      "꽹</w>": 5016,
      "뻥</w>": 5017,
      "궐</w>": 5018,
      "굽</w>": 5019,
      "붙</w>": 5020,
      "슭</w>": 5021,
      "끗</w>": 5022,
      "였</w>": 5023,
      "놀</w>": 5024,
      "벗</w>": 5025,
      "놔</w>": 5026,
      "뜽</w>": 5027,
      "옹</w>": 5028,
      "틈</w>": 5029,
      "춰</w>": 5030,
      "얄</w>": 5031,
      "섰</w>": 5032,
      "왜</w>": 5033,
      "뫼</w>": 5034,
      "녘</w>": 5035,
      "묶</w>": 5036,
      "윅</w>": 5037,
      "먹</w>": 5038,
      "떠</w>": 5039,
      "쇤</w>": 5040,
      "쿄</w>": 5041,
      "멸</w>": 5042,
      "쿱</w>": 5043,
      "즙</w>": 5044,
      "떻</w>": 5045,
      "웍</w>": 5046,
      "끈</w>": 5047,
      "렸</w>": 5048,
      "죤</w>": 5049,
      "넹</w>": 5050,
      "츕</w>": 5051,
      "겠</w>": 5052,
      "썰</w>": 5053,
      "륜</w>": 5054,
      "딜</w>": 5055,
      "펠</w>": 5056,
      "밋</w>": 5057,
      "힙</w>": 5058,
      "벼</w>": 5059,
      "잘</w>": 5060,
      "앵</w>": 5061,
      "뎐</w>": 5062,
      "냔</w>": 5063,
      "곧</w>": 5064,
      "흡</w>": 5065,
      "낵</w>": 5066,
      "뱍</w>": 5067,
      "낙</w>": 5068,
      "좡</w>": 5069,
      "캄</w>": 5070,
      "벧</w>": 5071,
      "폐</w>": 5072,
      "잠</w>": 5073,
      "땡</w>": 5074,
      "쉘</w>": 5075,
      "챌</w>": 5076,
      "퓹</w>": 5077,
      "킥</w>": 5078,
      "댈</w>": 5079,
      "헴</w>": 5080,
      "솩</w>": 5081,
      "셉</w>": 5082,
      "녹</w>": 5083,
      "붐</w>": 5084,
      "챔</w>": 5085,
      "셴</w>": 5086,
      "쉐</w>": 5087,
      "녁</w>": 5088,
      "첸</w>": 5089,
      "쿽</w>": 5090,
      "퓸</w>": 5091,
      "똥</w>": 5092,
      "넨</w>": 5093,
      "졌</w>": 5094,
      "쫙</w>": 5095,
      "깡</w>": 5096,
      "뱐</w>": 5097,
      "뜀</w>": 5098,
      "캇</w>": 5099,
      "닙</w>": 5100,
      "팸</w>": 5101,
      "뤼</w>": 5102,
      "쌕</w>": 5103,
      "뚝</w>": 5104,
      "흰</w>": 5105,
      "왔</w>": 5106,
      "낫</w>": 5107,
      "빔</w>": 5108,
      "쑌</w>": 5109,
      "꺄</w>": 5110,
      "웁</w>": 5111,
      "뎃</w>": 5112,
      "맬</w>": 5113,
      "뺀</w>": 5114,
      "첼</w>": 5115,
      "닛</w>": 5116,
      ":</w>": 5117,
      "붉</w>": 5118,
      "샨</w>": 5119,
      "걀</w>": 5120,
      "졸</w>": 5121,
      "썹</w>": 5122,
      "펍</w>": 5123,
      "옽</w>": 5124,
      "삿</w>": 5125,
      "궈</w>": 5126,
      "껴</w>": 5127,
      "퐁</w>": 5128,
      "첫</w>": 5129,
      "캉</w>": 5130,
      "몹</w>": 5131,
      "캅</w>": 5132,
      "씯</w>": 5133,
      "섹</w>": 5134,
      "맏</w>": 5135,
      "뀨</w>": 5136,
      "쨈</w>": 5137,
      "쑤</w>": 5138,
      "셑</w>": 5139,
      "읶</w>": 5140,
      "욧</w>": 5141,
      "헨</w>": 5142,
      "긔</w>": 5143,
      "벡</w>": 5144,
      "궤</w>": 5145,
      "셩</w>": 5146,
      "썩</w>": 5147,
      "뜻</w>": 5148,
      "딕</w>": 5149,
      "쨩</w>": 5150,
      "귤</w>": 5151,
      "핫</w>": 5152,
      "\u001c</w>": 5153,
      "뮈</w>": 5154,
      "핚</w>": 5155,
      "윌</w>": 5156,
      "냅</w>": 5157,
      "곶</w>": 5158,
      "렀</w>": 5159,
      "햌</w>": 5160,
      "깜</w>": 5161,
      "릅</w>": 5162,
      "슁</w>": 5163,
      "뿍</w>": 5164,
      "푼</w>": 5165,
      "밖</w>": 5166,
      "눵</w>": 5167,
      "됴</w>": 5168,
      "룽</w>": 5169,
      "띵</w>": 5170,
      "쮠</w>": 5171,
      "탱</w>": 5172,
      "텝</w>": 5173,
      "싼</w>": 5174,
      "꽝</w>": 5175,
      "랠</w>": 5176,
      "퉁</w>": 5177,
      "큇</w>": 5178,
      "멉</w>": 5179,
      "뵷</w>": 5180,
      "햅</w>": 5181,
      "껑</w>": 5182,
      "꺌</w>": 5183,
      "씰</w>": 5184,
      "쁘</w>": 5185,
      "랭</w>": 5186,
      "굔</w>": 5187,
      "볏</w>": 5188,
      "쒀</w>": 5189,
      "밧</w>": 5190,
      "벙</w>": 5191,
      "훤</w>": 5192,
      "쉼</w>": 5193,
      "숏</w>": 5194,
      "흘</w>": 5195,
      "곰</w>": 5196,
      "굵</w>": 5197,
      "퇀</w>": 5198,
      "옛</w>": 5199,
      "햇</w>": 5200,
      "쿰</w>": 5201,
      "풋</w>": 5202,
      "뭐</w>": 5203,
      "뀌</w>": 5204,
      "뷸</w>": 5205,
      "흙</w>": 5206,
      "핟</w>": 5207,
      "텟</w>": 5208,
      "뭣</w>": 5209,
      "틍</w>": 5210,
      "끌</w>": 5211,
      "쉰</w>": 5212,
      "튜</w>": 5213,
      "릐</w>": 5214,
      "렁</w>": 5215,
      "탯</w>": 5216,
      "씹</w>": 5217,
      "녅</w>": 5218,
      "폿</w>": 5219,
      "숫</w>": 5220,
      "뱀</w>": 5221,
      "훗</w>": 5222,
      "볍</w>": 5223,
      "왠</w>": 5224,
      "늍</w>": 5225,
      "빼</w>": 5226,
      "렵</w>": 5227,
      "팥</w>": 5228,
      "뱃</w>": 5229,
      "뚜</w>": 5230,
      "뱌</w>": 5231,
      "퍽</w>": 5232,
      "뾱</w>": 5233,
      "댇</w>": 5234,
      "쉴</w>": 5235,
      "짅</w>": 5236,
      "맵</w>": 5237,
      "쭉</w>": 5238,
      "릍</w>": 5239,
      "낍</w>": 5240,
      "릲</w>": 5241,
      "옐</w>": 5242,
      "삘</w>": 5243,
      "뉸</w>": 5244,
      "뀐</w>": 5245,
      "낑</w>": 5246,
      "갸</w>": 5247,
      "없</w>": 5248,
      "깍</w>": 5249,
      "핵</w>": 5250,
      "꿇</w>": 5251,
      "튠</w>": 5252,
      "잟</w>": 5253,
      "뇽</w>": 5254,
      "듕</w>": 5255,
      "헙</w>": 5256,
      "꿍</w>": 5257,
      "엥</w>": 5258,
      "욥</w>": 5259,
      "쌔</w>": 5260,
      "쎗</w>": 5261,
      "얽</w>": 5262,
      "륙</w>": 5263,
      "땃</w>": 5264,
      "룻</w>": 5265,
      "쟐</w>": 5266,
      "뷔</w>": 5267,
      "잰</w>": 5268,
      "톧</w>": 5269,
      "쐬</w>": 5270,
      "특</w>": 5271,
      "븀</w>": 5272,
      "믐</w>": 5273,
      "뻤</w>": 5274,
      "찟</w>": 5275,
      "빰</w>": 5276,
      "꽊</w>": 5277,
      "쩌</w>": 5278,
      "쭈</w>": 5279,
      "겻</w>": 5280,
      "쐄</w>": 5281,
      "꿔</w>": 5282,
      "꽁</w>": 5283,
      "켈</w>": 5284,
      "엑</w>": 5285,
      "풰</w>": 5286,
      "탬</w>": 5287,
      "뿅</w>": 5288,
      "뛴</w>": 5289,
      "끓</w>": 5290,
      "쉑</w>": 5291,
      "싀</w>": 5292,
      "쨰</w>": 5293,
      "욘</w>": 5294,
      "걱</w>": 5295,
      "뎁</w>": 5296,
      "엣</w>": 5297,
      "햏</w>": 5298,
      "좆</w>": 5299,
      "뀔</w>": 5300,
      "냑</w>": 5301,
      "빽</w>": 5302,
      "귐</w>": 5303,
      "뜸</w>": 5304,
      "덞</w>": 5305,
      "뭇</w>": 5306,
      "짠</w>": 5307,
      "쉽</w>": 5308,
      "맷</w>": 5309,
      "텅</w>": 5310,
      "쾅</w>": 5311,
      "툽</w>": 5312,
      "쑴</w>": 5313,
      "챈</w>": 5314,
      "왑</w>": 5315,
      "엡</w>": 5316,
      "랐</w>": 5317,
      "쿵</w>": 5318,
      "꽉</w>": 5319,
      "댚</w>": 5320,
      "뾰</w>": 5321,
      "\\</w>": 5322,
      "쩨</w>": 5323,
      "튬</w>": 5324,
      "뎬</w>": 5325,
      "헐</w>": 5326,
      "잖</w>": 5327,
      "댄</w>": 5328,
      "낮</w>": 5329,
      "큭</w>": 5330,
      "싫</w>": 5331,
      "닢</w>": 5332,
      "숀</w>": 5333,
      "헉</w>": 5334,
      "빚</w>": 5335,
      "괘</w>": 5336,
      "끁</w>": 5337,
      "딬</w>": 5338,
      "앳</w>": 5339,
      "꽈</w>": 5340,
      "꾜</w>": 5341,
      "볶</w>": 5342,
      "틘</w>": 5343,
      "훔</w>": 5344,
      "넴</w>": 5345,
      "펑</w>": 5346,
      "킁</w>": 5347,
      "첵</w>": 5348,
      "컹</w>": 5349,
      "딤</w>": 5350,
      "핔</w>": 5351,
      "꺅</w>": 5352,
      "놰</w>": 5353,
      "쩍</w>": 5354,
      "댓</w>": 5355,
      "붜</w>": 5356,
      "쪅</w>": 5357,
      "핮</w>": 5358,
      "뜬</w>": 5359,
      "톳</w>": 5360,
      "녈</w>": 5361,
      "챠</w>": 5362,
      "갭</w>": 5363,
      "뭔</w>": 5364,
      "솟</w>": 5365,
      "츔</w>": 5366,
      "젱</w>": 5367,
      "뛰</w>": 5368,
      "첮</w>": 5369,
      "줍</w>": 5370,
      "둠</w>": 5371,
      "퉝</w>": 5372,
      "눅</w>": 5373,
      "쑈</w>": 5374,
      "잣</w>": 5375,
      "씌</w>": 5376,
      "렷</w>": 5377,
      "갠</w>": 5378,
      "츨</w>": 5379,
      "읻</w>": 5380,
      "꼈</w>": 5381,
      "냉</w>": 5382,
      "륭</w>": 5383,
      "뽁</w>": 5384,
      "햐</w>": 5385,
      "깟</w>": 5386,
      "싯</w>": 5387,
      "짚</w>": 5388,
      "렝</w>": 5389,
      "텡</w>": 5390,
      "꾀</w>": 5391,
      "싶</w>": 5392,
      "돓</w>": 5393,
      "뽜</w>": 5394,
      "헷</w>": 5395,
      "돐</w>": 5396,
      "냈</w>": 5397,
      "웩</w>": 5398,
      "꺵</w>": 5399,
      "얏</w>": 5400,
      "촤</w>": 5401,
      "뒈</w>": 5402,
      "칡</w>": 5403,
      "꼽</w>": 5404,
      "헝</w>": 5405,
      "횽</w>": 5406,
      "뉩</w>": 5407,
      "콧</w>": 5408,
      "컱</w>": 5409,
      "퀄</w>": 5410,
      "셸</w>": 5411,
      "듦</w>": 5412,
      "틑</w>": 5413,
      "끅</w>": 5414,
      "뎌</w>": 5415,
      "쨉</w>": 5416,
      "샴</w>": 5417,
      "됭</w>": 5418,
      "믈</w>": 5419,
      "읽</w>": 5420,
      "맞</w>": 5421,
      "듣</w>": 5422,
      "죌</w>": 5423,
      "팽</w>": 5424,
      "닮</w>": 5425,
      "핌</w>": 5426,
      "떈</w>": 5427,
      "띈</w>": 5428,
      "샌</w>": 5429,
      "뒀</w>": 5430,
      "낟</w>": 5431,
      "밪</w>": 5432,
      "펴</w>": 5433,
      "뵉</w>": 5434,
      "쩐</w>": 5435,
      "쑝</w>": 5436,
      "꿩</w>": 5437,
      "꼴</w>": 5438,
      "넙</w>": 5439,
      "냠</w>": 5440,
      "갚</w>": 5441,
      "롸</w>": 5442,
      "굘</w>": 5443,
      "쀼</w>": 5444,
      "퉤</w>": 5445,
      "셧</w>": 5446,
      "윻</w>": 5447,
      "훼</w>": 5448,
      "휙</w>": 5449,
      "큅</w>": 5450,
      "겋</w>": 5451,
      "뻬</w>": 5452,
      "웡</w>": 5453,
      "녤</w>": 5454,
      "핍</w>": 5455,
      "웜</w>": 5456,
      "뚱</w>": 5457,
      "뉘</w>": 5458,
      "탠</w>": 5459,
      "뼘</w>": 5460,
      "띨</w>": 5461,
      "횃</w>": 5462,
      "챵</w>": 5463,
      "덩</w>": 5464,
      "셰</w>": 5465,
      "렞</w>": 5466,
      "겮</w>": 5467,
      "맄</w>": 5468,
      "쌰</w>": 5469,
      "왓</w>": 5470,
      "괸</w>": 5471,
      "댝</w>": 5472,
      "봤</w>": 5473,
      "혐</w>": 5474,
      "쫄</w>": 5475,
      "촨</w>": 5476,
      "뜩</w>": 5477,
      "뛸</w>": 5478,
      "튐</w>": 5479,
      "뿜</w>": 5480,
      "뮌</w>": 5481,
      "듄</w>": 5482,
      "짴</w>": 5483,
      "텥</w>": 5484,
      "쎌</w>": 5485,
      "탔</w>": 5486,
      "얘</w>": 5487,
      "셍</w>": 5488,
      "슝</w>": 5489,
      "틋</w>": 5490,
      "펭</w>": 5491,
      "둣</w>": 5492,
      "뵈</w>": 5493,
      "숨</w>": 5494,
      "젓</w>": 5495,
      "숄</w>": 5496,
      "꿘</w>": 5497,
      "쏠</w>": 5498,
      "쾃</w>": 5499,
      "맂</w>": 5500,
      "놓</w>": 5501,
      "짼</w>": 5502,
      "넝</w>": 5503,
      "킂</w>": 5504,
      "슷</w>": 5505,
      "똑</w>": 5506,
      "랲</w>": 5507,
      "횰</w>": 5508,
      "볓</w>": 5509,
      "괌</w>": 5510,
      "쟌</w>": 5511,
      "콥</w>": 5512,
      "룀</w>": 5513,
      "쪙</w>": 5514,
      "곌</w>": 5515,
      "캥</w>": 5516,
      "껜</w>": 5517,
      "듸</w>": 5518,
      "윔</w>": 5519,
      "깝</w>": 5520,
      "븟</w>": 5521,
      "쳤</w>": 5522,
      "녜</w>": 5523,
      "놋</w>": 5524,
      "볻</w>": 5525,
      "싹</w>": 5526,
      "켬</w>": 5527,
      "짖</w>": 5528,
      "뵤</w>": 5529,
      "촛</w>": 5530,
      "흇</w>": 5531,
      "뭄</w>": 5532,
      "맺</w>": 5533,
      "뀜</w>": 5534,
      "땋</w>": 5535,
      "돋</w>": 5536,
      "빕</w>": 5537,
      "훙</w>": 5538,
      "깰</w>": 5539,
      "훨</w>": 5540,
      "찢</w>": 5541,
      "잦</w>": 5542,
      "쟝</w>": 5543,
      "갊</w>": 5544,
      "롣</w>": 5545,
      "찝</w>": 5546,
      "숯</w>": 5547,
      "젝</w>": 5548,
      "껨</w>": 5549,
      "헛</w>": 5550,
      "큿</w>": 5551,
      "곬</w>": 5552,
      "묻</w>": 5553,
      "륾</w>": 5554,
      "늠</w>": 5555,
      "쵀</w>": 5556,
      "훌</w>": 5557,
      "덫</w>": 5558,
      "놨</w>": 5559,
      "삵</w>": 5560,
      "쉭</w>": 5561,
      "겡</w>": 5562,
      "텨</w>": 5563,
      "팠</w>": 5564,
      "찾</w>": 5565,
      "콰</w>": 5566,
      "쪄</w>": 5567,
      "븜</w>": 5568,
      "멕</w>": 5569,
      "녓</w>": 5570,
      "닦</w>": 5571,
      "봊</w>": 5572,
      "늪</w>": 5573,
      "껩</w>": 5574,
      "큔</w>": 5575,
      "벵</w>": 5576,
      "쩝</w>": 5577,
      "닏</w>": 5578,
      "밝</w>": 5579,
      "팹</w>": 5580,
      "렇</w>": 5581,
      "봅</w>": 5582,
      "툥</w>": 5583,
      "밎</w>": 5584,
      "솦</w>": 5585,
      "붘</w>": 5586,
      "뺑</w>": 5587,
      "끙</w>": 5588,
      "댑</w>": 5589,
      "밌</w>": 5590,
      "꾹</w>": 5591,
      "틔</w>": 5592,
      "뿌</w>": 5593,
      "멈</w>": 5594,
      "숴</w>": 5595,
      "줓</w>": 5596,
      "짇</w>": 5597,
      "뇬</w>": 5598,
      "놩</w>": 5599,
      "옝</w>": 5600,
      "죈</w>": 5601,
      "퀼</w>": 5602,
      "찮</w>": 5603,
      "뀬</w>": 5604,
      "갖</w>": 5605,
      "묭</w>": 5606,
      "뇰</w>": 5607,
      "밸</w>": 5608,
      "좁</w>": 5609,
      "앰</w>": 5610,
      "튕</w>": 5611,
      "쭐</w>": 5612,
      "썽</w>": 5613,
      "윳</w>": 5614,
      "샀</w>": 5615,
      "쫀</w>": 5616,
      "얻</w>": 5617,
      "컥</w>": 5618,
      "췌</w>": 5619,
      "걺</w>": 5620,
      "쥠</w>": 5621,
      "깻</w>": 5622,
      "얐</w>": 5623,
      "씐</w>": 5624,
      "돎</w>": 5625,
      "솰</w>": 5626,
      "챤</w>": 5627,
      "큘</w>": 5628,
      "쟤</w>": 5629,
      "캘</w>": 5630,
      "렡</w>": 5631,
      "홰</w>": 5632,
      "떽</w>": 5633,
      "뮨</w>": 5634,
      "딪</w>": 5635,
      "돗</w>": 5636,
      "륫</w>": 5637,
      "빱</w>": 5638,
      "똘</w>": 5639,
      "쌜</w>": 5640,
      "웠</w>": 5641,
      "숩</w>": 5642,
      "맑</w>": 5643,
      "뭉</w>": 5644,
      "젔</w>": 5645,
      "퀀</w>": 5646,
      "팖</w>": 5647,
      "돵</w>": 5648,
      "쒸</w>": 5649,
      "숖</w>": 5650,
      "뚤</w>": 5651,
      "굡</w>": 5652,
      "뵘</w>": 5653,
      "옻</w>": 5654,
      "숌</w>": 5655,
      "흣</w>": 5656,
      "츈</w>": 5657,
      "츼</w>": 5658,
      "찔</w>": 5659,
      "랬</w>": 5660,
      "텃</w>": 5661,
      "믿</w>": 5662,
      "윸</w>": 5663,
      "쫌</w>": 5664,
      "삣</w>": 5665,
      "꽌</w>": 5666,
      "꼮</w>": 5667,
      "쨔</w>": 5668,
      "똔</w>": 5669,
      "욲</w>": 5670,
      "흉</w>": 5671,
      "냣</w>": 5672,
      "긷</w>": 5673,
      "뼉</w>": 5674,
      "콴</w>": 5675,
      "텁</w>": 5676,
      "뤠</w>": 5677,
      "떰</w>": 5678,
      "푠</w>": 5679,
      "않</w>": 5680,
      "덥</w>": 5681,
      "셤</w>": 5682,
      "켑</w>": 5683,
      "퐉</w>": 5684,
      "쪼</w>": 5685,
      "밈</w>": 5686,
      "춸</w>": 5687,
      "긱</w>": 5688,
      "꽂</w>": 5689,
      "휩</w>": 5690,
      "쉣</w>": 5691,
      "멩</w>": 5692,
      "쓔</w>": 5693,
      "뻐</w>": 5694,
      "흄</w>": 5695,
      "쭝</w>": 5696,
      "쌓</w>": 5697,
      "짹</w>": 5698,
      "뗀</w>": 5699,
      "곈</w>": 5700,
      "믜</w>": 5701,
      "삥</w>": 5702,
      "룔</w>": 5703,
      "쯧</w>": 5704,
      "윕</w>": 5705,
      "뭘</w>": 5706,
      "얗</w>": 5707,
      "쌘</w>": 5708,
      "섶</w>": 5709,
      "쉡</w>": 5710,
      "슏</w>": 5711,
      "곷</w>": 5712,
      "쳔</w>": 5713,
      "맴</w>": 5714,
      "헹</w>": 5715,
      "쿈</w>": 5716,
      "꼐</w>": 5717,
      "욬</w>": 5718,
      "닳</w>": 5719,
      "닸</w>": 5720,
      "줫</w>": 5721,
      "껭</w>": 5722,
      "걷</w>": 5723,
      "뚬</w>": 5724,
      "삔</w>": 5725,
      "뭩</w>": 5726,
      "톄</w>": 5727,
      "뗄</w>": 5728,
      "귿</w>": 5729,
      "높</w>": 5730,
      "둡</w>": 5731,
      "뀍</w>": 5732,
      "떨</w>": 5733,
      "뗌</w>": 5734,
      "킅</w>": 5735,
      "얾</w>": 5736,
      "닒</w>": 5737,
      "릎</w>": 5738,
      "뱜</w>": 5739,
      "쌩</w>": 5740,
      "쳬</w>": 5741,
      "켙</w>": 5742,
      "롷</w>": 5743,
      "뵌</w>": 5744,
      "횡</w>": 5745,
      "륻</w>": 5746,
      "푹</w>": 5747,
      "눙</w>": 5748,
      "끽</w>": 5749,
      "숼</w>": 5750,
      "윰</w>": 5751,
      "붑</w>": 5752,
      "륌</w>": 5753,
      "탉</w>": 5754,
      "촘</w>": 5755,
      "뽱</w>": 5756,
      "뺨</w>": 5757,
      "겅</w>": 5758,
      "뉼</w>": 5759,
      "팻</w>": 5760,
      "덟</w>": 5761,
      "뺄</w>": 5762,
      "흴</w>": 5763,
      "뷜</w>": 5764,
      "탸</w>": 5765,
      "닫</w>": 5766,
      "쓍</w>": 5767,
      "낡</w>": 5768,
      "엨</w>": 5769,
      "췐</w>": 5770,
      "펏</w>": 5771,
      "룝</w>": 5772,
      "놘</w>": 5773,
      "씻</w>": 5774,
      "앓</w>": 5775,
      "벒</w>": 5776,
      "귑</w>": 5777,
      "슉</w>": 5778,
      "빤</w>": 5779,
      "훕</w>": 5780,
      "많</w>": 5781,
      "튁</w>": 5782,
      "맃</w>": 5783,
      "땍</w>": 5784,
      "쇽</w>": 5785,
      "낯</w>": 5786,
      "벚</w>": 5787,
      "츳</w>": 5788,
      "훜</w>": 5789,
      "맽</w>": 5790,
      "껐</w>": 5791,
      "켛</w>": 5792,
      "탤</w>": 5793,
      "넋</w>": 5794,
      "늗</w>": 5795,
      "삑</w>": 5796,
      "켁</w>": 5797,
      "쥰</w>": 5798,
      "졍</w>": 5799,
      "찹</w>": 5800,
      "켠</w>": 5801,
      "넉</w>": 5802,
      "꼰</w>": 5803,
      "젊</w>": 5804,
      "껍</w>": 5805,
      "앝</w>": 5806,
      "됌</w>": 5807,
      "짭</w>": 5808,
      "퓔</w>": 5809,
      "좬</w>": 5810,
      "룐</w>": 5811,
      "뢀</w>": 5812,
      "꼳</w>": 5813,
      "횟</w>": 5814,
      "뽐</w>": 5815,
      "옳</w>": 5816,
      "쳌</w>": 5817,
      "빴</w>": 5818,
      "졔</w>": 5819,
      "깢</w>": 5820,
      "궴</w>": 5821,
      "낰</w>": 5822,
      "깬</w>": 5823,
      "뉄</w>": 5824,
      "곸</w>": 5825,
      "쉿</w>": 5826,
      "쳇</w>": 5827,
      "닞</w>": 5828,
      "굳</w>": 5829,
      "쏨</w>": 5830,
      "쩟</w>": 5831,
      "웽</w>": 5832,
      "잊</w>": 5833,
      "팃</w>": 5834,
      "얹</w>": 5835,
      "깽</w>": 5836,
      "켤</w>": 5837,
      "륄</w>": 5838,
      "쩡</w>": 5839,
      "넵</w>": 5840,
      "멎</w>": 5841,
      "헣</w>": 5842,
      "릏</w>": 5843,
      "웏</w>": 5844,
      "돤</w>": 5845,
      "휸</w>": 5846,
      "햑</w>": 5847,
      "졉</w>": 5848,
      "깎</w>": 5849,
      "걔</w>": 5850,
      "뤈</w>": 5851,
      "닿</w>": 5852,
      "뢸</w>": 5853,
      "빎</w>": 5854,
      "끰</w>": 5855,
      "얜</w>": 5856,
      "뢴</w>": 5857,
      "뺭</w>": 5858,
      "싿</w>": 5859,
      "퍄</w>": 5860,
      "쫩</w>": 5861,
      "뮘</w>": 5862,
      "갰</w>": 5863,
      "띌</w>": 5864,
      "쮜</w>": 5865,
      "쳄</w>": 5866,
      "뱉</w>": 5867,
      "뷕</w>": 5868,
      "훠</w>": 5869,
      "덮</w>": 5870,
      "럐</w>": 5871,
      "챙</w>": 5872,
      "뱁</w>": 5873,
      "욮</w>": 5874,
      "쟨</w>": 5875,
      "휑</w>": 5876,
      "쳘</w>": 5877,
      "묏</w>": 5878,
      "읱</w>": 5879,
      "욷</w>": 5880,
      "묀</w>": 5881,
      "멋</w>": 5882,
      "읜</w>": 5883,
      "뎽</w>": 5884,
      "햘</w>": 5885,
      "륀</w>": 5886,
      "췬</w>": 5887,
      "췰</w>": 5888,
      "혔</w>": 5889,
      "낏</w>": 5890,
      "펔</w>": 5891,
      "왯</w>": 5892,
      "졈</w>": 5893,
      "죔</w>": 5894,
      "웤</w>": 5895,
      "톈</w>": 5896,
      "볽</w>": 5897,
      "궍</w>": 5898,
      "읗</w>": 5899,
      "댱</w>": 5900,
      "덪</w>": 5901,
      "꾄</w>": 5902,
      "펩</w>": 5903,
      "쫜</w>": 5904,
      "쎼</w>": 5905,
      "쬠</w>": 5906,
      "꼼</w>": 5907,
      "됫</w>": 5908,
      "왱</w>": 5909,
      "쭌</w>": 5910,
      "짬</w>": 5911,
      "촥</w>": 5912,
      "늑</w>": 5913,
      "뱡</w>": 5914,
      "얍</w>": 5915,
      "얕</w>": 5916,
      "밟</w>": 5917,
      "킼</w>": 5918,
      "썼</w>": 5919,
      "굉</w>": 5920,
      "힝</w>": 5921,
      "햔</w>": 5922,
      "쐏</w>": 5923,
      "떫</w>": 5924,
      "럸</w>": 5925,
      "뉠</w>": 5926,
      "덬</w>": 5927,
      "팣</w>": 5928,
      "캬</w>": 5929,
      "싴</w>": 5930,
      "눼</w>": 5931,
      "깆</w>": 5932,
      "쯕</w>": 5933,
      "뜹</w>": 5934,
      "츤</w>": 5935,
      "륩</w>": 5936,
      "벞</w>": 5937,
      "썁</w>": 5938,
      "쨘</w>": 5939,
      "됀</w>": 5940,
      "뢋</w>": 5941,
      "뒬</w>": 5942,
      "꿋</w>": 5943,
      "릳</w>": 5944,
      "띄</w>": 5945,
      "뵐</w>": 5946,
      "촵</w>": 5947,
      "햣</w>": 5948,
      "늉</w>": 5949,
      "쿳</w>": 5950,
      "볕</w>": 5951,
      "솽</w>": 5952,
      "잏</w>": 5953,
      "챂</w>": 5954,
      "뺐</w>": 5955,
      "쳉</w>": 5956,
      "컾</w>": 5957,
      "잴</w>": 5958,
      "뙁</w>": 5959,
      "롹</w>": 5960,
      "촐</w>": 5961,
      "깪</w>": 5962,
      "넣</w>": 5963,
      "걍</w>": 5964,
      "냬</w>": 5965,
      "떢</w>": 5966,
      "멤</w>": 5967,
      "뻴</w>": 5968,
      "읔</w>": 5969,
      "꼿</w>": 5970,
      "읏</w>": 5971,
      "갇</w>": 5972,
      "엎</w>": 5973,
      "칰</w>": 5974,
      "즞</w>": 5975,
      "왼</w>": 5976,
      "깠</w>": 5977,
      "셱</w>": 5978,
      "쁙</w>": 5979,
      "홱</w>": 5980,
      "쾀</w>": 5981,
      "픝</w>": 5982,
      "줬</w>": 5983,
      "잗</w>": 5984,
      "웕</w>": 5985,
      "춓</w>": 5986,
      "닠</w>": 5987,
      "믛</w>": 5988,
      "춧</w>": 5989,
      "큗</w>": 5990,
      "팰</w>": 5991,
      "뚠</w>": 5992,
      "꺨</w>": 5993,
      "넞</w>": 5994,
      "꿕</w>": 5995,
      "욛</w>": 5996,
      "겂</w>": 5997,
      "힉</w>": 5998,
      "쳥</w>": 5999,
      "맟</w>": 6000,
      "풉</w>": 6001,
      "떵</w>": 6002,
      "돚</w>": 6003,
      "깼</w>": 6004,
      "닻</w>": 6005,
      "윛</w>": 6006,
      "뺍</w>": 6007,
      "몈</w>": 6008,
      "썀</w>": 6009,
      "죙</w>": 6010,
      "흗</w>": 6011,
      "횔</w>": 6012,
      "쌉</w>": 6013,
      "닯</w>": 6014,
      "갬</w>": 6015,
      "춴</w>": 6016,
      "랗</w>": 6017,
      "슙</w>": 6018,
      "넜</w>": 6019,
      "홧</w>": 6020,
      "핳</w>": 6021,
      "싄</w>": 6022,
      "핧</w>": 6023,
      "럱</w>": 6024,
      "봔</w>": 6025,
      "썻</w>": 6026,
      "섣</w>": 6027,
      "귁</w>": 6028,
      "솨</w>": 6029,
      "쫑</w>": 6030,
      "헑</w>": 6031,
      "잋</w>": 6032,
      "쏵</w>": 6033,
      "먀</w>": 6034,
      "짊</w>": 6035,
      "돝</w>": 6036,
      "촙</w>": 6037,
      "닼</w>": 6038,
      "뗼</w>": 6039,
      "쟬</w>": 6040,
      "펼</w>": 6041,
      "쿙</w>": 6042,
      "뙇</w>": 6043,
      "뼛</w>": 6044,
      "킈</w>": 6045,
      "땨</w>": 6046,
      "댠</w>": 6047,
      "죳</w>": 6048,
      "떳</w>": 6049,
      "핰</w>": 6050,
      "컼</w>": 6051,
      "췄</w>": 6052,
      "늦</w>": 6053,
      "풂</w>": 6054,
      "퉷</w>": 6055,
      "햬</w>": 6056,
      "뉜</w>": 6057,
      "좍</w>": 6058,
      "썲</w>": 6059,
      "컁</w>": 6060,
      "읕</w>": 6061,
      "몋</w>": 6062,
      "윧</w>": 6063,
      "퓌</w>": 6064,
      "앨</w>": 6065,
      "쐴</w>": 6066,
      "쟇</w>": 6067,
      "쇨</w>": 6068,
      "큄</w>": 6069,
      "탶</w>": 6070,
      "푄</w>": 6071,
      "읃</w>": 6072,
      "밉</w>": 6073,
      "춥</w>": 6074,
      "콬</w>": 6075,
      "밒</w>": 6076,
      "몲</w>": 6077,
      "퀭</w>": 6078,
      "섐</w>": 6079,
      "앍</w>": 6080,
      "뭍</w>": 6081,
      "틷</w>": 6082,
      "앜</w>": 6083,
      "띰</w>": 6084,
      "읿</w>": 6085,
      "읷</w>": 6086,
      "큥</w>": 6087,
      "힣</w>": 6088,
      "쩰</w>": 6089,
      "혱</w>": 6090,
      "돡</w>": 6091,
      "뢱</w>": 6092,
      "잍</w>": 6093,
      "깞</w>": 6094,
      "댖</w>": 6095,
      "롄</w>": 6096,
      "숱</w>": 6097,
      "핛</w>": 6098,
      "셥</w>": 6099,
      "볜</w>": 6100,
      "춉</w>": 6101,
      "\u001e</w>": 6102,
      "웻</w>": 6103,
      "뗜</w>": 6104,
      "쇰</w>": 6105,
      "듡</w>": 6106,
      "잤</w>": 6107,
      "쏜</w>": 6108,
      "뎨</w>": 6109,
      "캑</w>": 6110,
      "뤽</w>": 6111,
      "왝</w>": 6112,
      "엮</w>": 6113,
      "냇</w>": 6114,
      "겥</w>": 6115,
      "쪈</w>": 6116,
      "갯</w>": 6117,
      "눞</w>": 6118,
      "싞</w>": 6119,
      "슌</w>": 6120,
      "춈</w>": 6121,
      "깁</w>": 6122,
      "썅</w>": 6123,
      "횬</w>": 6124,
      "녠</w>": 6125,
      "볘</w>": 6126,
      "툐</w>": 6127,
      "뺘</w>": 6128,
      "퓁</w>": 6129,
      "봬</w>": 6130,
      "싵</w>": 6131,
      "쑨</w>": 6132,
      "냰</w>": 6133,
      "쥘</w>": 6134,
      "맡</w>": 6135,
      "윷</w>": 6136,
      "꽥</w>": 6137,
      "슥</w>": 6138,
      "삯</w>": 6139,
      "뭥</w>": 6140,
      "겯</w>": 6141,
      "쏴</w>": 6142,
      "껼</w>": 6143,
      "넫</w>": 6144,
      "쨍</w>": 6145,
      "뺌</w>": 6146,
      "얖</w>": 6147,
      "훽</w>": 6148,
      "횅</w>": 6149,
      "썡</w>": 6150,
      "앟</w>": 6151,
      "첌</w>": 6152,
      "섢</w>": 6153,
      "둴</w>": 6154,
      "쬐</w>": 6155,
      "짙</w>": 6156,
      "됮</w>": 6157,
      "멵</w>": 6158,
      "괜</w>": 6159,
      "읠</w>": 6160,
      "짧</w>": 6161,
      "꼍</w>": 6162,
      "휗</w>": 6163,
      "겄</w>": 6164,
      "릫</w>": 6165,
      "휀</w>": 6166,
      "났</w>": 6167,
      "벜</w>": 6168,
      "췍</w>": 6169,
      "졷</w>": 6170,
      "앹</w>": 6171,
      "벰</w>": 6172,
      "듼</w>": 6173,
      "랸</w>": 6174,
      "휭</w>": 6175,
      "띅</w>": 6176,
      "랖</w>": 6177,
      "걘</w>": 6178,
      "욯</w>": 6179,
      "뎔</w>": 6180,
      "쓿</w>": 6181,
      "쩁</w>": 6182,
      "얠</w>": 6183,
      "싣</w>": 6184,
      "쾍</w>": 6185,
      "쓱</w>": 6186,
      "눴</w>": 6187,
      "쐇</w>": 6188,
      "뎠</w>": 6189,
      "뽝</w>": 6190,
      "챰</w>": 6191,
      "긾</w>": 6192,
      "놕</w>": 6193,
      "쫒</w>": 6194,
      "갹</w>": 6195,
      "셐</w>": 6196,
      "굨</w>": 6197,
      "뉵</w>": 6198,
      "끊</w>": 6199,
      "붇</w>": 6200,
      "굚</w>": 6201,
      "흨</w>": 6202,
      "튭</w>": 6203,
      "홑</w>": 6204,
      "룑</w>": 6205,
      "릀</w>": 6206,
      "넓</w>": 6207,
      "킄</w>": 6208,
      "윱</w>": 6209,
      "갗</w>": 6210,
      "쀠</w>": 6211,
      "횐</w>": 6212,
      "끕</w>": 6213,
      "왐</w>": 6214,
      "궨</w>": 6215,
      "뜯</w>": 6216,
      "뫈</w>": 6217,
      "샂</w>": 6218,
      "홴</w>": 6219,
      "샙</w>": 6220,
      "홗</w>": 6221,
      "띳</w>": 6222,
      "퀌</w>": 6223,
      "늙</w>": 6224,
      "턣</w>": 6225,
      "촹</w>": 6226,
      "끉</w>": 6227,
      "홋</w>": 6228,
      "줭</w>": 6229,
      "몱</w>": 6230,
      "댔</w>": 6231,
      "꿴</w>": 6232,
      "쥼</w>": 6233,
      "괼</w>": 6234,
      "곹</w>": 6235,
      "궘</w>": 6236,
      "끨</w>": 6237,
      "휵</w>": 6238,
      "챱</w>": 6239,
      "멥</w>": 6240,
      "쾨</w>": 6241,
      "뻰</w>": 6242,
      "칟</w>": 6243,
      "뜐</w>": 6244,
      "쟛</w>": 6245,
      "콱</w>": 6246,
      "똻</w>": 6247,
      "잃</w>": 6248,
      "틐</w>": 6249,
      "챘</w>": 6250,
      "섀</w>": 6251,
      "엗</w>": 6252,
      "껸</w>": 6253,
      "촣</w>": 6254,
      "뭋</w>": 6255,
      "욭</w>": 6256,
      "쉥</w>": 6257,
      "삳</w>": 6258,
      "갼</w>": 6259,
      "쳅</w>": 6260,
      "녔</w>": 6261,
      "즤</w>": 6262,
      "꺆</w>": 6263,
      "껫</w>": 6264,
      "롼</w>": 6265,
      "댯</w>": 6266,
      "홖</w>": 6267,
      "핱</w>": 6268,
      "깸</w>": 6269,
      "풱</w>": 6270,
      "읅</w>": 6271,
      "읫</w>": 6272,
      "웝</w>": 6273,
      "쫘</w>": 6274,
      "핥</w>": 6275,
      "얶</w>": 6276,
      "컄</w>": 6277,
      "뺏</w>": 6278,
      "룍</w>": 6279,
      "샊</w>": 6280,
      "셒</w>": 6281,
      "굻</w>": 6282,
      "밬</w>": 6283,
      "웚</w>": 6284,
      "쑹</w>": 6285,
      "챡</w>": 6286,
      "튤</w>": 6287,
      "팎</w>": 6288,
      "슮</w>": 6289,
      "쏀</w>": 6290,
      "잨</w>": 6291,
      "헠</w>": 6292,
      "엍</w>": 6293,
      "꿨</w>": 6294,
      "뗴</w>": 6295,
      "얔</w>": 6296,
      "뉨</w>": 6297,
      "꾯</w>": 6298,
      "몪</w>": 6299,
      "렦</w>": 6300,
      "씅</w>": 6301,
      "꿿</w>": 6302,
      "젣</w>": 6303,
      "핕</w>": 6304,
      "멫</w>": 6305,
      "앉</w>": 6306,
      "삷</w>": 6307,
      "뵀</w>": 6308,
      "쓕</w>": 6309,
      "츌</w>": 6310,
      "썪</w>": 6311,
      "죰</w>": 6312,
      "낳</w>": 6313,
      "멂</w>": 6314,
      "곁</w>": 6315,
      "뇻</w>": 6316,
      "찻</w>": 6317,
      "갂</w>": 6318,
      "덷</w>": 6319,
      "좇</w>": 6320,
      "팤</w>": 6321,
      "겉</w>": 6322,
      "돨</w>": 6323,
      "휨</w>": 6324,
      "쒄</w>": 6325,
      "돟</w>": 6326,
      "혠</w>": 6327,
      "뤘</w>": 6328,
      "돍</w>": 6329,
      "젇</w>": 6330,
      "쪕</w>": 6331,
      "퐈</w>": 6332,
      "퓽</w>": 6333,
      "곕</w>": 6334,
      "헵</w>": 6335,
      "쨋</w>": 6336,
      "쳑</w>": 6337,
      "뉭</w>": 6338,
      "퉈</w>": 6339,
      "핼</w>": 6340,
      "굥</w>": 6341,
      "벺</w>": 6342,
      "졀</w>": 6343,
      "퍅</w>": 6344,
      "몫</w>": 6345,
      "갛</w>": 6346,
      "뒨</w>": 6347,
      "뚯</w>": 6348,
      "딛</w>": 6349,
      "슾</w>": 6350,
      "샅</w>": 6351,
      "꿉</w>": 6352,
      "쫭</w>": 6353,
      "훍</w>": 6354,
      "엾</w>": 6355,
      "멒</w>": 6356,
      "뽑</w>": 6357,
      "쯜</w>": 6358,
      "젆</w>": 6359,
      "웷</w>": 6360,
      "큠</w>": 6361,
      "맠</w>": 6362,
      "빳</w>": 6363,
      "앋</w>": 6364,
      "폄</w>": 6365,
      "딮</w>": 6366,
      "쾽</w>": 6367,
      "쬔</w>": 6368,
      "쫓</w>": 6369,
      "챀</w>": 6370,
      "욋</w>": 6371,
      "윾</w>": 6372,
      "훑</w>": 6373,
      "혓</w>": 6374,
      "읓</w>": 6375,
      "뇸</w>": 6376,
      "텦</w>": 6377,
      "귪</w>": 6378,
      "읋</w>": 6379,
      "놂</w>": 6380,
      "뷁</w>": 6381,
      "튈</w>": 6382,
      "퐐</w>": 6383,
      "삠</w>": 6384,
      "펢</w>": 6385,
      "웸</w>": 6386,
      "췟</w>": 6387,
      "띡</w>": 6388,
      "늣</w>": 6389,
      "닺</w>": 6390,
      "옯</w>": 6391,
      "궛</w>": 6392,
      "쭁</w>": 6393,
      "쯥</w>": 6394,
      "빝</w>": 6395,
      "퐝</w>": 6396,
      "퐌</w>": 6397,
      "겍</w>": 6398,
      "끎</w>": 6399,
      "꿱</w>": 6400,
      "뢿</w>": 6401,
      "넸</w>": 6402,
      "봘</w>": 6403,
      "퀠</w>": 6404,
      "귺</w>": 6405,
      "콸</w>": 6406,
      "졋</w>": 6407,
      "춯</w>": 6408,
      "휼</w>": 6409,
      "춪</w>": 6410,
      "쟙</w>": 6411,
      "겆</w>": 6412,
      "줏</w>": 6413,
      "믓</w>": 6414,
      "숔</w>": 6415,
      "퓰</w>": 6416,
      "늴</w>": 6417,
      "흩</w>": 6418,
      "뽓</w>": 6419,
      "댸</w>": 6420,
      "쁩</w>": 6421,
      "쬘</w>": 6422,
      "섺</w>": 6423,
      "왂</w>": 6424,
      "몃</w>": 6425,
      "됄</w>": 6426,
      "늰</w>": 6427,
      "눤</w>": 6428,
      "찼</w>": 6429,
      "궉</w>": 6430,
      "뫄</w>": 6431,
      "뤌</w>": 6432,
      "톸</w>": 6433,
      "믕</w>": 6434,
      "뒺</w>": 6435,
      "빢</w>": 6436,
      "쎔</w>": 6437,
      "땠</w>": 6438,
      "짂</w>": 6439,
      "눁</w>": 6440,
      "윺</w>": 6441,
      "뎇</w>": 6442,
      "텉</w>": 6443,
      "싈</w>": 6444,
      "읨</w>": 6445,
      "햊</w>": 6446,
      "옿</w>": 6447,
      "엶</w>": 6448,
      "샏</w>": 6449,
      "쪌</w>": 6450,
      "넮</w>": 6451,
      "뵨</w>": 6452,
      "춍</w>": 6453,
      "릋</w>": 6454,
      "뗏</w>": 6455,
      "뗑</w>": 6456,
      "뮥</w>": 6457,
      "뷘</w>": 6458,
      "븨</w>": 6459,
      "맻</w>": 6460,
      "뿡</w>": 6461,
      "롵</w>": 6462,
      "쳡</w>": 6463,
      "몄</w>": 6464,
      "몐</w>": 6465,
      "갉</w>": 6466,
      "귽</w>": 6467,
      "깹</w>": 6468,
      "댛</w>": 6469,
      "횻</w>": 6470,
      "헿</w>": 6471,
      "긁</w>": 6472,
      "웈</w>": 6473,
      "봌</w>": 6474,
      "핡</w>": 6475,
      "뵙</w>": 6476,
      "섁</w>": 6477,
      "씜</w>": 6478,
      "꿰</w>": 6479,
      "읒</w>": 6480,
      "넾</w>": 6481,
      "쏫</w>": 6482,
      "삉</w>": 6483,
      "넽</w>": 6484,
      "틩</w>": 6485,
      "쓩</w>": 6486,
      "깊</w>": 6487,
      "즛</w>": 6488,
      "겪</w>": 6489,
      "멪</w>": 6490,
      "똮</w>": 6491,
      "좐</w>": 6492,
      "잩</w>": 6493,
      "닣</w>": 6494,
      "샸</w>": 6495,
      "핤</w>": 6496,
      "벹</w>": 6497,
      "괭</w>": 6498,
      "늩</w>": 6499,
      "몌</w>": 6500,
      "뚫</w>": 6501,
      "큉</w>": 6502,
      "봥</w>": 6503,
      "챃</w>": 6504,
      "튱</w>": 6505,
      "왘</w>": 6506,
      "꼩</w>": 6507,
      "컸</w>": 6508,
      "땁</w>": 6509,
      "킐</w>": 6510,
      "좔</w>": 6511,
      "췻</w>": 6512,
      "옭</w>": 6513,
      "궥</w>": 6514,
      "퀑</w>": 6515,
      "똿</w>": 6516,
      "텓</w>": 6517,
      "맆</w>": 6518,
      "귓</w>": 6519,
      "쭤</w>": 6520,
      "됙</w>": 6521,
      "맇</w>": 6522,
      "럇</w>": 6523,
      "뭅</w>": 6524,
      "괙</w>": 6525,
      "컽</w>": 6526,
      "뗘</w>": 6527,
      "쇅</w>": 6528,
      "왹</w>": 6529,
      "욈</w>": 6530,
      "겝</w>": 6531,
      "샇</w>": 6532,
      "덖</w>": 6533,
      "뻠</w>": 6534,
      "돛</w>": 6535,
      "잚</w>": 6536,
      "훃</w>": 6537,
      "묾</w>": 6538,
      "쥉</w>": 6539,
      "싳</w>": 6540,
      "퐅</w>": 6541,
      "휜</w>": 6542,
      "옮</w>": 6543,
      "밗</w>": 6544,
      "덛</w>": 6545,
      "헫</w>": 6546,
      "덣</w>": 6547,
      "븍</w>": 6548,
      "쭘</w>": 6549,
      "떱</w>": 6550,
      "냡</w>": 6551,
      "쪠</w>": 6552,
      "튘</w>": 6553,
      "켭</w>": 6554,
      "뺴</w>": 6555,
      "훟</w>": 6556,
      "꿸</w>": 6557,
      "궂</w>": 6558,
      "떴</w>": 6559,
      "뭏</w>": 6560,
      "뮐</w>": 6561,
      "꾝</w>": 6562,
      "뤩</w>": 6563,
      "꺾</w>": 6564,
      "뷱</w>": 6565,
      "팼</w>": 6566,
      "횝</w>": 6567,
      "럾</w>": 6568,
      "긿</w>": 6569,
      "욍</w>": 6570,
      "잙</w>": 6571,
      "즩</w>": 6572,
      "꼄</w>": 6573,
      "럠</w>": 6574,
      "뭃</w>": 6575,
      "쓷</w>": 6576,
      "맊</w>": 6577,
      "줴</w>": 6578,
      "욀</w>": 6579,
      "깩</w>": 6580,
      "캍</w>": 6581,
      "쌌</w>": 6582,
      "쉪</w>": 6583,
      "먠</w>": 6584,
      "젹</w>": 6585,
      "앁</w>": 6586,
      "쎰</w>": 6587,
      "띔</w>": 6588,
      "릘</w>": 6589,
      "큁</w>": 6590,
      "붊</w>": 6591,
      "캭</w>": 6592,
      "훘</w>": 6593,
      "잽</w>": 6594,
      "뻭</w>": 6595,
      "걋</w>": 6596,
      "샡</w>": 6597,
      "컫</w>": 6598,
      "퀙</w>": 6599,
      "붆</w>": 6600,
      "맣</w>": 6601,
      "뺼</w>": 6602,
      "얩</w>": 6603,
      "츅</w>": 6604,
      "밯</w>": 6605,
      "쇳</w>": 6606,
      "엩</w>": 6607,
      "슽</w>": 6608,
      "곅</w>": 6609,
      "걁</w>": 6610,
      "읹</w>": 6611,
      "푀</w>": 6612,
      "럄</w>": 6613,
      "냘</w>": 6614,
      "뇐</w>": 6615,
      "쩽</w>": 6616,
      "맜</w>": 6617,
      "짘</w>": 6618,
      "붸</w>": 6619,
      "옃</w>": 6620,
      "쏚</w>": 6621,
      "웧</w>": 6622,
      "깵</w>": 6623,
      "닽</w>": 6624,
      "텬</w>": 6625,
      "섞</w>": 6626,
      "뻡</w>": 6627,
      "귬</w>": 6628,
      "챕</w>": 6629,
      "짞</w>": 6630,
      "탴</w>": 6631,
      "곗</w>": 6632,
      "뀽</w>": 6633,
      "탇</w>": 6634,
      "븅</w>": 6635,
      "떙</w>": 6636,
      "틜</w>": 6637,
      "쩬</w>": 6638,
      "괆</w>": 6639,
      "뎗</w>": 6640,
      "놏</w>": 6641,
      "췩</w>": 6642,
      "욉</w>": 6643,
      "슼</w>": 6644,
      "쯘</w>": 6645,
      "퓩</w>": 6646,
      "곻</w>": 6647,
      "뚀</w>": 6648,
      "먜</w>": 6649,
      "툉</w>": 6650,
      "쭙</w>": 6651,
      "샆</w>": 6652,
      "픙</w>": 6653,
      "듑</w>": 6654,
      "뇩</w>": 6655,
      "좃</w>": 6656,
      "쨥</w>": 6657,
      "\u001d</w>": 6658,
      "갘</w>": 6659,
      "퇘</w>": 6660,
      "췸</w>": 6661,
      "뒝</w>": 6662,
      "댤</w>": 6663,
      "븡</w>": 6664,
      "낢</w>": 6665,
      "뺸</w>": 6666,
      "엏</w>": 6667,
      "퓬</w>": 6668,
      "쟀</w>": 6669,
      "옘</w>": 6670,
      "흫</w>": 6671,
      "뒹</w>": 6672,
      "쥑</w>": 6673,
      "읮</w>": 6674,
      "븃</w>": 6675,
      "돳</w>": 6676,
      "곯</w>": 6677,
      "룟</w>": 6678,
      "훓</w>": 6679,
      "졽</w>": 6680,
      "뎈</w>": 6681,
      "솓</w>": 6682,
      "샜</w>": 6683,
      "롞</w>": 6684,
      "둉</w>": 6685,
      "붚</w>": 6686,
      "똣</w>": 6687,
      "꽅</w>": 6688,
      "홒</w>": 6689,
      "웊</w>": 6690,
      "눨</w>": 6691,
      "볐</w>": 6692,
      "빋</w>": 6693,
      "쾰</w>": 6694,
      "첬</w>": 6695,
      "즁</w>": 6696,
      "쀍</w>": 6697,
      "넡</w>": 6698,
      "콫</w>": 6699,
      "빻</w>": 6700,
      "헒</w>": 6701,
      "먁</w>": 6702,
      "섻</w>": 6703,
      "돞</w>": 6704,
      "됬</w>": 6705,
      "뤃</w>": 6706,
      "먐</w>": 6707,
      "씔</w>": 6708,
      "솀</w>": 6709,
      "뙈</w>": 6710,
      "큨</w>": 6711,
      "뗐</w>": 6712,
      "굶</w>": 6713,
      "먕</w>": 6714,
      "긘</w>": 6715,
      "뀝</w>": 6716,
      "뇔</w>": 6717,
      "짯</w>": 6718,
      "쫳</w>": 6719,
      "먗</w>": 6720,
      "렍</w>": 6721,
      "팯</w>": 6722,
      "귝</w>": 6723,
      "힡</w>": 6724,
      "묽</w>": 6725,
      "읾</w>": 6726,
      "릌</w>": 6727,
      "줜</w>": 6728,
      "쭛</w>": 6729,
      "슆</w>": 6730,
      "멬</w>": 6731,
      "쒼</w>": 6732,
      "걒</w>": 6733,
      "튿</w>": 6734,
      "풤</w>": 6735,
      "땔</w>": 6736,
      "숟</w>": 6737,
      "쐈</w>": 6738,
      "눝</w>": 6739,
      "틉</w>": 6740,
      "횩</w>": 6741,
      "흽</w>": 6742,
      "붗</w>": 6743,
      "굗</w>": 6744,
      "힁</w>": 6745,
      "굣</w>": 6746,
      "틥</w>": 6747,
      "폽</w>": 6748,
      "찧</w>": 6749,
      "팊</w>": 6750,
      "뒜</w>": 6751,
      "싻</w>": 6752,
      "죱</w>": 6753,
      "옙</w>": 6754,
      "펲</w>": 6755,
      "꾐</w>": 6756,
      "쨀</w>": 6757,
      "휅</w>": 6758,
      "젗</w>": 6759,
      "띁</w>": 6760,
      "꾱</w>": 6761,
      "녙</w>": 6762,
      "긕</w>": 6763,
      "뫅</w>": 6764,
      "쾡</w>": 6765,
      "폈</w>": 6766,
      "맅</w>": 6767,
      "첡</w>": 6768,
      "롴</w>": 6769,
      "픅</w>": 6770,
      "듴</w>": 6771,
      "앖</w>": 6772,
      "뽤</w>": 6773,
      "뻗</w>": 6774,
      "굩</w>": 6775,
      "엊</w>": 6776,
      "욺</w>": 6777,
      "캤</w>": 6778,
      "걕</w>": 6779,
      "싟</w>": 6780,
      "눇</w>": 6781,
      "귱</w>": 6782,
      "갌</w>": 6783,
      "왭</w>": 6784,
      "쐰</w>": 6785,
      "굄</w>": 6786,
      "쌋</w>": 6787,
      "궶</w>": 6788,
      "싑</w>": 6789,
      "왬</w>": 6790,
      "읊</w>": 6791,
      "뱔</w>": 6792,
      "힞</w>": 6793,
      "쟉</w>": 6794,
      "왇</w>": 6795,
      "흼</w>": 6796,
      "틤</w>": 6797,
      "틂</w>": 6798,
      "즨</w>": 6799,
      "걜</w>": 6800,
      "됑</w>": 6801,
      "롁</w>": 6802,
      "쏸</w>": 6803,
      "딲</w>": 6804,
      "쩅</w>": 6805,
      "꿏</w>": 6806,
      "볁</w>": 6807,
      "죗</w>": 6808,
      "땝</w>": 6809,
      "믾</w>": 6810,
      "픠</w>": 6811,
      "킿</w>": 6812,
      "쯩</w>": 6813,
      "쵹</w>": 6814,
      "꺗</w>": 6815,
      "겈</w>": 6816,
      "꿎</w>": 6817,
      "휏</w>": 6818,
      "늅</w>": 6819,
      "꺢</w>": 6820,
      "갅</w>": 6821,
      "잛</w>": 6822,
      "섈</w>": 6823,
      "랒</w>": 6824,
      "셌</w>": 6825,
      "긺</w>": 6826,
      "혬</w>": 6827,
      "쌱</w>": 6828,
      "턔</w>": 6829,
      "눉</w>": 6830,
      "뭡</w>": 6831,
      "싦</w>": 6832,
      "봙</w>": 6833,
      "궝</w>": 6834,
      "쇙</w>": 6835,
      "윯</w>": 6836,
      "몔</w>": 6837,
      "릱</w>": 6838,
      "훰</w>": 6839,
      "똭</w>": 6840,
      "픕</w>": 6841,
      "쏟</w>": 6842,
      "쵠</w>": 6843,
      "뼁</w>": 6844,
      "옦</w>": 6845,
      "뉍</w>": 6846,
      "똠</w>": 6847,
      "쬭</w>": 6848,
      "꽛</w>": 6849,
      "꼉</w>": 6850,
      "뀰</w>": 6851,
      "솃</w>": 6852,
      "풒</w>": 6853,
      "흭</w>": 6854,
      "걈</w>": 6855,
      "쥭</w>": 6856,
      "쒯</w>": 6857,
      "땧</w>": 6858,
      "엙</w>": 6859,
      "칻</w>": 6860,
      "쫍</w>": 6861,
      "췹</w>": 6862,
      "엷</w>": 6863,
      "렢</w>": 6864,
      "빪</w>": 6865,
      "웟</w>": 6866,
      "깧</w>": 6867,
      "됢</w>": 6868,
      "쬼</w>": 6869,
      "륏</w>": 6870,
      "뜜</w>": 6871,
      "뛩</w>": 6872,
      "켸</w>": 6873,
      "옼</w>": 6874,
      "캎</w>": 6875,
      "쓺</w>": 6876,
      "섦</w>": 6877,
      "뤂</w>": 6878,
      "몯</w>": 6879,
      "볾</w>": 6880,
      "굛</w>": 6881,
      "뫘</w>": 6882,
      "솁</w>": 6883,
      "캪</w>": 6884,
      "킻</w>": 6885,
      "옜</w>": 6886,
      "혿</w>": 6887,
      "쵔</w>": 6888,
      "핲</w>": 6889,
      "끸</w>": 6890,
      "뻣</w>": 6891,
      "뫙</w>": 6892,
      "앏</w>": 6893,
      "젛</w>": 6894,
      "쉠</w>": 6895,
      "봰</w>": 6896,
      "쀅</w>": 6897,
      "쵤</w>": 6898,
      "욹</w>": 6899,
      "늨</w>": 6900,
      "뾸</w>": 6901,
      "쓑</w>": 6902,
      "봴</w>": 6903,
      "볹</w>": 6904,
      "팭</w>": 6905,
      "퀩</w>": 6906,
      "잿</w>": 6907,
      "빟</w>": 6908,
      "꽐</w>": 6909,
      "먈</w>": 6910,
      "곪</w>": 6911,
      "쿧</w>": 6912,
      "뫜</w>": 6913,
      "얇</w>": 6914,
      "벋</w>": 6915,
      "쎙</w>": 6916,
      "뭬</w>": 6917,
      "꾳</w>": 6918,
      "쑻</w>": 6919,
      "넼</w>": 6920,
      "읖</w>": 6921,
      "딨</w>": 6922,
      "앚</w>": 6923,
      "돰</w>": 6924,
      "웱</w>": 6925,
      "떅</w>": 6926,
      "밊</w>": 6927,
      "띾</w>": 6928,
      "룖</w>": 6929,
      "니다</w>": 6930,
      "습니다</w>": 6931,
      "으로</w>": 6932,
      "에서</w>": 6933,
      "하는</w>": 6934,
      "..</w>": 6935,
      "하고</w>": 6936,
      "있는</w>": 6937,
      "...</w>": 6938,
      "있습니다</w>": 6939,
      "합니다</w>": 6940,
      "이다</w>": 6941,
      "20": 6942,
      "있다</w>": 6943,
      "입니다</w>": 6944,
      "지만</w>": 6945,
      "한다</w>": 6946,
      "했다</w>": 6947,
      "들이</w>": 6948,
      "하여</w>": 6949,
      "사람": 6950,
      "사용": 6951,
      "적인</w>": 6952,
      "다는</w>": 6953,
      "하게</w>": 6954,
      "에는</w>": 6955,
      "페이": 6956,
      "에게</w>": 6957,
      "는데</w>": 6958,
      "대한</w>": 6959,
      "다고</w>": 6960,
      "in": 6961,
      "었다</w>": 6962,
      "201": 6963,
      "에서": 6964,
      "이라": 6965,
      "적으로</w>": 6966,
      "10": 6967,
      "까지</w>": 6968,
      "생각": 6969,
      "하지</w>": 6970,
      "사이": 6971,
      "들은</w>": 6972,
      "우리": 6973,
      "리고</w>": 6974,
      "서비": 6975,
      "정보": 6976,
      "해서</w>": 6977,
      "아니": 6978,
      "아이": 6979,
      "페이지</w>": 6980,
      "때문": 6981,
      "부터</w>": 6982,
      "다른</w>": 6983,
      "프로": 6984,
      "되는</w>": 6985,
      "이용": 6986,
      "er": 6987,
      "그래": 6988,
      "or": 6989,
      "것이</w>": 6990,
      "an": 6991,
      "됩니다</w>": 6992,
      "하기</w>": 6993,
      "경우</w>": 6994,
      "으며</w>": 6995,
      "것은</w>": 6996,
      "세요</w>": 6997,
      "면서</w>": 6998,
      "모든</w>": 6999,
      "가능": 7000,
      "시간": 7001,
      "한국": 7002,
      "들의</w>": 7003,
      "많은</w>": 7004,
      "00": 7005,
      "제공": 7006,
      "같은</w>": 7007,
      "하나": 7008,
      "하면</w>": 7009,
      "기를</w>": 7010,
      "그리고</w>": 7011,
      "들을</w>": 7012,
      "가장</w>": 7013,
      "그러": 7014,
      "ar": 7015,
      "문제": 7016,
      "것을</w>": 7017,
      "것이다</w>": 7018,
      "on": 7019,
      "at": 7020,
      "되어</w>": 7021,
      "정보</w>": 7022,
      "필요": 7023,
      "er</w>": 7024,
      "위해</w>": 7025,
      "없는</w>": 7026,
      "들어": 7027,
      "en": 7028,
      "함께</w>": 7029,
      "라이": 7030,
      "으로": 7031,
      "지는</w>": 7032,
      "다면</w>": 7033,
      "19": 7034,
      "하며</w>": 7035,
      "또는</w>": 7036,
      "하지만</w>": 7037,
      "st": 7038,
      "이나</w>": 7039,
      "좋은</w>": 7040,
      "데이": 7041,
      "자신": 7042,
      "보다</w>": 7043,
      "에서는</w>": 7044,
      "인터": 7045,
      "때문에</w>": 7046,
      "위한</w>": 7047,
      "가지": 7048,
      "해야</w>": 7049,
      "사회": 7050,
      "스타": 7051,
      "레이": 7052,
      "된다</w>": 7053,
      "통해</w>": 7054,
      "라고</w>": 7055,
      "거나</w>": 7056,
      "도록</w>": 7057,
      "나는</w>": 7058,
      "대로</w>": 7059,
      "스트": 7060,
      "co": 7061,
      "라는</w>": 7062,
      "시간</w>": 7063,
      "되었": 7064,
      "많이</w>": 7065,
      "th": 7066,
      "서비스</w>": 7067,
      "내용": 7068,
      "on</w>": 7069,
      "개인": 7070,
      "하시": 7071,
      "하다</w>": 7072,
      "따라</w>": 7073,
      "교육": 7074,
      "re": 7075,
      "시작": 7076,
      "이야": 7077,
      "없이</w>": 7078,
      "보기</w>": 7079,
      "렇게</w>": 7080,
      "다양": 7081,
      "기도</w>": 7082,
      "어요</w>": 7083,
      "에도</w>": 7084,
      "다시</w>": 7085,
      "ic": 7086,
      "기에</w>": 7087,
      "이는</w>": 7088,
      "또한</w>": 7089,
      "대해</w>": 7090,
      "있었": 7091,
      "어떤</w>": 7092,
      "자가</w>": 7093,
      "리는</w>": 7094,
      "경우": 7095,
      "으면</w>": 7096,
      "서는</w>": 7097,
      "12": 7098,
      "자료": 7099,
      "저작": 7100,
      "ro": 7101,
      "it": 7102,
      "리를</w>": 7103,
      "로운</w>": 7104,
      "서비스": 7105,
      "니까</w>": 7106,
      "있으며</w>": 7107,
      "al": 7108,
      "이라고</w>": 7109,
      "호텔</w>": 7110,
      "하였": 7111,
      "부분": 7112,
      "200": 7113,
      "이런</w>": 7114,
      "자의</w>": 7115,
      "해주": 7116,
      "우리</w>": 7117,
      "았다</w>": 7118,
      "가지</w>": 7119,
      "다양한</w>": 7120,
      "네요</w>": 7121,
      "어서</w>": 7122,
      "되고</w>": 7123,
      "확인": 7124,
      "보고</w>": 7125,
      "모두</w>": 7126,
      "동안</w>": 7127,
      "가는</w>": 7128,
      "처럼</w>": 7129,
      "상품": 7130,
      "만들": 7131,
      "11": 7132,
      "),</w>": 7133,
      "대학": 7134,
      "방법": 7135,
      "지를</w>": 7136,
      "마음": 7137,
      "이고</w>": 7138,
      "되지</w>": 7139,
      "감사": 7140,
      "ing</w>": 7141,
      "사랑": 7142,
      "것으로</w>": 7143,
      "시스": 7144,
      "기업": 7145,
      "어떻": 7146,
      "프로그": 7147,
      "기가</w>": 7148,
      "겠습니다</w>": 7149,
      "지원": 7150,
      "바로</w>": 7151,
      "아니라</w>": 7152,
      "내가</w>": 7153,
      "자는</w>": 7154,
      "연구": 7155,
      "사를</w>": 7156,
      "..": 7157,
      "등을</w>": 7158,
      "30": 7159,
      "ac": 7160,
      "중요": 7161,
      "어떻게</w>": 7162,
      "지역": 7163,
      "회원": 7164,
      "게임</w>": 7165,
      "것입니다</w>": 7166,
      "이상": 7167,
      "le": 7168,
      "지난</w>": 7169,
      "새로운</w>": 7170,
      "제가</w>": 7171,
      "선택": 7172,
      "사는</w>": 7173,
      "이며</w>": 7174,
      "전에</w>": 7175,
      "없습니다</w>": 7176,
      "했습니다</w>": 7177,
      "하는": 7178,
      "am": 7179,
      "관리": 7180,
      "기술": 7181,
      "게임": 7182,
      "학교": 7183,
      "기는</w>": 7184,
      "이라는</w>": 7185,
      "문화": 7186,
      "여행": 7187,
      "사업": 7188,
      "서울": 7189,
      "그러나</w>": 7190,
      "가지고</w>": 7191,
      "다음": 7192,
      "있을</w>": 7193,
      "없다</w>": 7194,
      "정을</w>": 7195,
      "너무</w>": 7196,
      "정말</w>": 7197,
      "세계": 7198,
      "관련</w>": 7199,
      "성을</w>": 7200,
      "같이</w>": 7201,
      "15": 7202,
      "케이": 7203,
      "진행": 7204,
      "게시": 7205,
      "있고</w>": 7206,
      "보면</w>": 7207,
      "정도": 7208,
      "사이트</w>": 7209,
      "제품": 7210,
      "고객": 7211,
      "구매": 7212,
      "관계": 7213,
      "일을</w>": 7214,
      "위치": 7215,
      "당신": 7216,
      "자동": 7217,
      "스포": 7218,
      "않는</w>": 7219,
      "10</w>": 7220,
      "사이트": 7221,
      "as": 7222,
      "스트</w>": 7223,
      "ion</w>": 7224,
      "현재</w>": 7225,
      "이를</w>": 7226,
      "이상</w>": 7227,
      "이러": 7228,
      "일본": 7229,
      "들에게</w>": 7230,
      "il": 7231,
      "그런</w>": 7232,
      "ou": 7233,
      "기능": 7234,
      "al</w>": 7235,
      "호텔": 7236,
      "립니다</w>": 7237,
      "개발": 7238,
      "장을</w>": 7239,
      "하세요</w>": 7240,
      "상을</w>": 7241,
      "is": 7242,
      "운영": 7243,
      "것도</w>": 7244,
      "다가</w>": 7245,
      "the</w>": 7246,
      "관련": 7247,
      "수도</w>": 7248,
      "최근</w>": 7249,
      "좋아": 7250,
      "그래서</w>": 7251,
      "랍니다</w>": 7252,
      "이유": 7253,
      "상황": 7254,
      "이었": 7255,
      "대표": 7256,
      "않습니다</w>": 7257,
      "지도</w>": 7258,
      "오는</w>": 7259,
      "es": 7260,
      "하면서</w>": 7261,
      "력을</w>": 7262,
      "전문": 7263,
      "저작권": 7264,
      "그런": 7265,
      "했던</w>": 7266,
      "화를</w>": 7267,
      "위원": 7268,
      "사진": 7269,
      "oo": 7270,
      "무엇": 7271,
      "포함": 7272,
      "미국</w>": 7273,
      "책임": 7274,
      "해당</w>": 7275,
      "로그": 7276,
      "리가</w>": 7277,
      "점을</w>": 7278,
      "이렇게</w>": 7279,
      "직접</w>": 7280,
      "주는</w>": 7281,
      "는다</w>": 7282,
      "수가</w>": 7283,
      "있었다</w>": 7284,
      "이어": 7285,
      "디자": 7286,
      "가슴</w>": 7287,
      "우리는</w>": 7288,
      "모습": 7289,
      "등의</w>": 7290,
      "특히</w>": 7291,
      "설명": 7292,
      "미국": 7293,
      "스토": 7294,
      "바랍니다</w>": 7295,
      "방법</w>": 7296,
      "섹스</w>": 7297,
      "대통": 7298,
      "발생": 7299,
      "라도</w>": 7300,
      "다음</w>": 7301,
      "드는</w>": 7302,
      "그래프": 7303,
      "자신의</w>": 7304,
      "않은</w>": 7305,
      "자를</w>": 7306,
      "지금": 7307,
      "ag": 7308,
      "18": 7309,
      "분석</w>": 7310,
      "님의</w>": 7311,
      "16": 7312,
      "있어</w>": 7313,
      "lo": 7314,
      "사실": 7315,
      "인터넷</w>": 7316,
      "하실</w>": 7317,
      "물을</w>": 7318,
      "준비": 7319,
      "이번</w>": 7320,
      "드립니다</w>": 7321,
      "다운": 7322,
      "구성": 7323,
      "in</w>": 7324,
      "그렇": 7325,
      "환경": 7326,
      "ed</w>": 7327,
      "않고</w>": 7328,
      "들과</w>": 7329,
      "생활": 7330,
      "한국</w>": 7331,
      "있으": 7332,
      "경제": 7333,
      "학생": 7334,
      "어야</w>": 7335,
      "활동": 7336,
      "관한</w>": 7337,
      "여러</w>": 7338,
      "드리": 7339,
      "는지</w>": 7340,
      ").</w>": 7341,
      "매우</w>": 7342,
      "에서도</w>": 7343,
      "사의</w>": 7344,
      "센터</w>": 7345,
      "일이</w>": 7346,
      "주의": 7347,
      "이러한</w>": 7348,
      "검색</w>": 7349,
      "특별": 7350,
      "사가</w>": 7351,
      "결과": 7352,
      "보는</w>": 7353,
      "지금</w>": 7354,
      "까요</w>": 7355,
      "모르": 7356,
      "스마": 7357,
      "므로</w>": 7358,
      "영상</w>": 7359,
      "도움": 7360,
      "주소</w>": 7361,
      "시장": 7362,
      "et": 7363,
      "물론</w>": 7364,
      "성이</w>": 7365,
      "스를</w>": 7366,
      "였다</w>": 7367,
      "식을</w>": 7368,
      "리에</w>": 7369,
      "정보를</w>": 7370,
      "무료</w>": 7371,
      "되었다</w>": 7372,
      "하거나</w>": 7373,
      "저는</w>": 7374,
      "나타": 7375,
      "ri": 7376,
      "el": 7377,
      "돌아": 7378,
      "트를</w>": 7379,
      "시오</w>": 7380,
      "개의</w>": 7381,
      "대한": 7382,
      "시면</w>": 7383,
      "데요</w>": 7384,
      "이해": 7385,
      "정부": 7386,
      "중에</w>": 7387,
      "등록": 7388,
      "번째</w>": 7389,
      "이후</w>": 7390,
      "le</w>": 7391,
      "관리</w>": 7392,
      "기록": 7393,
      "14": 7394,
      "에이": 7395,
      "있다는</w>": 7396,
      "사진</w>": 7397,
      "아시": 7398,
      "es</w>": 7399,
      "이었다</w>": 7400,
      "의미": 7401,
      "교육</w>": 7402,
      "아무": 7403,
      "com</w>": 7404,
      "산업": 7405,
      "an</w>": 7406,
      "여러": 7407,
      "처리": 7408,
      "안전": 7409,
      "보호": 7410,
      "사람</w>": 7411,
      "필요한</w>": 7412,
      "보고": 7413,
      "따라": 7414,
      "나라": 7415,
      "사항": 7416,
      "프로그램": 7417,
      "13": 7418,
      "ec": 7419,
      "기로</w>": 7420,
      "보여": 7421,
      "감사합니다</w>": 7422,
      "국가": 7423,
      "기타</w>": 7424,
      "역시</w>": 7425,
      "등이</w>": 7426,
      "에게": 7427,
      "상태": 7428,
      "십시오</w>": 7429,
      "시키": 7430,
      "추가": 7431,
      "인이</w>": 7432,
      "경험": 7433,
      "인간": 7434,
      "작은</w>": 7435,
      "스크": 7436,
      "거의</w>": 7437,
      "이라</w>": 7438,
      "여행</w>": 7439,
      "사람이</w>": 7440,
      "하는데</w>": 7441,
      "하려": 7442,
      "주의</w>": 7443,
      "친구": 7444,
      "학교</w>": 7445,
      "자료</w>": 7446,
      "베이": 7447,
      "이제</w>": 7448,
      "ur": 7449,
      "건강": 7450,
      "판매": 7451,
      "소프": 7452,
      "50": 7453,
      "데이터": 7454,
      "받은</w>": 7455,
      "un": 7456,
      "됐다</w>": 7457,
      "어려": 7458,
      "추천</w>": 7459,
      "적용": 7460,
      "인의</w>": 7461,
      "계획": 7462,
      "세계</w>": 7463,
      "자에게</w>": 7464,
      "해도</w>": 7465,
      "우리가</w>": 7466,
      "이름": 7467,
      "그는</w>": 7468,
      "국민": 7469,
      "테이": 7470,
      "지고</w>": 7471,
      "자세": 7472,
      "개월</w>": 7473,
      "댓글": 7474,
      "일반": 7475,
      "컴퓨": 7476,
      "쉽게</w>": 7477,
      "알려": 7478,
      "or</w>": 7479,
      "하나</w>": 7480,
      "온라": 7481,
      "정도</w>": 7482,
      "메이": 7483,
      "소개": 7484,
      "그리": 7485,
      "그런데</w>": 7486,
      "가족": 7487,
      "!!</w>": 7488,
      "영화": 7489,
      "만큼</w>": 7490,
      "이용</w>": 7491,
      "나요</w>": 7492,
      "17": 7493,
      "바이": 7494,
      "청소": 7495,
      "평균</w>": 7496,
      "카지": 7497,
      "스는</w>": 7498,
      "수는</w>": 7499,
      "지역</w>": 7500,
      "도를</w>": 7501,
      "있도록</w>": 7502,
      "일본</w>": 7503,
      "이미": 7504,
      "경기": 7505,
      "24": 7506,
      "로그</w>": 7507,
      "중국": 7508,
      "이벤": 7509,
      "이미</w>": 7510,
      "과정": 7511,
      "찾아": 7512,
      "알아": 7513,
      "사용</w>": 7514,
      "최고": 7515,
      "아닌</w>": 7516,
      "보니</w>": 7517,
      "있게</w>": 7518,
      "않았": 7519,
      "같습니다</w>": 7520,
      "영화</w>": 7521,
      "보험": 7522,
      "여성": 7523,
      "그렇게</w>": 7524,
      "관심": 7525,
      "보내": 7526,
      "문의": 7527,
      "가격": 7528,
      "모바": 7529,
      "사람들이</w>": 7530,
      "참여": 7531,
      "드를</w>": 7532,
      "그냥</w>": 7533,
      "운동": 7534,
      "자유": 7535,
      "브랜": 7536,
      ".\"</w>": 7537,
      "시에</w>": 7538,
      "아주</w>": 7539,
      "변경": 7540,
      "삭제</w>": 7541,
      "되면</w>": 7542,
      "시설": 7543,
      "되었습니다</w>": 7544,
      "그의</w>": 7545,
      "변화": 7546,
      "밖에</w>": 7547,
      "어느</w>": 7548,
      "시기</w>": 7549,
      "아마": 7550,
      "이야기</w>": 7551,
      "하였다</w>": 7552,
      "제품</w>": 7553,
      "오늘": 7554,
      "마지": 7555,
      "인지</w>": 7556,
      "오늘</w>": 7557,
      "사용할</w>": 7558,
      "주세요</w>": 7559,
      "을까</w>": 7560,
      "지가</w>": 7561,
      "명의</w>": 7562,
      "소프트": 7563,
      "중요한</w>": 7564,
      "지의</w>": 7565,
      "먼저</w>": 7566,
      "설치": 7567,
      "om": 7568,
      "작업": 7569,
      "발견": 7570,
      "해서는</w>": 7571,
      "인데</w>": 7572,
      "ig": 7573,
      "중심": 7574,
      "국제": 7575,
      "소셜": 7576,
      "원을</w>": 7577,
      "서울</w>": 7578,
      "가능한</w>": 7579,
      "활용": 7580,
      "8년</w>": 7581,
      "de": 7582,
      "있다고</w>": 7583,
      "신청": 7584,
      "행복": 7585,
      "해당": 7586,
      "있는데</w>": 7587,
      "아요</w>": 7588,
      "제공됩니다</w>": 7589,
      "상품</w>": 7590,
      "도의</w>": 7591,
      "수를</w>": 7592,
      "정책": 7593,
      "얼마": 7594,
      "효과": 7595,
      "대통령": 7596,
      "아름": 7597,
      "성공": 7598,
      "100": 7599,
      "자연": 7600,
      "광고": 7601,
      "정치": 7602,
      "한다는</w>": 7603,
      "때문이다</w>": 7604,
      "지원</w>": 7605,
      "마케": 7606,
      "스의</w>": 7607,
      "위에</w>": 7608,
      "더욱</w>": 7609,
      "떨어": 7610,
      "장이</w>": 7611,
      "해결": 7612,
      "기본": 7613,
      "계속</w>": 7614,
      "ch": 7615,
      "제로</w>": 7616,
      "높은</w>": 7617,
      "방문": 7618,
      "인가</w>": 7619,
      "국내</w>": 7620,
      "인을</w>": 7621,
      "들도</w>": 7622,
      "시스템": 7623,
      "시는</w>": 7624,
      "분석": 7625,
      "아래": 7626,
      "마다</w>": 7627,
      "같다</w>": 7628,
      "여기": 7629,
      "이가</w>": 7630,
      "지요</w>": 7631,
      "이루": 7632,
      "보이": 7633,
      "ol": 7634,
      "알고</w>": 7635,
      "번호</w>": 7636,
      "뉴스</w>": 7637,
      "안내</w>": 7638,
      "대상": 7639,
      "표시": 7640,
      "평가": 7641,
      "력이</w>": 7642,
      "어린": 7643,
      "of</w>": 7644,
      "프리": 7645,
      "전자": 7646,
      "일에</w>": 7647,
      "하고": 7648,
      "겠다</w>": 7649,
      "기대": 7650,
      "마련": 7651,
      "문서": 7652,
      "결과</w>": 7653,
      ".)</w>": 7654,
      "추가</w>": 7655,
      "자기</w>": 7656,
      "만들어": 7657,
      "ti": 7658,
      "결정": 7659,
      "ad": 7660,
      "크리": 7661,
      "서비스를</w>": 7662,
      "조건": 7663,
      "졌다</w>": 7664,
      "다운로": 7665,
      "여자</w>": 7666,
      "사실</w>": 7667,
      "1일</w>": 7668,
      "존재": 7669,
      "항공": 7670,
      "전체</w>": 7671,
      "연결": 7672,
      "무료": 7673,
      "일어": 7674,
      "복지": 7675,
      "가입": 7676,
      "현대": 7677,
      "코어</w>": 7678,
      "추천": 7679,
      "명이</w>": 7680,
      "방송": 7681,
      "치는</w>": 7682,
      "말씀": 7683,
      "중국</w>": 7684,
      "발전": 7685,
      "있어서</w>": 7686,
      "ht": 7687,
      "이에</w>": 7688,
      "의해</w>": 7689,
      "St": 7690,
      "있지만</w>": 7691,
      "점이</w>": 7692,
      "영향": 7693,
      "문제가</w>": 7694,
      "노동": 7695,
      "소비": 7696,
      "가능</w>": 7697,
      "수집": 7698,
      "ow": 7699,
      "경기</w>": 7700,
      "us": 7701,
      "미디": 7702,
      "Th": 7703,
      "누구": 7704,
      "내용</w>": 7705,
      "문제</w>": 7706,
      "미터": 7707,
      "장애": 7708,
      "마이": 7709,
      "ap": 7710,
      "있는": 7711,
      "시간이</w>": 7712,
      "ab": 7713,
      "언제": 7714,
      "받고</w>": 7715,
      "정상": 7716,
      "그녀": 7717,
      "모델": 7718,
      "장은</w>": 7719,
      "치를</w>": 7720,
      "로는</w>": 7721,
      "기업</w>": 7722,
      "들어</w>": 7723,
      "처음": 7724,
      "에서의</w>": 7725,
      "12</w>": 7726,
      "라우": 7727,
      "25": 7728,
      "시스템</w>": 7729,
      "11</w>": 7730,
      "인터넷": 7731,
      "아서</w>": 7732,
      "ot": 7733,
      "해외": 7734,
      "정한</w>": 7735,
      "프로그램</w>": 7736,
      "대한민": 7737,
      "나의</w>": 7738,
      "위를</w>": 7739,
      "리아</w>": 7740,
      "음을</w>": 7741,
      "나오": 7742,
      "다운</w>": 7743,
      "데이터</w>": 7744,
      "시장</w>": 7745,
      "모두": 7746,
      "전히</w>": 7747,
      "서도</w>": 7748,
      "시대": 7749,
      "치료": 7750,
      "만에</w>": 7751,
      "ir": 7752,
      "개발</w>": 7753,
      "em": 7754,
      "한다고</w>": 7755,
      "도가</w>": 7756,
      "가능합니다</w>": 7757,
      "공간": 7758,
      "과학": 7759,
      "콘텐": 7760,
      "시설</w>": 7761,
      "포르": 7762,
      "안에</w>": 7763,
      "가요</w>": 7764,
      "살아": 7765,
      "문의</w>": 7766,
      "어디": 7767,
      "리의</w>": 7768,
      "조금</w>": 7769,
      "자체": 7770,
      "여성</w>": 7771,
      "따라서</w>": 7772,
      "세상": 7773,
      "다만</w>": 7774,
      "작성": 7775,
      "했고</w>": 7776,
      "정확": 7777,
      "et</w>": 7778,
      "검색": 7779,
      "해보": 7780,
      "기자</w>": 7781,
      "지난": 7782,
      "적이</w>": 7783,
      "받을</w>": 7784,
      "관광": 7785,
      "000": 7786,
      "예정": 7787,
      "비교": 7788,
      "도시": 7789,
      "부를</w>": 7790,
      "기간</w>": 7791,
      "삭제": 7792,
      "사회</w>": 7793,
      "투자": 7794,
      "지에</w>": 7795,
      "어를</w>": 7796,
      "운영</w>": 7797,
      "프로젝": 7798,
      "않을</w>": 7799,
      "참고": 7800,
      "말을</w>": 7801,
      "아니다</w>": 7802,
      "스마트": 7803,
      "요구": 7804,
      "원의</w>": 7805,
      "계약": 7806,
      "하드</w>": 7807,
      "회를</w>": 7808,
      "and</w>": 7809,
      "아직</w>": 7810,
      "했는데</w>": 7811,
      "이메": 7812,
      "시간을</w>": 7813,
      "문을</w>": 7814,
      "음식": 7815,
      "스포츠": 7816,
      "르게</w>": 7817,
      "스가</w>": 7818,
      "사에</w>": 7819,
      "구조": 7820,
      "민주": 7821,
      "군요</w>": 7822,
      "여자": 7823,
      "7년</w>": 7824,
      "av": 7825,
      "하루": 7826,
      "이란</w>": 7827,
      "부스타": 7828,
      "기간": 7829,
      "아버": 7830,
      "왔다</w>": 7831,
      "해야": 7832,
      "기관": 7833,
      "의를</w>": 7834,
      "셔서</w>": 7835,
      "경영": 7836,
      "기의</w>": 7837,
      "ation</w>": 7838,
      "주변</w>": 7839,
      "게시물</w>": 7840,
      "말했다</w>": 7841,
      "선수": 7842,
      "원이</w>": 7843,
      "신고": 7844,
      "상대": 7845,
      "시리": 7846,
      "이어</w>": 7847,
      "성에</w>": 7848,
      "회원</w>": 7849,
      "ub": 7850,
      "40": 7851,
      "공개": 7852,
      "어도</w>": 7853,
      "기술</w>": 7854,
      "플레이": 7855,
      "발표": 7856,
      "방식": 7857,
      "대하여</w>": 7858,
      "....</w>": 7859,
      "표현": 7860,
      "때는</w>": 7861,
      "포인": 7862,
      "궁금": 7863,
      "배우": 7864,
      "분야": 7865,
      "혹은</w>": 7866,
      "결국</w>": 7867,
      "기억": 7868,
      "유지": 7869,
      "위하여</w>": 7870,
      "정신": 7871,
      "업데이": 7872,
      "하신</w>": 7873,
      "최대</w>": 7874,
      "//</w>": 7875,
      "하나님": 7876,
      "5년</w>": 7877,
      "확인</w>": 7878,
      "스로</w>": 7879,
      "네이": 7880,
      "가운": 7881,
      "설정": 7882,
      "명을</w>": 7883,
      "내에</w>": 7884,
      "내용을</w>": 7885,
      "이동": 7886,
      "부모": 7887,
      "기준": 7888,
      "느낌": 7889,
      "분이</w>": 7890,
      "받아": 7891,
      "TV</w>": 7892,
      "도로</w>": 7893,
      "공유": 7894,
      "었습니다</w>": 7895,
      "아파": 7896,
      "22": 7897,
      "모바일</w>": 7898,
      "제대로</w>": 7899,
      "처음</w>": 7900,
      "1년</w>": 7901,
      "하이": 7902,
      "충분": 7903,
      "제공</w>": 7904,
      "한번</w>": 7905,
      "으로는</w>": 7906,
      "정보는</w>": 7907,
      "ent": 7908,
      "기다": 7909,
      "지나": 7910,
      "밝혔": 7911,
      "In": 7912,
      "항상</w>": 7913,
      "기사</w>": 7914,
      "대학교</w>": 7915,
      "지지</w>": 7916,
      "이벤트</w>": 7917,
      "만원</w>": 7918,
      "크게</w>": 7919,
      "경쟁": 7920,
      "얼마나</w>": 7921,
      "일부</w>": 7922,
      "드가</w>": 7923,
      "di": 7924,
      "카지노</w>": 7925,
      "하여": 7926,
      "생산": 7927,
      "두고</w>": 7928,
      "과의</w>": 7929,
      "구요</w>": 7930,
      "음악": 7931,
      "199": 7932,
      "예약": 7933,
      "2018</w>": 7934,
      "서로</w>": 7935,
      "가고</w>": 7936,
      "올라": 7937,
      "역할": 7938,
      "li": 7939,
      "카드</w>": 7940,
      "km</w>": 7941,
      "부분</w>": 7942,
      "거래": 7943,
      "결제</w>": 7944,
      "하십시오</w>": 7945,
      "주고</w>": 7946,
      "사업</w>": 7947,
      "소를</w>": 7948,
      "이번": 7949,
      "통신": 7950,
      "가까": 7951,
      "우리의</w>": 7952,
      "지방": 7953,
      "로부터</w>": 7954,
      "르면</w>": 7955,
      "사람은</w>": 7956,
      "수준": 7957,
      "시민": 7958,
      "작품": 7959,
      "의료": 7960,
      "글을</w>": 7961,
      "ent</w>": 7962,
      "네트": 7963,
      "kr</w>": 7964,
      "도움이</w>": 7965,
      "바람": 7966,
      "2년</w>": 7967,
      "가진</w>": 7968,
      "사무": 7969,
      "형태": 7970,
      "회사</w>": 7971,
      "3년</w>": 7972,
      "싶은</w>": 7973,
      "렸다</w>": 7974,
      "니스</w>": 7975,
      "따른</w>": 7976,
      "노력": 7977,
      "스러": 7978,
      "북한": 7979,
      "연구</w>": 7980,
      "미래": 7981,
      "댓글</w>": 7982,
      "있기</w>": 7983,
      "않는다</w>": 7984,
      "6년</w>": 7985,
      "uc": 7986,
      "나라</w>": 7987,
      "to</w>": 7988,
      "온라인</w>": 7989,
      "간의</w>": 7990,
      "행동": 7991,
      "즉시</w>": 7992,
      "다음과</w>": 7993,
      "받는</w>": 7994,
      "가져": 7995,
      "고민": 7996,
      "았습니다</w>": 7997,
      "일은</w>": 7998,
      "is</w>": 7999,
      "문화</w>": 8000,
      "것이": 8001,
      "당시</w>": 8002,
      "자기": 8003,
      "려고</w>": 8004,
      "전체": 8005,
      "vi": 8006,
      "오후</w>": 8007,
      "불법": 8008,
      "불편": 8009,
      "회의</w>": 8010,
      "주문": 8011,
      "더라도</w>": 8012,
      "인다</w>": 8013,
      "최고의</w>": 8014,
      "습니까</w>": 8015,
      "리아": 8016,
      "비밀": 8017,
      "으나</w>": 8018,
      "그룹</w>": 8019,
      "정의</w>": 8020,
      "대학</w>": 8021,
      "거운</w>": 8022,
      "있지</w>": 8023,
      "Por": 8024,
      "했지만</w>": 8025,
      "상의</w>": 8026,
      "프레": 8027,
      "등에</w>": 8028,
      "장에서</w>": 8029,
      "외국": 8030,
      "내는</w>": 8031,
      "만들어</w>": 8032,
      "상당": 8033,
      "책을</w>": 8034,
      "조직": 8035,
      "르는</w>": 8036,
      "만한</w>": 8037,
      "업체": 8038,
      "상품명</w>": 8039,
      "명예": 8040,
      "드리겠습니다</w>": 8041,
      "토토": 8042,
      "후에</w>": 8043,
      "제를</w>": 8044,
      "60": 8045,
      "ut": 8046,
      "보다는</w>": 8047,
      "드라": 8048,
      "리그</w>": 8049,
      "원하는</w>": 8050,
      "자들이</w>": 8051,
      "사용하는</w>": 8052,
      "시즌</w>": 8053,
      "선을</w>": 8054,
      "경제</w>": 8055,
      "앞으로</w>": 8056,
      "이야기": 8057,
      "80": 8058,
      "않았다</w>": 8059,
      "삼성": 8060,
      "가를</w>": 8061,
      "경우에는</w>": 8062,
      "com": 8063,
      "하도록</w>": 8064,
      "역사": 8065,
      "자세한</w>": 8066,
      "htt": 8067,
      "제작": 8068,
      "블로그</w>": 8069,
      "사항</w>": 8070,
      "se": 8071,
      "께서</w>": 8072,
      "프랑": 8073,
      "아이디": 8074,
      "디오</w>": 8075,
      "파일</w>": 8076,
      "현실": 8077,
      "네트워": 8078,
      "재미": 8079,
      "지속": 8080,
      "중앙": 8081,
      "개인정보": 8082,
      "진다</w>": 8083,
      "만든</w>": 8084,
      "사전</w>": 8085,
      "나이": 8086,
      "밝혔다</w>": 8087,
      "하겠습니다</w>": 8088,
      "스포츠</w>": 8089,
      "로서</w>": 8090,
      "정이</w>": 8091,
      "연락": 8092,
      "만나": 8093,
      "내용은</w>": 8094,
      "공동": 8095,
      "감을</w>": 8096,
      "머니": 8097,
      "아래</w>": 8098,
      "지도": 8099,
      "되어": 8100,
      "홈페이지</w>": 8101,
      "업무": 8102,
      "년에</w>": 8103,
      "서를</w>": 8104,
      "되며</w>": 8105,
      "회사": 8106,
      "수의</w>": 8107,
      "인은</w>": 8108,
      "자리": 8109,
      "회가</w>": 8110,
      "다이": 8111,
      "글로": 8112,
      "영상": 8113,
      "겁니다</w>": 8114,
      "20</w>": 8115,
      "으니</w>": 8116,
      "뿐만</w>": 8117,
      "라운": 8118,
      "개인</w>": 8119,
      "://</w>": 8120,
      "모습을</w>": 8121,
      "en</w>": 8122,
      "레이</w>": 8123,
      "가운데</w>": 8124,
      "기능</w>": 8125,
      "있어요</w>": 8126,
      "마케팅</w>": 8127,
      "디자인</w>": 8128,
      "감독": 8129,
      "인정": 8130,
      "센터": 8131,
      "엉덩": 8132,
      "나를</w>": 8133,
      "에너": 8134,
      "ster</w>": 8135,
      "at</w>": 8136,
      "드러": 8137,
      "Ch": 8138,
      "회의": 8139,
      "다니": 8140,
      "생각이</w>": 8141,
      "하루</w>": 8142,
      "수정</w>": 8143,
      "동영상</w>": 8144,
      "간단": 8145,
      "선생": 8146,
      "성장": 8147,
      "사건": 8148,
      "가서</w>": 8149,
      "그래도</w>": 8150,
      "전을</w>": 8151,
      "이지만</w>": 8152,
      "4년</w>": 8153,
      "전화": 8154,
      "분쟁": 8155,
      "동일": 8156,
      "있다면</w>": 8157,
      "별로</w>": 8158,
      "ul": 8159,
      "보이는</w>": 8160,
      "한다면</w>": 8161,
      "정책</w>": 8162,
      "디지": 8163,
      "가격</w>": 8164,
      "기능을</w>": 8165,
      "저도</w>": 8166,
      "18</w>": 8167,
      "만드는</w>": 8168,
      "입력": 8169,
      "ay</w>": 8170,
      "점은</w>": 8171,
      "국의</w>": 8172,
      "23": 8173,
      "인해</w>": 8174,
      "해요</w>": 8175,
      "주요</w>": 8176,
      "플러": 8177,
      "os": 8178,
      "::</w>": 8179,
      "스럽": 8180,
      "고요</w>": 8181,
      "스터": 8182,
      "금융": 8183,
      "갑니다</w>": 8184,
      "원은</w>": 8185,
      "피해": 8186,
      "재가</w>": 8187,
      "TA": 8188,
      "이상의</w>": 8189,
      "마지막</w>": 8190,
      "드의</w>": 8191,
      "기본</w>": 8192,
      "28": 8193,
      "속에</w>": 8194,
      "Re": 8195,
      "부족": 8196,
      "An": 8197,
      "사고": 8198,
      "경찰": 8199,
      "행정": 8200,
      "물이</w>": 8201,
      "으로써</w>": 8202,
      "27": 8203,
      "겠지만</w>": 8204,
      "쓰기</w>": 8205,
      "실제</w>": 8206,
      "15</w>": 8207,
      "정도로</w>": 8208,
      "드시</w>": 8209,
      "자와</w>": 8210,
      "내려": 8211,
      "바라": 8212,
      "그림": 8213,
      "목표": 8214,
      "하시는</w>": 8215,
      "과정</w>": 8216,
      "자동차</w>": 8217,
      "국내": 8218,
      "자신이</w>": 8219,
      "2018년</w>": 8220,
      "00</w>": 8221,
      "시에는</w>": 8222,
      "이기</w>": 8223,
      "그대로</w>": 8224,
      "요청": 8225,
      "으로도</w>": 8226,
      "ww": 8227,
      "있을": 8228,
      "못한</w>": 8229,
      "반드시</w>": 8230,
      "얼굴": 8231,
      "수행": 8232,
      "아름다운</w>": 8233,
      "공부": 8234,
      "었던</w>": 8235,
      "어렵": 8236,
      "26": 8237,
      "목적": 8238,
      "카메": 8239,
      "고려": 8240,
      "거리</w>": 8241,
      "랜드</w>": 8242,
      "실제로</w>": 8243,
      "라면</w>": 8244,
      "특정</w>": 8245,
      "장의</w>": 8246,
      "만의</w>": 8247,
      "올해</w>": 8248,
      "제는</w>": 8249,
      "예약</w>": 8250,
      "비용": 8251,
      "이야기를</w>": 8252,
      "요소</w>": 8253,
      "부터": 8254,
      "ter": 8255,
      "리지</w>": 8256,
      "트가</w>": 8257,
      "대해서</w>": 8258,
      "금을</w>": 8259,
      "이루어": 8260,
      "들에</w>": 8261,
      "곳에</w>": 8262,
      "모델</w>": 8263,
      "추어</w>": 8264,
      "전혀</w>": 8265,
      "위치한</w>": 8266,
      "대부분": 8267,
      "현재": 8268,
      "일반</w>": 8269,
      "요일</w>": 8270,
      "성과</w>": 8271,
      "크로": 8272,
      "제주": 8273,
      "The</w>": 8274,
      "판단": 8275,
      "소셜그래프": 8276,
      "ve</w>": 8277,
      "영향을</w>": 8278,
      "님이</w>": 8279,
      "드로</w>": 8280,
      "단체": 8281,
      "시험": 8282,
      "토토</w>": 8283,
      "13</w>": 8284,
      "쇼핑": 8285,
      "치고</w>": 8286,
      "했다고</w>": 8287,
      "저장": 8288,
      "것에</w>": 8289,
      "영어</w>": 8290,
      "학습": 8291,
      "이름</w>": 8292,
      "위험": 8293,
      "PC": 8294,
      "의견": 8295,
      "시고</w>": 8296,
      "단계": 8297,
      "비즈": 8298,
      "권을</w>": 8299,
      "분위": 8300,
      "하셨": 8301,
      "um": 8302,
      "화장": 8303,
      "대표</w>": 8304,
      "매일</w>": 8305,
      "일의</w>": 8306,
      "메시": 8307,
      "질문": 8308,
      "없고</w>": 8309,
      ".(</w>": 8310,
      "비슷": 8311,
      "예술": 8312,
      "느끼": 8313,
      "와의</w>": 8314,
      "사람들은</w>": 8315,
      "길을</w>": 8316,
      "정치</w>": 8317,
      "www</w>": 8318,
      "관을</w>": 8319,
      "방향": 8320,
      "그것은</w>": 8321,
      "일단</w>": 8322,
      "보인다</w>": 8323,
      "각종</w>": 8324,
      "생각을</w>": 8325,
      "14</w>": 8326,
      "타이": 8327,
      "por": 8328,
      "제한": 8329,
      "만족": 8330,
      "스터</w>": 8331,
      "차를</w>": 8332,
      "관련된</w>": 8333,
      "포르노</w>": 8334,
      "개인정보</w>": 8335,
      "확실": 8336,
      "여러분": 8337,
      "같아요</w>": 8338,
      "선택</w>": 8339,
      "마음을</w>": 8340,
      "가족</w>": 8341,
      "보험</w>": 8342,
      "갖고</w>": 8343,
      "자로</w>": 8344,
      "전자</w>": 8345,
      "의해서</w>": 8346,
      "동시에</w>": 8347,
      "상담": 8348,
      "번호": 8349,
      "장에</w>": 8350,
      "부탁": 8351,
      "머니</w>": 8352,
      "부담": 8353,
      "션을</w>": 8354,
      "축구": 8355,
      "보세요</w>": 8356,
      "학생</w>": 8357,
      "해질</w>": 8358,
      "에요</w>": 8359,
      "롭게</w>": 8360,
      "el</w>": 8361,
      "이메일</w>": 8362,
      "im": 8363,
      "스피": 8364,
      "가치": 8365,
      "거리": 8366,
      "자주</w>": 8367,
      "블로그": 8368,
      "결혼": 8369,
      "주민": 8370,
      "문제를</w>": 8371,
      "12월</w>": 8372,
      "예상": 8373,
      "에게는</w>": 8374,
      "대를</w>": 8375,
      "가기</w>": 8376,
      "대한민국</w>": 8377,
      "교회</w>": 8378,
      "주로</w>": 8379,
      "공격": 8380,
      "스페": 8381,
      "들입니다</w>": 8382,
      "기준</w>": 8383,
      "방송</w>": 8384,
      "광고</w>": 8385,
      "증가": 8386,
      "화면": 8387,
      "ay": 8388,
      "컴퓨터": 8389,
      "있었습니다</w>": 8390,
      "은데</w>": 8391,
      "안녕": 8392,
      "21": 8393,
      "진짜</w>": 8394,
      "컴퓨터</w>": 8395,
      "조금": 8396,
      "co</w>": 8397,
      "봅니다</w>": 8398,
      "LE": 8399,
      "수록</w>": 8400,
      "대회</w>": 8401,
      "ex": 8402,
      "침해</w>": 8403,
      "페이지": 8404,
      "러시": 8405,
      "아시아</w>": 8406,
      "엄마": 8407,
      "정부</w>": 8408,
      "환경</w>": 8409,
      "했을</w>": 8410,
      "보증": 8411,
      "움직": 8412,
      "일부터</w>": 8413,
      "배송": 8414,
      "이드</w>": 8415,
      "신용": 8416,
      "전략": 8417,
      "직원": 8418,
      "하시면</w>": 8419,
      "다운로드</w>": 8420,
      "없었다</w>": 8421,
      "스티": 8422,
      "트는</w>": 8423,
      "살펴": 8424,
      "단지</w>": 8425,
      "전문</w>": 8426,
      "하우": 8427,
      "29": 8428,
      "위해서</w>": 8429,
      "ma": 8430,
      "아닌": 8431,
      "설치</w>": 8432,
      "양이</w>": 8433,
      "머리</w>": 8434,
      "친구</w>": 8435,
      "남자</w>": 8436,
      "명한</w>": 8437,
      ".[</w>": 8438,
      "경우가</w>": 8439,
      "제외": 8440,
      "방법을</w>": 8441,
      "이유는</w>": 8442,
      "부산": 8443,
      "필요가</w>": 8444,
      "하다고</w>": 8445,
      "먹을</w>": 8446,
      "도는</w>": 8447,
      "대의</w>": 8448,
      "올림": 8449,
      "교보": 8450,
      "엉덩이</w>": 8451,
      "요즘</w>": 8452,
      "실행": 8453,
      "와서</w>": 8454,
      "객실</w>": 8455,
      "무슨</w>": 8456,
      "후기</w>": 8457,
      "아닙": 8458,
      "http</w>": 8459,
      "ing": 8460,
      "하던</w>": 8461,
      "4월</w>": 8462,
      "아는</w>": 8463,
      "오전</w>": 8464,
      "하기도</w>": 8465,
      "활동</w>": 8466,
      "에이전": 8467,
      "편집</w>": 8468,
      "pl": 8469,
      "났다</w>": 8470,
      "구입": 8471,
      "이유</w>": 8472,
      "시즌": 8473,
      "16</w>": 8474,
      "조사": 8475,
      "해주시면</w>": 8476,
      "점에서</w>": 8477,
      "드로": 8478,
      "변경</w>": 8479,
      "US": 8480,
      "장소": 8481,
      "놓고</w>": 8482,
      "월드": 8483,
      "정의": 8484,
      "만들기</w>": 8485,
      "아침</w>": 8486,
      "ind": 8487,
      "특별한</w>": 8488,
      "단순": 8489,
      "집중": 8490,
      "웨어</w>": 8491,
      "구매한</w>": 8492,
      "개념": 8493,
      "클릭": 8494,
      "de</w>": 8495,
      "25</w>": 8496,
      "속에서</w>": 8497,
      "1월</w>": 8498,
      "생활</w>": 8499,
      "포함</w>": 8500,
      "영어": 8501,
      "이라면</w>": 8502,
      "만이</w>": 8503,
      "개선": 8504,
      "하나의</w>": 8505,
      "레스토": 8506,
      "아동": 8507,
      "따르면</w>": 8508,
      "res": 8509,
      "상이</w>": 8510,
      "소개</w>": 8511,
      "원에</w>": 8512,
      "휴대": 8513,
      "드라이": 8514,
      "이면</w>": 8515,
      "함을</w>": 8516,
      "어나": 8517,
      "배우</w>": 8518,
      "있던</w>": 8519,
      "체험": 8520,
      "나무": 8521,
      "스에</w>": 8522,
      "답변": 8523,
      "서의</w>": 8524,
      "통한</w>": 8525,
      "는데요</w>": 8526,
      "',</w>": 8527,
      "사례": 8528,
      "아직": 8529,
      "청소년": 8530,
      "훼손</w>": 8531,
      "05</w>": 8532,
      "확인할</w>": 8533,
      "amster</w>": 8534,
      "오히": 8535,
      "코드</w>": 8536,
      "oc": 8537,
      "제공하는</w>": 8538,
      "의한</w>": 8539,
      "밀리": 8540,
      "그룹": 8541,
      "심히</w>": 8542,
      "등은</w>": 8543,
      "오히려</w>": 8544,
      "인생": 8545,
      "참가": 8546,
      "Sh": 8547,
      "뮤니": 8548,
      "진행</w>": 8549,
      "언제나</w>": 8550,
      "위의</w>": 8551,
      "임을</w>": 8552,
      "시작</w>": 8553,
      "예수": 8554,
      "ion": 8555,
      "접근": 8556,
      "TV": 8557,
      "나와</w>": 8558,
      "교통": 8559,
      "법적인</w>": 8560,
      "말이</w>": 8561,
      "이전</w>": 8562,
      "도서": 8563,
      "캐릭": 8564,
      "괜찮": 8565,
      "서핑": 8566,
      "교보문": 8567,
      "위로</w>": 8568,
      "당신의</w>": 8569,
      "부동": 8570,
      "주변": 8571,
      "커뮤니": 8572,
      "눈에</w>": 8573,
      "종합": 8574,
      "말로</w>": 8575,
      "학과</w>": 8576,
      "조선": 8577,
      "사람을</w>": 8578,
      "학교정보": 8579,
      "신청</w>": 8580,
      "언론": 8581,
      "인공": 8582,
      "한편</w>": 8583,
      "자격": 8584,
      "ER": 8585,
      "하나님의</w>": 8586,
      "있으면</w>": 8587,
      "년간</w>": 8588,
      "나누": 8589,
      "빠른</w>": 8590,
      "객실": 8591,
      "잘못": 8592,
      "종류": 8593,
      "돈을</w>": 8594,
      "르고</w>": 8595,
      "정은</w>": 8596,
      "안녕하세요</w>": 8597,
      "3월</w>": 8598,
      "좋습니다</w>": 8599,
      "조사</w>": 8600,
      "구매</w>": 8601,
      "먹고</w>": 8602,
      "공식</w>": 8603,
      "리뷰</w>": 8604,
      "량을</w>": 8605,
      "활성": 8606,
      "은행": 8607,
      "][</w>": 8608,
      "린다</w>": 8609,
      "담당": 8610,
      "정에</w>": 8611,
      "트리": 8612,
      "이미지</w>": 8613,
      "부는</w>": 8614,
      "그가</w>": 8615,
      "수집된</w>": 8616,
      "아닙니다</w>": 8617,
      "정리": 8618,
      "진실": 8619,
      "안을</w>": 8620,
      "들고</w>": 8621,
      "곳에서</w>": 8622,
      "31</w>": 8623,
      "명예훼손</w>": 8624,
      "개를</w>": 8625,
      "ak": 8626,
      "규모": 8627,
      "주장": 8628,
      "회는</w>": 8629,
      "자들은</w>": 8630,
      "KB": 8631,
      "?)</w>": 8632,
      "페이스": 8633,
      "대부분</w>": 8634,
      "카테": 8635,
      "관계</w>": 8636,
      "10월</w>": 8637,
      "법적</w>": 8638,
      "받아</w>": 8639,
      "포트</w>": 8640,
      "화이": 8641,
      "이지</w>": 8642,
      "트의</w>": 8643,
      "위치</w>": 8644,
      "준다</w>": 8645,
      "희망": 8646,
      "어진</w>": 8647,
      "제공합니다</w>": 8648,
      "전달": 8649,
      "처리해</w>": 8650,
      "브랜드</w>": 8651,
      "ar</w>": 8652,
      "어려운</w>": 8653,
      "킬로": 8654,
      "제시": 8655,
      "만약</w>": 8656,
      "하겠": 8657,
      "아마추어</w>": 8658,
      "고에서</w>": 8659,
      "소녀</w>": 8660,
      "70": 8661,
      "이날</w>": 8662,
      "없을</w>": 8663,
      "자들의</w>": 8664,
      "앞에</w>": 8665,
      "당연": 8666,
      "업을</w>": 8667,
      "그들은</w>": 8668,
      "재생": 8669,
      "고등": 8670,
      "사람의</w>": 8671,
      "Hamster</w>": 8672,
      "중인</w>": 8673,
      "하였습니다</w>": 8674,
      "기존</w>": 8675,
      "op": 8676,
      "인한</w>": 8677,
      "대상</w>": 8678,
      "빨리</w>": 8679,
      "6월</w>": 8680,
      "비를</w>": 8681,
      "하자</w>": 8682,
      "선거": 8683,
      "위원회</w>": 8684,
      "사례</w>": 8685,
      "erv": 8686,
      "안정": 8687,
      "sh": 8688,
      "카테고": 8689,
      "기반": 8690,
      "문제는</w>": 8691,
      "가르": 8692,
      "계속": 8693,
      "식이</w>": 8694,
      "등장": 8695,
      "대통령</w>": 8696,
      "젊은</w>": 8697,
      "30</w>": 8698,
      "산업</w>": 8699,
      "미리</w>": 8700,
      "제재가</w>": 8701,
      "자료들은</w>": 8702,
      "7월</w>": 8703,
      "위키": 8704,
      "만을</w>": 8705,
      "가슴": 8706,
      "이와</w>": 8707,
      "구를</w>": 8708,
      "려면</w>": 8709,
      "17</w>": 8710,
      "않다</w>": 8711,
      "하니</w>": 8712,
      "공개</w>": 8713,
      "든지</w>": 8714,
      "스스로</w>": 8715,
      "건축": 8716,
      "자에</w>": 8717,
      "성의</w>": 8718,
      "전통": 8719,
      "발견시</w>": 8720,
      "5월</w>": 8721,
      "맞는</w>": 8722,
      "01</w>": 8723,
      "저작권침해</w>": 8724,
      "수영": 8725,
      "디스": 8726,
      "이론": 8727,
      "서핑에</w>": 8728,
      "과는</w>": 8729,
      "일로</w>": 8730,
      "자료들입니다</w>": 8731,
      "위해서는</w>": 8732,
      "갔다</w>": 8733,
      "신고해주시면</w>": 8734,
      "분쟁요소</w>": 8735,
      "배송</w>": 8736,
      "처리</w>": 8737,
      "어떠": 8738,
      "가입</w>": 8739,
      "엄마</w>": 8740,
      "넘어": 8741,
      "부스타빗": 8742,
      "예를</w>": 8743,
      "역할을</w>": 8744,
      "캠퍼": 8745,
      "전략</w>": 8746,
      "미터</w>": 8747,
      "달라": 8748,
      "ew": 8749,
      "요소": 8750,
      "계획</w>": 8751,
      "실시": 8752,
      "콘텐츠": 8753,
      "스러운</w>": 8754,
      "열심히</w>": 8755,
      "식으로</w>": 8756,
      "하라</w>": 8757,
      "에이전트": 8758,
      "아의</w>": 8759,
      "우선</w>": 8760,
      "저작권을</w>": 8761,
      "충분히</w>": 8762,
      "9월</w>": 8763,
      "일까지</w>": 8764,
      "공연": 8765,
      "ce</w>": 8766,
      "더라": 8767,
      "좋아하는</w>": 8768,
      "심리": 8769,
      "해외</w>": 8770,
      "되기</w>": 8771,
      "시대</w>": 8772,
      "찾기</w>": 8773,
      "사랑</w>": 8774,
      "시행": 8775,
      "나오는</w>": 8776,
      "계를</w>": 8777,
      "500": 8778,
      "11월</w>": 8779,
      "파이": 8780,
      "하고자</w>": 8781,
      "스타</w>": 8782,
      "열린</w>": 8783,
      "여전히</w>": 8784,
      "저작물을</w>": 8785,
      "판매</w>": 8786,
      "도시</w>": 8787,
      "있는지</w>": 8788,
      "목록</w>": 8789,
      "비롯": 8790,
      "ic</w>": 8791,
      "그리스": 8792,
      "유럽": 8793,
      "ra": 8794,
      "일정</w>": 8795,
      "대중": 8796,
      "hd</w>": 8797,
      "저렴": 8798,
      "선수</w>": 8799,
      "프라": 8800,
      "브라우": 8801,
      "클래": 8802,
      "여기서</w>": 8803,
      "등으로</w>": 8804,
      "소프트가</w>": 8805,
      "2017년</w>": 8806,
      "섹시": 8807,
      "거리에</w>": 8808,
      "중심으로</w>": 8809,
      "간에</w>": 8810,
      "사용자</w>": 8811,
      "당신이</w>": 8812,
      "불법적으로</w>": 8813,
      "8월</w>": 8814,
      "촬영": 8815,
      "수와</w>": 8816,
      "통합": 8817,
      "사진을</w>": 8818,
      "없었": 8819,
      "추진": 8820,
      "플라": 8821,
      "이게</w>": 8822,
      "내의</w>": 8823,
      "게이": 8824,
      "9년</w>": 8825,
      "로를</w>": 8826,
      "침에</w>": 8827,
      "움을</w>": 8828,
      "부의</w>": 8829,
      "전시": 8830,
      "있으니</w>": 8831,
      "병원</w>": 8832,
      "후보": 8833,
      "가해질</w>": 8834,
      "저희": 8835,
      "교보문고에서</w>": 8836,
      "것처럼</w>": 8837,
      "이후": 8838,
      "스테": 8839,
      "뛰어": 8840,
      "활동을</w>": 8841,
      "제출": 8842,
      "메뉴": 8843,
      "하기": 8844,
      "1위</w>": 8845,
      "06</w>": 8846,
      "보고서</w>": 8847,
      "이용시에는</w>": 8848,
      "평가</w>": 8849,
      "조건</w>": 8850,
      "사항은</w>": 8851,
      "다리": 8852,
      "it</w>": 8853,
      "버전": 8854,
      "ity</w>": 8855,
      "문서검색</w>": 8856,
      "에이전트소프트가</w>": 8857,
      "훨씬</w>": 8858,
      "가면</w>": 8859,
      "사라": 8860,
      "부가</w>": 8861,
      "줍니다</w>": 8862,
      "08</w>": 8863,
      "계산": 8864,
      "최고</w>": 8865,
      "있었던</w>": 8866,
      "공급": 8867,
      "좋다</w>": 8868,
      "나지</w>": 8869,
      "노래": 8870,
      "나온</w>": 8871,
      "제3": 8872,
      "못하고</w>": 8873,
      "반응": 8874,
      "그들의</w>": 8875,
      "시키는</w>": 8876,
      "으로서</w>": 8877,
      "가정": 8878,
      "원에서</w>": 8879,
      "IN": 8880,
      "프로젝트</w>": 8881,
      "다르": 8882,
      "받으": 8883,
      "마련되어</w>": 8884,
      "전기": 8885,
      "힘들": 8886,
      "24</w>": 8887,
      "con": 8888,
      "역사</w>": 8889,
      "하려면</w>": 8890,
      "블랙</w>": 8891,
      "완료</w>": 8892,
      "적절": 8893,
      "것과</w>": 8894,
      "비가</w>": 8895,
      "에어": 8896,
      "특징": 8897,
      "운동</w>": 8898,
      "이라도</w>": 8899,
      "받았": 8900,
      "19</w>": 8901,
      "가가</w>": 8902,
      "완벽": 8903,
      "결제": 8904,
      "는가</w>": 8905,
      "감이</w>": 8906,
      "뉴스": 8907,
      "보장": 8908,
      "글로벌</w>": 8909,
      "이동</w>": 8910,
      "인과</w>": 8911,
      "출시": 8912,
      "미디어</w>": 8913,
      "세트</w>": 8914,
      "지정": 8915,
      "이것은</w>": 8916,
      "남자": 8917,
      "금액": 8918,
      "내고</w>": 8919,
      "보호</w>": 8920,
      "기존": 8921,
      "대신</w>": 8922,
      "ang": 8923,
      "사고</w>": 8924,
      "편집": 8925,
      "고도</w>": 8926,
      "고는</w>": 8927,
      "사와</w>": 8928,
      "물의</w>": 8929,
      "기획": 8930,
      "by</w>": 8931,
      "업데이트</w>": 8932,
      "애플": 8933,
      "하다는</w>": 8934,
      "화가</w>": 8935,
      "기와</w>": 8936,
      "ice</w>": 8937,
      "면서도</w>": 8938,
      "등록</w>": 8939,
      "는게</w>": 8940,
      "에만</w>": 8941,
      "신뢰": 8942,
      "IS": 8943,
      "아니면</w>": 8944,
      "심을</w>": 8945,
      "인기</w>": 8946,
      "근거": 8947,
      "따뜻": 8948,
      "기념": 8949,
      "나도</w>": 8950,
      "쓰는</w>": 8951,
      "통해서</w>": 8952,
      "윈도": 8953,
      "업체</w>": 8954,
      "설명</w>": 8955,
      "플랫": 8956,
      "도착": 8957,
      "사실을</w>": 8958,
      "법을</w>": 8959,
      "씨는</w>": 8960,
      "주차": 8961,
      "ver": 8962,
      "하늘": 8963,
      "비교</w>": 8964,
      "식사</w>": 8965,
      "분에</w>": 8966,
      "2017</w>": 8967,
      "자리</w>": 8968,
      "ff": 8969,
      "모니": 8970,
      "스코": 8971,
      "1개</w>": 8972,
      "많다</w>": 8973,
      "사용하여</w>": 8974,
      "도에</w>": 8975,
      "소리": 8976,
      "미디어": 8977,
      "마지막": 8978,
      "스타일</w>": 8979,
      "대가</w>": 8980,
      "상업": 8981,
      "그럼</w>": 8982,
      "너무": 8983,
      "ob": 8984,
      "pro": 8985,
      "설정</w>": 8986,
      "편안": 8987,
      "제도</w>": 8988,
      "온라인": 8989,
      "그것을</w>": 8990,
      "언어": 8991,
      "이전": 8992,
      "지로</w>": 8993,
      "주간</w>": 8994,
      "번역": 8995,
      "이하": 8996,
      "SN": 8997,
      "기타": 8998,
      "자동차": 8999,
      "와이": 9000,
      "로그인</w>": 9001,
      "청소년</w>": 9002,
      "있어야</w>": 9003,
      "사정</w>": 9004,
      "이자</w>": 9005,
      "스트레": 9006,
      "qu": 9007,
      "브라": 9008,
      "효율": 9009,
      "결과를</w>": 9010,
      "직원</w>": 9011,
      "리그": 9012,
      "싶다</w>": 9013,
      "마을": 9014,
      "메모": 9015,
      "50</w>": 9016,
      "혼자</w>": 9017,
      "멋진</w>": 9018,
      "물에</w>": 9019,
      "마찬": 9020,
      "36": 9021,
      "누가</w>": 9022,
      "마사": 9023,
      "년도</w>": 9024,
      "age</w>": 9025,
      "전쟁": 9026,
      "주시기</w>": 9027,
      "대에</w>": 9028,
      "강조": 9029,
      "실험": 9030,
      "경을</w>": 9031,
      "포인트</w>": 9032,
      "부에</w>": 9033,
      "자전": 9034,
      "2016년</w>": 9035,
      "적은</w>": 9036,
      "대출": 9037,
      "이죠</w>": 9038,
      "인증": 9039,
      "북한</w>": 9040,
      "기관</w>": 9041,
      "않으면</w>": 9042,
      "없어</w>": 9043,
      "른다</w>": 9044,
      "고객</w>": 9045,
      "적을</w>": 9046,
      "오르": 9047,
      "콘텐츠</w>": 9048,
      "회에</w>": 9049,
      "더니</w>": 9050,
      "이하</w>": 9051,
      "기독": 9052,
      "못하는</w>": 9053,
      "ES": 9054,
      "바로": 9055,
      "으로부터</w>": 9056,
      "듯이</w>": 9057,
      "본다</w>": 9058,
      "공무": 9059,
      "서버": 9060,
      "냈다</w>": 9061,
      "실패": 9062,
      "ed": 9063,
      "타고</w>": 9064,
      "회사는</w>": 9065,
      "가의</w>": 9066,
      "id": 9067,
      "스탠": 9068,
      "싶습니다</w>": 9069,
      "삶을</w>": 9070,
      "시청": 9071,
      "해주세요</w>": 9072,
      "느껴": 9073,
      "장난": 9074,
      "나서</w>": 9075,
      "만들</w>": 9076,
      "for": 9077,
      "공공": 9078,
      "않아</w>": 9079,
      "함께": 9080,
      "사람들</w>": 9081,
      "회장</w>": 9082,
      "iz": 9083,
      "로의</w>": 9084,
      "교수</w>": 9085,
      "하려고</w>": 9086,
      "장기": 9087,
      "미술": 9088,
      "라이브": 9089,
      "07</w>": 9090,
      "은행</w>": 9091,
      "적이고</w>": 9092,
      "다가": 9093,
      "빠르게</w>": 9094,
      "디지털</w>": 9095,
      "02</w>": 9096,
      "비해</w>": 9097,
      "지하": 9098,
      "어린이": 9099,
      "비즈니스</w>": 9100,
      "스위": 9101,
      "영역": 9102,
      "언급": 9103,
      "이탈": 9104,
      "최근": 9105,
      "ine</w>": 9106,
      "요금": 9107,
      "우수": 9108,
      "되어야</w>": 9109,
      "수정": 9110,
      "성은</w>": 9111,
      "집니다</w>": 9112,
      "오래</w>": 9113,
      "작용": 9114,
      "밀리미터": 9115,
      "하기를</w>": 9116,
      "놀이": 9117,
      "트에</w>": 9118,
      "토론": 9119,
      "오버": 9120,
      "시리즈</w>": 9121,
      "안내": 9122,
      "주택": 9123,
      "음악</w>": 9124,
      "태양": 9125,
      "up": 9126,
      "21</w>": 9127,
      "AS": 9128,
      "음식</w>": 9129,
      "기초": 9130,
      "점에</w>": 9131,
      "지난해</w>": 9132,
      "분들이</w>": 9133,
      "우는</w>": 9134,
      "전망": 9135,
      "한국의</w>": 9136,
      "198": 9137,
      "지켜": 9138,
      "입장": 9139,
      "사회복지": 9140,
      "없다는</w>": 9141,
      "?\"</w>": 9142,
      "제일</w>": 9143,
      "eb": 9144,
      "먹는</w>": 9145,
      "보통</w>": 9146,
      "2월</w>": 9147,
      "생명": 9148,
      "훌륭": 9149,
      "지금은</w>": 9150,
      "버튼": 9151,
      "개최": 9152,
      "카드": 9153,
      "여름": 9154,
      "인식": 9155,
      "조합": 9156,
      "의사": 9157,
      "하시기</w>": 9158,
      "전화</w>": 9159,
      "관심을</w>": 9160,
      "구하고</w>": 9161,
      "cm</w>": 9162,
      "Pro": 9163,
      "하여야</w>": 9164,
      "시간에</w>": 9165,
      "신문</w>": 9166,
      "당한</w>": 9167,
      "구체": 9168,
      "쉬운</w>": 9169,
      "도움을</w>": 9170,
      "최소": 9171,
      "us</w>": 9172,
      "모양": 9173,
      "표시</w>": 9174,
      "회에서</w>": 9175,
      "MB": 9176,
      "and": 9177,
      "강화": 9178,
      "수많은</w>": 9179,
      "스와</w>": 9180,
      "지구": 9181,
      "집에</w>": 9182,
      "질을</w>": 9183,
      "무료로</w>": 9184,
      "말고</w>": 9185,
      "훈련": 9186,
      "제작</w>": 9187,
      "올리": 9188,
      "자원": 9189,
      "미니": 9190,
      "단계</w>": 9191,
      "각각</w>": 9192,
      "여기에</w>": 9193,
      "최적": 9194,
      "더군요</w>": 9195,
      "크를</w>": 9196,
      "씨가</w>": 9197,
      "나고</w>": 9198,
      "브랜드": 9199,
      "둘러": 9200,
      "사까": 9201,
      "나가": 9202,
      "마음에</w>": 9203,
      "있음</w>": 9204,
      "가까운</w>": 9205,
      "32</w>": 9206,
      "시험</w>": 9207,
      "달러</w>": 9208,
      "기고</w>": 9209,
      "동의": 9210,
      "주셔서</w>": 9211,
      "사회적</w>": 9212,
      "건설": 9213,
      "바꾸": 9214,
      "당신은</w>": 9215,
      "해피": 9216,
      "구성</w>": 9217,
      "IT": 9218,
      "커피": 9219,
      "대해서는</w>": 9220,
      "indow": 9221,
      "제품을</w>": 9222,
      "초등": 9223,
      "작업을</w>": 9224,
      "프로그램을</w>": 9225,
      "능력": 9226,
      "카지노": 9227,
      "이름을</w>": 9228,
      "오래": 9229,
      "이기도</w>": 9230,
      "문재": 9231,
      "SK": 9232,
      "달리</w>": 9233,
      "찾을</w>": 9234,
      "아기</w>": 9235,
      "파일을</w>": 9236,
      "목을</w>": 9237,
      "산을</w>": 9238,
      "회담": 9239,
      "OS": 9240,
      "책임을</w>": 9241,
      "온다</w>": 9242,
      "마음이</w>": 9243,
      "했다는</w>": 9244,
      "자지</w>": 9245,
      "공항</w>": 9246,
      "평화": 9247,
      "편의</w>": 9248,
      "생각</w>": 9249,
      "도전": 9250,
      "하드": 9251,
      "지금까지</w>": 9252,
      "나아": 9253,
      "지니": 9254,
      "??</w>": 9255,
      "있나요</w>": 9256,
      "아야</w>": 9257,
      "참석": 9258,
      "발표</w>": 9259,
      "예요</w>": 9260,
      "과정에서</w>": 9261,
      "미국의</w>": 9262,
      "었는데</w>": 9263,
      "트럼": 9264,
      "모집</w>": 9265,
      "자신을</w>": 9266,
      "부터는</w>": 9267,
      "컨텐": 9268,
      "아니고</w>": 9269,
      "독일</w>": 9270,
      "ate</w>": 9271,
      "국가</w>": 9272,
      "내용의</w>": 9273,
      "지식": 9274,
      "어떠한</w>": 9275,
      "아이</w>": 9276,
      "파트": 9277,
      "영국</w>": 9278,
      "기자": 9279,
      "이었습니다</w>": 9280,
      "생각합니다</w>": 9281,
      "자리를</w>": 9282,
      "박물": 9283,
      "인사": 9284,
      "업무</w>": 9285,
      "ad</w>": 9286,
      "od": 9287,
      "더불": 9288,
      "AP": 9289,
      "플레이</w>": 9290,
      "버스</w>": 9291,
      "중에서</w>": 9292,
      "AR": 9293,
      "간호": 9294,
      "여기</w>": 9295,
      "차이": 9296,
      "상담</w>": 9297,
      "제의</w>": 9298,
      "숙박</w>": 9299,
      "(?)</w>": 9300,
      "22</w>": 9301,
      "과정을</w>": 9302,
      "네트워크</w>": 9303,
      "그것이</w>": 9304,
      "ia</w>": 9305,
      "함으로써</w>": 9306,
      "현황</w>": 9307,
      "인천": 9308,
      "행사</w>": 9309,
      "이용할</w>": 9310,
      "힘을</w>": 9311,
      "저희</w>": 9312,
      "파악": 9313,
      "이건</w>": 9314,
      "그래프</w>": 9315,
      "기록</w>": 9316,
      "Ap": 9317,
      "데이터를</w>": 9318,
      "대는</w>": 9319,
      "국제</w>": 9320,
      "갤러": 9321,
      "받지</w>": 9322,
      "마치</w>": 9323,
      "부스타빗</w>": 9324,
      "겨울": 9325,
      "마찬가지": 9326,
      "보건": 9327,
      "IC": 9328,
      "완전": 9329,
      "보유": 9330,
      "기도": 9331,
      "선정": 9332,
      "분을</w>": 9333,
      "블랙": 9334,
      "즐길</w>": 9335,
      "질문</w>": 9336,
      "사항을</w>": 9337,
      "최저": 9338,
      "보유</w>": 9339,
      "il</w>": 9340,
      "간다</w>": 9341,
      "IT</w>": 9342,
      "책임은</w>": 9343,
      "소재</w>": 9344,
      "디자인": 9345,
      "ep": 9346,
      "디오": 9347,
      "Pl": 9348,
      "리케이": 9349,
      "완전히</w>": 9350,
      "네임": 9351,
      "그녀의</w>": 9352,
      "아도</w>": 9353,
      "지적": 9354,
      "상에</w>": 9355,
      "OS</w>": 9356,
      "보도": 9357,
      "치료</w>": 9358,
      "굉장": 9359,
      "찾아</w>": 9360,
      "받았다</w>": 9361,
      "작성</w>": 9362,
      "체를</w>": 9363,
      "보지</w>": 9364,
      "우리나라": 9365,
      "연속</w>": 9366,
      "인터뷰</w>": 9367,
      "공간</w>": 9368,
      "as</w>": 9369,
      "일까</w>": 9370,
      "화된</w>": 9371,
      "그게</w>": 9372,
      "관이</w>": 9373,
      "있을까</w>": 9374,
      "어린이</w>": 9375,
      "연합": 9376,
      "대상으로</w>": 9377,
      "우승": 9378,
      "ew</w>": 9379,
      "Window": 9380,
      "종교": 9381,
      "나무</w>": 9382,
      "차지": 9383,
      "Ad": 9384,
      "여행을</w>": 9385,
      "of": 9386,
      "최초": 9387,
      "어가</w>": 9388,
      "소득": 9389,
      "PC</w>": 9390,
      "전환": 9391,
      "지와</w>": 9392,
      "사까시</w>": 9393,
      "리더": 9394,
      "리뷰": 9395,
      "레즈": 9396,
      "법의</w>": 9397,
      "설계": 9398,
      "집에서</w>": 9399,
      "기기</w>": 9400,
      "가능성이</w>": 9401,
      "문학": 9402,
      "과연</w>": 9403,
      "체의</w>": 9404,
      "측정": 9405,
      "것이라고</w>": 9406,
      "베트": 9407,
      "유럽</w>": 9408,
      "스테이": 9409,
      "카오": 9410,
      "통하여</w>": 9411,
      "리조": 9412,
      "대부분의</w>": 9413,
      "료를</w>": 9414,
      "왔습니다</w>": 9415,
      "안드로": 9416,
      "문학</w>": 9417,
      "입을</w>": 9418,
      "영업": 9419,
      "강한</w>": 9420,
      "구축": 9421,
      "단체</w>": 9422,
      "체육": 9423,
      "그림</w>": 9424,
      "투어</w>": 9425,
      "감소": 9426,
      "um</w>": 9427,
      "수술": 9428,
      "행사": 9429,
      "안에서</w>": 9430,
      "강력": 9431,
      "고객센터</w>": 9432,
      "식품": 9433,
      "였습니다</w>": 9434,
      "인도": 9435,
      "티브</w>": 9436,
      "소유": 9437,
      "Con": 9438,
      "부정": 9439,
      "새로</w>": 9440,
      "TAG</w>": 9441,
      "따로</w>": 9442,
      "뜨거운</w>": 9443,
      "공항": 9444,
      "그동안</w>": 9445,
      "sp": 9446,
      "혁신": 9447,
      "건강</w>": 9448,
      "아니</w>": 9449,
      "쪽으로</w>": 9450,
      "놀라": 9451,
      "분명": 9452,
      "2차</w>": 9453,
      "개가</w>": 9454,
      "누구나</w>": 9455,
      "주소": 9456,
      "개월": 9457,
      "태그</w>": 9458,
      "노트": 9459,
      "tr": 9460,
      "xHamster</w>": 9461,
      "점점</w>": 9462,
      "수익": 9463,
      "근데</w>": 9464,
      "교수": 9465,
      "Tub": 9466,
      "친절": 9467,
      "03</w>": 9468,
      "성장</w>": 9469,
      "보자</w>": 9470,
      "년을</w>": 9471,
      "변화가</w>": 9472,
      "Porn": 9473,
      "기계</w>": 9474,
      "답니다</w>": 9475,
      "사랑을</w>": 9476,
      "알게</w>": 9477,
      "아파트</w>": 9478,
      "제조": 9479,
      "소리</w>": 9480,
      "거든": 9481,
      "세대</w>": 9482,
      "tion</w>": 9483,
      "레즈비": 9484,
      "쓰고</w>": 9485,
      "깊은</w>": 9486,
      "면을</w>": 9487,
      "이용하실</w>": 9488,
      ")'</w>": 9489,
      "시킬</w>": 9490,
      "for</w>": 9491,
      "봉사": 9492,
      "물은</w>": 9493,
      "대출</w>": 9494,
      "감상": 9495,
      "때마다</w>": 9496,
      "기업의</w>": 9497,
      "지게</w>": 9498,
      "접속": 9499,
      "지급": 9500,
      "댓글을</w>": 9501,
      "년이</w>": 9502,
      "비슷한</w>": 9503,
      "인지": 9504,
      "23</w>": 9505,
      "거든요</w>": 9506,
      "대리": 9507,
      "수상": 9508,
      "예고</w>": 9509,
      "플러스</w>": 9510,
      "중한</w>": 9511,
      "원으로</w>": 9512,
      "웹사이트": 9513,
      "월드</w>": 9514,
      "협회</w>": 9515,
      "변화</w>": 9516,
      "시도": 9517,
      "일으": 9518,
      "편리": 9519,
      "해당되는</w>": 9520,
      "Vi": 9521,
      "부산</w>": 9522,
      "님은</w>": 9523,
      "단을</w>": 9524,
      "잠시</w>": 9525,
      "까지는</w>": 9526,
      "할수</w>": 9527,
      "홍보": 9528,
      "AN": 9529,
      "포트": 9530,
      "발달": 9531,
      "파일": 9532,
      "해가</w>": 9533,
      "짧은</w>": 9534,
      "프랑스</w>": 9535,
      "어드": 9536,
      "이스": 9537,
      "근로": 9538,
      "마무": 9539,
      "그러면</w>": 9540,
      "일본의</w>": 9541,
      "축구</w>": 9542,
      "바탕": 9543,
      "에선</w>": 9544,
      "셔야</w>": 9545,
      "침대</w>": 9546,
      "곳이</w>": 9547,
      "읽고</w>": 9548,
      "우리나라</w>": 9549,
      "반영": 9550,
      "듣고</w>": 9551,
      "완성": 9552,
      "300": 9553,
      "리스</w>": 9554,
      "시리즈": 9555,
      "전국</w>": 9556,
      "전국": 9557,
      "해당하는</w>": 9558,
      "고자</w>": 9559,
      "않는": 9560,
      "Sp": 9561,
      "터를</w>": 9562,
      "얘기": 9563,
      "현대</w>": 9564,
      "된다는</w>": 9565,
      "차이가</w>": 9566,
      "04</w>": 9567,
      "방법은</w>": 9568,
      "one</w>": 9569,
      "그레이": 9570,
      "ot</w>": 9571,
      "오픈</w>": 9572,
      "궁금한</w>": 9573,
      "생성": 9574,
      "작업</w>": 9575,
      "유니": 9576,
      "상당히</w>": 9577,
      "마을</w>": 9578,
      "달러": 9579,
      "이익": 9580,
      "하느": 9581,
      "삶의</w>": 9582,
      "프린": 9583,
      "부르": 9584,
      "카페</w>": 9585,
      "5페이지</w>": 9586,
      "어는</w>": 9587,
      "제한</w>": 9588,
      "한번": 9589,
      "겠습니까</w>": 9590,
      "단의</w>": 9591,
      "어린</w>": 9592,
      "직업": 9593,
      "변화를</w>": 9594,
      "제1": 9595,
      "비행": 9596,
      "Ex": 9597,
      "필요</w>": 9598,
      "방향</w>": 9599,
      "마케팅": 9600,
      "저녁</w>": 9601,
      "제거": 9602,
      "수수": 9603,
      "세상</w>": 9604,
      "바다": 9605,
      "4페이지</w>": 9606,
      "CO": 9607,
      "앞에서</w>": 9608,
      "슬라이": 9609,
      "주문</w>": 9610,
      "강남": 9611,
      "성능": 9612,
      "개최</w>": 9613,
      "ass": 9614,
      "자본": 9615,
      "마음</w>": 9616,
      "위가</w>": 9617,
      "성격": 9618,
      "차량": 9619,
      "불구하고</w>": 9620,
      "3페이지</w>": 9621,
      "체크": 9622,
      "바뀌": 9623,
      "ore": 9624,
      "엄청": 9625,
      "레즈비언</w>": 9626,
      "보안</w>": 9627,
      "블루": 9628,
      "확보": 9629,
      "목적</w>": 9630,
      "남북": 9631,
      "약을</w>": 9632,
      "지키": 9633,
      "유용": 9634,
      "이해</w>": 9635,
      "남은</w>": 9636,
      "데이</w>": 9637,
      "관심이</w>": 9638,
      "Al": 9639,
      "대구": 9640,
      "누군": 9641,
      "2015년</w>": 9642,
      "의원</w>": 9643,
      "시각": 9644,
      "야구": 9645,
      "삭제될</w>": 9646,
      "해지": 9647,
      "ch</w>": 9648,
      "네이버</w>": 9649,
      "적합": 9650,
      "민족": 9651,
      "경영</w>": 9652,
      "분야</w>": 9653,
      "내에서</w>": 9654,
      "치가</w>": 9655,
      "백과": 9656,
      "프로세": 9657,
      "다이어": 9658,
      "Windows</w>": 9659,
      "살고</w>": 9660,
      "부분이</w>": 9661,
      "백과</w>": 9662,
      "반복": 9663,
      "도와": 9664,
      "거부": 9665,
      "말하는</w>": 9666,
      "ID": 9667,
      "독립": 9668,
      "애니": 9669,
      "이의</w>": 9670,
      "AT": 9671,
      "브리": 9672,
      "박근": 9673,
      "핸드": 9674,
      "HD</w>": 9675,
      "하네요</w>": 9676,
      "님을</w>": 9677,
      "En": 9678,
      "투자</w>": 9679,
      "자체가</w>": 9680,
      "채용": 9681,
      "Wi": 9682,
      "공지</w>": 9683,
      "되면서</w>": 9684,
      "명령": 9685,
      "기계": 9686,
      "외에</w>": 9687,
      "굉장히</w>": 9688,
      "아무리</w>": 9689,
      "깨끗": 9690,
      "크리에이": 9691,
      "og": 9692,
      "갑자기</w>": 9693,
      "배포</w>": 9694,
      "없다고</w>": 9695,
      "ure</w>": 9696,
      "장소</w>": 9697,
      "사유": 9698,
      "ID</w>": 9699,
      "랐다</w>": 9700,
      "원래</w>": 9701,
      "수밖에</w>": 9702,
      "전문가": 9703,
      "인도</w>": 9704,
      "걱정": 9705,
      "정규": 9706,
      "오픈": 9707,
      "어머니": 9708,
      "이론</w>": 9709,
      "솔루": 9710,
      "권한": 9711,
      "하는지</w>": 9712,
      "파워": 9713,
      "드라마</w>": 9714,
      "커피</w>": 9715,
      "대화": 9716,
      "도와</w>": 9717,
      "소설": 9718,
      "무엇을</w>": 9719,
      "귀여": 9720,
      "사건</w>": 9721,
      "공원</w>": 9722,
      "혜택": 9723,
      "자녀": 9724,
      "스에서</w>": 9725,
      "카메라</w>": 9726,
      "검사</w>": 9727,
      "사이에</w>": 9728,
      "스마트폰": 9729,
      "사람들의</w>": 9730,
      "절대</w>": 9731,
      "스럽게</w>": 9732,
      "테스트</w>": 9733,
      "아웃": 9734,
      "출발": 9735,
      "str": 9736,
      "구나</w>": 9737,
      "경우는</w>": 9738,
      "소리를</w>": 9739,
      "!!!</w>": 9740,
      "하기로</w>": 9741,
      "대응": 9742,
      "이용하여</w>": 9743,
      "분류": 9744,
      "소통": 9745,
      "저를</w>": 9746,
      "주시": 9747,
      "반면</w>": 9748,
      "협력": 9749,
      "트립": 9750,
      "Par": 9751,
      "근무": 9752,
      "관계를</w>": 9753,
      "lu": 9754,
      "귀하": 9755,
      "모르는</w>": 9756,
      "넷의</w>": 9757,
      "움이</w>": 9758,
      "방안</w>": 9759,
      "위에서</w>": 9760,
      "90": 9761,
      "들로</w>": 9762,
      "비디오</w>": 9763,
      "요리</w>": 9764,
      "창조": 9765,
      "노인": 9766,
      "아닐": 9767,
      "모두의</w>": 9768,
      "주를</w>": 9769,
      "클리": 9770,
      "오른": 9771,
      "난다</w>": 9772,
      "생각하는</w>": 9773,
      "길이</w>": 9774,
      "실천": 9775,
      "비판": 9776,
      "혹시</w>": 9777,
      "보관": 9778,
      "순간": 9779,
      "net</w>": 9780,
      "않게</w>": 9781,
      "LG": 9782,
      "원칙": 9783,
      "오늘은</w>": 9784,
      "동의</w>": 9785,
      "부탁드립니다</w>": 9786,
      "해주는</w>": 9787,
      "과학</w>": 9788,
      "구조</w>": 9789,
      "차별": 9790,
      "동물": 9791,
      "한테</w>": 9792,
      "장으로</w>": 9793,
      "예방": 9794,
      "창업": 9795,
      "보호를</w>": 9796,
      "표시됩니다</w>": 9797,
      "년부터</w>": 9798,
      "해석": 9799,
      "했어요</w>": 9800,
      "규모</w>": 9801,
      "이용해</w>": 9802,
      "순간</w>": 9803,
      "리와</w>": 9804,
      "수업": 9805,
      "신경": 9806,
      "졸업": 9807,
      "거래</w>": 9808,
      "자랑": 9809,
      "SS": 9810,
      "다시": 9811,
      "관리자</w>": 9812,
      "아마</w>": 9813,
      "갖추": 9814,
      "다른": 9815,
      "번째": 9816,
      "잘보고</w>": 9817,
      "ation": 9818,
      "지역의</w>": 9819,
      "받아들": 9820,
      "35": 9821,
      "자료에</w>": 9822,
      "1문의": 9823,
      "jp": 9824,
      "문재인</w>": 9825,
      "마사지</w>": 9826,
      "해를</w>": 9827,
      "구가</w>": 9828,
      "완료": 9829,
      "아시아": 9830,
      "고용": 9831,
      "잡고</w>": 9832,
      "면에서</w>": 9833,
      "꾸준": 9834,
      "범죄": 9835,
      "생각한다</w>": 9836,
      "24시간</w>": 9837,
      "32": 9838,
      "세기</w>": 9839,
      "스카": 9840,
      "성과": 9841,
      "시를</w>": 9842,
      "어느": 9843,
      "캐나": 9844,
      "시다</w>": 9845,
      "않을까</w>": 9846,
      "트로</w>": 9847,
      "LED</w>": 9848,
      "행복한</w>": 9849,
      "때까지</w>": 9850,
      "그를</w>": 9851,
      "인간의</w>": 9852,
      "도입": 9853,
      "개념</w>": 9854,
      "OR": 9855,
      "심각": 9856,
      "est</w>": 9857,
      "의존": 9858,
      "플래": 9859,
      "때문입니다</w>": 9860,
      "브루</w>": 9861,
      "앞서</w>": 9862,
      "현지": 9863,
      "중년": 9864,
      "시간은</w>": 9865,
      "었고</w>": 9866,
      "아이디</w>": 9867,
      "사이즈": 9868,
      "경험을</w>": 9869,
      "해서": 9870,
      "면에</w>": 9871,
      "if": 9872,
      "처음으로</w>": 9873,
      "포스": 9874,
      "주신</w>": 9875,
      "집을</w>": 9876,
      "할까</w>": 9877,
      "링크</w>": 9878,
      "때가</w>": 9879,
      "안타": 9880,
      "방문</w>": 9881,
      "이것이</w>": 9882,
      "행위</w>": 9883,
      "성인": 9884,
      "일정": 9885,
      "하겠다</w>": 9886,
      "확장": 9887,
      "좋은": 9888,
      "제목</w>": 9889,
      "랜드": 9890,
      "상세": 9891,
      "신문": 9892,
      "되었고</w>": 9893,
      "봐야</w>": 9894,
      "기술을</w>": 9895,
      "전반": 9896,
      "킬로미터": 9897,
      "갤럭": 9898,
      "욕설</w>": 9899,
      "26</w>": 9900,
      "숙한</w>": 9901,
      "골프": 9902,
      "ph": 9903,
      "해피캠퍼": 9904,
      "증명": 9905,
      "이뤄": 9906,
      "삼성</w>": 9907,
      "5일</w>": 9908,
      "사로</w>": 9909,
      "할인</w>": 9910,
      "데도</w>": 9911,
      "부분을</w>": 9912,
      "복잡": 9913,
      "여름</w>": 9914,
      "게임을</w>": 9915,
      "무선</w>": 9916,
      "얻을</w>": 9917,
      "7일</w>": 9918,
      "수집</w>": 9919,
      "인증</w>": 9920,
      "뭔가</w>": 9921,
      "필요하다</w>": 9922,
      "프리미": 9923,
      "2개</w>": 9924,
      "AM": 9925,
      "메리": 9926,
      "적극": 9927,
      "계의</w>": 9928,
      "소프트웨어</w>": 9929,
      "슈퍼": 9930,
      "자동으로</w>": 9931,
      "카페": 9932,
      "월에</w>": 9933,
      "AC": 9934,
      "대전</w>": 9935,
      "ps</w>": 9936,
      "비용</w>": 9937,
      "아직도</w>": 9938,
      "te": 9939,
      "위는</w>": 9940,
      "진출": 9941,
      "계약</w>": 9942,
      "NE": 9943,
      "식의</w>": 9944,
      "겠다는</w>": 9945,
      "대체": 9946,
      "언제</w>": 9947,
      "작동": 9948,
      "선물": 9949,
      "지어</w>": 9950,
      "야외</w>": 9951,
      "재를</w>": 9952,
      "강의</w>": 9953,
      "Porn</w>": 9954,
      "효과</w>": 9955,
      "유형": 9956,
      "직장": 9957,
      "과거</w>": 9958,
      "제안": 9959,
      "학적</w>": 9960,
      "사용하고</w>": 9961,
      "취업": 9962,
      "안타</w>": 9963,
      "만들고</w>": 9964,
      "트위": 9965,
      "고양이</w>": 9966,
      "법에</w>": 9967,
      "비밀번호</w>": 9968,
      "27</w>": 9969,
      "이제는</w>": 9970,
      "된다고</w>": 9971,
      "도서</w>": 9972,
      "교육을</w>": 9973,
      "변호": 9974,
      "다녀": 9975,
      "거야</w>": 9976,
      "유명한</w>": 9977,
      "량이</w>": 9978,
      "즐거운</w>": 9979,
      "rip": 9980,
      "jpg</w>": 9981,
      "곳을</w>": 9982,
      "대단": 9983,
      "청년": 9984,
      "사망": 9985,
      "와는</w>": 9986,
      "운전": 9987,
      "한데</w>": 9988,
      "정액</w>": 9989,
      "ter</w>": 9990,
      "공사</w>": 9991,
      "불안": 9992,
      "도착</w>": 9993,
      "러시아</w>": 9994,
      "기회를</w>": 9995,
      "yst": 9996,
      "아이폰": 9997,
      "복지</w>": 9998,
      "분의</w>": 9999,
      "불법</w>": 10000,
      "가상": 10001,
      "힘든</w>": 10002,
      "했으며</w>": 10003,
      "일부": 10004,
      "활용</w>": 10005,
      "만원": 10006,
      "그들이</w>": 10007,
      "스토리</w>": 10008,
      "서울시</w>": 10009,
      "보이지</w>": 10010,
      "일반적으로</w>": 10011,
      "몸을</w>": 10012,
      "글은</w>": 10013,
      "리로</w>": 10014,
      "놓은</w>": 10015,
      "형성": 10016,
      "신고</w>": 10017,
      "시켜</w>": 10018,
      "ook</w>": 10019,
      "흥미": 10020,
      "이내</w>": 10021,
      "챔피": 10022,
      "내용이</w>": 10023,
      "제2": 10024,
      "효과를</w>": 10025,
      "맛집</w>": 10026,
      "are</w>": 10027,
      "하더라도</w>": 10028,
      "에너지</w>": 10029,
      "패키": 10030,
      "느낄</w>": 10031,
      "이유가</w>": 10032,
      "홈런</w>": 10033,
      "세를</w>": 10034,
      "방법으로</w>": 10035,
      "시켜": 10036,
      "경기도</w>": 10037,
      "Com": 10038,
      "롯데": 10039,
      "사랑하는</w>": 10040,
      "id</w>": 10041,
      "핵심": 10042,
      "주시</w>": 10043,
      "사업을</w>": 10044,
      "자면</w>": 10045,
      "코리아</w>": 10046,
      "적용</w>": 10047,
      "사이트에</w>": 10048,
      "이끌": 10049,
      "정리</w>": 10050,
      "클럽</w>": 10051,
      "나중에</w>": 10052,
      "태양</w>": 10053,
      "것인가</w>": 10054,
      "약간</w>": 10055,
      "가능하다</w>": 10056,
      "사다리": 10057,
      "수로</w>": 10058,
      "생활을</w>": 10059,
      "말이다</w>": 10060,
      "하려는</w>": 10061,
      "Serv": 10062,
      "king</w>": 10063,
      "나게</w>": 10064,
      "사회의</w>": 10065,
      "ory</w>": 10066,
      "렸습니다</w>": 10067,
      "반대": 10068,
      "소셜그래프</w>": 10069,
      "SM": 10070,
      "3D</w>": 10071,
      "아무</w>": 10072,
      "me": 10073,
      "취소</w>": 10074,
      "찾으": 10075,
      "남겨": 10076,
      "ics</w>": 10077,
      "전기</w>": 10078,
      "am</w>": 10079,
      "부동산</w>": 10080,
      "구분": 10081,
      "명은</w>": 10082,
      "비방": 10083,
      "어버": 10084,
      "니다만</w>": 10085,
      "피스</w>": 10086,
      "언어</w>": 10087,
      "th</w>": 10088,
      "교환</w>": 10089,
      "증을</w>": 10090,
      "Un": 10091,
      "IP": 10092,
      "세상을</w>": 10093,
      "아내</w>": 10094,
      "표준": 10095,
      "31": 10096,
      "3회": 10097,
      "물리": 10098,
      "최신</w>": 10099,
      "말한다</w>": 10100,
      "들었다</w>": 10101,
      "위키백과</w>": 10102,
      "학년</w>": 10103,
      "되는데</w>": 10104,
      "유일": 10105,
      "주목": 10106,
      "법률": 10107,
      "채용</w>": 10108,
      "oun": 10109,
      "경기를</w>": 10110,
      "연습": 10111,
      "상태</w>": 10112,
      "손을</w>": 10113,
      "카테고리의</w>": 10114,
      "유아": 10115,
      "스마트폰</w>": 10116,
      "출판": 10117,
      "나머": 10118,
      "구글</w>": 10119,
      "의무": 10120,
      "회사의</w>": 10121,
      "이유로</w>": 10122,
      "때도</w>": 10123,
      "Goo": 10124,
      "대체</w>": 10125,
      "려는</w>": 10126,
      "보여주": 10127,
      "즐기": 10128,
      "설립": 10129,
      "페이스북</w>": 10130,
      "않으": 10131,
      "겠죠</w>": 10132,
      "든다</w>": 10133,
      "과거": 10134,
      "요약": 10135,
      "그러므로</w>": 10136,
      "고통": 10137,
      "무역": 10138,
      "방침에</w>": 10139,
      "순위</w>": 10140,
      "아이폰</w>": 10141,
      "감독</w>": 10142,
      "께서는</w>": 10143,
      "2014년</w>": 10144,
      "스턴": 10145,
      "력은</w>": 10146,
      "향이</w>": 10147,
      "모습이</w>": 10148,
      "실시간</w>": 10149,
      "곳은</w>": 10150,
      "저렴한</w>": 10151,
      "남아</w>": 10152,
      "이야</w>": 10153,
      "홈런": 10154,
      "점으로</w>": 10155,
      "오고</w>": 10156,
      "조건이</w>": 10157,
      "선은</w>": 10158,
      "합격": 10159,
      "가게</w>": 10160,
      "어지": 10161,
      "Ar": 10162,
      "이번에</w>": 10163,
      "통신</w>": 10164,
      "강원": 10165,
      "더불어</w>": 10166,
      "찾는</w>": 10167,
      "TE": 10168,
      "대통령이</w>": 10169,
      "목적으로</w>": 10170,
      "암호": 10171,
      "데이터베이": 10172,
      "았던</w>": 10173,
      "얼마</w>": 10174,
      "하다가</w>": 10175,
      "어쩌": 10176,
      "28</w>": 10177,
      "가에</w>": 10178,
      "백과사전</w>": 10179,
      "이들</w>": 10180,
      "좋아요</w>": 10181,
      "내부</w>": 10182,
      "정부의</w>": 10183,
      "6페이지</w>": 10184,
      "수요": 10185,
      "모두가</w>": 10186,
      "성경": 10187,
      "예정이다</w>": 10188,
      "상은</w>": 10189,
      "mm</w>": 10190,
      "남편": 10191,
      "남성</w>": 10192,
      "릅니다</w>": 10193,
      "게도</w>": 10194,
      "2일</w>": 10195,
      "트랙": 10196,
      "se</w>": 10197,
      "드에</w>": 10198,
      "훌륭한</w>": 10199,
      "관은</w>": 10200,
      "편하게</w>": 10201,
      "컬러</w>": 10202,
      "자료를</w>": 10203,
      "BS</w>": 10204,
      "어의</w>": 10205,
      "스케": 10206,
      "채널</w>": 10207,
      "포함되어</w>": 10208,
      "배터": 10209,
      "Fi</w>": 10210,
      "bo": 10211,
      "이용한</w>": 10212,
      "재판": 10213,
      "개정": 10214,
      "기반</w>": 10215,
      "오류": 10216,
      "아래와</w>": 10217,
      "음이</w>": 10218,
      "수입": 10219,
      "유통": 10220,
      "2010": 10221,
      "도로": 10222,
      "올해": 10223,
      "교회": 10224,
      "덕분에</w>": 10225,
      "영상을</w>": 10226,
      "포함한</w>": 10227,
      "큰가슴</w>": 10228,
      "올림픽</w>": 10229,
      "Ma": 10230,
      "면접": 10231,
      "약속": 10232,
      "2페이지</w>": 10233,
      "지지": 10234,
      "참고</w>": 10235,
      "자치": 10236,
      "어로</w>": 10237,
      "여유": 10238,
      "보면서</w>": 10239,
      "전용</w>": 10240,
      "참여</w>": 10241,
      "준비</w>": 10242,
      "레스토랑</w>": 10243,
      "유튜": 10244,
      "인에</w>": 10245,
      "보드</w>": 10246,
      "네임드": 10247,
      "시의</w>": 10248,
      "늘어": 10249,
      "올려": 10250,
      "장과</w>": 10251,
      "출연": 10252,
      "였던</w>": 10253,
      "안의</w>": 10254,
      "방식으로</w>": 10255,
      "낮은</w>": 10256,
      "영국": 10257,
      "지배": 10258,
      "현장</w>": 10259,
      "그렇지</w>": 10260,
      "나면</w>": 10261,
      "--</w>": 10262,
      "품질": 10263,
      "ly</w>": 10264,
      "메이저": 10265,
      "않도록</w>": 10266,
      "유치": 10267,
      "공동</w>": 10268,
      "물건": 10269,
      "조정": 10270,
      "이에요</w>": 10271,
      "최종</w>": 10272,
      "3일</w>": 10273,
      "프로</w>": 10274,
      "ear": 10275,
      "복사</w>": 10276,
      "시스템을</w>": 10277,
      "대전": 10278,
      "09</w>": 10279,
      "쪽에</w>": 10280,
      "것이고</w>": 10281,
      "속도</w>": 10282,
      "회복": 10283,
      "공식": 10284,
      "다리</w>": 10285,
      "이르": 10286,
      "차가</w>": 10287,
      "눈을</w>": 10288,
      "다루": 10289,
      "29</w>": 10290,
      "구현": 10291,
      "2018": 10292,
      "장치</w>": 10293,
      "스키": 10294,
      "스크립": 10295,
      "보다": 10296,
      "기여": 10297,
      "관측": 10298,
      "통일": 10299,
      "물질": 10300,
      "체가</w>": 10301,
      "참조": 10302,
      "카카오": 10303,
      "무한": 10304,
      "바른</w>": 10305,
      "문의하실</w>": 10306,
      "소리가</w>": 10307,
      "상황에서</w>": 10308,
      "ros": 10309,
      "만난</w>": 10310,
      "관의</w>": 10311,
      "사람들을</w>": 10312,
      "씨발</w>": 10313,
      "에게도</w>": 10314,
      "장난감</w>": 10315,
      "부여": 10316,
      "죄송": 10317,
      "전망</w>": 10318,
      "흐름": 10319,
      "년대</w>": 10320,
      "중소": 10321,
      "이내에</w>": 10322,
      "정확한</w>": 10323,
      "os</w>": 10324,
      "해진</w>": 10325,
      "공유</w>": 10326,
      "IP</w>": 10327,
      "Ph": 10328,
      "Ac": 10329,
      "웨이": 10330,
      "포기": 10331,
      "모바일": 10332,
      "이사": 10333,
      "입고</w>": 10334,
      "하시고</w>": 10335,
      "외부</w>": 10336,
      "먼트</w>": 10337,
      "어제</w>": 10338,
      "인들이</w>": 10339,
      "느낌이</w>": 10340,
      "아닌가</w>": 10341,
      "솔직": 10342,
      "2주간</w>": 10343,
      "드에서</w>": 10344,
      "다운로드가</w>": 10345,
      "이니</w>": 10346,
[...]
