{
  "약관은</w>": 25909,
  "기계": 9686,
  "틤": 3553,
  "듣지</w>": 22212,
  "리조": 9412,
  "값을</w>": 10987,
  "실": 2157,
  "조직은</w>": 32463,
  "지원에</w>": 27454,
  "개인정보관리책임자</w>": 26886,
  "뎌</w>": 5415,
  "ONE</w>": 26498,
  "26페이지</w>": 27962,
  "UA": 19618,
  "Ad": 9384,
  "볁": 1665,
  "무를</w>": 13867,
  "근본": 12285,
  "둘은</w>": 22974,
  "M</w>": 4472,
  "sur": 30758,
  "그리고</w>": 7011,
  "판": 3571,
  "공유": 7894,
  "고객께서는</w>": 22044,
  "농산물</w>": 31000,
  "염색": 23230,
  "고있는</w>": 18013,
  "국가를</w>": 22051,
  "뚀</w>": 6648,
  "데이</w>": 9637,
  "상용": 18180,
  "대사</w>": 15982,
  "것이라고</w>": 9406,
  "침투</w>": 31676,
  "당신이</w>": 8812,
  "일시</w>": 18417,
  "2018": 10292,
  "춘": 3175,
  "식사</w>": 8965,
  "목회": 16602,
  "안산": 25950,
  "상에</w>": 9355,
  "누비": 28990,
  "칼슘": 30582,
  "겁니다</w>": 8114,
  "보안을</w>": 29252,
  "니까</w>": 7106,
  "점에서</w>": 8477,
  "스윙": 19140,
  "봤던</w>": 24537,
  "쾨</w>": 6241,
  "시청이</w>": 20014,
  "대문": 16272,
  "보호법</w>": 25456,
  "태그</w>": 9458,
  "사무실을</w>": 32445,
  "쌈": 2184,
  "갑작스러운</w>": 32252,
  "BA": 19919,
  "탶": 3434,
  "바이오": 12658,
  "AK": 22310,
  "영원한</w>": 15749,
  "와이드</w>": 25565,
  "쉑</w>": 5291,
  "뼜": 1863,
  "백한</w>": 32185,
  "신뢰</w>": 25326,
  "협의</w>": 18804,
  "마닐": 23311,
  "공직": 16787,
  "쇤": 2062,
  "란의</w>": 25921,
  "예산이</w>": 28968,
  "햊</w>": 6446,
  "시기</w>": 7549,
  "삷</w>": 6307,
  "사우디아라": 26685,
  "저작물은</w>": 22070,
  "품": 3673,
  "총장</w>": 17757,
  "문제점</w>": 12067,
  "당이</w>": 11805,
  "보여</w>": 11485,
  "덫": 824,
  "사용하시는</w>": 32324,
  "쌍용": 23892,
  "이슬람": 20762,
  "욕</w>": 4198,
  "Explor": 24983,
  "가져</w>": 16923,
  "택배</w>": 17018,
  "큡": 3372,
  "욧</w>": 5141,
  "란한</w>": 25106,
  "끝나면</w>": 20299,
  "건국": 23189,
  "커지고</w>": 23101,
  "복무": 27790,
  "훡": 3893,
  "면세": 18408,
  "진로</w>": 23099,
  "병에</w>": 18858,
  "제외": 8440,
  "끽": 533,
  "소유</w>": 23025,
  "웹사이트의</w>": 14188,
  "Air": 16810,
  "정품</w>": 14612,
  "차량</w>": 10476,
  "싶": 2173,
  "Geographical</w>": 23724,
  "듴</w>": 6771,
  "의장</w>": 21312,
  "존</w>": 4663,
  "풀이</w>": 17238,
  "아이들</w>": 12936,
  "찍는</w>": 21502,
  "En": 9678,
  "나뉘어</w>": 30611,
  "치매</w>": 24613,
  "원동": 24501,
  "없지만</w>": 10636,
  "특징은</w>": 21262,
  "먽": 1415,
  "스러울</w>": 28982,
  "사용해야</w>": 19962,
  "부드럽게</w>": 21648,
  "NO</w>": 17849,
  "끗": 523,
  "회": 3860,
  "향상</w>": 15978,
  "퉍": 3513,
  "결정할</w>": 23661,
  "56</w>": 14982,
  "추를</w>": 21734,
  "여행지입니다</w>": 26545,
  "송혜": 30262,
  "경우는</w>": 9738,
  "퓽</w>": 6333,
  "개정</w>": 14459,
  "이들": 30827,
  "학생들</w>": 17324,
  "어깨": 14567,
  "욉</w>": 6643,
  "대기": 12115,
  "지배하는</w>": 31969,
  "았던</w>": 10173,
  "바닥을</w>": 27091,
  "2017년": 17826,
  "Language</w>": 22845,
  "떰": 1029,
  "검정</w>": 15147,
  "지구": 9181,
  "않던</w>": 30886,
  "꾈": 459,
  "곰": 204,
  "얼마든지</w>": 19661,
  "맇</w>": 6522,
  "협의회</w>": 15312,
  "구분할</w>": 31882,
  "회사인</w>": 27670,
  "녙": 640,
  "핼": 3752,
  "군사</w>": 22812,
  "손가락": 17419,
  "다운": 7322,
  "박수를</w>": 28030,
  "뵘": 1722,
  "상대방의</w>": 23609,
  "휴대폰": 15102,
  "코너": 23503,
  "Rel": 27383,
  "신라": 22909,
  "자영업": 25848,
  "문으로</w>": 16457,
  "신용카드</w>": 13552,
  "친구가</w>": 11684,
  "@": 24,
  "밯</w>": 6605,
  "꾯</w>": 6298,
  "한쪽</w>": 25478,
  "시험": 8282,
  "돌려": 13451,
  "펀딩</w>": 23848,
  "베르": 11858,
  "My": 17661,
  "초과하거나</w>": 14115,
  "븅": 1769,
  "브라우저들을</w>": 23179,
  "쌋</w>": 6787,
  "츠가</w>": 30718,
  "소통을</w>": 25684,
  "럽</w>": 4369,
  "오면</w>": 11853,
  "잃을</w>": 32241,
  "차": 3059,
  "했지</w>": 22883,
  "알렉스</w>": 26440,
  "순위를</w>": 20917,
  "실행할</w>": 21103,
  "착륙": 32242,
  "과장</w>": 23095,
  "슆": 2116,
  "도움이": 25559,
  "태양": 9125,
  "2": 14,
  "쩟</w>": 5831,
  "지능형</w>": 30457,
  "Fr": 14097,
  "담": 774,
  "500</w>": 16789,
  "형사</w>": 18730,
  "있었는데요</w>": 31284,
  "반가운</w>": 29282,
  "스퀘어</w>": 21755,
  "모음</w>": 13833,
  "센터가</w>": 23747,
  "아트</w>": 14392,
  "프로그램입니다</w>": 30841,
  "쫙": 2999,
  "보이고</w>": 10672,
  "캐": 3251,
  "Google</w>": 13407,
  "뒨</w>": 6347,
  "킬로미터의</w>": 30035,
  "롭게</w>": 8360,
  "2차": 13520,
  "증의</w>": 20368,
  ")'</w>": 9489,
  "당일</w>": 13507,
  "퍠": 3603,
  "수입</w>": 13331,
  "5일": 23296,
  "않았나</w>": 30111,
  "5대</w>": 22661,
  "Activ": 25410,
  "고소": 18652,
  "저</w>": 4241,
  "칢": 3229,
  "시위</w>": 23364,
  "하드</w>": 7807,
  "축소</w>": 26441,
  "행위의</w>": 25701,
  "쥔</w>": 3976,
  "빰": 1808,
  "절반": 16483,
  "영상은</w>": 28551,
  "상</w>": 3997,
  "새마을": 27828,
  "지나간</w>": 32016,
  "붑</w>": 5752,
  "화면으로</w>": 25047,
  "대</w>": 4194,
  "구이</w>": 26417,
  "믐": 1553,
  "이름도</w>": 32293,
  "비방글</w>": 10516,
  "북": 1731,
  "해안</w>": 16016,
  "컴파일</w>": 30948,
  "등장하는</w>": 17071,
  "스와</w>": 9180,
  "움직일</w>": 24530,
  "EP</w>": 29608,
  "정책</w>": 8162,
  "미용</w>": 26642,
  "굵": 259,
  "처": 3102,
  "공격성</w>": 21116,
  "사춘기</w>": 29299,
  "못했습니다</w>": 20010,
  "군": 256,
  "PD": 10363,
  "스니": 26632,
  "ech": 13932,
  "에버": 18404,
  "구성원": 20977,
  "이슬": 12153,
  "이스라엘": 15352,
  "행정의</w>": 29587,
  "실시한다</w>": 29791,
  "견이</w>": 24152,
  "승부식</w>": 28664,
  "야구를</w>": 31909,
  "안심하고</w>": 23451,
  "4p</w>": 32414,
  "계획에</w>": 21846,
  "박근혜": 16291,
  "늦께</w>": 27367,
  "객실": 8591,
  "친절한</w>": 14916,
  "줄이기</w>": 24336,
  "주차가</w>": 29497,
  "류현": 19643,
  "원주": 31753,
  "꿕</w>": 5995,
  "팩토리</w>": 30228,
  "PR</w>": 22892,
  "문서에서</w>": 26581,
  "라와</w>": 29469,
  "바보": 20152,
  "음식의</w>": 28565,
  "어디": 7767,
  "2명</w>": 14189,
  "윦": 2611,
  "받게</w>": 11446,
  "세계대전</w>": 31604,
  "뵨": 1726,
  "담고</w>": 14344,
  "기억</w>": 14924,
  "부동산": 12307,
  "촛불</w>": 29902,
  "챰</w>": 6191,
  "기업들이</w>": 17791,
  "장소에</w>": 20329,
  "만에</w>": 7751,
  "힘은</w>": 26650,
  "여행은</w>": 22020,
  "기소": 18449,
  "사를</w>": 7156,
  "겷": 176,
  "안은</w>": 12206,
  "고무</w>": 29135,
  "달린</w>": 17654,
  "껭</w>": 5722,
  "다음은</w>": 15220,
  "국정": 11487,
  "시리얼</w>": 31486,
  "수료": 21119,
  "가정에</w>": 30833,
  "h": 61,
  "풤</w>": 6735,
  "트로</w>": 9847,
  "없으": 12584,
  "그림과</w>": 25472,
  "는법</w>": 18798,
  "특별자치": 27347,
  "연기": 12098,
  "복지의</w>": 21602,
  "덣": 816,
  "있기도</w>": 24187,
  "요구": 7804,
  "해지면서</w>": 29747,
  "시부터</w>": 13017,
  "체제": 17610,
  "미국에</w>": 17117,
  "선</w>": 4151,
  "저히</w>": 11019,
  "뿐인</w>": 25340,
  "알아보기</w>": 20128,
  "얻어</w>": 19244,
  "Sex</w>": 25403,
  "혁신을</w>": 22500,
  "꺽": 394,
  "1990년대</w>": 29793,
  "전에서</w>": 10633,
  "좡</w>": 5069,
  "헌법재판": 23842,
  "닫으시면</w>": 16105,
  "잉크</w>": 30501,
  "첨부</w>": 17600,
  "보다": 10296,
  "나쁜": 26009,
  "자지</w>": 9245,
  "챔": 3082,
  "쭁": 3017,
  "있고</w>": 7206,
  "사용해</w>": 13601,
  "물과</w>": 13817,
  "클레": 17058,
  "유해": 16879,
  "ython</w>": 32253,
  "뜸</w>": 5304,
  "염색</w>": 29230,
  "로": 1230,
  "대책": 14586,
  "문학</w>": 9417,
  "데요</w>": 7384,
  "프로세스</w>": 17943,
  "뫙</w>": 6892,
  "내역</w>": 17690,
  "민원": 17595,
  "벆": 1632,
  "팡": 3580,
  "클로": 12418,
  "문구</w>": 24421,
  "해상도</w>": 22911,
  "빨간</w>": 14475,
  "한곳</w>": 20463,
  "하고는</w>": 14424,
  "환경</w>": 8409,
  "첵</w>": 5348,
  "뮤지": 11083,
  "무단전재</w>": 24090,
  "타이틀을</w>": 28688,
  "학년": 16044,
  "쇽": 2069,
  "..(</w>": 20952,
  "가방을</w>": 25814,
  "사전에</w>": 12395,
  "아동의</w>": 16995,
  "복구</w>": 13542,
  "배당</w>": 16838,
  "솝</w>": 4548,
  "드라마": 10928,
  "셰": 2027,
  "넣는</w>": 18850,
  "8개월</w>": 30757,
  "들어서</w>": 13278,
  "PornSharing</w>": 32686,
  "갬</w>": 6015,
  "챤</w>": 5627,
  "핖": 3721,
  "추측": 18677,
  "피부": 10465,
  "낯": 557,
  "항의</w>": 15731,
  "존재가</w>": 21204,
  "싕": 2149,
  "그렇다고</w>": 11823,
  "칼리": 25700,
  "Get": 28358,
  "인내": 24047,
  "떡</w>": 5014,
  "윺": 2624,
  "박찬": 29146,
  "있어서도</w>": 29768,
  "180": 15574,
  "감</w>": 4510,
  "소셜그래프게임": 17941,
  "쨉</w>": 5416,
  "제거하는</w>": 27620,
  "피곤": 14925,
  "데스": 24836,
  "수많은</w>": 9179,
  "이지</w>": 8642,
  "생각": 6969,
  "지나지</w>": 20942,
  "89": 17350,
  "선택하여</w>": 18315,
  "서비스마케팅</w>": 27644,
  "러브</w>": 19424,
  "않는다는</w>": 14737,
  "러스</w>": 18082,
  "항공권을</w>": 20540,
  "탒": 3414,
  "링</w>": 4170,
  "티</w>": 4069,
  "문과</w>": 20992,
  "약의</w>": 17868,
  "언더파</w>": 17841,
  "랬": 1158,
  "펔</w>": 5891,
  "킈</w>": 6045,
  "당사의</w>": 18903,
  "기회</w>": 15272,
  "플루": 20191,
  "뫘</w>": 6882,
  "지속적인</w>": 14320,
  "년중</w>": 15390,
  "알릴</w>": 28059,
  "Lake</w>": 24208,
  "서로": 20114,
  "예매": 24437,
  "원할</w>": 24502,
  "리브": 20830,
  "악화": 19141,
  "역사와</w>": 17354,
  "하이브리드</w>": 21118,
  "채용과</w>": 32427,
  "변경하거나</w>": 24519,
  "분</w>": 4330,
  "윸</w>": 5663,
  "짠": 2918,
  "프로그램과</w>": 28919,
  "살찐</w>": 30747,
  "개를</w>": 8625,
  "않아요</w>": 16533,
  "분위": 8300,
  "맽": 1399,
  "점도</w>": 13459,
  "일보</w>": 10353,
  "관계에서</w>": 27872,
  "후지": 24346,
  "진행할</w>": 16373,
  "진다는</w>": 15482,
  "국민들이</w>": 21647,
  "자바</w>": 23381,
  "일회": 24332,
  "용기</w>": 18879,
  "쟛</w>": 6245,
  "지적": 9354,
  "바탕으로</w>": 10685,
  "tra": 28996,
  "재생수</w>": 12480,
  "종은</w>": 19583,
  "틜</w>": 6637,
  "보고서</w>": 8847,
  "은</w>": 4015,
  "정하고</w>": 17775,
  "누구</w>": 16278,
  "뙤": 1074,
  "겠지만</w>": 8204,
  "야</w>": 4118,
  "깞": 361,
  "확실히</w>": 10442,
  "생각된다</w>": 23884,
  "좋았고</w>": 29554,
  "틑": 3547,
  "전력을</w>": 25980,
  "전남": 16552,
  "삭제를</w>": 32476,
  "쮜": 3029,
  "튄</w>": 4343,
  "맏</w>": 5135,
  "하루의</w>": 11495,
  "뎐</w>": 5062,
  "설비": 26208,
  "KB</w>": 28052,
  "순": 2081,
  "정권이</w>": 29036,
  "정도였다</w>": 27103,
  "연구</w>": 7980,
  "영남": 19747,
  "억원의</w>": 23641,
  "님도</w>": 20055,
  "창의적인</w>": 26751,
  "럷": 1185,
  "햤": 3771,
  "듣</w>": 5422,
  "급</w>": 4049,
  "산업은</w>": 24690,
  "선착": 17382,
  "패키지": 31728,
  "위치하고</w>": 13907,
  "번호로</w>": 24924,
  "실패를</w>": 22154,
  "책이다</w>": 23631,
  "홧": 3849,
  "안철": 14179,
  "늦게</w>": 11724,
  "지닌</w>": 14741,
  "풇": 3672,
  "톡": 3475,
  "성한</w>": 14493,
  "개발하는</w>": 26758,
  "쉡": 2104,
  "출발": 9735,
  "퍼펙트</w>": 31741,
  "전체를</w>": 15133,
  "상호": 11568,
  "굳이</w>": 11566,
  "했으면</w>": 14555,
  "섯": 1992,
  "몿": 1480,
  "받아서</w>": 14777,
  "곤": 197,
  "requ": 23004,
  "즐겨</w>": 18296,
  "온": 2475,
  "분들</w>": 11384,
  "변화하는</w>": 24979,
  "호스트": 24016,
  "릭</w>": 4569,
  "굻</w>": 6282,
  "발생": 7299,
  "her": 31532,
  "퇴</w>": 4773,
  "딷": 991,
  "았고</w>": 14901,
  "도출": 22460,
  "le": 7168,
  "잙</w>": 6571,
  "주문이</w>": 14412,
  "필": 3714,
  "IS</w>": 14200,
  "나이트": 26339,
  "조와</w>": 25850,
  "클래식</w>": 13964,
  "챈</w>": 5314,
  "되게</w>": 11231,
  "맵": 1392,
  "Java": 25404,
  "쭛</w>": 6729,
  "Lin": 13641,
  "로에</w>": 14048,
  "퀑": 3351,
  "Sol": 18179,
  "불가능하다</w>": 25502,
  "3명이</w>": 28086,
  "역량": 21436,
  "적일</w>": 21488,
  "처리</w>": 8737,
  "시장과</w>": 25110,
  "영감을</w>": 23330,
  "다채": 21227,
  "1을</w>": 22757,
  "꼿</w>": 5970,
  "거래": 7943,
  "ISO</w>": 19023,
  "염": 2452,
  "쥴</w>": 4916,
  "이민</w>": 20925,
  "5천": 13434,
  "겼습니다</w>": 28341,
  "3G</w>": 23960,
  "끊임": 12785,
  "괜찮은</w>": 13335,
  "비난을</w>": 30528,
  "친구</w>": 8435,
  "휭": 3915,
  "IA</w>": 15662,
  "율</w>": 4419,
  "사랑할</w>": 26166,
  "사람이다</w>": 17764,
  "켰": 3302,
  "펀": 3606,
  "Books</w>": 32394,
  "측이</w>": 17207,
  "하여서는</w>": 27372,
  "게이트": 27913,
  "결제를</w>": 29330,
  "대행": 17140,
  "피하기</w>": 26156,
  "지불": 11166,
  "종결": 29869,
  "홖": 3840,
  "움이</w>": 9758,
  "오토": 12035,
  "보험": 7522,
  "분들": 10383,
  "적대": 26046,
  "들아</w>": 26987,
  "옸": 2486,
  "신은</w>": 16323,
  "류": 1308,
  "간이</w>": 15237,
  "이전에는</w>": 27027,
  "업체": 8038,
  "양키스</w>": 32251,
  "웃음</w>": 14047,
  "선반</w>": 30341,
  "리더</w>": 17105,
  "돌아온</w>": 16721,
  "국가</w>": 9272,
  "원인</w>": 11697,
  "운항": 27853,
  "SP</w>": 32138,
  "ID": 9667,
  "백신</w>": 24869,
  "와이어</w>": 27017,
  "끔찍한</w>": 27024,
  "5명</w>": 21687,
  "여러분을</w>": 25927,
  "풜": 3680,
  "않았습니다</w>": 11695,
  "끎": 519,
  "갓": 98,
  "웃음": 20502,
  "형식으로</w>": 16880,
  "타의</w>": 19427,
  "인들에게</w>": 18782,
  "쳥</w>": 5999,
  "의</w>": 3967,
  "태권도": 32732,
  "쏭": 2244,
  "쉐": 2098,
  "일을</w>": 7214,
  "뚠": 1080,
  "흥미": 10020,
  "법인": 12855,
  "직한</w>": 12140,
  "금과</w>": 24653,
  "악": 2332,
  "믿음을</w>": 22626,
  "박스</w>": 10558,
  "우리</w>": 7117,
  "핲": 3745,
  "윰": 2617,
  "서포터": 23280,
  "럱": 1180,
  "김상": 18983,
  "브라": 9008,
  "이영": 15106,
  "판단을</w>": 21140,
  "밫": 1603,
  "덨": 821,
  "쇼트": 24935,
  "아니냐는</w>": 28172,
  "마련</w>": 18658,
  "임은</w>": 29047,
  "과목": 13383,
  "의장": 29197,
  "판의</w>": 23368,
  "전략</w>": 8746,
  "통해</w>": 7054,
  "ele": 25498,
  "배정": 22614,
  "지속되며</w>": 24622,
  "계시는</w>": 23881,
  "생의</w>": 16691,
  "최종": 11432,
  "세계의</w>": 11184,
  "인지는</w>": 21982,
  "액티비": 22325,
  "토론회</w>": 23568,
  "감사합니다</w>": 7422,
  "멕시코</w>": 13781,
  "움직이지</w>": 28984,
  "뎦": 850,
  "샄": 1944,
  "내로</w>": 14111,
  "뉠</w>": 5926,
  "보증하지</w>": 10411,
  "학생의</w>": 17972,
  "이지요</w>": 14148,
  "상태는</w>": 28908,
  "확산": 14383,
  "지침": 19807,
  "조리": 12776,
  "특성": 12122,
  "수행": 8232,
  "비슷한</w>": 9503,
  "기회가</w>": 10990,
  "밝혀</w>": 26539,
  "상의</w>": 8026,
  "의문을</w>": 27044,
  "기존": 8921,
  "멜로디": 32396,
  "전혀</w>": 8265,
  "트</w>": 4105,
  "아들을</w>": 20607,
  "조작": 11844,
  "웅</w>": 4417,
  "고온</w>": 20209,
  "헛</w>": 5550,
  "아기를</w>": 28071,
  "쿠": 3336,
  "eng": 17721,
  "코카": 21284,
  "킷": 3399,
  "행정해석</w>": 16702,
  "켕": 3291,
  "서": 1977,
  "디는</w>": 30788,
  "왹": 2517,
  "멥": 1437,
  "셔서</w>": 7835,
  "들어온</w>": 18340,
  "이해하는</w>": 17777,
  "다시는</w>": 18935,
  "종교적</w>": 27808,
  "량이</w>": 9978,
  "군과</w>": 18715,
  "생활": 7330,
  "드라이버": 16768,
  "란트</w>": 22735,
  "학부</w>": 17046,
  "감사해요</w>": 32292,
  "말하지</w>": 20490,
  "자극을</w>": 28318,
  "듣는</w>": 13115,
  "fe": 14456,
  "여러분이</w>": 14176,
  "올레</w>": 32572,
  "고성능</w>": 22280,
  "과감": 17782,
  "칩</w>": 4809,
  "et</w>": 7778,
  "ok": 12373,
  "탼": 3437,
  "하우</w>": 16064,
  "열어": 15104,
  "자주": 14133,
  "셨습니다</w>": 15116,
  "륜": 1311,
  "적도</w>": 15560,
  "실용적인</w>": 32765,
  "상을</w>": 7241,
  "언어로</w>": 19587,
  "고위": 15263,
  "똔": 1058,
  "쵠": 3160,
  "플레이어": 24280,
  "Co": 11680,
  "ed</w>": 7327,
  "뇻</w>": 6316,
  "풍성한</w>": 26472,
  "마산": 24497,
  "gn": 31547,
  "주와</w>": 16833,
  "쾌한</w>": 16935,
  "엘리": 10876,
  "춸": 3192,
  "PB": 28154,
  "87": 18569,
  "세계적으로</w>": 15325,
  "로운</w>": 7104,
  "나이로</w>": 31648,
  "불가능": 12881,
  "So": 27302,
  "루즈": 31001,
  "행하는</w>": 19128,
  "꼈": 421,
  "리더십": 17878,
  "선진": 14196,
  "95": 20425,
  "정치의</w>": 25493,
  "욘</w>": 5294,
  "틍": 3544,
  "성급의</w>": 26925,
  "하지만</w>": 7037,
  "자가</w>": 7093,
  "정규</w>": 20075,
  "정신</w>": 13541,
  "는지</w>": 7340,
  "맺</w>": 5533,
  "걱정을</w>": 26205,
  "빨리</w>": 8679,
  "단기</w>": 19204,
  "색과</w>": 22814,
  "킹을</w>": 20411,
  "젬": 2763,
  "마디": 20009,
  "백분": 12497,
  "젆</w>": 6359,
  "read": 30160,
  "크다</w>": 15686,
  "금으로</w>": 16884,
  "지원센터</w>": 19701,
  "강대": 30823,
  "놩": 664,
  "공략</w>": 19051,
  "왕복": 31383,
  "트리</w>": 15042,
  "가령</w>": 24764,
  "게재</w>": 23734,
  "WE": 23431,
  "것들이</w>": 11852,
  "모르겠어요</w>": 30927,
  "맡아</w>": 24839,
  "재산</w>": 19558,
  "Eng": 13416,
  "패널</w>": 17406,
  "장소에서의</w>": 17284,
  "룖": 1272,
  "가도</w>": 15840,
  "Hu": 28087,
  "디자이": 11524,
  "국민연금</w>": 27525,
  "짥": 2921,
  "마이</w>": 19091,
  "들까지</w>": 26739,
  "심하게</w>": 14984,
  "연관된</w>": 29857,
  "보시는</w>": 21757,
  "하자면</w>": 12909,
  "참고": 7800,
  "fuck</w>": 14294,
  "섹스": 14523,
  "3만</w>": 26499,
  "이라며</w>": 11178,
  "슷": 2138,
  "성의</w>": 8718,
  "tv": 17095,
  "증에</w>": 19390,
  "걷</w>": 5723,
  "모았다</w>": 26084,
  "벞</w>": 5937,
  "전과</w>": 13368,
  "Dri": 23862,
  "미국으로</w>": 29547,
  "삶</w>": 4930,
  "등등</w>": 11567,
  "읮": 2658,
  "일광이</w>": 15191,
  "깍": 355,
  "항공사</w>": 16020,
  "편입": 23221,
  "FS</w>": 29795,
  "인기를</w>": 12306,
  "part": 21919,
  "혓": 3813,
  "Vill": 29796,
  "새우</w>": 26400,
  "신입사": 22208,
  "챃</w>": 6504,
  "쪅</w>": 5357,
  "넬</w>": 4857,
  "만한</w>": 8037,
  "짂": 2895,
  "똑</w>": 5506,
  "ce</w>": 8766,
  "유사한</w>": 13324,
  "type</w>": 24144,
  "뙈</w>": 6710,
  "메신": 18603,
  "알투": 23165,
  "more</w>": 17428,
  "패</w>": 4430,
  "강호": 26791,
  "77": 12752,
  "구성하고</w>": 29674,
  "늪</w>": 5573,
  "2만": 19376,
  "글</w>": 4323,
  "공용": 26951,
  "시각": 9644,
  "닁": 744,
  "보다</w>": 7043,
  "꾑": 461,
  "해는</w>": 24310,
  "끉</w>": 6227,
  "쌱</w>": 6828,
  "벼": 1661,
  "경과</w>": 21308,
  "제9": 21202,
  "찝": 3051,
  "않으면</w>": 9042,
  "아슬": 28142,
  "세탁기</w>": 29004,
  "스타벅": 18826,
  "거야</w>": 9976,
  "학업": 22657,
  "안테나</w>": 31900,
  "내외</w>": 28242,
  "컴퓨터에</w>": 18224,
  "PC의</w>": 31131,
  "엷</w>": 6863,
  "기금": 31409,
  "문자를</w>": 18496,
  "dr": 25142,
  "옆으로</w>": 25056,
  "개": 107,
  "갂": 84,
  "떠나서</w>": 31921,
  "별도</w>": 11711,
  "생기는</w>": 14788,
  "이의</w>": 9670,
  "퀸사이즈침대</w>": 24085,
  "저희": 8835,
  "연구는</w>": 18860,
  "팹": 3592,
  "탸</w>": 5765,
  "그리기</w>": 26823,
  "제</w>": 4127,
  "아이템을</w>": 19236,
  "한가": 20154,
  "모색": 18650,
  "tit": 14720,
  "테니까</w>": 31361,
  "캘리포니아</w>": 17789,
  "부모를</w>": 30818,
  "생겨": 12387,
  "다르다는</w>": 30380,
  "커리큘": 30445,
  "덮</w>": 5870,
  "설정": 7882,
  "펑": 3612,
  "포털</w>": 17407,
  "Fig": 26666,
  "독서": 12862,
  "료가</w>": 10779,
  "봈": 1695,
  "C</w>": 4108,
  "적정": 25248,
  "채우": 22342,
  "이들</w>": 10180,
  "품이</w>": 13028,
  "포함": 7272,
  "유혹하는</w>": 29364,
  "채소</w>": 27402,
  "헬스케어</w>": 26752,
  "면허</w>": 23667,
  "소요</w>": 20798,
  "방식": 7857,
  "DM": 21726,
  "이수": 13543,
  "개인적으로는</w>": 24194,
  "단추를</w>": 31830,
  "꼼": 436,
  "푠</w>": 5679,
  "기준은</w>": 21911,
  "스티브</w>": 26346,
  "정": 2752,
  "돚": 870,
  "희망의</w>": 28431,
  "https</w>": 13079,
  "믿는</w>": 14422,
  "마찬가지로</w>": 11476,
  "있습니까</w>": 13137,
  "공공부": 32299,
  "댓글주소</w>": 15373,
  "보도자료</w>": 16580,
  "치며</w>": 14073,
  "입금": 13033,
  "94</w>": 25486,
  "PGA</w>": 14237,
  "이선": 29651,
  "등을</w>": 7158,
  "한</w>": 4029,
  "김진": 16625,
  "상도</w>": 29996,
  "강아": 12649,
  "47</w>": 14124,
  "스레</w>": 18929,
  "햏": 3761,
  "LOR</w>": 29537,
  "닢": 759,
  "적이</w>": 7783,
  "본부장</w>": 26914,
  "ar</w>": 8652,
  "서술": 16140,
  "abase</w>": 17635,
  "개념": 8493,
  "시승": 24682,
  "sta</w>": 32759,
  "지구의</w>": 22769,
  "삠</w>": 6384,
  "미디어</w>": 8913,
  "알바": 19452,
  "타워": 19866,
  "후쿠": 16468,
  "잩</w>": 6493,
  "푯": 3662,
  "지워": 19679,
  "배워야</w>": 30492,
  "마시": 12443,
  "자금을</w>": 16777,
  "넽": 625,
  "결정</w>": 11253,
  "Atom</w>": 30002,
  "계약이</w>": 20053,
  "플러스": 19968,
  "하긴</w>": 13868,
  "봠": 1707,
  "게</w>": 3987,
  "한다고</w>": 7755,
  "버터</w>": 25383,
  "서기</w>": 27342,
  "붕괴</w>": 30312,
  "교육에</w>": 16000,
  "질내": 31656,
  "포트": 9530,
  "명에</w>": 11924,
  "P</w>": 4006,
  "ling</w>": 26083,
  "갖추고</w>": 12993,
  "우울": 12235,
  "려": 1210,
  "느낀": 16895,
  "상처</w>": 23882,
  "알려주세요</w>": 15910,
  "지금까지</w>": 9252,
  "그리</w>": 10529,
  "부디</w>": 27317,
  "머리에</w>": 21616,
  "갯": 116,
  "귀염": 28321,
  "슈퍼": 9930,
  "방향과</w>": 31802,
  "얐</w>": 5623,
  "시리즈": 9555,
  "대표로</w>": 28315,
  "모습</w>": 10568,
  "시원하게</w>": 23042,
  "핮</w>": 5358,
  "임의의</w>": 31427,
  "그레이</w>": 15231,
  "붊</w>": 6591,
  "협": 3812,
  "이제</w>": 7448,
  "붊": 1738,
  "효율성을</w>": 28443,
  "SNS</w>": 11267,
  "해지고</w>": 12659,
  "그린": 12252,
  "클라이언트</w>": 18787,
  "졌": 2778,
  "국내에</w>": 21485,
  "영원": 10759,
  "메리츠": 32410,
  "운영에</w>": 18912,
  "쏱": 2246,
  "앗</w>": 4881,
  "건너</w>": 26253,
  "SQL": 28969,
  "자살</w>": 24223,
  "쳐": 3126,
  "Click</w>": 30659,
  "도도</w>": 24645,
  "노무현": 30138,
  "좋지만</w>": 20119,
  "체의</w>": 9404,
  "렌": 1198,
  "예상되는</w>": 25238,
  "통장": 28233,
  "섹션은</w>": 17857,
  "인생</w>": 13362,
  "어느": 9843,
  "각의</w>": 10392,
  "To</w>": 22447,
  "오픈": 9707,
  "계에서</w>": 22054,
  "미스터</w>": 30544,
  "장르</w>": 26703,
  "오스트레": 21888,
  "2016년": 20854,
  "지</w>": 4016,
  "자본</w>": 22294,
  "췟": 3199,
  "연맹": 23207,
  "최초": 9387,
  "나온다</w>": 11439,
  "마블": 22234,
  "결정했다</w>": 28638,
  "서브": 18668,
  "해결방안</w>": 26313,
  "캠페인을</w>": 29194,
  "당시에</w>": 22978,
  "사무": 7969,
  "공학": 13153,
  "캉": 3247,
  "올시즌</w>": 22685,
  "타</w>": 4159,
  "중심이</w>": 24359,
  "사우": 11796,
  "인들이</w>": 10339,
  "프론": 15530,
  "ost</w>": 16687,
  "주입": 25944,
  "증가하며</w>": 32105,
  "전문가": 9703,
  "주인은</w>": 31139,
  "Roo": 18831,
  "이네요</w>": 12493,
  "비앤": 16975,
  "음악과</w>": 24929,
  "독창": 25137,
  "지역과</w>": 27248,
  "예쁘": 16198,
  "고객이</w>": 13250,
  "매체</w>": 15901,
  "est": 10832,
  "톰</w>": 4651,
  "움도</w>": 29231,
  "다룬</w>": 23323,
  "뀝": 505,
  "즐거움</w>": 26801,
  "읏</w>": 5971,
  "BS": 14360,
  "빩": 1806,
  "지역사회</w>": 24056,
  "카테": 8635,
  "목구멍</w>": 21934,
  "보도했다</w>": 17110,
  "y의</w>": 24416,
  "느껴": 9073,
  "화는</w>": 12444,
  "금발</w>": 10886,
  "조화</w>": 29733,
  "콘솔": 27587,
  "Ver": 19789,
  "감의</w>": 21076,
  "목적</w>": 9630,
  "되었으면</w>": 17853,
  "엣지</w>": 30933,
  "늍</w>": 5225,
  "정현</w>": 29199,
  "다하고</w>": 20394,
  "개선을</w>": 19019,
  "옵션</w>": 11303,
  "정하는</w>": 14712,
  "위까지</w>": 17887,
  "들</w>": 4107,
  "만큼이나</w>": 22279,
  "미리": 13320,
  "툰": 3505,
  "동계</w>": 31906,
  "내다": 24014,
  "단체": 8281,
  "모범": 23164,
  "DJ": 24853,
  "워드프레스</w>": 24799,
  "WW": 25902,
  "기후에</w>": 21600,
  "켬": 3299,
  "쾍</w>": 6185,
  "크고</w>": 13018,
  "연구하는</w>": 29452,
  "활용하여</w>": 19047,
  "뒤로</w>": 12601,
  "ian": 14501,
  "위해서</w>": 8429,
  "빵": 1812,
  "메이크": 14159,
  "인기</w>": 8946,
  "90일</w>": 30696,
  "심플": 18135,
  "편의</w>": 9248,
  "아기가</w>": 27829,
  "DA</w>": 21332,
  "QR": 30738,
  "섁</w>": 6477,
  "방법</w>": 7296,
  "됐어요</w>": 26058,
  "하나입니다</w>": 20412,
  "미성": 17202,
  "했어요</w>": 9800,
  "앻": 2368,
  "자료입니다</w>": 20282,
  "욕망": 22287,
  "협정</w>": 20214,
  "놏</w>": 6641,
  "호박": 32576,
  "띰</w>": 6084,
  "쐬</w>": 5270,
  "싰</w>": 4697,
  "칲": 3238,
  "시립": 28057,
  "선보일</w>": 31979,
  "좌</w>": 4332,
  "한편</w>": 8583,
  "학회": 25825,
  "튭": 3531,
  "미스</w>": 27408,
  "기술": 7181,
  "참여해주셔서</w>": 25751,
  "만들어</w>": 8032,
  "데일</w>": 25948,
  "편을</w>": 14053,
  "스쿠터</w>": 31405,
  "공포를</w>": 26349,
  "구속": 13203,
  "ack</w>": 10520,
  "상과</w>": 12282,
  "ree</w>": 11539,
  "스케치</w>": 29064,
  "드네요</w>": 23709,
  "스바": 22181,
  "ey</w>": 11672,
  "대리점</w>": 30443,
  "ax": 24725,
  "소프트": 7563,
  "놰</w>": 5353,
  "가계": 23322,
  "꼽</w>": 5404,
  "얊": 2379,
  "웬</w>": 4888,
  "진출": 9941,
  "발행": 10929,
  "란": 1139,
  "서의</w>": 8524,
  "마에</w>": 21179,
  "읜</w>": 5883,
  "앙</w>": 4553,
  "최다</w>": 21059,
  "가끔은</w>": 28320,
  "부동산</w>": 10080,
  "고객의</w>": 12376,
  "시골": 20661,
  "앉</w>": 6306,
  "차량이</w>": 26224,
  "지음</w>": 27555,
  "빡</w>": 4996,
  "떈": 1014,
  "보다는</w>": 8047,
  "Tistory</w>": 31344,
  "뼈</w>": 4997,
  "여자프로": 25669,
  "윤</w>": 4953,
  "초점</w>": 32653,
  "의사</w>": 11087,
  "하드웨": 23683,
  "마법</w>": 19442,
  "face</w>": 21356,
  "지적했다</w>": 19042,
  "한다는</w>": 7603,
  "놂": 650,
  "신도시</w>": 27512,
  "극단": 17982,
  "pdf</w>": 19633,
  "뗑</w>": 6456,
  "붂": 1732,
  "빕": 1793,
  "무심": 31266,
  "방문하는</w>": 16083,
  "얍</w>": 5915,
  "먹지</w>": 16406,
  "휄": 3902,
  "만족</w>": 19026,
  "방지하기</w>": 26030,
  "좋네요</w>": 20553,
  "나가기</w>": 24628,
  "YouTube</w>": 30151,
  "있음을</w>": 10996,
  "디스크": 14023,
  "세월호</w>": 13946,
  "축소": 17776,
  "디</w>": 4073,
  "일곱</w>": 23020,
  "씽": 2326,
  "왔다</w>": 7831,
  "투명</w>": 25436,
  "크리스": 13813,
  "자동차를</w>": 23167,
  "계는</w>": 21835,
  "소문이</w>": 27006,
  "되네요</w>": 19502,
  "조합을</w>": 28721,
  "사유가</w>": 16940,
  "공정</w>": 19676,
  "Nu": 25021,
  "알루미": 15655,
  "당을</w>": 13048,
  "2010</w>": 13493,
  "흄</w>": 5695,
  "뜷": 1112,
  "ulti": 25758,
  "생겨</w>": 22207,
  "지급된</w>": 32678,
  "Shar": 24233,
  "중등": 31051,
  "캡슐</w>": 31334,
  "지명": 15970,
  "게이머": 26134,
  "웗": 2573,
  "인원수</w>": 25312,
  "눈을</w>": 10288,
  "놔</w>": 5026,
  "7m": 27649,
  "교회를</w>": 16262,
  "일년</w>": 23919,
  "사회적인</w>": 28683,
  "메</w>": 4220,
  "어르신": 20385,
  "사람들": 10479,
  "패딩</w>": 23972,
  "객실에서</w>": 26330,
  "04": 31999,
  "택</w>": 4636,
  "몲": 1472,
  "일지</w>": 16891,
  "백종": 27841,
  "한인</w>": 19199,
  "you</w>": 15285,
  "아이디": 8074,
  "예방</w>": 13777,
  "은평": 32527,
  "갊": 91,
  "소설을</w>": 20296,
  "역전": 21758,
  "민사": 30064,
  "후보는</w>": 20008,
  "뜨거": 23878,
  "개정": 10214,
  "마무리</w>": 12748,
  "의지를</w>": 18759,
  "유형</w>": 11311,
  "점으로</w>": 10155,
  "일어나고</w>": 21777,
  "과거에는</w>": 26867,
  "스카": 9840,
  "되나요</w>": 14638,
  "에너지를</w>": 16965,
  "하셔서</w>": 13460,
  "똥</w>": 5092,
  "복구": 21357,
  "강제</w>": 20658,
  "웧</w>": 6622,
  "뮌헨</w>": 26503,
  "토마토</w>": 25178,
  "oul</w>": 20814,
  "요즘": 10933,
  "누구에게나</w>": 30879,
  "로그": 7276,
  "위원": 7268,
  "댓글이</w>": 13266,
  "이렇듯</w>": 25731,
  "Adv": 31320,
  "en</w>": 8122,
  "있음</w>": 9204,
  "동생</w>": 15739,
  "순환</w>": 24801,
  "엍": 2419,
  "상위</w>": 13904,
  "주의하십시오</w>": 20616,
  "손에</w>": 11841,
  "중간에</w>": 14197,
  "꺾고</w>": 28296,
  "질": 2900,
  "쓷": 2301,
  "무료입니다</w>": 18897,
  "과도": 14571,
  "뜽": 1117,
  "을때</w>": 12445,
  "다르지</w>": 21242,
  "맻": 1397,
  "전으로</w>": 15899,
  "어댑": 21409,
  "첼</w>": 5115,
  "기록</w>": 9316,
  "핑크</w>": 12560,
  "고작</w>": 30220,
  "늇": 716,
  "전지</w>": 19039,
  "스미스</w>": 28528,
  "정규직</w>": 13799,
  "리티</w>": 13797,
  "해왔": 20286,
  "닛</w>": 5116,
  "맞이</w>": 18492,
  "탉": 3411,
  "49</w>": 14093,
  "부부": 12871,
  "골든스테이": 23717,
  "소장</w>": 19056,
  "미식": 26027,
  "숑": 2075,
  "숚": 2080,
  "전세계의</w>": 19696,
  "술은</w>": 25214,
  "IST": 29805,
  "보령": 32110,
  "일반인</w>": 17311,
  "활성화</w>": 11930,
  "몸은</w>": 22323,
  "기쁨</w>": 28971,
  "연하게</w>": 28822,
  "고속</w>": 15179,
  "뺨</w>": 5757,
  "란다</w>": 11056,
  "룅": 1264,
  "시작하고</w>": 20457,
  "도움이</w>": 7965,
  "건을</w>": 13375,
  "천의</w>": 28824,
  "활동이</w>": 16575,
  "쪙</w>": 5514,
  "뎍": 842,
  "클라": 15951,
  "일부는</w>": 16123,
  "젲": 2767,
  "리에": 27267,
  "시절에</w>": 23129,
  "겼": 181,
  "낄": 535,
  "충전기</w>": 24450,
  "달걀": 27532,
  "불교": 12726,
  "뒤에는</w>": 25906,
  "듵": 963,
  "목포": 18465,
  "그램": 16707,
  "메인</w>": 10938,
  "사천": 27742,
  "경제적으로</w>": 29695,
  "받았다고</w>": 26842,
  "선고": 19576,
  "경영의</w>": 25377,
  "없겠지만</w>": 32239,
  "마감</w>": 15532,
  "쫓</w>": 6369,
  "껐</w>": 5791,
  "공지": 10612,
  "150</w>": 25658,
  "미국을</w>": 20726,
  "열정이</w>": 32201,
  "웨어": 16545,
  "old": 21702,
  "PC에서</w>": 31616,
  "득점</w>": 14754,
  "정상회담을</w>": 25103,
  "중순": 28731,
  "소장": 18758,
  "이쁜</w>": 25961,
  "Chapter</w>": 25451,
  "븜</w>": 5568,
  "위치에</w>": 11429,
  "조사를</w>": 12372,
  "지원합니다</w>": 14435,
  "양식</w>": 12794,
  "살아가는</w>": 13232,
  "콴": 3319,
  "시대가</w>": 15880,
  "현은</w>": 15693,
  "시로</w>": 12026,
  "IC": 9328,
  "아픔": 17068,
  "즌</w>": 4577,
  "샜": 1957,
  "광고": 7601,
  "웤</w>": 5895,
  "징계</w>": 29436,
  "똑": 1057,
  "놓았": 29023,
  "남양": 20247,
  "카프": 28195,
  "국수집": 23701,
  "스트라이": 12215,
  "제를</w>": 8044,
  "으면</w>": 7096,
  "캡</w>": 4657,
  "그로": 23047,
  "차이점</w>": 30244,
  "댓글</w>": 7982,
  "CD</w>": 10640,
  "투데이</w>": 14570,
  "가치": 8365,
  "부정적</w>": 26272,
  "일입니다</w>": 13464,
  "크리스마스</w>": 12222,
  "사회과학</w>": 31247,
  "주체": 15323,
  "24일</w>": 12492,
  "호텔에</w>": 13709,
  "비롯해</w>": 13242,
  "감당": 24726,
  "매출이</w>": 32214,
  "포르노": 30194,
  "레이트</w>": 16328,
  "믛": 1558,
  "새벽에</w>": 25928,
  "회차": 30522,
  "애국": 25001,
  "챂</w>": 5954,
  "잔잔": 20836,
  "재생시간</w>": 22256,
  "유출</w>": 15896,
  "사용됩니다</w>": 20230,
  "설치되어</w>": 16019,
  "프트</w>": 11733,
  "지금이</w>": 32492,
  "샤인</w>": 30030,
  "부가</w>": 8861,
  "꼉</w>": 6850,
  "좋을까요</w>": 27586,
  "어디</w>": 12715,
  "칼을</w>": 28081,
  "로즈</w>": 20789,
  "년대": 21642,
  "어디서나</w>": 20134,
  "편집인</w>": 23849,
  "모드로</w>": 22602,
  "똟": 1061,
  "ian</w>": 14242,
  "알림</w>": 13705,
  "의미</w>": 10811,
  "매년</w>": 10587,
  "드래곤</w>": 25150,
  "느낌으로</w>": 27615,
  "계단을</w>": 30813,
  "납부</w>": 26809,
  "출처가</w>": 27534,
  "어느새</w>": 19995,
  "졸업한</w>": 32161,
  "고서</w>": 20513,
  "검</w>": 4223,
  "샷</w>": 4403,
  "의무": 10120,
  "signal</w>": 30998,
  "옫": 2476,
  "발송됩니다</w>": 24894,
  "행위에</w>": 19538,
  "슬라이딩</w>": 11226,
  "놂</w>": 6380,
  "파일이</w>": 15862,
  "벋</w>": 6915,
  "뛰": 1096,
  "Windows</w>": 9659,
  "인스타": 15048,
  "프로그램에서</w>": 24254,
  "떼</w>": 4305,
  "식이": 24386,
  "하는건</w>": 24435,
  "이를</w>": 7226,
  "샵": 1966,
  "통일부</w>": 31156,
  "줄을</w>": 14289,
  "5페이지</w>": 9586,
  "간략하게</w>": 31273,
  "바비큐</w>": 31791,
  "끸": 531,
  "금융</w>": 12225,
  "굿": 264,
  "위원회의</w>": 16977,
  "필수": 10694,
  "유용하게</w>": 23731,
  "주도": 11572,
  "해준</w>": 17659,
  "ase</w>": 10764,
  "웍</w>": 5046,
  "넓</w>": 6207,
  "홈런으로</w>": 27952,
  "화하여</w>": 27716,
  "사랑한다</w>": 30877,
  "젒": 2749,
  "윈": 2598,
  "지진": 18984,
  "샛": 1956,
  "고장</w>": 23287,
  "엎": 2420,
  "이메일을</w>": 20733,
  "위대한</w>": 14004,
  "년은</w>": 27129,
  "6가지</w>": 27048,
  "1조": 29977,
  "자도</w>": 12532,
  "다루고</w>": 21797,
  "only</w>": 31677,
  "박사": 14953,
  "배낭": 21588,
  "탐색</w>": 25551,
  "볼까</w>": 15118,
  "늰</w>": 6427,
  "메모리": 28813,
  "동안의</w>": 17498,
  "자원</w>": 14314,
  "바스": 32451,
  "기독교": 10922,
  "ated</w>": 14845,
  "전환</w>": 11739,
  "수동으로</w>": 31028,
  "2차</w>": 9453,
  "본인의</w>": 12549,
  "븃": 1768,
  "분산</w>": 27640,
  "38": 11312,
  "반도": 12439,
  "진행되고</w>": 18316,
  "털": 3444,
  "삼각": 16273,
  "가의</w>": 9066,
  "독점": 20703,
  "urity</w>": 25994,
  "진행해</w>": 30286,
  "구제": 22793,
  "휠": 3911,
  "개편": 19987,
  "aul</w>": 31514,
  "고만</w>": 23260,
  "주장이</w>": 22900,
  "감소": 9426,
  "사과</w>": 16742,
  "앤": 2357,
  "찜</w>": 4967,
  "거니</w>": 30103,
  "65": 12435,
  "Goo": 10124,
  "지진</w>": 19727,
  "두개의</w>": 32038,
  "2일</w>": 10195,
  "도구를</w>": 18684,
  "NC": 16195,
  "외의</w>": 11172,
  "움직임을</w>": 22570,
  "닥</w>": 4849,
  "쩄": 2957,
  "부양": 28207,
  "철강</w>": 30922,
  "다를": 26692,
  "한함</w>": 23643,
  "해결해</w>": 22867,
  "왘</w>": 6506,
  "버디를</w>": 22405,
  "옷이</w>": 31123,
  ",..</w>": 31433,
  "줄어": 11545,
  "Co</w>": 22504,
  "짙</w>": 6156,
  "숟": 2082,
  "믾": 1567,
  "넓은</w>": 10956,
  "주장하고</w>": 28685,
  "milf</w>": 14309,
  "기대</w>": 14685,
  "수학</w>": 14043,
  "이식": 22018,
  "시켜서</w>": 25333,
  "받아들이고</w>": 29911,
  "포토</w>": 10452,
  "북미</w>": 15400,
  "오류를</w>": 25073,
  "피규어</w>": 27965,
  "General</w>": 30395,
  "캐릭터를</w>": 19851,
  "가상현실</w>": 32429,
  "이미지의</w>": 26722,
  "조차</w>": 10486,
  "물질": 10300,
  "비롯하여</w>": 21704,
  "젖꼭지</w>": 24504,
  "즉</w>": 4327,
  "가까": 7951,
  "썻": 2214,
  "못할</w>": 11149,
  "진흥원</w>": 18024,
  "이슈가</w>": 21842,
  "보여주": 10127,
  "여름철</w>": 31719,
  "공부에</w>": 31234,
  "좍": 2803,
  "성별</w>": 16283,
  "라우": 7727,
  "꺨": 390,
  "El</w>": 31029,
  "이더": 18478,
  "박지": 16081,
  "그리하여</w>": 23354,
  "바람의</w>": 18828,
  "트릭</w>": 29671,
  "배고": 23607,
  "구슬": 32380,
  "투명": 14439,
  "성공": 7598,
  "!!</w>": 7488,
  "여수</w>": 30191,
  "춋": 3169,
  "필라델": 19929,
  "인공지능": 19109,
  "버전의</w>": 17409,
  "따라서는</w>": 29656,
  "sch": 18582,
  "형태</w>": 14551,
  "다고</w>": 6960,
  "파가</w>": 17967,
  "멍청": 29925,
  "스트라이크</w>": 19737,
  "당신</w>": 12049,
  "NAS": 25497,
  "포럼": 18271,
  "탠</w>": 5459,
  "기쁨": 12183,
  "텋": 3452,
  "상황에서도</w>": 32684,
  "미워": 24573,
  "our": 10688,
  "점과</w>": 11468,
  "출판</w>": 17516,
  "ib": 11161,
  "나라도</w>": 29273,
  "계시므로</w>": 22397,
  "부모는</w>": 31591,
  "별로": 27240,
  "한상": 32114,
  "썅": 2202,
  "활용할</w>": 13627,
  "도약": 30771,
  "ee</w>": 24034,
  "회장이</w>": 17712,
  "제공하는</w>": 8538,
  "뫜": 1491,
  "video</w>": 17637,
  "붙잡": 29575,
  "글과</w>": 22372,
  "늉</w>": 5949,
  "불안": 9992,
  "더스</w>": 20797,
  "덬</w>": 5927,
  "여성과</w>": 28500,
  "파티를</w>": 29629,
  "않는다</w>": 7984,
  "신중": 16201,
  "았는데</w>": 17924,
  "죌</w>": 5423,
  "었습니다</w>": 7895,
  "아시아": 9830,
  "머릿": 19205,
  "귀</w>": 4412,
  "겝": 162,
  "데스크탑</w>": 29353,
  "텝": 3460,
  "닷컴</w>": 12195,
  "인성": 21476,
  "취소할</w>": 31545,
  "질문을</w>": 12559,
  "뀐": 502,
  "적절": 8893,
  "훙": 3888,
  "한꺼": 19527,
  "빌라</w>": 18841,
  "프로그램의</w>": 14471,
  "메가</w>": 23870,
  "레이스</w>": 16711,
  "날카": 23639,
  "Server</w>": 13306,
  "잔을</w>": 24023,
  "변화는</w>": 20450,
  "헠</w>": 6292,
  "샸": 1968,
  "바나": 16761,
  "서인지</w>": 22476,
  "테이프</w>": 21897,
  "ood": 20419,
  "현대차</w>": 23029,
  "버리고</w>": 13359,
  "사회복지실천": 27619,
  "저하</w>": 30580,
  "이탈": 9104,
  "액자</w>": 32436,
  "약하게</w>": 20813,
  "사망": 9985,
  "kn": 20084,
  "권을</w>": 8299,
  "잚</w>": 6536,
  "편에</w>": 14662,
  "금연": 21008,
  "42</w>": 13167,
  "셱</w>": 5978,
  "투자를</w>": 14198,
  "작이</w>": 29952,
  "믐</w>": 5273,
  "용산": 18679,
  "퓁": 3685,
  "학생들은</w>": 15418,
  "코딩</w>": 19307,
  "마련되어</w>": 8884,
  "컴퓨터의</w>": 20203,
  "일경까지</w>": 30612,
  "바지": 22906,
  "귀하": 9755,
  "상처가</w>": 26844,
  "암이</w>": 28573,
  "머스": 31624,
  "흐르": 27996,
  "분야": 7865,
  "예정이라고</w>": 30965,
  "최저가</w>": 13726,
  "효과</w>": 9955,
  "예수의</w>": 21732,
  "직업을</w>": 22039,
  "작을</w>": 22113,
  "Anal": 13002,
  "자체가</w>": 9680,
  "사용자가</w>": 10602,
  "물론이고</w>": 21401,
  "iOS": 27411,
  "잆": 2676,
  "훈련을</w>": 15282,
  "모두들</w>": 24377,
  "션은</w>": 10658,
  "쑤</w>": 5138,
  "선풍": 22927,
  "약속": 10232,
  "일자리": 22492,
  "이세": 25108,
  "..": 7157,
  "달러의</w>": 21005,
  "철도</w>": 16589,
  "둘러": 9200,
  "먹튀": 21851,
  "읽어</w>": 17148,
  "46</w>": 13962,
  "부근": 22787,
  "갑질</w>": 31841,
  "부산</w>": 9522,
  "마</w>": 4174,
  "대한민국</w>": 8377,
  "태권도</w>": 24424,
  "체포": 19103,
  "2년간</w>": 27192,
  "일찍</w>": 11191,
  "쳉": 3124,
  "필드": 23925,
  "압축</w>": 22381,
  "73</w>": 25020,
  "뵌": 1720,
  "후기": 18780,
  "매립": 32152,
  "오고</w>": 10156,
  "머리": 10466,
  "기온</w>": 17689,
  "파워</w>": 16013,
  "밝혀": 11454,
  "겼</w>": 5004,
  "여학생</w>": 22783,
  "시스": 7144,
  "NA</w>": 27374,
  "무너뜨": 31403,
  "폽": 3645,
  "최선을</w>": 11725,
  "Ph": 10328,
  "수습": 25015,
  "4시</w>": 23739,
  "전형적인</w>": 21288,
  "R": 42,
  "하나가</w>": 11377,
  "입국</w>": 31154,
  "중에</w>": 7387,
  "교육의</w>": 10631,
  "벽": 1662,
  "니": 745,
  "해두": 28757,
  "현상</w>": 15122,
  "없는데</w>": 14540,
  "관람객": 26332,
  "품질의</w>": 23017,
  "마는</w>": 15788,
  "매출": 12197,
  "제법</w>": 18809,
  "되었": 7064,
  "뚜껑": 25246,
  "싸우는</w>": 27611,
  "ap</w>": 19476,
  "띤": 1129,
  "교시</w>": 27639,
  "춫": 3186,
  "문제이다</w>": 30360,
  "겪은</w>": 24755,
  "하늘": 8963,
  "Full</w>": 22267,
  "최악의</w>": 17837,
  "여행자</w>": 19761,
  "UR": 10733,
  "체험할</w>": 17668,
  "풸": 3684,
  "무시하고</w>": 28188,
  "48</w>": 12730,
  "중국과</w>": 23383,
  "후장": 30269,
  "천사</w>": 19143,
  "적게</w>": 18578,
  "원치</w>": 27133,
  "발생한다</w>": 23160,
  "괼</w>": 6234,
  "짝</w>": 4844,
  "리소스</w>": 32346,
  "까요</w>": 7355,
  "신천": 23783,
  "음주": 20688,
  "SI": 21185,
  "상업</w>": 31722,
  "기록했다</w>": 12705,
  "거장</w>": 32586,
  "남자를</w>": 25278,
  "독재": 24727,
  "계약의</w>": 20095,
  "렐</w>": 4856,
  "매장": 17067,
  "ked</w>": 27606,
  "평": 3633,
  "이곳의</w>": 30934,
  "등재": 31941,
  "얖": 2388,
  "추어</w>": 8264,
  "애착": 30907,
  "다운로드가</w>": 10345,
  "amp": 15690,
  "똇": 1055,
  "브리핑</w>": 30968,
  "유의</w>": 11209,
  "위험을</w>": 17627,
  "자료</w>": 7446,
  "자신에</w>": 22470,
  "힁</w>": 6745,
  "체류": 17492,
  "아닌가요</w>": 22204,
  "수비</w>": 24062,
  "서리</w>": 16450,
  "07": 32647,
  "주에</w>": 11747,
  "처음이다</w>": 25101,
  "방콕</w>": 21186,
  "신용</w>": 21229,
  "19대</w>": 30938,
  "가치</w>": 11351,
  "포드</w>": 20645,
  "유형에</w>": 29753,
  "블랙잭": 20063,
  "살아있는</w>": 20324,
  "안정적으로</w>": 25160,
  "jpg</w>": 9981,
  "생년월": 20034,
  "세대의</w>": 26668,
  "위대": 30402,
  "디가</w>": 25044,
  "야죠</w>": 32668,
  "살아": 7765,
  "이러": 7228,
  "여튼</w>": 29983,
  "씬": 2319,
  "혜택": 9723,
  "Media</w>": 30393,
  "향이</w>": 10147,
  "주": 2833,
  "뚷": 1090,
  "뗴</w>": 6295,
  "열차</w>": 20898,
  "마인": 14917,
  "AF</w>": 32604,
  "깔끔하고</w>": 28955,
  "acy</w>": 26822,
  "도널드</w>": 19906,
  "연일</w>": 31874,
  "킹": 3401,
  "아니라는</w>": 13987,
  "mi": 19751,
  "{": 80,
  "싶었던</w>": 21085,
  "롼</w>": 6265,
  "목표가</w>": 24272,
  "되겠": 22412,
  "흔적이</w>": 31632,
  "오늘은</w>": 9784,
  "환경이</w>": 16085,
  "쫌</w>": 5664,
  "담보대출</w>": 23716,
  "씨트립에서</w>": 16449,
  "마리를</w>": 32536,
  "벌거</w>": 25420,
  "대를</w>": 8375,
  "(": 6,
  "비정규직": 29435,
  "Am": 21958,
  "보드</w>": 10246,
  "쿠</w>": 4550,
  "컴퍼니</w>": 27336,
  "딿": 994,
  "샴": 1965,
  "대출": 9037,
  "필수적인</w>": 26348,
  "쮀": 3028,
  "인프라를</w>": 26558,
  "분할": 17900,
  "강제로</w>": 24652,
  "팬들의</w>": 18788,
  "좋아하지</w>": 25087,
  "제로": 22857,
  "무기를</w>": 22442,
  "랭</w>": 5186,
  "배운</w>": 17156,
  "해줄</w>": 15054,
  "상세검색</w>": 23498,
  "옇": 2461,
  "해놓고</w>": 28161,
  "심으로</w>": 11195,
  "집계": 20516,
  "뵈</w>": 5493,
  "페이지</w>": 6980,
  "호남": 18130,
  "륏": 1306,
  "조건을</w>": 14250,
  "론": 1234,
  "한데요</w>": 24469,
  "아웃": 9734,
  "눈길을</w>": 16969,
  "슬러</w>": 22928,
  "부끄럽": 25062,
  "화요일</w>": 16912,
  "제공한</w>": 15726,
  "제3": 8872,
  "륑": 1307,
  "난민</w>": 25805,
  "서식</w>": 19991,
  "겺": 179,
  "54": 18177,
  "생일</w>": 18060,
  "곯": 203,
  "어땠": 24767,
  "신설": 20492,
  "있었기에</w>": 29884,
  "전략적</w>": 19115,
  "난이": 22091,
  "17": 7493,
  "독립</w>": 19495,
  "char": 21989,
  "회사는</w>": 9065,
  "질</w>": 4222,
  "청춘</w>": 29544,
  "독립적인</w>": 31355,
  "쿙": 3335,
  "척추": 28290,
  "궘</w>": 6236,
  "아닙니다</w>": 8617,
  "벤처": 13619,
  "하시나요</w>": 24922,
  "이라도</w>": 8899,
  "놓지</w>": 24976,
  "라스": 14068,
  "옷</w>": 4433,
  "허벅": 27556,
  "휴대폰</w>": 12146,
  "몸</w>": 4580,
  "77</w>": 20054,
  "워드": 16082,
  "쿈": 3333,
  "속도": 15924,
  "유엔</w>": 19389,
  "원장은</w>": 28562,
  "젹": 2772,
  "전달할</w>": 28588,
  "연결": 7672,
  "방문하여</w>": 19062,
  "카우": 15771,
  "유니": 9576,
  "방은</w>": 13055,
  "로그인할</w>": 24772,
  "ez": 26825,
  "희</w>": 4313,
  "가지가</w>": 14846,
  "영향</w>": 13185,
  "워치</w>": 23767,
  "ter</w>": 9990,
  "굩</w>": 6775,
  "보냈": 15063,
  "긴급": 16160,
  "논란이</w>": 15712,
  "세상을</w>": 10093,
  "을": 2632,
  "조그만</w>": 32113,
  "프리미어</w>": 32268,
  "킨": 3394,
  "반</w>": 4342,
  "플랜": 16069,
  "comp": 15259,
  "핰": 3743,
  "학교정보가</w>": 10531,
  "가족이</w>": 14245,
  "45": 10394,
  "cum": 24580,
  "짓</w>": 4522,
  "동성": 11984,
  "성과가</w>": 32056,
  "하도</w>": 29495,
  "늬</w>": 4586,
  "듀</w>": 4933,
  "커</w>": 4101,
  "마늘</w>": 26398,
  "특징과</w>": 27251,
  "살펴": 8424,
  "삽입": 16028,
  "하": 3723,
  "관리</w>": 7392,
  "예루살": 20795,
  "240": 26636,
  "약물</w>": 21960,
  "기로</w>": 7420,
  "상대가</w>": 21610,
  "시킵니다</w>": 26741,
  "더블": 11466,
  "어디서": 14491,
  "소모된</w>": 24246,
  "자세히</w>": 10791,
  "하나인</w>": 16682,
  "철학</w>": 13302,
  "경험한</w>": 24466,
  "쯧</w>": 5704,
  "부럽": 24484,
  "클릭합니다</w>": 18612,
  "코코": 16498,
  "민주노총</w>": 31504,
  "이외에도</w>": 16904,
  "발의</w>": 19863,
  "단계가</w>": 30206,
  "비난</w>": 32126,
  "만들었습니다</w>": 23885,
  "76</w>": 24602,
  "연수": 17222,
  "비스</w>": 17124,
  "설비의</w>": 30355,
  "충실": 15548,
  "그래요</w>": 26911,
  "안희": 26955,
  "욕조</w>": 16315,
  "풓": 3678,
  "몰래</w>": 18004,
  "지연</w>": 17195,
  "사쿠": 32627,
  "공휴일</w>": 21871,
  "렞</w>": 5466,
  "골라</w>": 22411,
  "고지</w>": 24453,
  "낟": 545,
  "싄": 2146,
  "지키는</w>": 17526,
  "아울": 12704,
  "기능입니다</w>": 32578,
  "suc": 20979,
  "뻇": 1834,
  "뤀": 1287,
  "팔": 3574,
  "워진</w>": 24949,
  "Copyright</w>": 28455,
  "쿠키를</w>": 18525,
  "가성비</w>": 20254,
  "는건</w>": 14486,
  "조율": 27627,
  "중국</w>": 7684,
  "바의</w>": 21058,
  "다수가</w>": 31673,
  "친": 3225,
  "연휴</w>": 17684,
  "확고": 30891,
  "팀인</w>": 29719,
  "휘발": 27423,
  "신청할</w>": 23077,
  "뺘": 1825,
  "방</w>": 3999,
  "적용됩니다</w>": 18218,
  "관심": 7525,
  "등산": 18707,
  "그다지</w>": 17313,
  "주인</w>": 15545,
  "얼굴이</w>": 17475,
  "디즈": 17633,
  "수분이</w>": 23229,
  "질이</w>": 11997,
  "기사의</w>": 26126,
  "처</w>": 4426,
  "영향력을</w>": 22409,
  "하는게</w>": 12442,
  "ire</w>": 17048,
  "창에</w>": 22369,
  "형</w>": 4177,
  "정규": 9706,
  "지도</w>": 7258,
  "다시금</w>": 23674,
  "기기를</w>": 19776,
  "담겨": 22429,
  "사례</w>": 8685,
  "권력의</w>": 28503,
  "뵈": 1718,
  "도서": 8563,
  "교통사고</w>": 26280,
  "자극</w>": 26957,
  "승낙": 19176,
  "살의</w>": 21729,
  "뮘": 1541,
  "des": 15060,
  "blu": 30473,
  "변환": 13186,
  "튈": 3521,
  "등</w>": 4024,
  "MA</w>": 19438,
  "A": 25,
  "존경": 14594,
  "미스": 28323,
  "9번</w>": 29054,
  "발매</w>": 17804,
  "방법을</w>": 8441,
  "찾아서</w>": 16709,
  "중을</w>": 14259,
  "들만</w>": 16097,
  "스마트폰": 9729,
  "스카우": 29807,
  "외모</w>": 32709,
  "른": 1321,
  "여섯</w>": 19945,
  "최근</w>": 7249,
  "그": 309,
  "설정합니다</w>": 30842,
  "혠": 3819,
  "지와</w>": 9392,
  "올리": 9188,
  "궝</w>": 6834,
  "GeoNames</w>": 16151,
  "보였": 22839,
  "퓹": 3695,
  "부담을</w>": 15870,
  "핵심": 10042,
  "폐지</w>": 21876,
  "ill</w>": 14107,
  "산다</w>": 18770,
  "땅의</w>": 25507,
  "감동을</w>": 20566,
  "누락": 30250,
  "한나라당</w>": 27479,
  "장관이</w>": 23611,
  "이웃</w>": 18773,
  "열광": 27743,
  "더라구요</w>": 10702,
  "었다</w>": 6962,
  "pc": 21195,
  "위에서</w>": 9760,
  "이탈리아</w>": 12232,
  "븓": 1774,
  "식탁": 25261,
  "던졌다</w>": 32705,
  "함께한</w>": 23590,
  "소극": 29824,
  "과도</w>": 13939,
  "폭발</w>": 21608,
  "훍</w>": 6354,
  "금리</w>": 16648,
  "우리나라의</w>": 13572,
  "헑</w>": 6031,
  "경기의</w>": 22210,
  "검색을</w>": 18220,
  "갈수록</w>": 14368,
  "쿧": 3339,
  "토마토": 32599,
  "맛</w>": 4781,
  "수신</w>": 20485,
  "이론은</w>": 29578,
  "불": 1736,
  "공공</w>": 15954,
  "윤리</w>": 18708,
  "페어": 23178,
  "정상회담</w>": 13182,
  "오수": 23868,
  "iv": 10903,
  "올라와</w>": 27475,
  "정식</w>": 12961,
  "오래된</w>": 11992,
  "졀": 2774,
  "ME</w>": 16664,
  "궛</w>": 6392,
  "취임</w>": 20544,
  "장</w>": 4007,
  "AA</w>": 31517,
  "핸드": 9674,
  "피의</w>": 26625,
  "ist": 10463,
  "Got": 20504,
  "텁": 3446,
  "일본": 7229,
  "자다</w>": 21681,
  "교체</w>": 14436,
  "명과</w>": 12890,
  "주황색</w>": 20873,
  "포르": 7762,
  "매춘부</w>": 18987,
  "경기를</w>": 10110,
  "던</w>": 4009,
  "용인": 18229,
  "들보다</w>": 18776,
  "뇸": 674,
  "일종의</w>": 15305,
  "DS</w>": 19247,
  "컴퓨터": 8389,
  "웑": 2568,
  "떠나</w>": 14820,
  "태어난</w>": 14997,
  "옯</w>": 6391,
  "뗘": 1045,
  "에로": 30326,
  "사항은</w>": 8851,
  "씨앗": 22668,
  "기억": 7868,
  "집회</w>": 20122,
  "실비보험": 17725,
  "훼손": 11452,
  "김승": 23457,
  "아버지가</w>": 15251,
  "많으": 21219,
  "2014년": 29623,
  "쭈": 3018,
  "플라스틱</w>": 15017,
  "감성</w>": 23829,
  "뉍": 702,
  "촉진</w>": 19700,
  "햄": 3753,
  "할수</w>": 9527,
  "Clou": 17041,
  "퓰</w>": 6416,
  "엤": 2432,
  "옆": 2460,
  "논현": 25091,
  "인간</w>": 10573,
  "추방": 32101,
  "효과적인</w>": 15161,
  "미국과</w>": 16132,
  "다스": 20005,
  "명에서</w>": 29834,
  "핝": 3728,
  "c": 56,
  "문서를</w>": 12024,
  "원</w>": 3991,
  "모델과</w>": 29788,
  "1안타</w>": 29846,
  "사범": 32609,
  "졀</w>": 6343,
  "발휘할</w>": 31254,
  "찿": 3072,
  "이전": 8992,
  "럾": 1190,
  "사태가</w>": 23570,
  "개는</w>": 14787,
  "랭크</w>": 18632,
  "협력을</w>": 21097,
  "율이</w>": 12160,
  "EUR</w>": 27561,
  "WS</w>": 23548,
  "하기보다는</w>": 28728,
  "g</w>": 4063,
  "거리며</w>": 23983,
  "주목하는</w>": 29510,
  "기다려</w>": 16241,
  "관광객이</w>": 30139,
  "Trav": 30843,
  "뚭": 1086,
  "그들의</w>": 8875,
  "그야말로</w>": 17542,
  "륏</w>": 6870,
  "dick</w>": 29329,
  "심사</w>": 15517,
  "하시겠습니까</w>": 12403,
  "소를</w>": 7948,
  "느끼게</w>": 15718,
  "생활과</w>": 22745,
  "상식</w>": 23374,
  "있다": 11059,
  "증가는</w>": 27344,
  "자기의</w>": 15643,
  "우리나라에</w>": 31288,
  "장로": 18609,
  "거리와</w>": 29063,
  "찌</w>": 4355,
  "공장": 19050,
  "엃": 2410,
  "의사가</w>": 19248,
  "깠": 363,
  "Copy": 26549,
  "HO": 11014,
  "자체는</w>": 17844,
  "찾게</w>": 26757,
  "에이치": 29874,
  "별다른</w>": 19606,
  "PornHub</w>": 13831,
  "앆": 2333,
  "a</w>": 3968,
  "하얀</w>": 19264,
  "햿": 3775,
  "들어왔다</w>": 29531,
  "기한</w>": 22206,
  "전문가들이</w>": 28803,
  "냎": 574,
  "der</w>": 14474,
  "이곳을</w>": 21016,
  "읠</w>": 6160,
  "가가</w>": 8902,
  "넛": 603,
  "야겠다</w>": 31822,
  "버린</w>": 11736,
  "출혈": 25973,
  "쑬": 2272,
  "스크롤": 32049,
  "실행하는</w>": 27875,
  "원어": 28427,
  "읏": 2642,
  "뤘다</w>": 30533,
  "객관": 13435,
  "몃</w>": 6425,
  "티는</w>": 25796,
  "믓</w>": 6414,
  "카라": 18854,
  "료</w>": 4230,
  "춍": 3170,
  "BI": 15339,
  "보낸다</w>": 31858,
  "건립</w>": 32587,
  "신분": 13947,
  "Joh": 21499,
  "뻔한</w>": 27936,
  "숨이</w>": 27222,
  "등록이</w>": 20479,
  "Le</w>": 32333,
  "솔루션을</w>": 19310,
  "쟌": 2721,
  "ized</w>": 21498,
  "13</w>": 8284,
  "띈</w>": 5428,
  "리니": 24154,
  "쯘</w>": 6645,
  "애니</w>": 21475,
  "유병": 32098,
  "펼</w>": 6041,
  "여드름</w>": 31492,
  "Modern</w>": 22073,
  "강우량</w>": 22692,
  "안고</w>": 15136,
  "힝": 3955,
  "고용": 9831,
  "놓": 658,
  "제16": 30636,
  "너": 588,
  "아시아의</w>": 13491,
  "밀어": 17405,
  "제작을</w>": 29351,
  "귈": 295,
  "그가</w>": 8615,
  "닫": 767,
  "한화</w>": 19257,
  "기준이</w>": 17312,
  "보건복지부</w>": 31146,
  "암</w>": 4759,
  "사용하거나</w>": 28523,
  "요구하는</w>": 14632,
  "인용": 15238,
  "아내는</w>": 21257,
  "도서</w>": 9972,
  "유희": 31227,
  "또는</w>": 7036,
  "Ex": 9597,
  "회사</w>": 7971,
  "중앙</w>": 15223,
  "바로": 9055,
  "쑻</w>": 6919,
  "건강보험</w>": 20533,
  "자리</w>": 8968,
  "깐": 357,
  "하는것</w>": 30854,
  "어디로</w>": 16591,
  "진</w>": 4351,
  "탯</w>": 5216,
  "가지지</w>": 28498,
  "명은</w>": 10082,
  "이신": 31962,
  "구체": 9168,
  "인사를</w>": 14434,
  "wat": 21370,
  "이론을</w>": 19926,
  "경우를</w>": 13045,
  "기준</w>": 8383,
  "올드": 29275,
  "쥠": 2866,
  "그라": 12496,
  "아시안": 16604,
  "경영자</w>": 31430,
  "월요일</w>": 18514,
  "뼏": 1859,
  "쇼</w>": 4282,
  "Tube</w>": 10758,
  "SE": 11436,
  "ext": 15499,
  "껍</w>": 5805,
  "30대</w>": 15826,
  "지원과</w>": 29863,
  "릐</w>": 5214,
  "킥</w>": 5078,
  "쓀": 2288,
  "당첨</w>": 23792,
  "있었던</w>": 8866,
  "기관에서</w>": 21724,
  "동양의</w>": 22430,
  "체를</w>": 9363,
  "분께</w>": 19207,
  "등에서</w>": 12481,
  "요약보고서</w>": 25829,
  "실비": 12538,
  "경험과</w>": 20437,
  "그날</w>": 16061,
  "놧": 662,
  "그래</w>": 12953,
  "deepthro": 18128,
  "이름이</w>": 12138,
  "뱄": 1616,
  "여는</w>": 21251,
  "깊": 352,
  "벙</w>": 5191,
  "재무</w>": 28659,
  "깰": 374,
  "찔</w>": 5659,
  "뻭</w>": 6595,
  "됌": 887,
  "전의</w>": 10663,
  "횔</w>": 6012,
  "점수</w>": 15377,
  "스코</w>": 18590,
  "어벤": 28745,
  "개발</w>": 7753,
  "기위해</w>": 28656,
  "IE</w>": 24932,
  "생각해보": 25081,
  "금의</w>": 17453,
  "Stre": 16946,
  "지하철</w>": 12923,
  "버튼을</w>": 10550,
  "y</w>": 4199,
  "ld": 27375,
  "곷": 209,
  "유치</w>": 23992,
  "명품</w>": 18587,
  "싶어하는</w>": 29770,
  "뢱": 1256,
  "닷컴": 17389,
  "la": 23259,
  "파와</w>": 30056,
  "삻": 1936,
  "쏮": 2245,
  "스타트업": 14096,
  "꾀</w>": 5391,
  "케어": 29285,
  "신동": 22729,
  "충격</w>": 19394,
  "면의</w>": 12459,
  "3일": 18187,
  "섻</w>": 6703,
  "썰": 2210,
  "오늘의</w>": 13041,
  "커피숍</w>": 21986,
  "과학": 7759,
  "펓": 3613,
  "commun": 26863,
  "토니": 19805,
  "전문가의</w>": 24301,
  "직결": 29670,
  "날개</w>": 28492,
  "귺</w>": 6405,
  "ug": 11702,
  "연다</w>": 26075,
  "답답한</w>": 31179,
  "말은</w>": 10377,
  "ral</w>": 29512,
  "현상": 14959,
  "교부": 32254,
  "year</w>": 25319,
  "화재</w>": 13686,
  "우수</w>": 15947,
  "자들을</w>": 10913,
  "심상": 27084,
  "제도가</w>": 20304,
  "렡": 1208,
  "발견된</w>": 24707,
  "렌트": 14001,
  "이유에</w>": 31336,
  "엔터프라이즈</w>": 31377,
  "가장": 13786,
  "..'</w>": 29945,
  "강사</w>": 13821,
  "은행이</w>": 24860,
  "본격": 10840,
  "요리</w>": 9764,
  "등판": 19785,
  "아래로</w>": 14987,
  "있을까</w>": 9374,
  "훤</w>": 5192,
  "빌": 1789,
  "었</w>": 4704,
  "댄</w>": 5328,
  "오늘의": 24664,
  "EC": 14920,
  "팩트": 22941,
  "진보": 11420,
  "LI": 13607,
  "기아</w>": 29867,
  "커다란</w>": 14100,
  "힐링</w>": 27997,
  "남부</w>": 24581,
  "교재": 26008,
  "22</w>": 9301,
  "눨</w>": 6691,
  "유쾌한</w>": 30499,
  "다이나": 31850,
  "테크노": 28568,
  "열심히</w>": 8755,
  "가는": 15295,
  "기상": 15633,
  "색": 1949,
  "받을수</w>": 27608,
  "팦": 3584,
  "원자력</w>": 28098,
  "찧": 3058,
  "뱅": 1617,
  "재화</w>": 17710,
  "n</w>": 3995,
  "눳": 697,
  "사라진</w>": 20464,
  "Figure</w>": 30258,
  "포커</w>": 22513,
  "운동을</w>": 11289,
  "총</w>": 4708,
  "어울리는</w>": 16814,
  "흼</w>": 6796,
  "웹사이트": 9513,
  "iss": 13996,
  "리듬": 22969,
  "West": 29089,
  "완성된</w>": 25019,
  "피해를</w>": 12458,
  "계절에</w>": 20003,
  "성에</w>": 7848,
  "핷": 3749,
  "욋</w>": 6371,
  "뻑</w>": 5007,
  "짝": 2916,
  "대결": 12636,
  "이쁘": 22383,
  "음악의</w>": 24505,
  "콩</w>": 4917,
  "Apple</w>": 15879,
  "애니": 9669,
  "전략": 8417,
  "체코": 30936,
  "포함되지</w>": 28106,
  "실시간으로</w>": 15556,
  "거두": 15802,
  "관리에</w>": 15745,
  "2만원</w>": 30943,
  "프리</w>": 16556,
  "휵": 3917,
  "푝": 3659,
  "변형": 19392,
  "핸디": 24073,
  "집단의</w>": 28428,
  "주식회사</w>": 18484,
  "이거나</w>": 11866,
  "KG": 31902,
  "크리스탈</w>": 26231,
  "리뷰는</w>": 21598,
  "켐": 3287,
  "키보드</w>": 15940,
  "부인과</w>": 29962,
  "밀리": 8540,
  "수여": 19678,
  "공항</w>": 9246,
  "수술": 9428,
  ",": 8,
  "샌": 1951,
  "enti": 19200,
  "샏</w>": 6449,
  "준다고</w>": 19733,
  "지도에서</w>": 18363,
  "23페이지</w>": 24872,
  "귱</w>": 6782,
  "이대로</w>": 24288,
  "임무를</w>": 26388,
  "퍼</w>": 4557,
  "삶을</w>": 9070,
  "토토추천</w>": 23108,
  "빌</w>": 4818,
  "온라인에서</w>": 19161,
  "사업장</w>": 29624,
  "처음부터</w>": 13869,
  "없었다고</w>": 32067,
  "을수록</w>": 21303,
  "포털": 17237,
  "쵤": 3161,
  "여진</w>": 21961,
  "DNS</w>": 31072,
  "바탕": 9543,
  "메이저리그": 24874,
  "우크라이": 20988,
  "배의</w>": 25933,
  "무렵": 27710,
  "겡</w>": 5562,
  "햋": 3759,
  "보내기</w>": 12699,
  "안전한": 23841,
  "되겠다</w>": 30338,
  "사정에</w>": 21955,
  "궂은</w>": 30259,
  "자들이</w>": 8051,
  "하인": 22253,
  "바라보고</w>": 22071,
  "극": 310,
  "토": 3474,
  "위생</w>": 30264,
  "팻</w>": 5760,
  "일환으로</w>": 22427,
  "KBO": 20998,
  "아이패": 18769,
  "질에</w>": 20079,
  "Inf": 30867,
  "현장에</w>": 19239,
  "조회결과</w>": 26638,
  "광명": 24248,
  "부른다</w>": 20624,
  "방에서</w>": 13963,
  "일몰</w>": 11530,
  "용품</w>": 10984,
  "5000": 16268,
  "단속": 31412,
  "문의하세요</w>": 30133,
  "선풍기</w>": 31789,
  "놓았다</w>": 23336,
  "File</w>": 29877,
  "복잡한</w>": 13393,
  "그루": 20500,
  "am": 7179,
  "적에</w>": 21180,
  "감독</w>": 10142,
  "뇌의</w>": 29383,
  "듭니다</w>": 11216,
  "가능</w>": 7697,
  "ard</w>": 10829,
  "사설토토": 32179,
  "양현": 31943,
  "삶에</w>": 15547,
  "동방": 27176,
  "받도록</w>": 31521,
  "상상을</w>": 28768,
  "변화와</w>": 19664,
  "상태에</w>": 15422,
  "참석한</w>": 17636,
  "끙": 524,
  "이도</w>": 11646,
  "않았다고</w>": 25513,
  "경영학</w>": 23293,
  "사운": 12287,
  "Press</w>": 26961,
  "사장은</w>": 22136,
  "웹</w>": 4826,
  "daum</w>": 30821,
  "것은</w>": 6996,
  "짖</w>": 5528,
  "국제적인</w>": 29919,
  "Pal": 22508,
  "농": 654,
  "쩨": 2970,
  "Life</w>": 22194,
  "빠진</w>": 14225,
  "왝</w>": 6112,
  "접속": 9499,
  "1루": 32398,
  "화된</w>": 9371,
  "수록": 18057,
  "신설</w>": 28744,
  "부정": 9439,
  "미주": 24384,
  "인터넷": 7731,
  "위는</w>": 9940,
  "클라우드</w>": 11860,
  "권한</w>": 16797,
  "최대한</w>": 10869,
  "됐고</w>": 15976,
  "순간부터</w>": 29946,
  "무척이나</w>": 30713,
  "불꽃": 24807,
  "설립된</w>": 22622,
  "무거": 30235,
  "동굴": 28991,
  "구두": 14562,
  "레시": 14593,
  "한계</w>": 20927,
  "온도를</w>": 21388,
  "광역</w>": 13754,
  "잊혀": 26141,
  "12월에</w>": 27614,
  "줘야</w>": 13140,
  "부장</w>": 19897,
  "있으나</w>": 12209,
  "캠프</w>": 13402,
  "마약</w>": 28773,
  "log": 12064,
  "산화</w>": 28952,
  "HP</w>": 14444,
  "되도록</w>": 11362,
  "모스크": 20962,
  "신입</w>": 15805,
  "릀</w>": 6206,
  "하였으나</w>": 18211,
  "녉": 633,
  "체": 3117,
  "BC": 17189,
  "표정</w>": 27213,
  "똑똑한</w>": 29975,
  "있었으나</w>": 27169,
  "락이</w>": 26050,
  "68</w>": 18863,
  "카페": 9932,
  "쿱</w>": 5043,
  "매직": 28505,
  "활약": 13778,
  "연세대학교</w>": 26262,
  "하다": 10803,
  "GM</w>": 21070,
  "포함하고</w>": 18437,
  "센": 2003,
  "샬": 1964,
  "비롯": 8790,
  "말미": 20489,
  "XL</w>": 29134,
  "정렬</w>": 27666,
  "중국어</w>": 17368,
  "4년</w>": 8153,
  "82</w>": 25842,
  "들어와서</w>": 27736,
  "콱": 3318,
  "어나": 8517,
  "가공</w>": 18163,
  "미보유</w>": 10523,
  "스터</w>": 8331,
  "국내외</w>": 15286,
  "용기를</w>": 21874,
  "안됩니다</w>": 16890,
  "소문": 20435,
  "성격의</w>": 30207,
  "벤</w>": 4705,
  "레인</w>": 29514,
  "동점</w>": 29612,
  "iver</w>": 29832,
  "기자는</w>": 29610,
  "ning</w>": 19877,
  "치에</w>": 15505,
  "알려": 7478,
  "쐼": 2261,
  "마운트</w>": 28393,
  "법이</w>": 11678,
  "분홍": 30630,
  "사실과</w>": 26344,
  "변화의</w>": 20572,
  "마이애": 18638,
  "현</w>": 4267,
  "보지": 32349,
  "전형적으로</w>": 21459,
  "성향을</w>": 32200,
  "표시되었습니다</w>": 21810,
  "씼": 2325,
  "하룻": 27422,
  "반응": 8874,
  "시장에서</w>": 12319,
  "인상</w>": 14716,
  "도박": 10856,
  "수탉</w>": 13538,
  "먼트</w>": 10337,
  "암호</w>": 26073,
  "장비를</w>": 18103,
  "회원가입을</w>": 29764,
  "공화국</w>": 16907,
  "아빠가</w>": 19895,
  "해야": 7832,
  "익스플로": 18790,
  "상": 1941,
  "김광": 20864,
  "불쾌": 24783,
  "동맥": 23594,
  "터스</w>": 23444,
  "때에</w>": 11442,
  "위생": 16572,
  "모임</w>": 12827,
  "e의</w>": 13648,
  "중이": 14684,
  "드에서</w>": 10344,
  "maz": 16084,
  "샥": 1962,
  "링의</w>": 28214,
  "칼라": 27231,
  "중단</w>": 17377,
  "보안": 10424,
  "USB": 19597,
  "몆</w>": 4914,
  "출고</w>": 19024,
  "기부</w>": 17984,
  "성남": 14609,
  "당부": 20476,
  "풱": 3683,
  "JS": 26688,
  "호환</w>": 27600,
  "엔지니어</w>": 28394,
  "녜</w>": 5523,
  "구직": 20259,
  "싱가포르": 21281,
  "쳘</w>": 5877,
  "대체": 9946,
  "분들도</w>": 14818,
  "ift</w>": 26548,
  "파일</w>": 8076,
  "업계</w>": 12738,
  "시즌이</w>": 26194,
  "변수</w>": 20731,
  "젖": 2753,
  "머": 1411,
  "보여줬다</w>": 26172,
  "4월": 12668,
  "쓰면</w>": 16280,
  "김경": 14234,
  "무제한</w>": 20852,
  "꺨</w>": 5993,
  "부분만</w>": 29172,
  "아르헨티나</w>": 29145,
  "다르고</w>": 26888,
  "돗": 868,
  "묵묵": 30496,
  "상품</w>": 7590,
  "십시": 20720,
  "단어가</w>": 22199,
  "개선에</w>": 30527,
  "훃": 3874,
  "칸": 3241,
  "들은": 20336,
  "갈": 89,
  "mer</w>": 32449,
  "적합성</w>": 22396,
  "섭": 1991,
  "희망": 8646,
  "천국": 31823,
  "아름답고</w>": 25370,
  "지급": 9500,
  "실리": 13322,
  "처로</w>": 27634,
  "필요로</w>": 13384,
  "이날</w>": 8662,
  "충분": 7903,
  "깹": 377,
  "해를</w>": 9827,
  "다다": 28335,
  "준비된</w>": 27873,
  "재미를</w>": 18675,
  "2019</w>": 20656,
  "대회가</w>": 23432,
  "눇": 681,
  "후원</w>": 17340,
  "ust</w>": 16881,
  "아닙": 8458,
  "영리": 15514,
  "젼</w>": 4763,
  "시티": 11506,
  "No": 17533,
  "sexy</w>": 30541,
  "잰</w>": 5268,
  "모나": 31224,
  "칬": 3233,
  "필리핀": 16346,
  "가질</w>": 12639,
  "여서</w>": 10924,
  "실시하고</w>": 22457,
  "릊": 1331,
  "들여": 12417,
  "단백질</w>": 20845,
  "2개의</w>": 15358,
  "옵": 2483,
  "교육을</w>": 9973,
  "미드</w>": 29400,
  "넮</w>": 6451,
  "61</w>": 18856,
  "U": 45,
  "쀅</w>": 6897,
  "뤘": 1294,
  "힛": 3953,
  "일에는</w>": 14185,
  "해커": 27860,
  "였고</w>": 13261,
  "주요</w>": 8176,
  "린이</w>": 27857,
  "챱": 3095,
  "생각되는</w>": 26731,
  "뺒": 1824,
  "스럽습니다</w>": 29062,
  "페이스북에</w>": 26023,
  "등과</w>": 11400,
  "개선이</w>": 29439,
  "강남구</w>": 13529,
  "레깅스</w>": 32297,
  "쑥": 2269,
  "1주일</w>": 26771,
  "쁨</w>": 4465,
  "곽": 214,
  "타운</w>": 13580,
  "바빠": 31294,
  "룽": 1286,
  "나라에</w>": 19656,
  "의견</w>": 12100,
  "위로": 20120,
  "마라톤</w>": 22302,
  "츄</w>": 4260,
  "틓": 3549,
  "다리가</w>": 22115,
  "앞으로는</w>": 23026,
  "An": 8197,
  "탇</w>": 6634,
  "다할</w>": 29821,
  "헉</w>": 5334,
  "치고</w>": 8286,
  "모습": 7289,
  "개인적인</w>": 13725,
  "규정이</w>": 24417,
  "배로</w>": 21998,
  "치킨": 19232,
  "고기를</w>": 16067,
  "규제": 16288,
  "기간을</w>": 13295,
  "ry</w>": 15402,
  "침해하는</w>": 30098,
  "님에게</w>": 23610,
  "컽": 3281,
  "업무상</w>": 31130,
  "햟": 3767,
  "분기": 23804,
  "감과</w>": 15112,
  "iPhone</w>": 16277,
  "아빠는</w>": 32329,
  "납득": 26614,
  "결정은</w>": 31193,
  "회복</w>": 19276,
  "공원</w>": 9722,
  "뾱</w>": 5233,
  "토지</w>": 26302,
  "응원합니다</w>": 30540,
  "릅": 1328,
  "디자인": 9345,
  "3차</w>": 16623,
  "뺜": 1827,
  "부진": 22714,
  "Bu": 17280,
  "생존": 12673,
  "토토</w>": 8283,
  "comm": 29162,
  "내면</w>": 19198,
  "봉": 1696,
  "칼럼</w>": 11873,
  "경과": 15958,
  "상당의</w>": 25219,
  "정의와</w>": 23824,
  "안전거래를</w>": 31717,
  "튬": 3530,
  "셉": 2007,
  "듞": 948,
  "가든</w>": 20258,
  "전략의</w>": 30442,
  "그려</w>": 30324,
  "차적으로</w>": 22798,
  "가입</w>": 8739,
  "소개한</w>": 26183,
  "암동</w>": 31535,
  "욹": 2549,
  "이닝을</w>": 20498,
  "입에</w>": 12337,
  "매뉴얼</w>": 21719,
  "극단</w>": 32166,
  "가운": 7881,
  "7개의</w>": 31816,
  "제공": 7006,
  "교회에서</w>": 19931,
  "C가</w>": 32122,
  "똿</w>": 6516,
  "쓰던</w>": 29730,
  "역까지</w>": 29314,
  "페이지가</w>": 20111,
  "ach": 11402,
  "잃어버": 14623,
  "였을</w>": 25344,
  "전세": 17859,
  "트렌": 10985,
  "용병</w>": 32507,
  "검색하세요</w>": 31211,
  "사랑을</w>": 9476,
  "웰": 2588,
  "귁</w>": 6028,
  "치열한</w>": 18377,
  "체코</w>": 24590,
  "그녀</w>": 16174,
  "심리": 8769,
  "주의적</w>": 18252,
  "서귀": 21041,
  "논란": 10736,
  "최적화된</w>": 25402,
  "아쉽게도</w>": 29521,
  "외에</w>": 9687,
  "만났다</w>": 20699,
  "정해져</w>": 28751,
  "추진</w>": 12404,
  "디자인에</w>": 25049,
  "야할</w>": 17700,
  "마포구</w>": 19226,
  "와": 2494,
  "일제</w>": 26128,
  "eb": 9144,
  "O": 39,
  "ysis</w>": 18123,
  "곙": 193,
  "월</w>": 4154,
  "면서도</w>": 8938,
  "ible</w>": 22057,
  "외계": 27702,
  "본문": 29667,
  "발휘": 13102,
  "박을</w>": 14438,
  "늼": 743,
  "춧</w>": 5989,
  "해하는</w>": 24606,
  "그들을</w>": 13347,
  "피로</w>": 22682,
  "이후에는</w>": 15195,
  "무지": 15509,
  "싸움</w>": 21289,
  "라리</w>": 14132,
  "서울중앙": 27011,
  "협회": 24568,
  "와이즈": 21104,
  "하기</w>": 6993,
  "되었으나</w>": 26797,
  "하느님</w>": 30725,
  "경향이</w>": 16017,
  "오가</w>": 20620,
  "까다": 20210,
  "태그의</w>": 10780,
  "치즈</w>": 19567,
  "트럭": 20481,
  "회원만</w>": 29476,
  "를</w>": 4004,
  "점검을</w>": 29020,
  "쵀": 3154,
  "랬</w>": 5660,
  "했을때</w>": 28771,
  "목걸이</w>": 25823,
  "포토샵</w>": 28553,
  "흨</w>": 6202,
  "재활용</w>": 28769,
  "영향이</w>": 22217,
  "랜드에서</w>": 28417,
  "갖는다</w>": 22954,
  "초당</w>": 29954,
  "구절": 29540,
  "솊": 2036,
  "넘어": 8741,
  "아니면</w>": 8944,
  "EG</w>": 29489,
  "텀</w>": 4723,
  "나간다</w>": 24340,
  "파": 3568,
  "항목에</w>": 24207,
  "기사와</w>": 27761,
  "법원에</w>": 31611,
  "와우</w>": 29125,
  "영": 2457,
  "공기업</w>": 28491,
  "Hz": 29366,
  "본": 1685,
  "민들": 10875,
  "에로</w>": 23937,
  "cess": 17298,
  "진실": 8619,
  "어쩔": 31416,
  "기온이</w>": 24677,
  "냔": 578,
  "정제": 27420,
  "핗": 3722,
  "신": 2154,
  "읶": 2662,
  "의약품</w>": 24410,
  "얻게</w>": 18098,
  "티브</w>": 9436,
  "6회</w>": 24751,
  "엄마": 8407,
  "왔으며</w>": 28328,
  "주변을</w>": 23697,
  "8년": 32415,
  "건강과</w>": 22910,
  "출발을</w>": 30480,
  "용을</w>": 26238,
  "높아": 10544,
  "넘는</w>": 10894,
  "팬이</w>": 29672,
  "올린</w>": 11737,
  "고분": 26701,
  "광장에서</w>": 29820,
  "싶을</w>": 16537,
  "ich": 20158,
  "갲": 119,
  "알았는데</w>": 20783,
  "미녀</w>": 17919,
  "부분입니다</w>": 23421,
  "관련된</w>": 8333,
  "...'</w>": 22263,
  "다르": 8882,
  "유사</w>": 30578,
  "조는</w>": 16784,
  "갈등</w>": 20151,
  "저항": 13257,
  "관광": 7785,
  "유엔": 17978,
  "끝내</w>": 24835,
  "차례</w>": 10940,
  "스크린</w>": 15653,
  "lob": 20449,
  "버섯": 22435,
  "루카": 31887,
  "있고요</w>": 21067,
  "치아": 14869,
  "따스": 31012,
  "장면이</w>": 21524,
  "해주는</w>": 9787,
  "파인": 18526,
  "시기": 13000,
  "SI</w>": 26907,
  "처분을</w>": 21762,
  "않음</w>": 17966,
  "르게</w>": 7817,
  "사이버</w>": 16349,
  "스캔": 16585,
  "풍의</w>": 28661,
  "엘리트</w>": 28432,
  "녕</w>": 4464,
  "펜": 3617,
  "보수</w>": 13510,
  "흙</w>": 5206,
  "도그</w>": 16154,
  "일찍": 27296,
  "mom</w>": 32480,
  "지법</w>": 19327,
  "허락</w>": 11034,
  "어떨까</w>": 19333,
  "릫": 1343,
  "뮤": 1543,
  "뗍": 1040,
  "Ass": 20073,
  "CA</w>": 25595,
  "만들기</w>": 8485,
  "쓴다</w>": 18843,
  "해체": 22718,
  "s는</w>": 23094,
  "왯": 2513,
  "포기</w>": 22595,
  "이에게</w>": 22816,
  "마이크로소프트": 30113,
  "국민</w>": 11135,
  "해외": 7734,
  "추구": 12132,
  "쐄": 2252,
  "쐴": 2260,
  "ut": 8046,
  "포트폴리": 19413,
  "365</w>": 18622,
  "쳐</w>": 4859,
  "박병": 19952,
  "축": 3173,
  "크가</w>": 17570,
  "봫": 1712,
  "6개월</w>": 13680,
  "sum": 29934,
  "ina</w>": 14647,
  "뀍</w>": 5732,
  "줄기": 28092,
  "접하게</w>": 25667,
  "대리인</w>": 31863,
  "VO": 15109,
  "복수의</w>": 32073,
  "1월": 14290,
  "언급했다</w>": 28479,
  "딬": 984,
  "팔을</w>": 21917,
  "스카이</w>": 27090,
  "눠</w>": 4650,
  "승점</w>": 29542,
  "젋": 2745,
  "스와": 30031,
  "재발": 29718,
  "폭발": 13548,
  "볌": 1669,
  "msgstr</w>": 31308,
  "Page</w>": 24060,
  "리뉴얼</w>": 30446,
  "삐": 1915,
  "L</w>": 4035,
  "이야기가</w>": 11874,
  "트리스</w>": 25728,
  "제출한</w>": 25603,
  "다닐</w>": 18016,
  "TCP</w>": 28349,
  "이메일주소</w>": 30142,
  "공모": 11602,
  "하이드": 32280,
  "해고": 28953,
  "some</w>": 23549,
  "빠질</w>": 22416,
  "길이</w>": 9774,
  "텉": 3450,
  "에요</w>": 8359,
  "튄": 3520,
  "이진": 27332,
  "깨끗하고</w>": 15853,
  "권유": 28997,
  "불가</w>": 13148,
  "Work": 32330,
  "표로</w>": 29113,
  "차에서</w>": 26212,
  "cc</w>": 29196,
  "필요성</w>": 16528,
  "198": 9137,
  "정교": 20689,
  "43": 17051,
  "조성을</w>": 32742,
  "달성하기</w>": 31702,
  "었던</w>": 8235,
  "안철수</w>": 19201,
  "청이</w>": 21657,
  "ent</w>": 7962,
  "쯤": 3038,
  "학자</w>": 19760,
  "먹으러</w>": 29574,
  "핔</w>": 5351,
  "않는데</w>": 31350,
  "웨딩</w>": 25358,
  "백팩</w>": 32236,
  "솔루": 9710,
  "언론에</w>": 26133,
  "냐고</w>": 11633,
  "국립공원</w>": 26230,
  "칭을</w>": 22767,
  "중국": 7508,
  "임기</w>": 26291,
  "듼": 967,
  "anguage</w>": 20902,
  "신을</w>": 10659,
  "ily</w>": 20714,
  "고화": 16990,
  "잖": 2689,
  "마카오</w>": 31184,
  "최저": 9338,
  "꿑": 484,
  "탐구</w>": 28875,
  "기름</w>": 16169,
  "춓": 3171,
  "회로</w>": 14394,
  "네트": 7963,
  "프로그램을</w>": 9225,
  "캐피": 17783,
  "꼍": 423,
  "맘": 1375,
  "닌텐": 22511,
  "불구속</w>": 31959,
  "전쟁": 9026,
  "박진": 27005,
  "학술대회</w>": 26600,
  "주시는</w>": 14231,
  "방침</w>": 13920,
  "PP</w>": 30334,
  "공</w>": 4124,
  "시민들의</w>": 22888,
  "영화</w>": 7521,
  "명칭": 16333,
  "정유": 23728,
  "서울의</w>": 21505,
  "기업</w>": 7722,
  "1300": 31994,
  "략": 1164,
  "살펴보면</w>": 16776,
  "1년": 11245,
  "죗</w>": 6808,
  "내년": 25295,
  "시행령</w>": 24738,
  "싄</w>": 6022,
  "진행": 7204,
  "수준을</w>": 16786,
  "NG": 16523,
  "한류</w>": 30254,
  "구성되어</w>": 13748,
  "통제</w>": 18314,
  "위치와</w>": 25349,
  "푸틴</w>": 31893,
  "세가지</w>": 31751,
  "영이</w>": 15041,
  "저장을</w>": 27626,
  "0원</w>": 29245,
  "먾": 1416,
  "한테</w>": 9792,
  "ok</w>": 16121,
  "요건을</w>": 28023,
  "산물": 23735,
  "vi": 8006,
  "자료를</w>": 10203,
  "폐기": 14152,
  "하느라</w>": 23016,
  "평로</w>": 13012,
  "삼아</w>": 18342,
  "병은</w>": 25863,
  "뭐냐</w>": 28344,
  "org</w>": 16057,
  "제품들이</w>": 31952,
  "풀": 3670,
  "Plan": 19640,
  "휙</w>": 5449,
  "에디션</w>": 24579,
  "최운": 20580,
  "하나도</w>": 14769,
  "이용한</w>": 10212,
  "인정되는</w>": 27089,
  "일광</w>": 13660,
  "말씀이</w>": 20206,
  "없던</w>": 18645,
  "ook": 15033,
  "지질": 28347,
  "끌어": 12001,
  "반성": 21027,
  "캐피탈": 32752,
  "SE</w>": 26049,
  "전적으로</w>": 21992,
  "의원": 11471,
  "중대": 29234,
  "크롬</w>": 16387,
  "아팠": 32129,
  "부터</w>": 6982,
  "action</w>": 27434,
  "풍이</w>": 18771,
  "진영</w>": 21261,
  "갰": 117,
  "내재": 31220,
  "5만</w>": 27823,
  "필수</w>": 10467,
  "리도</w>": 18232,
  "야의</w>": 24146,
  "허락": 15196,
  "확장": 9887,
  "뀀": 497,
  "게임방</w>": 25993,
  "쓱</w>": 6186,
  "전반적으로</w>": 20016,
  "톄": 3472,
  "근육을</w>": 26244,
  "스프": 11804,
  "틤</w>": 6797,
  "제보</w>": 24789,
  "릡": 1341,
  "소시": 20284,
  "응답</w>": 19950,
  "스스": 10754,
  "트럼프": 32677,
  "Je": 16733,
  "2루": 16960,
  "벎": 1636,
  "북도</w>": 17260,
  "찻</w>": 6317,
  "뿐더러</w>": 29335,
  "충": 3184,
  "지역으로</w>": 21775,
  "AK</w>": 26772,
  "조용하고</w>": 32393,
  "튀김": 30391,
  "두산": 18303,
  "인근에</w>": 31788,
  "저녁</w>": 9601,
  "혈을</w>": 31951,
  "삼성의</w>": 29989,
  "놯": 665,
  "한국어": 21258,
  "짛": 2914,
  "일산": 24916,
  "핵심</w>": 10945,
  "툴": 3506,
  "CJ": 16663,
  "범": 1638,
  "Hol": 23985,
  "n": 67,
  "의미가</w>": 11763,
  "신화</w>": 19571,
  "않을": 16610,
  "전선</w>": 26036,
  "귀한</w>": 15907,
  "비단</w>": 32041,
  "짐을</w>": 14677,
  "출처를</w>": 25602,
  "elo": 19517,
  "맛이</w>": 11447,
  "위해선</w>": 23443,
  "드문</w>": 24349,
  "쾰</w>": 6694,
  "기꺼이</w>": 27204,
  "임명": 17802,
  "렇</w>": 5581,
  "제는</w>": 8249,
  "똑같이</w>": 16263,
  "덬": 825,
  "퓌": 3686,
  "A의</w>": 25831,
  "픙</w>": 6653,
  "멋지게</w>": 25375,
  "실무": 11585,
  "소식을</w>": 12378,
  "미가</w>": 13378,
  "일일이</w>": 21438,
  "부팅</w>": 22924,
  "관리": 7180,
  "am</w>": 10079,
  "뭤": 1532,
  "외부의</w>": 28598,
  "by": 22598,
  "eus</w>": 22246,
  "1학기</w>": 19718,
  "중계": 13480,
  "헌신": 20315,
  "me": 10073,
  "기준": 7888,
  "아케이": 31821,
  "하구요</w>": 20876,
  "미국</w>": 7273,
  "컬렉": 14651,
  "메뉴에서</w>": 22257,
  "유혹</w>": 25692,
  "여행객": 20503,
  "16일</w>": 10515,
  "컴퓨팅</w>": 22126,
  "시장으로</w>": 30585,
  "0으로</w>": 20594,
  "보냅니다</w>": 31749,
  "쫗": 2997,
  "자체도</w>": 27227,
  "함으로써</w>": 9306,
  "사용되지만</w>": 26220,
  "댔": 794,
  "궢": 280,
  "par": 12907,
  "시설을</w>": 13088,
  "if</w>": 28100,
  "곌</w>": 5515,
  "잫": 2706,
  "파우치</w>": 30188,
  "타율</w>": 17319,
  "uss": 14305,
  "모바": 7529,
  "겁니까</w>": 27877,
  "세계적인</w>": 13945,
  "날까지</w>": 23854,
  "슁</w>": 5163,
  "품질을</w>": 25208,
  "other</w>": 23452,
  "스테아": 27415,
  "스타</w>": 8782,
  "필리": 11210,
  "몹시</w>": 28435,
  "관리자</w>": 9812,
  "짴</w>": 5483,
  "목록을</w>": 19691,
  "달한다</w>": 25043,
  "걋</w>": 6596,
  "유권": 19818,
  "볜</w>": 6100,
  "뺄": 1818,
  "문서검색</w>": 8856,
  "목소리가</w>": 18325,
  "전수": 24289,
  "화제": 22760,
  "스트리</w>": 26201,
  "넹</w>": 5050,
  "하기로</w>": 9741,
  "아나운서</w>": 30710,
  "스프레": 21577,
  "아이디어를</w>": 17299,
  "뼘": 1861,
  "캥</w>": 5516,
  "알찬": 27295,
  "su": 24175,
  "프라임</w>": 27939,
  "건강에</w>": 16224,
  "로컬</w>": 19344,
  "음핵</w>": 30011,
  "독한</w>": 20275,
  "의미와</w>": 24938,
  "주소": 9456,
  "올려": 10250,
  "부득": 22684,
  "알았": 11619,
  "훨": 3895,
  "벌</w>": 4566,
  "류</w>": 4110,
  "기능이</w>": 10676,
  "뷔": 1758,
  "도우미</w>": 25638,
  "카운": 11164,
  "볼수</w>": 15394,
  "on": 7019,
  "피규": 22117,
  "당하고</w>": 18189,
  "수당</w>": 23281,
  "희는</w>": 22312,
  "Center</w>": 21604,
  "},</w>": 14967,
  "역대": 26290,
  "기숙사</w>": 25614,
  "집중</w>": 14883,
  "특징을</w>": 17452,
  "뺘</w>": 6128,
  "ik": 12706,
  "큠": 3371,
  "김성": 12685,
  "활성화를</w>": 23005,
  "AND</w>": 22515,
  "챘</w>": 6250,
  "나선</w>": 17693,
  "인생": 8545,
  "환불</w>": 13875,
  "비상": 14639,
  "루": 1278,
  "햐</w>": 5385,
  "증거</w>": 21904,
  "앓</w>": 5775,
  "표현이</w>": 21329,
  "연": 2442,
  "전한</w>": 13409,
  "성명을</w>": 30651,
  "노후": 18814,
  "패션</w>": 11200,
  "캐릭터</w>": 11813,
  "여러가지</w>": 12097,
  "출연": 10252,
  "설정에</w>": 30503,
  "쾽": 3330,
  "ini</w>": 30980,
  "스커트</w>": 20627,
  "장치": 11189,
  "단체</w>": 9422,
  "]": 53,
  "킹사이즈침대</w>": 18297,
  "2건</w>": 22459,
  "헝": 3788,
  "보석</w>": 25679,
  "도움말</w>": 19403,
  "여명</w>": 28005,
  "a에서</w>": 21480,
  "지경": 31281,
  "평균</w>": 7496,
  "셒</w>": 6281,
  "환자에게</w>": 32045,
  "대대": 25876,
  "품으로</w>": 20592,
  "\u001c": 0,
  "120": 13319,
  "생각했던</w>": 22933,
  "빪": 1807,
  "사무실에서</w>": 29988,
  "못하는</w>": 9053,
  "수확": 19777,
  "팩": 3586,
  "겂</w>": 5997,
  "학년</w>": 10103,
  "제작</w>": 9187,
  "Box</w>": 27686,
  "for</w>": 9491,
  "자외선</w>": 30822,
  "맞게</w>": 11382,
  "정권의</w>": 24908,
  "4명</w>": 22623,
  "새로</w>": 9440,
  "PDF": 30658,
  "상황을</w>": 10535,
  "으니</w>": 8116,
  "Down": 22042,
  "브라우": 8801,
  "봅": 1693,
  "진출한</w>": 28870,
  "서고</w>": 26696,
  "분수": 30123,
  "차량": 9619,
  "혐의</w>": 19287,
  "돌리는</w>": 29120,
  "코드</w>": 8536,
  "비싸": 13575,
  "춡": 3178,
  "믖": 1557,
  "되셨": 24679,
  "gr": 13024,
  "표현": 7860,
  "배는</w>": 28261,
  "독일의</w>": 15490,
  "깔": 358,
  "R</w>": 4197,
  "아마츄어</w>": 11556,
  "정선": 21283,
  "꿱": 493,
  "나이에</w>": 19765,
  "종속": 28941,
  "4대": 16088,
  "조영": 29901,
  "Wi</w>": 14155,
  "블루투스</w>": 15222,
  "이스라엘</w>": 14687,
  "잔치</w>": 24513,
  "범위를</w>": 17278,
  "회사가</w>": 10861,
  "부위에</w>": 30803,
  "텍</w>": 4383,
  "ace": 24608,
  "호스트</w>": 26005,
  "min</w>": 23814,
  "예수": 8554,
  "기초": 9130,
  "주께서</w>": 29826,
  "묻고</w>": 23818,
  "받아들이는</w>": 28829,
  "해주고</w>": 12813,
  "궴": 286,
  "AI</w>": 12957,
  "닌</w>": 4027,
  "오해": 17028,
  "로서</w>": 8090,
  "ins": 25045,
  "거짓</w>": 21849,
  "서비스가</w>": 11379,
  "긇": 320,
  "만족스러운</w>": 29189,
  "로스앤젤": 23774,
  "줄게</w>": 29091,
  "스테이": 9409,
  "줬": 2852,
  "퐈": 3649,
  "대학교": 10905,
  "교회에</w>": 19886,
  "노인": 9766,
  "자랑합니다</w>": 31356,
  "갗": 102,
  "!?</w>": 29819,
  "상상": 10721,
  "프로그래": 10850,
  "국": 254,
  "히기</w>": 21291,
  "븟</w>": 5521,
  "수하": 24681,
  "환경에</w>": 13506,
  "뉴욕": 11670,
  "욀": 2519,
  "ance</w>": 12826,
  "카우걸</w>": 18415,
  "밴</w>": 4668,
  "휴일</w>": 29236,
  "벗": 1640,
  "큐": 3367,
  "장소가</w>": 24445,
  "안타까": 15475,
  "Sof": 24481,
  "낙": 541,
  "모양이다</w>": 30084,
  "앋": 2337,
  "플라이</w>": 25362,
  "(!)</w>": 32533,
  "까지</w>": 6968,
  "쫑": 2994,
  "신비": 16455,
  "쁭": 1913,
  "마루</w>": 29433,
  "받": 1588,
  "하시며</w>": 27424,
  "세월이</w>": 26331,
  "실히</w>": 29813,
  "닩": 765,
  "쟐</w>": 5266,
  "도보로</w>": 20354,
  "강아지": 32750,
  "암살": 32456,
  "소재의</w>": 25872,
  "말해서</w>": 22970,
  "하려": 7442,
  "통</w>": 4338,
  "쉬운</w>": 9169,
  "전문의</w>": 29601,
  "픞": 3707,
  "냉": 572,
  "선착순</w>": 26452,
  "느껴질</w>": 29087,
  "멂</w>": 6314,
  "xHamster</w>": 9461,
  "조직이</w>": 25033,
  "니아</w>": 10581,
  "II</w>": 11723,
  "아이스크림</w>": 21294,
  "요금은</w>": 17509,
  "틀림": 21326,
  "기본법</w>": 29260,
  "쩝</w>": 5577,
  "애니메이션": 31567,
  "곅</w>": 6609,
  "자원봉사</w>": 26411,
  "로봇": 12612,
  "음을</w>": 7741,
  "오던</w>": 21862,
  "온도</w>": 12011,
  "사정을</w>": 28572,
  "예수님의</w>": 17064,
  "지점</w>": 18126,
  "관세</w>": 28698,
  "지휘": 14672,
  "훌륭": 9149,
  "판매하고</w>": 26477,
  "속한다</w>": 31974,
  "박근혜</w>": 10895,
  "Aut": 20637,
  "뷔페</w>": 20923,
  "솔직하게</w>": 32564,
  "per": 10649,
  "러를</w>": 20477,
  "껜": 407,
  "나물</w>": 31439,
  "그룹에</w>": 25536,
  "뛋": 1093,
  "때때로</w>": 25364,
  "색깔</w>": 24454,
  "모양": 9173,
  "개념으로</w>": 27162,
  "Car": 15065,
  "LTE</w>": 20729,
  "꽃은</w>": 25640,
  "국제공항</w>": 22465,
  "아담": 21078,
  "누드</w>": 20596,
  "교회가</w>": 15701,
  "Dev": 17641,
  "앜</w>": 6083,
  "이스탄": 30607,
  "왈": 2499,
  "장소": 8481,
  "거주": 11910,
  "이적</w>": 32307,
  "블": 1775,
  "퀴": 3358,
  "자신과</w>": 19432,
  "요소가</w>": 16022,
  "합성": 19078,
  "미군</w>": 31609,
  "정책은</w>": 19126,
  "파괴": 12003,
  "이온": 27985,
  "만들어내는</w>": 25727,
  "6개</w>": 14182,
  "대신": 12151,
  "웚": 2574,
  "흔": 3925,
  "힏": 3949,
  "카지노주소</w>": 32119,
  "강철</w>": 27118,
  "Gi": 29205,
  "IP</w>": 10327,
  "카</w>": 4106,
  "좋": 2801,
  "지수</w>": 15290,
  "믹스": 30649,
  "착용": 11934,
  "Place</w>": 24879,
  "함이</w>": 10549,
  "된다</w>": 7053,
  "투어도</w>": 25437,
  "노트북": 14568,
  "쓉": 2289,
  "한마디로</w>": 20976,
  "장바구니</w>": 28856,
  "식품의</w>": 31744,
  "완벽한</w>": 11370,
  "아프리": 11668,
  "홀리": 17336,
  "쏴</w>": 6142,
  "걈</w>": 6855,
  "시그": 16848,
  "액의</w>": 26074,
  "습관이</w>": 29403,
  "타격": 17572,
  "누군": 9641,
  "OT</w>": 27030,
  "용</w>": 3972,
  "개발하고</w>": 24003,
  "Era</w>": 23676,
  "버튼": 9151,
  "바다의</w>": 29116,
  "IL": 19729,
  "주택을</w>": 28993,
  "자이언": 20483,
  "관측소와</w>": 23928,
  "걱정은</w>": 32217,
  "기후</w>": 10968,
  "님의</w>": 7311,
  "vious</w>": 29343,
  "ey": 14209,
  "니즘</w>": 26461,
  "ox": 24274,
  "강우": 11952,
  "빼놓을</w>": 30679,
  "우체": 18206,
  "야마": 16295,
  "리스크</w>": 31401,
  "쎼</w>": 5905,
  "떙": 1018,
  "하더라도</w>": 10028,
  "이사": 10333,
  "추진": 8820,
  "시간</w>": 7063,
  "집합</w>": 31657,
  "꽜": 451,
  "반을</w>": 18904,
  "국회에서</w>": 25988,
  "캎": 3250,
  "럯": 1178,
  "\".</w>": 29067,
  "픽": 3711,
  "큰가슴": 24831,
  "실시": 8752,
  "닙": 753,
  "뢴</w>": 5857,
  "김에</w>": 28559,
  "푱": 3663,
  "쏭</w>": 4667,
  "두번</w>": 28109,
  "짇</w>": 5597,
  "다문화": 20387,
  "모니터링</w>": 17759,
  "볼륨</w>": 26352,
  "폰": 3642,
  "상대에게</w>": 30779,
  "많지만</w>": 20234,
  "동국": 28830,
  "봄에</w>": 29401,
  "예상하는데</w>": 25220,
  "ign": 13292,
  "첵": 3118,
  "촬영한</w>": 23481,
  "sung</w>": 32182,
  "풂</w>": 6054,
  "장면을</w>": 16223,
  "강하고</w>": 31119,
  "씨도</w>": 31795,
  "종이": 16772,
  "하기엔</w>": 26683,
  "삷": 1934,
  "성적은</w>": 25407,
  "함에</w>": 10443,
  "지침</w>": 21698,
  "주의에</w>": 23597,
  "기관을</w>": 23041,
  "박물": 9283,
  "이는</w>": 7088,
  "의료기기</w>": 29875,
  "렍</w>": 6721,
  "갔</w>": 4947,
  "했는지</w>": 14011,
  "환급": 20744,
  "작성할</w>": 23126,
  "차기</w>": 17813,
  "심포지": 29057,
  "ia": 18786,
  "박</w>": 4593,
  "년째</w>": 22699,
  "들에게</w>": 7230,
  "길이는</w>": 12703,
  "알래": 27132,
  "ording</w>": 22120,
  "미세": 11809,
  "아니라</w>": 7152,
  "큉</w>": 6502,
  "점령": 21020,
  "입장을</w>": 13155,
  "말합니다</w>": 13717,
  "증이</w>": 11616,
  "ShemaleTube</w>": 25074,
  "펙트</w>": 25356,
  "se</w>": 10197,
  "상황에서</w>": 10308,
  "롵": 1243,
  "풀</w>": 4519,
  "no": 14333,
  "역할이</w>": 21877,
  "더이상</w>": 17314,
  "밀리미터이하": 15043,
  "실에</w>": 12265,
  "욕이</w>": 29881,
  "곸</w>": 5825,
  "수집된</w>": 8616,
  "실력이</w>": 22202,
  "올리고</w>": 14660,
  "치즈": 17945,
  "이였다</w>": 28962,
  "두로</w>": 30762,
  "조선일보</w>": 27064,
  "봐야": 12935,
  "탑재한</w>": 29860,
  "춗": 3174,
  "스쿠": 15888,
  "낚시": 15500,
  "fb2</w>": 31981,
  "동남아</w>": 28706,
  "비아": 15248,
  "퓨전</w>": 29694,
  "선박": 25462,
  "맜</w>": 6617,
  "50</w>": 9016,
  "Char": 24578,
  "려</w>": 4155,
  "어른이</w>": 29149,
  "워터": 16820,
  "form</w>": 21128,
  "사안": 30631,
  "신분</w>": 27701,
  "구석구": 20565,
  "도촬</w>": 21295,
  "세미나</w>": 13827,
  "첫</w>": 5129,
  "꿸": 495,
  "돈</w>": 4621,
  "렡</w>": 5631,
  "이번이</w>": 26323,
  "ror</w>": 25480,
  "종로": 16209,
  "탉</w>": 5754,
  "소비": 7696,
  "화면의</w>": 27128,
  "리어": 13707,
  "북스</w>": 27583,
  "머신": 17385,
  "브랜드</w>": 8651,
  "ie</w>": 12737,
  "교</w>": 4191,
  "128</w>": 31976,
  "라인</w>": 10431,
  "죄로</w>": 29825,
  "지인</w>": 17788,
  "DP</w>": 32484,
  "귀여운</w>": 10399,
  "하죠</w>": 11205,
  "작품으로</w>": 28441,
  "이미지": 15308,
  "생각하게</w>": 22494,
  "냐</w>": 4229,
  "불러</w>": 16791,
  "달러</w>": 9208,
  "그다": 16152,
  "2급</w>": 22529,
  "시뮬": 16723,
  "후반</w>": 16494,
  "노동</w>": 15703,
  "다릅니다</w>": 18386,
  "하지는</w>": 11647,
  "놀이터추천</w>": 28815,
  "인연": 28976,
  "뚜</w>": 5230,
  "Total</w>": 27013,
  "럴</w>": 4280,
  "Retrospective</w>": 24199,
  "첨": 3110,
  "구미</w>": 30294,
  "쮠</w>": 5171,
  "윷": 2622,
  "증대": 29526,
  "57": 15974,
  "성도": 17366,
  "먹게</w>": 31078,
  "앂": 2329,
  "문에</w>": 12859,
  "픈": 3699,
  "남편": 10191,
  "25년</w>": 30510,
  "Kim</w>": 23430,
  "기를</w>": 7010,
  "했다가</w>": 15417,
  "뒜": 929,
  "Sum": 28132,
  "죗": 2819,
  "난다</w>": 9772,
  "궃": 267,
  "재미는</w>": 31233,
  "북을</w>": 31750,
  "ource</w>": 22791,
  "이미지를</w>": 11489,
  "라운지</w>": 14697,
  "mic": 26397,
  "밸": 1612,
  "문제들을</w>": 27445,
  "었을</w>": 12575,
  "핥기</w>": 17833,
  "낸다</w>": 12256,
  "레이디": 19559,
  "1개를</w>": 25458,
  "ML": 11797,
  "관절</w>": 23956,
  "국제공": 15200,
  "적용이</w>": 27410,
  "지적</w>": 15786,
  "지방선거</w>": 23645,
  "느냐</w>": 10812,
  "ox</w>": 21781,
  "일년을</w>": 25233,
  "가격비교</w>": 28848,
  "도시를</w>": 19108,
  "하였다</w>": 7552,
  "젇": 2742,
  "직접": 10884,
  "화되고</w>": 21315,
  "아마존": 21701,
  "NO": 20548,
  "송</w>": 4526,
  "준수": 13497,
  "설사</w>": 28056,
  "나서서</w>": 31803,
  "이같은</w>": 22573,
  "자산": 11120,
  "땨</w>": 6046,
  "임상": 15029,
  "시면</w>": 7383,
  "퍽": 3605,
  "뉙": 704,
  "해피": 9216,
  "소리를</w>": 9739,
  "videos</w>": 19341,
  "ade": 26316,
  "코를</w>": 28979,
  "소망": 19509,
  "기울": 11371,
  "4시간</w>": 29319,
  "참고하세요</w>": 28450,
  "기능에</w>": 20159,
  "이제야</w>": 27437,
  "피자</w>": 17989,
  "노릇": 25608,
  "큇": 3365,
  "인들을</w>": 18813,
  "숍</w>": 4728,
  "카드": 9153,
  "고발": 20628,
  "struc": 21778,
  "list</w>": 31554,
  "뜽</w>": 5027,
  "지역로그</w>": 14262,
  "lex</w>": 29532,
  "가정": 8878,
  "공항의</w>": 20669,
  "륌</w>": 5753,
  "푸는</w>": 25557,
  "리뷰</w>": 8604,
  "라이언</w>": 19660,
  "무한</w>": 20704,
  "싫어": 13100,
  "13년</w>": 30963,
  "하였고</w>": 11221,
  "충북": 18937,
  "최소": 9171,
  "시범경기</w>": 23239,
  "한복": 25510,
  "2004</w>": 22125,
  "낟</w>": 5431,
  "an</w>": 7406,
  "드러난</w>": 30205,
  "돌이</w>": 16560,
  "실내</w>": 13223,
  "아고": 25578,
  "디자": 7286,
  "인터넷에서</w>": 21898,
  "드러나는</w>": 31649,
  "여름": 9154,
  "워요</w>": 17505,
  "몌": 1460,
  "나보다</w>": 20342,
  "나눔": 11074,
  "풍경을</w>": 21841,
  "평가하는</w>": 25266,
  "말까지</w>": 14385,
  "긱</w>": 5688,
  "ED": 22675,
  "뜶": 1111,
  "생긴다</w>": 22584,
  "다저스": 32659,
  "EA": 19260,
  "하기만</w>": 21298,
  "츄": 3207,
  "숫자</w>": 18347,
  "Sm": 26357,
  "이끌고</w>": 24066,
  "Smart</w>": 28655,
  "춯</w>": 6408,
  "찡</w>": 4827,
  "분쟁</w>": 19898,
  "만하면</w>": 30144,
  "에이스": 32013,
  "4개": 24631,
  "아닌</w>": 7516,
  "효과": 7595,
  "공식</w>": 8603,
  "요원</w>": 27879,
  "맗": 1374,
  "되므로</w>": 15835,
  "욮": 2539,
  "쒀</w>": 5189,
  "살기</w>": 17308,
  "쌓여</w>": 29561,
  "몸매": 31097,
  "화가</w>": 8935,
  "몬테": 26426,
  "평가": 7641,
  "짹": 2935,
  "회의</w>": 8010,
  "툼</w>": 4968,
  "스마트폰</w>": 10116,
  "8회": 30166,
  "부자": 24181,
  "ship</w>": 24641,
  "깊은목구멍</w>": 25977,
  "라며</w>": 11105,
  "투여": 24961,
  "받기</w>": 11049,
  "절벽</w>": 16502,
  "폭탄</w>": 23471,
  "해지는</w>": 11914,
  "피아노</w>": 16986,
  "단점을</w>": 23708,
  "없으면</w>": 12613,
  "권장</w>": 25777,
  "주제": 14255,
  "쑽": 2278,
  "아레": 18507,
  "시고</w>": 8296,
  "들여다": 23196,
  "멵": 1448,
  "덷</w>": 6319,
  "Ev": 21345,
  "관심이</w>": 9638,
  "포인트를</w>": 14930,
  "침해": 11354,
  "정보화": 29211,
  "만남": 15778,
  "대신에</w>": 22361,
  "기억이</w>": 12997,
  "조용히</w>": 17030,
  "례가</w>": 31442,
  "acial</w>": 28866,
  "닪": 766,
  "미세먼지</w>": 17050,
  "심어": 27543,
  "혱</w>": 6090,
  "물로</w>": 11902,
  "뚜": 1078,
  "덴마크": 25760,
  "소서</w>": 11449,
  "일체</w>": 21638,
  "젔</w>": 5645,
  "신문사</w>": 30217,
  "설레": 19590,
  "빚": 1796,
  "the": 23865,
  "참외</w>": 32407,
  "어렵습니다</w>": 19736,
  "재미</w>": 15670,
  "죽을</w>": 14308,
  "신속한</w>": 18433,
  "담당": 8610,
  "앉아서</w>": 18513,
  "버터": 29434,
  "쩬": 2971,
  "!!": 15301,
  "Gir": 28166,
  "PV": 20208,
  "올": 2477,
  "특정</w>": 8245,
  "얻어": 16481,
  "무상": 20376,
  "설명": 7292,
  "진은</w>": 12142,
  "기술에</w>": 20801,
  "겨울이</w>": 29990,
  "늘어나고</w>": 19702,
  "성실": 14742,
  "총괄</w>": 29338,
  "의지": 16043,
  "가며</w>": 12735,
  "껄": 397,
  "초점을</w>": 15994,
  "컴퓨터</w>": 8395,
  "됬</w>": 6705,
  "Meeus</w>": 23744,
  "교사의</w>": 21434,
  "보험비교": 30640,
  "날아": 14102,
  "코팅</w>": 28035,
  "날려": 27384,
  "128": 24278,
  "D</w>": 4076,
  "Cafe</w>": 21391,
  "아메리카": 27428,
  "연계": 13561,
  "검찰": 11342,
  "display</w>": 27488,
  "하트": 27955,
  "요인</w>": 14803,
  "고유한</w>": 28515,
  "노숙": 24721,
  "차별을</w>": 31881,
  "일본과</w>": 28465,
  "외출": 25910,
  "라미": 18950,
  "살림": 25795,
  "방향</w>": 9599,
  "증은</w>": 19009,
  "성능</w>": 11700,
  "소년</w>": 12400,
  "Th": 7703,
  "의미를</w>": 11128,
  "제일": 15682,
  "많다는</w>": 21637,
  "상기</w>": 10524,
  "산타": 24138,
  "Nor": 18119,
  "MLB</w>": 19798,
  "솔루션</w>": 12839,
  "나와": 12609,
  "여성</w>": 7771,
  "였으며</w>": 26831,
  "쁜": 1909,
  "항공편</w>": 18598,
  "병아리</w>": 19478,
  "재와</w>": 12602,
  "시장은</w>": 13364,
  "개입": 15393,
  "지점": 22939,
  "rid": 18661,
  "신호": 11307,
  "럳": 1182,
  "ffer": 32195,
  "그들에게</w>": 16868,
  "한강": 18998,
  "의사소통": 20442,
  "녑</w>": 4835,
  "밒</w>": 6076,
  "딤": 977,
  "Log": 25538,
  "분야별</w>": 25827,
  "슥": 2128,
  "지구</w>": 11024,
  "에게": 7427,
  "권장합니다</w>": 28040,
  "시끄러": 29879,
  "귀하가</w>": 20032,
  "LG": 9782,
  "06</w>": 8846,
  "편": 3627,
  "의류": 24538,
  "부흥": 21727,
  "ac": 7160,
  "균형": 18183,
  "즐기고</w>": 20372,
  "oor</w>": 22168,
  "are</w>": 10027,
  "공주</w>": 21557,
  "의원이</w>": 18426,
  "수요</w>": 23115,
  "건강하게</w>": 19893,
  "다음과</w>": 7993,
  "책임을</w>": 9241,
  "민족의</w>": 19874,
  "크리": 7661,
  "보상</w>": 17256,
  "lec": 11627,
  "웨스트</w>": 24760,
  "페이지를</w>": 11046,
  "계란": 27811,
  "가르치": 25670,
  "마음에</w>": 9203,
  "00": 7005,
  "ens</w>": 15744,
  "mer": 14554,
  "북한</w>": 9040,
  "원칙을</w>": 21511,
  "07</w>": 9090,
  "긷</w>": 5673,
  "뢘": 1253,
  "뻣": 1845,
  "궶": 287,
  "문장": 20102,
  "스스로</w>": 8715,
  "돼서</w>": 20112,
  "시스템과</w>": 24458,
  "영사": 29446,
  "Database</w>": 20065,
  "Sp": 9561,
  "비판을</w>": 24049,
  "뤌</w>": 6432,
  "aph": 15080,
  "해요</w>": 8175,
  "버렸다</w>": 14782,
  "영적</w>": 21571,
  "마지막": 8978,
  "실의</w>": 16117,
  "다음으로</w>": 19111,
  "수사": 11433,
  "다음의</w>": 12213,
  "탴": 3432,
  "등록</w>": 8939,
  "es</w>": 7399,
  "매일매일</w>": 28118,
  "너의</w>": 11553,
  "꾳</w>": 6918,
  "없어요</w>": 12107,
  "쬔": 3009,
  "딸": 992,
  "편지를</w>": 20474,
  "뛩</w>": 6872,
  "mart</w>": 23356,
  "보였다</w>": 10601,
  "껸</w>": 6253,
  "존재하지</w>": 17606,
  "롼": 1248,
  "츕</w>": 5051,
  "튜브</w>": 22191,
  "z</w>": 4460,
  "입증": 15876,
  "당신": 7216,
  "Sup": 15347,
  "03</w>": 9468,
  "공시": 18394,
  "획": 3861,
  "작성해</w>": 26078,
  "쭐</w>": 5612,
  "탑재": 12397,
  "슝": 2125,
  "삽</w>": 4635,
  "미네": 15045,
  "검토": 11207,
  "퇘</w>": 6660,
  "지분</w>": 31992,
  "조합": 9156,
  "컨테이너</w>": 31325,
  "소와</w>": 13121,
  "내용과</w>": 12570,
  "지나": 7910,
  "금호": 25915,
  "단체는</w>": 28954,
  "CC": 11365,
  "기업으로</w>": 20941,
  "룩</w>": 4706,
  "급에</w>": 31044,
  "그러나</w>": 7190,
  "2는</w>": 24077,
  "음악</w>": 9124,
  "더한</w>": 30121,
  "시작되는</w>": 22854,
  "방으로</w>": 18355,
  "윕</w>": 5705,
  "여자와</w>": 21406,
  "관심</w>": 11215,
  "문의가</w>": 18023,
  "사와</w>": 8928,
  "펢": 3619,
  "오직</w>": 11309,
  "가격</w>": 8164,
  "야구</w>": 10977,
  "그분의</w>": 27866,
  ")": 7,
  "혠</w>": 6327,
  "서초": 15354,
  "왱</w>": 5909,
  "존재를</w>": 22141,
  "방침은</w>": 30733,
  "등장</w>": 15803,
  "구매를</w>": 20404,
  "188": 28748,
  "가격": 7528,
  "결합합니다</w>": 23104,
  "수치를</w>": 28043,
  "서비스와</w>": 17007,
  "오마이": 22454,
  "시인</w>": 22277,
  "일대": 25763,
  "타격을</w>": 21051,
  "솬</w>": 4729,
  "광화문</w>": 25161,
  "가솔": 27740,
  "마주": 13472,
  "맛도</w>": 25122,
  "꽃이</w>": 16669,
  "빠른": 19725,
  "겪는</w>": 21539,
  "게끔</w>": 27119,
  "나중에</w>": 10052,
  "아니고</w>": 9269,
  "도매": 25917,
  "향상에</w>": 31775,
  "정보화</w>": 23624,
  "렴</w>": 4876,
  "국제": 7575,
  "살이</w>": 11297,
  "논리": 13694,
  "탄핵</w>": 28564,
  "sm</w>": 21714,
  "37</w>": 12076,
  "에</w>": 3961,
  "엔진": 14528,
  "캍</w>": 6581,
  "주차장</w>": 16927,
  "IR": 16996,
  "Km</w>": 22811,
  "용어": 19016,
  "아바타": 26584,
  "아깝": 26530,
  "소한</w>": 12396,
  "건": 141,
  "자체": 7770,
  "췩": 3201,
  "2타점</w>": 28666,
  "식을</w>": 7368,
  "엡</w>": 5316,
  "럸</w>": 5925,
  "연애": 12323,
  "결혼": 8369,
  "뢴": 1257,
  "크기": 26877,
  "여행자에게</w>": 20900,
  "가지고</w>": 7191,
  "대중교통": 28222,
  "--": 14622,
  "언어를</w>": 17604,
  "무엇보다도</w>": 18134,
  "방문해</w>": 17620,
  "텍스트": 14419,
  "돋": 860,
  "입었다</w>": 29256,
  "기득": 26826,
  "주사": 17564,
  "자들": 11529,
  "끓</w>": 5290,
  "앚</w>": 6923,
  "촵": 3152,
  "여름이</w>": 32373,
  "택배": 14698,
  "로스앤젤레스</w>": 28339,
  "2011년": 28113,
  "훵": 3897,
  "팔레": 20748,
  "로우": 13020,
  "시대의</w>": 11263,
  "올바르게</w>": 16973,
  "드림": 13522,
  "에는": 19263,
  "이익을</w>": 12904,
  "예</w>": 4067,
  "리모델링</w>": 32720,
  "사로잡": 26307,
  "일출</w>": 14875,
  "버스를</w>": 16748,
  "울산</w>": 15955,
  "펨</w>": 4978,
  "하길</w>": 17720,
  "상태입니다</w>": 27505,
  "내기</w>": 12211,
  "통": 3483,
  "체제</w>": 13253,
  "엄격한</w>": 24325,
  "앱의</w>": 30597,
  "분열": 20724,
  "생산한</w>": 28535,
  "변하지</w>": 22643,
  "명령</w>": 18009,
  "의한</w>": 8539,
  "한데</w>": 9988,
  "3으로</w>": 29151,
  "게": 156,
  "됩니까</w>": 28193,
  "쿤</w>": 4726,
  "set": 23110,
  "행사에</w>": 19584,
  "졋": 2777,
  "초래할</w>": 30248,
  "받으며</w>": 14861,
  "맞서</w>": 31168,
  "주차": 8961,
  "쥉</w>": 6539,
  "하수": 23660,
  "진을</w>": 10859,
  "제공됩니다</w>": 7589,
  "남성의</w>": 28581,
  "엑스</w>": 19069,
  "스피드": 20953,
  "끝난</w>": 13953,
  "발견했다</w>": 31084,
  "공장을</w>": 27076,
  "하시길</w>": 15019,
  "없는지</w>": 26728,
  "최고": 7515,
  "내며</w>": 19377,
  "해보면</w>": 17187,
  "99": 12610,
  "지정할</w>": 24117,
  "덛": 812,
  "군인</w>": 24752,
  "개념을</w>": 15385,
  "아니더라도</w>": 24575,
  "비치": 16400,
  "첮": 3115,
  "로</w>": 3989,
  "동문": 24688,
  "팎</w>": 6288,
  "과거에</w>": 20064,
  "뀬": 508,
  "보험의</w>": 27589,
  "궁금": 7863,
  "민": 1566,
  "왂</w>": 6424,
  "지지하는</w>": 31105,
  "고객</w>": 9045,
  "감동": 13332,
  "순식": 23158,
  "폅": 3630,
  "게다가</w>": 11499,
  "베이스</w>": 18635,
  "유대": 14836,
  "짭": 2927,
  "깨고</w>": 31092,
  "알람</w>": 27223,
  "Google은</w>": 24549,
  "스도</w>": 17302,
  "가입": 7676,
  "토이</w>": 30478,
  "너도</w>": 20967,
  "??</w>": 9255,
  "스마": 7357,
  "년부터</w>": 9798,
  "we": 12440,
  "슾": 2144,
  "복제": 20238,
  "파악하는</w>": 30895,
  "예로</w>": 17525,
  "맡": 1383,
  "캐피탈</w>": 29166,
  "읖": 2649,
  "탱": 3431,
  "--</w>": 10262,
  "발전을</w>": 13735,
  "PHP</w>": 27788,
  "주의해야</w>": 24107,
  "범</w>": 4471,
  "자체의</w>": 19873,
  "돎</w>": 5625,
  "떨": 1025,
  "듣기</w>": 16453,
  "단과</w>": 16004,
  "언젠가</w>": 17288,
  "tr": 9460,
  "예정된</w>": 29174,
  "시점": 17629,
  "덴</w>": 4573,
  "점차</w>": 13328,
  "충전": 11848,
  "JB": 25283,
  "문서의</w>": 19153,
  "힉": 3947,
  "타이거": 27310,
  "퇼": 3496,
  "합병": 17823,
  "95</w>": 21246,
  "믿고</w>": 11326,
  "고생</w>": 23816,
  "추천하는</w>": 20882,
  "축하합니다</w>": 30186,
  "수면의</w>": 29997,
  "고객님의</w>": 14557,
  "수집하고</w>": 24360,
  "2000": 10434,
  "my</w>": 16593,
  "관계에</w>": 14816,
  "퉈</w>": 6339,
  "애를</w>": 17988,
  "소개</w>": 8511,
  "헤드": 12853,
  "다소</w>": 11165,
  "활용한</w>": 15098,
  "한다</w>": 6946,
  "스캔들</w>": 30218,
  "허가</w>": 15706,
  "니</w>": 4044,
  "메세": 16956,
  "어느날</w>": 28000,
  "고와</w>": 21108,
  "쌤": 2194,
  "게으": 27580,
  "시작된</w>": 14144,
  "과목을</w>": 29102,
  "신상</w>": 22865,
  "쑴</w>": 5313,
  "세웠다</w>": 23554,
  "냔</w>": 5063,
  "시작해서</w>": 22065,
  "본질": 14450,
  "관리하는</w>": 17141,
  "차를</w>": 8332,
  "회사에</w>": 12646,
  "밍</w>": 4762,
  "가능성</w>": 15989,
  "다이아몬드</w>": 24157,
  "아웃을</w>": 16614,
  "뿓": 1891,
  "분리</w>": 19730,
  "Spark</w>": 23705,
  "ERP</w>": 31399,
  "여행계획</w>": 26303,
  "티드</w>": 17809,
  "지적재산": 23128,
  "핌</w>": 5426,
  "꽤</w>": 4982,
  "노력하겠습니다</w>": 23901,
  "GD": 20960,
  "갣": 111,
  "대통령": 7596,
  "쨘": 2947,
  "외환": 20040,
  "이서</w>": 16550,
  "부와</w>": 12499,
  "같은데요</w>": 23811,
  "엔지니어": 24817,
  "보실</w>": 11974,
  "100만원</w>": 28921,
  "여의도": 29705,
  "방지를</w>": 28631,
  "차후</w>": 31773,
  "높아</w>": 25313,
  "모니터링": 26985,
  "진입": 15650,
  "하이틴</w>": 18557,
  "로버트</w>": 25282,
  "김세": 27397,
  "곹</w>": 6235,
  "쁨": 1911,
  "저지른</w>": 29922,
  "펭</w>": 5491,
  "반응을</w>": 14075,
  "석의</w>": 17569,
  "올벳</w>": 32043,
  "LT": 13105,
  "15년</w>": 19241,
  "맄": 1360,
  "매력을</w>": 17242,
  "쿤": 3338,
  "수석</w>": 27158,
  "3타수": 32603,
  "주의는</w>": 23786,
  "몽골</w>": 30576,
  "실전": 20515,
  "내년</w>": 11410,
  "힘들었다</w>": 26895,
  "예수님</w>": 23032,
  "짐작": 18493,
  "적법": 32726,
  "표를</w>": 10770,
  "show": 30392,
  "입문": 23688,
  "SA</w>": 20673,
  "하느냐</w>": 22345,
  "쟀</w>": 6669,
  "사항이</w>": 14463,
  "랐</w>": 5317,
  "정우": 28583,
  "모은": 30325,
  "장관은</w>": 21314,
  "AShemaleTube</w>": 25075,
  "사용자</w>": 8811,
  "그램</w>": 15566,
  "멧": 1438,
  "생년월일</w>": 21780,
  "감소합니다</w>": 32685,
  "지며</w>": 15407,
  "2014": 18749,
  "쯉": 3032,
  "루마": 28245,
  "DT": 29347,
  "남부": 20630,
  "ator</w>": 18155,
  "Tor": 30812,
  "발생하는</w>": 11180,
  "B</w>": 4281,
  "취향에</w>": 26661,
  "이들은</w>": 10464,
  "여행에</w>": 19651,
  "hot</w>": 21408,
  "FO": 18116,
  "뚧": 1083,
  "탄수화": 26378,
  "지를</w>": 7136,
  "현수": 28574,
  "꺗</w>": 6815,
  "씨트립</w>": 26647,
  "아우": 13508,
  "pass": 28483,
  "yst": 9996,
  "콘텐츠</w>": 9048,
  "스턴": 10145,
  "학대</w>": 23051,
  "공간에서</w>": 21192,
  "되": 892,
  "떠올랐다</w>": 32402,
  "가야</w>": 10598,
  "아르바이트</w>": 29701,
  "facebook</w>": 30040,
  "단파</w>": 18210,
  "쥑": 2863,
  "let</w>": 23214,
  "수업을</w>": 14366,
  "혐오": 22056,
  "해보자</w>": 15822,
  "BLACK</w>": 30735,
  "었는데</w>": 9263,
  "성명": 23917,
  "하며</w>": 7035,
  "핫이슈</w>": 27485,
  "응": 2644,
  "말레이": 15844,
  "광": 223,
  "산소": 31098,
  "커리</w>": 17614,
  "연대": 19828,
  "적어도</w>": 11588,
  "병행": 21547,
  "et": 7363,
  "튭</w>": 6203,
  "호텔에서</w>": 11345,
  "그려": 12489,
  "골고루</w>": 29331,
  "꿋</w>": 5943,
  "열렸다</w>": 17318,
  "측": 3215,
  "초콜릿</w>": 24906,
  "똭": 1066,
  "토크</w>": 23993,
  "II": 27903,
  "으니까</w>": 14834,
  "방송에서</w>": 24779,
  "깨": 369,
  "즨</w>": 6799,
  "쳅</w>": 6260,
  "하루를</w>": 17266,
  "긋": 323,
  "공개된</w>": 17435,
  "단절": 31653,
  "rist": 21286,
  "ote</w>": 20529,
  "자동차는</w>": 31235,
  "FW</w>": 26774,
  "스는</w>": 7498,
  "수녀": 32170,
  "나왔다</w>": 11769,
  "드릴": 13027,
  "아오": 30545,
  "시위": 26139,
  "아닐까</w>": 11088,
  "찟": 3052,
  "캄보디아</w>": 29168,
  "검찰은</w>": 25873,
  "참여하는</w>": 17722,
  "훔": 3884,
  "까지": 13108,
  "이지만</w>": 8152,
  "벟": 1647,
  "살게</w>": 23146,
  "근거가</w>": 24521,
  "거주하는</w>": 24256,
  "위치의</w>": 19697,
  "수십": 17101,
  "검색해</w>": 31499,
  "씐": 2312,
  "feat</w>": 22082,
  "벝</w>": 4992,
  "찾아야</w>": 24302,
  "딩을</w>": 22196,
  "당첨자</w>": 22009,
  "셈</w>": 4830,
  "man</w>": 18397,
  "유투": 28060,
  "남길</w>": 23532,
  "정정</w>": 23856,
  "놀랐": 21346,
  "하나": 7008,
  "공부하는</w>": 21017,
  "리와</w>": 9804,
  "했다고</w>": 8287,
  "pe": 17396,
  "성분</w>": 21200,
  "환자가</w>": 17416,
  "서울특별": 10795,
  "컨": 3271,
  "쳤습니다</w>": 32262,
  "쬐</w>": 6155,
  "긱": 336,
  "쾌": 3324,
  "혱": 3823,
  "같</w>": 4700,
  "ace</w>": 11225,
  "업체를</w>": 23714,
  "설교": 15140,
  "자치</w>": 25463,
  "이루어져</w>": 21069,
  "뽝": 1879,
  "가능상품</w>": 22370,
  "독일편</w>": 32690,
  "등은</w>": 8543,
  "평등": 18536,
  "툉</w>": 6650,
  "CS</w>": 24079,
  "시작했고</w>": 27020,
  "하는지에</w>": 28715,
  "CV": 32582,
  "Tube": 24572,
  "시장이</w>": 12886,
  "리한</w>": 25723,
  "김한": 31150,
  "뗵": 1053,
  "의외로</w>": 19351,
  "드려": 12168,
  "입지</w>": 29563,
  "뇌": 667,
  "팀장</w>": 21591,
  "cess</w>": 15723,
  "친환경": 22271,
  "캐릭터가</w>": 24102,
  "아웃소": 31968,
  "맊": 1366,
  "9천": 30714,
  "대표": 7256,
  "콜": 3308,
  "ica</w>": 18553,
  "보이네요</w>": 27706,
  "끁": 511,
  "ike</w>": 29177,
  "세월</w>": 27984,
  "이닝": 27211,
  "들으면서</w>": 31326,
  "두번째</w>": 14689,
  "101</w>": 19286,
  "원격": 17754,
  "돵": 883,
  "핳": 3746,
  "사진이</w>": 13502,
  "소셜": 7576,
  "나들이</w>": 23190,
  "중고차</w>": 19778,
  "구멍을</w>": 31071,
  "시작하지</w>": 25726,
  "칮": 3235,
  "읃": 2631,
  "맛사지</w>": 29493,
  "각각</w>": 9192,
  "쬼</w>": 6869,
  "노컷": 32109,
  "최근에는</w>": 15423,
  "신문의</w>": 29739,
  "보았을</w>": 27901,
  "장난감</w>": 10315,
  "고혈": 16681,
  "명심": 23113,
  "꽝": 452,
  "현이</w>": 21241,
  "리터</w>": 31845,
  "연락하여</w>": 26260,
  "전부터</w>": 10855,
  "ow": 7699,
  "책과</w>": 24620,
  "티셔츠</w>": 12818,
  "잊고</w>": 22481,
  "퓸": 3694,
  "텻": 3469,
  "호</w>": 4290,
  "성적이</w>": 20619,
  "쿠키의</w>": 28546,
  "하이</w>": 11743,
  "지오</w>": 30807,
  "input</w>": 32757,
  "정직": 26556,
  "자율": 11842,
  "Sub": 23977,
  "핣": 3733,
  "8시</w>": 17784,
  "W</w>": 4095,
  "마귀": 28820,
  "였다고</w>": 20356,
  "평가할</w>": 31259,
  "확보하고</w>": 32391,
  "어마어마한</w>": 31839,
  "똘": 1060,
  "길이가</w>": 28241,
  "힡": 3958,
  "움직이고</w>": 30097,
  "엏": 2421,
  "6명</w>": 29712,
  "학부모</w>": 26066,
  "엷": 2448,
  "최강</w>": 26471,
  "매치</w>": 18908,
  "기반": 8690,
  "GO": 22638,
  "였죠</w>": 32708,
  "하나의</w>": 8505,
  "호에</w>": 15856,
  "레슬": 25678,
  "댸": 807,
  "자연스레</w>": 29464,
  "공포": 12357,
  "있었는데</w>": 10445,
  "샌드위치</w>": 30049,
  "어머니": 9708,
  "제재를</w>": 17563,
  "사실입니다</w>": 22140,
  "음식에</w>": 30893,
  "도시": 7789,
  "안성": 27148,
  "인정할</w>": 27057,
  "중시": 22407,
  "닥터": 25305,
  "봉사</w>": 14508,
  "회원수와</w>": 10530,
  "바둑이</w>": 27977,
  "맍": 1368,
  "소녀는</w>": 26261,
  "이상의</w>": 8189,
  "액</w>": 4346,
  "LP</w>": 28704,
  "국의</w>": 8172,
  "기능으로</w>": 25390,
  "!\"</w>": 11590,
  "읮</w>": 6674,
  "비서": 16932,
  "Ye": 30873,
  "냅</w>": 5157,
  "차별</w>": 17374,
  "욀</w>": 6579,
  "냣</w>": 5672,
  "배경과</w>": 29660,
  "사자</w>": 28678,
  "가게</w>": 10160,
  "제1차</w>": 30331,
  "채워</w>": 32187,
  "브를</w>": 13737,
  "생각</w>": 9249,
  "씁니다</w>": 28058,
  "주소를</w>": 13022,
  "줄이고</w>": 21442,
  "땅이</w>": 23941,
  "재구성에</w>": 15406,
  "GIF": 29379,
  "암을</w>": 26591,
  "발로</w>": 18065,
  "바람이</w>": 12187,
  "뉜": 705,
  "쎠": 2227,
  "도와드립니다</w>": 29641,
  "서식": 22647,
  "행에</w>": 25645,
  "서를</w>": 8104,
  "인재를</w>": 27134,
  "적이라고</w>": 21682,
  "시험</w>": 9207,
  "캘리포": 14139,
  "사람이나</w>": 30487,
  "꿈</w>": 4902,
  "일부</w>": 7922,
  "성숙</w>": 24182,
  "op</w>": 11493,
  "ye</w>": 31840,
  "랑은</w>": 31015,
  "미친</w>": 15421,
  "문서": 7652,
  "app": 15198,
  "앫": 2359,
  "inter": 15025,
  "반도체</w>": 15095,
  "식량": 28938,
  "2인</w>": 25042,
  "프로젝트가</w>": 31300,
  "회개": 24291,
  "심리학</w>": 15439,
  "즈에</w>": 26945,
  "보도</w>": 14009,
  "횬</w>": 6124,
  "눈과</w>": 31182,
  "미녀": 31170,
  "섈": 1974,
  "베로니카": 27876,
  "정기": 10447,
  "본래</w>": 20995,
  "궷": 288,
  "파크에서</w>": 31322,
  "개로</w>": 13410,
  "상황": 7254,
  "톻": 3488,
  "logy</w>": 18800,
  "부품을</w>": 30375,
  "이예요</w>": 21743,
  "기관으로</w>": 29506,
  "업이</w>": 18920,
  "오르가슴</w>": 23217,
  "ments</w>": 20930,
  "오이": 25345,
  "이들에게</w>": 18955,
  "툴을</w>": 28412,
  "공간이</w>": 13598,
  "앝": 2351,
  "라이프": 15716,
  "이내의</w>": 11380,
  "도깨": 30190,
  "세상</w>": 9604,
  "전시회</w>": 17513,
  "1주": 28153,
  "륨": 1313,
  "3</w>": 4028,
  "자동차": 8999,
  "오기</w>": 17049,
  "이하": 8996,
  "해</w>": 4146,
  "체험을</w>": 21225,
  "빤</w>": 5779,
  "평범": 12425,
  "웃음이</w>": 32006,
  "복원</w>": 16458,
  "Room</w>": 30872,
  "CM": 25594,
  "일부로</w>": 32518,
  "릇": 1329,
  "속성</w>": 17880,
  "프론트</w>": 19574,
  "동에</w>": 15764,
  "중요하게</w>": 20291,
  "해주시면</w>": 8476,
  "모르고</w>": 12857,
  "꿈은</w>": 23248,
  "불가능합니다</w>": 21830,
  "이행</w>": 26408,
  "유포": 22422,
  "릭스</w>": 17842,
  "만드": 12755,
  "커스": 17613,
  "꼠": 425,
  "기때문에</w>": 23831,
  "쉽다</w>": 21404,
  "턔</w>": 6829,
  "노라</w>": 30463,
  "그러므로</w>": 10136,
  "곽</w>": 4903,
  "세계에서</w>": 12632,
  "TV에서</w>": 31935,
  "무용": 17548,
  "Cor": 17174,
  "청춘": 17339,
  "변화를</w>": 9594,
  "스트리밍</w>": 23426,
  "스런</w>": 13930,
  "공업": 16745,
  "혈관</w>": 25780,
  "실리콘</w>": 21034,
  "맹</w>": 4336,
  "련": 1213,
  "가르침을</w>": 32066,
  "된다고</w>": 9971,
  "트립</w>": 22069,
  "Digital</w>": 23527,
  "오로지</w>": 18444,
  "합격": 10159,
  "GM": 13848,
  "플라자</w>": 23625,
  "자격증": 28199,
  "친구들이</w>": 17873,
  "이상</w>": 7227,
  "푈": 3657,
  "아들</w>": 11000,
  "급을</w>": 28383,
  "퉁</w>": 5177,
  "윾</w>": 6372,
  "등록되어</w>": 28338,
  "상세페이지</w>": 28149,
  "한국과</w>": 16943,
  "싶네요</w>": 16726,
  "국내에서</w>": 17191,
  "이고</w>": 7138,
  "고용</w>": 20870,
  "권리</w>": 14251,
  "품절</w>": 16954,
  "데다</w>": 16491,
  "님</w>": 4045,
  "고마": 13896,
  "토의": 18109,
  "싶지만</w>": 24730,
  "업그레이드</w>": 14738,
  "부르고</w>": 26811,
  "18일</w>": 11101,
  "이한</w>": 13312,
  "카메라가</w>": 29019,
  "편리": 9519,
  "중이신가요</w>": 26055,
  "하니까</w>": 13678,
  "행복": 7585,
  "이긴</w>": 14549,
  "말아야</w>": 16567,
  "땄": 998,
  "그마": 27194,
  "노래를</w>": 14502,
  "휴식": 22896,
  "역에</w>": 15071,
  "치마": 19557,
  "미미": 30475,
  "폭스</w>": 22560,
  "머무": 15823,
  "너무나도</w>": 20574,
  "02</w>": 9096,
  "On": 11109,
  "법의</w>": 9397,
  "떠오르는</w>": 21228,
  "물은</w>": 9493,
  "김정": 10750,
  "챌</w>": 5076,
  "물품을</w>": 28901,
  "64</w>": 16304,
  "다듬": 17726,
  "쎈": 2220,
  "대두": 25427,
  "약간</w>": 10055,
  "etc</w>": 26698,
  "용량이</w>": 26372,
  "분의</w>": 9999,
  "가입할</w>": 26114,
  "사이에서</w>": 14264,
  "집과</w>": 27045,
  "노력이</w>": 17164,
  "인접": 24261,
  "ot</w>": 9571,
  "하기가</w>": 14067,
  "멋": 1424,
  "모양이</w>": 26553,
  "육성": 16679,
  "정이</w>": 8091,
  "오랄</w>": 22437,
  "왁": 2495,
  "나가야</w>": 21365,
  "믈": 1552,
  "인터뷰": 10772,
  "ne</w>": 27338,
  "마라": 13749,
  "업계에</w>": 23505,
  "이용해</w>": 9802,
  "치명": 18380,
  "미칠</w>": 19971,
  "미국의</w>": 9262,
  "만명이</w>": 32664,
  "들어야</w>": 28185,
  "핔": 3719,
  "다이어리</w>": 30726,
  "운</w>": 4275,
  "동물의</w>": 22195,
  "연예인</w>": 17031,
  "재밌": 11790,
  "설정한</w>": 26605,
  "구조로</w>": 25089,
  "즙</w>": 5044,
  "코어": 32243,
  "보면</w>": 7207,
  "슨이</w>": 26876,
  "하셨": 8301,
  "껬": 411,
  "김민": 15299,
  "자신들의</w>": 15874,
  "경영전략</w>": 26193,
  "꾀": 457,
  "무서운</w>": 17193,
  "오스": 24857,
  "소송을</w>": 22193,
  "정보가</w>": 10952,
  "피츠버그</w>": 32717,
  "신한</w>": 15841,
  "ool": 21947,
  "웨어러블</w>": 31472,
  "엉뚱한</w>": 29647,
  "녕": 638,
  "축</w>": 4357,
  "니는</w>": 20473,
  "쭘</w>": 6549,
  "지원해</w>": 26573,
  "하더군요</w>": 17386,
  "곳곳에서</w>": 25181,
  "바른</w>": 10305,
  "클립</w>": 20060,
  "골목": 16653,
  "놈이</w>": 24494,
  "걺": 144,
  "29일</w>": 13007,
  "르의</w>": 28756,
  "구한</w>": 31074,
  "결론</w>": 18665,
  "광고를</w>": 13883,
  "경제에</w>": 25099,
  "겠": 164,
  "back": 32521,
  "관계자</w>": 19616,
  "Pi": 18188,
  "새벽": 13766,
  "토양": 21489,
  "톷": 3484,
  "떠올리": 21353,
  "땨": 1011,
  "아이콘": 14453,
  "꼇": 420,
  "자유무역": 28266,
  "셍</w>": 5488,
  "허리</w>": 21397,
  "맞은": 32072,
  "NEW</w>": 18461,
  "Set": 30087,
  "바람직한</w>": 18385,
  "음악은</w>": 28331,
  "받았습니다</w>": 14572,
  "똭</w>": 6840,
  "청렴": 30840,
  "2017": 11390,
  "불법</w>": 10000,
  "갖지</w>": 25628,
  "냣": 582,
  "뷰": 1762,
  "어느정도</w>": 16758,
  "느껴지": 22861,
  "술이</w>": 20791,
  "정권을</w>": 31798,
  "사냥</w>": 32169,
  "상담</w>": 9297,
  "례를</w>": 16398,
  "vis": 12105,
  "문헌</w>": 30006,
  "퀵</w>": 4943,
  "발표하고</w>": 30627,
  "렀</w>": 5159,
  "뉘": 703,
  "푠": 3660,
  "이뤄진</w>": 28444,
  "빪</w>": 6865,
  "접속</w>": 13051,
  "리기</w>": 10385,
  "요약설명</w>": 18727,
  "자유를</w>": 17762,
  "온라인소개팅앱": 32620,
  "홈페이지의</w>": 31353,
  "급여": 14654,
  "확인한</w>": 21094,
  "예를</w>": 8743,
  "azz": 30070,
  "촉진": 15391,
  "1980": 13579,
  "4차</w>": 12545,
  "빈곤": 19364,
  "제조사</w>": 24070,
  "Z</w>": 4359,
  "승인": 14207,
  "인삼": 28999,
  "고추": 20269,
  "공립": 30944,
  "보": 1682,
  "얏</w>": 5400,
  "본사는</w>": 19328,
  "보려고</w>": 18705,
  "어이": 30252,
  "덕분": 28384,
  "시설과</w>": 17443,
  "레이드</w>": 19721,
  "깥</w>": 4877,
  "격려": 17090,
  "처리할</w>": 20350,
  "추산": 28509,
  "시리즈는</w>": 27197,
  "헥</w>": 4972,
  "성능": 9612,
  "블리자": 23072,
  "Bas": 21929,
  "쯕</w>": 5933,
  "확인": 7124,
  "테스트를</w>": 16462,
  "슙": 2123,
  "인정</w>": 14856,
  "털</w>": 4691,
  "최강": 24621,
  "단순한</w>": 12982,
  "이의": 27553,
  "조직</w>": 10961,
  "싶은데</w>": 14531,
  "런</w>": 4539,
  "교류를</w>": 31730,
  "관념": 18928,
  "하냐</w>": 27726,
  "딱히</w>": 16314,
  "케이스를</w>": 32117,
  "과거의</w>": 16027,
  "강화": 9178,
  "비판</w>": 18963,
  "곡의</w>": 24644,
  "윻": 2625,
  "카메라": 10596,
  "스러운</w>": 8754,
  "전개": 13244,
  "진로": 18810,
  "대학</w>": 8021,
  "시민이</w>": 26131,
  "무시한</w>": 30708,
  "환율</w>": 26531,
  "글로벌</w>": 8909,
  "회화</w>": 18324,
  "3년</w>": 7972,
  "진주": 19017,
  "니라</w>": 13439,
  "날에</w>": 12126,
  "dia</w>": 14401,
  "이룰</w>": 21237,
  "남녀": 13703,
  "뎃": 835,
  "기간의</w>": 28369,
  "단행": 27531,
  "문화를</w>": 11802,
  "따뜻한</w>": 10449,
  "수영장</w>": 10592,
  "딜": 975,
  "후반": 14630,
  "실린</w>": 31654,
  "ears</w>": 14812,
  "마을에</w>": 25676,
  "댐": 791,
  "큘": 3370,
  "그렇게</w>": 7524,
  "School</w>": 32432,
  "쥠</w>": 5621,
  "독특": 11122,
  "출장": 11157,
  "만든": 17923,
  "html</w>": 25495,
  "22일</w>": 12059,
  "깨</w>": 4382,
  "발표회</w>": 30317,
  "홮": 3852,
  "Hum": 32123,
  "안한</w>": 29336,
  "승용": 22512,
  "여기</w>": 9295,
  "슝</w>": 5489,
  "선도": 15810,
  "수익</w>": 17655,
  "이지": 14336,
  "딕</w>": 5149,
  "량</w>": 4252,
  "enz": 30536,
  "썬": 2209,
  "노스": 25845,
  "실수를</w>": 20420,
  "췰</w>": 5888,
  "깹</w>": 6468,
  "하시고</w>": 10335,
  "붆": 1734,
  "초상": 26018,
  "앁": 2328,
  "해도</w>": 7465,
  "정밀": 18918,
  "섞여</w>": 30497,
  "계절": 11251,
  "뺍": 1820,
  "벚꽃": 32550,
  "ices</w>": 21075,
  "연대</w>": 14912,
  "두렵": 27378,
  "개인적</w>": 21597,
  "여행에서</w>": 17739,
  "인지된</w>": 22368,
  "디오</w>": 8075,
  "구독": 12606,
  "사용한</w>": 12568,
  "20페이지</w>": 20081,
  "정식": 21747,
  "멫": 1442,
  "대상을</w>": 19745,
  "룸": 1283,
  "보이는</w>": 8160,
  "수령": 12929,
  "정치가</w>": 32312,
  "포함하는</w>": 14692,
  "목표는</w>": 16775,
  "활용</w>": 10005,
  "접근이</w>": 27683,
  "목욕</w>": 25454,
  "생존</w>": 29941,
  "취할</w>": 18257,
  "바른": 15913,
  "매력": 10689,
  "업데이트가</w>": 20037,
  "LG유": 26896,
  "중단": 11550,
  "릲": 1349,
  "마크": 13271,
  "경고": 16696,
  "섺": 2001,
  "다큐": 18374,
  "big": 19683,
  "초가</w>": 26062,
  "타이어</w>": 17304,
  "패밀리": 27225,
  "사회학</w>": 24311,
  "줄": 2837,
  "공사</w>": 9991,
  "솃": 2033,
  "시험이</w>": 30511,
  "초보": 14437,
  "벤투": 28155,
  "자기가</w>": 13222,
  "산</w>": 4075,
  "휐": 3905,
  "않겠": 18659,
  "맏": 1370,
  "공간과</w>": 31800,
  "네오": 27329,
  "거쳐</w>": 11712,
  "변하는</w>": 21563,
  "특히</w>": 7291,
  "립</w>": 4372,
  "공통": 12155,
  "펌웨어</w>": 31950,
  "총계만이</w>": 21173,
  "톩": 3479,
  "겁": 146,
  "몫을</w>": 29993,
  "자전거를</w>": 21561,
  "시작을</w>": 20904,
  "모임을</w>": 24366,
  "술집</w>": 28310,
  "대처</w>": 31520,
  "리는</w>": 7094,
  "분쟁요소</w>": 8735,
  "흔한</w>": 20127,
  "호텔에는</w>": 12421,
  "앱이</w>": 25563,
  "차도</w>": 15066,
  "커넥": 16779,
  "메이트</w>": 31995,
  "긾": 342,
  "블로그가</w>": 29910,
  "난이도</w>": 25931,
  "31일까지</w>": 17208,
  "지정한</w>": 23752,
  "사춘": 22393,
  "뒈": 927,
  "이나마</w>": 24720,
  "좋아진</w>": 27833,
  "조건</w>": 8850,
  "연중</w>": 19073,
  "영역에서</w>": 23438,
  "두었": 23442,
  "SW</w>": 22772,
  "device</w>": 17701,
  "이곳은</w>": 18821,
  "주최</w>": 22390,
  "매입</w>": 31328,
  "모델을</w>": 14416,
  "사우디아라비아</w>": 32120,
  "하계</w>": 28429,
  "해석</w>": 11821,
  "탈퇴</w>": 17397,
  "운동은</w>": 20602,
  "다시피</w>": 17879,
  "질로</w>": 22594,
  "해보지</w>": 31915,
  "2페이지의</w>": 30276,
  "의도": 12922,
  "번씩</w>": 21981,
  "터에서</w>": 21823,
  "베이지</w>": 19309,
  "익숙": 13085,
  "오락": 15083,
  "프로세스를</w>": 26250,
  "잡을</w>": 13408,
  "옌": 2464,
  "분리": 11478,
  "여자": 7823,
  "퍼를</w>": 27178,
  "다가도</w>": 29163,
  "예약": 7933,
  "동물</w>": 11408,
  "프로": 6984,
  "큅": 3364,
  "7개월</w>": 31357,
  "시드": 18833,
  "눼</w>": 5931,
  "도박</w>": 10839,
  "d</w>": 4261,
  "제발</w>": 16012,
  "단독</w>": 13300,
  "쏬": 2243,
  "간에</w>": 8810,
  "정형": 22335,
  "방송은</w>": 31389,
  "안심": 14172,
  "ye": 13495,
  "좋은</w>": 7040,
  "보지</w>": 9364,
  "렸</w>": 5048,
  "쓔": 2292,
  "지대</w>": 23565,
  "냈</w>": 5397,
  "상가": 27303,
  "실적</w>": 15796,
  "겠어요</w>": 12766,
  "처리에</w>": 17956,
  "뺏</w>": 6278,
  "혜": 3818,
  "듀얼": 23867,
  "서양": 13656,
  "있어요</w>": 8126,
  "본부</w>": 13337,
  "재활</w>": 28103,
  "고화질</w>": 19243,
  "BO": 13745,
  "쇽</w>": 5785,
  "A급</w>": 30506,
  "마리아</w>": 23475,
  "영재": 28634,
  "뢿": 1260,
  "렝</w>": 5389,
  "사고의</w>": 25131,
  "헤어": 10969,
  "현명한</w>": 25871,
  "셩</w>": 5146,
  "L을</w>": 17906,
  "교수": 9465,
  "읶</w>": 5140,
  "step</w>": 25702,
  "됨": 898,
  "사례를</w>": 14355,
  "던지는</w>": 19555,
  "레포트</w>": 10970,
  "문제점": 27307,
  "정책과</w>": 19180,
  "얼": 2407,
  "삼겹": 23315,
  "갚": 105,
  "남기": 12057,
  "Comp": 14644,
  "치료를</w>": 11789,
  "박물관</w>": 10827,
  "넘어서</w>": 23763,
  "켠</w>": 5801,
  "훔</w>": 5344,
  "럭": 1176,
  "주소로</w>": 21420,
  "음</w>": 4184,
  "것인가</w>": 10054,
  "것</w>": 4235,
  "쾃</w>": 5499,
  "읨": 2654,
  "쩔": 2962,
  "액세": 10710,
  "미국이</w>": 14595,
  "RE": 10801,
  "놋": 653,
  "뤨": 1298,
  "트": 3533,
  "결론을</w>": 21163,
  "v</w>": 4143,
  "지나가는</w>": 23759,
  "표정": 32290,
  "닷</w>": 4398,
  "냥": 584,
  "년생</w>": 16292,
  "도서관": 26733,
  "하므로</w>": 12032,
  "ected</w>": 27163,
  "밥</w>": 4690,
  "한국인</w>": 14988,
  "좇</w>": 6320,
  "내일": 28842,
  "괭</w>": 6498,
  "토실</w>": 23768,
  "훤": 3894,
  "눞": 692,
  "PS</w>": 12063,
  "저기</w>": 14878,
  "떨어질</w>": 24825,
  "PG": 11147,
  "스에서</w>": 9725,
  "냉장고</w>": 13550,
  "읽었습니다</w>": 25847,
  "욕설을</w>": 21201,
  "롱": 1240,
  "1960": 21304,
  "미터</w>": 8747,
  "Pet": 28570,
  "킄</w>": 6208,
  "불과</w>": 15134,
  "모델에서</w>": 21327,
  "누군가에게</w>": 30589,
  "레드": 13521,
  "ton": 23718,
  "예전에는</w>": 24183,
  "라인을</w>": 21741,
  "하이라이트</w>": 22184,
  "겠지</w>": 14668,
  "대통령에</w>": 30878,
  "카드에</w>": 30479,
  "부분에</w>": 11075,
  "돍": 862,
  "장관을</w>": 29503,
  "이럴</w>": 18740,
  "솽</w>": 5952,
  "시트": 26623,
  "피트</w>": 20875,
  "벨라": 31202,
  "조인": 28300,
  "날부터</w>": 17801,
  "닮</w>": 5425,
  "Produc": 26866,
  "씩": 2318,
  "며": 1445,
  "원전</w>": 24185,
  "덩어": 22276,
  "민주</w>": 27724,
  "ference</w>": 23699,
  "해당</w>": 7275,
  "조가</w>": 15457,
  "88": 12473,
  "찾아보기</w>": 32460,
  "퓌</w>": 6064,
  "일으킬</w>": 20896,
  "스테판</w>": 29016,
  "r</w>": 3975,
  "방송": 7681,
  "전반": 9896,
  "갈까</w>": 30646,
  "쟁</w>": 4425,
  "퍼즐</w>": 24086,
  "신차": 23298,
  "랲</w>": 5507,
  "유리한</w>": 19423,
  "종류에</w>": 26748,
  "신흥": 28960,
  "당에</w>": 15730,
  "쥡": 2867,
  "교육</w>": 7402,
  "요구하고</w>": 25837,
  "아디다스</w>": 30928,
  "니다</w>": 6930,
  "나누기</w>": 32656,
  "어쨌든</w>": 14708,
  "이는": 30534,
  "판매</w>": 8786,
  "해줘야</w>": 27473,
  "삶에서</w>": 29515,
  "짔": 2907,
  "멩</w>": 5692,
  "연장": 12979,
  "겥": 166,
  "야가</w>": 32220,
  "종류의</w>": 11709,
  "가능하게</w>": 17000,
  "누리": 10743,
  "매매": 12820,
  "충돌": 15022,
  "컨벤": 19151,
  "구청</w>": 26792,
  "펼칠</w>": 27305,
  "FC": 16316,
  "노란": 20944,
  "제자": 32509,
  "빛과</w>": 30104,
  "샆": 1946,
  "날도</w>": 27838,
  "ML</w>": 12300,
  "색다른</w>": 22666,
  "미를</w>": 13164,
  "때까지</w>": 9850,
  "생기지</w>": 30956,
  "경비</w>": 28899,
  "뒺": 938,
  "뀨": 507,
  "되겠습니다</w>": 18608,
  "걸음을</w>": 23278,
  "같다는</w>": 18030,
  "세이": 11028,
  "주력": 19355,
  "PG</w>": 15485,
  "컨</w>": 4867,
  "기다리고</w>": 13315,
  "드려요</w>": 14556,
  "CN": 14649,
  "자의</w>": 7115,
  "쏟아져</w>": 31731,
  "선생님의</w>": 21062,
  "출근": 16284,
  "껑": 402,
  "Tr": 10361,
  "웹툰</w>": 18981,
  "F</w>": 4122,
  "경력</w>": 12675,
  "콤": 3309,
  "나서</w>": 9075,
  "lic": 30629,
  "얆": 2376,
  "쟌</w>": 5511,
  "즐겁게</w>": 13511,
  "쓰면서</w>": 27131,
  "저지는</w>": 25623,
  "아직은</w>": 16320,
  "조사한</w>": 30912,
  "반송": 31225,
  "스가</w>": 7818,
  "다닌": 26482,
  "클릭</w>": 10408,
  "Home</w>": 17660,
  "녁</w>": 5088,
  "다른인종간</w>": 16929,
  "회의실에서</w>": 29344,
  "맞대결": 21276,
  "국민들의</w>": 22344,
  "사형": 27869,
  "베트남</w>": 12058,
  "평양</w>": 16729,
  "아프": 11360,
  "스": 2127,
  "테</w>": 4023,
  "2002년</w>": 16124,
  "시기가</w>": 22160,
  "콘텐츠는</w>": 20510,
  "소프트가</w>": 8805,
  "몫</w>": 6345,
  "손님": 12534,
  "적발": 27665,
  "Wel": 31955,
  "신다</w>": 20792,
  "취해</w>": 26643,
  "히트": 21358,
  "권이</w>": 11857,
  "부평": 32288,
  "투자자</w>": 18710,
  "가운데</w>": 8124,
  "활발한</w>": 24433,
  "으므로</w>": 15137,
  "이익이</w>": 21925,
  "마사지</w>": 9826,
  "야채": 22640,
  "롲": 1241,
  "스트리": 11827,
  "랖</w>": 6177,
  "등록": 7388,
  "않은": 15969,
  "광역": 15769,
  "사용하던</w>": 30990,
  "좔</w>": 6511,
  "파스타</w>": 32529,
  "악</w>": 4811,
  "찰": 3065,
  "일으킨</w>": 28451,
  "쑨</w>": 6132,
  "달려</w>": 15497,
  "전문성을</w>": 32698,
  "단점이</w>": 20911,
  "훟</w>": 6556,
  "템": 3459,
  "귀염둥이</w>": 30470,
  "유일한</w>": 12133,
  "Ta": 13720,
  "소득이</w>": 25177,
  "공부하고</w>": 22145,
  "셥": 2022,
  "귿": 316,
  "ding</w>": 16479,
  "움직이는</w>": 15894,
  "띌": 1124,
  "가에서</w>": 18148,
  "입니다</w>": 6944,
  "매체": 15737,
  "고백": 16060,
  "싈": 2147,
  "않기로</w>": 32238,
  "쀅": 1900,
  "파도</w>": 32088,
  "장학금</w>": 19969,
  "냇</w>": 6114,
  "륚": 1310,
  "중동": 27804,
  "업체의</w>": 19154,
  "느낌은</w>": 23613,
  "유념": 24698,
  "아테": 24007,
  "성경을</w>": 21570,
  "오락실</w>": 21800,
  "론</w>": 4114,
  "조선의</w>": 24547,
  "시대</w>": 8772,
  "New</w>": 14310,
  "공격을</w>": 16442,
  "느냐에</w>": 27059,
  "선택합니다</w>": 17273,
  "주사</w>": 25272,
  "괜찮다고</w>": 28759,
  "히지</w>": 20821,
  "16개</w>": 31574,
  "m</w>": 4022,
  "어가</w>": 9388,
  "쎄": 2217,
  "눌러": 15813,
  "엇": 2414,
  "me</w>": 10995,
  "북쪽</w>": 30773,
  "싣</w>": 6184,
  "밌": 1574,
  "적힌</w>": 31082,
  "시점에서</w>": 18554,
  "입니까</w>": 10972,
  "30분": 15160,
  "평생": 12740,
  "솹": 2055,
  "길로</w>": 16534,
  "욕실": 28299,
  "S는</w>": 27182,
  "드는</w>": 7302,
  "혈액</w>": 29638,
  "쓱": 2298,
  "ame</w>": 12030,
  "내리": 14017,
  "t</w>": 3983,
  "교육청</w>": 18607,
  "히고</w>": 12854,
  "생각과</w>": 20710,
  "태블릿": 20146,
  "드를</w>": 7532,
  "고조": 28295,
  "확인했다</w>": 31102,
  "굴</w>": 4721,
  "학원</w>": 11861,
  "FA": 10666,
  "유명": 10748,
  "섹시</w>": 16802,
  "통증을</w>": 28475,
  "이라": 6965,
  "진료를</w>": 30042,
  "이체</w>": 23359,
  "방학</w>": 20560,
  "19세</w>": 26697,
  "화장": 8303,
  "햔</w>": 5922,
  "아빠의</w>": 24339,
  "멘토": 15252,
  "데이트</w>": 15433,
  "들": 952,
  "익스플로러</w>": 31580,
  "id": 9067,
  "갌</w>": 6783,
  "실시했다</w>": 32762,
  "즩</w>": 6572,
  "부실": 24367,
  "보관": 9778,
  "ple": 27412,
  "야간</w>": 20276,
  "봉을</w>": 28729,
  "갑자기</w>": 9693,
  "사회가</w>": 14543,
  "XoZilla</w>": 27205,
  "이유는</w>": 8442,
  "한마디": 15392,
  "크래프트</w>": 25320,
  "삣</w>": 5665,
  "훕</w>": 5780,
  "ency</w>": 23526,
  "ull</w>": 15725,
  "대통령에게</w>": 27559,
  "흙": 3928,
  "볍": 1670,
  "AL": 15096,
  "마찬가지</w>": 25744,
  "으로부터</w>": 9056,
  "뚱녀</w>": 18686,
  "메카": 27092,
  "쐇</w>": 6188,
  "오버</w>": 19081,
  "돼지": 16220,
  "유형": 9956,
  "안되는</w>": 12455,
  "섹시한": 10402,
  "보험에</w>": 27264,
  "000만</w>": 27526,
  "주문</w>": 9610,
  "성격이</w>": 22250,
  "파생": 23460,
  "트가</w>": 8257,
  "자재": 32222,
  "흘러": 12692,
  "있는지에</w>": 30693,
  "금방</w>": 15915,
  "유명한</w>": 9977,
  "처럼</w>": 7129,
  "31일</w>": 13016,
  "포트를</w>": 27524,
  "국외</w>": 30295,
  "할부</w>": 32442,
  "지나치게</w>": 17009,
  "물</w>": 4429,
  "답": 775,
  "레이션</w>": 14003,
  "수출</w>": 17625,
  "싸움을</w>": 23081,
  "설명을</w>": 13070,
  "여러분</w>": 11324,
  "배우는</w>": 14236,
  "꿁": 475,
  "다섯": 20248,
  "무장": 17306,
  "고려": 8240,
  "성희롱</w>": 29051,
  "계약서</w>": 24432,
  "팹</w>": 5580,
  "teen</w>": 20891,
  "샤워</w>": 13615,
  "신청</w>": 8580,
  "Re</w>": 23286,
  "딫": 983,
  "텃</w>": 5661,
  "미스터": 22443,
  "침대</w>": 9546,
  "뺼": 1833,
  "뒁": 926,
  "추천합니다</w>": 17353,
  "행동</w>": 12351,
  "정으로</w>": 10543,
  "권의</w>": 10820,
  "서비스</w>": 7067,
  "모르겠습니다</w>": 17239,
  "원하지</w>": 22037,
  "뫠": 1492,
  "쇄</w>": 4540,
  "대리": 9507,
  "머리가</w>": 16142,
  "상황</w>": 10368,
  "이에": 19099,
  "주시길</w>": 26068,
  "정면</w>": 29198,
  "남동</w>": 19405,
  "벗어날</w>": 25730,
  "600": 13487,
  "그러던</w>": 25479,
  "000": 7786,
  "그린</w>": 11301,
  "베테": 18282,
  "붚</w>": 6686,
  "바랍니다</w>": 7295,
  "목적에의</w>": 26523,
  "상표</w>": 28400,
  "싻": 2177,
  "읽으": 30466,
  "뱅크</w>": 17970,
  "생애</w>": 21580,
  "삭": 1926,
  "파스": 29323,
  "쯘": 3036,
  "반복</w>": 16237,
  "틱스</w>": 25891,
  "이것</w>": 16489,
  "박재": 25932,
  "힐튼</w>": 23496,
  "륫</w>": 5637,
  "뫄</w>": 6431,
  "김미": 28618,
  "신뢰": 8942,
  "연재</w>": 22067,
  "되었어요</w>": 23951,
  "쐰": 2259,
  "절로</w>": 16205,
  "정상에</w>": 24962,
  "동부": 15481,
  "부엌": 27582,
  "기다": 7909,
  "거론": 19779,
  "곱</w>": 4958,
  "정리</w>": 10050,
  "크로스": 15601,
  "이주": 14382,
  "work</w>": 16365,
  "ss": 18676,
  "달라</w>": 13275,
  "속도를</w>": 14919,
  "이외에</w>": 19322,
  "땅에</w>": 14991,
  "사람들에</w>": 30094,
  "불리는</w>": 13537,
  "스냅": 21540,
  "media</w>": 28686,
  "선거를</w>": 24196,
  "사망한</w>": 27286,
  "츅</w>": 6604,
  "하이힐</w>": 22248,
  "쑬</w>": 5008,
  "도시에</w>": 25169,
  "신약": 26336,
  "단계에서</w>": 18515,
  "오늘": 7554,
  "관계의</w>": 17940,
  "원리를</w>": 21528,
  "린</w>": 4273,
  "22페이지</w>": 22995,
  "올림픽": 10909,
  "특": 3534,
  "벡터</w>": 17351,
  "투쟁을</w>": 31898,
  "둴</w>": 6154,
  "isco</w>": 26947,
  "시원한</w>": 16658,
  "공구</w>": 26358,
  "벨</w>": 4634,
  "자산을</w>": 27554,
  "aper</w>": 28391,
  "서비스로는</w>": 22002,
  "해보세요</w>": 12557,
  "연한</w>": 18052,
  "트위터로</w>": 26582,
  "경기장</w>": 20272,
  "칟</w>": 6243,
  "결과</w>": 7653,
  "처치</w>": 32337,
  "MMOR": 31274,
  "세스</w>": 22627,
  "슴</w>": 4513,
  "있으며</w>": 7107,
  "탕</w>": 4394,
  "서로</w>": 7935,
  "둘러싼</w>": 17357,
  "누릴</w>": 18655,
  "게스트</w>": 20541,
  "1호": 25615,
  "그립": 22237,
  "시장</w>": 7745,
  "추운</w>": 19118,
  "2001</w>": 24745,
  "환영": 12281,
  "뙇": 1071,
  "옝": 2471,
  "충성": 29112,
  "부서": 16249,
  "미리</w>": 8700,
  "받으실</w>": 15449,
  "74</w>": 11383,
  "그렇다</w>": 14041,
  "보기가</w>": 28951,
  "꿜": 488,
  "기보다</w>": 25459,
  "일부개정": 30428,
  "갤": 112,
  "ES</w>": 21083,
  "일어나": 15211,
  "GO</w>": 24092,
  "국내</w>": 7620,
  "줬</w>": 5983,
  "분만큼</w>": 22061,
  "수분": 26198,
  "투쟁</w>": 26465,
  "92</w>": 26216,
  "300</w>": 16701,
  "우아한</w>": 28452,
  "월급": 19284,
  "리라</w>": 10641,
  "조건": 7663,
  "쒯</w>": 6857,
  "ther": 24813,
  "조계": 32076,
  "받아들": 9820,
  "설명한다</w>": 26143,
  "시기를</w>": 14942,
  "모습으로</w>": 15386,
  "광범": 17227,
  "잏": 2685,
  "받아야</w>": 12531,
  "mod": 22926,
  "아름": 7597,
  "들어와</w>": 21787,
  "쩽</w>": 6616,
  "면을</w>": 9487,
  "유리</w>": 13871,
  "이탈리아어</w>": 19417,
  "사실</w>": 7667,
  "스웨덴": 20838,
  "아무것도</w>": 11840,
  "yr": 11758,
  "개헌": 23638,
  "if": 9872,
  "뭔": 1526,
  "배를</w>": 10717,
  "감정을</w>": 15028,
  "깉": 351,
  "여자친구</w>": 17695,
  "타수</w>": 19178,
  "iPh": 14270,
  "찾기</w>": 8773,
  "보냈습니다</w>": 31134,
  "핑크": 20080,
  "파이프</w>": 30551,
  "일리": 24342,
  "메모리</w>": 11644,
  "휠체": 20589,
  "스코어</w>": 11961,
  "해외배송</w>": 21328,
  "혖": 3816,
  "하단에</w>": 25879,
  "어학": 10885,
  "사업과</w>": 29392,
  "명의</w>": 7562,
  "성분": 28871,
  "fur": 29154,
  "슌": 2119,
  "됌</w>": 5807,
  "스퍼": 26542,
  "man": 13850,
  "이전글</w>": 27757,
  "plor": 23799,
  "앱": 2361,
  "짼": 2936,
  "세번째</w>": 28679,
  "가끔씩</w>": 28433,
  "힙합": 29391,
  "뫅": 1485,
  "괌</w>": 5510,
  "백만</w>": 18117,
  "anal": 21335,
  "산행": 30632,
  "일간": 26353,
  "쥘": 2865,
  "쩝": 2964,
  "쭉</w>": 5238,
  "부모님": 18647,
  "겨울에</w>": 24492,
  "남아있는</w>": 25746,
  "부담없이</w>": 31055,
  "웹캠</w>": 13640,
  "발생하기</w>": 19383,
  "용": 2535,
  "쬰": 3015,
  "사태": 12474,
  "apter</w>": 21899,
  "후보를</w>": 28623,
  "성공적인</w>": 17771,
  "필립": 27571,
  "신이</w>": 11387,
  "젯": 2765,
  "하루하루</w>": 32715,
  "이른바</w>": 18258,
  "디오": 9347,
  "쭛": 3024,
  "com의</w>": 31895,
  "업체들은</w>": 29438,
  "정보도</w>": 30524,
  "흑": 3924,
  "있는지</w>": 8788,
  "융합</w>": 27676,
  "이같이</w>": 26555,
  "밥은</w>": 32665,
  "화려한</w>": 12898,
  "기록": 7393,
  "공정": 10364,
  "전송하는</w>": 31566,
  "195": 12865,
  "제도에</w>": 28506,
  "평가가</w>": 21384,
  "녜": 642,
  "뀨</w>": 5136,
  "수없는</w>": 26118,
  "박영": 22190,
  "큭</w>": 5330,
  "IST</w>": 24592,
  "좐": 2804,
  "께서</w>": 8072,
  "영어</w>": 8290,
  "학생들을</w>": 18995,
  "스탠튼": 12951,
  "익숙한</w>": 19137,
  "사회는</w>": 16428,
  "뷹": 1766,
  "대인": 26693,
  "뇔": 669,
  "금을</w>": 8259,
  "경제가</w>": 22159,
  "전기통신": 27719,
  "DI": 12671,
  "umber</w>": 25743,
  "소음</w>": 23045,
  "위원장은</w>": 18959,
  "운이</w>": 13750,
  "보기를</w>": 19237,
  "소에</w>": 10810,
  "터로</w>": 14758,
  "부지": 16170,
  "읅</w>": 6271,
  "인정했다</w>": 32210,
  "댠</w>": 6047,
  "도록</w>": 7057,
  "회복": 10283,
  "혁</w>": 4585,
  "ives</w>": 32019,
  "쳑</w>": 6337,
  "있더라도</w>": 30054,
  "최상": 28660,
  "유튜브": 17934,
  "주차도</w>": 25637,
  "연은</w>": 17634,
  "2020년</w>": 28377,
  "대표팀</w>": 16993,
  "돌이": 19015,
  "급격": 19523,
  "오케스트라</w>": 29511,
  "굇": 238,
  "Qu": 12083,
  "블록체인</w>": 15356,
  "교": 240,
  "에르": 17537,
  "금합니다</w>": 11607,
  "락</w>": 4400,
  "운반": 25196,
  "출시</w>": 10393,
  "본격적인</w>": 15722,
  "회에서</w>": 9175,
  "주년을</w>": 17812,
  "비행기를</w>": 27835,
  "이루어진</w>": 15470,
  "뤄</w>": 4659,
  "욖": 2527,
  "저기": 27000,
  "지형은</w>": 21983,
  "애완": 19246,
  "관해서</w>": 30901,
  "신뢰성</w>": 20325,
  "움직임이</w>": 26975,
  "교양</w>": 28020,
  "일은</w>": 7998,
  "angu": 19228,
  "이루고</w>": 18747,
  "율": 2613,
  "피니": 23840,
  "대표적인</w>": 11121,
  "듐": 943,
  "고향": 16261,
  "3회</w>": 15696,
  "sk": 13685,
  "시뮬레이션</w>": 26274,
  "movi": 24657,
  "슬로": 17460,
  "톱": 3481,
  "c</w>": 4377,
  "단순</w>": 16466,
  "그때는</w>": 17013,
  "중화": 21988,
  "받는": 28707,
  "크리스마": 11062,
  "일체": 23981,
  "계획하고</w>": 26714,
  "구축하고</w>": 29017,
  "Cer": 32718,
  "뻗": 1841,
  "스토리</w>": 10008,
  "셔": 2016,
  "방송</w>": 8384,
  "물의</w>": 8929,
  "한거</w>": 23348,
  "쟤</w>": 5629,
  "70": 8661,
  "기구</w>": 11918,
  "Be</w>": 26500,
  "피해보": 31188,
  "유틸": 22952,
  "모빌": 29333,
  "나왔습니다</w>": 20546,
  "데스크": 13442,
  "호텔을</w>": 11182,
  "USB</w>": 10618,
  "나노": 18402,
  "많고</w>": 12156,
  "봘</w>": 6403,
  "쏸</w>": 6803,
  "and</w>": 7809,
  "나아가</w>": 14199,
  "티비</w>": 12553,
  "왜냐": 11830,
  "뀄": 499,
  "부분</w>": 7942,
  "thro": 14408,
  "쩅": 2958,
  "고스": 16134,
  "병": 1673,
  "내어</w>": 15638,
  "월드컵": 15012,
  "태도가</w>": 32469,
  "ID</w>": 9699,
  "자기계": 31141,
  "맞을</w>": 24111,
  "2시간</w>": 15070,
  "악을</w>": 24084,
  "플로리": 29141,
  "소리</w>": 9480,
  "빙": 1795,
  "소니</w>": 17921,
  "즐겁": 11313,
  "자료": 7099,
  "최대</w>": 7874,
  "미네소타</w>": 29642,
  "여태": 32707,
  "프</w>": 4014,
  "나서야</w>": 30405,
  "18세</w>": 26904,
  "균": 304,
  "승인</w>": 15806,
  "집필": 30268,
  "설명회</w>": 22546,
  "곫": 201,
  "작성하는</w>": 28944,
  "led</w>": 17212,
  "마크</w>": 12005,
  "관세": 22916,
  "귻": 312,
  "정상</w>": 13519,
  "대화를</w>": 12753,
  "번도</w>": 16213,
  "빳</w>": 6363,
  "BI</w>": 31217,
  "대략": 22848,
  "불렀": 25501,
  "간략": 12998,
  "추모": 24163,
  "붉은</w>": 16183,
  "킻</w>": 6885,
  "등에</w>": 8028,
  "인더": 21501,
  "삿": 1939,
  "Cal": 20416,
  "해지": 9647,
  "잡화</w>": 30041,
  "토너": 22030,
  "열리는</w>": 12367,
  "안에</w>": 7763,
  "]'</w>": 22518,
  "퓨": 3689,
  "선택이</w>": 18761,
  "관련한</w>": 13083,
  "15일</w>": 11106,
  "배터리</w>": 12643,
  "있으": 7332,
  "고": 195,
  "레이저": 31192,
  "보이</w>": 17081,
  "설치</w>": 8432,
  "귀하의</w>": 11771,
  "평소</w>": 13113,
  "한국을</w>": 17824,
  "백성": 17998,
  "뭘</w>": 5706,
  "없게</w>": 12648,
  "Doc": 24080,
  "두드러": 22215,
  "보여주기": 20409,
  "해수": 14480,
  "동의를</w>": 14235,
  "컨텐츠에</w>": 19939,
  "했습니다</w>": 7177,
  "테르": 22835,
  "귪</w>": 6378,
  "Booking</w>": 26699,
  "박주": 27631,
  "활발히</w>": 30673,
  "시카": 13142,
  "등급": 11339,
  "44": 15274,
  "그룹</w>": 8019,
  "쏩": 2241,
  "활발하게</w>": 28577,
  "곁": 183,
  "심지어는</w>": 27922,
  "학교에서</w>": 13450,
  "강조하는</w>": 25499,
  "쨔</w>": 5668,
  "사고를</w>": 15735,
  "기사를</w>": 12878,
  "조의": 27085,
  "개발된</w>": 26151,
  "다나와</w>": 29304,
  "버스가</w>": 26483,
  "단축": 16115,
  "됨</w>": 4516,
  "주민들은</w>": 29890,
  "유래": 16362,
  "주파수</w>": 23394,
  "냥</w>": 4218,
  "28</w>": 10177,
  "의견도</w>": 30504,
  "통계": 11391,
  "2세대</w>": 25929,
  "그릴</w>": 20033,
  "des</w>": 26806,
  "여행하는</w>": 28758,
  "형의</w>": 13616,
  "템플": 16131,
  "복합": 12015,
  "Res": 13211,
  "팔</w>": 4986,
  "CPU</w>": 16510,
  "꿸</w>": 6557,
  "앞</w>": 4594,
  "Astronomical</w>": 23648,
  "탁": 3406,
  "장비</w>": 11558,
  "세울</w>": 29812,
  "공개적으로</w>": 31487,
  "사람에게는</w>": 29622,
  "퀄리티": 22355,
  "내외": 25543,
  "눼": 700,
  "귑</w>": 5777,
  "배우고</w>": 14181,
  "표시되지</w>": 19104,
  "욕설등</w>": 22641,
  "오염</w>": 16415,
  "명령을</w>": 15777,
  "환전</w>": 25199,
  "네임드": 10247,
  "Io": 15235,
  "힘으로</w>": 21044,
  "슬슬</w>": 27007,
  "감성을</w>": 31310,
  "끕": 522,
  "랙": 1152,
  "포럼</w>": 14542,
  "tware</w>": 30003,
  "130</w>": 32265,
  "꼭": 428,
  "나타나는</w>": 12398,
  "지난해": 14478,
  "준수</w>": 22732,
  "임에도</w>": 17944,
  "20개</w>": 30486,
  "버리": 11589,
  "락": 1137,
  "챡": 3090,
  "쉈": 2097,
  "부당": 19865,
  "집어</w>": 27188,
  "싟</w>": 6780,
  "서초구</w>": 20978,
  "층</w>": 4214,
  "모던</w>": 30168,
  "조금이나마</w>": 30855,
  "싹": 2176,
  "책상</w>": 16285,
  "날인</w>": 15342,
  "태양일</w>": 23738,
  "티": 3557,
  "렸습니다</w>": 10067,
  "인기": 11486,
  "쌓인</w>": 27355,
  "눇</w>": 6781,
  "지원하는</w>": 12822,
  "찍고</w>": 17487,
  "평창동계올림픽</w>": 32644,
  "것이란</w>": 26178,
  "삵</w>": 5560,
  "걔</w>": 5850,
  "컴": 3275,
  "엄청</w>": 12379,
  "ell": 10926,
  "결혼식</w>": 18900,
  "드": 946,
  "변경된</w>": 20749,
  "식도</w>": 30748,
  "외": 2516,
  "발렌": 20155,
  "고등학생</w>": 26436,
  "갔다가</w>": 19799,
  "영문에서</w>": 26301,
  "느려": 31045,
  "고객과</w>": 31248,
  "뚦": 1082,
  "생리": 16102,
  "벗</w>": 5025,
  "손꼽": 24323,
  "윱</w>": 6209,
  "쳌</w>": 5817,
  "제공되며</w>": 28712,
  "예수님께서</w>": 27807,
  "되면</w>": 7542,
  "왼</w>": 5976,
  "ain": 16187,
  "룡</w>": 4866,
  "비중을</w>": 27495,
  "음원</w>": 28903,
  "청주</w>": 24634,
  "카운트</w>": 23483,
  "인원": 17216,
  "싶다고</w>": 22667,
  "헌법</w>": 19708,
  "꿰": 492,
  "재학</w>": 28776,
  "눈물": 20919,
  "소수의</w>": 27140,
  "사랑과</w>": 17745,
  "어긋": 24260,
  "구성하기</w>": 21457,
  "뽱</w>": 5756,
  "밀리미터로</w>": 14414,
  "급식": 25629,
  "러닝": 26181,
  "오페라</w>": 25084,
  "빻": 1813,
  "쬘": 3010,
  "진행</w>": 8549,
  "마드리드</w>": 25034,
  "심</w>": 3966,
  "실행": 8453,
  "쫙</w>": 5095,
  "Seoul</w>": 28512,
  "산이</w>": 13352,
  "역사의</w>": 17038,
  "EL": 18504,
  "픅</w>": 6770,
  "lor</w>": 10677,
  "없었기</w>": 29723,
  "sm": 16606,
  "톰": 3480,
  "정체성</w>": 32519,
  "흨": 3935,
  "도그": 30770,
  "1분</w>": 17539,
  "향상을</w>": 18459,
  "마그네": 26552,
  "강사": 19891,
  "마당</w>": 20818,
  "규</w>": 4455,
  "극대화": 23007,
  "면": 1447,
  "번은</w>": 17360,
  "대의</w>": 8448,
  "번역을</w>": 20068,
  "86</w>": 21331,
  "쪼</w>": 5685,
  "넾</w>": 6481,
  "흩</w>": 6418,
  "Porn": 9473,
  "rol</w>": 17674,
  "강설량은</w>": 27326,
  "Hard": 25689,
  "당연": 8666,
  "Sch": 16997,
  "pics</w>": 31639,
  "이신</w>": 21230,
  "윔</w>": 5519,
  "워크샵</w>": 31467,
  "잘못된</w>": 10711,
  "따른다</w>": 29748,
  "대화가</w>": 27440,
  "치킨</w>": 18292,
  "하나요</w>": 11624,
  "뵹": 1729,
  "빈티": 16018,
  "친한</w>": 19912,
  "오프라인</w>": 15564,
  "포터": 18509,
  "얘기다</w>": 31967,
  "과태": 31556,
  "대단한</w>": 17871,
  "모르겠네요</w>": 22596,
  "블러": 23934,
  "저널</w>": 20421,
  "반복되는</w>": 25660,
  "뮝": 1542,
  "영업": 9419,
  "ice": 27273,
  "정착": 14828,
  "재": 2707,
  "나빠": 32140,
  "너무너무</w>": 27359,
  "cc": 31868,
  "수상한</w>": 25188,
  "보낼</w>": 13265,
  "삘": 1919,
  "KO</w>": 30471,
  "냐는</w>": 12326,
  "추천드립니다</w>": 29465,
  "oci": 25771,
  "불과하다</w>": 28097,
  "쌋": 2186,
  "벤처</w>": 22591,
  "....": 13632,
  "기회에</w>": 27878,
  "의학과</w>": 32383,
  "벽을</w>": 17295,
  "옵션이</w>": 24210,
  "달하는</w>": 18625,
  "합쳐": 29745,
  "차별화된</w>": 25517,
  "가격과</w>": 29279,
  "르디": 29938,
  "정보에는</w>": 22187,
  "3종</w>": 22862,
  "New": 22226,
  "주머니</w>": 29484,
  "방안": 25296,
  "수에</w>": 11403,
  "안보": 14372,
  "언어": 8991,
  "황색": 19579,
  "2층</w>": 14373,
  "뎅</w>": 4990,
  "언제든지</w>": 12849,
  "균형을</w>": 20047,
  "됫": 900,
  "각각의</w>": 11082,
  "서버에</w>": 17555,
  "유니버": 23927,
  "워하는</w>": 29308,
  "DH": 30448,
  "과거</w>": 9958,
  "하기도</w>": 8465,
  "ano</w>": 27497,
  "기사는</w>": 24160,
  "책을</w>": 8034,
  "깼</w>": 6004,
  "데이터베이스</w>": 12243,
  "대상에</w>": 28786,
  "뇽": 677,
  "신학": 14690,
  "기록에</w>": 29462,
  "시리즈</w>": 9121,
  "Bay</w>": 30101,
  "쐇": 2253,
  "그림이</w>": 24271,
  "라인업</w>": 25268,
  "주시": 9747,
  "elf</w>": 27911,
  "up</w>": 11745,
  "있었네요</w>": 18152,
  "동의</w>": 9785,
  "2009년</w>": 12510,
  "정부에서</w>": 25218,
  "웎": 2565,
  "인가": 25376,
  "바울은</w>": 31787,
  "나갈</w>": 11500,
  "몇번</w>": 31062,
  "서버가</w>": 24965,
  "겯</w>": 6141,
  "총리</w>": 19449,
  "야만</w>": 11604,
  "형태": 7970,
  "동적</w>": 24837,
  "판단이</w>": 29829,
  "귈</w>": 4950,
  "메달</w>": 21010,
  "몪</w>": 6299,
  "하신</w>": 7873,
  "구두</w>": 20405,
  "쀠</w>": 6211,
  "프로듀": 17116,
  "주고": 17650,
  "번이</w>": 23279,
  "휼": 3919,
  "에듀": 21379,
  "뽄": 1870,
  "반영한</w>": 32160,
  "꾹": 470,
  "대통령과</w>": 17767,
  "조선": 8577,
  "짚": 2913,
  "세한</w>": 22104,
  "살아온</w>": 26322,
  "있으신</w>": 16186,
  "방명": 12787,
  "촤</w>": 5401,
  "휴대전화</w>": 27283,
  "영혼": 12873,
  "대도</w>": 24617,
  "갤러": 9321,
  "망": 1379,
  "다니는</w>": 12172,
  "잘못</w>": 12099,
  "ar": 7015,
  "우유": 20584,
  "걸린다</w>": 29737,
  "욾": 2552,
  "맽</w>": 5790,
  "뺃": 1817,
  "재산권</w>": 32295,
  "지마</w>": 26507,
  "들으면</w>": 24728,
  "끝나": 13583,
  "요리": 11193,
  "MI</w>": 16347,
  "C": 27,
  "제품을</w>": 9222,
  "창의": 11549,
  "맞추": 11774,
  "묻는</w>": 15932,
  "페인트</w>": 31938,
  "못하고</w>": 8873,
  "꼲": 432,
  "mat": 14852,
  "매체를</w>": 28169,
  "드롭": 31583,
  "읒": 2645,
  "수천": 22899,
  "구글은</w>": 27328,
  "을까</w>": 7560,
  "줄여": 23398,
  "추는</w>": 18440,
  "Su": 17834,
  "사본</w>": 24045,
  "비롯한</w>": 11346,
  "년까지</w>": 14342,
  "탈출</w>": 22359,
  "지식</w>": 13118,
  "Star": 30808,
  "귤</w>": 5151,
  "po": 12768,
  "바뀌고</w>": 28861,
  "툽</w>": 5312,
  "ble": 26963,
  "운전자</w>": 31099,
  "꼬": 427,
  "전히</w>": 7747,
  "슬림</w>": 22340,
  "퀵": 3359,
  "형에</w>": 23083,
  "피해자가</w>": 28983,
  "것임을</w>": 21782,
  "S</w>": 4002,
  "도착했다</w>": 31828,
  "HT": 11052,
  "유학": 18989,
  "씨에게</w>": 25154,
  "26일</w>": 12562,
  "하되</w>": 17626,
  "15분</w>": 15001,
  "or": 6989,
  "코노": 24559,
  "울</w>": 4309,
  "전라": 16963,
  "예비</w>": 17414,
  "매장에서</w>": 24659,
  "뢿</w>": 6401,
  "대한민국을</w>": 26724,
  "주기</w>": 11327,
  "문화재": 21759,
  "기자</w>": 7781,
  "평생을</w>": 32244,
  "혼": 3826,
  "째": 2934,
  "싸우고</w>": 32304,
  "1980년</w>": 16980,
  "뺸</w>": 6666,
  "창": 3070,
  "약물": 18866,
  "경험은</w>": 17363,
  "뺴": 1830,
  "투어를</w>": 27320,
  "500원</w>": 23964,
  "실패한</w>": 23800,
  "꼈</w>": 5381,
  "때려": 16955,
  "inst": 22272,
  "삭제될</w>": 9646,
  "값": 97,
  "객실</w>": 8455,
  "뺀</w>": 5114,
  "브랜": 7536,
  "소는</w>": 11843,
  "반기": 20785,
  "재를</w>": 9952,
  "평화를</w>": 20086,
  "댓글쓰기</w>": 11137,
  "Dan</w>": 24316,
  "전투": 11237,
  "마케팅</w>": 8127,
  "메달을</w>": 23574,
  "내용이다</w>": 32277,
  "낮게</w>": 29430,
  "치료": 7750,
  "크림파이</w>": 18401,
  "사이클</w>": 32046,
  "인터내셔널</w>": 24442,
  "낼</w>": 4595,
  "바위": 25241,
  "둁": 906,
  "캘</w>": 5630,
  "제재</w>": 24768,
  "태극": 19208,
  "시설은</w>": 17011,
  "분별": 21429,
  "공간입니다</w>": 31484,
  "묽": 1513,
  "가급": 18893,
  "산재": 23793,
  "우승을</w>": 13942,
  "웝</w>": 6273,
  "가능하다는</w>": 25165,
  "힘들어": 16992,
  "진다</w>": 8083,
  "온천": 18961,
  "이었으나</w>": 27071,
  "위원회": 23340,
  "위에</w>": 7608,
  "공간을</w>": 12259,
  "탭</w>": 4788,
  "플": 3700,
  "셕": 2017,
  "디의</w>": 29181,
  "내의</w>": 8823,
  "쓍</w>": 5767,
  "낏</w>": 5890,
  "녓": 636,
  "남편</w>": 11654,
  "성장할</w>": 24043,
  "노인</w>": 13905,
  "원인은</w>": 19159,
  "페티": 13149,
  "테마": 11896,
  "쎘": 2225,
  "쓍": 2290,
  "현실에서</w>": 29453,
  "u</w>": 4262,
  "부탁</w>": 16162,
  "퍀": 3596,
  "사양</w>": 25556,
  "수록</w>": 8400,
  "대한": 7382,
  "터키": 24776,
  "초반에</w>": 25661,
  "북한의</w>": 11855,
  "느낌을</w>": 12070,
  "생명을</w>": 15866,
  "나에</w>": 19970,
  "GP": 16495,
  "룰렛": 29937,
  "넣으면</w>": 26226,
  "촬영": 8815,
  "추가</w>": 7655,
  "roid</w>": 14312,
  "저렴": 8798,
  "U</w>": 4364,
  "답변이</w>": 16851,
  "졽": 2791,
  "오셔서</w>": 24915,
  "aj": 25914,
  "금속": 18694,
  "무척": 29781,
  "쑛": 2266,
  "에서만</w>": 10684,
  "쪼": 2986,
  "쪽에서</w>": 14615,
  "부드러운</w>": 15668,
  "욛": 2529,
  "촏": 3139,
  "미술": 9088,
  "강연": 20363,
  "수건</w>": 30484,
  "점진": 32406,
  "씨발</w>": 10313,
  "시애": 25037,
  "개시": 19218,
  "쉪": 2107,
  "위원은</w>": 26096,
  "별이</w>": 27268,
  "52": 16815,
  "만화": 13708,
  "덖": 810,
  "퍼센": 11281,
  "존재로</w>": 31664,
  "좀더</w>": 12870,
  "준": 2835,
  "드리고</w>": 11547,
  "청</w>": 4311,
  "예수님을</w>": 19586,
  "지자체</w>": 29693,
  "옳지</w>": 30875,
  "넘지</w>": 31652,
  "발생했다</w>": 24635,
  "중급</w>": 28007,
  "RAM</w>": 29327,
  "3명의</w>": 30848,
  "펌": 3608,
  "원작": 19731,
  "그래프": 7303,
  "와도</w>": 15996,
  "예시</w>": 30263,
  "꾱</w>": 6761,
  "폔": 3637,
  "돕</w>": 4753,
  "6피트": 30915,
  "식민": 16518,
  "1월</w>": 8498,
  "기전에</w>": 31075,
  "지극히</w>": 22686,
  "로버": 18613,
  "얼마": 7594,
  "우리나라는</w>": 19629,
  "이곳</w>": 16916,
  "예능": 18738,
  "녀석</w>": 31734,
  "퀙": 3353,
  "교육학</w>": 25145,
  "근육": 12540,
  "큿": 3382,
  "믕</w>": 6434,
  "김혜": 23255,
  "진흥": 11005,
  "밨": 1600,
  "스태": 19611,
  "4명의</w>": 32121,
  "경에</w>": 18174,
  "ication</w>": 13056,
  "세트": 19256,
  "불과": 13163,
  "연설": 23918,
  "?</w>": 4399,
  "US</w>": 15124,
  "크로스</w>": 22213,
  "줃": 2836,
  "타는</w>": 13173,
  "과제를</w>": 21255,
  "모습이</w>": 10148,
  "뽓": 1876,
  "유니폼을</w>": 27228,
  "Bre": 24078,
  "잠시": 16616,
  "법무": 16410,
  "여름</w>": 9914,
  "회사와</w>": 22255,
  "마리가</w>": 29680,
  "롣</w>": 5545,
  "이어": 7285,
  "했었": 16803,
  "쵀</w>": 5556,
  "있었": 7091,
  "처음으로</w>": 9873,
  "님께서</w>": 10391,
  "높게</w>": 18751,
  "콘크리": 18748,
  "단에서</w>": 19614,
  "설명하기</w>": 27170,
  "갈등": 18246,
  "옿": 2493,
  "로이</w>": 26679,
  "작동하는</w>": 32176,
  "요구되는</w>": 26415,
  "역할과</w>": 28851,
  "공작": 19456,
  "특허": 13653,
  "물어": 10713,
  "에인절": 24684,
  "열어</w>": 14734,
  "환불이</w>": 26716,
  "긺": 341,
  "스타킹</w>": 11269,
  "당했다</w>": 20885,
  "Ju": 30128,
  "ESS</w>": 28139,
  "전체": 8005,
  "뒝": 930,
  "선임": 18565,
  "회장": 15277,
  "살리는</w>": 28888,
  "후보</w>": 11563,
  "동물을</w>": 23665,
  "기분</w>": 13224,
  "비전</w>": 13805,
  "PW</w>": 30278,
  "판촉": 27817,
  "데스</w>": 22484,
  "땡</w>": 5074,
  "지금은</w>": 9150,
  "놕</w>": 6193,
  "동일": 8156,
  "모스</w>": 26889,
  "인들의</w>": 12050,
  "증상": 22019,
  "9개</w>": 23781,
  "읷</w>": 6086,
  "ic": 7086,
  "컴포넌": 23911,
  "쳬": 3134,
  "구역에서는</w>": 27848,
  "잘</w>": 5060,
  "드레": 13818,
  "vari": 28556,
  "타당": 19832,
  "기름": 13551,
  "바디</w>": 17531,
  "였": 2456,
  "해결하는</w>": 22096,
  "흰": 3940,
  "펌프</w>": 20198,
  "스톤</w>": 17088,
  "합니다</w>": 6940,
  "렁": 1193,
  "정리해</w>": 23922,
  "증강": 29707,
  "은이</w>": 19186,
  "떴": 1032,
  "퍼가</w>": 31458,
  "필요할</w>": 14451,
  "푸른</w>": 18256,
  "귀족": 25321,
  "부스타빗부스타빗부스타빗부스타빗</w>": 26665,
  "장난": 9074,
  "역사를</w>": 11775,
  "국내에서는</w>": 27518,
  "샅": 1945,
  "연</w>": 4404,
  "딻": 993,
  "썡</w>": 6150,
  "나타났": 27111,
  "절을</w>": 14913,
  "글입니다</w>": 25426,
  "태양광": 31668,
  "Zilla</w>": 26870,
  "담을</w>": 14725,
  "나선다</w>": 25183,
  "같았습니다</w>": 30699,
  "이어가고</w>": 28196,
  "캬": 3263,
  "라고도</w>": 24350,
  "섹시한중년": 10469,
  "먹는": 29633,
  "도구가</w>": 31093,
  "경영": 7836,
  "반찬": 21239,
  "윜": 2605,
  "아시아</w>": 8406,
  "성매매": 26419,
  "웽</w>": 5832,
  "ka</w>": 30899,
  "전사": 30388,
  "입찰</w>": 26782,
  "것이냐</w>": 32267,
  "갈등이</w>": 25662,
  "호날": 28135,
  "ience</w>": 24615,
  "먹을": 19345,
  "렦</w>": 6300,
  "IG": 18196,
  "슬픈</w>": 19666,
  "액세스할</w>": 30897,
  "렌터": 16322,
  "억원</w>": 11078,
  "입양": 23251,
  "돌아왔다</w>": 21685,
  "환</w>": 4371,
  "향</w>": 4421,
  "날에는</w>": 20860,
  "나름의</w>": 28069,
  "변경될</w>": 20317,
  "여친": 25864,
  "스쿨": 19810,
  "꼮</w>": 5667,
  "마저</w>": 13674,
  "전체에</w>": 24293,
  "앉은</w>": 26111,
  "법에서</w>": 30385,
  "저작권법에</w>": 25118,
  "뭏</w>": 6560,
  "나간</w>": 20805,
  "Data</w>": 18619,
  "끄는</w>": 15684,
  "디자인과</w>": 22264,
  "논문": 15314,
  "운영자</w>": 21909,
  "보여": 7421,
  "논리</w>": 25487,
  "크리스</w>": 19293,
  "화되어</w>": 20921,
  "여겨</w>": 32273,
  "없다고</w>": 9695,
  "인식": 9155,
  "ora</w>": 18927,
  "DE": 16041,
  "팝니다</w>": 26969,
  "izz": 15711,
  "느끼고</w>": 15375,
  "재배포</w>": 26420,
  "어렵다</w>": 12720,
  "전달": 8649,
  "원은</w>": 8185,
  "이라크</w>": 29295,
  "불확실": 24426,
  "시트</w>": 15675,
  "첨</w>": 4764,
  "스크린": 14400,
  "거듭</w>": 30647,
  "클리닝</w>": 24588,
  "근거하여</w>": 29509,
  "이어폰</w>": 20200,
  "어마어마": 24708,
  "댯": 805,
  "보더라": 23389,
  "자막</w>": 22774,
  "장기간</w>": 25307,
  "인치</w>": 10749,
  "역시나</w>": 22568,
  "노이": 17609,
  "신청에</w>": 28389,
  "다가올</w>": 31880,
  "햣": 3770,
  "ke</w>": 18341,
  "회장의</w>": 20316,
  "노의</w>": 26179,
  "?\"</w>": 9142,
  "흼": 3942,
  "다음글</w>": 27938,
  "서비스도</w>": 18025,
  "주간</w>": 8994,
  "하기는</w>": 14123,
  "EN": 12149,
  "플러": 8177,
  "경제와</w>": 31966,
  "뉸": 712,
  "티셔츠": 29527,
  "유영": 32724,
  "Geo": 15677,
  "돤</w>": 5845,
  "콘도</w>": 28263,
  "JT": 18930,
  "골": 199,
  "광고글</w>": 10499,
  "늡": 731,
  "마리아": 22558,
  "one": 19245,
  "한계": 14785,
  "연산": 19847,
  "어워드</w>": 29085,
  "옳": 2481,
  "학번</w>": 27783,
  "룰": 1281,
  "맞은</w>": 12911,
  "티아": 29126,
  "Im": 19808,
  "여기서</w>": 8803,
  "발생한</w>": 11004,
  "가능하다고</w>": 26565,
  "먼저": 26727,
  "넷마블": 31598,
  "겸손": 22133,
  "답했다</w>": 27593,
  "카메라를</w>": 18276,
  "ism</w>": 23084,
  "무": 1504,
  "영국에서</w>": 32018,
  "will</w>": 26807,
  "유익": 15630,
  "승진</w>": 29560,
  "격이</w>": 28766,
  "Web": 20674,
  "절차에</w>": 20149,
  "비디오</w>": 9763,
  "퀭": 3357,
  "지위를</w>": 25633,
  "눞</w>": 6118,
  "신작</w>": 25885,
  "용이": 18634,
  "이고요</w>": 28694,
  "쿠키": 26704,
  "물건을</w>": 14577,
  "obile</w>": 18642,
  "세븐": 18102,
  "K": 35,
  "홀리데이</w>": 20499,
  "했다면</w>": 13847,
  "햑": 3763,
  "주주": 17150,
  "풂": 3671,
  "영수": 17393,
  "클로즈": 19494,
  "Tur": 29228,
  "갖</w>": 5605,
  "흡": 3932,
  "젣": 2760,
  "나누고</w>": 18560,
  "전이</w>": 11096,
  "철의</w>": 28474,
  "인성</w>": 25816,
  "디스플레이</w>": 13474,
  "거는</w>": 15881,
  "으시면</w>": 14020,
  "속에서</w>": 8497,
  "아나": 14598,
  "어야</w>": 7335,
  "방송된</w>": 19139,
  "프와</w>": 21618,
  "6일</w>": 11504,
  "크리에이티브</w>": 10806,
  "ation</w>": 7838,
  "참고로</w>": 11441,
  "중에서도</w>": 13887,
  "발견할</w>": 21177,
  "뾸</w>": 6901,
  "언더": 12784,
  "풍경이</w>": 28176,
  "뭡": 1530,
  "벽에</w>": 20365,
  "그룹의</w>": 17885,
  "2볼넷</w>": 31089,
  "촥</w>": 5912,
  "스로</w>": 7879,
  "강에</w>": 25804,
  "낹": 565,
  "물리</w>": 26502,
  "누군가가</w>": 21045,
  "휴양": 20526,
  "성매매</w>": 30051,
  "랴": 1163,
  "오브젝": 24834,
  "퀘스트</w>": 26113,
  "소환": 20427,
  "있었다</w>": 7284,
  "기기에</w>": 26898,
  "뚠</w>": 5992,
  "비키": 17234,
  "만들지</w>": 25127,
  "추구하는</w>": 17891,
  "기는</w>": 7184,
  "인력</w>": 16465,
  "도무지</w>": 31094,
  "크</w>": 4129,
  "테헤란로": 31342,
  "생각해</w>": 10916,
  "히": 3946,
  "이야기는</w>": 15250,
  "비용을</w>": 12027,
  "남겨주세요</w>": 13802,
  "딨</w>": 6922,
  "스키</w>": 12941,
  "버렸": 15154,
  "듭</w>": 4984,
  "션에</w>": 13628,
  "ux</w>": 20458,
  "빌딩": 19458,
  "쏙": 2235,
  "경품</w>": 27220,
  "무효": 23065,
  "전철": 30266,
  "용의</w>": 22979,
  "리무": 27139,
  "개발한</w>": 16660,
  "또다른</w>": 20331,
  "가나": 23500,
  "뿌": 1888,
  "었다는</w>": 15327,
  "ork</w>": 27956,
  "전리": 21889,
  "포스코</w>": 32374,
  "나눌</w>": 16888,
  "해킹</w>": 19065,
  "Fe": 16214,
  "지원서</w>": 29944,
  "럸": 1186,
  "뉴스는</w>": 32071,
  "때도</w>": 10123,
  "Shem": 20573,
  "망이</w>": 16987,
  "소형": 22649,
  "ch</w>": 9648,
  "뷀": 1755,
  "수행하는</w>": 19057,
  "댔</w>": 6231,
  "상세한</w>": 20133,
  "랒</w>": 6824,
  "왈</w>": 4784,
  "나라로</w>": 32174,
  "러는</w>": 20453,
  "쟬</w>": 6040,
  "어차피</w>": 14682,
  "말을</w>": 7801,
  "즛</w>": 6488,
  "스토리지</w>": 24370,
  "눕": 688,
  "\"'</w>": 18409,
  "Add": 28985,
  "로스</w>": 16239,
  "튀김</w>": 30132,
  "트랩</w>": 26783,
  "베드</w>": 23114,
  "아내를</w>": 27888,
  "퍈": 3600,
  "혼자</w>": 9017,
  "입원": 16352,
  "빴</w>": 5818,
  "시즌": 8473,
  "못하면</w>": 18723,
  "잠금</w>": 24387,
  "제휴</w>": 15253,
  "노래방</w>": 24109,
  "작품</w>": 10567,
  "유럽에서</w>": 28037,
  "리눅스</w>": 18654,
  "일련의</w>": 21744,
  "기업신용": 16003,
  "포항</w>": 22384,
  "반사": 23289,
  "입은</w>": 11154,
  "비자</w>": 17087,
  "예약하면</w>": 30490,
  "사회의</w>": 10065,
  "터</w>": 4116,
  "안경</w>": 17658,
  "수월": 24499,
  "클릭하십시오</w>": 31462,
  "덱": 829,
  "첨가": 20678,
  "한미</w>": 18405,
  "연장</w>": 14220,
  "피어": 16753,
  "do": 21950,
  "신정": 28157,
  "어시스": 32488,
  "그렇습니다</w>": 18827,
  "우리들은</w>": 29762,
  "교육과</w>": 15893,
  "상이": 27147,
  "몋": 1459,
  "튁": 3519,
  "적이": 14993,
  "크리에이": 9691,
  "유기</w>": 28365,
  "VIP</w>": 28531,
  "표시된</w>": 18001,
  "지자</w>": 22418,
  "전술": 26505,
  "개나</w>": 31181,
  "웷": 2590,
  "다음을</w>": 17008,
  "Suite</w>": 31703,
  "오피": 11715,
  "듧": 954,
  "걑": 131,
  "끰</w>": 5855,
  "테스</w>": 31799,
  "떨어": 7610,
  "빴": 1811,
  "아카데미</w>": 15938,
  "병을</w>": 14222,
  "이해를</w>": 15355,
  "좋다는</w>": 22406,
  "뵐</w>": 5946,
  "적응</w>": 25817,
  "이코노": 29090,
  "앟</w>": 6151,
  "누군가를</w>": 27899,
  "뺏": 1821,
  "흐</w>": 4772,
  "곁</w>": 6315,
  "유아</w>": 16871,
  "출신의</w>": 23332,
  "됙</w>": 6521,
  "통상": 15799,
  "학의</w>": 10824,
  "코드가</w>": 21297,
  "매치": 18697,
  "브이": 28362,
  "넘어가": 32515,
  "매도</w>": 32691,
  "ra": 8794,
  "불만이</w>": 28248,
  "터뜨": 24858,
  "믿</w>": 5662,
  "베": 1648,
  "닶": 776,
  "일할</w>": 20563,
  "제2": 10024,
  "봥</w>": 6503,
  "사슬": 30836,
  "전제": 23447,
  "인정하는</w>": 20815,
  "성장에</w>": 29376,
  "좋습니다</w>": 8599,
  "푸드": 19960,
  "통지</w>": 24052,
  "제조사": 26543,
  "않았는데</w>": 24905,
  "검사": 11803,
  "개인</w>": 8119,
  "신문을</w>": 31137,
  "비빔": 26000,
  "세금</w>": 13671,
  "전문": 7263,
  "스페인": 15754,
  "Ah</w>": 28270,
  "관리의</w>": 19650,
  "열매": 20543,
  "펩</w>": 5903,
  "사기</w>": 13959,
  "표기</w>": 29744,
  "아이디</w>": 9867,
  "테인": 12046,
  "쎔": 2222,
  "꽝</w>": 5175,
  "형은</w>": 13422,
  "마음껏</w>": 20880,
  "일어났": 21081,
  "류의</w>": 17291,
  "inn": 30683,
  "버전과</w>": 27285,
  "정하여</w>": 31963,
  "The": 22987,
  "못</w>": 4623,
  "ak": 8626,
  "눵": 699,
  "\\\\": 15886,
  "라고는</w>": 28781,
  "여부를</w>": 12604,
  "자칫</w>": 24886,
  "이탈리아": 12483,
  "링크": 10757,
  "강의</w>": 9953,
  "시작했습니다</w>": 19107,
  "보시겠습니까</w>": 25553,
  "찍을</w>": 23012,
  "중요하다는</w>": 31128,
  "내린</w>": 12220,
  "지목": 29013,
  "사용될</w>": 20145,
  "urr": 20378,
  "해라</w>": 17964,
  "제대로</w>": 7899,
  "분석보고서</w>": 23712,
  "됨에</w>": 21926,
  "음부</w>": 14349,
  "미팅": 19846,
  "제거하고</w>": 31761,
  "편한</w>": 19796,
  "뵉": 1719,
  "어플리케이션을</w>": 32080,
  "호출</w>": 29530,
  "잽": 2712,
  "임종": 30562,
  "챵</w>": 5463,
  "선전": 26318,
  "렸": 1220,
  "공무원</w>": 11582,
  "한가</w>": 15056,
  "종류가</w>": 20253,
  "배트맨</w>": 29522,
  "성공의</w>": 27322,
  "않나</w>": 17230,
  "개혁</w>": 14764,
  "왠</w>": 5224,
  "3억</w>": 28348,
  "낮추": 23366,
  "53</w>": 14960,
  "햅": 3754,
  "카탈": 22929,
  "application</w>": 30453,
  "권</w>": 4335,
  "그러다</w>": 17418,
  "겨울철</w>": 25276,
  "핫": 3739,
  "브런": 27419,
  "스티커": 24587,
  "새가</w>": 22076,
  "채로</w>": 18006,
  "관련</w>": 7199,
  "운영진</w>": 20794,
  "테이블</w>": 10751,
  "시상식</w>": 29144,
  "만도</w>": 24997,
  "헷갈": 26422,
  "떠</w>": 5039,
  "조건에</w>": 18090,
  "과는</w>": 8729,
  "아이들도</w>": 32637,
  "센트</w>": 26163,
  "진지": 15832,
  "일반</w>": 8269,
  "ain</w>": 15613,
  "당황": 15640,
  "ens": 12790,
  "믈</w>": 5419,
  "기술</w>": 7854,
  "매개": 23933,
  "포스</w>": 17905,
  "인증을</w>": 17860,
  "띱": 1132,
  "fig": 23155,
  "ong</w>": 11807,
  "재밌는</w>": 23138,
  "띨</w>": 5461,
  "사회에</w>": 12884,
  "장점": 18133,
  "지지": 10234,
  "뿐이다</w>": 10857,
  "호스팅": 30608,
  "신뢰를</w>": 20782,
  "팜": 3576,
  "귀가</w>": 20371,
  "더더욱</w>": 22709,
  "중반</w>": 28123,
  "한의원</w>": 27931,
  "우가</w>": 18551,
  "3D": 13729,
  "퇀</w>": 5198,
  "겹</w>": 4961,
  "욭": 2538,
  "물이</w>": 8201,
  "나라가</w>": 14832,
  "스트로</w>": 27958,
  "난</w>": 4658,
  "봤다</w>": 11751,
  "모든": 13066,
  "열의</w>": 22353,
  "기대를</w>": 14346,
  "칙</w>": 4209,
  "의지가</w>": 24503,
  "적중": 22806,
  "화면에</w>": 15454,
  "Bel": 29866,
  "한정</w>": 21114,
  "꼭</w>": 4523,
  "방식으로</w>": 10255,
  "ella</w>": 29579,
  "녙</w>": 6762,
  "미래의</w>": 15117,
  "어쩌면</w>": 12329,
  "냄새를</w>": 32716,
  "1과</w>": 27061,
  "만원": 10006,
  "소비자들이</w>": 29603,
  "먻": 1413,
  "구조와</w>": 21040,
  "걸을</w>": 32522,
  "시절": 10435,
  "갖는</w>": 12933,
  "허": 3778,
  "오줌</w>": 27255,
  "내용을</w>": 7885,
  "끼</w>": 4803,
  "펼치고</w>": 25634,
  "캐스트</w>": 20115,
  "확인이</w>": 18044,
  "꼄</w>": 6573,
  "경</w>": 4257,
  "사건": 8148,
  "이순": 21676,
  "혇": 3808,
  "ital</w>": 17100,
  "선지": 27318,
  "데이터의</w>": 19608,
  "인식이</w>": 20310,
  "양파</w>": 27830,
  "이번에</w>": 10163,
  "오렌지": 30037,
  "시작하는</w>": 14051,
  "템플릿": 27749,
  "업무</w>": 9285,
  "설탕": 24447,
  "2번째</w>": 30847,
  "수석": 19378,
  "김": 344,
  "s</w>": 3993,
  "영은</w>": 16427,
  "늴</w>": 6417,
  "ife</w>": 17741,
  "줴": 2856,
  "17</w>": 8710,
  "선생님": 13861,
  "끝났다</w>": 28989,
  "계획서</w>": 14300,
  "가서</w>": 8149,
  "수송": 25342,
  "독": 858,
  "소액": 18807,
  "단어</w>": 13177,
  "뤃</w>": 6706,
  "크의</w>": 16573,
  "콸": 3320,
  "이브</w>": 29386,
  "OS</w>": 9356,
  "채용</w>": 10108,
  "Des": 13669,
  "섢": 1982,
  "혐": 3811,
  "꺔": 385,
  "민호": 25006,
  "미래를</w>": 12135,
  "강조하고</w>": 27265,
  "Key": 32500,
  "부담</w>": 14415,
  "pris": 22003,
  "방식을</w>": 12529,
  "수와</w>": 8816,
  "면과</w>": 25005,
  "팀이</w>": 10526,
  "배경으로</w>": 21244,
  "저녁": 10818,
  "흘러</w>": 23681,
  "IO": 23466,
  "ystem": 24493,
  "자사</w>": 26276,
  "경비": 19270,
  "침에</w>": 8827,
  "Best</w>": 17582,
  "IA": 15957,
  "커피</w>": 9715,
  "타가</w>": 21840,
  "퀠": 3355,
  "네스": 31076,
  "보는</w>": 7353,
  "라디오": 18370,
  "이벤트": 15577,
  "z": 79,
  "출고": 18482,
  "노력": 7977,
  "쓺</w>": 6876,
  "적인</w>": 6952,
  "은데</w>": 8391,
  "인간의</w>": 9852,
  "f</w>": 4292,
  "심화": 24038,
  "맞춰</w>": 11895,
  "맷</w>": 5309,
  "틈</w>": 5029,
  "방법은</w>": 9568,
  "알아보자</w>": 27629,
  "방식</w>": 11302,
  "전시": 8830,
  "실버": 17806,
  "매뉴얼": 29165,
  "갂</w>": 6318,
  "춴": 3191,
  "해졌": 17352,
  "대원": 21636,
  "김부": 30760,
  "제휴": 13207,
  "경은</w>": 17974,
  "자취": 14106,
  "들었는데</w>": 28619,
  "간의</w>": 7990,
  "일이라고</w>": 25808,
  "컴퓨": 7476,
  "좋았습니다</w>": 12347,
  "이데": 25262,
  "EST": 29843,
  "롞</w>": 6684,
  "말씀드리": 24561,
  "레일": 28819,
  "욺</w>": 6777,
  "층으로</w>": 31125,
  "산출": 22398,
  "수집": 7698,
  "동의하지</w>": 26392,
  "쯤은</w>": 23091,
  "카카오": 10303,
  "하네</w>": 24345,
  "언급": 9103,
  "KBS": 17882,
  "노력은</w>": 31743,
  "팀으로</w>": 22859,
  "아니기</w>": 20907,
  "원에</w>": 8512,
  "피치</w>": 28892,
  "꿧": 489,
  "제와</w>": 12013,
  "럶": 1184,
  "이었을</w>": 26095,
  "정확": 7777,
  "위안</w>": 21645,
  "to</w>": 7988,
  "절단": 32727,
  "많아": 12583,
  "햝": 3766,
  "플레이스</w>": 26972,
  "경험</w>": 11626,
  "림의</w>": 23777,
  "클": 3379,
  "있었습니다</w>": 8390,
  "있습니다</w>": 6939,
  "없지</w>": 17744,
  "문득</w>": 19883,
  "끈다</w>": 28271,
  "실제": 11650,
  "절약</w>": 14614,
  "됐": 890,
  "com": 8063,
  "까</w>": 4042,
  "샾</w>": 4755,
  "로그인하여</w>": 22163,
  "보고": 7413,
  "함으로</w>": 15681,
  "힉</w>": 5998,
  "버섯</w>": 22012,
  "시간의</w>": 11760,
  "plic": 27656,
  "저에게</w>": 15621,
  "심을</w>": 8945,
  "문화예술": 17447,
  "식은</w>": 11986,
  "구조조정</w>": 30096,
  "쓰레": 11494,
  "가능": 7000,
  "red</w>": 21907,
  "여기를</w>": 22270,
  "픝": 3706,
  "였다</w>": 7367,
  "첨부": 13086,
  "eg</w>": 30916,
  "동포": 21036,
  "보르": 27700,
  "건에</w>": 16480,
  "법을</w>": 8959,
  "스트레스가</w>": 31759,
  "업로드": 24276,
  "이색": 31066,
  "피어싱</w>": 31145,
  "리즘</w>": 26778,
  "성황": 27800,
  "솨</w>": 6029,
  "적립된</w>": 32057,
  "캐나": 9844,
  "so": 26690,
  "굵</w>": 5197,
  "먹</w>": 5038,
  "를위한</w>": 21530,
  "똠</w>": 6847,
  "캠페인</w>": 15688,
  "부부의</w>": 22017,
  "회원에게</w>": 16470,
  "또한</w>": 7089,
  "틐": 3546,
  "키로</w>": 17850,
  "썬</w>": 4789,
  "쵯": 3162,
  "아니죠</w>": 29546,
  "플로리다</w>": 32134,
  "벌어지고</w>": 30365,
  "?!</w>": 14545,
  "마드리": 15318,
  "럠": 1172,
  "나다</w>": 30155,
  "분위기</w>": 12691,
  "주식을</w>": 28545,
  "land</w>": 16136,
  "epub</w>": 31301,
  "당신은</w>": 9215,
  "말라는</w>": 26964,
  "공기</w>": 16211,
  "ms</w>": 21481,
  "두는</w>": 13626,
  "기술적</w>": 15193,
  "텍스트</w>": 13825,
  "줄은</w>": 22723,
  "별도의</w>": 10870,
  "파키스": 27168,
  "샀": 1940,
  "얀</w>": 4765,
  "오디오</w>": 13498,
  "2번</w>": 16695,
  "에러</w>": 29785,
  "것인": 12718,
  "information</w>": 17552,
  "찾으실</w>": 19340,
  "대에서</w>": 11395,
  "팊": 3567,
  "시에</w>": 7538,
  "나일": 19066,
  "쒔": 2281,
  "상한": 32258,
  "번에</w>": 10725,
  "쟈</w>": 4162,
  "LAN</w>": 31650,
  "채워": 14966,
  "승리로</w>": 25366,
  "돟</w>": 6326,
  "텀": 3445,
  "배송비</w>": 16340,
  "해고</w>": 30876,
  "정부가</w>": 10705,
  "완료</w>": 8892,
  "팼": 3594,
  "제이": 12964,
  "목": 1465,
  "구매하신</w>": 28235,
  "방법의</w>": 23588,
  "비로소</w>": 18141,
  "의혹": 14069,
  "선이</w>": 10712,
  "온다</w>": 9242,
  "오승환": 20557,
  "허위</w>": 20895,
  "사이즈</w>": 10943,
  "김명": 21943,
  "쿽": 3347,
  "ell</w>": 13356,
  "가족들이</w>": 26982,
  "낣": 549,
  "회원가입": 20722,
  "유저가</w>": 30455,
  "수준이다</w>": 29363,
  "틔": 3550,
  "보험료</w>": 18495,
  "든": 949,
  "AC": 9934,
  "펀드</w>": 14890,
  "목적": 8238,
  "항소": 29362,
  "인식을</w>": 20857,
  "KB": 8631,
  "빅데이터</w>": 18702,
  "릴레이</w>": 28101,
  "홀로</w>": 15169,
  "아니었다</w>": 14204,
  "아름답": 12721,
  "쓰이는</w>": 20348,
  "끝까지</w>": 11632,
  "30일</w>": 10701,
  "상사</w>": 29940,
  "보게</w>": 11183,
  "달의</w>": 16390,
  "있는데요</w>": 11564,
  "역동": 27386,
  "홁": 3829,
  "풍</w>": 4711,
  "토론토": 21399,
  "븃</w>": 6675,
  "데에는</w>": 28925,
  "당으로</w>": 30373,
  "근처의</w>": 27028,
  "2007": 21808,
  "틋</w>": 5490,
  "씄": 2308,
  "SMS": 20351,
  "창원</w>": 22332,
  "Internet</w>": 19940,
  "캡틴</w>": 31297,
  "볓": 1674,
  "벚": 1642,
  "훌</w>": 5557,
  "타워</w>": 16227,
  "양</w>": 4536,
  "구경": 13159,
  "작품": 7959,
  "대놓고</w>": 31940,
  "니까요</w>": 11270,
  "리오</w>": 25240,
  "며</w>": 4134,
  "확실": 8336,
  "봇": 1694,
  "서울에서</w>": 19645,
  "lif": 27323,
  "있듯이</w>": 20826,
  "뛩": 1095,
  "보리</w>": 18132,
  "챌린": 22036,
  "지나</w>": 11026,
  "b</w>": 4583,
  "패드</w>": 13183,
  "굑": 241,
  "내려": 8211,
  "블랙</w>": 8891,
  "숖</w>": 5650,
  "8회</w>": 24472,
  "결론": 11571,
  "여호와의</w>": 31404,
  "랜드는</w>": 31872,
  "킬로": 8654,
  "지역</w>": 7500,
  "준우승</w>": 32203,
  "바다이야기": 31400,
  "점심": 16093,
  "ov": 10700,
  "제공된</w>": 17166,
  "공인</w>": 26285,
  "창업": 9795,
  "돞": 874,
  "길어": 31109,
  "개개인의</w>": 28987,
  "론에</w>": 21518,
  "연결해</w>": 29657,
  "ular</w>": 24179,
  "상반기</w>": 15576,
  "개</w>": 4344,
  "샅</w>": 6351,
  "협회</w>": 9515,
  "하나</w>": 7480,
  "CH</w>": 22112,
  "제국": 21042,
  "달은</w>": 18058,
  "봉</w>": 4334,
  "Island</w>": 24425,
  "아동": 8507,
  "힘들</w>": 17957,
  "일어": 7674,
  "말해</w>": 12863,
  "두꺼운</w>": 24942,
  "쳔": 3128,
  "오신</w>": 17231,
  "옏": 2465,
  "자취방</w>": 23174,
  "일월": 31385,
  "간격": 21446,
  "축하</w>": 20428,
  "가입을</w>": 15190,
  "실선</w>": 19770,
  "있다</w>": 6943,
  "생선</w>": 26299,
  "결정을</w>": 12145,
  "셀프</w>": 12344,
  "Fil": 27350,
  "1개": 18829,
  "u": 74,
  "엣": 2431,
  "10대</w>": 16056,
  "발표한</w>": 15535,
  "나왔": 10386,
  "Sal": 22227,
  "근거로</w>": 13168,
  "그는": 24525,
  "사정이</w>": 23184,
  "강이</w>": 25168,
  "라": 1136,
  "외면": 21073,
  "참여하고</w>": 23097,
  "모바일</w>": 7898,
  "강력": 9431,
  "중견": 26190,
  "묵</w>": 4920,
  "버는</w>": 18561,
  "후방</w>": 26474,
  "al</w>": 7235,
  "땠</w>": 6438,
  "절제": 26119,
  "해피캠퍼": 9904,
  "페스티": 13286,
  "킂</w>": 5504,
  "챚": 3087,
  "안된</w>": 28353,
  "치러": 21721,
  "중국인</w>": 31460,
  "방문객": 18287,
  "신혼": 17091,
  "젠": 2759,
  "절대</w>": 9731,
  "없다는</w>": 9141,
  "아웃도어</w>": 31936,
  "봤</w>": 5473,
  "ouble</w>": 29600,
  "진행중인</w>": 29423,
  "심각한</w>": 12525,
  "수원</w>": 14025,
  "췄</w>": 6052,
  "하여야</w>": 9164,
  "웁</w>": 5111,
  "자랑": 9809,
  "토로": 25249,
  "해외축구": 24841,
  "둰": 922,
  "바뀌": 9623,
  "어려워": 19101,
  "하이": 7902,
  "메뉴를</w>": 15728,
  "알아보고</w>": 19206,
  "영화와</w>": 29803,
  "Mem": 22999,
  "add": 18680,
  "순간에</w>": 20308,
  "들어가면</w>": 19848,
  "빠른</w>": 8590,
  "뗴": 1052,
  "아이": 6979,
  "Min": 17184,
  "가동": 19464,
  "급격한</w>": 30433,
  "국회의원</w>": 16793,
  "보석": 26103,
  "운영하며</w>": 30952,
  "대부분은</w>": 18564,
  "곕": 190,
  "200만</w>": 28713,
  "숏": 2074,
  "형과</w>": 22953,
  "re": 7075,
  "텤": 3463,
  "무슨</w>": 8456,
  "스커": 16274,
  "주차</w>": 10579,
  "자를</w>": 7306,
  "걒</w>": 6733,
  "리면</w>": 12647,
  "건가요</w>": 13631,
  "주행": 14238,
  "Micros": 11583,
  "자카르": 30680,
  "베트맨": 23569,
  "지속": 8080,
  "훨씬</w>": 8858,
  "구독하기</w>": 28513,
  "자존": 15073,
  "제도</w>": 8988,
  "90</w>": 10546,
  "연말": 19032,
  "틘</w>": 5343,
  "맛볼</w>": 25949,
  "ator": 31934,
  "뽀</w>": 4842,
  "밋": 1573,
  "1사</w>": 27098,
  "습득": 18197,
  "몰랐": 13010,
  "죄송합니다</w>": 11742,
  "짭</w>": 5808,
  "Control</w>": 31375,
  "롵</w>": 6462,
  "보거나</w>": 26616,
  "동화</w>": 22303,
  "회원으로</w>": 20633,
  "1명이</w>": 27658,
  "띄": 1121,
  "력으로</w>": 13355,
  "팬티": 30502,
  "협업</w>": 32189,
  "mun": 16650,
  "파리</w>": 12621,
  "텉</w>": 6443,
  "범위": 26953,
  ".</w>": 4770,
  "운영자입니까</w>": 27980,
  "린다</w>": 8609,
  "쒛": 2282,
  "캬</w>": 5929,
  "켈</w>": 5284,
  "볼까요</w>": 18589,
  "min": 11560,
  "눈치": 24495,
  "감사하다</w>": 32491,
  "정도를</w>": 18301,
  "\"\"</w>": 32621,
  "전문</w>": 8426,
  "원칙적으로</w>": 22329,
  "꿕": 486,
  "내용에</w>": 12038,
  "기가": 21032,
  "간편</w>": 29034,
  "욪": 2536,
  "모두가</w>": 10186,
  "1080": 32747,
  "쨍</w>": 6145,
  "제외하면</w>": 23273,
  "지하</w>": 19795,
  "1개의</w>": 19088,
  "퀩": 3356,
  "주장했다</w>": 17436,
  "ir": 7752,
  "저에서</w>": 19938,
  "이엔": 25028,
  "감시</w>": 25381,
  "에인": 23002,
  "해본</w>": 17012,
  "건설": 9213,
  "he": 14110,
  "전담": 24355,
  "났</w>": 6167,
  "귀국": 21935,
  "뱜": 1626,
  "필요하다고</w>": 16047,
  "거리": 8366,
  "오르가": 16156,
  "11일</w>": 11199,
  "내용</w>": 7705,
  "일제": 20280,
  "새해": 31847,
  "피카": 31316,
  "티브": 14839,
  "국제</w>": 9320,
  "어진</w>": 8647,
  "사랑하는</w>": 10040,
  "번호가</w>": 26053,
  "갤럭": 9898,
  "해의</w>": 18969,
  "솀</w>": 6709,
  "분들은</w>": 10613,
  "튿": 3538,
  "않아서</w>": 13021,
  "접": 2748,
  "해양</w>": 26019,
  "una</w>": 25768,
  "쒯": 2284,
  "둬": 921,
  "UI": 18294,
  "퉷</w>": 6055,
  "고를</w>": 10405,
  "행을</w>": 10744,
  "본적이</w>": 28399,
  "췐</w>": 5770,
  "듴": 962,
  "입법": 20221,
  "쏠": 2239,
  "전형적</w>": 21178,
  "사라": 8860,
  "뛰는</w>": 23131,
  "보시길</w>": 31088,
  "뎡": 848,
  "백업</w>": 17949,
  "피드</w>": 24546,
  "Manager</w>": 19005,
  "있</w>": 4824,
  "셔츠": 18853,
  "으려</w>": 29543,
  "쏫</w>": 6482,
  "얪": 2396,
  "아반": 32610,
  "셌</w>": 6825,
  "라면서</w>": 32549,
  "스포츠가</w>": 30684,
  "가슴에</w>": 19830,
  "옥외</w>": 31875,
  "패럴": 29528,
  "크림": 12042,
  "다양": 7081,
  "탄을</w>": 18209,
  "알려주": 29602,
  "눠": 694,
  "걸쳐서</w>": 18193,
  "뎌": 841,
  "GF": 29300,
  "떈</w>": 5427,
  "있네요</w>": 12371,
  "ince</w>": 31713,
  "oggystyle</w>": 18775,
  "형태의</w>": 11007,
  "예측</w>": 17483,
  "끝내": 23233,
  "경우가</w>": 8439,
  "자라고</w>": 18217,
  "이브": 24251,
  "마을</w>": 9578,
  "스레": 25242,
  "축산": 26142,
  "교수가</w>": 21024,
  "하다</w>": 7072,
  "의뢰": 15797,
  "있겠": 11787,
  "한국</w>": 7331,
  "꿩": 491,
  "가요": 19768,
  "3연": 19012,
  "쇼가</w>": 27779,
  "짜릿": 30043,
  "틴</w>": 4589,
  "Player</w>": 32163,
  "반으로</w>": 30678,
  "엇갈": 30300,
  "큗</w>": 5990,
  "나면</w>": 10261,
  "시어지</w>": 27349,
  "보건의료": 28935,
  "뮴": 1548,
  "저작권은</w>": 21439,
  "예민": 21999,
  "Bo": 13759,
  "사항": 7416,
  "ization</w>": 23860,
  "8개</w>": 18502,
  "구체적인</w>": 12906,
  "최대": 14784,
  "Project</w>": 24713,
  "아침</w>": 8486,
  "즐길</w>": 9335,
  "본</w>": 4316,
  "2회</w>": 14601,
  "아메리카</w>": 22165,
  "사용자는</w>": 15824,
  "시에는</w>": 8222,
  "주년</w>": 10540,
  "건강을</w>": 14590,
  "예루": 20537,
  "내</w>": 4082,
  "슬퍼": 28031,
  "넥": 611,
  "응용": 14171,
  "팖": 3575,
  "저장할</w>": 22249,
  "활동하고</w>": 22761,
  "여명이</w>": 20103,
  "하거나</w>": 7373,
  "최순": 17176,
  "바다를</w>": 22516,
  "덧붙였다</w>": 13400,
  "지만": 11057,
  "포르투": 17758,
  "활동에</w>": 14112,
  "로그인한</w>": 31103,
  "하실</w>": 7317,
  "권력": 17267,
  "아직</w>": 7810,
  "24페이지</w>": 25457,
  "시범": 12546,
  "빆": 1786,
  "레스": 24926,
  "갖고</w>": 8343,
  "선출": 16171,
  "히터</w>": 23558,
  "dev": 14178,
  "엔터테인": 12340,
  "휗": 3907,
  "끅": 513,
  "죱</w>": 6753,
  "않는다면</w>": 16254,
  "넷째</w>": 28540,
  "하는지</w>": 9712,
  "나네요</w>": 28410,
  "직원들은</w>": 14679,
  "뢀": 1249,
  "컴파일": 24412,
  "배울</w>": 14364,
  "지게</w>": 9498,
  "XCafe</w>": 29538,
  "문제가</w>": 7694,
  "사역을</w>": 29963,
  "경우에도</w>": 14815,
  "다가</w>": 7245,
  "싸</w>": 4847,
  "폭로": 25924,
  "밗</w>": 6544,
  "뽑</w>": 6357,
  "방식에</w>": 20164,
  "도쿄</w>": 15246,
  "띔</w>": 6588,
  "직원이</w>": 16635,
  "댠": 801,
  "쩰</w>": 6089,
  "춪</w>": 6410,
  "적응": 11465,
  "new": 19634,
  "한자": 28547,
  "여인</w>": 28597,
  "하루살이</w>": 19301,
  "눝</w>": 6739,
  "경복": 30462,
  "공식": 10284,
  "죳</w>": 6048,
  "pr": 12201,
  "오른</w>": 13348,
  "춥": 3182,
  "지도를</w>": 19369,
  "같습니다</w>": 7520,
  "Network</w>": 26174,
  "여행계획을</w>": 26362,
  "보시면</w>": 13675,
  "하나에</w>": 17337,
  "노동자</w>": 15480,
  "팭</w>": 6905,
  "구독</w>": 17589,
  "관계로</w>": 18091,
  "특히": 17411,
  "긾</w>": 6192,
  "스코어": 13455,
  "부가가치": 30768,
  "Script</w>": 29555,
  "타자로</w>": 31360,
  "맿": 1400,
  "중이며</w>": 26813,
  "돌아": 7378,
  "분석하는</w>": 29639,
  "보이며</w>": 25448,
  "자입니다</w>": 23847,
  "수사</w>": 15623,
  "맺고</w>": 20746,
  "링": 1357,
  "끄덕": 30929,
  "2인": 29318,
  "흐름": 10319,
  "보신</w>": 25069,
  "틸": 3561,
  "구요</w>": 7930,
  "40년</w>": 27308,
  "사용합니다</w>": 13979,
  "TripAdvisor</w>": 14014,
  "간과": 28446,
  "툼": 3507,
  "륫": 1315,
  "저렴하게</w>": 19763,
  "which</w>": 30556,
  "투자</w>": 9679,
  "파일을</w>": 9236,
  "풍경": 13858,
  "쪾": 2988,
  "리드</w>": 20892,
  "하려</w>": 12123,
  "발사": 17830,
  "주신</w>": 9875,
  "한게</w>": 14814,
  "사용되고</w>": 19728,
  "ert</w>": 26903,
  "쓸": 2302,
  "십자가</w>": 24820,
  "햇": 3755,
  "특가</w>": 15610,
  "입장은</w>": 31050,
  "중대한</w>": 21354,
  "하다면</w>": 14811,
  "견적": 20767,
  "선수들은</w>": 27236,
  "타기</w>": 16436,
  "받거나</w>": 27541,
  "ess</w>": 11055,
  "반대</w>": 13539,
  "안타": 9880,
  "매장을</w>": 27904,
  "리우": 19658,
  "기원</w>": 20909,
  "상대로</w>": 12919,
  "기숙": 17073,
  "롸": 1246,
  "추신": 21551,
  "ures</w>": 23827,
  "개월간</w>": 32250,
  "앞으로도</w>": 11666,
  "에프": 25991,
  "2002</w>": 19272,
  "둣</w>": 5492,
  "매니지": 28911,
  "렴": 1216,
  "소식이</w>": 18979,
  "라이트": 16740,
  "유저</w>": 22128,
  "섹시": 8807,
  "치료의</w>": 25236,
  "있겠죠</w>": 23894,
  "앹</w>": 6171,
  "iOS</w>": 15527,
  "견해를</w>": 31548,
  "쭉": 3019,
  "액세서리</w>": 22756,
  "녠": 643,
  "VR</w>": 15266,
  "납부": 17045,
  "직원들이</w>": 15396,
  "그것": 10915,
  "Mag": 23863,
  "인테리어</w>": 14667,
  "제약</w>": 18327,
  "핵실험": 30623,
  "유튜버": 25802,
  "자금</w>": 13150,
  "젆": 2741,
  "김모</w>": 32401,
  "vol": 27607,
  "뎐": 843,
  "배제": 17079,
  "fact": 31682,
  "아니라면</w>": 19258,
  "하다가</w>": 10175,
  "맃": 1359,
  "릱": 1348,
  "았</w>": 4436,
  "정도의</w>": 10491,
  "붆</w>": 6600,
  "배</w>": 4491,
  "Be": 10704,
  "지상</w>": 17132,
  "vide": 12905,
  "역은</w>": 21465,
  "Grand</w>": 29217,
  "테크놀": 23581,
  "마침내</w>": 16867,
  "두려워</w>": 31491,
  "문화적</w>": 17127,
  "불안한</w>": 28722,
  "제재가</w>": 8701,
  "문에서</w>": 14080,
  "art</w>": 16447,
  "귁": 293,
  "성과를</w>": 13815,
  "예금": 19790,
  "compris": 26597,
  "촬</w>": 4552,
  "못하도록</w>": 29594,
  "201": 6963,
  "극심한</w>": 25105,
  "클럽": 11228,
  "빱": 1809,
  "뎶": 853,
  "색을</w>": 13252,
  "통화</w>": 14281,
  "예컨대</w>": 27633,
  "혐의를</w>": 20936,
  "립니다</w>": 7237,
  "서가</w>": 10506,
  "일경에서</w>": 30736,
  "유로</w>": 13094,
  "][</w>": 8608,
  "시점에</w>": 15819,
  "무게": 12880,
  "쏘": 2234,
  "미사": 12617,
  "50": 7453,
  "참석했다</w>": 26243,
  "둔다</w>": 23616,
  "성우</w>": 28274,
  "니트": 31641,
  "영광": 12850,
  "높</w>": 5730,
  "기재": 11674,
  "tic</w>": 25798,
  "잡은</w>": 13284,
  "쭙": 3023,
  "튀</w>": 4899,
  "겮</w>": 5467,
  "독일</w>": 9270,
  "블로</w>": 31185,
  "들게</w>": 18145,
  "제품의</w>": 11559,
  "또다시</w>": 20957,
  "반찬</w>": 31610,
  "수직": 24999,
  "선글라스</w>": 31049,
  "호흡을</w>": 25496,
  "받는다</w>": 12389,
  "갱": 118,
  "니당</w>": 32082,
  "빨간머리</w>": 26700,
  "트랙백이</w>": 23826,
  "올린다</w>": 27241,
  "형광": 31419,
  "확인하여</w>": 28865,
  "선택하면</w>": 21504,
  "함유": 18012,
  "펠</w>": 5056,
  "유아교육": 28186,
  "햬</w>": 6056,
  "진영": 24790,
  "마구</w>": 21996,
  "적극": 9927,
  "이었어요</w>": 20051,
  "수수</w>": 21452,
  "미성년자</w>": 29894,
  "유저들이</w>": 29413,
  "들어올</w>": 31067,
  "더는</w>": 19811,
  "방침을</w>": 20968,
  "퇴근</w>": 20950,
  "시설</w>": 7761,
  "기호": 30740,
  "밌</w>": 5590,
  "리지</w>": 8256,
  "종으로</w>": 24811,
  "시리": 7846,
  "생성": 9574,
  "To": 26962,
  "샡": 1960,
  "었으며</w>": 26218,
  "본격</w>": 22143,
  "10년간</w>": 26744,
  "정립": 28376,
  "붕괴": 18390,
  "컫": 3272,
  "조정": 10270,
  "지라</w>": 17554,
  "웈": 2560,
  "십니다</w>": 11140,
  "관이</w>": 9373,
  "방문한</w>": 18476,
  "해서만</w>": 19814,
  "거룩": 16452,
  "가입시</w>": 31339,
  "춸</w>": 5687,
  "맛": 1377,
  "사명": 29749,
  "설마</w>": 26033,
  "제도적</w>": 31237,
  "트위터를</w>": 32392,
  "밖의</w>": 13525,
  "대부분의</w>": 9413,
  "계약은</w>": 30953,
  "쨱": 2953,
  "충남": 15376,
  "tern": 31564,
  "LC</w>": 25832,
  "반응은</w>": 26921,
  "Master</w>": 31431,
  "생각합니다</w>": 9281,
  "란</w>": 3979,
  "흑</w>": 4640,
  "이해": 7385,
  "성공한</w>": 16120,
  "순간이</w>": 25714,
  "진보</w>": 21266,
  "입는</w>": 23564,
  "제공하지</w>": 22375,
  "창으로</w>": 31155,
  "의존하는</w>": 18862,
  "이러한</w>": 7348,
  "알고": 10614,
  "컥": 3270,
  "햑</w>": 5847,
  "엄</w>": 4500,
  "돞</w>": 6704,
  "환자는</w>": 24849,
  "하이라": 17501,
  "약속을</w>": 19029,
  "폿</w>": 5219,
  "넣은</w>": 19549,
  "블로그</w>": 8069,
  "정치</w>": 8317,
  "급한</w>": 18321,
  "맞춰서</w>": 25986,
  "하지": 14089,
  "하던</w>": 8461,
  "인테리어": 26599,
  "심판": 15018,
  "나란히</w>": 22663,
  "주장": 8628,
  "콧</w>": 5408,
  "위한</w>": 7047,
  "냡": 581,
  "와이파이</w>": 17735,
  "순위로</w>": 26901,
  "현지에서</w>": 27887,
  "새</w>": 4610,
  "확인</w>": 7878,
  "맙": 1376,
  "노하우를</w>": 24957,
  "입력하면</w>": 28933,
  "첌": 3101,
  "잃어버린</w>": 21536,
  "신학</w>": 24788,
  "겡": 165,
  "해본다</w>": 29518,
  "센트": 20057,
  "지킬</w>": 23623,
  "스타디": 15820,
  "로컬": 25741,
  "본부": 15092,
  "캐리": 27443,
  "먼지</w>": 27953,
  "갤러리</w>": 10849,
  "맆</w>": 6518,
  "무작": 17716,
  "가족과</w>": 16032,
  "나머": 10118,
  "마침": 15651,
  "전리품</w>": 23843,
  "4일</w>": 11332,
  "티타": 28209,
  "세인": 13035,
  ",</w>": 4889,
  "지출</w>": 28337,
  "죽어</w>": 32557,
  "분쟁": 8155,
  "랖": 1149,
  "곳": 206,
  "닻</w>": 6005,
  "수준에</w>": 21336,
  "까지도</w>": 12040,
  "블록체": 25474,
  "모르겠": 11523,
  "챔피언스리그</w>": 20135,
  "인지</w>": 7556,
  "표시할</w>": 30991,
  "ates</w>": 23283,
  "해질</w>": 8358,
  "인터페이": 17330,
  "쒸</w>": 5649,
  "이용하기</w>": 24471,
  "열정</w>": 25564,
  "지나면</w>": 17143,
  "볶": 1684,
  "지나고</w>": 23252,
  "프랑스</w>": 9535,
  "소식</w>": 10982,
  "컁": 3267,
  "조례": 21271,
  "젱</w>": 5367,
  "쒄": 2280,
  "갋": 92,
  "끊어": 28342,
  "늙</w>": 6224,
  "튺": 3535,
  "잔</w>": 4752,
  "역</w>": 4051,
  "미러</w>": 31002,
  "76": 24392,
  "안될</w>": 24354,
  "작고</w>": 19937,
  "펭": 3623,
  "계좌로</w>": 31390,
  "간편하게</w>": 15013,
  "햇살": 16892,
  "텟</w>": 5208,
  "휵</w>": 6238,
  "이루": 7632,
  "곳에서는</w>": 28421,
  "시장에</w>": 12166,
  "의원은</w>": 14269,
  "복음": 12428,
  "도덕적</w>": 25424,
  "맺": 1396,
  "안정된</w>": 30288,
  "대여</w>": 19908,
  "놨</w>": 5559,
  "anal</w>": 27087,
  "임신</w>": 15340,
  "리다</w>": 17929,
  "생기고</w>": 23057,
  "지난해</w>": 9132,
  "단호": 27407,
  "쉅": 2096,
  "가벼": 12482,
  "12월</w>": 8372,
  "바구": 16021,
  "최저임금</w>": 23275,
  "Hub</w>": 13194,
  "톳</w>": 5360,
  "압을</w>": 23832,
  "프로그램": 7417,
  "찾는다</w>": 30563,
  "나를</w>": 8133,
  "무대": 19038,
  "아메리칸": 23698,
  "온천</w>": 23257,
  "겨</w>": 4505,
  "끨": 529,
  "씸": 2322,
  "수": 2078,
  "Ne": 19348,
  "죽고</w>": 23521,
  "어르": 15232,
  "않을</w>": 7799,
  "계신": 25304,
  "선명": 20137,
  "발전에</w>": 17916,
  "컫</w>": 6598,
  "풍": 3676,
  "수기</w>": 31112,
  "호텔</w>": 7110,
  "새를</w>": 29107,
  "남이</w>": 23678,
  "멘": 1434,
  "후속</w>": 27947,
  "임대</w>": 21310,
  "것이지요</w>": 19572,
  "앜": 2350,
  "CP</w>": 17608,
  "밀히</w>": 24743,
  "ual": 31242,
  "지르": 27257,
  "들에서</w>": 19343,
  "꽅": 442,
  "리버풀</w>": 26283,
  "니언</w>": 20648,
  "FTA</w>": 19775,
  "에드": 22296,
  "가죽": 19203,
  "떧": 1024,
  "설치된</w>": 16286,
  "검증된</w>": 32581,
  "자기</w>": 7656,
  "잟</w>": 5253,
  "상임": 18418,
  "쏟": 2238,
  "아름다움</w>": 16684,
  "키즈": 20588,
  "사정</w>": 9004,
  "놰": 666,
  "시공": 17914,
  "용량</w>": 14765,
  "싱가포르</w>": 16157,
  "출신": 14033,
  "PI": 26444,
  "Gets</w>": 25575,
  "되거나</w>": 12377,
  "등장한다</w>": 28442,
  "시네": 19269,
  "사이클": 19450,
  "상업": 8981,
  "거둔</w>": 27185,
  "계약에</w>": 26627,
  "연세": 18767,
  "틔</w>": 5592,
  "제한된</w>": 24917,
  "4월</w>": 8462,
  "꼴</w>": 5438,
  "ute</w>": 20261,
  "지상": 15761,
  "생기게</w>": 31468,
  "경기도</w>": 10037,
  "쁜</w>": 4613,
  "뼁</w>": 6844,
  "전체적으로</w>": 15620,
  "엗": 2426,
  "헤이": 18604,
  "뎄": 836,
  "으려고</w>": 19646,
  "들어도</w>": 28586,
  "묻": 1511,
  "내게</w>": 10911,
  "욕구를</w>": 23458,
  "구성": 7323,
  "재질</w>": 32007,
  "듣": 951,
  "발레": 24638,
  "지정된</w>": 17657,
  "얘기": 9563,
  "돓": 865,
  "자매</w>": 27763,
  "지중": 25263,
  "정보</w>": 7022,
  "부처</w>": 24405,
  "규모</w>": 9801,
  "대부분</w>": 8634,
  "뇌졸": 25641,
  "고혈압</w>": 23357,
  "쨋</w>": 6336,
  "!!!!</w>": 22597,
  "스페인의</w>": 23385,
  "누나</w>": 21156,
  "퓨</w>": 4932,
  "성령": 12628,
  "랭킹</w>": 17774,
  "날이</w>": 10781,
  "피드백</w>": 31899,
  "양념": 20196,
  "온도는</w>": 31268,
  "특징이</w>": 25659,
  "그들이</w>": 10007,
  "긔": 330,
  "하였을</w>": 18585,
  "어른</w>": 27663,
  "근로자</w>": 20408,
  "세션</w>": 25631,
  "영어를</w>": 17413,
  "사회적으로</w>": 25398,
  "시애틀": 32272,
  "있었기</w>": 18994,
  "서평</w>": 21746,
  "쪕": 2981,
  "컬렉션</w>": 19935,
  "변</w>": 4349,
  "이야</w>": 10153,
  "헌": 3780,
  "sa": 32485,
  "페": 3615,
  "캠페": 12069,
  "쭌</w>": 5910,
  "텨": 3466,
  "te": 9939,
  "믿음": 12808,
  "휸": 3918,
  "000원": 30694,
  "부당한</w>": 25646,
  "면제</w>": 28831,
  "가지의</w>": 12841,
  "물류</w>": 21169,
  "기계</w>": 9474,
  "바라는</w>": 14547,
  "살인</w>": 22728,
  "전압</w>": 28289,
  "개성</w>": 32502,
  "신사</w>": 31245,
  "리플": 29182,
  "Si": 25554,
  "욕구</w>": 31961,
  "문이</w>": 10804,
  "더군요</w>": 9195,
  "튘": 3526,
  "졌으며</w>": 26812,
  "놀랍": 17307,
  "맞아요</w>": 30917,
  "Tables</w>": 23401,
  "스리": 18580,
  "함양": 32636,
  "짯</w>": 6718,
  "교육원</w>": 29905,
  "야기": 21523,
  "황금</w>": 31497,
  "오는</w>": 7259,
  "소개해</w>": 19755,
  "있었지만</w>": 12952,
  "으셨": 24269,
  "제주</w>": 10906,
  "겼다</w>": 10593,
  "엍</w>": 6293,
  "애니메이": 10822,
  "는지도</w>": 24266,
  "괴": 232,
  "Tit": 31107,
  "선수의</w>": 20293,
  "보는": 16921,
  "튑": 3523,
  "오셨": 22956,
  "퀌": 3350,
  "릳": 1350,
  "국가대표</w>": 24347,
  "잡이</w>": 29900,
  "남북</w>": 13965,
  "istory</w>": 22089,
  "춈</w>": 6121,
  "쾬": 3328,
  "형식의</w>": 22333,
  "전은</w>": 13517,
  "베이비</w>": 18093,
  "테라스</w>": 16622,
  "해결할</w>": 15361,
  "논쟁": 17699,
  "상담": 8348,
  "밑에</w>": 16276,
  "오르가즘</w>": 17575,
  "2016년</w>": 9035,
  "뙁</w>": 5959,
  "덕분에</w>": 10225,
  "캐</w>": 4609,
  "앖": 2345,
  "것이다</w>": 7018,
  "집에</w>": 9182,
  "군대</w>": 20472,
  "정상": 7716,
  "개월</w>": 7473,
  "UB</w>": 23685,
  "거리에</w>": 8808,
  "뿜": 1893,
  "당일": 16420,
  "H": 32,
  "처가</w>": 17644,
  "하남": 31603,
  "뇻": 676,
  "관리자가</w>": 29885,
  "늬": 740,
  "쓴</w>": 4815,
  "오바마</w>": 25874,
  "uk": 16611,
  "경상": 13934,
  "식물의</w>": 31034,
  "올라가": 29128,
  "씬</w>": 4502,
  "싸": 2175,
  "디지": 8163,
  "밝혔습니다</w>": 23173,
  "1993년</w>": 27896,
  "우": 2541,
  "VM": 21738,
  "사랑은</w>": 15909,
  "통해서</w>": 8952,
  "개관</w>": 26738,
  "젅": 2740,
  "팸": 3591,
  "일본이</w>": 21121,
  "실무</w>": 20396,
  "어디까지나</w>": 31485,
  "안과</w>": 21301,
  "철저히</w>": 16482,
  "자세가</w>": 32146,
  "성폭행</w>": 21941,
  "할지도</w>": 24031,
  "걘": 135,
  "형제</w>": 18768,
  "문장</w>": 20938,
  "사회와</w>": 17765,
  "귺": 311,
  "어플": 10606,
  "핧": 3736,
  "일부를</w>": 16805,
  "등으로</w>": 8804,
  "뇹": 675,
  "재난": 18479,
  "비법</w>": 32289,
  "득": 947,
  "puss": 16855,
  "징계": 30389,
  "머</w>": 4631,
  "해병": 27461,
  "구두의</w>": 18467,
  "댯</w>": 6266,
  "싶고</w>": 25077,
  "밖</w>": 5166,
  "중국에서</w>": 16722,
  "태풍</w>": 26711,
  "바울": 16794,
  "쵸</w>": 4890,
  "교향": 30353,
  "거룩한</w>": 24364,
  "땐</w>": 4603,
  "레즈비언</w>": 9626,
  "되돌아": 24883,
  "힝</w>": 5921,
  "초": 3136,
  "코디": 19622,
  "등장했다</w>": 32731,
  "통보": 16577,
  "1억원</w>": 22474,
  "유연": 13309,
  "기자": 9279,
  "아름답게</w>": 23654,
  "내부의</w>": 22047,
  "많이</w>": 7065,
  "삣": 1922,
  "한때</w>": 19824,
  "스룸</w>": 29868,
  "후보자</w>": 26437,
  "고객님께서</w>": 28799,
  "파의</w>": 19853,
  "하십시오</w>": 7945,
  "보기는</w>": 31738,
  "불편함을</w>": 30723,
  "풀고</w>": 23857,
  "소셜그래프사이트</w>": 18320,
  "회로": 25738,
  "ank": 19792,
  "섀</w>": 6251,
  "아쉬": 11404,
  "기구": 20569,
  "2위</w>": 14015,
  "생생": 14135,
  "유인": 28796,
  "에어컨</w>": 16321,
  "때문입니다</w>": 9860,
  "재미": 8079,
  "원으로</w>": 9512,
  "전국</w>": 9556,
  "사귀": 20172,
  "50대</w>": 24832,
  "양해</w>": 24757,
  "대회에서</w>": 17152,
  "한을</w>": 21148,
  "신용": 8416,
  "선생님이</w>": 18789,
  "회원가입</w>": 13123,
  "애틀랜": 18364,
  "손": 2040,
  "묨": 1501,
  "헴": 3798,
  "일치</w>": 16708,
  "21페이지</w>": 21490,
  "궉": 270,
  "뉴스레터</w>": 31161,
  "가슴": 8706,
  "홍보를</w>": 29572,
  "누가</w>": 9022,
  "뺍</w>": 6007,
  "자지": 28277,
  "노트북</w>": 14552,
  "어셈": 31477,
  "비행": 9596,
  "신청서</w>": 17968,
  "시원": 10625,
  "릿</w>": 4495,
  "맥주": 26217,
  "투수</w>": 16257,
  "낡": 547,
  "중산": 32308,
  "얄</w>": 5031,
  "뻔</w>": 4831,
  "흉</w>": 5671,
  "괭": 230,
  "unit</w>": 26893,
  "책입니다</w>": 32204,
  "정보로</w>": 19943,
  "P를</w>": 22662,
  "2013년</w>": 10814,
  "29</w>": 10290,
  "꺢": 388,
  "배양": 31820,
  "졍": 2779,
  "알림": 19002,
  "아이의</w>": 14195,
  "됢": 897,
  "부탁": 8351,
  "스탠다드</w>": 26897,
  "대통령이</w>": 10169,
  "어느</w>": 7548,
  "개와</w>": 23062,
  "나르": 22847,
  "나이든": 12327,
  "점유율</w>": 28654,
  "기본적인</w>": 11682,
  "버전으로</w>": 17656,
  "3페이지</w>": 9621,
  "크기</w>": 12288,
  "에도</w>": 7084,
  "감사한</w>": 31364,
  "한잔</w>": 24224,
  "쿨</w>": 4381,
  "모스크바</w>": 30493,
  "화될</w>": 31562,
  "엿볼</w>": 30826,
  "폿": 3646,
  "지금도</w>": 11620,
  "이명": 11277,
  "cr": 24401,
  "뚫</w>": 6501,
  "비지": 17976,
  "참고하십시오</w>": 11428,
  "훅</w>": 4428,
  "과목</w>": 15528,
  "칼럼": 19414,
  "딘": 973,
  "나오고</w>": 12325,
  "진입</w>": 28072,
  "이곳에서</w>": 15720,
  "CCTV</w>": 23923,
  "제12": 26106,
  "규명": 22727,
  "사업에</w>": 14267,
  "선정한</w>": 29420,
  "워크": 10852,
  "현상을</w>": 16613,
  "인증": 9039,
  "모씨</w>": 22085,
  "가격을</w>": 14272,
  "수신": 12279,
  "맟": 1381,
  "닐</w>": 4863,
  "부모가</w>": 17768,
  "곡": 196,
  "무궁": 23056,
  "치와</w>": 21974,
  "세컨": 30817,
  "대학생</w>": 14090,
  "쭌": 3020,
  "쪠": 2985,
  "희가</w>": 23994,
  "홈런을</w>": 14693,
  "기인</w>": 28285,
  "펏</w>": 5771,
  "찼": 3069,
  "주의로</w>": 32247,
  "힠": 3957,
  "장기적인</w>": 28736,
  "해주세요</w>": 9072,
  "출": 3176,
  "소금": 21451,
  "ting</w>": 13643,
  "강남</w>": 15524,
  "돈을</w>": 8594,
  "발견": 7570,
  "재해</w>": 28496,
  "마일": 15329,
  "배치": 11330,
  "조명": 16555,
  "베트남": 17155,
  "보건소</w>": 29831,
  "그것</w>": 16011,
  "심사위원": 27758,
  "아카": 11282,
  "딛</w>": 6349,
  "쓰리": 30839,
  "레벨</w>": 15487,
  "정품": 30267,
  "20</w>": 8115,
  "세기</w>": 9839,
  "글쓴이</w>": 15868,
  "은행의</w>": 19018,
  "인도": 9435,
  "갓</w>": 4952,
  "왓": 2502,
  "반려": 13862,
  "저작": 7100,
  "건축</w>": 13077,
  "사건이</w>": 14427,
  "즈</w>": 4111,
  "저런</w>": 11662,
  "조작</w>": 15284,
  "페어</w>": 19547,
  "씾": 2327,
  "꺆</w>": 6263,
  "얖</w>": 6147,
  "북부": 29729,
  "회원에</w>": 26343,
  "호수</w>": 17138,
  "시작할</w>": 14911,
  "위원회에</w>": 25540,
  "아내가</w>": 20126,
  "인간이</w>": 13184,
  "룰렛</w>": 28493,
  "뚫고</w>": 24689,
  "팀</w>": 4091,
  "탄력": 27272,
  "먠</w>": 6584,
  "이은</w>": 21716,
  "어떨": 13030,
  "노키": 27457,
  "UV</w>": 29320,
  "유연한</w>": 25956,
  "되기도</w>": 12789,
  "무겁": 23044,
  "가르쳐": 22996,
  "유닛</w>": 28288,
  "만원이상</w>": 25484,
  "캍": 3249,
  "관리사</w>": 31317,
  "계정": 22548,
  "나사의</w>": 23801,
  "그림": 8213,
  "식품": 9433,
  "선거에서</w>": 24197,
  "떙</w>": 6636,
  "평화의</w>": 23274,
  "댓글을</w>": 9501,
  "햇</w>": 5200,
  "운다</w>": 17056,
  "맑": 1372,
  "학생들의</w>": 14862,
  "버전은</w>": 26533,
  "Story</w>": 27281,
  "아크로</w>": 30032,
  "조직": 8035,
  "실천하는</w>": 31784,
  "오후에</w>": 31710,
  "안보</w>": 23212,
  "그들은</w>": 8668,
  "움을</w>": 8828,
  "언론": 8581,
  "이때</w>": 11531,
  "당사</w>": 24176,
  "오를</w>": 12238,
  "뽐</w>": 5815,
  "씅": 2309,
  "쪽": 2987,
  "평범한</w>": 14441,
  "봐라</w>": 24843,
  "데다가</w>": 25733,
  "공기청": 29427,
  "포스트시즌</w>": 27243,
  "작년에</w>": 19490,
  "등": 959,
  "찍": 3045,
  "않는다고</w>": 18599,
  "아침에</w>": 13042,
  "Upd": 28002,
  "상태에서</w>": 11969,
  "아기": 14323,
  "96</w>": 26538,
  "ore</w>": 10418,
  "전자상거래</w>": 18516,
  "기반의</w>": 15513,
  "팃": 3564,
  "면에</w>": 9871,
  "얇": 2377,
  "뵷</w>": 5180,
  "레포트": 12071,
  "Management</w>": 25542,
  "들로</w>": 9762,
  "샊</w>": 6280,
  "삼키": 20426,
  "거리를</w>": 12119,
  "파이어": 16507,
  "날": 546,
  "터를</w>": 9562,
  "기업인</w>": 26086,
  "그런</w>": 7232,
  "Buil": 25593,
  "내역이</w>": 24742,
  "퍼포먼스</w>": 29099,
  "우크라이나</w>": 24480,
  "남친": 30337,
  "선수로</w>": 23996,
  "폐</w>": 5072,
  "Leon": 31143,
  "첡</w>": 6768,
  "수준으로</w>": 17617,
  "띾": 1138,
  "업무가</w>": 30782,
  "껀</w>": 4882,
  "죵</w>": 4780,
  "돛": 871,
  "근접": 29691,
  "깞</w>": 6094,
  "적한</w>": 29186,
  "잇": 2677,
  "일지라도</w>": 32186,
  "시행</w>": 16163,
  "얩": 2395,
  "혈관": 23096,
  "작가": 10899,
  "큼</w>": 4307,
  "음에</w>": 15596,
  "불로</w>": 30507,
  "남자친구</w>": 24815,
  "댄스</w>": 16281,
  "학은</w>": 29093,
  "ary</w>": 13305,
  "협의를</w>": 30565,
  "인재</w>": 21656,
  "옝</w>": 5600,
  "ateg": 23988,
  "얠": 2393,
  "일기</w>": 18552,
  "Korea</w>": 15141,
  "용역</w>": 26618,
  "강의를</w>": 15683,
  "잛</w>": 6822,
  "난": 544,
  "달려": 11773,
  "운동의</w>": 16045,
  "전화로</w>": 23908,
  "사용자를</w>": 21940,
  "못한</w>": 8229,
  "6시</w>": 19815,
  "시대를</w>": 13544,
  "땔</w>": 6736,
  "대학교에서</w>": 28639,
  "담당자</w>": 17343,
  "외래": 30775,
  "스포츠는</w>": 28922,
  "볿": 1691,
  "삼성전자</w>": 13528,
  "낼": 567,
  "마음도</w>": 25983,
  "기사</w>": 7914,
  "굣</w>": 6746,
  "플라": 8821,
  "샇</w>": 6532,
  "관람": 12229,
  "췻</w>": 6512,
  "타협": 25981,
  "SK텔레콤": 28741,
  "쥬</w>": 4643,
  "홑</w>": 6204,
  "하겠": 8657,
  "근황</w>": 25051,
  "남겼다</w>": 26481,
  "승부를</w>": 20410,
  "호치": 32264,
  "3의</w>": 21500,
  "항에</w>": 12896,
  "말이죠</w>": 13642,
  "뷔</w>": 5267,
  "6페이지</w>": 10184,
  "가져": 7995,
  "다운로드를</w>": 30722,
  "점입니다</w>": 19711,
  "슨</w>": 4409,
  "했으나</w>": 12382,
  "째로</w>": 26240,
  "신경</w>": 13288,
  "학위논문</w>": 30844,
  "연락</w>": 13972,
  "운임": 23305,
  "귄": 294,
  "애가</w>": 21706,
  "벗어나</w>": 16178,
  "ft</w>": 22235,
  "최고의</w>": 8014,
  "적용하는</w>": 28652,
  "겄</w>": 6164,
  "공동체</w>": 15024,
  "스톡": 30019,
  "성추": 17249,
  "모아</w>": 13592,
  "렜": 1204,
  "자들은</w>": 8630,
  "시계</w>": 11949,
  "왜": 2507,
  "NET</w>": 23482,
  "프로토콜": 23033,
  "력을</w>": 7262,
  "아내의</w>": 26127,
  "질과</w>": 20344,
  "의약품": 27759,
  "목록에</w>": 26144,
  "득점": 17421,
  "어로</w>": 10237,
  "공격</w>": 13325,
  "조사": 8475,
  "의미한다</w>": 15135,
  "도중에</w>": 28042,
  "슬레": 31081,
  "온도가</w>": 30546,
  "높아지고</w>": 20820,
  "대북</w>": 25121,
  "견적</w>": 19914,
  "만들어서</w>": 17962,
  "샤오": 19836,
  "컹": 3279,
  "이치": 22678,
  "로그인이</w>": 17663,
  "Porn</w>": 9954,
  "방문자</w>": 32372,
  "눁</w>": 6440,
  "720": 30383,
  "ep": 9346,
  "무대로</w>": 32302,
  "Tech": 21300,
  "전부</w>": 10939,
  "올스타": 32305,
  "집": 2905,
  "식사를</w>": 10647,
  "알코올</w>": 26526,
  "tits</w>": 21063,
  "수영</w>": 20924,
  "오른쪽에</w>": 27041,
  "멤버": 10624,
  "주셔야</w>": 23377,
  "스탈": 24324,
  "으로써</w>": 8202,
  "원본</w>": 18236,
  "인물이</w>": 24170,
  "가기로</w>": 31032,
  "브레이크</w>": 24460,
  "제치고</w>": 27815,
  "하가</w>": 23445,
  "뽐": 1874,
  "다리</w>": 10285,
  "패러": 14018,
  "생일": 21277,
  "설비</w>": 17540,
  "미는</w>": 14628,
  "편성": 19501,
  "한남자</w>": 31825,
  "슘</w>": 4951,
  "합창": 20787,
  "꼩</w>": 6507,
  "닼": 782,
  "쭸": 3027,
  "13페이지</w>": 14681,
  "부지런": 26489,
  "기자가</w>": 21786,
  "향해</w>": 11066,
  "됐다</w>": 7457,
  "상점</w>": 27852,
  "마리의</w>": 30834,
  "팀": 3562,
  "물고</w>": 23838,
  "하자는</w>": 18411,
  "님들께</w>": 31735,
  "띺": 1135,
  "1차</w>": 11042,
  "걱정": 9705,
  "버스터": 30918,
  "제3자의</w>": 27105,
  "재료의</w>": 30539,
  "당신과</w>": 31209,
  "해온</w>": 14944,
  "자재</w>": 30239,
  "크라우": 21546,
  "씁": 2306,
  "character": 31305,
  "도박을</w>": 25695,
  "반하는</w>": 28542,
  "땃": 997,
  "민주주의를</w>": 32193,
  "음식은</w>": 15597,
  "하다고</w>": 8445,
  "MBC": 22401,
  "상태다</w>": 19529,
  "보이기</w>": 23172,
  "될까</w>": 14535,
  "Bra": 24227,
  "휑</w>": 5876,
  "바운": 18351,
  "우리나라가</w>": 32516,
  "플랫폼</w>": 12364,
  "타임": 10634,
  "시키기</w>": 13832,
  "않거나</w>": 20861,
  "뉼": 713,
  "공유기</w>": 31698,
  "10만</w>": 21658,
  "법적으로</w>": 27370,
  "텍사스": 30958,
  "후보로</w>": 25752,
  "패턴을</w>": 23773,
  "고치": 32569,
  "들을</w>": 7012,
  "도면</w>": 32168,
  "부탁드립니다</w>": 9786,
  "뒜</w>": 6751,
  "15": 7202,
  "려면</w>": 8709,
  "작동하지</w>": 18118,
  "나서는</w>": 23989,
  "사인</w>": 16313,
  "쵸": 3164,
  "VIP": 29367,
  "Group</w>": 27797,
  "출전</w>": 20866,
  "했네요</w>": 22526,
  "싼": 2178,
  "게시</w>": 16887,
  "답니다</w>": 9475,
  "뒤를</w>": 18250,
  "존경하는</w>": 28152,
  "전국": 9557,
  "곧바로</w>": 16981,
  "이렇게": 24027,
  "정작</w>": 14736,
  "컨설팅</w>": 14165,
  "5장</w>": 28640,
  "8페이지</w>": 10935,
  "보를</w>": 12757,
  "루스</w>": 20320,
  "첝": 3106,
  "장시간</w>": 22001,
  "가량</w>": 17251,
  "될수</w>": 23079,
  "다보니</w>": 12276,
  "대로</w>": 7059,
  "들이다</w>": 13909,
  "AD": 13516,
  "Ber": 27863,
  "놈</w>": 4825,
  "프리랜": 29239,
  "렘": 1201,
  "유공": 27906,
  "행성": 30691,
  "충</w>": 4642,
  "보로</w>": 16091,
  "마세요</w>": 12624,
  "안정성</w>": 27618,
  "주위의</w>": 30669,
  "풤": 3681,
  "Mil": 19665,
  "진열": 31655,
  "라티</w>": 28121,
  "Emp": 28579,
  "얹</w>": 5835,
  "춥</w>": 6074,
  "다중</w>": 22612,
  "연맹</w>": 14380,
  "보기</w>": 7079,
  "mem": 20375,
  "횬": 3870,
  "쇼핑몰": 12900,
  "파이어폭스</w>": 28269,
  "나이트</w>": 20671,
  "열에</w>": 20118,
  "궘": 276,
  "점검</w>": 14287,
  "1에</w>": 21970,
  "뮤</w>": 4551,
  "주당</w>": 18335,
  "ings</w>": 17361,
  "럐</w>": 5871,
  "It</w>": 20928,
  "계정</w>": 11818,
  "온통</w>": 28034,
  "캐스": 15119,
  "튘</w>": 6553,
  "프로그래밍": 20986,
  "정동": 23703,
  "퇄": 3491,
  "식에서</w>": 20906,
  "앝</w>": 5806,
  "영리</w>": 21037,
  "용도": 24113,
  "대박": 23889,
  "Cle": 28529,
  "보입니다</w>": 11266,
  "컨대</w>": 22222,
  "소셜</w>": 14396,
  "규모": 8627,
  "떨어진</w>": 12260,
  "세계에</w>": 14426,
  "제공하며</w>": 22101,
  "업무를</w>": 11905,
  "기다리": 15384,
  "4대강</w>": 25947,
  "회원들이</w>": 29906,
  "듕": 945,
  "매각": 22764,
  "위험한</w>": 15611,
  "자유한국": 30134,
  "좋아": 7250,
  "번역": 8995,
  "워싱": 12637,
  "어디에</w>": 14130,
  "븛": 1777,
  "위성</w>": 13787,
  "val": 17960,
  "tion</w>": 9483,
  "ve</w>": 8277,
  "메뉴가</w>": 20318,
  "네트워크": 11127,
  "침략": 29565,
  "기원": 15144,
  "강력하게</w>": 29131,
  "주스</w>": 31754,
  "센터에</w>": 19213,
  "판단하는</w>": 27012,
  "먄": 1403,
  "촞": 3145,
  "우리에게</w>": 11146,
  "능력": 9226,
  "콮": 3316,
  "설명서</w>": 20448,
  "작지만</w>": 26234,
  "마냥</w>": 20665,
  "광</w>": 4308,
  "하게": 12199,
  "보호를</w>": 9796,
  "큇</w>": 5178,
  "신상": 21260,
  "빤": 1803,
  "남았다</w>": 27851,
  "안내를</w>": 21567,
  "업데이트된</w>": 32446,
  "좌측</w>": 28710,
  "전념": 31333,
  "벽</w>": 4710,
  "DE</w>": 26707,
  "가사</w>": 23181,
  "프로젝트를</w>": 14874,
  "흔들": 12216,
  "윈도우</w>": 11091,
  "뒵": 935,
  "김대중</w>": 24687,
  "잿": 2713,
  "데이비": 20093,
  "놓</w>": 5501,
  "이었으며</w>": 26269,
  "란을</w>": 21275,
  "체크": 9622,
  "빝</w>": 6395,
  "매스": 19255,
  "tvN</w>": 26511,
  "퀀": 3348,
  "출시를</w>": 31511,
  "교회의</w>": 13469,
  "10만": 23076,
  "껄</w>": 4675,
  "여전히</w>": 8784,
  "첨단": 22343,
  "되나</w>": 20240,
  "이리</w>": 23587,
  "KR2</w>": 25938,
  "뼉": 1856,
  "쟨": 2732,
  "Sn": 27774,
  "돼</w>": 4058,
  "마케팅을</w>": 22947,
  "해당": 7586,
  "알기</w>": 17122,
  "달</w>": 4271,
  "지정</w>": 13501,
  "다며</w>": 12369,
  "바짝</w>": 31347,
  "1문의": 9823,
  "궑": 274,
  "올리브": 28038,
  "그녀의</w>": 9352,
  "비율을</w>": 29850,
  "시키거나</w>": 28920,
  "노선</w>": 25740,
  "고려한</w>": 28280,
  "한국인의</w>": 27297,
  "합동": 24888,
  "만나보세요</w>": 29658,
  "업그레이": 11368,
  "체결한</w>": 29858,
  "앏": 2341,
  "sol": 25363,
  "원장": 25754,
  "어링</w>": 13379,
  "아님</w>": 16426,
  "AV": 17134,
  "보조</w>": 15456,
  "먼</w>": 4646,
  "뽠": 1880,
  "사용하지</w>": 12224,
  "없이는</w>": 20933,
  "현직</w>": 29568,
  "까지만</w>": 14042,
  "말레이시아</w>": 20901,
  "소정의</w>": 30147,
  "나카": 31438,
  "지오": 22423,
  "레이아웃</w>": 28662,
  "시작한</w>": 11235,
  "시": 2150,
  "쪄": 2977,
  "한다면</w>": 8161,
  "스카이": 15787,
  "양도</w>": 22592,
  "by</w>": 8931,
  "보인</w>": 21694,
  "1차전</w>": 29957,
  "간만에</w>": 28743,
  "팯": 3589,
  "스킬": 13954,
  "력의</w>": 12233,
  "TR": 16139,
  "대리</w>": 21448,
  "터리</w>": 17069,
  "접근할</w>": 19534,
  "게시물을</w>": 15984,
  "BY</w>": 26315,
  "엔터테인먼트</w>": 16423,
  "e에서</w>": 20737,
  "숨겨": 13034,
  "틎": 3545,
  "앚": 2349,
  "몽</w>": 4923,
  "영향으로</w>": 26948,
  "Fi": 10789,
  "검찰</w>": 15590,
  "국세": 22704,
  "사키</w>": 32552,
  "바람": 7966,
  "듶": 964,
  "릏</w>": 5843,
  "챦": 3092,
  "승</w>": 4121,
  "충무": 32440,
  "둣": 918,
  "죌": 2816,
  "족의</w>": 29652,
  "하여는</w>": 21218,
  "헤럴드": 27490,
  "나타나고</w>": 22720,
  "신장</w>": 28928,
  "붐</w>": 5084,
  "얻는</w>": 15933,
  "볘</w>": 6126,
  "하듯이</w>": 24122,
  "부분도</w>": 17876,
  "이들을</w>": 15046,
  "갖게</w>": 14074,
  "0에</w>": 11455,
  "뱜</w>": 5739,
  "VA</w>": 26676,
  "비할만한</w>": 21705,
  "렵</w>": 5227,
  "act": 14817,
  "아르헨": 21302,
  "적합": 9650,
  "dis": 12513,
  "올라가는</w>": 24436,
  "쩍": 2960,
  "받았을</w>": 23869,
  "진출에</w>": 32596,
  "호스": 11875,
  "꽐</w>": 6909,
  "놀이": 9117,
  "직</w>": 4598,
  "퍅</w>": 6344,
  "훗</w>": 5222,
  "정할</w>": 23533,
  "쥐": 2862,
  "됐을</w>": 22004,
  "것이기</w>": 17742,
  "부활</w>": 28122,
  "예정이며</w>": 29604,
  "뢸": 1258,
  "부각": 19420,
  "걁": 126,
  "행동에</w>": 22053,
  "이어서</w>": 12106,
  "키의</w>": 16296,
  "신성": 26617,
  "사다</w>": 29782,
  "탘": 3418,
  "유일하게</w>": 18442,
  "공헌": 19319,
  "아마추어</w>": 8658,
  "궤": 281,
  "홨": 3850,
  "10억</w>": 28304,
  "바퀴": 18958,
  "문의": 7527,
  "업데이트": 13365,
  "봍": 1699,
  "무료로</w>": 9184,
  "룀": 1261,
  "벧": 1651,
  "시대적</w>": 28611,
  "이자</w>": 9005,
  "폭행</w>": 24244,
  "촹": 3153,
  "손을</w>": 10113,
  "베를": 18087,
  "최고급</w>": 25569,
  "믹스</w>": 19419,
  "적절히</w>": 23598,
  "취</w>": 4696,
  "스타일의</w>": 14905,
  "언덕</w>": 32086,
  "그렇다면</w>": 10611,
  "술과</w>": 18791,
  "속에</w>": 8194,
  "뺸": 1832,
  "수단이</w>": 30386,
  "끽</w>": 5749,
  "ion": 8555,
  "틀을</w>": 19953,
  "셀카</w>": 16317,
  "Por": 8024,
  "빠졌다</w>": 26264,
  "장기렌트카</w>": 26815,
  "걈": 127,
  "굔</w>": 5187,
  "고도의</w>": 12765,
  "직후</w>": 18545,
  "폭": 3641,
  "클럽</w>": 10051,
  "응용</w>": 11222,
  "공부할</w>": 27630,
  "였</w>": 5023,
  "세는</w>": 15194,
  "돳": 881,
  "쯱": 3043,
  "영수증</w>": 26567,
  "알리": 15507,
  "대신</w>": 8922,
  "보에</w>": 20380,
  "매체는</w>": 32738,
  "유난": 26926,
  "KS</w>": 30219,
  "평가를</w>": 12470,
  "비밀번호</w>": 9968,
  "2일": 25269,
  "서울대": 26494,
  "믹</w>": 4528,
  "세미": 10489,
  "소개를</w>": 26485,
  "Services</w>": 32679,
  "공급": 8867,
  "처리해</w>": 8650,
  "쿠폰": 18621,
  "판결</w>": 22940,
  "하늘의</w>": 23524,
  "뻣</w>": 6891,
  "되길</w>": 17113,
  "게이트</w>": 17240,
  "흇</w>": 5531,
  "괘</w>": 5336,
  "뭔지</w>": 21531,
  "외국": 8030,
  "됨을</w>": 20212,
  "멘트</w>": 23844,
  "낮아": 17832,
  "더라": 8767,
  "게시판</w>": 10455,
  "긔</w>": 5143,
  "볕": 1676,
  "소비자": 11976,
  "앹": 2366,
  "범위</w>": 12322,
  "롄</w>": 6096,
  "ama</w>": 27883,
  "찬양": 16857,
  "접속을</w>": 30552,
  "출판": 10117,
  "만성": 19990,
  "박경": 27483,
  "뿌려": 26694,
  "공동으로</w>": 21458,
  "태양의</w>": 17203,
  "정도가</w>": 13925,
  "8</w>": 4322,
  "궈": 269,
  "Advisor</w>": 13971,
  "합작": 29294,
  "AC</w>": 21461,
  "아미": 19120,
  "웰</w>": 4837,
  "학위": 18281,
  "쐈": 2254,
  "받으면</w>": 17672,
  "작업에</w>": 18932,
  "코가</w>": 27152,
  "프로필</w>": 14058,
  "여러분": 8337,
  "컨트롤</w>": 19167,
  "늑</w>": 5913,
  "로이드</w>": 31327,
  "때로는</w>": 14903,
  "집니다</w>": 9112,
  "수평": 24709,
  "광범위": 30062,
  "일으키": 16200,
  "엉덩": 8132,
  "장관": 18498,
  "근처</w>": 12547,
  "될</w>": 4246,
  "수수료가</w>": 16343,
  "않게</w>": 9781,
  "빙</w>": 4602,
  "2012년</w>": 10955,
  "댬": 803,
  "표면": 21363,
  "플레이</w>": 9290,
  "작게</w>": 25080,
  "핸들": 32471,
  "부문</w>": 11618,
  "주관하는</w>": 32215,
  "소비자에게</w>": 32052,
  "바르셀로나</w>": 20586,
  "챤": 3091,
  "쐐": 2256,
  "쏀</w>": 6290,
  "깆</w>": 5932,
  "갔습니다</w>": 16129,
  "강하게</w>": 15583,
  "좆": 2797,
  "이스": 9537,
  "시점은</w>": 16319,
  "사이트를</w>": 10897,
  "품목</w>": 26988,
  ":</w>": 5117,
  "코리": 28916,
  "하면서도</w>": 12044,
  "아저씨</w>": 22284,
  "고기</w>": 10575,
  "m의</w>": 29428,
  "되지</w>": 7139,
  "16</w>": 8474,
  "키울</w>": 30390,
  "불이익을</w>": 29209,
  "풉": 3674,
  "밧</w>": 5190,
  "40</w>": 10432,
  "입니다만</w>": 25693,
  "활짝</w>": 28254,
  "ection</w>": 23536,
  "뺐": 1822,
  "회를</w>": 7808,
  "해서": 9870,
  "시킬</w>": 9490,
  "가진다</w>": 25576,
  "버전을</w>": 17856,
  "뻠</w>": 6534,
  "읫": 2656,
  "THE</w>": 22770,
  "주어": 13938,
  "콘텐츠": 8753,
  "상품": 7130,
  "순위": 18448,
  "디를</w>": 15860,
  "정지</w>": 15030,
  "참으로</w>": 14702,
  "당뇨": 14390,
  "Star</w>": 32560,
  "흐름</w>": 18889,
  "국무": 13927,
  "가로": 12103,
  "소비자가</w>": 22946,
  "모자</w>": 17473,
  "북미": 13452,
  "게이": 8824,
  "순한</w>": 30018,
  "췩</w>": 6642,
  "어린</w>": 9592,
  "긑": 328,
  "주는</w>": 7281,
  "부정</w>": 17910,
  "분석에</w>": 25757,
  "드립</w>": 25213,
  "Sk": 16270,
  "굽": 263,
  "표면</w>": 19973,
  "이하</w>": 9051,
  "6": 18,
  "시킨": 24914,
  "tw": 16569,
  "Drive</w>": 30846,
  "셴": 2029,
  "테이블에</w>": 26715,
  "벴": 1656,
  "천구</w>": 30284,
  "너무": 8983,
  "그러니까</w>": 12108,
  "주인공이</w>": 22292,
  "ICT</w>": 20949,
  "나눠주셔서</w>": 17017,
  "화장실</w>": 13918,
  "꿎</w>": 6817,
  "뉠": 706,
  "웠습니다</w>": 15319,
  "썹": 2213,
  "버지니": 31047,
  "튀어나": 29545,
  "넌": 592,
  "당사자가</w>": 28224,
  "휼</w>": 6409,
  "빠져</w>": 13941,
  "세금을</w>": 24398,
  "이중": 15049,
  "할아버지</w>": 20721,
  "판과</w>": 32224,
  "쉪</w>": 6583,
  "쎙</w>": 6916,
  "난다는</w>": 25786,
  "사용된</w>": 18466,
  "뤤": 1297,
  "인스턴": 14719,
  "어떤": 11801,
  "비하면</w>": 24545,
  "홋</w>": 6228,
  "입력합니다</w>": 30754,
  "만들면</w>": 25925,
  "졥": 2784,
  "OST</w>": 17861,
  "공장에서</w>": 27229,
  "맵을</w>": 30482,
  "됄</w>": 6426,
  "보육": 12383,
  "산물</w>": 18129,
  "병의</w>": 19398,
  "가르치는</w>": 22747,
  "단체가</w>": 21566,
  "이용에</w>": 13533,
  "기대하는</w>": 28850,
  "소매</w>": 20270,
  "lection</w>": 28703,
  "간담회</w>": 25687,
  "-</w>": 4638,
  "05</w>": 8532,
  "듦": 953,
  "유명하다</w>": 31086,
  "이루어</w>": 17740,
  "풍요": 23068,
  "교는</w>": 28041,
  "oung</w>": 20184,
  "그러다가</w>": 24024,
  "이른": 16934,
  "만나서</w>": 20062,
  "걱정하지</w>": 24984,
  "신제품</w>": 19436,
  "웊</w>": 6690,
  "생각의</w>": 30214,
  "국민이</w>": 16543,
  "아는": 31522,
  "변속": 29823,
  "만명의</w>": 30017,
  "예고</w>": 9509,
  "않으면서</w>": 31085,
  "시작했다</w>": 10538,
  "차이는</w>": 15902,
  "구분": 10081,
  "입체": 22765,
  "x</w>": 4173,
  "작성": 7775,
  "도를</w>": 7501,
  "측정을</w>": 19285,
  "않나요</w>": 22866,
  "칠</w>": 4769,
  "으니까요</w>": 27597,
  "축하드립니다</w>": 22321,
  "MAR": 31060,
  "사양": 23947,
  "사생활</w>": 29927,
  "ics</w>": 10077,
  "리그에서는</w>": 31829,
  "어째": 30987,
  "디": 971,
  "필</w>": 4698,
  "컨퍼런": 15622,
  "헤아": 28036,
  "제출": 8842,
  "뺌</w>": 6146,
  "도달": 14621,
  "펀드": 18061,
  "개별": 12722,
  "춀": 3166,
  "았다고</w>": 23512,
  "피하는</w>": 21952,
  "전망</w>": 10318,
  "인문학</w>": 27664,
  "옵션을</w>": 13333,
  "발견시</w>": 8720,
  "일정</w>": 8795,
  "평가하고</w>": 28849,
  "엌": 2418,
  "조항": 19298,
  "프라이": 11058,
  "정산</w>": 23962,
  "계에</w>": 17247,
  "Stat": 31879,
  "선택</w>": 8339,
  "스틸": 22282,
  "샌드": 17831,
  "장치는</w>": 31332,
  "젱": 2766,
  "해": 3747,
  "이뤄": 9906,
  "통지": 16873,
  "ex": 8402,
  "뒙": 928,
  "과": 213,
  "Jose</w>": 31434,
  "조지": 21456,
  "업계에서</w>": 27603,
  "엊</w>": 6776,
  "우회": 30106,
  "지원할</w>": 21764,
  "블랙박스</w>": 31618,
  "성적인</w>": 31256,
  "파일로</w>": 20868,
  "하우스</w>": 10355,
  "띾</w>": 6928,
  "올</w>": 4432,
  "앵커</w>": 26956,
  "통하여</w>": 9411,
  "영업을</w>": 28170,
  "비교적</w>": 12928,
  "ose</w>": 19855,
  "언어의</w>": 23647,
  "터미널": 21811,
  "쳄</w>": 5866,
  "뗐": 1042,
  "로에서</w>": 29959,
  "미네소": 21340,
  "훻": 3898,
  "1로</w>": 16109,
  "[</w>": 4644,
  "경우에</w>": 10622,
  "68": 15164,
  "문제와</w>": 16924,
  "담아": 15659,
  "골을</w>": 15614,
  "뙈": 1072,
  "임을</w>": 8552,
  "SG": 24000,
  "이원": 25247,
  "키트</w>": 26820,
  "닫는</w>": 20106,
  "보내": 7526,
  "핵을</w>": 27214,
  "인상적인</w>": 28175,
  "한은</w>": 31363,
  "Music</w>": 29466,
  "앞을</w>": 29998,
  "하소서</w>": 22841,
  "콜레": 22408,
  "Day</w>": 21469,
  "oper": 23247,
  "자료의</w>": 22433,
  "거에요</w>": 13960,
  "정보주": 23769,
  "거의</w>": 7437,
  "등기": 29502,
  "찹": 3067,
  "개그": 21175,
  "당연히</w>": 10376,
  "대중": 8796,
  "달팽": 17969,
  "상승</w>": 17862,
  "3일</w>": 10273,
  "거시": 25505,
  "뿅": 1887,
  "부분을</w>": 9912,
  "연의</w>": 16185,
  "한층</w>": 19338,
  "이력서</w>": 21713,
  "고개를</w>": 14978,
  "가속": 18267,
  "있습니다만</w>": 25911,
  "드러났다</w>": 29261,
  "중재": 19602,
  "단순": 8489,
  "겸</w>": 4848,
  "아파트</w>": 9478,
  "메일</w>": 10571,
  "나이를</w>": 28643,
  "노는</w>": 17666,
  "국민연금": 21661,
  "현재</w>": 7225,
  "유관": 31479,
  "위험에</w>": 26620,
  "가정에서</w>": 25095,
  "최소화</w>": 26800,
  "예약</w>": 8250,
  "밈</w>": 5686,
  "공을</w>": 11540,
  "종로구</w>": 21089,
  "0</w>": 4053,
  "right": 24994,
  "갏": 94,
  "나설</w>": 28360,
  "잤</w>": 6107,
  "순진한</w>": 31643,
  "spective</w>": 23295,
  "출시된</w>": 22034,
  "수련": 14343,
  "나는": 18037,
  "연구": 7155,
  "쿵": 3344,
  "공중": 17913,
  "킬": 3395,
  "투가</w>": 31362,
  "아토": 22373,
  "과연</w>": 9403,
  "Da": 14022,
  "접속이</w>": 30940,
  "직업": 9593,
  "뚯</w>": 6348,
  "파를</w>": 17037,
  "주의</w>": 7443,
  "정</w>": 4005,
  "남북": 9631,
  "가정용</w>": 24666,
  "정의를</w>": 22918,
  "퀴즈</w>": 27816,
  "자유": 7535,
  "확정된</w>": 29288,
  "뚝": 1079,
  "빌드</w>": 27778,
  "하루": 7826,
  "축구연맹</w>": 22308,
  "행복</w>": 16217,
  "깎": 356,
  "바닷": 15998,
  "바닥</w>": 16215,
  "캭</w>": 6592,
  "돕": 867,
  "도용": 24300,
  "민이</w>": 17294,
  "노선": 20069,
  "140": 21776,
  "ark</w>": 17560,
  "맛은</w>": 20855,
  "스페셜</w>": 14331,
  "코어</w>": 7678,
  "아쉽": 13112,
  "접수": 11778,
  "IBM</w>": 28956,
  "계약을</w>": 11206,
  "프로젝": 7798,
  "구조의</w>": 21398,
  "bin": 32070,
  "생계": 29254,
  "발전과</w>": 24577,
  "ech</w>": 19480,
  "쁩": 1912,
  "alth</w>": 31272,
  "떰</w>": 5678,
  "추가할</w>": 21792,
  "여행지</w>": 22231,
  "김정은": 24985,
  "뷱</w>": 6565,
  "오크": 28521,
  "적절한</w>": 10910,
  "공모전</w>": 17261,
  "조회수</w>": 22046,
  "인적": 16095,
  "칰": 3236,
  "하느": 9581,
  "근거</w>": 15076,
  "뉵</w>": 6198,
  "부적절한</w>": 32551,
  "개인정보": 8082,
  "뻠": 1843,
  "펍</w>": 5123,
  "보편": 14735,
  "해당합니다</w>": 24026,
  "토록</w>": 15142,
  "히며</w>": 14587,
  "사람과</w>": 11975,
  "포구</w>": 14533,
  "갈</w>": 4685,
  "캠핑": 16089,
  "사은품</w>": 26284,
  "1kg</w>": 27577,
  "시카고</w>": 18793,
  "흣": 3933,
  "팑": 3572,
  "ma</w>": 18262,
  "아닌데</w>": 17479,
  "mobi": 30449,
  "버튼</w>": 13746,
  "임플": 28823,
  "석과</w>": 30009,
  "분이며</w>": 21605,
  "토론": 9119,
  "좋다고</w>": 14704,
  "무라": 30744,
  "상품성의</w>": 26651,
  "사정으로</w>": 26148,
  "바꾼": 32025,
  "나가면</w>": 27886,
  "헨</w>": 5142,
  "으로서</w>": 8877,
  "함</w>": 4030,
  "등록금</w>": 32474,
  "웏": 2566,
  "토렌트</w>": 30468,
  "등이다</w>": 25710,
  "갠</w>": 5378,
  "배우가</w>": 29477,
  "황색에서</w>": 23684,
  "꿉": 479,
  "해볼": 28917,
  "눌</w>": 4962,
  "Part</w>": 18480,
  "규정하고</w>": 22188,
  "공개동영상</w>": 30925,
  "이유": 7253,
  "먼트": 27400,
  "임": 2674,
  "재배": 19546,
  "대입": 24161,
  "그러자</w>": 23201,
  "such</w>": 30711,
  "Milf</w>": 27889,
  "계약</w>": 9942,
  "저해": 30864,
  "시작되었다</w>": 26328,
  "수행</w>": 13984,
  "쨩": 2951,
  "기보다는</w>": 19095,
  "언</w>": 4484,
  "감상할</w>": 24552,
  "완벽": 8903,
  "에이</w>": 20934,
  "왭</w>": 6784,
  "압이</w>": 26856,
  "확인합니다</w>": 26130,
  "강의": 10683,
  "이슬람</w>": 25010,
  "맞춤": 11159,
  "켰</w>": 5009,
  "새해</w>": 17691,
  "체계</w>": 13804,
  "주제</w>": 14180,
  "가지만</w>": 25357,
  "엉</w>": 4648,
  "룑</w>": 6205,
  "아니한</w>": 23365,
  "평가의</w>": 30204,
  "애니메이션</w>": 13069,
  "적당한</w>": 15446,
  "롷</w>": 5743,
  "경북": 14161,
  "받은": 13058,
  "라면</w>": 8244,
  "tor": 32704,
  "M의</w>": 31240,
  "불안</w>": 23264,
  "존재할</w>": 27393,
  "아끼": 17679,
  "전략은</w>": 29394,
  "겨울</w>": 11103,
  "숙련": 28808,
  "짐승": 25810,
  "걸까요</w>": 20739,
  "잍</w>": 6093,
  "성인": 9884,
  "순환": 13540,
  "주간": 17848,
  "살아남": 22456,
  "퐝": 3653,
  "대체할</w>": 31039,
  "받을</w>": 7784,
  "긋</w>": 4791,
  "코딩": 16509,
  "ety</w>": 26672,
  "도모": 21715,
  "늘어난</w>": 26404,
  "뮈</w>": 5154,
  "일부터</w>": 8413,
  "럣": 1173,
  "있었죠</w>": 28136,
  "Win": 19657,
  "Soc": 20908,
  "웽": 2594,
  "얼굴": 8231,
  "사무실</w>": 12555,
  "미디어의</w>": 24593,
  "혓</w>": 6374,
  "자라": 14350,
  "싱</w>": 4293,
  "지식이</w>": 20108,
  "늙": 727,
  "제공합니다</w>": 8648,
  "포르</w>": 15833,
  "귱": 308,
  "만남</w>": 13567,
  "까다로운</w>": 32180,
  "사진": 7269,
  "ear": 10275,
  "화</w>": 4072,
  "뗫": 1049,
  "부작용이</w>": 29457,
  "나야</w>": 30930,
  "쩌": 2959,
  "주장</w>": 18204,
  "경우엔</w>": 28524,
  "내달</w>": 28560,
  "성도착</w>": 26255,
  "엘</w>": 4438,
  "소개해": 23480,
  "법으로</w>": 15714,
  "인적자원": 25716,
  "금메": 16181,
  "볓</w>": 5509,
  "P": 40,
  "이자": 19566,
  "필요하고</w>": 29802,
  "멕시코": 17890,
  "진한</w>": 14807,
  "마무리": 13285,
  "융합": 14796,
  "2주간</w>": 10343,
  "환경에서</w>": 15034,
  "처벌": 11901,
  "밋</w>": 5057,
  "개인정보관리": 21095,
  "핍": 3716,
  "들과는</w>": 24934,
  "프란시스": 14351,
  "빠져": 11533,
  "부티크</w>": 32588,
  "영장</w>": 32419,
  "회의는</w>": 31575,
  "화면을</w>": 15008,
  "이사</w>": 10807,
  "조선</w>": 12023,
  "거라고</w>": 13080,
  "스트리트</w>": 21117,
  "11</w>": 7730,
  "숀": 2070,
  "감안하면</w>": 32296,
  "선생님은</w>": 26747,
  "선택해야</w>": 29173,
  "그릇": 15207,
  "텓</w>": 6517,
  "Ret": 18407,
  "뛰어넘는</w>": 32563,
  "꽂</w>": 5689,
  "커질</w>": 31630,
  "다큐멘터리</w>": 30292,
  "풒</w>": 6853,
  "어두": 12626,
  "보시": 11170,
  "찎": 3046,
  "분야를</w>": 19169,
  "분들을</w>": 16135,
  "가르쳐</w>": 19129,
  "량은</w>": 11036,
  "해졌다</w>": 17985,
  "힐</w>": 4731,
  "자사의</w>": 29800,
  "룃": 1263,
  "비율": 20130,
  "N": 38,
  "기관에</w>": 16725,
  "이스</w>": 28250,
  "알아보는</w>": 24477,
  "곳으로</w>": 12150,
  "쾨": 3327,
  "곌": 189,
  "신규": 13783,
  "버거</w>": 22436,
  "쨌": 2941,
  "말로</w>": 8575,
  "연방</w>": 24250,
  "OS": 9240,
  "취미": 19892,
  "초부터</w>": 27039,
  "cock</w>": 22652,
  "빽</w>": 5302,
  "페이</w>": 20571,
  "방법론</w>": 29258,
  "악세": 20558,
  "메시지가</w>": 19223,
  "구나</w>": 9737,
  "무선": 12775,
  "bed</w>": 23571,
  "드러냈다</w>": 26403,
  "즐</w>": 4444,
  "곤</w>": 4549,
  "스팀</w>": 23037,
  "피는</w>": 17869,
  "빔</w>": 5108,
  "2번": 26601,
  "확인해보세요</w>": 21515,
  "년월": 19381,
  "증여": 27628,
  "청와": 10632,
  "높일</w>": 20702,
  "국방부</w>": 26736,
  "Mark": 20035,
  "k</w>": 4212,
  "특징으로</w>": 19933,
  "못한다면</w>": 31986,
  "과언이</w>": 23218,
  "주인공": 11144,
  "청구</w>": 18264,
  "복구할</w>": 15510,
  "의는</w>": 29075,
  "개최했다</w>": 28416,
  "축구</w>": 9542,
  "청계": 25002,
  "뚱</w>": 5457,
  "과대학</w>": 26377,
  "쨕": 2946,
  "친일": 27881,
  "관해</w>": 14581,
  "문화체육관광": 25212,
  "인생이</w>": 27414,
  "매일": 14767,
  "희": 3938,
  "지방": 7953,
  "소녀</w>": 8660,
  "임금": 14464,
  "촉</w>": 4298,
  "뎊": 840,
  "구조": 7820,
  "상실": 16645,
  "믕": 1556,
  "부문": 23898,
  "모래</w>": 24800,
  "탈북자</w>": 26929,
  "손으로</w>": 11765,
  "담배</w>": 16712,
  "minal</w>": 28896,
  "스마트폰으로</w>": 27900,
  "정한</w>": 7735,
  "이재": 11077,
  "에의</w>": 15177,
  "쉒": 2100,
  "바카": 10539,
  "63": 21928,
  "곹": 211,
  "슬롯": 16360,
  "7회</w>": 21082,
  "혜택이</w>": 22948,
  "위기": 15837,
  "큔</w>": 5575,
  "요구합니다</w>": 20358,
  "총무": 24204,
  "사라</w>": 30945,
  "분해</w>": 27500,
  "TXXX</w>": 20796,
  "11년</w>": 29929,
  "취급": 10643,
  "순차적으로</w>": 31172,
  "랜드</w>": 8242,
  "생활의</w>": 16395,
  "왜냐하면</w>": 12700,
  "jo": 14246,
  "더라면</w>": 21413,
  "H</w>": 4156,
  "국에서</w>": 13819,
  "장착</w>": 20878,
  "들여</w>": 17927,
  "deep": 17996,
  "쉼": 2112,
  "문재": 9231,
  "쨀": 2937,
  "절차를</w>": 13571,
  "력은</w>": 10146,
  "우리말</w>": 32730,
  "복": 1683,
  "읽을</w>": 14052,
  "긜": 333,
  "낚시</w>": 14260,
  "엶</w>": 6448,
  "제10": 23873,
  "동계올림픽</w>": 19996,
  "공단</w>": 14990,
  "독서</w>": 18832,
  "컬링</w>": 25533,
  "일반적인</w>": 11064,
  "SNS에</w>": 27696,
  "면접을</w>": 26157,
  "XXX</w>": 17995,
  "쿡</w>": 4719,
  "피안타</w>": 30751,
  "나옵니다</w>": 14892,
  "ou</w>": 11579,
  "Google": 15389,
  "워": 2563,
  "캄": 3244,
  "부작용</w>": 22147,
  "이탈리아의</w>": 30800,
  "쾅</w>": 5311,
  "ipp": 25967,
  "매거진</w>": 22025,
  "견디": 21932,
  "늅</w>": 6819,
  "이군요</w>": 26361,
  "국민": 7469,
  "율을</w>": 13287,
  "축적된</w>": 12940,
  "라즈": 30648,
  "올라</w>": 12141,
  "가들이</w>": 24069,
  "꼰</w>": 5803,
  "야채</w>": 29965,
  "rom</w>": 15205,
  "빋": 1788,
  "음료": 16902,
  "매매</w>": 15321,
  "Amazon</w>": 17188,
  "이중</w>": 17236,
  "즐기기</w>": 27242,
  "비행</w>": 19801,
  "했던</w>": 7266,
  "즐거운</w>": 9979,
  "퍼포먼": 16860,
  "모르겠다</w>": 14319,
  "객실은</w>": 20104,
  "로워": 20897,
  "댑</w>": 5589,
  "횰</w>": 5508,
  "동의한</w>": 32737,
  "기간</w>": 7791,
  "System</w>": 18003,
  "사람은</w>": 7956,
  "단계를</w>": 16080,
  "환자": 14709,
  "품격</w>": 28825,
  "Pod</w>": 31669,
  "논": 647,
  "3년": 11457,
  "앗": 2346,
  "솥</w>": 4629,
  "화폐": 13771,
  "죽이": 32202,
  "비해서</w>": 25138,
  "론적</w>": 23064,
  "정상회담": 11190,
  "백과</w>": 9662,
  "것을</w>": 7017,
  "CF</w>": 26365,
  "보장": 8908,
  "여중": 30634,
  "요인이</w>": 24540,
  "네이": 7880,
  "진정한</w>": 10773,
  "당신에게</w>": 17463,
  "다녀": 9975,
  "블루</w>": 12018,
  "세이브": 28050,
  "분야의</w>": 12457,
  "첯": 3116,
  "떅": 1013,
  "라이브스코어</w>": 20087,
  "1개</w>": 8972,
  "룡": 1276,
  "의심": 12094,
  "대한통운</w>": 32433,
  "텍스트를</w>": 27707,
  "윳</w>": 5614,
  "Black</w>": 19928,
  "18</w>": 8167,
  "읓": 2646,
  "쳬</w>": 5741,
  "마침</w>": 18092,
  "그러고</w>": 21029,
  "만들": 7131,
  "세로</w>": 14321,
  "분석</w>": 7310,
  "외국어</w>": 24281,
  "밤</w>": 4448,
  "메모</w>": 27481,
  "알바</w>": 18419,
  "해준다</w>": 16167,
  "깨닫게</w>": 20883,
  "나무는</w>": 30994,
  "자에게는</w>": 26319,
  "K리그</w>": 30460,
  "장치에</w>": 27506,
  "안타까운</w>": 23546,
  "쒸": 2286,
  "case</w>": 26576,
  "경찰청</w>": 25237,
  "더니</w>": 9050,
  "증을</w>": 10090,
  "웝": 2577,
  "우선적으로</w>": 26706,
  "븥": 1782,
  "1시간": 27822,
  "이어졌다</w>": 21809,
  "지연": 13714,
  "굘": 244,
  "이었는데</w>": 14489,
  "기하": 29311,
  "수준의</w>": 12065,
  "인지도</w>": 24048,
  "영주": 19565,
  "신문": 9892,
  "적</w>": 3971,
  "깃</w>": 4645,
  "어깨</w>": 19505,
  "된</w>": 4098,
  "우연히</w>": 15099,
  "섄": 1973,
  "세요</w>": 6997,
  "재즈</w>": 29732,
  "때문</w>": 14730,
  "범죄": 9835,
  "더욱이</w>": 23054,
  "초대</w>": 18138,
  "엮": 2441,
  "악성": 17425,
  "좋은데</w>": 21869,
  "erved</w>": 23963,
  "말해": 29274,
  "주문을</w>": 19280,
  "파나": 32612,
  "욲</w>": 5670,
  "석에</w>": 22648,
  "세균": 23191,
  "택시</w>": 15512,
  "정렬": 21002,
  "손상": 14772,
  "정식으로</w>": 28648,
  "AR</w>": 15225,
  "거나</w>": 7056,
  "SA": 12111,
  "압도": 15606,
  "대금</w>": 24897,
  "만들어야</w>": 19981,
  "22": 7897,
  "폰</w>": 4496,
  "인권": 10373,
  "페미니즘</w>": 32107,
  "뗀": 1037,
  "안전": 7409,
  "회색으로</w>": 22744,
  "구매</w>": 8601,
  "넸</w>": 6402,
  "중지</w>": 20242,
  "방이</w>": 12390,
  "룰</w>": 4637,
  "역사</w>": 8889,
  "CSS": 32069,
  "옴": 2482,
  "2003</w>": 21624,
  "쓰리</w>": 20493,
  "무방": 25143,
  "단계에</w>": 21181,
  "이야기하고</w>": 28894,
  "김기": 14116,
  "상식": 19838,
  "Mic": 10359,
  "used</w>": 25818,
  "믿을</w>": 13613,
  "보고가네요</w>": 22006,
  "바람</w>": 11996,
  "욤</w>": 4693,
  "계</w>": 4119,
  "정은</w>": 8596,
  "조합원</w>": 32579,
  "인데요</w>": 10766,
  "배워": 16300,
  "전에</w>": 7175,
  "2페이지</w>": 10233,
  "네": 610,
  "뀔": 503,
  "서브</w>": 29073,
  "부스타빗": 8742,
  "표현의</w>": 25896,
  "제주시</w>": 30346,
  "CF": 19162,
  "헌법": 15032,
  "죔": 2817,
  "킁</w>": 5347,
  "괯": 231,
  "컥</w>": 5618,
  "비타민": 16640,
  "인프라</w>": 19164,
  "Dan": 27301,
  "가족</w>": 8341,
  "아줌마</w>": 16652,
  "법원</w>": 21449,
  "여겨": 14655,
  "마이크로</w>": 18772,
  "로보": 28646,
  "홈</w>": 4487,
  "개입</w>": 19744,
  "대립": 19601,
  "우려가</w>": 17026,
  "객실이</w>": 13651,
  "이라니</w>": 26259,
  "Di": 12205,
  "안전성</w>": 25926,
  "병역": 22452,
  "사이즈침대</w>": 14458,
  "벌어진</w>": 19371,
  "정리를</w>": 25441,
  "강렬한</w>": 25411,
  "우아": 19087,
  "쯍": 3033,
  "지낸</w>": 31675,
  "어렵지</w>": 18541,
  "도망": 16720,
  "쥬": 2870,
  "쳤": 3132,
  "우와</w>": 21655,
  "츧": 3217,
  "RC</w>": 28627,
  "년의</w>": 10997,
  "고려해</w>": 21292,
  "획득한</w>": 32093,
  "스타일": 11361,
  "도전": 9250,
  "절차</w>": 12725,
  "하에</w>": 13090,
  "둡</w>": 5731,
  "짢": 2919,
  "시대에</w>": 12874,
  "없네요</w>": 19977,
  "숱": 2091,
  "병원의</w>": 26102,
  "사라졌다</w>": 31607,
  "다이어": 9658,
  "책에</w>": 17738,
  "핲</w>": 6889,
  "감이</w>": 8906,
  "맑은</w>": 19698,
  "봤을</w>": 18071,
  "뀐</w>": 5245,
  "control</w>": 24740,
  "가짜": 25775,
  "운동</w>": 8898,
  "Val": 17508,
  "꽁머니</w>": 21836,
  "뮘</w>": 5862,
  "훆": 3877,
  "대답을</w>": 24956,
  "쾌</w>": 4499,
  "허브": 19402,
  "뮌헨": 19229,
  "웁": 2554,
  "네요</w>": 7121,
  "등에서의</w>": 27723,
  "맇": 1363,
  "Social</w>": 27991,
  "조경": 28873,
  "튱": 3532,
  "차원": 22617,
  "상태</w>": 10112,
  "시행": 8775,
  "에어비앤비</w>": 20691,
  "냄</w>": 4216,
  "멸</w>": 5042,
  "쫓": 2996,
  "봤어요</w>": 25761,
  "간섭": 23913,
  "단어": 16221,
  "연결된</w>": 16199,
  "쎗": 2224,
  "막고</w>": 21850,
  "제임스</w>": 21649,
  "소셜그래프소셜그래프</w>": 18195,
  "요약</w>": 15036,
  "냐": 576,
  "맞추어</w>": 19235,
  "먿": 1417,
  "2006년</w>": 14882,
  "괸</w>": 5471,
  "재직": 23835,
  "Pr": 12745,
  "인형": 24885,
  "살면서</w>": 18842,
  "갖춰져</w>": 24391,
  "춢": 3179,
  "얏": 2383,
  "밀한</w>": 14854,
  "대표의</w>": 27756,
  "젝": 2758,
  "췍</w>": 6169,
  "만나게</w>": 18083,
  "프레젠테이": 24712,
  "롬": 1237,
  "회사의</w>": 10121,
  "뎗</w>": 6640,
  "용어</w>": 15695,
  "더</w>": 4352,
  "44</w>": 13255,
  "정부에</w>": 20384,
  "12개</w>": 25624,
  "9회": 26630,
  "종을</w>": 14755,
  "에게만</w>": 16190,
  "소주</w>": 28327,
  "세트</w>": 8914,
  "베팅</w>": 10965,
  "필요에</w>": 21359,
  "우수": 9108,
  "광복": 28675,
  "스티븐</w>": 31667,
  "셔도</w>": 12781,
  "택시를</w>": 29776,
  "경우": 7095,
  "생활은</w>": 27989,
  "짴": 2933,
  "안마</w>": 23979,
  "자격": 8584,
  "확</w>": 4597,
  "책정": 19274,
  "변경을</w>": 24859,
  "뜻으로</w>": 26828,
  "쉥</w>": 6257,
  "좦": 2810,
  "적지</w>": 15126,
  "나비": 24918,
  "남한": 22722,
  "ment</w>": 11115,
  "하네요</w>": 9676,
  "김주": 21558,
  "맣": 1384,
  "정준": 26890,
  "yt": 25519,
  "받아</w>": 8639,
  "후배</w>": 28549,
  "표현을</w>": 17523,
  "사건은</w>": 20948,
  "감을</w>": 8096,
  "트위터</w>": 13433,
  "죡": 2823,
  "없어": 11562,
  "맑</w>": 5643,
  "않았던</w>": 15182,
  "런닝": 29445,
  "KE": 17723,
  "클리어</w>": 27072,
  "비게이션</w>": 26490,
  "샊": 1950,
  "시키지</w>": 18413,
  "엄청나게</w>": 18594,
  "여기서는</w>": 23895,
  "아줌마": 30756,
  "네이트</w>": 26786,
  "배추</w>": 30464,
  "현지</w>": 10837,
  "그를</w>": 9851,
  "언": 2403,
  "찬": 3061,
  "load</w>": 18601,
  "저나</w>": 31889,
  "왐</w>": 6214,
  "교보문고에서</w>": 8836,
  "욕설": 19625,
  "선교사": 32177,
  "체중": 28262,
  "도리": 29332,
  "아픔을</w>": 27942,
  "었기</w>": 28182,
  "숼": 2094,
  "였으나</w>": 30053,
  "11시</w>": 18915,
  "되었는지</w>": 21477,
  "민주주의": 16180,
  "수시로</w>": 16620,
  "왕은</w>": 28329,
  "시험을</w>": 14751,
  "근": 313,
  "직장을</w>": 29361,
  "넉": 589,
  "언급</w>": 31394,
  "HD</w>": 9675,
  "됭": 902,
  "그림은</w>": 26759,
  "ial": 31883,
  "패키": 10030,
  "1일</w>": 7668,
  "민감": 13884,
  "거리의</w>": 26007,
  "멱</w>": 4301,
  "정재": 25849,
  "인피니": 30600,
  "멈추지</w>": 29580,
  "길래</w>": 15760,
  "이익": 9580,
  "멘</w>": 4627,
  "라운드": 17021,
  "성분이</w>": 22543,
  "읽으면</w>": 32592,
  "결승</w>": 23242,
  "ins</w>": 24601,
  "해외주문도서</w>": 29117,
  "ew": 8749,
  "fol": 24718,
  "쁘": 1907,
  "운용": 13951,
  "르</w>": 4386,
  "뫃": 1483,
  "캐시": 25157,
  "ay": 8388,
  "올리기</w>": 32409,
  "앉아": 23379,
  "inc": 14710,
  "헷</w>": 5395,
  "철": 3108,
  ":": 22,
  "스테인": 20071,
  "신차</w>": 27569,
  "에이": 7395,
  "구조</w>": 9789,
  "기출": 20451,
  "삭제": 7792,
  "1억": 17322,
  "받았던</w>": 19923,
  "예쁘게</w>": 20707,
  "그거</w>": 18302,
  "해봐야</w>": 22183,
  "한참을</w>": 29340,
  "늟": 729,
  "Tag</w>": 19347,
  "공정거래": 22349,
  "판결": 13564,
  "레디": 30675,
  "DrTuber</w>": 19518,
  "볼넷</w>": 13679,
  "정보처리": 32368,
  "36</w>": 12333,
  "추억": 11538,
  "박명": 23803,
  "네임드</w>": 30606,
  "우주": 10858,
  "담당하는</w>": 23954,
  "18년</w>": 26595,
  "사용되지</w>": 26821,
  "덤": 817,
  "첼": 3120,
  "따라</w>": 7073,
  "엎</w>": 5973,
  "뀰": 509,
  "GA</w>": 20793,
  "6년</w>": 7985,
  "살을</w>": 15926,
  "일부가</w>": 23151,
  "프로토</w>": 26067,
  "듦</w>": 5412,
  "표시</w>": 9174,
  "치면</w>": 14318,
  "맞고</w>": 15381,
  "내에서</w>": 9654,
  "FM</w>": 18075,
  "체력</w>": 30343,
  "플랜</w>": 30521,
  "상품으로</w>": 23306,
  "듈</w>": 4980,
  "사유": 9698,
  "위해</w>": 7025,
  "가치를</w>": 10867,
  "샸</w>": 6495,
  "에어컨": 20554,
  "빠</w>": 4125,
  "않아</w>": 9079,
  "사실을</w>": 8958,
  "홯": 3853,
  "듬": 956,
  "관점</w>": 21771,
  "시상": 14853,
  "시도해</w>": 19598,
  "위촉": 26571,
  "쁘</w>": 5185,
  "학문": 18245,
  "ware</w>": 27579,
  "배송": 8414,
  "학점</w>": 21146,
  "투자가</w>": 22681,
  "성과": 9841,
  "글에</w>": 16641,
  "샇": 1947,
  "치우": 26001,
  "얶</w>": 6276,
  "지정": 8915,
  "쉴": 2111,
  "유지됩니다</w>": 29342,
  "험": 3784,
  "성경의</w>": 25591,
  "고에서</w>": 8659,
  "행위를</w>": 11937,
  "학습": 8291,
  "피부를</w>": 20973,
  "성소수": 28543,
  "젝</w>": 5548,
  "Love</w>": 24381,
  "고도": 15751,
  "table</w>": 29772,
  "뭇</w>": 5306,
  "](</w>": 25843,
  "촨</w>": 5476,
  "신발": 23687,
  "스트립</w>": 18389,
  "마른</w>": 21903,
  "둠</w>": 5371,
  "쇨</w>": 6068,
  "쓰레기</w>": 17285,
  "친절하게</w>": 26416,
  "포함된다</w>": 30161,
  "슭</w>": 5021,
  "어의</w>": 10205,
  "시의</w>": 10248,
  "사이트": 7221,
  "AN</w>": 22466,
  "향상": 11126,
  "이야기로</w>": 28534,
  "줄이</w>": 20015,
  "직전</w>": 24877,
  "컨텐츠를</w>": 19510,
  "친구": 7444,
  "VPN</w>": 25222,
  "신호를</w>": 19709,
  "운동과</w>": 21054,
  "도움": 7360,
  "able</w>": 11636,
  "출석</w>": 30518,
  "비공개</w>": 23640,
  "뱌": 1621,
  "탑승</w>": 32408,
  "드리": 7339,
  "이렇게</w>": 7279,
  "적과</w>": 28700,
  "뉄</w>": 5824,
  "Blue</w>": 26381,
  "않다면</w>": 25054,
  "대단": 9983,
  "먐</w>": 6707,
  "us</w>": 9172,
  "매를</w>": 15459,
  "들어요</w>": 23696,
  "시작된다</w>": 23504,
  "동시": 21673,
  "좌석</w>": 15959,
  "재해": 28217,
  "연금</w>": 15241,
  "meth": 15260,
  "보기로</w>": 19864,
  "클라이언트": 30709,
  "능한</w>": 25520,
  "파악": 9313,
  "1회</w>": 10937,
  "책임이</w>": 16355,
  "읊": 2637,
  "문장을</w>": 23487,
  "젼": 2773,
  "웠던</w>": 14256,
  "배포": 11185,
  "되어서</w>": 13903,
  "문제</w>": 7706,
  "뮬</w>": 4879,
  "소재로</w>": 21711,
  "13일</w>": 11214,
  "물품": 19195,
  "해봅니다</w>": 26321,
  "블로그에</w>": 15775,
  "clo": 27916,
  "꽆": 443,
  "set</w>": 17471,
  "게이밍</w>": 18806,
  "무엇인가요</w>": 21268,
  "세인트</w>": 22997,
  "부인합니다</w>": 26324,
  "20년</w>": 13138,
  "수사를</w>": 24784,
  "철학의</w>": 31208,
  "콜</w>": 3992,
  "검사는</w>": 31345,
  "받았다</w>": 9361,
  "렬": 1215,
  "기도": 9331,
  "해야하는</w>": 20650,
  "비평</w>": 29253,
  "핡": 3732,
  "프로토콜</w>": 27487,
  "길에</w>": 13488,
  "to": 15040,
  "년대</w>": 10320,
  "졻": 2790,
  "기능은</w>": 14286,
  "올림": 8449,
  "이노": 18040,
  "스페": 8381,
  "아이돌</w>": 16218,
  "슉": 2118,
  "보단</w>": 18656,
  "블로그": 8368,
  "깪</w>": 5962,
  "솬": 2053,
  "의미로</w>": 20277,
  "날짜</w>": 11847,
  "정을</w>": 7195,
  "마지막에</w>": 23559,
  "ine</w>": 9106,
  "솜</w>": 5012,
  "설명은</w>": 25558,
  "블로그는</w>": 26865,
  "지옥": 16952,
  "본다면</w>": 18099,
  "힘": 3951,
  "들었을</w>": 32269,
  "냠": 580,
  "앁</w>": 6586,
  "사까시</w>": 9393,
  "굽</w>": 5019,
  "장면</w>": 13993,
  "맞습니다</w>": 22167,
  "카니": 28062,
  "억원을</w>": 20469,
  "지어": 17807,
  "지저": 26743,
  "셰</w>": 5465,
  "홀더</w>": 30910,
  "쩽": 2976,
  "소감을</w>": 24864,
  "짮": 2928,
  "땍": 1002,
  "수유": 29559,
  "븀": 1767,
  "뵜": 1724,
  "눌러</w>": 15369,
  "이번에는</w>": 12831,
  "만족을</w>": 27040,
  "시뮬레이": 28883,
  "중독": 12608,
  "는거": 28070,
  "hot": 27730,
  "지향하는</w>": 31367,
  "뜹": 1114,
  "건이</w>": 15999,
  "숫자": 27653,
  "yle</w>": 14666,
  "이용안내</w>": 27345,
  "퍼": 3604,
  "엘리베이터</w>": 27191,
  ".)</w>": 7654,
  "Power": 22410,
  "기업은</w>": 16958,
  "퉝": 3515,
  "와일": 16538,
  "뇩": 671,
  "베트": 9407,
  "뙁": 1070,
  "일기": 30465,
  "쇄": 2057,
  "시가</w>": 11258,
  "신속": 11587,
  "하드디스크": 28814,
  "시큐": 32143,
  "그러한</w>": 10639,
  "표에</w>": 26065,
  "이번엔</w>": 17380,
  "셱": 2028,
  "미사일</w>": 18423,
  "할게</w>": 31631,
  "Next</w>": 20664,
  "앴": 2364,
  "판으로</w>": 26200,
  "시련": 30157,
  "from</w>": 16749,
  "김치": 16885,
  "룍</w>": 6279,
  "숴</w>": 5595,
  "협박": 31191,
  "73": 27244,
  "욯</w>": 6179,
  "쑹</w>": 6285,
  "의식": 11491,
  "해서도</w>": 11483,
  "큄</w>": 6069,
  "제외하고는</w>": 19850,
  "버젼": 31642,
  "남자의</w>": 17486,
  "뗬": 1050,
  "케빈</w>": 29815,
  "프랜": 16590,
  "썸</w>": 4905,
  "마사지": 27467,
  "쳅": 3122,
  "국립</w>": 23149,
  "입시": 25289,
  "썪</w>": 6311,
  "밝혀졌다</w>": 31290,
  "소프트웨어를</w>": 19360,
  "전반적인</w>": 16979,
  "앎</w>": 4588,
  "역시</w>": 7425,
  "주의사항</w>": 26834,
  "적어</w>": 20188,
  "법인의</w>": 32026,
  "펨": 3620,
  "롯데": 10039,
  "공개했다</w>": 18457,
  "넙</w>": 5439,
  "ip": 10727,
  "귕": 300,
  "만다</w>": 26794,
  "저작권법</w>": 28014,
  "희망이</w>": 25791,
  "직무": 12084,
  "받고</w>": 7715,
  "110</w>": 26765,
  "바르": 11143,
  "대회": 12234,
  "거기": 11430,
  "꽁": 439,
  "교육지원": 27746,
  "김일": 21033,
  "않았다</w>": 8059,
  "View": 27999,
  "제2의</w>": 26882,
  "이용하실</w>": 9488,
  "열린</w>": 8783,
  "청사</w>": 27755,
  "2의</w>": 17507,
  "컨설턴": 24068,
  "철저한</w>": 19997,
  "태평양</w>": 24376,
  "탑재</w>": 30908,
  "시도</w>": 13692,
  "여기저기</w>": 20947,
  "지시": 14280,
  "브랜드를</w>": 23300,
  "부엌</w>": 22315,
  "cep": 31903,
  "lot": 26971,
  "PVC</w>": 27964,
  "십대</w>": 13082,
  "음식": 7815,
  "충격을</w>": 18531,
  "테러</w>": 23391,
  "짘</w>": 6618,
  "질문이</w>": 20346,
  "궲": 285,
  "비로</w>": 16730,
  "..)</w>": 17118,
  "꺽</w>": 4948,
  "allery</w>": 32598,
  "편향": 29943,
  "언덕": 25386,
  "-": 9,
  "3개</w>": 11592,
  "상징": 12110,
  "함께": 9080,
  "SSD</w>": 19632,
  "천": 3105,
  "ush</w>": 31299,
  "묏": 1496,
  "집중하고</w>": 29507,
  "사용</w>": 7514,
  "푸짐": 30639,
  "뵤": 1725,
  "무늬": 20790,
  "hamster</w>": 27492,
  "대구": 9640,
  "판문": 18529,
  "에어": 8896,
  "실험을</w>": 18664,
  "산업의</w>": 12338,
  "트와</w>": 11703,
  "노동자": 24096,
  "ment": 19055,
  "파트</w>": 27321,
  "뻐": 1837,
  "타인": 26155,
  "핍</w>": 5455,
  "치를</w>": 7720,
  "42": 16827,
  "wor": 10661,
  "걸리는</w>": 17465,
  "램": 1155,
  "의정부": 27018,
  "시설에는</w>": 28368,
  "꺵</w>": 5399,
  "평소에</w>": 18022,
  "주의를</w>": 11591,
  "오르고</w>": 22144,
  "벗어난</w>": 26038,
  "북부</w>": 25107,
[...]
